{
  "<unk>": 0,
  "<pad>": 1,
  " ": 3,
  "!": 4,
  "\"": 5,
  "#": 6,
  "$": 7,
  "%": 8,
  "&": 9,
  "'": 10,
  "(": 11,
  ")": 12,
  "*": 13,
  "+": 14,
  ",": 15,
  "-": 16,
  ".": 17,
  "/": 18,
  "0": 19,
  "1": 20,
  "2": 21,
  "3": 22,
  "4": 23,
  "5": 24,
  "6": 25,
  "7": 26,
  "8": 27,
  "9": 28,
  ":": 29,
  ";": 30,
  "<": 31,
  "=": 32,
  "?": 33,
  "@": 34,
  "A": 35,
  "B": 36,
  "C": 37,
  "D": 38,
  "E": 39,
  "F": 40,
  "G": 41,
  "H": 42,
  "I": 43,
  "J": 44,
  "K": 45,
  "L": 46,
  "M": 47,
  "N": 48,
  "O": 49,
  "P": 50,
  "Q": 51,
  "R": 52,
  "S": 53,
  "T": 54,
  "U": 55,
  "V": 56,
  "W": 57,
  "X": 58,
  "Y": 59,
  "Z": 60,
  "[": 61,
  "]": 62,
  "^": 63,
  "a": 64,
  "b": 65,
  "c": 66,
  "d": 67,
  "e": 68,
  "f": 69,
  "g": 70,
  "h": 71,
  "i": 72,
  "j": 73,
  "k": 74,
  "l": 75,
  "m": 76,
  "n": 77,
  "o": 78,
  "p": 79,
  "q": 80,
  "r": 81,
  "s": 82,
  "t": 83,
  "u": 84,
  "v": 85,
  "w": 86,
  "x": 87,
  "y": 88,
  "z": 89,
  "~": 90,
  "£": 91,
  "°": 92,
  "²": 93,
  "µ": 94,
  "º": 95,
  "Ä": 96,
  "Å": 97,
  "Æ": 98,
  "Ñ": 99,
  "Ö": 100,
  "ß": 101,
  "á": 102,
  "ä": 103,
  "å": 104,
  "è": 105,
  "é": 106,
  "í": 107,
  "ñ": 108,
  "ó": 109,
  "ô": 110,
  "ö": 111,
  "ú": 112,
  "ü": 113,
  "ā": 114,
  "ą": 115,
  "ć": 116,
  "č": 117,
  "đ": 118,
  "ę": 119,
  "ğ": 120,
  "Ł": 121,
  "ł": 122,
  "ń": 123,
  "Ō": 124,
  "ō": 125,
  "ś": 126,
  "Š": 127,
  "š": 128,
  "ū": 129,
  "ź": 130,
  "Ż": 131,
  "ż": 132,
  "ɪ": 133,
  "ή": 134,
  "ί": 135,
  "α": 136,
  "β": 137,
  "δ": 138,
  "θ": 139,
  "ι": 140,
  "μ": 141,
  "ν": 142,
  "ο": 143,
  "ς": 144,
  "σ": 145,
  "τ": 146,
  "χ": 147,
  "ό": 148,
  "К": 149,
  "а": 150,
  "в": 151,
  "з": 152,
  "й": 153,
  "к": 154,
  "н": 155,
  "р": 156,
  "с": 157,
  "ы": 158,
  "إ": 159,
  "ت": 160,
  "ث": 161,
  "د": 162,
  "س": 163,
  "م": 164,
  "ي": 165,
  "ก": 166,
  "ค": 167,
  "ง": 168,
  "ช": 169,
  "ซ": 170,
  "ญ": 171,
  "ฐ": 172,
  "ณ": 173,
  "ด": 174,
  "ต": 175,
  "บ": 176,
  "ป": 177,
  "พ": 178,
  "ภ": 179,
  "ม": 180,
  "ย": 181,
  "ร": 182,
  "ล": 183,
  "ว": 184,
  "ศ": 185,
  "ษ": 186,
  "ส": 187,
  "ห": 188,
  "อ": 189,
  "ั": 190,
  "า": 191,
  "ิ": 192,
  "ี": 193,
  "ึ": 194,
  "เ": 195,
  "แ": 196,
  "ไ": 197,
  "็": 198,
  "่": 199,
  "้": 200,
  "๊": 201,
  "์": 202,
  "ḏ": 203,
  "ṯ": 204,
  "ἀ": 205,
  "ἰ": 206,
  "–": 207,
  "—": 208,
  "‘": 209,
  "’": 210,
  "“": 211,
  "”": 212,
  "†": 213,
  "‡": 214,
  "…": 215,
  "₤": 216,
  "₹": 217,
  "→": 218,
  "−": 219,
  "い": 220,
  "う": 221,
  "か": 222,
  "が": 223,
  "き": 224,
  "く": 225,
  "し": 226,
  "た": 227,
  "つ": 228,
  "な": 229,
  "の": 230,
  "め": 231,
  "も": 232,
  "ら": 233,
  "ァ": 234,
  "ア": 235,
  "キ": 236,
  "ュ": 237,
  "リ": 238,
  "ル": 239,
  "ヴ": 240,
  "乙": 241,
  "光": 242,
  "名": 243,
  "君": 244,
  "命": 245,
  "咲": 246,
  "場": 247,
  "女": 248,
  "戦": 249,
  "灯": 250,
  "瘡": 251,
  "花": 252,
  "誓": 253,
  "誰": 254,
  "赤": 255,
  "運": 256,
  "銃": 257,
  "願": 258,
  "３": 259,
  "�": 260,
  "th": 260,
  "in": 261,
  "er": 262,
  "an": 263,
  "the": 264,
  "on": 265,
  "ed": 266,
  "or": 267,
  "at": 268,
  "re": 269,
  "en": 270,
  "al": 271,
  "ar": 272,
  "as": 273,
  "is": 274,
  "of": 275,
  "es": 276,
  "and": 277,
  "ing": 278,
  "it": 279,
  "to": 280,
  "ic": 281,
  "ro": 282,
  "ion": 283,
  "st": 284,
  "he": 285,
  "ou": 286,
  "le": 287,
  "ent": 288,
  "ac": 289,
  "se": 290,
  "il": 291,
  "ol": 292,
  "ad": 293,
  "for": 294,
  "am": 295,
  "om": 296,
  "was": 297,
  "ly": 298,
  "be": 299,
  "ch": 300,
  "ir": 301,
  "ur": 302,
  "de": 303,
  "im": 304,
  "ve": 305,
  "un": 306,
  "ter": 307,
  "ith": 308,
  "The": 309,
  "ation": 310,
  "ow": 311,
  "ig": 312,
  "ay": 313,
  "wh": 314,
  "with": 315,
  "ver": 316,
  "that": 317,
  "ct": 318,
  "con": 319,
  "um": 320,
  "ere": 321,
  "ce": 322,
  "ul": 323,
  "ot": 324,
  "ag": 325,
  "el": 326,
  "id": 327,
  "by": 328,
  "et": 329,
  "ap": 330,
  "ut": 331,
  "his": 332,
  "us": 333,
  "pl": 334,
  "19": 335,
  "tr": 336,
  "pro": 337,
  "em": 338,
  "ers": 339,
  "res": 340,
  "ain": 341,
  "lo": 342,
  "com": 343,
  "sh": 344,
  "In": 345,
  "all": 346,
  "ies": 347,
  "su": 348,
  "od": 349,
  "ist": 350,
  "were": 351,
  "rom": 352,
  "ab": 353,
  "00": 354,
  "est": 355,
  "ord": 356,
  "ear": 357,
  "po": 358,
  "iv": 359,
  "ate": 360,
  "are": 361,
  "from": 362,
  "ish": 363,
  "art": 364,
  "per": 365,
  "ex": 366,
  "ant": 367,
  "so": 368,
  "end": 369,
  "ated": 370,
  "igh": 371,
  "ther": 372,
  "ich": 373,
  "pe": 374,
  "li": 375,
  "oun": 376,
  "ber": 377,
  "ort": 378,
  "ew": 379,
  "ri": 380,
  "man": 381,
  "ak": 382,
  "te": 383,
  "af": 384,
  "ment": 385,
  "rit": 386,
  "gh": 387,
  "av": 388,
  "ong": 389,
  "ld": 390,
  "cl": 391,
  "ard": 392,
  "ess": 393,
  "ame": 394,
  "di": 395,
  "ity": 396,
  "had": 397,
  "ill": 398,
  "und": 399,
  "pt": 400,
  "act": 401,
  "own": 402,
  "ive": 403,
  "which": 404,
  "one": 405,
  "out": 406,
  "co": 407,
  "mo": 408,
  "qu": 409,
  "Ch": 410,
  "ial": 411,
  "ip": 412,
  "ack": 413,
  "pr": 414,
  "her": 415,
  "ru": 416,
  "our": 417,
  "not": 418,
  "port": 419,
  "ian": 420,
  "ary": 421,
  "ass": 422,
  "up": 423,
  "ave": 424,
  "ition": 425,
  "tw": 426,
  "ight": 427,
  "ine": 428,
  "ide": 429,
  "int": 430,
  "ud": 431,
  "og": 432,
  "ork": 433,
  "if": 434,
  "ge": 435,
  "ck": 436,
  "but": 437,
  "air": 438,
  "form": 439,
  "over": 440,
  "also": 441,
  "20": 442,
  "its": 443,
  "ia": 444,
  "their": 445,
  "tim": 446,
  "ction": 447,
  "du": 448,
  "fir": 449,
  "ran": 450,
  "ast": 451,
  "op": 452,
  "ach": 453,
  "ical": 454,
  "St": 455,
  "ign": 456,
  "ore": 457,
  "fe": 458,
  "uring": 459,
  "200": 460,
  "aw": 461,
  "ev": 462,
  "He": 463,
  "play": 464,
  "att": 465,
  "ous": 466,
  "bo": 467,
  "ould": 468,
  "part": 469,
  "ne": 470,
  "bl": 471,
  "ound": 472,
  "sc": 473,
  "ations": 474,
  "rec": 475,
  "oll": 476,
  "pres": 477,
  "ome": 478,
  "ure": 479,
  "Th": 480,
  "old": 481,
  "who": 482,
  "ater": 483,
  "vi": 484,
  "ue": 485,
  "has": 486,
  "ities": 487,
  "ust": 488,
  "first": 489,
  "ark": 490,
  "pos": 491,
  "other": 492,
  "ited": 493,
  "ult": 494,
  "ough": 495,
  "ll": 496,
  "ser": 497,
  "bum": 498,
  "dis": 499,
  "cre": 500,
  "ans": 501,
  "this": 502,
  "ke": 503,
  "god": 504,
  "mon": 505,
  "two": 506,
  "age": 507,
  "album": 508,
  "ory": 509,
  "fer": 510,
  "ell": 511,
  "ree": 512,
  "ph": 513,
  "have": 514,
  "she": 515,
  "cont": 516,
  "Ar": 517,
  "ence": 518,
  "ok": 519,
  "ason": 520,
  "been": 521,
  "201": 522,
  "oc": 523,
  "An": 524,
  "Un": 525,
  "ugh": 526,
  "year": 527,
  "gro": 528,
  "after": 529,
  "ally": 530,
  "des": 531,
  "ade": 532,
  "ile": 533,
  "gr": 534,
  "ordan": 535,
  "pre": 536,
  "me": 537,
  "It": 538,
  "ind": 539,
  "Jordan": 540,
  "fl": 541,
  "fic": 542,
  "time": 543,
  "ite": 544,
  "Pol": 545,
  "red": 546,
  "cent": 547,
  "sing": 548,
  "use": 549,
  "ced": 550,
  "arch": 551,
  "ship": 552,
  "ted": 553,
  "land": 554,
  "ron": 555,
  "Sh": 556,
  "main": 557,
  "comm": 558,
  "under": 559,
  "cted": 560,
  "ning": 561,
  "during": 562,
  "olog": 563,
  "leas": 564,
  "ions": 565,
  "18": 566,
  "ents": 567,
  "ilm": 568,
  "ance": 569,
  "being": 570,
  "inter": 571,
  "reg": 572,
  "Brit": 573,
  "ubl": 574,
  "more": 575,
  "they": 576,
  "als": 577,
  "incl": 578,
  "season": 579,
  "though": 580,
  "work": 581,
  "rough": 582,
  "ren": 583,
  "able": 584,
  "Re": 585,
  "ie": 586,
  "ters": 587,
  "ins": 588,
  "record": 589,
  "ret": 590,
  "vers": 591,
  "cess": 592,
  "cond": 593,
  "Ro": 594,
  "most": 595,
  "les": 596,
  "iz": 597,
  "ces": 598,
  "cons": 599,
  "publ": 600,
  "Fe": 601,
  "fin": 602,
  "gan": 603,
  "app": 604,
  "str": 605,
  "into": 606,
  "comp": 607,
  "min": 608,
  "ating": 609,
  "ire": 610,
  "releas": 611,
  "ered": 612,
  "ten": 613,
  "ied": 614,
  "ved": 615,
  "ild": 616,
  "Se": 617,
  "no": 618,
  "cr": 619,
  "ned": 620,
  "ail": 621,
  "film": 622,
  "my": 623,
  "them": 624,
  "present": 625,
  "ts": 626,
  "je": 627,
  "used": 628,
  "owing": 629,
  "we": 630,
  "ular": 631,
  "De": 632,
  "ace": 633,
  "spe": 634,
  "him": 635,
  "ick": 636,
  "go": 637,
  "includ": 638,
  "would": 639,
  "fore": 640,
  "sk": 641,
  "ice": 642,
  "sy": 643,
  "usic": 644,
  "sel": 645,
  "heel": 646,
  "ae": 647,
  "ener": 648,
  "Wheel": 649,
  "ors": 650,
  "ons": 651,
  "ings": 652,
  "gods": 653,
  "Town": 654,
  "ower": 655,
  "came": 656,
  "No": 657,
  "only": 658,
  "many": 659,
  "Wheeler": 660,
  "ble": 661,
  "cial": 662,
  "ony": 663,
  "ull": 664,
  "pol": 665,
  "ates": 666,
  "num": 667,
  "ational": 668,
  "game": 669,
  "Ger": 670,
  "new": 671,
  "some": 672,
  "high": 673,
  "point": 674,
  "ty": 675,
  "ever": 676,
  "mer": 677,
  "way": 678,
  "British": 679,
  "pers": 680,
  "four": 681,
  "bas": 682,
  "orth": 683,
  "aft": 684,
  "ra": 685,
  "three": 686,
  "gy": 687,
  "As": 688,
  "son": 689,
  "mber": 690,
  "ci": 691,
  "song": 692,
  "sion": 693,
  "vis": 694,
  "199": 695,
  "United": 696,
  "aeolog": 697,
  "through": 698,
  "ored": 699,
  "ang": 700,
  "team": 701,
  "second": 702,
  "ards": 703,
  "ject": 704,
  "ath": 705,
  "ished": 706,
  "writ": 707,
  "ames": 708,
  "where": 709,
  "char": 710,
  "rel": 711,
  "bers": 712,
  "ict": 713,
  "send": 714,
  "York": 715,
  "Polish": 716,
  "Al": 717,
  "while": 718,
  "cer": 719,
  "then": 720,
  "state": 721,
  "She": 722,
  "iel": 723,
  "ele": 724,
  "os": 725,
  "ann": 726,
  "any": 727,
  "ped": 728,
  "ake": 729,
  "ured": 730,
  "ars": 731,
  "deities": 732,
  "such": 733,
  "ident": 734,
  "een": 735,
  "Chr": 736,
  "Townsend": 737,
  "ollowing": 738,
  "dr": 739,
  "tern": 740,
  "reat": 741,
  "about": 742,
  "outh": 743,
  "including": 744,
  "again": 745,
  "car": 746,
  "arm": 747,
  "ired": 748,
  "On": 749,
  "later": 750,
  "dition": 751,
  "made": 752,
  "hist": 753,
  "illion": 754,
  "aking": 755,
  "than": 756,
  "ious": 757,
  "Egy": 758,
  "series": 759,
  "orld": 760,
  "En": 761,
  "position": 762,
  "led": 763,
  "when": 764,
  "mem": 765,
  "produ": 766,
  "ft": 767,
  "ican": 768,
  "ose": 769,
  "action": 770,
  "aid": 771,
  "Indi": 772,
  "sed": 773,
  "lead": 774,
  "ported": 775,
  "mas": 776,
  "Egypt": 777,
  "ting": 778,
  "do": 779,
  "war": 780,
  "stru": 781,
  "sp": 782,
  "day": 783,
  "met": 784,
  "mis": 785,
  "German": 786,
  "ca": 787,
  "tain": 788,
  "before": 789,
  "ton": 790,
  "ics": 791,
  "clo": 792,
  "sur": 793,
  "ob": 794,
  "number": 795,
  "ution": 796,
  "kn": 797,
  "represent": 798,
  "ball": 799,
  "back": 800,
  "remain": 801,
  "Com": 802,
  "public": 803,
  "sign": 804,
  "ily": 805,
  "both": 806,
  "ost": 807,
  "ef": 808,
  "der": 809,
  "Christ": 810,
  "million": 811,
  "offic": 812,
  "ording": 813,
  "cording": 814,
  "Le": 815,
  "nment": 816,
  "overnment": 817,
  "following": 818,
  "si": 819,
  "long": 820,
  "oper": 821,
  "loc": 822,
  "sub": 823,
  "these": 824,
  "ists": 825,
  "oh": 826,
  "cho": 827,
  "can": 828,
  "au": 829,
  "arg": 830,
  "sever": 831,
  "King": 832,
  "ying": 833,
  "ual": 834,
  "well": 835,
  "antim": 836,
  "Fey": 837,
  "ute": 838,
  "ens": 839,
  "there": 840,
  "Bl": 841,
  "ised": 842,
  "ived": 843,
  "ma": 844,
  "vol": 845,
  "eng": 846,
  "br": 847,
  "ivers": 848,
  "ument": 849,
  "Wh": 850,
  "music": 851,
  "isted": 852,
  "like": 853,
  "addition": 854,
  "ond": 855,
  "ral": 856,
  "ale": 857,
  "tween": 858,
  "between": 859,
  "years": 860,
  "orn": 861,
  "craft": 862,
  "king": 863,
  "struction": 864,
  "ield": 865,
  "At": 866,
  "ilding": 867,
  "uilding": 868,
  "pted": 869,
  "ving": 870,
  "released": 871,
  "ah": 872,
  "contin": 873,
  "aining": 874,
  "appear": 875,
  "vent": 876,
  "ption": 877,
  "began": 878,
  "fter": 879,
  "After": 880,
  "ific": 881,
  "ared": 882,
  "early": 883,
  "Cl": 884,
  "ground": 885,
  "oring": 886,
  "feat": 887,
  "ures": 888,
  "iving": 889,
  "ful": 890,
  "set": 891,
  "tle": 892,
  "ste": 893,
  "ination": 894,
  "coun": 895,
  "II": 896,
  "var": 897,
  "could": 898,
  "mi": 899,
  "aving": 900,
  "During": 901,
  "plan": 902,
  "became": 903,
  "win": 904,
  "ested": 905,
  "ctor": 906,
  "members": 907,
  "ss": 908,
  "az": 909,
  "event": 910,
  "hum": 911,
  "side": 912,
  "This": 913,
  "alled": 914,
  "lying": 915,
  "charac": 916,
  "vision": 917,
  "ement": 918,
  "archaeolog": 919,
  "ffer": 920,
  "fferent": 921,
  "different": 922,
  "ry": 923,
  "oy": 924,
  "ug": 925,
  "ai": 926,
  "oot": 927,
  "ets": 928,
  "gun": 929,
  "head": 930,
  "sm": 931,
  "ury": 932,
  "scored": 933,
  "Egyptian": 934,
  "dire": 935,
  "rece": 936,
  "ext": 937,
  "ending": 938,
  "ek": 939,
  "suc": 940,
  "stated": 941,
  "construction": 942,
  "ctions": 943,
  "cri": 944,
  "quent": 945,
  "gold": 946,
  "antimony": 947,
  "operations": 948,
  "ise": 949,
  "off": 950,
  "class": 951,
  "ash": 952,
  "oted": 953,
  "ety": 954,
  "retur": 955,
  "thing": 956,
  "ven": 957,
  "aged": 958,
  "ative": 959,
  "noted": 960,
  "ession": 961,
  "med": 962,
  "cover": 963,
  "formation": 964,
  "alk": 965,
  "field": 966,
  "igin": 967,
  "using": 968,
  "peri": 969,
  "known": 970,
  "Con": 971,
  "col": 972,
  "several": 973,
  "dam": 974,
  "government": 975,
  "sent": 976,
  "chool": 977,
  "late": 978,
  "stit": 979,
  "aircraft": 980,
  "velo": 981,
  "ision": 982,
  "design": 983,
  "trans": 984,
  "anding": 985,
  "ime": 986,
  "Christmas": 987,
  "ships": 988,
  "otion": 989,
  "doll": 990,
  "avation": 991,
  "cavation": 992,
  "lay": 993,
  "ments": 994,
  "crit": 995,
  "found": 996,
  "dec": 997,
  "building": 998,
  "bro": 999,
  "success": 1000,
  "idered": 1001,
  "considered": 1002,
  "light": 1003,
  "production": 1004,
  "ended": 1005,
  "ized": 1006,
  "cur": 1007,
  "For": 1008,
  "thers": 1009,
  "000": 1010,
  "reported": 1011,
  "ient": 1012,
  "region": 1013,
  "la": 1014,
  "ening": 1015,
  "ulation": 1016,
  "ines": 1017,
  "eneral": 1018,
  "owever": 1019,
  "pointed": 1020,
  "scoring": 1021,
  "adition": 1022,
  "tradition": 1023,
  "excavation": 1024,
  "develo": 1025,
  "May": 1026,
  "ople": 1027,
  "atch": 1028,
  "gl": 1029,
  "Joh": 1030,
  "All": 1031,
  "ivities": 1032,
  "soci": 1033,
  "ague": 1034,
  "origin": 1035,
  "ided": 1036,
  "ivate": 1037,
  "sis": 1038,
  "activities": 1039,
  "Univers": 1040,
  "ferred": 1041,
  "against": 1042,
  "isting": 1043,
  "ined": 1044,
  "hal": 1045,
  "try": 1046,
  "aries": 1047,
  "ones": 1048,
  "itted": 1049,
  "ising": 1050,
  "cut": 1051,
  "ittle": 1052,
  "ural": 1053,
  "plac": 1054,
  "ping": 1055,
  "appeared": 1056,
  "sequent": 1057,
  "appointed": 1058,
  "went": 1059,
  "Nove": 1060,
  "ern": 1061,
  "said": 1062,
  "iting": 1063,
  "located": 1064,
  "John": 1065,
  "Col": 1066,
  "ofession": 1067,
  "hy": 1068,
  "bed": 1069,
  "mil": 1070,
  "imited": 1071,
  "limited": 1072,
  "ides": 1073,
  "rang": 1074,
  "ring": 1075,
  "sociation": 1076,
  "profession": 1077,
  "descri": 1078,
  "contr": 1079,
  "War": 1080,
  "played": 1081,
  "ple": 1082,
  "sol": 1083,
  "ism": 1084,
  "itions": 1085,
  "wo": 1086,
  "fle": 1087,
  "cting": 1088,
  "ention": 1089,
  "version": 1090,
  "flying": 1091,
  "cult": 1092,
  "apping": 1093,
  "iva": 1094,
  "monument": 1095,
  "making": 1096,
  "leading": 1097,
  "Amer": 1098,
  "officers": 1099,
  "round": 1100,
  "Union": 1101,
  "New": 1102,
  "training": 1103,
  "writing": 1104,
  "covered": 1105,
  "iding": 1106,
  "reaction": 1107,
  "pment": 1108,
  "November": 1109,
  "ress": 1110,
  "tion": 1111,
  "having": 1112,
  "buted": 1113,
  "created": 1114,
  "Ac": 1115,
  "According": 1116,
  "coming": 1117,
  "Be": 1118,
  "arted": 1119,
  "small": 1120,
  "Cent": 1121,
  "cation": 1122,
  "gg": 1123,
  "line": 1124,
  "wing": 1125,
  "Shiva": 1126,
  "urt": 1127,
  "power": 1128,
  "sup": 1129,
  "project": 1130,
  "track": 1131,
  "standing": 1132,
  "ission": 1133,
  "ering": 1134,
  "cing": 1135,
  "Oc": 1136,
  "ling": 1137,
  "ament": 1138,
  "iate": 1139,
  "down": 1140,
  "players": 1141,
  "ories": 1142,
  "five": 1143,
  "cause": 1144,
  "vel": 1145,
  "others": 1146,
  "care": 1147,
  "aying": 1148,
  "same": 1149,
  "lar": 1150,
  "although": 1151,
  "anted": 1152,
  "hel": 1153,
  "ase": 1154,
  "leg": 1155,
  "levision": 1156,
  "television": 1157,
  "ince": 1158,
  "partment": 1159,
  "icated": 1160,
  "history": 1161,
  "ado": 1162,
  "operation": 1163,
  "Air": 1164,
  "illo": 1165,
  "development": 1166,
  "book": 1167,
  "imated": 1168,
  "characters": 1169,
  "ves": 1170,
  "tered": 1171,
  "place": 1172,
  "oman": 1173,
  "partic": 1174,
  "did": 1175,
  "actions": 1176,
  "called": 1177,
  "started": 1178,
  "ather": 1179,
  "fam": 1180,
  "station": 1181,
  "result": 1182,
  "subsequent": 1183,
  "relation": 1184,
  "jillo": 1185,
  "rujillo": 1186,
  "Trujillo": 1187,
  "tom": 1188,
  "batt": 1189,
  "ilities": 1190,
  "Ad": 1191,
  "State": 1192,
  "away": 1193,
  "bar": 1194,
  "vation": 1195,
  "inated": 1196,
  "recording": 1197,
  "motion": 1198,
  "trapping": 1199,
  "Strapping": 1200,
  "large": 1201,
  "each": 1202,
  "comple": 1203,
  "cient": 1204,
  "quired": 1205,
  "Rock": 1206,
  "commission": 1207,
  "amed": 1208,
  "formed": 1209,
  "Octo": 1210,
  "October": 1211,
  "198": 1212,
  "pion": 1213,
  "Association": 1214,
  "sted": 1215,
  "cred": 1216,
  "date": 1217,
  "Jan": 1218,
  "ub": 1219,
  "lected": 1220,
  "quad": 1221,
  "single": 1222,
  "inning": 1223,
  "ginning": 1224,
  "took": 1225,
  "jo": 1226,
  "beli": 1227,
  "private": 1228,
  "lling": 1229,
  "ization": 1230,
  "icted": 1231,
  "ggested": 1232,
  "suggested": 1233,
  "India": 1234,
  "asing": 1235,
  "iation": 1236,
  "playing": 1237,
  "ird": 1238,
  "along": 1239,
  "ung": 1240,
  "ually": 1241,
  "appro": 1242,
  "tur": 1243,
  "ility": 1244,
  "featured": 1245,
  "mitted": 1246,
  "ication": 1247,
  "mark": 1248,
  "Aust": 1249,
  "fired": 1250,
  "according": 1251,
  "Sing": 1252,
  "creasing": 1253,
  "nation": 1254,
  "hand": 1255,
  "por": 1256,
  "come": 1257,
  "uch": 1258,
  "remaining": 1259,
  "nor": 1260,
  "completed": 1261,
  "Department": 1262,
  "mar": 1263,
  "aching": 1264,
  "ampion": 1265,
  "cies": 1266,
  "mented": 1267,
  "odies": 1268,
  "stitution": 1269,
  "mission": 1270,
  "less": 1271,
  "asion": 1272,
  "pur": 1273,
  "Government": 1274,
  "stud": 1275,
  "taking": 1276,
  "winning": 1277,
  "represented": 1278,
  "fiction": 1279,
  "increasing": 1280,
  "par": 1281,
  "contro": 1282,
  "avy": 1283,
  "order": 1284,
  "volution": 1285,
  "world": 1286,
  "une": 1287,
  "listed": 1288,
  "ward": 1289,
  "resident": 1290,
  "North": 1291,
  "ucation": 1292,
  "education": 1293,
  "acting": 1294,
  "Car": 1295,
  "forming": 1296,
  "twent": 1297,
  "ulated": 1298,
  "igion": 1299,
  "onment": 1300,
  "ideo": 1301,
  "pred": 1302,
  "opening": 1303,
  "received": 1304,
  "top": 1305,
  "roy": 1306,
  "home": 1307,
  "unt": 1308,
  "beginning": 1309,
  "imate": 1310,
  "wanted": 1311,
  "site": 1312,
  "left": 1313,
  "pired": 1314,
  "President": 1315,
  "erate": 1316,
  "included": 1317,
  "ffered": 1318,
  "ducted": 1319,
  "estimated": 1320,
  "minent": 1321,
  "ishing": 1322,
  "supported": 1323,
  "bodies": 1324,
  "just": 1325,
  "character": 1326,
  "vement": 1327,
  "wn": 1328,
  "tem": 1329,
  "self": 1330,
  "ues": 1331,
  "jor": 1332,
  "pected": 1333,
  "rated": 1334,
  "empted": 1335,
  "attempted": 1336,
  "airies": 1337,
  "cour": 1338,
  "conducted": 1339,
  "ivision": 1340,
  "species": 1341,
  "allowing": 1342,
  "mediate": 1343,
  "alent": 1344,
  "ium": 1345,
  "creation": 1346,
  "ironment": 1347,
  "vironment": 1348,
  "So": 1349,
  "promotion": 1350,
  "president": 1351,
  "pies": 1352,
  "ained": 1353,
  "related": 1354,
  "person": 1355,
  "ibuted": 1356,
  "diers": 1357,
  "soldiers": 1358,
  "ading": 1359,
  "revolution": 1360,
  "required": 1361,
  "structed": 1362,
  "working": 1363,
  "pons": 1364,
  "respons": 1365,
  "194": 1366,
  "people": 1367,
  "uation": 1368,
  "consisted": 1369,
  "infl": 1370,
  "ties": 1371,
  "attention": 1372,
  "Am": 1373,
  "cle": 1374,
  "prominent": 1375,
  "career": 1376,
  "alling": 1377,
  "dom": 1378,
  "rent": 1379,
  "religion": 1380,
  "aviation": 1381,
  "dollar": 1382,
  "copies": 1383,
  "numbers": 1384,
  "view": 1385,
  "io": 1386,
  "ank": 1387,
  "useum": 1388,
  "life": 1389,
  "timate": 1390,
  "ordered": 1391,
  "iment": 1392,
  "owed": 1393,
  "ator": 1394,
  "isers": 1395,
  "Following": 1396,
  "seasons": 1397,
  "illing": 1398,
  "aging": 1399,
  "aprang": 1400,
  "Saprang": 1401,
  "Station": 1402,
  "usion": 1403,
  "release": 1404,
  "sions": 1405,
  "Apr": 1406,
  "April": 1407,
  "etition": 1408,
  "pass": 1409,
  "manent": 1410,
  "orities": 1411,
  "prevent": 1412,
  "rounding": 1413,
  "suffered": 1414,
  "Mark": 1415,
  "cate": 1416,
  "Fairies": 1417,
  "entered": 1418,
  "agement": 1419,
  "Dece": 1420,
  "ding": 1421,
  "acted": 1422,
  "champion": 1423,
  "ruisers": 1424,
  "cruisers": 1425,
  "moted": 1426,
  "atters": 1427,
  "uction": 1428,
  "avations": 1429,
  "cavations": 1430,
  "itary": 1431,
  "hi": 1432,
  "pect": 1433,
  "ified": 1434,
  "ximate": 1435,
  "eding": 1436,
  "constructed": 1437,
  "ued": 1438,
  "inspired": 1439,
  "owers": 1440,
  "transferred": 1441,
  "ultimate": 1442,
  "organ": 1443,
  "oration": 1444,
  "eting": 1445,
  "retired": 1446,
  "orated": 1447,
  "planning": 1448,
  "enn": 1449,
  "curred": 1450,
  "becoming": 1451,
  "resulted": 1452,
  "December": 1453,
  "ification": 1454,
  "omination": 1455,
  "ooting": 1456,
  "shooting": 1457,
  "endent": 1458,
  "promoted": 1459,
  "selling": 1460,
  "assination": 1461,
  "assassination": 1462,
  "excavations": 1463,
  "selected": 1464,
  "otent": 1465,
  "Pers": 1466,
  "fered": 1467,
  "offered": 1468,
  "featuring": 1469,
  "cited": 1470,
  "thorities": 1471,
  "lection": 1472,
  "ishment": 1473,
  "aired": 1474,
  "surrounding": 1475,
  "pring": 1476,
  "child": 1477,
  "school": 1478,
  "strate": 1479,
  "unction": 1480,
  "bus": 1481,
  "going": 1482,
  "iring": 1483,
  "inking": 1484,
  "bing": 1485,
  "saying": 1486,
  "environment": 1487,
  "eneration": 1488,
  "viation": 1489,
  "giving": 1490,
  "games": 1491,
  "Comm": 1492,
  "approximate": 1493,
  "ho": 1494,
  "ception": 1495,
  "Building": 1496,
  "ilt": 1497,
  "arting": 1498,
  "abl": 1499,
  "States": 1500,
  "rum": 1501,
  "cy": 1502,
  "tured": 1503,
  "aptured": 1504,
  "bel": 1505,
  "Is": 1506,
  "aim": 1507,
  "competition": 1508,
  "rote": 1509,
  "aves": 1510,
  "human": 1511,
  "occurred": 1512,
  "aters": 1513,
  "missing": 1514,
  "decision": 1515,
  "current": 1516,
  "tons": 1517,
  "upation": 1518,
  "cupation": 1519,
  "pendent": 1520,
  "dependent": 1521,
  "information": 1522,
  "Aviation": 1523,
  "discovered": 1524,
  "alky": 1525,
  "writers": 1526,
  "They": 1527,
  "tributed": 1528,
  "oung": 1529,
  "wards": 1530,
  "moved": 1531,
  "period": 1532,
  "Aug": 1533,
  "August": 1534,
  "ituation": 1535,
  "situation": 1536,
  "authorities": 1537,
  "agre": 1538,
  "fur": 1539,
  "ford": 1540,
  "week": 1541,
  "vited": 1542,
  "invited": 1543,
  "pression": 1544,
  "doing": 1545,
  "utions": 1546,
  "national": 1547,
  "eted": 1548,
  "unding": 1549,
  "continent": 1550,
  "isation": 1551,
  "immediate": 1552,
  "oute": 1553,
  "Route": 1554,
  "bered": 1555,
  "porting": 1556,
  "occupation": 1557,
  "osted": 1558,
  "univers": 1559,
  "irement": 1560,
  "mention": 1561,
  "fig": 1562,
  "iders": 1563,
  "sociated": 1564,
  "referred": 1565,
  "Char": 1566,
  "around": 1567,
  "tro": 1568,
  "within": 1569,
  "parate": 1570,
  "noting": 1571,
  "acing": 1572,
  "ailing": 1573,
  "name": 1574,
  "World": 1575,
  "establ": 1576,
  "permanent": 1577,
  "gen": 1578,
  "another": 1579,
  "pared": 1580,
  "rating": 1581,
  "unning": 1582,
  "spent": 1583,
  "described": 1584,
  "esting": 1585,
  "bution": 1586,
  "ibution": 1587,
  "itting": 1588,
  "ging": 1589,
  "agent": 1590,
  "culation": 1591,
  "Division": 1592,
  "ining": 1593,
  "performing": 1594,
  "section": 1595,
  "owered": 1596,
  "commented": 1597,
  "forman": 1598,
  "cepted": 1599,
  "pting": 1600,
  "sisters": 1601,
  "unities": 1602,
  "overs": 1603,
  "presented": 1604,
  "arding": 1605,
  "concent": 1606,
  "truction": 1607,
  "funding": 1608,
  "vasion": 1609,
  "invasion": 1610,
  "oding": 1611,
  "serving": 1612,
  "location": 1613,
  "syn": 1614,
  "June": 1615,
  "tation": 1616,
  "vention": 1617,
  "permitted": 1618,
  "ussion": 1619,
  "cussion": 1620,
  "near": 1621,
  "prepared": 1622,
  "establishment": 1623,
  "voted": 1624,
  "designated": 1625,
  "Me": 1626,
  "ys": 1627,
  "thern": 1628,
  "stitutions": 1629,
  "institutions": 1630,
  "bited": 1631,
  "hibited": 1632,
  "ross": 1633,
  "iated": 1634,
  "compared": 1635,
  "function": 1636,
  "ski": 1637,
  "volving": 1638,
  "credited": 1639,
  "Fran": 1640,
  "Lond": 1641,
  "London": 1642,
  "captured": 1643,
  "owners": 1644,
  "quadron": 1645,
  "accepted": 1646,
  "aring": 1647,
  "retirement": 1648,
  "inations": 1649,
  "posing": 1650,
  "mons": 1651,
  "dies": 1652,
  "ero": 1653,
  "landing": 1654,
  "powered": 1655,
  "elections": 1656,
  "ocument": 1657,
  "document": 1658,
  "looding": 1659,
  "flooding": 1660,
  "ria": 1661,
  "lation": 1662,
  "aning": 1663,
  "ached": 1664,
  "ancient": 1665,
  "separate": 1666,
  "essent": 1667,
  "create": 1668,
  "produced": 1669,
  "duction": 1670,
  "expected": 1671,
  "ptem": 1672,
  "potent": 1673,
  "fected": 1674,
  "directed": 1675,
  "South": 1676,
  "starting": 1677,
  "ature": 1678,
  "leaving": 1679,
  "orning": 1680,
  "morning": 1681,
  "placing": 1682,
  "prising": 1683,
  "ipment": 1684,
  "quipment": 1685,
  "cured": 1686,
  "condition": 1687,
  "izations": 1688,
  "band": 1689,
  "visited": 1690,
  "asons": 1691,
  "ipated": 1692,
  "right": 1693,
  "rate": 1694,
  "involving": 1695,
  "inch": 1696,
  "vations": 1697,
  "strument": 1698,
  "instrument": 1699,
  "culated": 1700,
  "ighting": 1701,
  "nected": 1702,
  "connected": 1703,
  "hosted": 1704,
  "billion": 1705,
  "itation": 1706,
  "picted": 1707,
  "depicted": 1708,
  "lections": 1709,
  "touring": 1710,
  "destruction": 1711,
  "Patters": 1712,
  "clared": 1713,
  "declared": 1714,
  "generation": 1715,
  "achers": 1716,
  "teachers": 1717,
  "debuted": 1718,
  "uary": 1719,
  "uro": 1720,
  "rying": 1721,
  "vious": 1722,
  "missions": 1723,
  "cam": 1724,
  "points": 1725,
  "etting": 1726,
  "creating": 1727,
  "jected": 1728,
  "recent": 1729,
  "ps": 1730,
  "verted": 1731,
  "equipment": 1732,
  "paired": 1733,
  "Fred": 1734,
  "ashing": 1735,
  "Washing": 1736,
  "ots": 1737,
  "hired": 1738,
  "iety": 1739,
  "publication": 1740,
  "ration": 1741,
  "ictions": 1742,
  "iven": 1743,
  "inted": 1744,
  "iers": 1745,
  "participated": 1746,
  "servation": 1747,
  "scient": 1748,
  "pulation": 1749,
  "population": 1750,
  "management": 1751,
  "Addition": 1752,
  "losing": 1753,
  "willing": 1754,
  "stating": 1755,
  "bring": 1756,
  "servations": 1757,
  "ivalent": 1758,
  "aling": 1759,
  "uated": 1760,
  "ulate": 1761,
  "ightning": 1762,
  "Lightning": 1763,
  "element": 1764,
  "living": 1765,
  "olding": 1766,
  "holding": 1767,
  "acilities": 1768,
  "idate": 1769,
  "rested": 1770,
  "Sevent": 1771,
  "Markgr": 1772,
  "Furt": 1773,
  "Furtado": 1774,
  "content": 1775,
  "olution": 1776,
  "evolution": 1777,
  "Revolution": 1778,
  "ffic": 1779,
  "movement": 1780,
  "something": 1781,
  "getting": 1782,
  "posed": 1783,
  "den": 1784,
  "ouse": 1785,
  "General": 1786,
  "roduction": 1787,
  "Ne": 1788,
  "Septem": 1789,
  "September": 1790,
  "uilt": 1791,
  "passing": 1792,
  "30": 1793,
  "ederate": 1794,
  "federate": 1795,
  "Confederate": 1796,
  "oking": 1797,
  "omen": 1798,
  "organizations": 1799,
  "even": 1800,
  "lies": 1801,
  "amate": 1802,
  "acred": 1803,
  "spons": 1804,
  "ports": 1805,
  "icate": 1806,
  "parted": 1807,
  "observations": 1808,
  "ifications": 1809,
  "quivalent": 1810,
  "equivalent": 1811,
  "alers": 1812,
  "leaders": 1813,
  "teries": 1814,
  "atteries": 1815,
  "batteries": 1816,
  "arching": 1817,
  "emotion": 1818,
  "requent": 1819,
  "frequent": 1820,
  "iction": 1821,
  "existing": 1822,
  "Recording": 1823,
  "comment": 1824,
  "erated": 1825,
  "facilities": 1826,
  "conditions": 1827,
  "onding": 1828,
  "itbodies": 1829,
  "ruitbodies": 1830,
  "bling": 1831,
  "plication": 1832,
  "election": 1833,
  "arrested": 1834,
  "cated": 1835,
  "constitution": 1836,
  "Kent": 1837,
  "third": 1838,
  "real": 1839,
  "Euro": 1840,
  "portion": 1841,
  "edition": 1842,
  "apted": 1843,
  "adapted": 1844,
  "shared": 1845,
  "meaning": 1846,
  "apons": 1847,
  "weapons": 1848,
  "consisting": 1849,
  "orders": 1850,
  "orted": 1851,
  "fers": 1852,
  "aph": 1853,
  "final": 1854,
  "aming": 1855,
  "eling": 1856,
  "pressing": 1857,
  "representing": 1858,
  "Little": 1859,
  "arters": 1860,
  "quarters": 1861,
  "named": 1862,
  "ounted": 1863,
  "Jack": 1864,
  "acking": 1865,
  "ically": 1866,
  "goal": 1867,
  "icting": 1868,
  "picting": 1869,
  "depicting": 1870,
  "aboration": 1871,
  "ollaboration": 1872,
  "sacred": 1873,
  "indicated": 1874,
  "oting": 1875,
  "ifying": 1876,
  "edicated": 1877,
  "tribution": 1878,
  "attributed": 1879,
  "calling": 1880,
  "ptions": 1881,
  "uries": 1882,
  "ina": 1883,
  "apers": 1884,
  "Fing": 1885,
  "plies": 1886,
  "armored": 1887,
  "positions": 1888,
  "ssing": 1889,
  "olent": 1890,
  "arred": 1891,
  "starred": 1892,
  "student": 1893,
  "Flying": 1894,
  "dating": 1895,
  "appearing": 1896,
  "fighting": 1897,
  "Ancient": 1898,
  "seated": 1899,
  "independent": 1900,
  "pries": 1901,
  "ruption": 1902,
  "cities": 1903,
  "ything": 1904,
  "gment": 1905,
  "olated": 1906,
  "rivate": 1907,
  "Private": 1908,
  "uted": 1909,
  "associated": 1910,
  "royers": 1911,
  "estroyers": 1912,
  "destroyers": 1913,
  "denomination": 1914,
  "andidate": 1915,
  "candidate": 1916,
  "publications": 1917,
  "cuted": 1918,
  "pdate": 1919,
  "Update": 1920,
  "ominated": 1921,
  "covering": 1922,
  "tlement": 1923,
  "settlement": 1924,
  "riding": 1925,
  "containing": 1926,
  "ications": 1927,
  "ritories": 1928,
  "studies": 1929,
  "outing": 1930,
  "Shol": 1931,
  "Sholay": 1932,
  "ese": 1933,
  "lock": 1934,
  "pending": 1935,
  "rest": 1936,
  "There": 1937,
  "anging": 1938,
  "ffering": 1939,
  "enders": 1940,
  "peaking": 1941,
  "much": 1942,
  "inting": 1943,
  "affected": 1944,
  "returning": 1945,
  "citing": 1946,
  "ander": 1947,
  "unition": 1948,
  "munition": 1949,
  "ammunition": 1950,
  "held": 1951,
  "elling": 1952,
  "converted": 1953,
  "giment": 1954,
  "Regiment": 1955,
  "West": 1956,
  "collection": 1957,
  "month": 1958,
  "icating": 1959,
  "oyment": 1960,
  "ployment": 1961,
  "enlisted": 1962,
  "repaired": 1963,
  "collaboration": 1964,
  "spring": 1965,
  "family": 1966,
  "oderate": 1967,
  "wrote": 1968,
  "rons": 1969,
  "fr": 1970,
  "tries": 1971,
  "dedicated": 1972,
  "producing": 1973,
  "tent": 1974,
  "reak": 1975,
  "intention": 1976,
  "perations": 1977,
  "Operations": 1978,
  "posted": 1979,
  "regulation": 1980,
  "isions": 1981,
  "Roman": 1982,
  "looking": 1983,
  "polit": 1984,
  "reception": 1985,
  "unication": 1986,
  "communication": 1987,
  "performan": 1988,
  "violent": 1989,
  "finition": 1990,
  "tainment": 1991,
  "Commission": 1992,
  "ardment": 1993,
  "bardment": 1994,
  "ombardment": 1995,
  "bombardment": 1996,
  "reasons": 1997,
  "ologies": 1998,
  "demons": 1999,
  "adopted": 2000,
  "setting": 2001,
  "interaction": 2002,
  "reaching": 2003,
  "gliders": 2004,
  "resulting": 2005,
  "inion": 2006,
  "urning": 2007,
  "institution": 2008,
  "placement": 2009,
  "revers": 2010,
  "anything": 2011,
  "idation": 2012,
  "stituted": 2013,
  "application": 2014,
  "ecuted": 2015,
  "executed": 2016,
  "sons": 2017,
  "nominated": 2018,
  "carving": 2019,
  "asting": 2020,
  "peration": 2021,
  "Operation": 2022,
  "veraging": 2023,
  "averaging": 2024,
  "territories": 2025,
  "quaries": 2026,
  "iquaries": 2027,
  "Valky": 2028,
  "role": 2029,
  "layStation": 2030,
  "PlayStation": 2031,
  "carrying": 2032,
  "previous": 2033,
  "ially": 2034,
  "those": 2035,
  "sim": 2036,
  "cers": 2037,
  "emies": 2038,
  "major": 2039,
  "what": 2040,
  "ls": 2041,
  "taining": 2042,
  "Music": 2043,
  "rejected": 2044,
  "10": 2045,
  "casion": 2046,
  "tations": 2047,
  "ustrated": 2048,
  "pedition": 2049,
  "built": 2050,
  "American": 2051,
  "session": 2052,
  "preted": 2053,
  "interpreted": 2054,
  "direction": 2055,
  "ancing": 2056,
  "tration": 2057,
  "istration": 2058,
  "association": 2059,
  "earlies": 2060,
  "Spring": 2061,
  "published": 2062,
  "moderate": 2063,
  "imes": 2064,
  "receiving": 2065,
  "aborated": 2066,
  "dated": 2067,
  "ica": 2068,
  "countries": 2069,
  "nament": 2070,
  "cident": 2071,
  "gent": 2072,
  "eries": 2073,
  "quested": 2074,
  "requested": 2075,
  "estion": 2076,
  "jured": 2077,
  "injured": 2078,
  "permission": 2079,
  "percent": 2080,
  "suffering": 2081,
  "seen": 2082,
  "istent": 2083,
  "berate": 2084,
  "liberate": 2085,
  "deliberate": 2086,
  "topping": 2087,
  "igation": 2088,
  "feated": 2089,
  "defeated": 2090,
  "joining": 2091,
  "departed": 2092,
  "centuries": 2093,
  "itated": 2094,
  "Br": 2095,
  "iration": 2096,
  "icing": 2097,
  "avies": 2098,
  "supporting": 2099,
  "asted": 2100,
  "enerated": 2101,
  "engers": 2102,
  "layers": 2103,
  "tected": 2104,
  "irculation": 2105,
  "circulation": 2106,
  "We": 2107,
  "ounding": 2108,
  "aduated": 2109,
  "graduated": 2110,
  "nomination": 2111,
  "Ali": 2112,
  "eing": 2113,
  "plement": 2114,
  "binations": 2115,
  "disting": 2116,
  "communities": 2117,
  "powers": 2118,
  "awing": 2119,
  "fate": 2120,
  "ilent": 2121,
  "collected": 2122,
  "istered": 2123,
  "ensing": 2124,
  "gliding": 2125,
  "islation": 2126,
  "legislation": 2127,
  "opinion": 2128,
  "iations": 2129,
  "fruitbodies": 2130,
  "inate": 2131,
  "viving": 2132,
  "surviving": 2133,
  "replacement": 2134,
  "meeting": 2135,
  "membered": 2136,
  "reagent": 2137,
  "isters": 2138,
  "volvement": 2139,
  "involvement": 2140,
  "prohibited": 2141,
  "searching": 2142,
  "theaters": 2143,
  "ambers": 2144,
  "plications": 2145,
  "ducation": 2146,
  "Education": 2147,
  "tiquaries": 2148,
  "Antiquaries": 2149,
  "enal": 2150,
  "ales": 2151,
  "original": 2152,
  "Sc": 2153,
  "oing": 2154,
  "particular": 2155,
  "chart": 2156,
  "abilities": 2157,
  "occasion": 2158,
  "ened": 2159,
  "convention": 2160,
  "telling": 2161,
  "invent": 2162,
  "percussion": 2163,
  "Dunning": 2164,
  "ages": 2165,
  "ainted": 2166,
  "painted": 2167,
  "ministration": 2168,
  "Kate": 2169,
  "sevent": 2170,
  "often": 2171,
  "ollaborated": 2172,
  "collaborated": 2173,
  "division": 2174,
  "printing": 2175,
  "aly": 2176,
  "printed": 2177,
  "eration": 2178,
  "Europe": 2179,
  "incident": 2180,
  "Arch": 2181,
  "commer": 2182,
  "oming": 2183,
  "controvers": 2184,
  "moving": 2185,
  "signing": 2186,
  "gling": 2187,
  "sitting": 2188,
  "organization": 2189,
  "iminated": 2190,
  "eliminated": 2191,
  "laying": 2192,
  "listing": 2193,
  "anning": 2194,
  "ming": 2195,
  "izing": 2196,
  "spapers": 2197,
  "newspapers": 2198,
  "ignment": 2199,
  "prim": 2200,
  "passengers": 2201,
  "orient": 2202,
  "strated": 2203,
  "monstrated": 2204,
  "demonstrated": 2205,
  "vered": 2206,
  "grossing": 2207,
  "seeing": 2208,
  "tertainment": 2209,
  "Entertainment": 2210,
  "tracted": 2211,
  "interested": 2212,
  "armament": 2213,
  "paration": 2214,
  "combinations": 2215,
  "undament": 2216,
  "fundament": 2217,
  "definition": 2218,
  "inities": 2219,
  "ivinities": 2220,
  "divinities": 2221,
  "causing": 2222,
  "drawing": 2223,
  "existed": 2224,
  "reated": 2225,
  "exception": 2226,
  "decisions": 2227,
  "rendition": 2228,
  "tifications": 2229,
  "registered": 2230,
  "operate": 2231,
  "fring": 2232,
  "growing": 2233,
  "biting": 2234,
  "collections": 2235,
  "secured": 2236,
  "olition": 2237,
  "reactions": 2238,
  "esters": 2239,
  "asions": 2240,
  "orruption": 2241,
  "corruption": 2242,
  "viewers": 2243,
  "everything": 2244,
  "flected": 2245,
  "istons": 2246,
  "replacing": 2247,
  "Commanding": 2248,
  "producers": 2249,
  "showing": 2250,
  "numbered": 2251,
  "chambers": 2252,
  "rescent": 2253,
  "Ling": 2254,
  "ualties": 2255,
  "asualties": 2256,
  "iscated": 2257,
  "fiscated": 2258,
  "confiscated": 2259,
  "endment": 2260,
  "Amendment": 2261,
  "lecruisers": 2262,
  "battlecruisers": 2263,
  "wallowing": 2264,
  "swallowing": 2265,
  "fusion": 2266,
  "foll": 2267,
  "underwent": 2268,
  "granted": 2269,
  "altered": 2270,
  "acters": 2271,
  "Characters": 2272,
  "buting": 2273,
  "dered": 2274,
  "Ma": 2275,
  "anting": 2276,
  "chan": 2277,
  "arr": 2278,
  "versions": 2279,
  "15": 2280,
  "ively": 2281,
  "illustrated": 2282,
  "cession": 2283,
  "possession": 2284,
  "nection": 2285,
  "connection": 2286,
  "read": 2287,
  "eving": 2288,
  "mpted": 2289,
  "prompted": 2290,
  "agreement": 2291,
  "beh": 2292,
  "anies": 2293,
  "companies": 2294,
  "operated": 2295,
  "may": 2296,
  "pecting": 2297,
  "orers": 2298,
  "ilies": 2299,
  "ovation": 2300,
  "eties": 2301,
  "vated": 2302,
  "erted": 2303,
  "evening": 2304,
  "attered": 2305,
  "acquired": 2306,
  "admitted": 2307,
  "covers": 2308,
  "Allies": 2309,
  "ervation": 2310,
  "Champion": 2311,
  "sting": 2312,
  "distribution": 2313,
  "ggesting": 2314,
  "suggesting": 2315,
  "developing": 2316,
  "conservation": 2317,
  "question": 2318,
  "entering": 2319,
  "understanding": 2320,
  "consistent": 2321,
  "adding": 2322,
  "bringing": 2323,
  "stricted": 2324,
  "restricted": 2325,
  "gated": 2326,
  "anti": 2327,
  "ubsequent": 2328,
  "Subsequent": 2329,
  "running": 2330,
  "piration": 2331,
  "inspiration": 2332,
  "ineering": 2333,
  "lighted": 2334,
  "supplies": 2335,
  "structing": 2336,
  "protected": 2337,
  "waters": 2338,
  "ilming": 2339,
  "bitions": 2340,
  "hibitions": 2341,
  "attracted": 2342,
  "reatment": 2343,
  "dealers": 2344,
  "ferring": 2345,
  "universities": 2346,
  "annivers": 2347,
  "aution": 2348,
  "mounted": 2349,
  "empting": 2350,
  "attempting": 2351,
  "flecting": 2352,
  "reflecting": 2353,
  "regions": 2354,
  "estations": 2355,
  "ifestations": 2356,
  "ulted": 2357,
  "uling": 2358,
  "bate": 2359,
  "debate": 2360,
  "cessions": 2361,
  "icies": 2362,
  "undred": 2363,
  "hundred": 2364,
  "ners": 2365,
  "singing": 2366,
  "cking": 2367,
  "Silent": 2368,
  "sounding": 2369,
  "olling": 2370,
  "icensing": 2371,
  "regarding": 2372,
  "suing": 2373,
  "strictions": 2374,
  "restrictions": 2375,
  "ponding": 2376,
  "responding": 2377,
  "orresponding": 2378,
  "corresponding": 2379,
  "fted": 2380,
  "segment": 2381,
  "aiming": 2382,
  "claiming": 2383,
  "concentration": 2384,
  "portation": 2385,
  "Cons": 2386,
  "peated": 2387,
  "repeated": 2388,
  "facing": 2389,
  "cerning": 2390,
  "eking": 2391,
  "xidation": 2392,
  "anion": 2393,
  "porters": 2394,
  "supporters": 2395,
  "olation": 2396,
  "violation": 2397,
  "earning": 2398,
  "Wing": 2399,
  "ighters": 2400,
  "fighters": 2401,
  "ordinated": 2402,
  "Having": 2403,
  "earing": 2404,
  "impression": 2405,
  "atching": 2406,
  "elevision": 2407,
  "utstanding": 2408,
  "Outstanding": 2409,
  "Series": 2410,
  "gate": 2411,
  "crescent": 2412,
  "epers": 2413,
  "keepers": 2414,
  "Newsted": 2415,
  "hing": 2416,
  "ushing": 2417,
  "organisation": 2418,
  "ulls": 2419,
  "curing": 2420,
  "securing": 2421,
  "Pistons": 2422,
  "beating": 2423,
  "studying": 2424,
  "braries": 2425,
  "libraries": 2426,
  "legation": 2427,
  "Rovers": 2428,
  "applications": 2429,
  "subcontinent": 2430,
  "oying": 2431,
  "ploying": 2432,
  "returned": 2433,
  "ries": 2434,
  "animated": 2435,
  "speaking": 2436,
  "depending": 2437,
  "lect": 2438,
  "Action": 2439,
  "asters": 2440,
  "Army": 2441,
  "fem": 2442,
  "eming": 2443,
  "perate": 2444,
  "porated": 2445,
  "orporated": 2446,
  "corporated": 2447,
  "incorporated": 2448,
  "Production": 2449,
  "init": 2450,
  "aton": 2451,
  "feeling": 2452,
  "itations": 2453,
  "val": 2454,
  "aptation": 2455,
  "adaptation": 2456,
  "decommission": 2457,
  "since": 2458,
  "xpedition": 2459,
  "Expedition": 2460,
  "Construction": 2461,
  "angers": 2462,
  "let": 2463,
  "believing": 2464,
  "because": 2465,
  "alion": 2466,
  "athered": 2467,
  "procured": 2468,
  "onation": 2469,
  "pent": 2470,
  "uties": 2471,
  "duties": 2472,
  "families": 2473,
  "north": 2474,
  "deployment": 2475,
  "km": 2476,
  "rations": 2477,
  "flowers": 2478,
  "gre": 2479,
  "arly": 2480,
  "won": 2481,
  "submitted": 2482,
  "anying": 2483,
  "companying": 2484,
  "accompanying": 2485,
  "Can": 2486,
  "ocusing": 2487,
  "ching": 2488,
  "sponsored": 2489,
  "paring": 2490,
  "tering": 2491,
  "competed": 2492,
  "description": 2493,
  "thored": 2494,
  "authored": 2495,
  "otted": 2496,
  "substrate": 2497,
  "former": 2498,
  "oment": 2499,
  "approaching": 2500,
  "speculation": 2501,
  "trying": 2502,
  "stopping": 2503,
  "estigation": 2504,
  "vestigation": 2505,
  "investigation": 2506,
  "bination": 2507,
  "combination": 2508,
  "plemented": 2509,
  "tification": 2510,
  "linking": 2511,
  "intersection": 2512,
  "sections": 2513,
  "emate": 2514,
  "asemate": 2515,
  "casemate": 2516,
  "generated": 2517,
  "brothers": 2518,
  "ilation": 2519,
  "prevented": 2520,
  "livered": 2521,
  "delivered": 2522,
  "turning": 2523,
  "arring": 2524,
  "starring": 2525,
  "monies": 2526,
  "eremonies": 2527,
  "ceremonies": 2528,
  "ashion": 2529,
  "ranking": 2530,
  "receding": 2531,
  "preceding": 2532,
  "retiring": 2533,
  "nition": 2534,
  "gnition": 2535,
  "cognition": 2536,
  "recognition": 2537,
  "fitted": 2538,
  "Deities": 2539,
  "ivine": 2540,
  "estions": 2541,
  "traditions": 2542,
  "ewing": 2543,
  "treated": 2544,
  "eping": 2545,
  "keeping": 2546,
  "manifestations": 2547,
  "oping": 2548,
  "ruling": 2549,
  "rection": 2550,
  "urrection": 2551,
  "lion": 2552,
  "portunities": 2553,
  "llion": 2554,
  "bellion": 2555,
  "rebellion": 2556,
  "periment": 2557,
  "experiment": 2558,
  "commenting": 2559,
  "regulated": 2560,
  "ressing": 2561,
  "isement": 2562,
  "tisement": 2563,
  "vertisement": 2564,
  "advertisement": 2565,
  "introduction": 2566,
  "parties": 2567,
  "gories": 2568,
  "categories": 2569,
  "lifted": 2570,
  "riate": 2571,
  "priate": 2572,
  "appropriate": 2573,
  "liding": 2574,
  "xing": 2575,
  "mixing": 2576,
  "pping": 2577,
  "concentrated": 2578,
  "firing": 2579,
  "irculated": 2580,
  "circulated": 2581,
  "culate": 2582,
  "irculate": 2583,
  "circulate": 2584,
  "enate": 2585,
  "Senate": 2586,
  "ominations": 2587,
  "iminate": 2588,
  "eliminate": 2589,
  "umption": 2590,
  "seeking": 2591,
  "substituted": 2592,
  "failing": 2593,
  "casions": 2594,
  "occasions": 2595,
  "ignation": 2596,
  "ongoing": 2597,
  "essions": 2598,
  "Nations": 2599,
  "yers": 2600,
  "Associated": 2601,
  "Television": 2602,
  "recating": 2603,
  "precating": 2604,
  "deprecating": 2605,
  "ambling": 2606,
  "bient": 2607,
  "ambient": 2608,
  "pushing": 2609,
  "contributed": 2610,
  "drinking": 2611,
  "finishing": 2612,
  "advent": 2613,
  "reconstruction": 2614,
  "testers": 2615,
  "protesters": 2616,
  "Information": 2617,
  "unconstitution": 2618,
  "ctorate": 2619,
  "sters": 2620,
  "posters": 2621,
  "Scouting": 2622,
  "ambered": 2623,
  "chambered": 2624,
  "Adding": 2625,
  "longing": 2626,
  "avate": 2627,
  "cavate": 2628,
  "excavate": 2629,
  "Caution": 2630,
  "estselling": 2631,
  "bestselling": 2632,
  "poration": 2633,
  "orporation": 2634,
  "Corporation": 2635,
  "tomers": 2636,
  "ustomers": 2637,
  "customers": 2638,
  "Vision": 2639,
  "January": 2640,
  "relating": 2641,
  "completion": 2642,
  "stem": 2643,
  "bilities": 2644,
  "changing": 2645,
  "great": 2646,
  "fect": 2647,
  "distributed": 2648,
  "ibuting": 2649,
  "Or": 2650,
  "Mar": 2651,
  "enemies": 2652,
  "until": 2653,
  "corted": 2654,
  "escorted": 2655,
  "justed": 2656,
  "adjusted": 2657,
  "pite": 2658,
  "maintaining": 2659,
  "porate": 2660,
  "orporate": 2661,
  "corporate": 2662,
  "put": 2663,
  "imitations": 2664,
  "limitations": 2665,
  "Pro": 2666,
  "estination": 2667,
  "destination": 2668,
  "uations": 2669,
  "ituations": 2670,
  "situations": 2671,
  "ordering": 2672,
  "unitions": 2673,
  "munitions": 2674,
  "dering": 2675,
  "attalion": 2676,
  "Battalion": 2677,
  "usted": 2678,
  "gathered": 2679,
  "donation": 2680,
  "ivated": 2681,
  "persons": 2682,
  "aborers": 2683,
  "laborers": 2684,
  "indicating": 2685,
  "rendered": 2686,
  "surrendered": 2687,
  "yal": 2688,
  "commissioning": 2689,
  "clusion": 2690,
  "conclusion": 2691,
  "athering": 2692,
  "area": 2693,
  "City": 2694,
  "relocated": 2695,
  "orate": 2696,
  "theories": 2697,
  "teaching": 2698,
  "elected": 2699,
  "focusing": 2700,
  "orthing": 2701,
  "Worthing": 2702,
  "scattered": 2703,
  "clothing": 2704,
  "exhibited": 2705,
  "bition": 2706,
  "hibition": 2707,
  "preparing": 2708,
  "reservation": 2709,
  "Preservation": 2710,
  "Vers": 2711,
  "sociations": 2712,
  "associations": 2713,
  "estation": 2714,
  "elevated": 2715,
  "asuring": 2716,
  "measuring": 2717,
  "dent": 2718,
  "unders": 2719,
  "selection": 2720,
  "ilers": 2721,
  "string": 2722,
  "moment": 2723,
  "reaking": 2724,
  "breaking": 2725,
  "uing": 2726,
  "stration": 2727,
  "pointing": 2728,
  "Playing": 2729,
  "ournament": 2730,
  "Tournament": 2731,
  "offers": 2732,
  "ulgated": 2733,
  "mulgated": 2734,
  "promulgated": 2735,
  "instrumentation": 2736,
  "implemented": 2737,
  "locations": 2738,
  "initiated": 2739,
  "erected": 2740,
  "decorated": 2741,
  "histicated": 2742,
  "phisticated": 2743,
  "sophisticated": 2744,
  "iling": 2745,
  "composition": 2746,
  "ders": 2747,
  "alculated": 2748,
  "calculated": 2749,
  "import": 2750,
  "necting": 2751,
  "connecting": 2752,
  "alignment": 2753,
  "Britain": 2754,
  "oriented": 2755,
  "pil": 2756,
  "obstruction": 2757,
  "gmented": 2758,
  "augmented": 2759,
  "Wilming": 2760,
  "praying": 2761,
  "descent": 2762,
  "edding": 2763,
  "aping": 2764,
  "boring": 2765,
  "tection": 2766,
  "protection": 2767,
  "Mad": 2768,
  "Whalers": 2769,
  "ipate": 2770,
  "spending": 2771,
  "moting": 2772,
  "promoting": 2773,
  "attending": 2774,
  "iscent": 2775,
  "miniscent": 2776,
  "reminiscent": 2777,
  "votion": 2778,
  "devotion": 2779,
  "envision": 2780,
  "ilization": 2781,
  "ivilization": 2782,
  "fashion": 2783,
  "succession": 2784,
  "centered": 2785,
  "arning": 2786,
  "learning": 2787,
  "onent": 2788,
  "hent": 2789,
  "hoping": 2790,
  "insisted": 2791,
  "asserted": 2792,
  "quated": 2793,
  "equated": 2794,
  "isolated": 2795,
  "olders": 2796,
  "Beginning": 2797,
  "gaining": 2798,
  "etitions": 2799,
  "istorted": 2800,
  "Matters": 2801,
  "describing": 2802,
  "Rolling": 2803,
  "originated": 2804,
  "igning": 2805,
  "ganization": 2806,
  "Organization": 2807,
  "contribution": 2808,
  "opters": 2809,
  "icopters": 2810,
  "helicopters": 2811,
  "licensing": 2812,
  "reduction": 2813,
  "gion": 2814,
  "Region": 2815,
  "ilisation": 2816,
  "ulations": 2817,
  "hibiting": 2818,
  "arking": 2819,
  "ruiting": 2820,
  "nothing": 2821,
  "preparation": 2822,
  "indicate": 2823,
  "lerated": 2824,
  "administration": 2825,
  "ipation": 2826,
  "avored": 2827,
  "ornament": 2828,
  "ficient": 2829,
  "efficient": 2830,
  "owering": 2831,
  "uning": 2832,
  "tuning": 2833,
  "killing": 2834,
  "policies": 2835,
  "dancing": 2836,
  "inding": 2837,
  "surprising": 2838,
  "expression": 2839,
  "treatment": 2840,
  "reflected": 2841,
  "romoted": 2842,
  "Promoted": 2843,
  "ombers": 2844,
  "bombers": 2845,
  "Sisters": 2846,
  "riters": 2847,
  "Writers": 2848,
  "miered": 2849,
  "premiered": 2850,
  "gambling": 2851,
  "toured": 2852,
  "Casualties": 2853,
  "lighting": 2854,
  "Independent": 2855,
  "department": 2856,
  "policing": 2857,
  "uspected": 2858,
  "suspected": 2859,
  "organising": 2860,
  "opposing": 2861,
  "violated": 2862,
  "legated": 2863,
  "azers": 2864,
  "Blazers": 2865,
  "marketing": 2866,
  "ensored": 2867,
  "censored": 2868,
  "transported": 2869,
  "atrons": 2870,
  "uate": 2871,
  "Davies": 2872,
  "bion": 2873,
  "Albion": 2874,
  "Environment": 2875,
  "belonging": 2876,
  "avated": 2877,
  "cavated": 2878,
  "excavated": 2879,
  "sportation": 2880,
  "ransportation": 2881,
  "Transportation": 2882,
  "Allent": 2883,
  "foundation": 2884,
  "bonding": 2885,
  "gitation": 2886,
  "urgitation": 2887,
  "regurgitation": 2888,
  "igate": 2889,
  "frigate": 2890,
  "oxidation": 2891,
  "odologies": 2892,
  "thodologies": 2893,
  "methodologies": 2894,
  "Valkyria": 2895,
  "recorded": 2896,
  "stand": 2897,
  "varies": 2898,
  "Potent": 2899,
  "throughout": 2900,
  "ineers": 2901,
  "stat": 2902,
  "offenders": 2903,
  "ask": 2904,
  "seeming": 2905,
  "knowing": 2906,
  "allies": 2907,
  "city": 2908,
  "asking": 2909,
  "ives": 2910,
  "velopment": 2911,
  "Development": 2912,
  "wanting": 2913,
  "Fl": 2914,
  "ruary": 2915,
  "bruary": 2916,
  "February": 2917,
  "putting": 2918,
  "aising": 2919,
  "praising": 2920,
  "expressing": 2921,
  "aptations": 2922,
  "tit": 2923,
  "songs": 2924,
  "headquarters": 2925,
  "ier": 2926,
  "dangers": 2927,
  "ront": 2928,
  "quate": 2929,
  "adequate": 2930,
  "men": 2931,
  "rendering": 2932,
  "comprising": 2933,
  "fficient": 2934,
  "sufficient": 2935,
  "verting": 2936,
  "unctions": 2937,
  "functions": 2938,
  "employment": 2939,
  "airing": 2940,
  "pairing": 2941,
  "packing": 2942,
  "vancing": 2943,
  "advancing": 2944,
  "closing": 2945,
  "road": 2946,
  "devoted": 2947,
  "societies": 2948,
  "union": 2949,
  "gathering": 2950,
  "onated": 2951,
  "donated": 2952,
  "arling": 2953,
  "Darling": 2954,
  "ael": 2955,
  "ishers": 2956,
  "publishers": 2957,
  "drons": 2958,
  "aldrons": 2959,
  "Waldrons": 2960,
  "orring": 2961,
  "Storring": 2962,
  "extent": 2963,
  "restored": 2964,
  "perties": 2965,
  "exhibition": 2966,
  "disappeared": 2967,
  "Mission": 2968,
  "overning": 2969,
  "governing": 2970,
  "urnament": 2971,
  "tournament": 2972,
  "retention": 2973,
  "iliated": 2974,
  "representation": 2975,
  "cription": 2976,
  "escription": 2977,
  "Description": 2978,
  "ceeding": 2979,
  "lers": 2980,
  "pectations": 2981,
  "expectations": 2982,
  "Red": 2983,
  "coaching": 2984,
  "However": 2985,
  "trading": 2986,
  "ussions": 2987,
  "cussions": 2988,
  "committed": 2989,
  "tested": 2990,
  "piring": 2991,
  "azing": 2992,
  "alking": 2993,
  "viewing": 2994,
  "eved": 2995,
  "ansion": 2996,
  "pansion": 2997,
  "expansion": 2998,
  "Pred": 2999,
  "observation": 3000,
  "falling": 3001,
  "plate": 3002,
  "respected": 3003,
  "wers": 3004,
  "nered": 3005,
  "ifting": 3006,
  "talent": 3007,
  "Anders": 3008,
  "highlighted": 3009,
  "hanging": 3010,
  "lockading": 3011,
  "attacking": 3012,
  "spotted": 3013,
  "etrate": 3014,
  "enetrate": 3015,
  "penetrate": 3016,
  "dispers": 3017,
  "deling": 3018,
  "modeling": 3019,
  "uating": 3020,
  "intent": 3021,
  "encing": 3022,
  "enging": 3023,
  "putation": 3024,
  "reputation": 3025,
  "staying": 3026,
  "parated": 3027,
  "separated": 3028,
  "filming": 3029,
  "isations": 3030,
  "anking": 3031,
  "pointment": 3032,
  "appointment": 3033,
  "participate": 3034,
  "expired": 3035,
  "dealing": 3036,
  "ughters": 3037,
  "aughters": 3038,
  "daughters": 3039,
  "engagement": 3040,
  "relations": 3041,
  "differed": 3042,
  "perception": 3043,
  "iscient": 3044,
  "niscient": 3045,
  "rupted": 3046,
  "enacted": 3047,
  "orytelling": 3048,
  "withdrawing": 3049,
  "relate": 3050,
  "nections": 3051,
  "connections": 3052,
  "centers": 3053,
  "component": 3054,
  "piction": 3055,
  "depiction": 3056,
  "Khent": 3057,
  "consulted": 3058,
  "udgment": 3059,
  "descriptions": 3060,
  "mies": 3061,
  "ummies": 3062,
  "mummies": 3063,
  "mining": 3064,
  "processions": 3065,
  "opportunities": 3066,
  "unishment": 3067,
  "punishment": 3068,
  "intervention": 3069,
  "questions": 3070,
  "desired": 3071,
  "persisted": 3072,
  "certification": 3073,
  "opMatters": 3074,
  "PopMatters": 3075,
  "whate": 3076,
  "iewing": 3077,
  "eviewing": 3078,
  "Reviewing": 3079,
  "selections": 3080,
  "istening": 3081,
  "listening": 3082,
  "thinking": 3083,
  "operating": 3084,
  "aer": 3085,
  "veying": 3086,
  "racing": 3087,
  "issuing": 3088,
  "viding": 3089,
  "providing": 3090,
  "competitions": 3091,
  "diving": 3092,
  "implement": 3093,
  "Gliding": 3094,
  "fining": 3095,
  "handling": 3096,
  "provision": 3097,
  "infring": 3098,
  "lanning": 3099,
  "Planning": 3100,
  "ostilities": 3101,
  "hostilities": 3102,
  "otiations": 3103,
  "gotiations": 3104,
  "negotiations": 3105,
  "loving": 3106,
  "bearing": 3107,
  "venient": 3108,
  "convenient": 3109,
  "discussion": 3110,
  "inclusion": 3111,
  "celerated": 3112,
  "concerning": 3113,
  "ocated": 3114,
  "riking": 3115,
  "striking": 3116,
  "athers": 3117,
  "testing": 3118,
  "imiting": 3119,
  "limiting": 3120,
  "rotation": 3121,
  "mers": 3122,
  "conformation": 3123,
  "bent": 3124,
  "ignored": 3125,
  "revolutionaries": 3126,
  "resignation": 3127,
  "ministers": 3128,
  "landowners": 3129,
  "ounting": 3130,
  "cution": 3131,
  "bering": 3132,
  "membering": 3133,
  "remembering": 3134,
  "rocities": 3135,
  "atrocities": 3136,
  "remembered": 3137,
  "stories": 3138,
  "berties": 3139,
  "schooling": 3140,
  "riting": 3141,
  "Writing": 3142,
  "sessions": 3143,
  "Eaton": 3144,
  "raining": 3145,
  "Training": 3146,
  "coordinated": 3147,
  "adquarters": 3148,
  "Headquarters": 3149,
  "quadrons": 3150,
  "idering": 3151,
  "gineering": 3152,
  "Engineering": 3153,
  "NB": 3154,
  "Date": 3155,
  "abling": 3156,
  "enabling": 3157,
  "watching": 3158,
  "lement": 3159,
  "Element": 3160,
  "edent": 3161,
  "recedent": 3162,
  "precedent": 3163,
  "nominations": 3164,
  "discovering": 3165,
  "recation": 3166,
  "precation": 3167,
  "deprecation": 3168,
  "ilders": 3169,
  "uilders": 3170,
  "builders": 3171,
  "Archaeolog": 3172,
  "fying": 3173,
  "tecting": 3174,
  "protecting": 3175,
  "compilation": 3176,
  "jection": 3177,
  "considers": 3178,
  "lasted": 3179,
  "united": 3180,
  "ruited": 3181,
  "recruited": 3182,
  "vening": 3183,
  "cement": 3184,
  "diction": 3185,
  "posers": 3186,
  "molition": 3187,
  "demolition": 3188,
  "prooted": 3189,
  "uprooted": 3190,
  "argeted": 3191,
  "targeted": 3192,
  "rotection": 3193,
  "Protection": 3194,
  "cutting": 3195,
  "wearing": 3196,
  "primaries": 3197,
  "delegated": 3198,
  "deciding": 3199,
  "Valent": 3200,
  "Bulls": 3201,
  "akers": 3202,
  "recovered": 3203,
  "aliers": 3204,
  "avaliers": 3205,
  "Cavaliers": 3206,
  "agers": 3207,
  "onate": 3208,
  "Players": 3209,
  "upying": 3210,
  "cupying": 3211,
  "occupying": 3212,
  "ainters": 3213,
  "painters": 3214,
  "minated": 3215,
  "publishing": 3216,
  "edited": 3217,
  "patrons": 3218,
  "Uprising": 3219,
  "unevent": 3220,
  "forested": 3221,
  "markers": 3222,
  "xcavation": 3223,
  "Excavation": 3224,
  "berment": 3225,
  "memberment": 3226,
  "dismemberment": 3227,
  "Rivers": 3228,
  "Cred": 3229,
  "charted": 3230,
  "cinated": 3231,
  "ascinated": 3232,
  "fascinated": 3233,
  "anderers": 3234,
  "Wanderers": 3235,
  "ermanent": 3236,
  "Permanent": 3237,
  "spouting": 3238,
  "relegation": 3239,
  "lecturing": 3240,
  "military": 3241,
  "comers": 3242,
  "newcomers": 3243,
  "translation": 3244,
  "player": 3245,
  "option": 3246,
  "ried": 3247,
  "make": 3248,
  "desperate": 3249,
  "commanding": 3250,
  "erating": 3251,
  "due": 3252,
  "Speaking": 3253,
  "retaining": 3254,
  "uments": 3255,
  "arriving": 3256,
  "Edition": 3257,
  "lated": 3258,
  "translated": 3259,
  "Reception": 3260,
  "ertaining": 3261,
  "entertaining": 3262,
  "urring": 3263,
  "excited": 3264,
  "petition": 3265,
  "editions": 3266,
  "quities": 3267,
  "iquities": 3268,
  "tiquities": 3269,
  "Antiquities": 3270,
  "stead": 3271,
  "Indian": 3272,
  "instruction": 3273,
  "ustered": 3274,
  "south": 3275,
  "inspecting": 3276,
  "effected": 3277,
  "converting": 3278,
  "inating": 3279,
  "acuation": 3280,
  "evacuation": 3281,
  "renovation": 3282,
  "Administration": 3283,
  "fairies": 3284,
  "ainting": 3285,
  "painting": 3286,
  "water": 3287,
  "ner": 3288,
  "ustration": 3289,
  "illustration": 3290,
  "properties": 3291,
  "interesting": 3292,
  "pictions": 3293,
  "Feeding": 3294,
  "ples": 3295,
  "ayers": 3296,
  "ifiers": 3297,
  "alifiers": 3298,
  "qualifiers": 3299,
  "argeting": 3300,
  "targeting": 3301,
  "filiated": 3302,
  "affiliated": 3303,
  "ternating": 3304,
  "alternating": 3305,
  "refers": 3306,
  "itating": 3307,
  "sl": 3308,
  "prefers": 3309,
  "igging": 3310,
  "interactions": 3311,
  "licate": 3312,
  "delicate": 3313,
  "Oilers": 3314,
  "helping": 3315,
  "isition": 3316,
  "quisition": 3317,
  "acquisition": 3318,
  "lyers": 3319,
  "iating": 3320,
  "alcons": 3321,
  "ggling": 3322,
  "struggling": 3323,
  "concussion": 3324,
  "continuing": 3325,
  "discussions": 3326,
  "appointing": 3327,
  "edication": 3328,
  "dedication": 3329,
  "Nation": 3330,
  "amazing": 3331,
  "dying": 3332,
  "interviewing": 3333,
  "proving": 3334,
  "improving": 3335,
  "Fin": 3336,
  "ighted": 3337,
  "mation": 3338,
  "unicating": 3339,
  "communicating": 3340,
  "ceiling": 3341,
  "functioning": 3342,
  "arnered": 3343,
  "garnered": 3344,
  "assisted": 3345,
  "engineering": 3346,
  "yoming": 3347,
  "Wyoming": 3348,
  "enters": 3349,
  "aveling": 3350,
  "traveling": 3351,
  "outed": 3352,
  "aders": 3353,
  "charging": 3354,
  "conversion": 3355,
  "iercing": 3356,
  "engineers": 3357,
  "locking": 3358,
  "blocking": 3359,
  "obstructions": 3360,
  "aiting": 3361,
  "waiting": 3362,
  "gers": 3363,
  "backing": 3364,
  "spraying": 3365,
  "inflicted": 3366,
  "alization": 3367,
  "sinking": 3368,
  "assignment": 3369,
  "udition": 3370,
  "audition": 3371,
  "upporting": 3372,
  "Supporting": 3373,
  "aduating": 3374,
  "graduating": 3375,
  "productions": 3376,
  "athing": 3377,
  "allenging": 3378,
  "challenging": 3379,
  "traying": 3380,
  "portraying": 3381,
  "wedding": 3382,
  "organisations": 3383,
  "auction": 3384,
  "imbing": 3385,
  "climbing": 3386,
  "rities": 3387,
  "brities": 3388,
  "lebrities": 3389,
  "celebrities": 3390,
  "halted": 3391,
  "plated": 3392,
  "outstanding": 3393,
  "quiring": 3394,
  "evident": 3395,
  "zent": 3396,
  "Szent": 3397,
  "stations": 3398,
  "restoration": 3399,
  "divine": 3400,
  "proposing": 3401,
  "aphies": 3402,
  "raphies": 3403,
  "ographies": 3404,
  "onographies": 3405,
  "iconographies": 3406,
  "preading": 3407,
  "spreading": 3408,
  "ulers": 3409,
  "venerated": 3410,
  "veneration": 3411,
  "iterate": 3412,
  "moners": 3413,
  "ceptions": 3414,
  "notion": 3415,
  "disruption": 3416,
  "oundaries": 3417,
  "boundaries": 3418,
  "emons": 3419,
  "Demons": 3420,
  "aborate": 3421,
  "stalling": 3422,
  "pening": 3423,
  "isons": 3424,
  "ulating": 3425,
  "shifting": 3426,
  "interrelated": 3427,
  "herent": 3428,
  "ifestation": 3429,
  "manifestation": 3430,
  "verything": 3431,
  "Everything": 3432,
  "judgment": 3433,
  "plicated": 3434,
  "shipping": 3435,
  "underlying": 3436,
  "resurrection": 3437,
  "termediate": 3438,
  "Intermediate": 3439,
  "Living": 3440,
  "uaries": 3441,
  "ctuaries": 3442,
  "anctuaries": 3443,
  "sanctuaries": 3444,
  "employing": 3445,
  "brated": 3446,
  "exported": 3447,
  "partners": 3448,
  "immons": 3449,
  "Simmons": 3450,
  "essing": 3451,
  "cribing": 3452,
  "escribing": 3453,
  "Describing": 3454,
  "founders": 3455,
  "imposing": 3456,
  "remembers": 3457,
  "expecting": 3458,
  "pretations": 3459,
  "interpretations": 3460,
  "tring": 3461,
  "String": 3462,
  "reation": 3463,
  "ression": 3464,
  "arities": 3465,
  "unerated": 3466,
  "munerated": 3467,
  "remunerated": 3468,
  "surveying": 3469,
  "uting": 3470,
  "dressing": 3471,
  "uneration": 3472,
  "muneration": 3473,
  "remuneration": 3474,
  "applies": 3475,
  "loons": 3476,
  "alloons": 3477,
  "balloons": 3478,
  "rented": 3479,
  "argument": 3480,
  "Unlimited": 3481,
  "fing": 3482,
  "avigation": 3483,
  "unching": 3484,
  "defining": 3485,
  "otiate": 3486,
  "gotiate": 3487,
  "negotiate": 3488,
  "users": 3489,
  "imination": 3490,
  "ropping": 3491,
  "dropping": 3492,
  "ruising": 3493,
  "cruising": 3494,
  "monstration": 3495,
  "demonstration": 3496,
  "uration": 3497,
  "edgling": 3498,
  "fledgling": 3499,
  "complement": 3500,
  "Fruitbodies": 3501,
  "referring": 3502,
  "fruiting": 3503,
  "mination": 3504,
  "burning": 3505,
  "minted": 3506,
  "inent": 3507,
  "Represent": 3508,
  "antities": 3509,
  "quantities": 3510,
  "gerated": 3511,
  "aggerated": 3512,
  "exaggerated": 3513,
  "opposition": 3514,
  "bted": 3515,
  "oubted": 3516,
  "undoubted": 3517,
  "experimented": 3518,
  "vocated": 3519,
  "advocated": 3520,
  "mbling": 3521,
  "sembling": 3522,
  "resembling": 3523,
  "abolition": 3524,
  "lecting": 3525,
  "favored": 3526,
  "avoring": 3527,
  "favoring": 3528,
  "substitution": 3529,
  "intermediate": 3530,
  "acent": 3531,
  "jacent": 3532,
  "adjacent": 3533,
  "preferred": 3534,
  "raising": 3535,
  "ipulated": 3536,
  "stipulated": 3537,
  "countered": 3538,
  "encountered": 3539,
  "fortifications": 3540,
  "insurrection": 3541,
  "reeing": 3542,
  "agreeing": 3543,
  "unishing": 3544,
  "punishing": 3545,
  "iliation": 3546,
  "recounting": 3547,
  "secution": 3548,
  "liberties": 3549,
  "reviewers": 3550,
  "memories": 3551,
  "plaining": 3552,
  "apters": 3553,
  "chapters": 3554,
  "portions": 3555,
  "finding": 3556,
  "junction": 3557,
  "otting": 3558,
  "fathers": 3559,
  "rontation": 3560,
  "frontation": 3561,
  "confrontation": 3562,
  "prohibitions": 3563,
  "distorted": 3564,
  "invented": 3565,
  "constructing": 3566,
  "imitation": 3567,
  "Indies": 3568,
  "heading": 3569,
  "ombing": 3570,
  "igrated": 3571,
  "migrated": 3572,
  "expedition": 3573,
  "companion": 3574,
  "pection": 3575,
  "inspection": 3576,
  "Ansons": 3577,
  "considering": 3578,
  "Squadrons": 3579,
  "aufighters": 3580,
  "Beaufighters": 3581,
  "servers": 3582,
  "observers": 3583,
  "liament": 3584,
  "unprecedent": 3585,
  "unprecedented": 3586,
  "chored": 3587,
  "anchored": 3588,
  "vies": 3589,
  "movies": 3590,
  "personation": 3591,
  "impersonation": 3592,
  "eers": 3593,
  "rapping": 3594,
  "inions": 3595,
  "forcing": 3596,
  "suited": 3597,
  "tainers": 3598,
  "tertainers": 3599,
  "Entertainers": 3600,
  "quoted": 3601,
  "artment": 3602,
  "apartment": 3603,
  "orbiting": 3604,
  "ulpted": 3605,
  "sculpted": 3606,
  "Gate": 3607,
  "usters": 3608,
  "clusters": 3609,
  "damaging": 3610,
  "fting": 3611,
  "hring": 3612,
  "Bhring": 3613,
  "showering": 3614,
  "inferred": 3615,
  "jectured": 3616,
  "conjectured": 3617,
  "idated": 3618,
  "uding": 3619,
  "assing": 3620,
  "ensured": 3621,
  "claring": 3622,
  "declaring": 3623,
  "itoring": 3624,
  "monitoring": 3625,
  "eligion": 3626,
  "Religion": 3627,
  "Thing": 3628,
  "reaming": 3629,
  "driving": 3630,
  "reunited": 3631,
  "Accelerated": 3632,
  "Evolution": 3633,
  "mniscient": 3634,
  "Omniscient": 3635,
  "releasing": 3636,
  "Giers": 3637,
  "Deconstruction": 3638,
  "Evening": 3639,
  "highlighting": 3640,
  "ouncement": 3641,
  "announcement": 3642,
  "ifies": 3643,
  "layered": 3644,
  "heating": 3645,
  "solution": 3646,
  "participation": 3647,
  "stries": 3648,
  "dustries": 3649,
  "endured": 3650,
  "preventing": 3651,
  "aphing": 3652,
  "graphing": 3653,
  "tographing": 3654,
  "otographing": 3655,
  "photographing": 3656,
  "Climate": 3657,
  "escent": 3658,
  "aphers": 3659,
  "graphers": 3660,
  "tographers": 3661,
  "otographers": 3662,
  "photographers": 3663,
  "exhibitions": 3664,
  "oners": 3665,
  "isoners": 3666,
  "prisoners": 3667,
  "Constitution": 3668,
  "cessitated": 3669,
  "necessitated": 3670,
  "electorate": 3671,
  "cretion": 3672,
  "olate": 3673,
  "marketed": 3674,
  "leaping": 3675,
  "ievement": 3676,
  "achievement": 3677,
  "otivated": 3678,
  "Ewing": 3679,
  "establishing": 3680,
  "reate": 3681,
  "recreate": 3682,
  "batting": 3683,
  "acers": 3684,
  "trailing": 3685,
  "papers": 3686,
  "looted": 3687,
  "partition": 3688,
  "tension": 3689,
  "ucated": 3690,
  "educated": 3691,
  "reading": 3692,
  "constituted": 3693,
  "Germanization": 3694,
  "workers": 3695,
  "Others": 3696,
  "casualties": 3697,
  "speculated": 3698,
  "amounted": 3699,
  "posited": 3700,
  "herding": 3701,
  "Late": 3702,
  "geons": 3703,
  "usions": 3704,
  "couraging": 3705,
  "encouraging": 3706,
  "urging": 3707,
  "anagement": 3708,
  "Management": 3709,
  "acuated": 3710,
  "evacuated": 3711,
  "rossing": 3712,
  "relocation": 3713,
  "pling": 3714,
  "ampling": 3715,
  "sampling": 3716,
  "eners": 3717,
  "isteners": 3718,
  "listeners": 3719,
  "ertifications": 3720,
  "Certifications": 3721,
  "irations": 3722,
  "pirations": 3723,
  "inspirations": 3724,
  "otions": 3725,
  "emotions": 3726,
  "Ring": 3727,
  "erosion": 3728,
  "contributing": 3729,
  "illagers": 3730,
  "villagers": 3731,
  "warning": 3732,
  "udies": 3733,
  "Studies": 3734,
  "oundation": 3735,
  "Foundation": 3736,
  "fering": 3737,
  "lecommunication": 3738,
  "telecommunication": 3739,
  "ademies": 3740,
  "Academies": 3741,
  "igations": 3742,
  "estigations": 3743,
  "vestigations": 3744,
  "investigations": 3745,
  "concession": 3746,
  "fusing": 3747,
  "urgent": 3748,
  "ulting": 3749,
  "Confusion": 3750,
  "exting": 3751,
  "Taking": 3752,
  "Biring": 3753,
  "loying": 3754,
  "solders": 3755,
  "trate": 3756,
  "artrate": 3757,
  "tartrate": 3758,
  "enated": 3759,
  "ogenated": 3760,
  "halogenated": 3761,
  "alate": 3762,
  "halation": 3763,
  "orption": 3764,
  "sorption": 3765,
  "absorption": 3766,
  "eturning": 3767,
  "Returning": 3768,
  "aduate": 3769,
  "graduate": 3770,
  "Wheelers": 3771,
  "visiting": 3772,
  "erving": 3773,
  "Civilization": 3774,
  "mploying": 3775,
  "Employing": 3776,
  "imation": 3777,
  "animation": 3778,
  "Stories": 3779,
  "Masters": 3780,
  "activate": 3781,
  "pleting": 3782,
  "opers": 3783,
  "tributing": 3784,
  "erters": 3785,
  "rving": 3786,
  "Irving": 3787,
  "ffers": 3788,
  "suffers": 3789,
  "nations": 3790,
  "fire": 3791,
  "needing": 3792,
  "porating": 3793,
  "orporating": 3794,
  "corporating": 3795,
  "incorporating": 3796,
  "gaming": 3797,
  "pacing": 3798,
  "continued": 3799,
  "completing": 3800,
  "His": 3801,
  "Adaptations": 3802,
  "identities": 3803,
  "Flowers": 3804,
  "Bo": 3805,
  "adaptations": 3806,
  "Fate": 3807,
  "allation": 3808,
  "stallation": 3809,
  "installation": 3810,
  "allocated": 3811,
  "inadequate": 3812,
  "Being": 3813,
  "foot": 3814,
  "letters": 3815,
  "ueling": 3816,
  "fueling": 3817,
  "procession": 3818,
  "ollision": 3819,
  "collision": 3820,
  "visions": 3821,
  "provisions": 3822,
  "quered": 3823,
  "conquered": 3824,
  "rication": 3825,
  "abrication": 3826,
  "mustered": 3827,
  "austed": 3828,
  "hausted": 3829,
  "exhausted": 3830,
  "acturing": 3831,
  "facturing": 3832,
  "ufacturing": 3833,
  "manufacturing": 3834,
  "Nothing": 3835,
  "Lo": 3836,
  "placed": 3837,
  "ricated": 3838,
  "abricated": 3839,
  "recaptured": 3840,
  "artered": 3841,
  "quartered": 3842,
  "headquartered": 3843,
  "ovated": 3844,
  "renovated": 3845,
  "ucate": 3846,
  "educate": 3847,
  "ustrations": 3848,
  "illustrations": 3849,
  "mid": 3850,
  "Leading": 3851,
  "vising": 3852,
  "Dion": 3853,
  "ursing": 3854,
  "etent": 3855,
  "competent": 3856,
  "van": 3857,
  "bulation": 3858,
  "ribulation": 3859,
  "Tribulation": 3860,
  "reprinted": 3861,
  "umbers": 3862,
  "Numbers": 3863,
  "Seasons": 3864,
  "ettering": 3865,
  "anction": 3866,
  "sanction": 3867,
  "ederation": 3868,
  "federation": 3869,
  "alifying": 3870,
  "qualifying": 3871,
  "alities": 3872,
  "pacting": 3873,
  "impacting": 3874,
  "ballers": 3875,
  "footballers": 3876,
  "Competition": 3877,
  "wor": 3878,
  "itters": 3879,
  "Conservation": 3880,
  "Scient": 3881,
  "coloration": 3882,
  "plitting": 3883,
  "splitting": 3884,
  "orners": 3885,
  "corners": 3886,
  "ongated": 3887,
  "elongated": 3888,
  "istribution": 3889,
  "digging": 3890,
  "commercial": 3891,
  "looming": 3892,
  "tying": 3893,
  "Flyers": 3894,
  "landers": 3895,
  "Islanders": 3896,
  "iliate": 3897,
  "filiate": 3898,
  "affiliate": 3899,
  "minating": 3900,
  "ruition": 3901,
  "fruition": 3902,
  "posting": 3903,
  "amping": 3904,
  "Mc": 3905,
  "rustration": 3906,
  "frustration": 3907,
  "disappointing": 3908,
  "iterating": 3909,
  "expiring": 3910,
  "options": 3911,
  "ictories": 3912,
  "victories": 3913,
  "contention": 3914,
  "weighted": 3915,
  "afting": 3916,
  "drafting": 3917,
  "ivisions": 3918,
  "sactions": 3919,
  "ransactions": 3920,
  "Transactions": 3921,
  "firmation": 3922,
  "confirmation": 3923,
  "ription": 3924,
  "scription": 3925,
  "inscription": 3926,
  "onations": 3927,
  "donations": 3928,
  "overlooking": 3929,
  "towers": 3930,
  "spanning": 3931,
  "odifications": 3932,
  "ifted": 3933,
  "shifted": 3934,
  "additions": 3935,
  "ineered": 3936,
  "engineered": 3937,
  "Composition": 3938,
  "leaning": 3939,
  "umbered": 3940,
  "renumbered": 3941,
  "extending": 3942,
  "intersections": 3943,
  "lockaders": 3944,
  "blockaders": 3945,
  "loated": 3946,
  "floated": 3947,
  "swing": 3948,
  "swinging": 3949,
  "instructing": 3950,
  "butions": 3951,
  "ibutions": 3952,
  "contributions": 3953,
  "piercing": 3954,
  "blockading": 3955,
  "ordination": 3956,
  "rising": 3957,
  "jecting": 3958,
  "Blockading": 3959,
  "odgers": 3960,
  "Rodgers": 3961,
  "etrated": 3962,
  "enetrated": 3963,
  "penetrated": 3964,
  "wounding": 3965,
  "italization": 3966,
  "ibers": 3967,
  "alibers": 3968,
  "calibers": 3969,
  "elevation": 3970,
  "delling": 3971,
  "modelling": 3972,
  "ipient": 3973,
  "recipient": 3974,
  "Acting": 3975,
  "fident": 3976,
  "confident": 3977,
  "ranging": 3978,
  "incred": 3979,
  "unate": 3980,
  "tunate": 3981,
  "fortunate": 3982,
  "pretent": 3983,
  "mising": 3984,
  "promising": 3985,
  "incing": 3986,
  "vincing": 3987,
  "convincing": 3988,
  "bbing": 3989,
  "Definition": 3990,
  "impending": 3991,
  "Treatment": 3992,
  "asping": 3993,
  "grasping": 3994,
  "banking": 3995,
  "upplement": 3996,
  "Supplement": 3997,
  "sured": 3998,
  "pressured": 3999
}