t h
i n
e r
a n
th e
o n
e d
o r
a t
r e
e n
a l
a r
a s
i s
o f
e s
an d
in g
i t
t o
i c
r o
i on
s t
h e
o u
l e
en t
a c
s e
i l
o l
a d
f or
a m
o m
w as
l y
b e
c h
i r
u r
d e
i m
v e
u n
t er
i th
T he
at ion
o w
i g
a y
w h
w ith
v er
th at
c t
c on
u m
er e
c e
u l
o t
a g
e l
i d
b y
e t
a p
u t
h is
u s
p l
1 9
t r
p ro
e m
er s
re s
a in
l o
c om
s h
I n
al l
i es
s u
o d
is t
w ere
ro m
a b
0 0
es t
or d
e ar
p o
i v
at e
a re
f rom
is h
ar t
p er
e x
an t
s o
en d
at ed
ig h
th er
ic h
p e
l i
ou n
b er
or t
e w
r i
m an
a k
t e
a f
m ent
r it
g h
a v
on g
l d
c l
ar d
es s
am e
d i
it y
h ad
il l
un d
p t
ac t
ow n
i ve
wh ich
on e
ou t
c o
m o
q u
C h
i al
i p
ac k
p r
h er
r u
ou r
n ot
p ort
i an
ar y
as s
u p
a ve
it ion
t w
igh t
in e
i de
in t
u d
o g
or k
i f
g e
c k
b ut
a ir
for m
o ver
al so
2 0
it s
i a
the ir
t im
ct ion
d u
f ir
r an
as t
o p
ac h
ic al
S t
ig n
or e
f e
ur ing
2 00
a w
e v
H e
pl ay
at t
ou s
b o
ou ld
p art
n e
b l
oun d
s c
ation s
re c
ol l
p res
om e
u re
T h
ol d
wh o
at er
v i
u e
h as
it ies
u st
fir st
ar k
po s
o ther
it ed
ul t
ou gh
l l
s er
b um
d is
c re
an s
th is
k e
g od
m on
tw o
ag e
al bum
or y
f er
el l
re e
p h
h ave
s he
con t
A r
en ce
o k
as on
be en
20 1
o c
A n
U n
u gh
y ear
g ro
af ter
al ly
d es
ad e
i le
g r
ord an
p re
m e
I t
in d
J ordan
f l
f ic
tim e
it e
P ol
r ed
c ent
s ing
u se
c ed
ar ch
sh ip
t ed
l and
r on
S h
m ain
com m
und er
ct ed
n ing
d uring
ol og
le as
ion s
1 8
ent s
il m
an ce
be ing
in ter
re g
B rit
u bl
m ore
the y
al s
in cl
se ason
th ough
w ork
ro ugh
re n
ab le
R e
i e
ter s
in s
rec ord
re t
ver s
c ess
con d
R o
mo st
l es
i z
c es
con s
p ubl
F e
f in
g an
ap p
st r
in to
com p
m in
at ing
i re
re leas
er ed
t en
i ed
v ed
il d
S e
n o
c r
n ed
a il
f ilm
m y
the m
pres ent
t s
j e
us ed
ow ing
w e
ul ar
D e
ac e
s pe
h im
ic k
g o
incl ud
w ould
for e
s k
ic e
s y
us ic
se l
he el
a e
en er
W heel
or s
on s
ing s
god s
T own
ow er
c ame
N o
on ly
man y
Wheel er
b le
c ial
on y
ul l
p ol
at es
n um
ation al
g ame
G er
n ew
s ome
h igh
po int
t y
e ver
m er
w ay
Brit ish
p ers
f our
b as
or th
af t
r a
th ree
g y
A s
s on
m ber
c i
s ong
s ion
v is
19 9
Un ited
ae olog
th rough
or ed
an g
te am
se cond
ard s
je ct
a th
ish ed
w rit
am es
wh ere
ch ar
re l
b ers
ic t
s end
Y ork
Pol ish
A l
wh ile
c er
the n
st ate
S he
i el
e le
o s
an n
an y
p ed
ak e
ur ed
ar s
de ities
su ch
id ent
e en
Ch r
Town send
oll owing
d r
ter n
re at
ab out
ou th
includ ing
ag ain
c ar
ar m
ir ed
O n
l ater
d ition
m ade
his t
ill ion
ak ing
th an
i ous
E gy
ser ies
or ld
E n
pos ition
l ed
wh en
m em
pro du
f t
ic an
o se
act ion
a id
In di
s ed
le ad
port ed
m as
Egy pt
t ing
d o
w ar
st ru
s p
d ay
m et
m is
Ger man
c a
t ain
be fore
t on
ic s
c lo
s ur
o b
num ber
ut ion
k n
re present
b all
b ack
re main
C om
publ ic
s ign
il y
bo th
o st
e f
d er
Chr ist
m illion
of fic
ord ing
c ording
L e
n ment
over nment
f ollowing
s i
l ong
o per
lo c
su b
the se
ist s
o h
ch o
c an
a u
ar g
se ver
K ing
y ing
u al
w ell
ant im
Fe y
ut e
en s
th ere
B l
is ed
iv ed
m a
v ol
en g
b r
i vers
um ent
W h
m usic
ist ed
li ke
ad dition
on d
r al
al e
tw een
be tween
year s
or n
cr aft
k ing
stru ction
iel d
A t
ild ing
u ilding
pt ed
v ing
releas ed
a h
cont in
ain ing
app ear
v ent
pt ion
be gan
f ter
A fter
if ic
ar ed
ear ly
C l
gro und
or ing
fe at
u res
iv ing
f ul
se t
t le
st e
in ation
c oun
I I
v ar
c ould
m i
av ing
D uring
pl an
be came
w in
est ed
ct or
mem bers
s s
a z
ev ent
h um
s ide
T his
all ed
ly ing
char ac
vis ion
em ent
arch aeolog
f fer
ffer ent
di fferent
r y
o y
u g
a i
o ot
et s
g un
he ad
s m
ur y
sc ored
Egypt ian
di re
re ce
ex t
end ing
e k
su c
st ated
con struction
ction s
c ri
qu ent
g old
antim ony
oper ations
is e
of f
cl ass
as h
ot ed
et y
ret ur
th ing
v en
ag ed
at ive
not ed
ess ion
m ed
co ver
form ation
al k
f ield
ig in
us ing
per i
kn own
C on
c ol
sever al
d am
g overnment
s ent
cho ol
l ate
st it
air craft
ve lo
is ion
des ign
tr ans
and ing
im e
Christ mas
ship s
ot ion
d oll
av ation
c avation
l ay
ment s
c rit
f ound
de c
b uilding
b ro
suc cess
id ered
cons idered
l ight
produ ction
end ed
iz ed
c ur
F or
th ers
00 0
re ported
i ent
reg ion
l a
en ing
ul ation
in es
ener al
ow ever
point ed
sc oring
ad ition
tr adition
ex cavation
de velo
M ay
op le
at ch
g l
J oh
A ll
iv ities
so ci
ag ue
or igin
id ed
iv ate
s is
act ivities
Un ivers
fer red
again st
ist ing
in ed
h al
tr y
ar ies
on es
it ted
is ing
c ut
it tle
ur al
pl ac
p ing
appear ed
se quent
ap pointed
w ent
No ve
er n
s aid
it ing
loc ated
Joh n
C ol
of ession
h y
b ed
m il
im ited
l imited
id es
ran g
r ing
soci ation
pr ofession
des cri
con tr
W ar
play ed
p le
s ol
is m
ition s
w o
f le
ct ing
ent ion
vers ion
f lying
c ult
app ing
iv a
mon ument
m aking
lead ing
A mer
offic ers
ro und
Un ion
N ew
tr aining
writ ing
cover ed
id ing
re action
p ment
Nove mber
res s
t ion
h aving
but ed
cre ated
A c
Ac cording
com ing
B e
art ed
sm all
C ent
c ation
g g
l ine
w ing
Sh iva
ur t
p ower
su p
pro ject
tr ack
st anding
is sion
er ing
c ing
O c
l ing
am ent
i ate
d own
play ers
or ies
f ive
ca use
ve l
o thers
c are
ay ing
s ame
l ar
al though
ant ed
he l
as e
le g
le vision
te levision
in ce
part ment
ic ated
hist ory
ad o
oper ation
A ir
il lo
develo pment
bo ok
im ated
charac ters
v es
ter ed
pl ace
om an
part ic
d id
act ions
c alled
st arted
a ther
f am
st ation
res ult
sub sequent
rel ation
j illo
ru jillo
T rujillo
to m
b att
il ities
A d
St ate
aw ay
b ar
v ation
in ated
record ing
m otion
tr apping
S trapping
lar ge
e ach
comp le
ci ent
qu ired
Ro ck
comm ission
am ed
form ed
Oc to
Octo ber
19 8
p ion
As sociation
st ed
c red
d ate
J an
u b
le cted
qu ad
sing le
in ning
g inning
to ok
j o
be li
pr ivate
ll ing
iz ation
ic ted
gg ested
su ggested
Indi a
as ing
i ation
play ing
ir d
al ong
un g
u ally
ap pro
t ur
il ity
feat ured
m itted
ic ation
m ark
A ust
fir ed
ac cording
S ing
cre asing
n ation
h and
p or
com e
u ch
remain ing
n or
comple ted
De partment
m ar
ach ing
am pion
c ies
ment ed
od ies
stit ution
mis sion
l ess
as ion
p ur
G overnment
st ud
t aking
win ning
represent ed
fic tion
in creasing
p ar
cont ro
av y
ord er
vol ution
w orld
un e
l isted
w ard
res ident
N orth
u cation
ed ucation
act ing
C ar
form ing
tw ent
ul ated
ig ion
on ment
ide o
pr ed
op ening
rece ived
to p
ro y
h ome
un t
be ginning
im ate
w anted
s ite
le ft
p ired
P resident
er ate
includ ed
ffer ed
du cted
est imated
min ent
ish ing
sup ported
b odies
j ust
charac ter
ve ment
w n
t em
sel f
u es
j or
pe cted
r ated
em pted
att empted
air ies
c our
con ducted
iv ision
spe cies
all owing
med iate
al ent
i um
cre ation
ir onment
v ironment
S o
pro motion
pres ident
p ies
ain ed
rel ated
pers on
i buted
di ers
sol diers
ad ing
re volution
re quired
stru cted
work ing
p ons
res pons
19 4
pe ople
u ation
cons isted
in fl
t ies
att ention
A m
c le
pro minent
care er
all ing
d om
ren t
rel igion
av iation
doll ar
co pies
num bers
vi ew
i o
an k
use um
li fe
tim ate
ord ered
im ent
ow ed
at or
is ers
F ollowing
season s
ill ing
ag ing
ap rang
S aprang
St ation
us ion
releas e
s ions
A pr
Apr il
et ition
p ass
man ent
or ities
pre vent
round ing
su ffered
M ark
c ate
F airies
ent ered
ag ement
De ce
d ing
act ed
ch ampion
ru isers
c ruisers
m oted
at ters
u ction
av ations
c avations
it ary
h i
pe ct
if ied
x imate
ed ing
con structed
u ed
ins pired
ow ers
trans ferred
ul timate
or gan
or ation
et ing
ret ired
or ated
plan ning
en n
cur red
be coming
result ed
Dece mber
ific ation
om ination
oot ing
sh ooting
end ent
pro moted
se lling
ass ination
ass assination
ex cavations
se lected
ot ent
P ers
fer ed
of fered
feat uring
c ited
th orities
le ction
ish ment
air ed
sur rounding
pr ing
ch ild
s chool
str ate
un ction
b us
go ing
ir ing
in king
b ing
s aying
en vironment
ener ation
vi ation
g iving
g ames
Com m
appro ximate
h o
ce ption
B uilding
il t
art ing
ab l
St ates
r um
c y
t ured
ap tured
be l
I s
a im
comp etition
ro te
av es
hum an
oc curred
at ers
mis sing
dec ision
cur rent
t ons
up ation
c upation
p endent
de pendent
in formation
A viation
dis covered
alk y
writ ers
The y
tr ibuted
oun g
w ards
mo ved
peri od
A ug
Aug ust
it uation
s ituation
au thorities
ag re
f ur
for d
we ek
v ited
in vited
pres sion
do ing
ut ions
n ational
et ed
und ing
contin ent
is ation
im mediate
ou te
R oute
ber ed
port ing
oc cupation
ost ed
un ivers
ire ment
ment ion
f ig
id ers
soci ated
re ferred
Ch ar
ar ound
t ro
with in
par ate
not ing
ac ing
ail ing
n ame
W orld
est abl
per manent
g en
an other
p ared
r ating
un ning
sp ent
descri bed
est ing
but ion
i bution
it ting
g ing
ag ent
c ulation
D ivision
in ing
per forming
se ction
ow ered
com mented
for man
ce pted
pt ing
sis ters
un ities
over s
present ed
ard ing
con cent
tr uction
f unding
v asion
in vasion
od ing
ser ving
loc ation
sy n
J une
t ation
vent ion
per mitted
us sion
c ussion
n ear
pre pared
establ ishment
v oted
design ated
M e
y s
ther n
stit utions
in stitutions
b ited
hi bited
ro ss
i ated
comp ared
f unction
sk i
vol ving
cred ited
F ran
L ond
Lond on
c aptured
own ers
quad ron
ac cepted
ar ing
ret irement
in ations
pos ing
mon s
d ies
er o
land ing
p owered
ele ctions
oc ument
d ocument
lo oding
f looding
ri a
l ation
an ing
ach ed
an cient
se parate
ess ent
cre ate
produ ced
du ction
ex pected
pt em
p otent
fe cted
dire cted
S outh
st arting
at ure
le aving
or ning
m orning
plac ing
pr ising
ip ment
qu ipment
c ured
cond ition
iz ations
b and
vis ited
ason s
ip ated
r ight
r ate
in volving
in ch
v ations
str ument
in strument
c ulated
ight ing
ne cted
con nected
h osted
b illion
it ation
p icted
de picted
le ctions
to uring
des truction
P atters
cl ared
de clared
g eneration
ach ers
te achers
de buted
u ary
u ro
r ying
vi ous
mis sions
c am
point s
et ting
cre ating
je cted
rec ent
p s
ver ted
e quipment
p aired
F red
ash ing
W ashing
ot s
h ired
i ety
public ation
r ation
ict ions
iv en
int ed
i ers
partic ipated
ser vation
sc ient
p ulation
po pulation
man agement
Ad dition
lo sing
w illing
st ating
br ing
ser vations
iv alent
al ing
u ated
ul ate
ight ning
L ightning
ele ment
l iving
old ing
h olding
ac ilities
id ate
re sted
S event
Mark gr
F urt
Furt ado
cont ent
ol ution
ev olution
R evolution
f fic
mo vement
some thing
g etting
pos ed
d en
ou se
G eneral
ro duction
N e
Se ptem
Septem ber
u ilt
pass ing
3 0
ed erate
f ederate
Con federate
ok ing
om en
organ izations
ev en
l ies
am ate
ac red
sp ons
port s
ic ate
part ed
ob servations
ific ations
qu ivalent
e quivalent
al ers
lead ers
ter ies
at teries
b atteries
arch ing
em otion
re quent
f requent
ict ion
ex isting
Re cording
com ment
er ated
f acilities
cond itions
ond ing
it bodies
ru itbodies
bl ing
pl ication
ele ction
ar rested
c ated
con stitution
K ent
th ird
re al
E uro
port ion
ed ition
ap ted
ad apted
sh ared
me aning
ap ons
we apons
cons isting
ord ers
ort ed
f ers
ap h
fin al
am ing
el ing
pres sing
represent ing
L ittle
ar ters
qu arters
n amed
oun ted
J ack
ack ing
ical ly
go al
ict ing
p icting
de picting
ab oration
oll aboration
s acred
ind icated
ot ing
if ying
ed icated
tr ibution
at tributed
c alling
pt ions
ur ies
in a
ap ers
F ing
pl ies
arm ored
position s
s sing
ol ent
ar red
st arred
stud ent
F lying
d ating
appear ing
f ighting
An cient
se ated
in dependent
pr ies
ru ption
c ities
y thing
g ment
ol ated
r ivate
P rivate
ut ed
as sociated
roy ers
est royers
d estroyers
den omination
and idate
c andidate
public ations
cut ed
p date
U pdate
om inated
cover ing
tle ment
set tlement
r iding
cont aining
ic ations
rit ories
stud ies
out ing
Sh ol
Shol ay
es e
lo ck
p ending
re st
Th ere
ang ing
ffer ing
end ers
pe aking
m uch
int ing
af fected
retur ning
c iting
and er
un ition
m unition
am munition
he ld
ell ing
con verted
g iment
Re giment
W est
col lection
mon th
ic ating
oy ment
pl oyment
en listed
re paired
c ollaboration
s pring
fam ily
od erate
w rote
ron s
f r
tr ies
d edicated
produ cing
t ent
re ak
int ention
per ations
O perations
po sted
reg ulation
is ions
R oman
lo oking
pol it
rece ption
un ication
comm unication
per forman
vi olent
fin ition
tain ment
Com mission
ard ment
b ardment
om bardment
b ombardment
re asons
olog ies
de mons
ado pted
set ting
inter action
re aching
gl iders
result ing
in ion
ur ning
in stitution
plac ement
re vers
any thing
id ation
stit uted
ap plication
e cuted
ex ecuted
s ons
n ominated
car ving
ast ing
per ation
O peration
ver aging
a veraging
ter ritories
qu aries
i quaries
V alky
ro le
lay Station
P layStation
car rying
pre vious
ial ly
th ose
s im
c ers
em ies
ma jor
wh at
l s
tain ing
M usic
re jected
1 0
c asion
t ations
ust rated
ped ition
b uilt
Amer ican
s ession
pre ted
inter preted
dire ction
an cing
tr ation
is tration
as sociation
ear lies
S pring
publ ished
m oderate
im es
rece iving
ab orated
d ated
ic a
coun tries
n ament
c ident
g ent
er ies
qu ested
re quested
est ion
j ured
in jured
per mission
per cent
su ffering
se en
ist ent
ber ate
li berate
de liberate
top ping
ig ation
fe ated
de feated
jo ining
de parted
cent uries
it ated
B r
ir ation
ic ing
av ies
sup porting
ast ed
ener ated
eng ers
lay ers
te cted
ir culation
c irculation
W e
ound ing
ad uated
gr aduated
n omination
A li
e ing
ple ment
b inations
d isting
comm unities
p owers
aw ing
f ate
il ent
col lected
is tered
en sing
gl iding
is lation
leg islation
op inion
i ations
f ruitbodies
in ate
v iving
sur viving
re placement
me eting
mem bered
re agent
is ters
vol vement
in volvement
pro hibited
se arching
the aters
am bers
pl ications
du cation
E ducation
t iquaries
An tiquaries
en al
al es
origin al
S c
o ing
partic ular
ch art
ab ilities
oc casion
en ed
con vention
t elling
in vent
per cussion
D unning
ag es
ain ted
p ainted
min istration
K ate
se vent
of ten
oll aborated
c ollaborated
d ivision
pr inting
al y
pr inted
er ation
Euro pe
in cident
Ar ch
comm er
om ing
contro vers
mo ving
sign ing
gl ing
s itting
organ ization
im inated
el iminated
lay ing
l isting
an ning
m ing
iz ing
sp apers
new spapers
ign ment
pr im
pass engers
or ient
str ated
mon strated
de monstrated
ver ed
gro ssing
se eing
ter tainment
En tertainment
tr acted
inter ested
arm ament
par ation
com binations
und ament
f undament
de finition
in ities
iv inities
d ivinities
ca using
dr awing
ex isted
re ated
ex ception
dec isions
ren dition
t ifications
reg istered
oper ate
f ring
gro wing
b iting
col lections
se cured
ol ition
re actions
es ters
as ions
or ruption
c orruption
view ers
ever ything
fle cted
ist ons
re placing
Comm anding
produ cers
sh owing
number ed
ch ambers
res cent
L ing
ual ties
as ualties
is cated
f iscated
con fiscated
end ment
Am endment
le cruisers
batt lecruisers
w allowing
s wallowing
f usion
f oll
under went
gr anted
al tered
ac ters
Char acters
but ing
d ered
M a
ant ing
ch an
ar r
vers ions
1 5
ive ly
ill ustrated
cess ion
pos session
ne ction
con nection
re ad
ev ing
m pted
pro mpted
agre ement
be h
an ies
comp anies
oper ated
m ay
pe cting
or ers
il ies
o vation
et ies
v ated
er ted
ev ening
at tered
ac quired
ad mitted
co vers
All ies
er vation
Ch ampion
st ing
dis tribution
gg esting
su ggesting
develo ping
con servation
qu estion
ent ering
under standing
cons istent
ad ding
bring ing
str icted
re stricted
g ated
ant i
ub sequent
S ubsequent
r unning
p iration
ins piration
ine ering
light ed
sup plies
stru cting
pro tected
w aters
ilm ing
b itions
hi bitions
at tracted
reat ment
de alers
fer ring
univers ities
ann ivers
a ution
m ounted
em pting
att empting
fle cting
re flecting
reg ions
est ations
if estations
ult ed
ul ing
b ate
de bate
cess ions
ic ies
und red
h undred
n ers
sing ing
ck ing
S ilent
s ounding
oll ing
ic ensing
reg arding
su ing
str ictions
re strictions
p onding
res ponding
or responding
c orresponding
f ted
se gment
aim ing
cl aiming
concent ration
port ation
C ons
pe ated
re peated
f acing
cer ning
e king
x idation
an ion
por ters
sup porters
ol ation
vi olation
ear ning
W ing
igh ters
f ighters
ord inated
H aving
ear ing
im pression
atch ing
ele vision
ut standing
O utstanding
S eries
g ate
c rescent
e pers
ke epers
New sted
h ing
us hing
organ isation
ull s
c uring
se curing
P istons
be ating
stud ying
br aries
li braries
leg ation
R overs
ap plications
sub continent
o ying
pl oying
retur ned
r ies
an imated
spe aking
de pending
le ct
A ction
as ters
Ar my
f em
em ing
per ate
por ated
or porated
c orporated
in corporated
P roduction
in it
at on
fe eling
it ations
v al
ap tation
ad aptation
de commission
s ince
x pedition
E xpedition
Con struction
ang ers
le t
beli eving
be cause
al ion
ather ed
pro cured
on ation
p ent
ut ies
d uties
fam ilies
n orth
de ployment
k m
r ations
fl owers
g re
ar ly
w on
sub mitted
any ing
comp anying
ac companying
C an
oc using
ch ing
spons ored
par ing
ter ing
comp eted
descri ption
th ored
au thored
ot ted
sub strate
form er
om ent
appro aching
spe culation
tr ying
s topping
est igation
v estigation
in vestigation
b ination
com bination
ple mented
t ification
l inking
inter section
se ctions
em ate
as emate
c asemate
g enerated
bro thers
il ation
prevent ed
li vered
de livered
tur ning
ar ring
st arring
mon ies
ere monies
c eremonies
ash ion
ran king
rec eding
p receding
ret iring
n ition
g nition
co gnition
re cognition
f itted
De ities
iv ine
est ions
tradition s
ew ing
t reated
e ping
ke eping
man ifestations
op ing
r uling
re ction
ur rection
l ion
port unities
ll ion
be llion
re bellion
per iment
ex periment
comment ing
reg ulated
res sing
is ement
t isement
ver tisement
ad vertisement
int roduction
part ies
g ories
cate gories
li fted
ri ate
p riate
appro priate
l iding
x ing
mi xing
p ping
concent rated
fir ing
ir culated
c irculated
c ulate
ir culate
c irculate
en ate
S enate
om inations
im inate
el iminate
um ption
se eking
sub stituted
f ailing
c asions
oc casions
ign ation
ong oing
ess ions
N ations
y ers
As sociated
T elevision
rec ating
p recating
de precating
am bling
b ient
am bient
p ushing
contr ibuted
dr inking
fin ishing
ad vent
re construction
t esters
pro testers
In formation
un constitution
ctor ate
st ers
po sters
Sc outing
am bered
ch ambered
Ad ding
long ing
av ate
c avate
ex cavate
C aution
est selling
b estselling
por ation
or poration
C orporation
tom ers
us tomers
c ustomers
V ision
Jan uary
rel ating
comple tion
st em
b ilities
ch anging
g reat
fe ct
dis tributed
i buting
O r
M ar
en emies
unt il
c orted
es corted
just ed
ad justed
p ite
main taining
por ate
or porate
c orporate
p ut
im itations
l imitations
P ro
est ination
d estination
u ations
it uations
s ituations
ord ering
un itions
m unitions
der ing
att alion
B attalion
ust ed
g athered
d onation
iv ated
pers ons
ab orers
l aborers
ind icating
ren dered
sur rendered
y al
commission ing
cl usion
con clusion
ather ing
are a
C ity
re located
or ate
the ories
te aching
ele cted
f ocusing
orth ing
W orthing
sc attered
clo thing
ex hibited
b ition
hi bition
pre paring
res ervation
P reservation
V ers
soci ations
as sociations
est ation
ele vated
as uring
me asuring
d ent
und ers
se lection
il ers
str ing
m oment
re aking
b reaking
u ing
str ation
point ing
P laying
our nament
T ournament
off ers
ul gated
m ulgated
pro mulgated
instrument ation
im plemented
loc ations
init iated
ere cted
dec orated
hist icated
p histicated
so phisticated
il ing
com position
d ers
al culated
c alculated
im port
ne cting
con necting
al ignment
Brit ain
orient ed
p il
ob struction
g mented
au gmented
W ilming
pr aying
des cent
ed ding
ap ing
b oring
te ction
pro tection
M ad
Wh alers
ip ate
sp ending
m oting
pro moting
att ending
is cent
min iscent
re miniscent
v otion
de votion
en vision
il ization
iv ilization
f ashion
success ion
cent ered
ar ning
le arning
on ent
h ent
h oping
ins isted
ass erted
qu ated
e quated
is olated
old ers
Be ginning
g aining
et itions
ist orted
M atters
descri bing
R olling
origin ated
ign ing
gan ization
Or ganization
contr ibution
op ters
ic opters
hel icopters
l icensing
red uction
g ion
Re gion
il isation
ul ations
hi biting
ark ing
ru iting
no thing
pre paration
ind icate
l erated
ad ministration
ip ation
av ored
orn ament
fic ient
ef ficient
ower ing
un ing
t uning
k illing
pol icies
d ancing
ind ing
sur prising
ex pression
t reatment
re flected
rom oted
P romoted
om bers
b ombers
S isters
rit ers
W riters
mi ered
pre miered
g ambling
to ured
C asualties
light ing
In dependent
de partment
pol icing
us pected
s uspected
organ ising
op posing
vi olated
leg ated
az ers
Bl azers
mark eting
ens ored
c ensored
trans ported
at rons
u ate
D avies
b ion
Al bion
En vironment
be longing
av ated
c avated
ex cavated
s portation
ran sportation
T ransportation
All ent
found ation
b onding
g itation
ur gitation
reg urgitation
ig ate
fr igate
o xidation
od ologies
th odologies
me thodologies
Valky ria
record ed
st and
var ies
P otent
through out
ine ers
st at
off enders
as k
se eming
kn owing
all ies
c ity
as king
iv es
velo pment
De velopment
w anting
F l
ru ary
b ruary
Fe bruary
put ting
a ising
pr aising
ex pressing
ap tations
t it
song s
head quarters
i er
d angers
ron t
qu ate
ade quate
m en
ren dering
com prising
ffic ient
su fficient
ver ting
un ctions
f unctions
em ployment
air ing
p airing
p acking
v ancing
ad vancing
clo sing
ro ad
de voted
soci eties
un ion
g athering
on ated
d onated
ar ling
D arling
a el
ish ers
publ ishers
d rons
al drons
W aldrons
or ring
St orring
ext ent
rest ored
per ties
ex hibition
dis appeared
M ission
over ning
g overning
ur nament
to urnament
ret ention
il iated
represent ation
cri ption
es cription
D escription
ce eding
l ers
pect ations
ex pectations
R ed
co aching
H owever
tr ading
us sions
c ussions
comm itted
t ested
p iring
az ing
al king
view ing
ev ed
ans ion
p ansion
ex pansion
P red
ob servation
f alling
pl ate
res pected
w ers
n ered
if ting
t alent
An ders
high lighted
h anging
lock ading
att acking
sp otted
et rate
en etrate
p enetrate
dis pers
de ling
mo deling
u ating
int ent
en cing
eng ing
put ation
re putation
st aying
par ated
se parated
film ing
is ations
an king
point ment
ap pointment
partic ipate
ex pired
de aling
ugh ters
a ughters
d aughters
eng agement
rel ations
di ffered
per ception
is cient
n iscient
ru pted
en acted
ory telling
with drawing
rel ate
ne ctions
con nections
cent ers
comp onent
p iction
de piction
K hent
cons ulted
ud gment
descri ptions
m ies
um mies
m ummies
min ing
pro cessions
op portunities
un ishment
p unishment
inter vention
qu estions
des ired
pers isted
cer tification
op Matters
P opMatters
wh ate
i ewing
ev iewing
R eviewing
se lections
ist ening
l istening
th inking
oper ating
a er
ve ying
r acing
is suing
v iding
pro viding
comp etitions
d iving
im plement
G liding
fin ing
hand ling
pro vision
in fring
l anning
P lanning
ost ilities
h ostilities
ot iations
g otiations
ne gotiations
lo ving
be aring
ven ient
con venient
dis cussion
incl usion
ce lerated
con cerning
oc ated
ri king
st riking
ath ers
t esting
im iting
l imiting
ro tation
m ers
con formation
b ent
ign ored
revolution aries
res ignation
min isters
land owners
oun ting
c ution
ber ing
mem bering
re membering
ro cities
at rocities
re membered
st ories
ber ties
school ing
rit ing
W riting
s essions
E aton
r aining
T raining
co ordinated
ad quarters
He adquarters
quadron s
id ering
g ineering
En gineering
N B
D ate
ab ling
en abling
w atching
le ment
E lement
ed ent
rec edent
p recedent
n ominations
dis covering
rec ation
p recation
de precation
ild ers
u ilders
b uilders
Arch aeolog
f ying
te cting
pro tecting
comp ilation
je ction
cons iders
l asted
un ited
ru ited
rec ruited
ven ing
ce ment
d iction
pos ers
m olition
de molition
pro oted
u prooted
arg eted
t argeted
rote ction
P rotection
cut ting
w earing
prim aries
de legated
dec iding
V alent
B ulls
ak ers
re covered
al iers
av aliers
C avaliers
ag ers
on ate
P layers
up ying
c upying
oc cupying
ain ters
p ainters
min ated
publ ishing
ed ited
p atrons
U prising
un event
for ested
mark ers
x cavation
E xcavation
ber ment
mem berment
dis memberment
R ivers
C red
ch arted
c inated
as cinated
f ascinated
ander ers
W anderers
er manent
P ermanent
sp outing
re legation
lect uring
mil itary
com ers
new comers
trans lation
play er
o ption
ri ed
m ake
des perate
comm anding
er ating
du e
S peaking
ret aining
um ents
arr iving
E dition
l ated
trans lated
Re ception
er taining
ent ertaining
ur ring
ex cited
p etition
ed itions
qu ities
i quities
t iquities
An tiquities
ste ad
Indi an
in struction
ust ered
s outh
ins pecting
ef fected
con verting
in ating
ac uation
ev acuation
ren ovation
Ad ministration
f airies
ain ting
p ainting
w ater
n er
ust ration
ill ustration
pro perties
inter esting
p ictions
Fe eding
pl es
ay ers
if iers
al ifiers
qu alifiers
arg eting
t argeting
f iliated
af filiated
tern ating
al ternating
re fers
it ating
s l
pre fers
ig ging
inter actions
l icate
de licate
O ilers
hel ping
is ition
qu isition
ac quisition
ly ers
i ating
al cons
g gling
stru ggling
con cussion
contin uing
dis cussions
ap pointing
ed ication
d edication
N ation
am azing
d ying
inter viewing
pro ving
im proving
F in
ight ed
m ation
un icating
comm unicating
ce iling
function ing
ar nered
g arnered
ass isted
eng ineering
y oming
W yoming
ent ers
ave ling
tr aveling
out ed
ad ers
char ging
con version
ier cing
eng ineers
lock ing
b locking
obstruction s
a iting
w aiting
g ers
back ing
s praying
infl icted
al ization
s inking
ass ignment
ud ition
a udition
up porting
S upporting
ad uating
gr aduating
produ ctions
ath ing
all enging
ch allenging
tr aying
por traying
w edding
organ isations
au ction
im bing
cl imbing
rit ies
b rities
le brities
ce lebrities
hal ted
pl ated
out standing
qu iring
ev ident
z ent
S zent
st ations
rest oration
d ivine
pro posing
aph ies
r aphies
og raphies
on ographies
ic onographies
pre ading
s preading
ul ers
v enerated
v eneration
it erate
mon ers
ce ptions
not ion
dis ruption
ound aries
b oundaries
em ons
D emons
ab orate
st alling
p ening
is ons
ul ating
sh ifting
inter related
her ent
if estation
man ifestation
ver ything
E verything
j udgment
pl icated
ship ping
under lying
res urrection
ter mediate
In termediate
L iving
u aries
ct uaries
an ctuaries
s anctuaries
em ploying
br ated
ex ported
part ners
im mons
S immons
ess ing
cri bing
es cribing
D escribing
found ers
im posing
re members
ex pecting
pre tations
inter pretations
tr ing
S tring
re ation
res sion
ar ities
un erated
m unerated
re munerated
sur veying
ut ing
d ressing
un eration
m uneration
re muneration
ap plies
lo ons
al loons
b alloons
ren ted
arg ument
Un limited
f ing
av igation
un ching
de fining
ot iate
g otiate
ne gotiate
us ers
im ination
ro pping
d ropping
ru ising
c ruising
mon stration
de monstration
ur ation
ed gling
fl edgling
comple ment
F ruitbodies
re ferring
f ruiting
min ation
b urning
m inted
in ent
Re present
ant ities
qu antities
g erated
ag gerated
ex aggerated
op position
b ted
ou bted
und oubted
experiment ed
v ocated
ad vocated
m bling
se mbling
re sembling
ab olition
le cting
f avored
av oring
f avoring
sub stitution
inter mediate
ac ent
j acent
ad jacent
pre ferred
ra ising
ip ulated
st ipulated
coun tered
en countered
for tifications
ins urrection
ree ing
ag reeing
un ishing
p unishing
il iation
rec ounting
se cution
li berties
re viewers
mem ories
pl aining
ap ters
ch apters
port ions
f inding
j unction
ot ting
f athers
ron tation
f rontation
con frontation
pro hibitions
d istorted
invent ed
con structing
im itation
In dies
head ing
om bing
ig rated
m igrated
ex pedition
comp anion
pe ction
ins pection
An sons
cons idering
S quadrons
au fighters
Be aufighters
ser vers
ob servers
li ament
un precedent
unprecedent ed
ch ored
an chored
v ies
mo vies
person ation
im personation
e ers
r apping
in ions
for cing
su ited
tain ers
ter tainers
En tertainers
qu oted
art ment
ap artment
or biting
ul pted
sc ulpted
G ate
ust ers
cl usters
dam aging
ft ing
h ring
B hring
sh owering
in ferred
ject ured
con jectured
id ated
ud ing
ass ing
ens ured
cl aring
de claring
it oring
mon itoring
el igion
R eligion
Th ing
re aming
dr iving
re united
Ac celerated
E volution
m niscient
O mniscient
releas ing
G iers
De construction
E vening
high lighting
oun cement
ann ouncement
if ies
lay ered
he ating
sol ution
partic ipation
str ies
du stries
end ured
prevent ing
aph ing
gr aphing
to graphing
o tographing
ph otographing
Cl imate
es cent
aph ers
gr aphers
to graphers
o tographers
ph otographers
ex hibitions
on ers
is oners
pr isoners
Con stitution
cess itated
ne cessitated
ele ctorate
cre tion
ol ate
mark eted
le aping
ie vement
ach ievement
ot ivated
E wing
establ ishing
re ate
rec reate
batt ing
ac ers
tr ailing
p apers
lo oted
part ition
ten sion
u cated
ed ucated
re ading
con stituted
German ization
work ers
O thers
c asualties
spe culated
am ounted
pos ited
her ding
L ate
ge ons
us ions
cour aging
en couraging
ur ging
an agement
M anagement
ac uated
ev acuated
ro ssing
re location
pl ing
am pling
s ampling
en ers
ist eners
l isteners
er tifications
C ertifications
ir ations
p irations
ins pirations
ot ions
em otions
R ing
ero sion
contr ibuting
ill agers
v illagers
war ning
ud ies
St udies
ound ation
F oundation
fer ing
le communication
te lecommunication
ad emies
Ac ademies
ig ations
est igations
v estigations
in vestigations
con cession
f using
ur gent
ult ing
Con fusion
ex ting
T aking
B iring
lo ying
s olders
tr ate
ar trate
t artrate
en ated
og enated
hal ogenated
al ate
hal ation
or ption
s orption
ab sorption
et urning
R eturning
ad uate
gr aduate
Wheel ers
vis iting
er ving
C ivilization
m ploying
E mploying
im ation
an imation
St ories
M asters
act ivate
ple ting
op ers
tr ibuting
er ters
r ving
I rving
f fers
su ffers
n ations
f ire
ne eding
por ating
or porating
c orporating
in corporating
g aming
p acing
contin ued
comple ting
H is
Ad aptations
ident ities
Fl owers
B o
ad aptations
F ate
all ation
st allation
in stallation
al located
in adequate
Be ing
f oot
let ters
u eling
f ueling
pro cession
oll ision
c ollision
vis ions
pro visions
qu ered
con quered
r ication
ab rication
m ustered
a usted
h austed
ex hausted
act uring
f acturing
u facturing
man ufacturing
No thing
L o
plac ed
r icated
ab ricated
rec aptured
ar tered
qu artered
head quartered
o vated
ren ovated
u cate
ed ucate
ust rations
ill ustrations
m id
Le ading
vis ing
D ion
ur sing
et ent
comp etent
v an
b ulation
ri bulation
T ribulation
re printed
um bers
N umbers
Se asons
et tering
an ction
s anction
ed eration
f ederation
al ifying
qu alifying
al ities
p acting
im pacting
ball ers
foot ballers
Com petition
w or
it ters
Con servation
S cient
col oration
pl itting
s plitting
orn ers
c orners
ong ated
el ongated
is tribution
d igging
commer cial
lo oming
ty ing
F lyers
land ers
Is landers
il iate
f iliate
af filiate
min ating
ru ition
f ruition
po sting
am ping
M c
ru stration
f rustration
dis appointing
it erating
ex piring
o ptions
ict ories
v ictories
cont ention
we ighted
aft ing
dr afting
iv isions
s actions
ran sactions
T ransactions
fir mation
con firmation
ri ption
sc ription
in scription
on ations
d onations
over looking
to wers
sp anning
od ifications
if ted
sh ifted
addition s
ine ered
eng ineered
Com position
le aning
um bered
ren umbered
ext ending
inter sections
lock aders
b lockaders
lo ated
f loated
s wing
swing ing
in structing
but ions
i butions
contr ibutions
p iercing
b lockading
ord ination
r ising
ject ing
B lockading
od gers
R odgers
et rated
en etrated
p enetrated
w ounding
it alization
i bers
al ibers
c alibers
ele vation
de lling
mo delling
ip ient
rec ipient
A cting
f ident
con fident
rang ing
in cred
un ate
t unate
for tunate
pre tent
mis ing
pro mising
in cing
v incing
con vincing
b bing
De finition
im pending
T reatment
as ping
gr asping
b anking
up plement
S upplement
s ured
pres sured
