<unk>	0
<s>	0
</s>	0
▁	-3.64386
.	-3.65501
،	-3.73101
▁في	-3.92395
ة	-3.97653
▁ال	-4.24556
▁من	-4.33495
ي	-4.51257
ه	-4.59972
▁و	-4.60676
ية	-4.70652
ات	-4.77487
ت	-4.79112
ا	-4.79479
▁-	-4.91858
▁م	-5.05105
▁على	-5.06271
▁ب	-5.07465
ها	-5.13999
ين	-5.21205
م	-5.23161
▁الم	-5.23971
▁(	-5.29877
▁ت	-5.31619
▁ل	-5.34136
ون	-5.41895
▁إلى	-5.45076
▁وال	-5.45871
:	-5.46903
)	-5.51941
▁ي	-5.59496
▁أن	-5.6824
▁لل	-5.75065
و	-5.75686
▁أو	-5.76179
ان	-5.85692
ال	-5.8902
▁بن	-5.97881
▁عام	-6.01517
د	-6.06126
▁بال	-6.07717
▁عن	-6.0848
وا	-6.09763
ًا	-6.15369
▁التي	-6.1641
▁مع	-6.1664
ب	-6.1698
ن	-6.18365
اً	-6.19619
▁«	-6.19716
ح	-6.23739
س	-6.24972
▁أ	-6.27328
ط	-6.33965
ف	-6.3415
▁بعد	-6.34581
▁ما	-6.36025
ى	-6.43618
ك	-6.44116
ع	-6.44707
»	-6.45077
▁هو	-6.45477
ج	-6.46177
▁كان	-6.46583
هم	-6.51592
▁ف	-6.51998
▁الأ	-6.52712
▁بين	-6.55415
ق	-6.56173
اء	-6.56415
ز	-6.57442
▁وت	-6.58089
▁هي	-6.61343
▁ك	-6.62045
نا	-6.63186
▁هذا	-6.65068
▁ن	-6.66165
ل	-6.66456
-	-6.67506
▁الذي	-6.67568
▁لا	-6.68927
▁الت	-6.71058
▁هذه	-6.71384
ُ	-6.76457
▁18	-6.76914
▁عبد	-6.77175
ام	-6.77298
ص	-6.78664
ته	-6.78712
ـ	-6.7989
ر	-6.80101
▁وي	-6.83055
▁حيث	-6.83875
ش	-6.84029
▁كل	-6.8559
ض	-6.87126
ير	-6.87373
▁وأ	-6.8881
ور	-6.88911
▁محمد	-6.8967
ما	-6.90705
ذ	-6.90837
أ	-6.90938
يا	-6.91649
ّ	-6.92432
▁ا	-6.92969
).	-6.94201
▁كما	-6.94449
▁وم	-6.95542
▁مثل	-6.95684
▁ع	-6.95724
▁ذلك	-6.96113
وس	-6.97951
▁لم	-6.98656
▁مدينة	-7.00399
▁الله	-7.00998
▁كانت	-7.01745
يل	-7.02295
خ	-7.02509
غ	-7.03437
يد	-7.03678
▁ق	-7.04706
▁القرن	-7.06183
اب	-7.07073
▁الع	-7.08761
َ	-7.09847
▁سنة	-7.10794
▁وقد	-7.14034
▁قبل	-7.14165
▁الن	-7.14689
ول	-7.15528
▁تم	-7.16294
ِ	-7.16483
▁وفي	-7.16997
▁وهو	-7.17221
▁ش	-7.17598
▁والم	-7.17803
لي	-7.19249
,	-7.19664
▁أي	-7.20591
▁إ	-7.21324
▁رئيس	-7.21378
ث	-7.21828
▁وهي	-7.21895
▁قدم	-7.21991
▁ه	-7.22251
ود	-7.22563
▁ثم	-7.23226
▁الق	-7.23423
▁كرة	-7.25949
بي	-7.26874
▁اليوم	-7.27696
مر	-7.27835
▁أول	-7.2821
يات	-7.29218
▁عدد	-7.29255
وف	-7.293
اد	-7.2936
وم	-7.29496
بر	-7.30467
▁المتحدة	-7.31421
اس	-7.31607
يس	-7.32713
▁لاعب	-7.33088
s	-7.3396
ظ	-7.35525
دي	-7.358
▁حتى	-7.36889
▁ح	-7.3802
▁غير	-7.3846
يف	-7.39215
▁س	-7.3978
ئ	-7.40678
▁ومن	-7.40947
وي	-7.4109
)،	-7.41294
يون	-7.41553
▁له	-7.42589
▁خلال	-7.43027
تين	-7.43047
▁الب	-7.43087
▁المدينة	-7.43179
في	-7.4372
▁بعض	-7.44091
▁الس	-7.45493
جر	-7.45942
▁يمكن	-7.46537
ار	-7.46873
▁ج	-7.47318
ست	-7.47804
فر	-7.48636
▁قد	-7.48739
▁الج	-7.4928
من	-7.49558
▁الإ	-7.49813
تها	-7.50994
▁ممثل	-7.51449
▁عند	-7.52858
▁د	-7.53154
▁عشر	-7.53545
▁ان	-7.5424
در	-7.54595
▁الح	-7.54711
▁الأول	-7.55266
َّ	-7.55704
▁أنه	-7.56349
▁وكان	-7.56842
كر	-7.57662
تي	-7.58411
▁عالم	-7.58625
▁سي	-7.59644
يم	-7.59706
▁1	-7.60153
▁الر	-7.61391
اني	-7.62822
▁أمريكي	-7.62843
▁ر	-7.63107
▁الحرب	-7.63165
a	-7.6318
▁يوم	-7.63638
▁17	-7.63662
فا	-7.63732
قر	-7.63966
قل	-7.64292
▁علي	-7.64716
▁3	-7.64724
e	-7.64938
▁والتي	-7.64992
▁أكثر	-7.66186
▁وب	-7.67189
ْ	-7.67865
▁إن	-7.68207
▁مراجع	-7.68807
▁وا	-7.69015
▁العالم	-7.69162
رو	-7.69411
اق	-7.69559
▁أحد	-7.69824
ني	-7.69868
▁فيها	-7.6987
▁أبو	-7.7003
▁الثاني	-7.70148
▁الش	-7.70583
لو	-7.70669
▁بها	-7.70754
2	-7.70765
▁مصر	-7.70896
▁تاريخ	-7.70972
▁الف	-7.70982
▁العربية	-7.71305
o	-7.7199
▁إي	-7.7239
مان	-7.72658
اح	-7.72931
وب	-7.7329
يت	-7.73924
تر	-7.74125
▁مواليد	-7.7431
دو	-7.74504
▁ابن	-7.7479
/	-7.75016
▁ط	-7.76358
▁الخ	-7.76512
▁دي	-7.76729
▁جائزة	-7.77366
».	-7.78006
▁ملك	-7.78337
لا	-7.7845
▁الملك	-7.78573
ري	-7.78625
كا	-7.78726
▁2	-7.80438
▁الد	-7.81392
▁أخرى	-7.81472
▁وذلك	-7.81653
▁يكون	-7.81709
▁ولكن	-7.82012
سي	-7.82416
"	-7.82471
▁أحمد	-7.82479
▁للم	-7.82534
▁4	-7.82648
▁نوبل	-7.82782
▁ممثلة	-7.82974
يو	-7.83051
▁با	-7.83078
▁قال	-7.83148
▁مصري	-7.83378
▁وفيات	-7.83393
▁14	-7.83457
ائ	-7.83716
▁لي	-7.83744
▁أم	-7.8382
▁است	-7.84143
▁أيضا	-7.84175
بل	-7.84183
▁ذات	-7.84193
▁ولا	-7.84331
▁16	-7.84488
يز	-7.84575
▁يت	-7.8468
▁منطقة	-7.84939
وت	-7.85445
▁عليه	-7.85667
▁فإن	-7.8597
▁الك	-7.86488
؛	-7.8649
▁15	-7.86528
▁إلا	-7.86613
با	-7.86794
▁خارجية	-7.8731
▁العديد	-7.87431
▁الأولى	-7.87625
مي	-7.88108
▁تكون	-7.88441
بو	-7.88503
وز	-7.89174
دا	-7.89797
وق	-7.89866
دل	-7.90004
اف	-7.90186
▁لها	-7.90594
▁12	-7.90699
▁ص	-7.91082
t	-7.91238
y	-7.91359
▁حاصل	-7.91642
▁بشكل	-7.92361
صل	-7.92529
يك	-7.9272
▁الز	-7.93567
▁13	-7.93812
جل	-7.93827
i	-7.93993
▁يتم	-7.94796
▁يُ	-7.95189
▁منها	-7.95366
مل	-7.95451
رد	-7.95473
▁منذ	-7.95661
شي	-7.95887
نت	-7.96076
▁5	-7.9608
▁كتاب	-7.96095
▁العام	-7.96234
▁تحت	-7.96795
▁10	-7.96827
▁–	-7.97011
اج	-7.97216
دة	-7.97309
كي	-7.97502
حل	-7.978
▁مت	-7.9793
ٍ	-7.98442
1	-7.98672
▁خ	-7.98885
▁به	-7.99172
▁الولايات	-7.99323
▁ز	-7.99509
▁علم	-7.99643
اع	-7.99771
كل	-8.0024
▁أس	-8.00262
▁بي	-8.00459
زي	-8.00585
▁بو	-8.00671
▁الدين	-8.00679
▁غ	-8.00752
▁حدث	-8.00899
▁تأسيس	-8.01163
مة	-8.01253
▁ولاية	-8.01315
▁اسم	-8.01356
▁لت	-8.01572
هما	-8.01891
▁بل	-8.02109
سا	-8.02168
▁كم	-8.02232
▁عندما	-8.02266
▁حول	-8.02311
از	-8.02904
▁جامعة	-8.02969
▁6	-8.03019
يان	-8.0336
▁والأ	-8.03931
▁المت	-8.04085
سو	-8.04863
كن	-8.05548
صف	-8.05809
اك	-8.05904
▁أبي	-8.05907
▁اللغة	-8.06453
▁تلك	-8.06516
g	-8.06746
لف	-8.06797
شر	-8.06861
▁الص	-8.06869
يق	-8.06986
u	-8.07054
▁لو	-8.07093
▁بم	-8.07175
▁عمل	-8.07191
كس	-8.07335
فل	-8.07342
شار	-8.07429
عد	-8.07685
▁سياسي	-8.078
▁الدولة	-8.08019
يب	-8.08028
▁الرئيس	-8.08105
▁11	-8.08194
رك	-8.08362
يه	-8.08997
▁آل	-8.09045
يين	-8.09456
▁مجموعة	-8.09476
▁أيضًا	-8.09881
▁أكبر	-8.10099
سل	-8.10272
▁هناك	-8.10323
▁مما	-8.10342
▁جنوب	-8.10609
▁طريق	-8.10752
مو	-8.1082
▁7	-8.1086
▁وصلات	-8.10871
اه	-8.10963
▁الثانية	-8.10977
طر	-8.11015
جا	-8.1117
▁إذا	-8.11268
▁الط	-8.11282
5	-8.12046
▁أما	-8.12117
▁كبير	-8.13011
يوم	-8.13127
خر	-8.13502
لة	-8.13837
سون	-8.13883
زا	-8.13969
نو	-8.14402
كون	-8.14413
عة	-8.14594
▁"	-8.14672
▁انظر	-8.14681
▁باسم	-8.14722
▁عمر	-8.1487
▁رو	-8.14896
عم	-8.14933
دى	-8.15199
▁الأرض	-8.153
ؤ	-8.15458
رب	-8.15708
بة	-8.15734
n	-8.15824
▁عليها	-8.15872
▁السنة	-8.16252
▁نظام	-8.16347
جي	-8.1651
3	-8.16636
▁قام	-8.1664
▁آخر	-8.16784
قد	-8.17053
▁حوالي	-8.17212
▁شمال	-8.17323
l	-8.17327
▁الل	-8.1751
▁المن	-8.17687
▁فقد	-8.17738
نج	-8.17814
▁خط	-8.17946
هر	-8.18117
▁مدن	-8.18393
▁الشيخ	-8.1859
▁والذي	-8.19061
▁20	-8.1912
▁جي	-8.19121
سب	-8.19236
تا	-8.1931
وج	-8.19538
جم	-8.19701
قي	-8.20104
▁|	-8.20356
▁البحر	-8.20603
وع	-8.20685
▁عدة	-8.21092
▁المنطقة	-8.21118
لح	-8.2149
▁جميع	-8.21568
اط	-8.21587
اري	-8.21613
▁دول	-8.21987
00	-8.22146
▁درجة	-8.22241
رت	-8.22562
يع	-8.22655
»،	-8.22661
▁اليابان	-8.22716
▁الثالث	-8.22781
▁فر	-8.23118
▁أل	-8.23215
وري	-8.23345
▁بسبب	-8.23382
d	-8.23433
بن	-8.23718
▁8	-8.2375
er	-8.23815
c	-8.23974
▁أر	-8.24139
بد	-8.24445
سر	-8.24478
رم	-8.2514
ً	-8.25142
▁تن	-8.25202
دن	-8.25239
قول	-8.25348
زم	-8.25821
▁الذين	-8.26241
جو	-8.26509
▁إسرائيل	-8.2653
▁الغ	-8.27145
▁وع	-8.27436
▁S	-8.27591
▁الأخرى	-8.27739
▁العمل	-8.27823
▁الوطني	-8.28027
▁تقع	-8.28029
لق	-8.28538
▁بر	-8.28664
مثل	-8.28785
▁التاريخ	-8.28795
▁البر	-8.28848
▁مجلس	-8.28911
سم	-8.29107
▁لكن	-8.29141
0	-8.29158
p	-8.29166
▁الأمريكية	-8.29353
را	-8.29593
وار	-8.29883
S	-8.29893
▁حكم	-8.3031
(	-8.30615
▁أهم	-8.30642
بت	-8.30782
▁:	-8.30796
▁جون	-8.31087
رق	-8.31188
▁أثناء	-8.31518
▁محافظة	-8.32388
على	-8.32473
▁9	-8.32552
▁واحد	-8.32723
▁العالمية	-8.32783
جد	-8.33436
رة	-8.33545
قة	-8.33727
هن	-8.33738
▁جو	-8.3398
▁أصل	-8.34177
تان	-8.34516
خل	-8.34542
▁استخدام	-8.34572
▁العربي	-8.34697
▁كو	-8.34756
رس	-8.35101
▁وفق	-8.35172
▁فرنسي	-8.3529
ميز	-8.35463
▁أنها	-8.35652
▁نفس	-8.35725
كو	-8.35761
▁والت	-8.35917
▁فترة	-8.35976
▁العراق	-8.36187
▁وكانت	-8.36447
r	-8.36658
▁آ	-8.36905
▁الأمريكي	-8.37053
▁أيضاً	-8.37254
بار	-8.37392
k	-8.37466
فة	-8.37592
▁شاعر	-8.37667
▁القديمة	-8.37786
كت	-8.38204
▁المع	-8.38307
▁ست	-8.38665
6	-8.39025
▁الطب	-8.3923
عاد	-8.39368
▁نهر	-8.39566
وية	-8.39804
▁السكان	-8.40036
▁أشخاص	-8.40043
تو	-8.40121
▁مارس	-8.40245
▁سو	-8.40257
▁مركز	-8.40291
▁النظام	-8.40322
▁يوجد	-8.40332
علم	-8.40357
▁يناير	-8.40361
▁فقط	-8.40549
فق	-8.40575
▁البلاد	-8.40803
ائر	-8.40819
تم	-8.40828
▁فرنسا	-8.41083
▁ول	-8.41372
دين	-8.4141
قص	-8.41418
▁دو	-8.41602
ند	-8.41703
▁العرب	-8.4188
▁يوليو	-8.42155
غا	-8.42175
دور	-8.42654
غن	-8.42796
A	-8.42846
ران	-8.4302
▁المملكة	-8.43069
▁أكتوبر	-8.43357
نس	-8.43425
حت	-8.43452
▁حسب	-8.43651
▁مر	-8.43936
▁سا	-8.44125
▁أيام	-8.44253
اش	-8.44395
▁تُ	-8.44469
صر	-8.44616
اوي	-8.4486
▁متر	-8.44958
تهم	-8.45087
▁شخص	-8.45273
in	-8.45387
سان	-8.45472
لم	-8.46095
كم	-8.46102
▁وزراء	-8.46151
▁ضد	-8.46161
▁تت	-8.46908
▁الجيش	-8.46909
ائل	-8.47138
▁يونيو	-8.47268
فت	-8.47621
▁أد	-8.47792
▁شي	-8.47923
▁موقع	-8.4809
كان	-8.48109
▁أوروبا	-8.48121
الم	-8.48195
▁وجود	-8.48208
or	-8.48351
حر	-8.48643
▁A	-8.48868
ثر	-8.49046
▁حرب	-8.49212
▁ألمانيا	-8.49256
▁الاتحاد	-8.4926
▁الحكومة	-8.49261
▁مايو	-8.4929
طن	-8.49327
روس	-8.49458
▁كا	-8.49474
طلق	-8.49474
▁المراجع	-8.49506
▁بأ	-8.49585
صور	-8.49638
▁الإسلام	-8.49723
▁وإ	-8.49939
غو	-8.4995
C	-8.50053
▁عبر	-8.50185
▁كبيرة	-8.50293
▁نحو	-8.5051
▁داخل	-8.50518
رج	-8.50539
▁ولم	-8.50659
b	-8.51066
▁الرابع	-8.51075
▁لأ	-8.51252
▁الحكم	-8.51445
شا	-8.51518
ائية	-8.51538
▁حر	-8.5162
▁بالم	-8.51733
▁(19	-8.51864
طل	-8.52143
غر	-8.52152
▁الشمس	-8.52252
وان	-8.52571
▁بت	-8.52676
حق	-8.52709
m	-8.52764
ائي	-8.52902
▁الإسلامية	-8.53292
تش	-8.53327
▁دون	-8.53481
رغم	-8.53552
▁ديسمبر	-8.53672
رش	-8.53695
▁الإنسان	-8.53697
▁ولد	-8.53714
آ	-8.53714
h	-8.53738
▁لأن	-8.53834
▁دور	-8.54207
▁ألماني	-8.54236
لين	-8.54406
▁إنجليزي	-8.54407
▁الغربي	-8.54476
▁شرق	-8.54506
▁العزيز	-8.54558
▁فبراير	-8.54685
ذكر	-8.54899
▁الفترة	-8.5511
نتج	-8.55159
▁حين	-8.55269
بين	-8.55383
▁شكل	-8.55566
▁اله	-8.55635
بط	-8.55683
▁يد	-8.55874
▁ألف	-8.55962
▁الجزائر	-8.56059
▁الوقت	-8.56123
صب	-8.56158
▁أغسطس	-8.56369
▁الأمير	-8.56474
رف	-8.5662
▁عراقي	-8.5675
▁شهر	-8.56985
▁عهد	-8.57021
▁جورج	-8.57034
x	-8.57133
▁عملية	-8.57236
▁سبتمبر	-8.57264
فن	-8.57539
▁أنواع	-8.57798
يَّة	-8.57891
4	-8.57919
رن	-8.57976
▁معظم	-8.58053
▁إحد	-8.58117
ولى	-8.58146
al	-8.58152
▁نوفمبر	-8.58183
▁نظرية	-8.58189
▁سن	-8.58289
▁ذكر	-8.5835
بال	-8.58365
جمع	-8.58566
▁كاتب	-8.58689
زو	-8.58745
ِّ	-8.58756
▁وح	-8.58995
▁نوع	-8.59183
بير	-8.59191
ذر	-8.59228
قب	-8.5927
▁مليون	-8.59432
وال	-8.59559
نغ	-8.59655
يش	-8.59737
▁أمريكية	-8.59747
سن	-8.59836
▁جر	-8.59933
قا	-8.59952
لت	-8.60073
ذا	-8.60241
▁إذ	-8.60437
▁بداية	-8.60757
▁=	-8.60862
شكل	-8.61089
▁وأن	-8.61216
▁نسمة	-8.61267
▁أحداث	-8.61351
▁النبي	-8.61408
▁المصري	-8.61478
ندي	-8.61529
▁لغة	-8.6161
en	-8.61717
ولي	-8.61745
▁وضع	-8.61776
▁مرة	-8.61887
▁أصبح	-8.61996
▁واحدة	-8.62164
▁مصرية	-8.62169
▁دولة	-8.6221
▁حالة	-8.62271
▁القوات	-8.62408
وك	-8.6244
▁الا	-8.6246
▁ري	-8.63053
مع	-8.63085
▁العامة	-8.63134
▁أعضاء	-8.63226
▁حركة	-8.63394
▁ومع	-8.63442
▁أبريل	-8.63464
▁طول	-8.63792
▁ضمن	-8.63858
▁غرب	-8.6419
قيم	-8.64313
▁الحر	-8.64433
▁السنوات	-8.64442
نق	-8.64473
▁سكان	-8.64608
▁فأ	-8.64918
فو	-8.6513
▁وبعد	-8.65202
جن	-8.65238
صناعة	-8.65289
▁شركة	-8.65431
an	-8.65631
جار	-8.65893
وه	-8.66014
▁الفرنسي	-8.66128
▁السادس	-8.66138
كار	-8.66277
▁المغرب	-8.66316
▁الهند	-8.66673
حي	-8.66801
▁بالإضافة	-8.66927
▁نهاية	-8.66957
▁غا	-8.67136
▁الصين	-8.67224
▁سم	-8.6734
▁را	-8.67794
▁بأن	-8.67938
▁وهذا	-8.68023
▁/	-8.68126
▁كال	-8.68412
▁كثير	-8.68442
▁إبراهيم	-8.68517
حة	-8.6869
▁قر	-8.68803
وض	-8.68883
▁ثلاث	-8.68895
ايا	-8.68927
O	-8.68992
عيد	-8.69106
▁كون	-8.69228
روب	-8.69247
▁المح	-8.69293
▁تر	-8.69459
ضع	-8.6952
▁المدن	-8.6963
يار	-8.69669
▁سنوات	-8.69779
▁نو	-8.69875
زل	-8.699
ٌ	-8.6992
أو	-8.69991
▁الفرنسية	-8.70085
وح	-8.70271
▁مح	-8.70308
يًا	-8.70515
▁الفيزياء	-8.70551
▁المر	-8.70597
تون	-8.70642
قت	-8.70793
▁فال	-8.70795
▁خاصة	-8.70975
▁حل	-8.70989
▁الدول	-8.71076
▁بينما	-8.7113
▁الغربية	-8.71188
ائد	-8.71345
▁العصر	-8.71458
يني	-8.71552
on	-8.71589
صار	-8.71741
▁لغات	-8.71757
جز	-8.71852
ظهر	-8.72073
▁C	-8.72267
انية	-8.72279
▁الخط	-8.72308
▁دا	-8.72327
خرج	-8.72395
جان	-8.72466
بس	-8.72525
▁M	-8.72528
سك	-8.72529
▁الولاية	-8.72678
▁بناء	-8.72851
▁فا	-8.72973
▁مجال	-8.73044
▁تعتبر	-8.73135
▁البو	-8.73197
وط	-8.73201
▁كتب	-8.73214
الي	-8.73221
▁عم	-8.73367
▁بما	-8.73847
▁مست	-8.73906
«	-8.74098
▁مُ	-8.74139
درس	-8.74146
▁القانون	-8.74174
▁ياباني	-8.742
جري	-8.7431
▁فت	-8.74646
T	-8.74849
▁جزيرة	-8.74875
دخل	-8.74881
▁عاصمة	-8.74911
▁إليه	-8.75013
بع	-8.75061
▁حي	-8.75133
راد	-8.75279
▁بإ	-8.75362
بان	-8.75415
▁الث	-8.75685
▁لكل	-8.75877
قار	-8.75878
قطع	-8.75911
▁حسن	-8.75965
قتل	-8.76033
نز	-8.76082
اث	-8.76087
ادة	-8.76092
8	-8.76169
▁الكم	-8.76265
غي	-8.76298
رئاسة	-8.76349
▁الناس	-8.76456
▁الحياة	-8.7656
▁الأدب	-8.76714
▁أشهر	-8.76758
▁الكثير	-8.7685
▁الاسم	-8.76898
▁نسبة	-8.76988
ch	-8.76992
▁القرآن	-8.77149
ar	-8.77214
دون	-8.77302
▁المسلمين	-8.77305
كب	-8.77305
وش	-8.77467
▁كي	-8.77632
جب	-8.77637
غان	-8.77882
دار	-8.77936
▁الخامس	-8.78001
▁سوري	-8.78016
▁الكويت	-8.78094
▁بول	-8.78102
▁فيما	-8.78134
▁الثامن	-8.78266
مدينة	-8.78374
▁العاصمة	-8.78381
▁إس	-8.78451
ريك	-8.78539
▁30	-8.78705
صن	-8.78711
w	-8.79021
وني	-8.79104
▁25	-8.79237
زار	-8.79354
▁وقت	-8.79475
ستر	-8.79523
▁حاليا	-8.79611
ضم	-8.79647
اض	-8.79807
▁B	-8.79892
بق	-8.80092
▁العناصر	-8.80288
خا	-8.80402
▁مكان	-8.80703
ابة	-8.80714
حكم	-8.80789
عت	-8.80882
I	-8.80951
ائع	-8.80952
z	-8.81042
▁السودان	-8.81221
او	-8.81229
P	-8.8129
▁الكيمياء	-8.81353
ِي	-8.81363
غل	-8.81367
▁مقتل	-8.81391
▁الطاقة	-8.81393
9	-8.81507
بري	-8.81593
ضي	-8.81658
▁يعتبر	-8.81717
ملك	-8.81721
فصل	-8.81815
ايت	-8.81841
▁حسين	-8.82074
▁تل	-8.82116
▁دار	-8.82166
يخ	-8.82175
▁فلسطين	-8.82334
▁التاسع	-8.82384
رات	-8.82405
20	-8.82538
نة	-8.82629
▁المصرية	-8.82661
▁بار	-8.8267
لام	-8.82687
▁غو	-8.82735
وجه	-8.82741
▁الشهر	-8.82772
▁حياته	-8.82859
راك	-8.829
▁لبناني	-8.82989
▁نفسه	-8.83113
f	-8.83371
▁الميلادي	-8.83503
قام	-8.83611
طلب	-8.83625
تس	-8.83626
▁الشمال	-8.83642
▁قائمة	-8.83747
▁أب	-8.83749
▁الميلاد	-8.8379
M	-8.83816
▁P	-8.83816
▁للت	-8.83923
▁بدأ	-8.84001
▁كويتي	-8.84097
ادي	-8.84169
▁الشرق	-8.84244
▁مناطق	-8.8439
▁فن	-8.8443
دير	-8.84473
اته	-8.84537
B	-8.84581
▁حزب	-8.84643
▁وقال	-8.84644
يض	-8.84749
▁السلطان	-8.84759
يلي	-8.84783
ولا	-8.84881
رع	-8.84907
▁الآ	-8.84966
▁الخاصة	-8.85006
▁مو	-8.85028
إ	-8.85031
7	-8.85047
▁القر	-8.85113
▁بير	-8.85343
▁ث	-8.85352
قيادة	-8.85502
▁جزء	-8.85518
▁فيزياء	-8.85632
▁إيطالي	-8.85778
▁أهل	-8.85843
▁وكذلك	-8.85967
▁الدولي	-8.86025
برا	-8.86182
▁الوطنية	-8.86203
▁المناطق	-8.86515
سكي	-8.86613
▁ني	-8.8669
▁H	-8.86718
شير	-8.86784
▁وسط	-8.86843
يوس	-8.86904
▁19	-8.8692
حافظ	-8.8699
عل	-8.87048
▁عسكري	-8.8712
▁وزير	-8.87184
▁قانون	-8.87213
▁الآن	-8.87315
▁البا	-8.87324
ولد	-8.87344
▁وتقع	-8.87372
ارت	-8.87516
يدي	-8.87631
أن	-8.87772
▁عضو	-8.8783
عمل	-8.87958
▁الحرارة	-8.88035
ياً	-8.88064
▁هنري	-8.88122
▁توجد	-8.88453
▁رأس	-8.88533
خدم	-8.88548
▁أصبحت	-8.88624
▁وما	-8.88715
H	-8.88866
▁سعيد	-8.88874
▁بني	-8.88973
▁الأمر	-8.89046
▁يقوم	-8.89161
▁مختلفة	-8.89305
14	-8.89525
▁جمهورية	-8.89583
▁السعودية	-8.89601
شو	-8.89686
▁والن	-8.89693
ليل	-8.89709
وكالة	-8.89963
▁أعمال	-8.8997
تن	-8.90136
▁بواسطة	-8.90234
▁يوسف	-8.90253
قال	-8.90404
اسم	-8.90506
مس	-8.90512
كتل	-8.90524
▁وس	-8.90541
▁البريطاني	-8.90549
طار	-8.90827
▁والع	-8.90887
▁الإمبراطورية	-8.90942
يته	-8.90968
▁الأردن	-8.91018
▁السابق	-8.91043
▁معركة	-8.91195
▁وق	-8.91536
▁الوسطى	-8.91562
▁كلمة	-8.91685
▁مي	-8.91829
روح	-8.91914
▁بلاد	-8.91933
▁ثلاثة	-8.92063
إعادة	-8.92339
▁محمود	-8.92447
راب	-8.9259
▁السابع	-8.92627
▁رقم	-8.92668
سلم	-8.92707
▁علماء	-8.92802
لك	-8.9299
▁يبلغ	-8.93032
▁ماري	-8.93066
▁جديد	-8.9307
▁يستخدم	-8.93091
▁الحديث	-8.93111
▁أمير	-8.93319
وكي	-8.93494
عرض	-8.93796
▁المحيط	-8.93902
▁الرحمن	-8.93936
is	-8.94062
راء	-8.94103
▁الاست	-8.94122
▁فوق	-8.94138
قسم	-8.94188
▁الإمبراطور	-8.94384
خط	-8.94477
يّة	-8.94575
▁جن	-8.94615
50	-8.94674
تشر	-8.94713
داء	-8.94882
▁عيد	-8.95242
ضاف	-8.95323
▁أماكن	-8.95338
راق	-8.95623
▁الجن	-8.95675
▁فلسطيني	-8.95709
▁لإ	-8.95786
قدر	-8.96247
شت	-8.96335
▁السلام	-8.96336
داد	-8.96351
L	-8.96503
كين	-8.96517
▁تستخدم	-8.96585
▁العالمي	-8.96866
▁بحر	-8.96872
▁ليس	-8.96892
نظر	-8.96931
▁بريطاني	-8.97007
▁بور	-8.97204
E	-8.97346
▁اللغات	-8.97347
ic	-8.97414
▁الشمالية	-8.9745
▁جمع	-8.97467
le	-8.97467
▁وصف	-8.97544
تز	-8.97628
▁سابق	-8.97647
▁21	-8.9769
▁احت	-8.97722
▁D	-8.9774
▁مقر	-8.97747
▁الحزب	-8.97799
بات	-8.97805
تل	-8.98076
نشأ	-8.98123
قبل	-8.98155
▁الجنوب	-8.98255
▁حم	-8.98337
▁دين	-8.98404
▁المواد	-8.98422
▁أقل	-8.98457
انغ	-8.98662
▁الفر	-8.98733
▁سعودي	-8.98783
زر	-8.98837
يرة	-8.9887
▁المجال	-8.98874
10	-8.98949
▁بلغ	-8.98988
▁عين	-8.99028
▁وفاة	-8.99054
ده	-8.99064
▁بيت	-8.99133
قوم	-8.9915
ريا	-8.99153
صاب	-8.99166
▁والس	-8.99205
بورغ	-8.99362
▁للأ	-8.99388
اخت	-8.99392
▁2011	-8.99577
يث	-8.99865
فيد	-8.99926
▁العثمانية	-8.99937
نف	-8.99975
▁الإسلامي	-9.00013
▁فتح	-9.00321
80	-9.00492
▁القطر	-9.00547
دان	-9.00612
▁الوزراء	-9.00761
▁بدأت	-9.00766
▁مسلم	-9.00838
▁التعليم	-9.00963
اتها	-9.01121
▁سر	-9.01133
D	-9.01204
▁جديدة	-9.0122
▁الفن	-9.01358
لاحظ	-9.01389
▁نقل	-9.01413
▁سورة	-9.01419
▁المعلومات	-9.01477
ّر	-9.01481
▁ميل	-9.01623
▁لويس	-9.01769
▁أفريقيا	-9.01789
▁2004	-9.01798
▁والق	-9.01867
▁والج	-9.01893
▁شر	-9.01962
30	-9.01998
▁أجل	-9.02194
▁فقال	-9.02373
▁الجزيرة	-9.0239
▁الأم	-9.02514
حدث	-9.02565
▁والب	-9.026
▁الجو	-9.02697
▁سير	-9.02741
▁عقد	-9.0276
طور	-9.0291
كتب	-9.02955
19	-9.03052
▁جبل	-9.03212
بور	-9.03219
ستان	-9.03347
▁المجلس	-9.03358
▁ترك	-9.03376
▁المست	-9.03376
▁ض	-9.03594
▁توفي	-9.03595
▁المُ	-9.03604
دية	-9.03615
▁صح	-9.03754
هيئة	-9.03891
بول	-9.03904
▁الماء	-9.03999
es	-9.04011
▁عرف	-9.04073
▁2003	-9.04073
▁تسمى	-9.04112
▁جانب	-9.04132
N	-9.04181
فض	-9.04272
▁خالد	-9.04357
حد	-9.04554
رام	-9.04642
ذهب	-9.047
▁وتم	-9.04739
▁الموقع	-9.04772
▁أُ	-9.04978
نظام	-9.05013
▁2000	-9.05061
أخذ	-9.05122
عين	-9.05147
▁عنه	-9.05178
▁الحديثة	-9.05321
▁الثورة	-9.05324
▁شا	-9.05489
رجع	-9.05527
▁أك	-9.05551
▁الأس	-9.05563
▁T	-9.05626
▁نصف	-9.05666
▁ويمكن	-9.05728
▁جاء	-9.05791
▁الكتاب	-9.05819
▁إليها	-9.05914
▁تع	-9.05951
▁العلم	-9.06022
R	-9.06133
▁العدد	-9.06314
▁بد	-9.06349
▁المجموعة	-9.06395
يط	-9.0642
حص	-9.06436
=	-9.06525
▁وحدة	-9.06586
حضر	-9.0666
يح	-9.06663
خص	-9.06714
▁الجمهورية	-9.06745
▁الكبير	-9.06777
وث	-9.06942
▁يعرف	-9.06944
▁ثابت	-9.07008
000	-9.07026
▁وصل	-9.07043
فيل	-9.07047
▁يح	-9.07096
▁كيمياء	-9.073
▁قوات	-9.07312
وسي	-9.07323
صنع	-9.07349
صح	-9.07391
▁إنجلترا	-9.07436
ol	-9.07493
▁الشرقية	-9.07696
▁24	-9.07746
▁إضافة	-9.07792
ُّ	-9.07795
له	-9.07917
دول	-9.07953
▁2017	-9.08103
▁E	-9.08131
طبق	-9.0815
▁الرا	-9.082
حدد	-9.08207
▁تضم	-9.08243
▁قتل	-9.08346
عر	-9.08455
▁مد	-9.08499
▁تعد	-9.08538
▁القدم	-9.08617
▁آسيا	-9.08755
▁2005	-9.08765
▁خاص	-9.08869
▁مصادر	-9.0891
▁2009	-9.08978
▁السلطة	-9.08987
▁وك	-9.09006
▁ذو	-9.09057
▁إسبانيا	-9.09182
▁2010	-9.09209
▁وكاتب	-9.09312
سام	-9.09367
سور	-9.09373
ظل	-9.09464
فتح	-9.09475
مار	-9.09577
▁صف	-9.09645
▁مغني	-9.09649
▁أمر	-9.09662
عار	-9.09725
▁سوريا	-9.09846
70	-9.10055
▁مقاطعة	-9.101
شق	-9.10147
جاه	-9.10195
نك	-9.10366
وى	-9.10376
▁والح	-9.1048
ساعد	-9.10507
▁مساحة	-9.10515
عام	-9.10531
ّة	-9.1074
▁الجنوبية	-9.10772
▁عناصر	-9.10786
غير	-9.10795
▁المتوسط	-9.10844
▁القديم	-9.10868
▁الأمم	-9.10913
؟	-9.10949
90	-9.111
▁سطح	-9.11191
▁البل	-9.1121
ارة	-9.1124
عبد	-9.11269
▁يست	-9.11275
▁والإ	-9.11329
▁قياس	-9.11422
▁وجه	-9.11428
▁البرلمان	-9.11622
▁بالأ	-9.11695
▁الجديدة	-9.11789
▁السل	-9.11822
▁السياسية	-9.11826
▁1980	-9.11863
باب	-9.11893
▁الشعر	-9.11933
▁نقطة	-9.12179
زن	-9.12255
نسبة	-9.12516
▁الزمن	-9.12528
منطقة	-9.1254
re	-9.12562
راف	-9.12601
رى	-9.12659
▁أعلى	-9.12714
▁المثال	-9.12745
▁المس	-9.12753
>	-9.12753
لاند	-9.12806
▁بعده	-9.1281
▁البلد	-9.12847
فضل	-9.12894
▁وشاعر	-9.12902
▁أساس	-9.12958
زيد	-9.12988
▁لذلك	-9.1321
فكر	-9.13299
رين	-9.13365
▁تو	-9.13374
▁خل	-9.13575
▁أف	-9.13602
▁وان	-9.13649
▁يكن	-9.13721
▁وج	-9.13755
شترك	-9.13792
▁سلطان	-9.13904
مناسبات	-9.13909
▁R	-9.14018
▁الحركة	-9.14069
▁23	-9.14149
▁2015	-9.14151
▁الحدود	-9.14205
ثق	-9.14232
▁الدولية	-9.14351
راع	-9.14404
▁الكيميائية	-9.14531
▁خلف	-9.14549
▁مصطفى	-9.1459
أجهزة	-9.14616
فار	-9.14688
ri	-9.14707
▁عبارة	-9.14771
فاء	-9.14778
النسبة	-9.14794
تغير	-9.1485
▁مستوى	-9.14879
▁سبيل	-9.14957
▁يبقى	-9.14984
▁جد	-9.15004
▁صور	-9.15053
يري	-9.15084
▁الكو	-9.15111
به	-9.15155
▁عرض	-9.15162
▁G	-9.15203
▁يسمى	-9.15298
v	-9.15313
غار	-9.15426
▁الرومانية	-9.15447
▁الجسم	-9.15482
▁2006	-9.15545
▁حساب	-9.15714
▁الكون	-9.15753
تواجد	-9.15821
▁وكل	-9.15879
▁ـ	-9.15951
صة	-9.15967
وقف	-9.16015
▁نور	-9.16019
▁22	-9.16084
ودي	-9.16201
▁فهي	-9.16208
▁قطر	-9.16251
▁بري	-9.16275
▁حد	-9.16352
▁الآخر	-9.16427
▁اغتيال	-9.1645
▁إدوارد	-9.16466
هل	-9.165
اليوم	-9.16683
غرب	-9.16701
▁عدم	-9.16856
▁الشعب	-9.16921
▁منظمة	-9.17005
▁أسست	-9.17052
▁يجب	-9.17093
عمال	-9.17167
▁2012	-9.17198
▁حال	-9.17218
بية	-9.17224
▁العلوم	-9.17237
▁السياسي	-9.17257
▁باستخدام	-9.17411
▁الحاسوب	-9.17411
شرف	-9.17449
▁نسب	-9.17685
▁مس	-9.17792
نع	-9.1781
▁شبه	-9.17923
ليم	-9.17975
▁مؤسس	-9.18006
▁سلسلة	-9.18012
عقد	-9.1809
▁أمام	-9.18127
▁1979	-9.18137
▁دائرة	-9.18174
▁البريطانية	-9.18194
لب	-9.1827
هو	-9.18325
▁القاهرة	-9.18369
▁المختلفة	-9.18375
▁هار	-9.18399
▁المصادر	-9.18524
▁العلماء	-9.18533
جميع	-9.18559
▁يقول	-9.18624
▁البن	-9.18693
ثي	-9.18725
▁آي	-9.18757
▁كذلك	-9.18851
▁رجل	-9.18872
▁لبنان	-9.18952
▁الجزء	-9.18962
▁الجديد	-9.18974
▁وفاته	-9.19012
فور	-9.19055
خي	-9.19138
▁فهو	-9.19301
الغريغوري	-9.19336
▁الحسن	-9.19452
▁اعت	-9.19459
'	-9.19579
▁1982	-9.19586
▁1991	-9.19588
▁صغيرة	-9.19747
لوك	-9.19811
اسي	-9.1983
▁فان	-9.19912
▁فو	-9.19986
▁حكومة	-9.20069
▁2008	-9.2009
عرف	-9.2011
▁البعض	-9.2012
▁إل	-9.20177
ائه	-9.20185
داخل	-9.20193
▁0	-9.20203
وص	-9.20239
▁قائد	-9.20246
▁مختلف	-9.20251
هندسة	-9.20311
ونغ	-9.20367
▁مواقع	-9.20439
▁وغيرها	-9.20448
▁برا	-9.20562
عي	-9.20666
35	-9.20669
زال	-9.20689
ينغ	-9.20738
▁عادة	-9.20861
ترجم	-9.20891
ضل	-9.21019
▁لهم	-9.21043
▁1992	-9.21065
▁يقع	-9.2108
▁L	-9.21188
ثان	-9.21239
▁تحتوي	-9.21244
طول	-9.21287
▁قدر	-9.21319
شعر	-9.21334
...	-9.21412
▁العشرين	-9.21416
▁تقوم	-9.21444
▁منهم	-9.21472
▁العسكرية	-9.2153
جيل	-9.21533
▁لأنه	-9.21535
نقل	-9.21538
ويل	-9.21546
▁لن	-9.21609
▁أخ	-9.21637
ادية	-9.21647
يكي	-9.21652
لتقويم	-9.21685
▁إنتاج	-9.21752
▁الصف	-9.21835
▁الغرب	-9.21895
▁تح	-9.21933
60	-9.21977
▁موسيقي	-9.22046
▁الأمن	-9.22052
نوب	-9.22063
جاز	-9.22137
▁اليهود	-9.2214
سير	-9.22174
فئ	-9.22198
▁تش	-9.22455
▁عصر	-9.22459
▁السن	-9.22509
شغل	-9.22513
قدم	-9.2254
▁عز	-9.22552
غني	-9.22575
عب	-9.22585
▁المجتمع	-9.22618
تجه	-9.22772
]	-9.22797
it	-9.22863
حار	-9.2291
بيع	-9.22953
▁1973	-9.23059
▁الأكبر	-9.23118
▁الأن	-9.23201
▁نق	-9.2321
▁مل	-9.23219
ميل	-9.23254
هرب	-9.23453
▁الحالة	-9.23478
▁ميلادية	-9.23558
▁1981	-9.23561
َا	-9.23582
▁جعل	-9.23619
▁نظر	-9.23633
▁فلا	-9.23646
سيل	-9.23751
▁فل	-9.23772
حمل	-9.23781
▁ثاني	-9.23988
صم	-9.2402
▁بقي	-9.2404
▁دمشق	-9.24069
▁النوع	-9.24116
▁جبال	-9.24193
ارد	-9.24212
بني	-9.24234
ريف	-9.24262
▁هام	-9.24289
▁السوفيتي	-9.24319
▁سليمان	-9.24324
ثير	-9.24371
يكو	-9.2442
شع	-9.24521
▁حمل	-9.24571
اص	-9.24579
▁الرئيسي	-9.24585
▁النهر	-9.24654
نان	-9.24655
سار	-9.2469
▁اليمن	-9.24721
طب	-9.24862
▁كار	-9.24864
▁لما	-9.24877
▁ارتفاع	-9.24882
▁خارج	-9.2498
▁مملكة	-9.25035
▁1990	-9.25104
▁أمريكا	-9.25107
▁الانتخابات	-9.25235
▁الكل	-9.25236
▁أسماء	-9.25283
الك	-9.25346
ربع	-9.25365
ديد	-9.25396
12	-9.25403
25	-9.25418
وصف	-9.25478
▁إيران	-9.25516
بلغ	-9.25535
▁الأحمر	-9.25606
فين	-9.25621
ّل	-9.2571
▁والد	-9.25812
▁27	-9.25813
st	-9.2585
▁الإمام	-9.2587
▁||	-9.25873
▁1974	-9.25873
▁N	-9.2595
▁صالح	-9.25981
كري	-9.26087
▁سعود	-9.26161
لان	-9.26173
▁أح	-9.2631
عن	-9.2631
قان	-9.26316
لغ	-9.26387
ro	-9.26401
▁طائرة	-9.2642
▁الإسرائيلي	-9.26422
قاد	-9.26466
▁الكر	-9.26582
كتاب	-9.26599
▁الكا	-9.26697
بك	-9.26698
سبب	-9.26836
▁بذلك	-9.26907
▁المياه	-9.26985
رون	-9.26998
واجه	-9.26999
باني	-9.27023
▁تأثير	-9.27103
▁نشر	-9.27122
▁الكبيسة	-9.27168
▁26	-9.27187
مور	-9.27188
▁اكتشاف	-9.27193
▁طاقة	-9.27223
▁عد	-9.2724
▁يصل	-9.27305
رز	-9.2734
▁قرية	-9.27403
at	-9.27432
▁نادي	-9.27448
▁والده	-9.27458
امي	-9.27475
▁جيمس	-9.2748
▁28	-9.27484
دام	-9.27522
▁الاستقلال	-9.27705
▁1977	-9.27705
▁الدستور	-9.27714
▁فكان	-9.27774
أي	-9.27877
▁الحسين	-9.27908
محافظة	-9.27966
▁شو	-9.28136
▁يو	-9.2818
▁2016	-9.28244
▁29	-9.28262
ندا	-9.28288
▁الشكل	-9.28298
ثل	-9.28407
ائب	-9.28459
▁حديث	-9.2867
▁أرض	-9.28743
▁كور	-9.28769
▁إنشاء	-9.28793
▁والص	-9.28876
ی	-9.29025
▁1989	-9.29037
إصابة	-9.29094
▁أثر	-9.29197
▁سان	-9.2923
▁وبال	-9.29289
▁بغداد	-9.29294
▁يعد	-9.29338
▁ثورة	-9.29395
مير	-9.29429
11	-9.29513
▁1984	-9.29572
كوم	-9.29692
وجي	-9.29701
بعد	-9.29759
92	-9.29773
عود	-9.29782
40	-9.29882
us	-9.2991
▁مغنية	-9.29993
▁سعد	-9.3004
▁أور	-9.30124
طاق	-9.30135
ألف	-9.3014
▁القياس	-9.30145
▁أعياد	-9.30158
▁نتيجة	-9.30215
▁المادة	-9.30236
سجل	-9.30287
ترك	-9.3032
▁الأنباء	-9.3038
▁قليل	-9.30436
▁F	-9.30479
وفي	-9.30493
سف	-9.30594
▁الأوروبي	-9.30677
رمز	-9.30692
يغ	-9.30712
▁قامت	-9.30759
يتي	-9.30821
▁حجم	-9.30859
▁الألمانية	-9.30925
▁أعلام	-9.30929
دت	-9.30972
يرو	-9.30997
ترا	-9.31025
▁المناخ	-9.31068
▁التفاعل	-9.31473
▁1975	-9.31477
هول	-9.31518
▁وجد	-9.31565
مَ	-9.31597
وزارة	-9.3162
▁الموجودة	-9.31657
▁بحيث	-9.31662
▁تطوير	-9.31739
▁إدارة	-9.31789
تك	-9.31938
زاوية	-9.31943
▁العراقي	-9.31944
▁حدود	-9.31946
قود	-9.31946
▁2007	-9.32042
▁سرعة	-9.32099
▁يعمل	-9.32102
باع	-9.32115
▁إيطاليا	-9.32143
▁كانوا	-9.32152
تشي	-9.32159
▁مربع	-9.32206
▁إسباني	-9.32232
▁قطع	-9.32274
▁BBC	-9.32291
▁الدم	-9.32303
▁الشرقي	-9.32315
▁التالية	-9.32374
قاطع	-9.32466
▁قوة	-9.32538
كشف	-9.32545
▁مأهولة	-9.32568
▁تس	-9.32604
▁(18	-9.32836
▁كامل	-9.32851
15	-9.32879
▁2014	-9.32888
▁وأصبح	-9.32915
▁إله	-9.32946
ستخدم	-9.33009
يرا	-9.33021
▁كيلومتر	-9.33108
▁1967	-9.33137
▁مدرسة	-9.33137
▁1948	-9.33138
▁سكانها	-9.3321
▁إقليم	-9.33219
راج	-9.33235
▁لمدة	-9.33254
▁باشا	-9.33261
▁الرسمي	-9.33289
يء	-9.33313
▁تاي	-9.33314
سع	-9.33361
▁حصل	-9.33414
▁وله	-9.33418
▁زمن	-9.33427
▁روسي	-9.33434
وشي	-9.33613
▁الثلاث	-9.33621
65	-9.33729
▁زوج	-9.33747
▁منصب	-9.33763
▁بالت	-9.33868
48	-9.34004
▁2001	-9.3403
انيا	-9.34131
▁\	-9.34145
▁فعل	-9.34205
▁طريقة	-9.34228
بيل	-9.34269
جة	-9.34302
▁الأساسية	-9.34313
يّ	-9.34317
▁القدس	-9.34336
سمي	-9.34357
لعب	-9.34363
▁الإن	-9.34387
هدف	-9.34433
▁الضوء	-9.34436
▁كارل	-9.34603
▁وإن	-9.34606
ومي	-9.34618
%	-9.34627
▁قصر	-9.34652
▁K	-9.34699
وكو	-9.34792
▁شعب	-9.34812
▁1945	-9.34825
▁الأراضي	-9.34834
▁أمين	-9.34873
رض	-9.3488
توفر	-9.34881
▁باريس	-9.34982
ناس	-9.3502
▁يعود	-9.35033
▁إمبراطور	-9.35114
باط	-9.35151
شاهد	-9.35215
مثال	-9.35238
▁محل	-9.35371
▁العنصر	-9.35431
▁كلا	-9.35448
▁بأنه	-9.35494
▁الفلسطينية	-9.35527
▁لهذا	-9.35528
▁تطور	-9.35549
خار	-9.35583
▁الرئيسية	-9.35627
▁أفضل	-9.3565
▁1988	-9.35679
▁تي	-9.3573
ur	-9.35756
طالب	-9.35852
36	-9.35903
ولة	-9.35903
▁أربعة	-9.35926
▁الشعبية	-9.35962
▁2018	-9.35981
رئيس	-9.36003
▁رسام	-9.36032
▁c	-9.36047
▁المحافظة	-9.36086
▁100	-9.36092
▁نائب	-9.36102
فان	-9.36221
▁يع	-9.36228
نطق	-9.36273
▁جامع	-9.36289
▁الفلسطيني	-9.36432
ترو	-9.3646
إن	-9.36475
▁والف	-9.36552
18	-9.36609
▁التابع	-9.36613
ورو	-9.36653
فرد	-9.36685
يكا	-9.36701
▁آر	-9.36704
▁إد	-9.36838
▁ظل	-9.36846
حف	-9.36849
▁معينة	-9.36871
▁واست	-9.36949
▁الأب	-9.36985
▁دخل	-9.37034
▁وهناك	-9.37109
▁تحديد	-9.37123
▁p	-9.37221
فعل	-9.37233
كثر	-9.37261
حسن	-9.37271
▁الوحيد	-9.37401
▁روبرت	-9.37404
▁البيانات	-9.37411
عز	-9.37429
▁بكر	-9.37537
▁الأكثر	-9.37554
ابي	-9.37562
تاح	-9.37613
▁عثمان	-9.37737
▁عباس	-9.37776
▁الأسود	-9.37914
▁بلدية	-9.37962
▁1986	-9.37993
▁مار	-9.37999
صرف	-9.38038
جبر	-9.38039
تبع	-9.38074
نش	-9.38084
▁قيمة	-9.38107
سكو	-9.382
ريب	-9.38208
▁طالب	-9.38217
صيب	-9.38251
▁الكبرى	-9.38277
▁الأبيض	-9.38294
▁يزيد	-9.38514
▁تايمز	-9.3857
▁المنا	-9.38596
▁المق	-9.38608
ختار	-9.38614
▁شيء	-9.3867
▁تعريف	-9.38686
▁أطلق	-9.38725
▁الاقتصادية	-9.38922
▁الكريم	-9.38949
َل	-9.38963
▁النار	-9.38982
▁تعمل	-9.39005
▁الكهربائية	-9.39006
قارب	-9.39012
ورد	-9.39104
▁الطبيعية	-9.39123
▁روسيا	-9.39125
تحرك	-9.39159
قابل	-9.39172
▁1978	-9.39174
قو	-9.3919
بون	-9.39192
ضح	-9.39205
▁جدا	-9.3924
سعة	-9.39318
نسي	-9.39345
▁استخدم	-9.39356
▁1976	-9.39465
شك	-9.39526
رَ	-9.39534
نتخب	-9.39556
لند	-9.39608
▁يحتوي	-9.39757
▁للإ	-9.39789
▁عنصر	-9.39806
▁يطلق	-9.39828
▁العهد	-9.39912
▁بلا	-9.3993
هور	-9.39942
▁سل	-9.39972
▁1969	-9.40065
▁وادي	-9.40069
حقيق	-9.40233
▁أخذ	-9.40322
وتو	-9.40333
,000	-9.4037
▁العليا	-9.40372
زوج	-9.40421
▁الخارجية	-9.40451
▁مارك	-9.40605
▁1960	-9.4067
مركز	-9.40801
▁موسى	-9.40966
▁دراسة	-9.40987
13	-9.41015
▁الأعداد	-9.41016
لون	-9.41042
▁السم	-9.41074
▁أغلب	-9.41112
غط	-9.41114
خبر	-9.41139
▁الاقتصاد	-9.41154
45	-9.41177
32	-9.41251
▁+	-9.41265
▁الألماني	-9.41364
▁تمثل	-9.4137
▁s	-9.4138
▁إلكترون	-9.41424
آل	-9.41427
▁الشر	-9.41435
▁1971	-9.4157
▁دائم	-9.41627
▁الكنيسة	-9.41817
▁بدل	-9.41876
خذ	-9.41928
▁الأقل	-9.41946
▁أداء	-9.41949
وغ	-9.42032
▁وهذه	-9.42169
▁1994	-9.42179
▁1987	-9.4218
▁2020	-9.42219
يجي	-9.42253
▁بيروت	-9.42255
ربط	-9.42364
75	-9.42388
▁جهاز	-9.42474
▁حاكم	-9.42494
ماس	-9.42504
جين	-9.42528
خضر	-9.42568
تطور	-9.42586
▁لأول	-9.42612
F	-9.42655
ّا	-9.42696
نظم	-9.42708
صال	-9.42716
▁عاش	-9.42737
أقاليم	-9.42792
▁عاد	-9.43004
صير	-9.4301
سكن	-9.4309
▁وبالتالي	-9.43096
▁تعني	-9.4317
▁التالي	-9.43191
هُ	-9.43214
):	-9.43219
زهر	-9.43234
عارض	-9.43279
▁العصور	-9.43301
▁رسول	-9.43406
وبي	-9.43416
▁انتخاب	-9.43471
▁الأعمال	-9.43589
89	-9.43601
حتى	-9.43724
▁الرومان	-9.43725
▁تنظيم	-9.43763
توقع	-9.43858
خيل	-9.43865
▁تونس	-9.43978
▁النيويورك	-9.44017
▁2013	-9.44046
▁حرف	-9.44047
تخصص	-9.44049
▁حرارة	-9.44051
▁صاحب	-9.4408
▁قض	-9.44084
▁[	-9.44089
▁ذ	-9.44105
▁عرب	-9.4413
يبة	-9.44265
▁فريد	-9.44307
67	-9.44374
▁2002	-9.44404
▁إيراني	-9.44433
لانتهاء	-9.44434
▁V	-9.44467
▁التقويم	-9.44483
▁وش	-9.44526
▁مش	-9.44575
▁اليابانية	-9.44576
!	-9.44641
فع	-9.44668
▁وقوع	-9.447
▁البحرية	-9.44702
عهد	-9.44712
▁رمز	-9.44721
شد	-9.44763
▁الحل	-9.4495
▁1983	-9.44966
فاق	-9.44982
▁وبين	-9.45101
▁خا	-9.45106
حصل	-9.45148
▁تطبيق	-9.45167
85	-9.45194
▁المش	-9.4521
▁عنها	-9.45244
▁وسام	-9.45332
▁رؤساء	-9.45342
▁الشام	-9.45541
بيد	-9.45561
▁تشكيل	-9.45595
▁1965	-9.45601
▁2021	-9.45608
▁يؤدي	-9.45634
▁يومًا	-9.45673
ساس	-9.45741
▁المغناطيسي	-9.45747
حيط	-9.45782
▁البشر	-9.4584
–	-9.45845
حادث	-9.45876
شتهر	-9.45932
▁حق	-9.45966
بنى	-9.45972
▁العسكري	-9.45978
33	-9.4598
▁31	-9.46006
▁قرار	-9.46034
جلس	-9.4612
▁العثماني	-9.46198
▁مشروع	-9.46356
تردد	-9.46383
دفع	-9.46398
78	-9.46413
كور	-9.46449
▁1970	-9.46558
خلف	-9.46592
▁اقتصادي	-9.46617
▁لقب	-9.46656
▁تشكل	-9.46805
قاع	-9.46861
▁الملكية	-9.46884
▁القمر	-9.46919
▁وليس	-9.46977
▁التاريخية	-9.46981
▁الأعلى	-9.46994
▁جل	-9.47053
88	-9.47088
64	-9.47145
▁البسيطة	-9.47177
▁الفلك	-9.47178
▁إطلاق	-9.47237
حضار	-9.47264
▁سيدي	-9.47289
حب	-9.47308
خو	-9.47363
▁السيد	-9.47367
غور	-9.47376
سكان	-9.47506
▁1996	-9.47509
▁1999	-9.47512
سلط	-9.47537
▁2019	-9.47542
ُل	-9.47574
▁فرع	-9.47581
▁غي	-9.47698
▁الساحل	-9.47845
▁الكتلة	-9.47872
لل	-9.47911
▁ولي	-9.48008
ريس	-9.48019
▁آثار	-9.4803
▁التيار	-9.48119
ُم	-9.48125
▁مصطلح	-9.48137
▁وبعض	-9.48148
▁1998	-9.48156
▁بك	-9.48181
نر	-9.48215
▁الأخير	-9.48216
درجة	-9.48234
▁جان	-9.48238
دد	-9.48294
▁الفكر	-9.48354
ةً	-9.4841
▁مثال	-9.48413
▁الإنجليزية	-9.48428
▁توأمة	-9.48469
رتبة	-9.48483
▁كين	-9.48501
ولوجي	-9.48501
▁كلية	-9.48528
▁فإنه	-9.48637
اشي	-9.48661
▁أديب	-9.48679
▁ثانية	-9.48685
▁جيش	-9.48866
تقنية	-9.48874
▁صوت	-9.48906
ميكانيكا	-9.48927
▁والش	-9.49064
ستون	-9.49095
قف	-9.49204
ساو	-9.49245
▁تعرف	-9.49253
روم	-9.49259
صيد	-9.49275
▁الأندلس	-9.4945
▁روابط	-9.49451
▁الحاكم	-9.4946
ad	-9.49523
زة	-9.49553
واد	-9.49602
el	-9.49706
يتو	-9.4978
▁أربع	-9.49783
نفس	-9.49784
▁1985	-9.49794
▁بعدها	-9.49799
رمان	-9.49889
-19	-9.49901
حفظ	-9.49939
▁الواقع	-9.49984
▁متوسط	-9.50008
▁مادة	-9.50085
▁(20	-9.50087
نزل	-9.501
تابع	-9.50111
▁يعني	-9.50182
▁تصل	-9.50183
▁شعراء	-9.50254
▁السي	-9.50261
يتا	-9.50392
te	-9.50416
▁الغاز	-9.5043
-2	-9.50435
صنف	-9.50451
▁أنحاء	-9.50452
▁1964	-9.50455
▁قيام	-9.50472
▁لندن	-9.50489
▁طبيب	-9.50508
عيش	-9.50509
زين	-9.50517
ing	-9.50538
▁بريطانيا	-9.50633
68	-9.50696
▁جزائري	-9.50772
تحد	-9.50801
ائها	-9.50871
هب	-9.50918
▁لكنه	-9.50921
▁سيد	-9.50947
ؤثر	-9.50955
▁المد	-9.50969
وصل	-9.50995
▁طرف	-9.51029
▁الذ	-9.5111
لاف	-9.51372
▁سب	-9.51443
▁1972	-9.51451
حركات	-9.51456
▁اجتماع	-9.51494
▁النمسا	-9.51546
▁شعر	-9.51546
▁رئيسًا	-9.51574
▁فلم	-9.51607
▁إفريقيا	-9.51645
▁أمريكيون	-9.51682
▁أقدم	-9.51695
37	-9.51698
▁الأر	-9.51759
▁الدو	-9.5188
▁الإله	-9.51949
▁بلد	-9.51954
أحد	-9.52009
▁مول	-9.52017
et	-9.52076
إسلام	-9.52104
مرة	-9.52115
▁باللغة	-9.52118
▁بدء	-9.52119
▁حياة	-9.52119
▁الرياضيات	-9.5212
▁ود	-9.52142
رية	-9.52209
▁كثيرة	-9.52319
رسل	-9.52355
▁سك	-9.52386
▁خليفة	-9.52452
▁كيف	-9.52484
▁اتجاه	-9.52488
حث	-9.52488
▁أش	-9.52521
▁الجدول	-9.52549
▁f	-9.52558
um	-9.52563
▁نباتات	-9.52625
▁أَ	-9.52678
قصر	-9.5273
38	-9.52734
▁يا	-9.52814
ّد	-9.52835
تطبيق	-9.52891
▁فوز	-9.52893
دال	-9.52922
لاك	-9.52926
شرق	-9.52948
▁وقام	-9.52959
حسب	-9.53024
حزب	-9.53027
il	-9.5312
95	-9.53144
ء	-9.53215
▁الدوري	-9.53314
زان	-9.53318
▁بِ	-9.53328
▁أنظمة	-9.53351
اصر	-9.5336
ـ«	-9.53375
▁1.	-9.53383
24	-9.53405
▁معاهدة	-9.53471
▁معرض	-9.53495
ساح	-9.53508
وتر	-9.53537
▁الضغط	-9.53555
▁قاد	-9.5357
▁سقوط	-9.5358
▁I	-9.53627
▁إسماعيل	-9.53652
مح	-9.53758
▁تعالى	-9.53814
اكو	-9.5387
▁2022	-9.539
▁التجارية	-9.53932
تنا	-9.53993
شف	-9.54043
▁الخاص	-9.54081
تحول	-9.54127
▁1946	-9.54167
▁1956	-9.54168
▁1949	-9.54169
▁1958	-9.54169
▁فقيه	-9.54175
▁مخرج	-9.54231
▁جزر	-9.54271
▁بالقرب	-9.54382
57	-9.5439
▁برنامج	-9.54446
▁سبب	-9.54471
▁شبكة	-9.54485
تسع	-9.545
▁السبع	-9.5461
▁شديد	-9.54618
هتم	-9.54669
وخ	-9.54716
▁فون	-9.54751
▁عربية	-9.54779
▁العمر	-9.54793
▁مدار	-9.54828
▁لهذه	-9.54856
غال	-9.54862
اخ	-9.54895
▁الثقافة	-9.54911
▁الرابطة	-9.5492
▁عالية	-9.54924
عَ	-9.54981
▁الفي	-9.55032
▁مسجد	-9.55072
سود	-9.5513
سرع	-9.55137
▁الفضاء	-9.55199
▁1997	-9.55206
دم	-9.55226
▁الرقم	-9.55254
CH	-9.55295
حدود	-9.55404
▁الكبيرة	-9.55465
▁قصة	-9.55512
ثلاث	-9.55512
خبار	-9.55522
▁1963	-9.55556
▁طلب	-9.55565
عنى	-9.55606
▁ميناء	-9.55613
▁الإسرائيلية	-9.55614
▁صوتي	-9.55623
مكان	-9.55655
▁بهذا	-9.55656
▁النا	-9.55711
طة	-9.5584
▁بان	-9.55863
▁ويليام	-9.55897
▁عُ	-9.55951
▁W	-9.55979
علن	-9.55991
فارس	-9.56022
99	-9.5605
لدى	-9.56225
▁1953	-9.56258
▁الصباح	-9.56267
بث	-9.56342
▁مباشرة	-9.56364
▁فرق	-9.5642
ذي	-9.56455
جامعة	-9.56467
▁المستوى	-9.56492
▁الأخيرة	-9.56542
▁بنت	-9.56556
▁ثنائي	-9.56574
▁المخ	-9.56604
رتفع	-9.56782
▁تبلغ	-9.56881
▁1995	-9.56964
▁ليست	-9.57028
▁الطريق	-9.57045
خارج	-9.57183
▁الواحد	-9.57188
أمر	-9.57201
▁تفسير	-9.57292
سفر	-9.57398
تقدم	-9.57418
لكرة	-9.57565
ra	-9.57617
▁تتكون	-9.57627
كوك	-9.57654
▁خريجو	-9.5766
▁جول	-9.57691
54	-9.57739
▁هان	-9.57807
▁سياسية	-9.57845
▁الكربون	-9.58032
▁المسجد	-9.58049
تمتع	-9.58064
جير	-9.58111
▁عشرة	-9.58117
▁صحيح	-9.58136
▁للن	-9.58153
▁البي	-9.58166
▁الداخلية	-9.5823
▁مالك	-9.58241
27	-9.58278
حقق	-9.58307
▁المحلية	-9.58338
;	-9.58375
▁متعددة	-9.58385
جسيم	-9.58484
ورة	-9.58503
▁أصول	-9.58531
▁مك	-9.58545
▁مطار	-9.5856
17	-9.58572
▁تست	-9.58595
▁الأربع	-9.58607
▁ويت	-9.58647
▁الإعلان	-9.58652
▁الروسية	-9.58718
▁1962	-9.58748
▁1961	-9.58748
▁التحرير	-9.5877
▁الناتج	-9.5878
▁للع	-9.58787
▁فيليب	-9.58874
دس	-9.59024
▁ظهور	-9.59098
شور	-9.59101
▁عديدة	-9.59102
رار	-9.5913
إقامة	-9.5921
وكس	-9.59235
▁استقلال	-9.59272
66	-9.59361
▁يساوي	-9.59366
يتش	-9.59387
حرف	-9.59446
▁رياضيات	-9.59471
▁1952	-9.59471
تحالف	-9.59585
▁مؤ	-9.59632
▁ويتم	-9.59708
▁قاعدة	-9.59771
▁ومنها	-9.59777
74	-9.59789
ثبت	-9.59824
▁التسمية	-9.59837
▁المجر	-9.59847
زع	-9.59882
▁of	-9.59979
▁عمليات	-9.59983
▁حمد	-9.60042
▁الصور	-9.60044
▁الخليج	-9.60191
▁تغير	-9.60248
تفاعل	-9.60369
▁أهمية	-9.60373
53	-9.60406
جعل	-9.60432
قطار	-9.60536
+	-9.60543
تحدث	-9.60691
لس	-9.60775
طائر	-9.60777
سقط	-9.60788
▁القومي	-9.60793
▁جمال	-9.60798
la	-9.60847
▁النيل	-9.60875
قرب	-9.60913
26	-9.60914
▁مجموع	-9.60979
حتل	-9.61036
▁ظهرت	-9.61074
▁روماني	-9.61079
▁نجد	-9.61109
دري	-9.61118
ائم	-9.6115
لر	-9.61151
▁دولار	-9.61172
تَ	-9.61195
▁القوة	-9.61202
دّ	-9.61206
▁طرق	-9.61227
42	-9.6126
29	-9.61337
as	-9.61392
▁مقابل	-9.6151
صيف	-9.61539
▁المكان	-9.61545
▁عمرو	-9.6156
▁الرسمية	-9.61566
▁أج	-9.6157
th	-9.61637
▁التقليدية	-9.61645
▁العلاقات	-9.6166
▁ومدرب	-9.61663
▁مور	-9.61712
▁الثالثة	-9.61731
tr	-9.6176
▁طويلة	-9.61776
▁المسيح	-9.61782
▁جاك	-9.61945
علي	-9.61951
ساف	-9.61963
دعى	-9.62037
غلب	-9.62047
84	-9.62057
شهر	-9.62062
عمر	-9.62117
طال	-9.62126
▁أسس	-9.62279
▁النظرية	-9.62358
▁صلاح	-9.62371
▁تشي	-9.62389
▁1968	-9.62421
حتوى	-9.62443
صدر	-9.62445
87	-9.62506
▁كتلة	-9.62516
▁مجموعات	-9.62547
▁وص	-9.62566
▁قوي	-9.62645
▁الدينية	-9.62646
21	-9.62693
▁الحادي	-9.62701
▁الصينية	-9.6271
▁الأصل	-9.6275
خال	-9.62757
▁أجزاء	-9.6278
راح	-9.62804
▁والخ	-9.62804
▁كول	-9.62828
باس	-9.62831
28	-9.62838
حاول	-9.62838
تعاون	-9.62854
حوالي	-9.62881
▁ظهر	-9.62896
عتبر	-9.62904
عكس	-9.62916
▁سليم	-9.6297
▁يتكون	-9.62972
▁بيل	-9.62988
77	-9.6306
▁كهربائي	-9.63156
▁أواخر	-9.63169
▁السابقة	-9.63253
▁أت	-9.63257
راس	-9.63373
اكس	-9.63379
اتهم	-9.63397
▁اللا	-9.63417
47	-9.63443
سيا	-9.6346
▁شركات	-9.63518
▁نص	-9.63542
▁الجامعة	-9.6359
َّة	-9.63619
▁آخرين	-9.63632
طيف	-9.63687
قوس	-9.63802
55	-9.63842
▁يحدث	-9.63855
▁الهندسة	-9.63858
61	-9.63866
86	-9.63898
34	-9.63933
▁وسياسي	-9.63955
▁تحمل	-9.63979
39	-9.63993
▁تعتمد	-9.64004
▁الطرق	-9.64025
▁قسم	-9.64131
▁b	-9.6422
▁صدر	-9.64254
▁تعليم	-9.64317
▁يعلن	-9.6435
▁توماس	-9.64368
69	-9.64373
سمى	-9.64392
تأثر	-9.64407
▁العملية	-9.64505
صاف	-9.64526
▁النظر	-9.64555
حكام	-9.64578
فى	-9.64631
▁البار	-9.64662
▁المعروف	-9.64663
▁إصدار	-9.64663
▁إلي	-9.64666
▁النسبية	-9.64721
▁كلم	-9.64801
▁الشريف	-9.64835
▁تكن	-9.64868
▁حجر	-9.64911
ولوجيا	-9.64927
▁مصدر	-9.64958
عتقد	-9.64979
شن	-9.65002
▁الخليفة	-9.65057
تقدير	-9.65063
▁الجسيمات	-9.6507
▁1947	-9.65071
ضخ	-9.65073
كاتب	-9.65142
طريق	-9.65156
▁النفس	-9.65234
▁الدورة	-9.65246
un	-9.65262
▁نفسها	-9.65282
ضر	-9.65286
▁الشمالي	-9.65292
▁مؤلف	-9.6537
▁الرسول	-9.65452
▁يجعل	-9.65469
▁تحويل	-9.65548
▁عائلة	-9.6555
▁السر	-9.65579
زير	-9.65626
▁قرب	-9.65626
▁ملوك	-9.65671
حركة	-9.65815
▁يمثل	-9.65826
▁الإنترنت	-9.65827
▁أراضي	-9.65829
63	-9.65884
▁الياباني	-9.65913
G	-9.65968
▁اسمه	-9.65985
07	-9.65996
▁الحديد	-9.66027
▁هنا	-9.66027
▁الصغيرة	-9.66078
▁المركز	-9.66096
▁مؤتمر	-9.66132
▁انتقل	-9.66219
▁إعلان	-9.66286
▁أفراد	-9.66328
am	-9.66331
زراعة	-9.66357
غالب	-9.66407
حديث	-9.66601
▁1954	-9.6662
سلسلة	-9.66661
▁بعضها	-9.66669
▁الآية	-9.66792
آن	-9.66888
وفر	-9.66916
▁n	-9.66956
▁الهيدروجين	-9.66978
▁الجزائري	-9.67003
▁1993	-9.67009
▁معدل	-9.6702
▁1950	-9.67024
حاضر	-9.67096
ّن	-9.6712
▁الجوية	-9.67127
يلا	-9.67137
▁أبا	-9.67145
مائة	-9.67153
إذا	-9.67154
سياس	-9.67161
لَ	-9.67191
▁وغير	-9.6721
رئ	-9.67217
▁هم	-9.67301
X	-9.67387
رأس	-9.67408
▁50	-9.6748
طلاق	-9.67538
ِن	-9.67562
منح	-9.67568
58	-9.67576
▁الحق	-9.67631
صعب	-9.67681
▁1941	-9.67795
▁هولندي	-9.678
▁ولكنه	-9.67809
▁باب	-9.67831
▁شاه	-9.67886
▁يوما	-9.67958
73	-9.67959
وادي	-9.67962
نتيجة	-9.68027
ed	-9.68027
▁فصل	-9.68055
منظمات	-9.68099
41	-9.68106
▁الكيميائي	-9.68155
▁السياحة	-9.68175
جمال	-9.68217
▁أعماله	-9.68274
معالجة	-9.68289
▁للسلام	-9.68327
▁تعلن	-9.6836
رصد	-9.68431
لجنة	-9.68438
سحب	-9.68439
▁مركب	-9.68462
▁انتخابات	-9.68477
59	-9.68524
▁درجات	-9.68573
▁التجارة	-9.6858
▁الفرق	-9.68644
V	-9.68794
عرب	-9.68847
▁برج	-9.6897
▁تسمية	-9.69027
فير	-9.69058
▁الأصلي	-9.69059
▁المؤرخ	-9.69065
93	-9.69132
تار	-9.69162
01	-9.69167
▁صغير	-9.69171
▁عسكرية	-9.6924
▁أنهار	-9.69295
▁سورية	-9.69318
▁الروماني	-9.6937
الج	-9.69374
▁الطبيعة	-9.69394
▁الطائرة	-9.69403
71	-9.69471
91	-9.69501
▁جهة	-9.69549
▁إم	-9.6959
▁خمس	-9.69593
83	-9.69826
عندما	-9.69884
▁قادة	-9.69893
44	-9.699
▁ترتيب	-9.69916
▁الأسرة	-9.69933
▁المسيحية	-9.69961
▁رفض	-9.70057
os	-9.70066
دفن	-9.7008
▁باي	-9.70115
▁الاحتلال	-9.70176
79	-9.70181
16	-9.7022
سط	-9.70366
▁نطاق	-9.70378
أطفال	-9.70387
عدد	-9.70448
22	-9.70527
▁بنفس	-9.70572
شؤون	-9.70625
ّى	-9.70635
قراءة	-9.70647
62	-9.70648
▁صورة	-9.70665
▁سانت	-9.707
▁روائي	-9.70724
برمج	-9.70754
▁العراقية	-9.70782
ريش	-9.70803
▁يظهر	-9.70829
رسم	-9.7084
▁الحم	-9.70849
49	-9.70857
▁للأم	-9.70964
صدق	-9.70964
▁المؤتمر	-9.70985
*	-9.70987
▁قناة	-9.71024
▁نيو	-9.7103
عمار	-9.71035
▁تعرض	-9.71041
عتمد	-9.71073
جوز	-9.71074
بح	-9.71154
▁زيادة	-9.71228
تعداد	-9.71265
يزي	-9.71342
▁وهم	-9.71385
▁الاجتماعية	-9.71411
تجربة	-9.71441
توافق	-9.71506
▁جسم	-9.71524
▁الشاعر	-9.71538
▁رغم	-9.71631
لقى	-9.71715
ِل	-9.71719
▁اختيار	-9.71724
تري	-9.7175
▁1944	-9.7182
▁1966	-9.71821
رُ	-9.71852
▁اليونان	-9.71897
▁الأع	-9.71898
72	-9.71901
▁بعيد	-9.71957
▁فارس	-9.71964
جبهة	-9.71966
▁أع	-9.71983
500	-9.72044
▁أساسي	-9.72125
سأل	-9.72178
صحيح	-9.72193
▁سوف	-9.72216
أستاذ	-9.72231
طيب	-9.7225
توحيد	-9.72272
إنشاء	-9.7232
▁الإقليم	-9.72343
ريد	-9.72391
▁عليهم	-9.72445
▁مكتب	-9.72454
98	-9.72546
▁الجنوبي	-9.72572
▁الجبل	-9.72629
}	-9.7263
▁تشارلز	-9.7263
▁انتهاء	-9.72632
إحصاء	-9.72637
ضرب	-9.72661
52	-9.72664
تبادل	-9.72707
جتمع	-9.72709
شمال	-9.728
-1	-9.7282
▁وعدد	-9.7282
▁طبقا	-9.72861
ريح	-9.72956
▁كيلو	-9.73013
▁تغيير	-9.73046
▁الإيطالية	-9.73048
▁النفط	-9.73059
▁النواب	-9.73061
مسرح	-9.73079
بحر	-9.73159
▁شارك	-9.73228
قضاء	-9.73262
▁قل	-9.73288
جاج	-9.73321
يسي	-9.73324
▁إجراء	-9.73345
تنظيم	-9.73387
▁1939	-9.73478
▁الكلمة	-9.73533
عامل	-9.73539
▁علاقة	-9.73554
▁مالي	-9.73584
بغ	-9.73593
ائن	-9.73599
▁آن	-9.73646
▁الكهربائي	-9.7368
َّا	-9.73714
▁كمية	-9.73738
▁خمسة	-9.73742
43	-9.73742
ناظر	-9.73784
صورة	-9.73857
عباد	-9.73867
▁تشير	-9.73899
▁تقدم	-9.74024
كول	-9.7403
56	-9.74037
تجارب	-9.74064
▁ضرب	-9.74077
▁الصوت	-9.74159
▁العشر	-9.74259
مشاركة	-9.74305
▁الآثار	-9.74313
▁معروف	-9.74354
▁مدير	-9.74412
▁اقرأ	-9.74419
لاعب	-9.7442
▁مكة	-9.74451
▁الذرية	-9.74503
▁الإنتاج	-9.74547
▁طب	-9.74573
▁السوري	-9.74634
طلع	-9.74767
▁الجانب	-9.748
اعي	-9.74838
فرق	-9.74848
▁تصميم	-9.74893
▁تحقيق	-9.75005
03	-9.75006
سيس	-9.75011
94	-9.75045
▁إر	-9.75061
ُر	-9.75076
▁المعروفة	-9.75129
▁الإغريق	-9.75146
▁مسرحي	-9.75147
▁المسلمون	-9.75151
▁ورد	-9.75152
▁العاشر	-9.75154
▁الجمعية	-9.75189
▁فور	-9.75198
▁السورة	-9.75325
▁بدون	-9.7534
▁القرية	-9.75442
▁الأوروبية	-9.75521
▁ليبيا	-9.75569
واقع	-9.75579
رقة	-9.75598
▁جيد	-9.75628
▁الرياضية	-9.75749
أدب	-9.75759
▁أبرز	-9.75778
▁لك	-9.75867
▁أشكال	-9.75934
قاس	-9.75936
▁احتمال	-9.75989
▁وخ	-9.75997
برغ	-9.7601
▁1957	-9.76017
om	-9.76041
▁تشمل	-9.76067
راجع	-9.76094
قرأ	-9.76109
▁عرفت	-9.76119
علوم	-9.7612
توسع	-9.76171
صبح	-9.76178
▁البط	-9.76227
▁المؤ	-9.76302
ثني	-9.76326
فريق	-9.76336
▁جنس	-9.76379
▁ماك	-9.7638
▁1959	-9.76443
▁المساحة	-9.76444
وائل	-9.76445
▁استعمال	-9.76499
جون	-9.76511
▁الأوسط	-9.76559
▁محاولة	-9.76645
▁عل	-9.76772
جامع	-9.76871
غول	-9.76918
▁الذرات	-9.76923
نحو	-9.7697
إمارة	-9.77021
▁جنو	-9.77025
▁الماضي	-9.77028
09	-9.77115
▁الإلكترونات	-9.77122
2)	-9.77126
▁إثر	-9.77132
97	-9.7714
▁الزراعة	-9.77157
ضعف	-9.7717
تالي	-9.77207
▁فيلم	-9.77229
04	-9.77235
▁كيميائي	-9.77249
أسترالي	-9.77289
دعوة	-9.77296
di	-9.77297
خروج	-9.77311
إعدام	-9.77317
عبر	-9.77331
▁دستور	-9.77332
▁سد	-9.77347
ضيف	-9.77354
▁تقسيم	-9.77529
عش	-9.77591
▁قريب	-9.77688
▁برامج	-9.77731
▁رجال	-9.77757
▁افتتاح	-9.77782
▁مغناطيسي	-9.77889
▁صفر	-9.77894
▁وتعتبر	-9.77897
▁رسمي	-9.77963
ستوطن	-9.7804
كوف	-9.78082
▁المرحلة	-9.78123
ّم	-9.78162
▁يابانية	-9.78163
23	-9.78185
▁يعتقد	-9.78188
▁رب	-9.78203
▁بمعنى	-9.78207
▁منتصف	-9.78225
▁تعود	-9.78266
إحصائ	-9.78269
رسوم	-9.78275
▁بحيرة	-9.7833
سلك	-9.78362
حامي	-9.78425
تاريخ	-9.7843
▁المئة	-9.78435
عظم	-9.7863
▁التراث	-9.78729
حياة	-9.78891
رفع	-9.78951
عالم	-9.78987
وضح	-9.79014
▁زيد	-9.7903
▁قلب	-9.79036
▁دالة	-9.79094
▁مهندس	-9.79129
أفكار	-9.7915
05	-9.79159
▁موت	-9.79173
▁مغربي	-9.79215
متد	-9.79318
▁وف	-9.79352
رغب	-9.79368
ثقافة	-9.79423
اؤه	-9.79455
▁الجزائرية	-9.79456
▁ابنه	-9.79457
▁زعيم	-9.79475
▁عيسى	-9.79487
▁بسرعة	-9.79501
▁زيت	-9.7957
▁ويعتبر	-9.79627
بلد	-9.79694
▁ألب	-9.79717
كال	-9.79822
▁الحالي	-9.79835
تحكم	-9.79839
عالي	-9.79879
رياضة	-9.79889
id	-9.79894
يتها	-9.79976
▁تقل	-9.7998
تلك	-9.8
▁ويوجد	-9.80019
حمد	-9.80039
▁O	-9.80057
كيل	-9.80059
▁بينها	-9.80131
سلاح	-9.80199
▁خصائص	-9.80292
غراف	-9.80357
▁J	-9.80376
▁يؤ	-9.80393
▁أوائل	-9.8043
▁رفع	-9.80465
▁معين	-9.80485
▁أعلن	-9.80724
صول	-9.80739
▁صحفي	-9.80739
▁1951	-9.80824
▁الوحدة	-9.80883
▁العمليات	-9.80891
▁غزو	-9.80936
▁سُ	-9.80973
▁الحي	-9.80985
▁المسرح	-9.81035
▁كتابة	-9.81077
مملكة	-9.81086
جميل	-9.81131
ندر	-9.81163
▁الدفاع	-9.81173
▁البحرين	-9.81223
▁وَ	-9.81226
▁آنذاك	-9.81275
نشط	-9.81276
▁جوزيف	-9.81277
▁تفاعل	-9.81284
▁1955	-9.81292
▁1938	-9.81294
▁واسع	-9.81332
قصد	-9.81357
روز	-9.81362
▁الفعل	-9.81478
برز	-9.81608
▁يحمل	-9.81627
بيان	-9.81627
▁الفل	-9.81656
▁يعتمد	-9.81718
▁ريتشارد	-9.81727
▁الشيوعي	-9.81728
to	-9.81739
96	-9.81749
▁1936	-9.8175
▁1940	-9.81752
="	-9.81812
▁تعيين	-9.81817
▁معهد	-9.81829
شل	-9.81878
ّف	-9.81929
حرق	-9.8194
▁السورية	-9.81969
ثيل	-9.81988
لولاية	-9.82027
▁معلومات	-9.82073
نحن	-9.8211
▁طويل	-9.82134
j	-9.82182
▁كوم	-9.82215
تراوح	-9.8225
▁فرانك	-9.82251
ul	-9.82339
▁أسرة	-9.82358
▁غاز	-9.82529
سلاف	-9.82554
▁الكاثوليكية	-9.8263
▁استطاع	-9.82639
▁اختراع	-9.82639
▁اتحاد	-9.82639
▁الكتب	-9.82642
إضافة	-9.82662
▁خلاف	-9.82708
▁<	-9.82734
▁الصناعية	-9.82751
▁بأنها	-9.82849
▁آلاف	-9.82891
باء	-9.82898
▁بكل	-9.82934
▁تحول	-9.83006
▁المستخدم	-9.83037
▁مهمة	-9.83109
▁وممثل	-9.83109
▁حقوق	-9.83159
▁الحقيقي	-9.83163
شروط	-9.83221
نفذ	-9.83221
▁تتميز	-9.8323
زد	-9.83264
▁القطب	-9.83264
▁ساحل	-9.83266
▁دوق	-9.83291
روف	-9.83297
▁ذرة	-9.83316
كسر	-9.8335
فورد	-9.83527
ation	-9.8354
▁الموسيقي	-9.8356
▁هجوم	-9.83566
▁التق	-9.83588
▁تجمع	-9.83593
▁وحدات	-9.83609
▁نشاط	-9.83643
▁اكتشف	-9.83675
▁مهم	-9.83694
▁روما	-9.83732
كلي	-9.83765
كاف	-9.83832
▁كتابه	-9.83883
▁زي	-9.83902
▁التل	-9.83915
08	-9.8394
▁الزراعية	-9.84022
الأ	-9.84059
▁ملحن	-9.84073
قوى	-9.84108
▁ويُ	-9.84162
كلف	-9.84226
وحدة	-9.84259
ؤكد	-9.84273
▁لعام	-9.84357
▁{	-9.8436
▁متحف	-9.84381
▁المدار	-9.84387
▁ميلاد	-9.84448
▁قبائل	-9.84488
▁مفهوم	-9.84539
▁ضم	-9.84549
▁فكرة	-9.8462
▁هند	-9.84625
▁النقل	-9.84627
فول	-9.84633
قاتل	-9.84661
حارب	-9.84665
سيب	-9.84672
▁ورئيس	-9.8468
بلور	-9.84691
▁الذهبي	-9.84713
▁نموذج	-9.84715
تصميم	-9.84774
▁مياه	-9.84802
▁الحساب	-9.84813
راي	-9.8489
▁سميت	-9.84896
▁سابقة	-9.84899
ارا	-9.84967
▁البيت	-9.84969
وكا	-9.84992
▁حب	-9.85031
▁كنيسة	-9.85108
▁المصدر	-9.85166
نادي	-9.85216
▁الواقعة	-9.85304
▁يرجع	-9.85358
اكي	-9.85407
زون	-9.8542
▁انقلاب	-9.85423
▁مسؤول	-9.85423
لوح	-9.855
▁قديم	-9.85532
▁العلاقة	-9.85533
▁ذرات	-9.85541
▁تظهر	-9.85569
▁أبناء	-9.85571
مجموعة	-9.85573
▁مرض	-9.85603
سورة	-9.85646
▁مرحلة	-9.8572
إلى	-9.85743
ma	-9.85808
راث	-9.85812
ائط	-9.85827
▁الإيطالي	-9.85832
▁العرش	-9.85843
▁سلام	-9.85848
▁اللاتينية	-9.85852
بَ	-9.85861
▁يصبح	-9.85866
اوية	-9.85869
فلاسفة	-9.85908
▁بطريقة	-9.85909
طابق	-9.85941
كاد	-9.85942
▁عامًا	-9.85999
صانع	-9.86062
علامة	-9.86179
▁يشكل	-9.86325
▁قيادة	-9.86353
▁وعند	-9.86361
▁ناحية	-9.8638
▁اللون	-9.86381
▁كأس	-9.86412
06	-9.86418
▁اليونانية	-9.86425
التهاب	-9.86438
▁اعتبار	-9.8647
▁انتشار	-9.86491
▁نسخ	-9.8652
قبض	-9.86522
ia	-9.86528
▁العلمية	-9.8654
نصر	-9.86554
▁لقد	-9.86579
شعب	-9.86586
أسفل	-9.86589
▁مقياس	-9.86595
▁وقيل	-9.86652
سنة	-9.86714
نْ	-9.86715
li	-9.86764
▁الحجر	-9.86772
▁شخصًا	-9.86775
رافق	-9.86805
▁الحرف	-9.86974
▁غل	-9.86977
▁الذرة	-9.86986
▁المهدي	-9.87031
▁الطريقة	-9.87032
شعاع	-9.8705
▁استقال	-9.87079
▁المركبات	-9.87087
▁لاحق	-9.87104
▁(3	-9.87284
كث	-9.87365
▁هير	-9.87402
▁وابن	-9.87413
▁البداية	-9.87422
حمض	-9.87446
▁واضح	-9.87447
▁فهم	-9.87463
▁تشا	-9.87485
طرح	-9.87505
se	-9.87611
▁الأخ	-9.87626
▁الدالة	-9.87674
▁الشخصية	-9.87678
قابلة	-9.87714
كتشف	-9.87741
▁تقريبا	-9.87799
▁تفجير	-9.87805
▁توزيع	-9.87805
▁النساء	-9.87943
▁مصريون	-9.87946
زواج	-9.87992
فاعل	-9.88111
▁العلمي	-9.88123
طرد	-9.88162
نَ	-9.88192
▁إنه	-9.88213
46	-9.88222
▁انتهت	-9.88299
▁1943	-9.88304
تجاوز	-9.88314
▁الشبكة	-9.88328
▁خي	-9.8836
▁المدني	-9.88539
طرق	-9.88625
▁الورق	-9.8863
ta	-9.88669
▁عمان	-9.88694
▁الانت	-9.88704
ac	-9.88723
▁العظيم	-9.88773
▁وخاصة	-9.88773
▁مئوية	-9.88774
▁جعفر	-9.88775
▁the	-9.88788
سخ	-9.88791
ce	-9.88805
▁معبد	-9.88864
خضع	-9.88868
▁الطبيعي	-9.88898
نافس	-9.89048
▁السام	-9.8908
ثا	-9.89122
رسال	-9.89132
▁مسيحي	-9.89141
▁اسمها	-9.892
ؤسس	-9.89239
▁انتقال	-9.89262
اختصار	-9.89301
لوب	-9.89313
عضو	-9.89437
▁سوق	-9.89439
جذب	-9.89441
▁كرا	-9.8952
قَ	-9.89549
▁40	-9.896
▁وصول	-9.89641
▁ففي	-9.89656
▁التقسيم	-9.89686
مغناطيس	-9.89806
▁الكامل	-9.89843
دمج	-9.89894
▁خان	-9.89984
خفيف	-9.89993
▁الأطفال	-9.89995
▁يلي	-9.90016
▁المحلي	-9.90031
me	-9.90063
▁الصيف	-9.90074
▁شخصيات	-9.90082
▁الحصول	-9.9011
▁نشأت	-9.90141
ندو	-9.90214
افتراض	-9.90243
▁تنفيذ	-9.90244
▁فؤاد	-9.90244
▁الشركة	-9.90323
جع	-9.90413
بحث	-9.90426
▁بينهم	-9.90451
▁الحال	-9.90504
▁زو	-9.90553
رِ	-9.90563
دراس	-9.90647
▁المقاومة	-9.90702
تعدد	-9.90712
▁قوله	-9.90722
olenopsi	-9.90738
▁تختلف	-9.90738
لع	-9.9074
▁جميل	-9.90742
▁قبيلة	-9.90751
▁الممكن	-9.90756
▁الوصول	-9.90798
▁القديس	-9.90821
▁شارل	-9.90853
▁الحيوانات	-9.90869
سوف	-9.90914
▁الملا	-9.90915
▁ناصر	-9.90955
▁الأولية	-9.90993
▁الملكة	-9.90998
إيمان	-9.91001
▁القاعدة	-9.91032
غم	-9.91138
عطي	-9.91202
▁الحرة	-9.91264
▁زاد	-9.91284
▁ستيف	-9.91285
▁مليار	-9.91288
▁النشاط	-9.91291
▁تيار	-9.913
صادق	-9.913
▁ديفيد	-9.91353
تكوين	-9.91385
▁المقدس	-9.91386
▁عربي	-9.91413
▁وطني	-9.9146
▁موضوع	-9.91495
▁لعب	-9.9154
▁هما	-9.91551
▁إما	-9.9162
▁فاس	-9.91627
▁ألمان	-9.91679
سيطرة	-9.9176
▁قلعة	-9.91785
فترض	-9.91791
تزايد	-9.91798
▁تابعة	-9.91816
▁الشرطة	-9.91824
لز	-9.91828
▁دفع	-9.91893
جاد	-9.91918
▁اللبنانية	-9.9192
▁إطار	-9.91936
▁يهود	-9.91981
ُن	-9.91994
حاف	-9.92006
▁المئت	-9.9201
▁كاب	-9.92144
▁سنوي	-9.92205
أشعة	-9.92223
▁ليون	-9.92235
▁زلزال	-9.92239
▁تشغيل	-9.92246
▁1937	-9.9226
▁المحكمة	-9.9227
أسس	-9.92414
ديناميك	-9.9245
02	-9.92467
▁بوس	-9.92524
▁المالية	-9.92549
▁أصحاب	-9.9261
▁d	-9.92615
de	-9.92681
▁الإمارات	-9.92744
تخطيط	-9.92747
▁حائز	-9.9275
توضيح	-9.92754
▁1942	-9.92763
دَ	-9.929
وسط	-9.92918
▁m	-9.92956
▁60	-9.93066
▁الجهاز	-9.93087
▁الذاتي	-9.93123
▁لديه	-9.93172
لازم	-9.93296
31	-9.93316
ليب	-9.93379
▁إداري	-9.93396
▁يشير	-9.93414
▁السد	-9.93474
كَ	-9.93479
▁المستقبل	-9.93492
فاف	-9.93531
اعية	-9.93555
▁البناء	-9.93563
ter	-9.93583
▁حروف	-9.93608
▁منزل	-9.93611
▁الاستعمار	-9.93655
أرض	-9.93705
▁الجزيئات	-9.93705
لِ	-9.9374
▁وبذلك	-9.93761
▁1934	-9.9378
▁السياسة	-9.93799
▁الحاج	-9.93837
▁القيمة	-9.9388
تدفق	-9.93905
▁سواء	-9.93943
خن	-9.9395
حال	-9.94031
▁هل	-9.94041
مارس	-9.94056
وارد	-9.94101
▁وأكثر	-9.94135
▁الصفر	-9.94152
▁تمكن	-9.94157
ئيل	-9.94215
▁التشغيل	-9.94274
▁برمجيات	-9.94276
بسط	-9.94282
▁أردني	-9.94321
▁الكتابة	-9.94321
▁عكس	-9.94408
▁يعيش	-9.9441
جماع	-9.94465
▁امتد	-9.94477
▁معالم	-9.94489
نظير	-9.94518
خور	-9.9457
قضية	-9.9468
▁كريس	-9.94691
إي	-9.9471
82	-9.94737
لاء	-9.94765
▁مراد	-9.94801
▁السلطات	-9.94812
▁الجهد	-9.9482
▁الإصدار	-9.9484
سيطر	-9.94869
▁الخمس	-9.94914
1)	-9.94971
دفاع	-9.94999
وحد	-9.95026
▁دير	-9.95064
▁الثنائي	-9.95113
▁نواب	-9.95134
▁خطوط	-9.95165
▁تزوج	-9.95172
▁مساعد	-9.95237
متحف	-9.9527
▁الألعاب	-9.95312
احتمال	-9.95326
تنوع	-9.95382
▁فريق	-9.95384
▁تصبح	-9.95408
▁فيصل	-9.95501
مستقل	-9.95559
توقف	-9.95572
▁توم	-9.95794
ne	-9.95795
▁الانتقال	-9.95844
▁البحث	-9.95874
▁السكر	-9.95944
▁مثلا	-9.9595
أشكال	-9.95966
نيل	-9.95982
سق	-9.95995
▁اشتهر	-9.9603
▁الأزهر	-9.96082
وئي	-9.9609
▁أصدر	-9.96092
200	-9.961
▁الجامعي	-9.96111
مجرد	-9.96127
▁هاي	-9.9625
٪	-9.96352
▁الكهرومغناطيسي	-9.96352
_	-9.96352
▁والعشرون	-9.96352
▁الطائرات	-9.96371
فون	-9.96388
خصوص	-9.96465
▁أصغر	-9.96491
▁ساعة	-9.96506
▁حيوان	-9.96545
▁زين	-9.96627
▁مجتمع	-9.96644
▁غار	-9.96712
حداث	-9.96723
▁فضل	-9.96752
▁تركيا	-9.96791
▁الديمقراطية	-9.96862
مواضيع	-9.96879
▁تبدأ	-9.96882
▁محافظات	-9.96895
▁الوليد	-9.96918
▁رام	-9.97033
موظف	-9.9705
▁الحج	-9.97082
نهج	-9.9711
em	-9.97139
▁العين	-9.97148
▁خليل	-9.97206
▁اليهودية	-9.97241
▁الملكي	-9.9726
صلاح	-9.97286
حالة	-9.97307
صفر	-9.97331
▁وتع	-9.97341
حاسب	-9.97344
▁قطاع	-9.97402
▁سهل	-9.97406
▁الجزيئي	-9.97407
▁دخول	-9.97444
▁الإسبانية	-9.97484
صوير	-9.97521
▁المدرسة	-9.97552
▁الإدارة	-9.97568
فَ	-9.97611
عاصمة	-9.97657
▁مكون	-9.97744
▁عموم	-9.9775
com	-9.97807
▁القرار	-9.97857
▁حاول	-9.97885
ضيق	-9.97892
سيد	-9.97911
روض	-9.97918
▁الحكومية	-9.9794
▁المرأة	-9.97946
▁قديمة	-9.97949
ليس	-9.97975
▁الهندي	-9.97986
▁النشيد	-9.98024
تعبير	-9.98033
سافر	-9.98041
ut	-9.9806
▁الناصر	-9.98117
▁الروم	-9.98142
▁كيو	-9.98151
ضمن	-9.98169
▁الإداري	-9.98209
▁جير	-9.98267
حساب	-9.98275
▁الإلكترون	-9.98349
َيْ	-9.98351
خلاف	-9.98364
0%	-9.9839
▁الأهلية	-9.98487
مهرجان	-9.98505
▁1930	-9.98511
▁جماعة	-9.98537
▁الأحداث	-9.98621
ضوء	-9.98646
▁الشخص	-9.98663
شحن	-9.98673
زيادة	-9.98718
▁ويكون	-9.98743
▁اتفاقية	-9.98754
صلى	-9.98773
▁اللجنة	-9.98809
توري	-9.98861
زرع	-9.98867
▁النص	-9.98871
تنمية	-9.98878
▁يستعمل	-9.98907
نهار	-9.98939
▁سار	-9.99005
▁شخصية	-9.99005
°	-9.99011
رعاية	-9.99041
شبكات	-9.9906
▁مشتق	-9.99084
صحف	-9.99114
▁إسلامية	-9.99176
ديس	-9.99267
▁أولاد	-9.99286
فرض	-9.99329
▁مصطلحات	-9.99358
▁يضم	-9.99384
▁غرا	-9.99388
▁صنع	-9.99544
▁مدى	-9.99552
▁القادر	-9.99573
▁تحليل	-9.99662
▁الزاوية	-9.9967
▁العظمى	-9.99707
▁الحميد	-9.99709
نصب	-9.99718
حصول	-9.99743
فهم	-9.99782
▁الجبال	-9.99824
▁أجر	-9.99837
▁جغرافيا	-9.9987
▁اعتبر	-9.99882
▁مواد	-9.99915
زوجة	-9.99917
▁وإذا	-9.99954
ياما	-9.99967
▁الثلاثة	-9.99993
أمراض	-10.0005
▁رموز	-10.001
خادم	-10.0011
▁الأثرية	-10.0011
▁نيكول	-10.0017
يئة	-10.0018
أشياء	-10.0021
جرام	-10.0023
وَ	-10.0026
▁كيميائية	-10.0029
ستعمل	-10.003
ساوي	-10.0036
▁الجغرافي	-10.0038
▁الأمة	-10.004
▁الجنس	-10.0041
▁تاريخية	-10.0046
▁رسم	-10.0047
▁يَ	-10.0057
▁الاستخدام	-10.0064
▁ثالث	-10.0064
▁ساحلية	-10.0064
▁الهواء	-10.0065
▁الرياضي	-10.0066
▁1918	-10.0067
▁الإسكندرية	-10.0073
سرطان	-10.0073
▁مسار	-10.008
▁مرور	-10.0081
▁البعث	-10.0089
and	-10.009
▁فمن	-10.0091
حمام	-10.0095
▁الهرم	-10.0096
▁باكستان	-10.01
▁وتعد	-10.0102
▁السبب	-10.0112
▁بالإ	-10.0114
▁البيزنطي	-10.0119
▁البرازيل	-10.0119
▁الضفة	-10.012
▁والعشرين	-10.0121
▁التحكم	-10.0123
▁اعتماد	-10.0126
▁أعداد	-10.0132
▁سويدي	-10.0134
▁عقب	-10.0139
▁الموسيقى	-10.0143
▁نظم	-10.0143
▁المعالم	-10.0143
ثبات	-10.0145
▁1920	-10.0145
▁أنّ	-10.0147
حصن	-10.0151
76	-10.0154
▁يزال	-10.0162
▁أفغانستان	-10.0174
▁الفراغ	-10.0175
▁الوزن	-10.0179
▁رابطة	-10.0184
▁أمن	-10.0185
خطط	-10.019
▁ويب	-10.0192
▁النهاية	-10.0204
▁اقتصاد	-10.0204
▁المركزية	-10.0205
وغو	-10.0213
صيغ	-10.0224
▁تتبع	-10.0224
نماذج	-10.023
▁ضغط	-10.0235
لحكومة	-10.0237
تماثل	-10.024
▁المعادلة	-10.024
▁الصيني	-10.0241
حول	-10.0242
عسكر	-10.0247
فرنسا	-10.0256
شرين	-10.0268
▁اللبناني	-10.0269
متاز	-10.0269
▁الذري	-10.0285
81	-10.0288
خطوط	-10.0289
▁دقيقة	-10.029
▁خليج	-10.0291
▁مرات	-10.0297
▁الليبي	-10.0308
جائزة	-10.0309
▁غالبا	-10.031
ظاهر	-10.031
he	-10.0329
▁حالات	-10.033
▁النموذج	-10.0332
فد	-10.0333
▁راي	-10.0338
▁أرسل	-10.0338
شهاد	-10.0341
Y	-10.0342
▁ألكسندر	-10.0342
▁الأحيان	-10.0342
▁فيلسوف	-10.0343
▁الجامعات	-10.0344
▁كرو	-10.0344
▁1932	-10.0345
▁طائرات	-10.0346
▁الأفريقي	-10.0347
كبر	-10.0348
▁الصحراء	-10.0349
تسارع	-10.0351
عرق	-10.0353
ir	-10.036
▁القوى	-10.036
▁لِ	-10.0363
K	-10.0364
▁الدكتور	-10.0369
▁تحدث	-10.0375
▁الخامسة	-10.0378
▁بينهما	-10.0384
دالة	-10.0386
لتحديد	-10.0388
▁بحسب	-10.0392
شرع	-10.0395
▁النبات	-10.0396
”	-10.0398
▁الإعلام	-10.0399
▁نجاح	-10.04
▁التونسي	-10.04
أكل	-10.0401
▁أفلام	-10.0403
▁القسم	-10.0415
طبيع	-10.0416
▁البلدان	-10.042
▁كافة	-10.0421
▁يوناني	-10.0423
▁الإدارية	-10.0427
▁(16	-10.0429
▁وتكون	-10.0441
▁حن	-10.0442
▁أولى	-10.0452
▁الخارجي	-10.0454
▁جزئي	-10.0456
▁مجلة	-10.0457
▁فنان	-10.046
▁ولايات	-10.047
▁المصطلح	-10.0484
▁المكتب	-10.0491
▁النووية	-10.0507
▁السيطرة	-10.0508
▁هؤلاء	-10.0512
▁ولذلك	-10.0512
▁المجموعات	-10.0513
▁هشام	-10.0513
▁مبارك	-10.0513
▁بهذه	-10.0513
▁1935	-10.0516
زعم	-10.0516
▁ينتج	-10.0517
حرب	-10.052
فصيل	-10.052
▁الحالية	-10.0523
جزء	-10.0523
▁مسلمون	-10.0525
حماية	-10.0527
▁نبات	-10.0527
تعلق	-10.053
▁ولقد	-10.0532
▁السماء	-10.0542
▁للمر	-10.0543
ّب	-10.0543
لاق	-10.0546
▁بشر	-10.0547
▁وراء	-10.0552
▁البابا	-10.0552
بحيرة	-10.0553
غاز	-10.0559
▁الأرجنتين	-10.057
▁نمساوي	-10.057
أكسجين	-10.057
هزيمة	-10.0571
▁الساعة	-10.0571
▁صباح	-10.0575
▁صفحة	-10.0576
▁النواة	-10.0578
▁هندي	-10.0579
▁القيام	-10.058
▁النهائي	-10.0581
مناسبة	-10.0585
▁نار	-10.0589
حكيم	-10.059
▁المشروع	-10.059
▁قيد	-10.0591
▁|-	-10.0593
إذاعة	-10.0594
بقى	-10.0596
▁نجم	-10.0601
قوة	-10.0608
مستقبل	-10.061
▁أنهم	-10.0613
غرض	-10.0613
▁السير	-10.0615
زيل	-10.0615
▁الصدر	-10.0616
▁العظم	-10.0617
▁القتال	-10.0618
▁مؤسسة	-10.0618
▁قادر	-10.0626
▁أقصى	-10.0628
▁القبائل	-10.0628
▁الأطلسي	-10.063
▁أستراليا	-10.0631
▁نصر	-10.0632
▁الأمطار	-10.0632
ضاد	-10.0632
▁فهد	-10.0636
▁البيئة	-10.0637
شيد	-10.0638
▁تدخل	-10.0638
▁إسلامي	-10.0642
▁الاشتراكي	-10.0648
▁رسمية	-10.0648
سهل	-10.0652
ذبح	-10.0653
موقع	-10.0654
U	-10.066
بولي	-10.0662
▁الرأس	-10.0666
أر	-10.0667
▁التعبير	-10.0668
ناخ	-10.0669
▁كندا	-10.0671
▁الحد	-10.0676
▁والتر	-10.0683
▁حو	-10.0686
▁1925	-10.0689
رؤية	-10.0698
▁كلمات	-10.0699
▁مضاد	-10.0699
5%	-10.07
▁%)	-10.0702
تداول	-10.0703
▁مير	-10.0705
▁الصحة	-10.071
صالح	-10.0714
ميكانيك	-10.0722
▁خير	-10.0724
▁الإلكتروني	-10.0724
sp	-10.0725
لن	-10.0729
قيد	-10.0733
▁نيويورك	-10.0744
معايير	-10.0745
▁1921	-10.0747
▁الأكاديمية	-10.0747
▁الإصلاح	-10.0751
▁الأساسي	-10.0752
▁الطرف	-10.0754
▁تيم	-10.076
▁المرض	-10.0768
▁يبدأ	-10.0769
▁معرفة	-10.0773
سوب	-10.0775
▁الظاهر	-10.0777
▁سمع	-10.0778
▁نبي	-10.0779
عتقل	-10.078
حور	-10.0781
دني	-10.0783
سيم	-10.079
▁لفترة	-10.079
na	-10.0792
▁معنى	-10.0796
▁السياحية	-10.0802
▁المكسيك	-10.0804
▁متن	-10.0804
الفلسفة	-10.0804
▁1931	-10.0805
▁المعاصر	-10.0808
▁سام	-10.0808
▁جين	-10.0813
▁نتائج	-10.0813
▁العائلة	-10.0819
▁ألبرت	-10.0822
تشابه	-10.0826
▁شيخ	-10.0829
ent	-10.0829
▁قمة	-10.0832
يتشي	-10.0836
بعث	-10.0852
لاتحاد	-10.0858
بالإنجليزية	-10.0862
▁الإشارة	-10.0863
▁1926	-10.0865
▁1933	-10.0865
▁الشركات	-10.0868
▁يذكر	-10.0868
وتشي	-10.0868
▁الأنواع	-10.087
▁السرعة	-10.0873
رفض	-10.0874
باد	-10.0876
▁200	-10.0886
▁السوق	-10.0894
▁العالي	-10.0896
▁الأمراض	-10.0906
▁ملف	-10.0909
▁عثماني	-10.0912
▁قوانين	-10.0914
▁نظرا	-10.0916
▁بلدة	-10.0921
▁اختلاف	-10.0922
▁التن	-10.0922
▁مبدأ	-10.0922
طبع	-10.0923
▁الحو	-10.0923
▁السويس	-10.0924
▁اتفاقيات	-10.0929
تعلم	-10.093
▁يوهان	-10.0931
شتق	-10.0931
غلق	-10.0933
▁كفر	-10.0935
علامات	-10.0936
▁الأشجار	-10.0936
▁الفنون	-10.0936
▁وتوفي	-10.0936
جس	-10.0953
▁دوري	-10.0962
▁وقعت	-10.0963
▁الاقتصادي	-10.0964
▁حلب	-10.0965
▁الحجم	-10.0973
نظرية	-10.0975
صديق	-10.0981
▁تصنيف	-10.0982
▁مسافة	-10.0984
▁الخطاب	-10.0986
▁الأنصار	-10.0986
▁المسؤول	-10.0989
نشتاين	-10.0994
▁الشعبي	-10.1
ss	-10.1001
▁المركزي	-10.1005
▁مستخدم	-10.1007
▁الجغرافيا	-10.1012
▁بصورة	-10.1018
▁الجوي	-10.1021
▁فرض	-10.1034
▁واشنطن	-10.1042
▁البرامج	-10.1042
قسام	-10.1046
▁مونت	-10.1058
▁فولت	-10.106
▁اتفاق	-10.1068
▁صار	-10.1073
رث	-10.1075
▁وعالم	-10.1076
▁عش	-10.1082
استمرار	-10.1084
▁دعم	-10.1084
▁الإنجليزي	-10.1085
W	-10.1088
▁كوريا	-10.1089
▁الحالات	-10.1091
نيو	-10.1097
جموع	-10.11
▁تقريبًا	-10.1103
تعرض	-10.1105
ممارسة	-10.1106
▁الوضع	-10.1106
▁وجنوب	-10.1106
يانا	-10.1109
▁كوب	-10.1109
▁تنقسم	-10.1111
▁الصناعات	-10.1113
▁وعن	-10.1114
▁النبوي	-10.1125
إسرائيل	-10.1127
▁تركيب	-10.1127
▁استمر	-10.1128
نصوص	-10.1133
▁البرتغال	-10.1138
▁(10	-10.1141
▁فلك	-10.1147
▁وعبد	-10.1147
▁موجودة	-10.1149
▁ذهب	-10.1155
▁القصر	-10.1158
شاعر	-10.1161
▁السيارات	-10.1162
▁وهكذا	-10.1164
▁بموجب	-10.1164
▁تحرير	-10.1164
▁الفرد	-10.1164
▁وبدأ	-10.1165
موند	-10.1165
▁العباسي	-10.1167
▁اتصال	-10.1168
ّع	-10.1171
▁سلم	-10.1171
▁تشو	-10.1172
tion	-10.1174
والد	-10.1174
▁العدو	-10.1174
▁بلديات	-10.1178
▁المعماري	-10.1187
تدريب	-10.119
ارتفاع	-10.119
▁U	-10.119
▁1,	-10.1195
رحم	-10.1202
▁de	-10.1206
▁بسيط	-10.1209
▁رسوم	-10.121
▁ترا	-10.1212
صاحب	-10.1217
إدارة	-10.1218
▁الأقصى	-10.1225
▁سبعة	-10.1225
▁يحيى	-10.1226
▁1923	-10.1227
▁أندري	-10.1229
op	-10.1231
▁معادلة	-10.1232
ذنب	-10.1233
جور	-10.1238
▁الحملة	-10.1238
▁مضيق	-10.1239
كيف	-10.1243
▁رأي	-10.1245
▁وعمل	-10.1246
تواصل	-10.1248
▁مضرب	-10.126
▁المقدسة	-10.1272
▁هيل	-10.1276
▁البشرية	-10.1281
▁الغذائية	-10.1287
▁المسلحة	-10.1287
▁صفحات	-10.1287
▁الحرارية	-10.1287
اصفة	-10.1288
▁للغاية	-10.1288
▁التشريعية	-10.1288
▁للدولة	-10.1289
رجل	-10.1289
▁1928	-10.1289
▁مستقلة	-10.1293
▁الرئاسية	-10.1294
فترة	-10.1304
ــ	-10.131
▁ذي	-10.1314
▁رومان	-10.1316
دلالة	-10.1316
لقوات	-10.1322
ha	-10.1322
▁الموصل	-10.1327
▁and	-10.1331
▁الكرة	-10.1334
تعرف	-10.1337
نيس	-10.1346
▁السعودي	-10.1349
▁أراد	-10.1349
▁تأسست	-10.1349
حوادث	-10.1349
▁الدراسات	-10.135
▁صناعي	-10.1351
▁العلاج	-10.1356
نبع	-10.1359
كوس	-10.1361
مقاطعة	-10.1362
▁مؤرخ	-10.1367
باقي	-10.1371
▁عبيد	-10.1372
▁واسعة	-10.1372
▁المتغير	-10.1376
▁الأموي	-10.1387
بقاء	-10.1387
▁علو	-10.1387
▁نال	-10.1392
▁الوسط	-10.1394
▁(17	-10.1395
برج	-10.141
align	-10.1411
▁تقديم	-10.1411
إلغاء	-10.1413
▁الرجل	-10.1418
مستويات	-10.1424
باح	-10.1425
▁فرنسيون	-10.1426
▁التعريف	-10.143
قائد	-10.1431
ساء	-10.1436
▁الغزو	-10.1436
▁هرم	-10.1439
hi	-10.144
ti	-10.1441
▁لبنانية	-10.1455
</	-10.1461
▁القائد	-10.1461
▁رمضان	-10.1474
▁حدوث	-10.1478
▁بيتر	-10.1479
الولايات	-10.148
وجد	-10.1482
▁تزال	-10.1482
▁سياحي	-10.149
▁ربيع	-10.1493
َر	-10.1493
▁كبار	-10.1496
حاجة	-10.1497
دوق	-10.1501
▁حلف	-10.1507
إمبراطور	-10.1517
▁مجمع	-10.152
خترع	-10.1523
▁النحاس	-10.1529
تحقق	-10.1529
دخول	-10.1537
▁بحث	-10.1537
▁يختلف	-10.1537
▁برازيلي	-10.1538
▁الرجال	-10.154
▁1919	-10.1542
▁ضخم	-10.1546
▁محرك	-10.1552
حمي	-10.1554
▁يقال	-10.1558
▁يستطيع	-10.1561
▁وأبو	-10.1563
▁قرر	-10.1568
▁مناخ	-10.1569
▁اليمين	-10.1573
روى	-10.1574
سطح	-10.1579
▁يهودي	-10.1581
ِر	-10.1582
زق	-10.1584
فيزياء	-10.1586
▁الصيد	-10.1588
▁كاثوليك	-10.1601
حدائق	-10.1601
▁رحلة	-10.1602
▁المشهور	-10.1604
▁ملايين	-10.1605
ضغط	-10.1609
▁بقوة	-10.161
▁الموحد	-10.1611
لول	-10.1615
تجمع	-10.1615
▁الموت	-10.1615
▁الجزر	-10.1624
▁معروفة	-10.1625
غضب	-10.1625
▁النباتات	-10.1634
▁مكتبة	-10.164
▁الفنان	-10.1644
▁طبع	-10.1647
دقيق	-10.1665
▁خواص	-10.1666
▁تساوي	-10.1666
▁تتضمن	-10.1668
▁جابر	-10.167
نوع	-10.1675
▁لذا	-10.168
تمييز	-10.1685
ليك	-10.169
▁الصالح	-10.1697
▁وغيرهم	-10.17
▁دم	-10.1711
إله	-10.1713
▁قواعد	-10.1715
▁الشباب	-10.1715
قطاع	-10.1718
▁فار	-10.1719
▁آب	-10.172
▁الجمهور	-10.1722
▁دعا	-10.1722
×	-10.173
▁الجاذبية	-10.1731
نهر	-10.1731
▁بطرس	-10.1732
حضور	-10.1734
▁تور	-10.1735
▁الشهيرة	-10.1736
▁النووي	-10.1738
ساحات	-10.1738
▁المستخدمة	-10.1738
▁سياسة	-10.174
▁وسائل	-10.174
▁الرسوم	-10.1744
▁فمثلا	-10.1745
▁القلب	-10.1747
يمين	-10.1752
▁نواة	-10.1754
▁حبيب	-10.1755
▁سبع	-10.1755
▁زوجته	-10.1758
▁الكلاسيكية	-10.1759
▁الشتاء	-10.1761
ثار	-10.1766
▁السويد	-10.1766
▁المركب	-10.1768
▁قصيرة	-10.1777
▁اليوناني	-10.1781
وء	-10.1789
▁المجاورة	-10.1795
تأليف	-10.1795
الأبجدية	-10.1797
▁1922	-10.1797
▁1929	-10.1797
مدرسة	-10.1799
▁تماما	-10.1803
▁سيف	-10.1803
▁كمال	-10.1805
▁معسكر	-10.1806
اضطراب	-10.1807
▁آلهة	-10.181
▁الوجه	-10.1822
▁التركية	-10.1832
2,	-10.1833
▁الكبد	-10.1833
▁حكام	-10.1838
غزل	-10.1847
عطى	-10.1851
▁المثلث	-10.1861
▁محكمة	-10.1866
حديقة	-10.1869
▁صدام	-10.1871
▁التحليل	-10.1873
▁تكوين	-10.1873
▁الذهب	-10.1874
▁الربيع	-10.1874
محطات	-10.1889
▁الفقر	-10.1891
ig	-10.1893
▁وسلم	-10.1897
▁فشل	-10.1897
ذاب	-10.1899
غزو	-10.19
▁مقاومة	-10.1904
روسيا	-10.1906
كامي	-10.1909
صناعات	-10.1914
▁حفل	-10.1919
▁علاقات	-10.1926
▁الكلمات	-10.1927
▁مايكل	-10.1928
▁1927	-10.1928
▁مبنى	-10.1929
▁الخلافة	-10.1929
▁رسالة	-10.1933
أطلس	-10.1934
▁آدم	-10.1935
▁بيانات	-10.1939
▁الكمومي	-10.1939
جلد	-10.1941
▁مروان	-10.1941
▁المعركة	-10.1942
▁المواقع	-10.1943
مكثف	-10.195
▁مقارنة	-10.1951
▁نووي	-10.1958
▁الأخضر	-10.1958
يزن	-10.1959
▁طبيعي	-10.196
إنسان	-10.1969
▁وتضم	-10.1969
▁باول	-10.197
▁العر	-10.1974
فال	-10.1988
“	-10.1992
▁اندلاع	-10.1992
▁هولندا	-10.1992
▁الزيتون	-10.1993
▁البرنامج	-10.1994
▁1912	-10.1996
▁التنفيذ	-10.1996
▁تعطي	-10.1999
▁العمال	-10.2
▁البنية	-10.2001
ورث	-10.2003
▁القدرة	-10.2004
▁الروسي	-10.2006
▁فرد	-10.2012
قواعد	-10.2014
▁كاملة	-10.2016
▁الدرجة	-10.202
▁حماية	-10.2025
▁الاجتماعي	-10.2029
بيب	-10.2035
ؤل	-10.2037
▁اقت	-10.2038
أدوات	-10.2038
▁رياضي	-10.2038
▁وذكر	-10.2048
قترح	-10.2051
شرطة	-10.2055
ab	-10.2056
جاذب	-10.2059
▁البرمجيات	-10.2059
▁مراكز	-10.2059
مبادئ	-10.2061
مناطق	-10.2061
▁1917	-10.2061
▁جداً	-10.2062
ضابط	-10.2062
رْ	-10.2067
▁حقيقي	-10.2085
▁الحب	-10.2085
استثناء	-10.2086
▁دام	-10.2087
لقاء	-10.2088
▁الأنظمة	-10.2091
▁ليكون	-10.2101
نكو	-10.2118
▁الإلكترونية	-10.2122
▁شمس	-10.2124
▁جدول	-10.2125
▁أصوات	-10.2126
سلوفاكي	-10.2126
▁المسافة	-10.2128
▁الأسبق	-10.2131
▁ولل	-10.2136
موت	-10.2138
▁شن	-10.2144
تنازل	-10.2145
▁النصوص	-10.2147
▁العلوي	-10.2147
▁إمام	-10.2152
نساء	-10.2153
▁مستشفى	-10.2156
لهجة	-10.2156
ثلاثمائة	-10.2162
كمل	-10.2165
تفوق	-10.2165
تمكن	-10.2169
▁محددة	-10.2171
▁الحروب	-10.2173
ph	-10.2175
تناسب	-10.2179
َرَ	-10.2183
▁1000	-10.2184
▁مقبرة	-10.2184
▁وزن	-10.2188
▁إكس	-10.2192
é	-10.2193
▁الترتيب	-10.2193
وثائق	-10.2194
▁طهران	-10.2194
▁سلالة	-10.2195
▁الخدمات	-10.2198
اختبار	-10.2202
▁توقيع	-10.2203
▁حيوية	-10.2207
دائي	-10.2207
▁الجمعة	-10.2208
▁الديمقراطي	-10.221
▁موجود	-10.221
▁حديد	-10.2211
▁الويب	-10.2211
اختيار	-10.2213
▁النقطة	-10.2217
▁القاسم	-10.2233
قاوم	-10.2234
إنما	-10.224
▁بوش	-10.2247
▁واستمر	-10.2253
دافع	-10.2254
معادلات	-10.2258
▁التوزيع	-10.2261
▁دينية	-10.2261
▁لبعض	-10.2262
▁أتباع	-10.2264
▁شجرة	-10.2264
ie	-10.2269
تسم	-10.2269
▁موضع	-10.227
يتس	-10.227
▁غزة	-10.2276
▁خدمة	-10.228
▁محلية	-10.2281
▁دليل	-10.2287
▁الفيزيائية	-10.229
▁والثاني	-10.2296
▁الحيوان	-10.2302
▁تناول	-10.2305
▁هدف	-10.2307
▁أدت	-10.2309
سطو	-10.231
أمين	-10.231
بيرغ	-10.2314
▁كوري	-10.2322
سمع	-10.2322
▁سكن	-10.2324
يابان	-10.2329
▁عواصم	-10.233
▁مقدار	-10.2332
▁1924	-10.2333
▁يدعى	-10.2335
▁1914	-10.2335
▁الجنسية	-10.2339
تصفح	-10.2342
▁بابا	-10.2345
▁صيني	-10.2349
▁خال	-10.235
ريج	-10.2351
▁تسبب	-10.2354
▁الليل	-10.2358
▁المدارس	-10.2361
▁تعديل	-10.2362
لعديد	-10.2366
َق	-10.237
▁قصير	-10.2372
عمق	-10.2373
3)	-10.2373
يًّا	-10.2375
صوت	-10.2375
▁ميت	-10.2379
▁القائمة	-10.238
توزع	-10.2384
▁قائل	-10.2385
▁وسم	-10.2389
حتمل	-10.2393
▁الموافق	-10.2399
▁الشيعة	-10.24
▁النصف	-10.2401
▁الأصلية	-10.2401
▁العموم	-10.2402
▁مارتن	-10.2405
أطراف	-10.2406
▁الزعيم	-10.2406
▁زالت	-10.2408
▁السب	-10.241
▁يبدو	-10.241
أسواق	-10.2413
▁سلطة	-10.2413
شبه	-10.2414
▁الدائرة	-10.2414
|	-10.2416
▁التحق	-10.2416
▁أشجار	-10.2418
▁الموجود	-10.242
ca	-10.2421
تعامل	-10.2427
▁سامي	-10.2428
▁الكونغو	-10.2446
يانو	-10.2447
▁سلمان	-10.2447
▁ألعاب	-10.2456
تباين	-10.2467
▁امرأة	-10.2468
▁الجنرال	-10.2468
▁ببعض	-10.2469
▁الطيران	-10.2469
▁لفظ	-10.2471
▁دراسته	-10.2474
▁تتم	-10.2477
ستور	-10.248
ستن	-10.2482
▁وأما	-10.2484
▁الثقافية	-10.2496
▁لكي	-10.2501
▁بعث	-10.2502
▁تونسي	-10.2506
ثورة	-10.2507
▁الحروف	-10.2511
اعتراف	-10.2513
▁والاست	-10.2515
غولي	-10.2532
أحادي	-10.2535
▁تصنيع	-10.2538
▁الهولندي	-10.2538
▁السفن	-10.2539
▁الأنف	-10.254
▁الاتصالات	-10.254
▁العضوية	-10.254
▁القوانين	-10.2541
▁عدنان	-10.2541
ترابط	-10.2543
▁محطة	-10.2543
▁الطويل	-10.2548
▁موجب	-10.2553
▁عدا	-10.2555
▁كارلوس	-10.2561
الجزائر	-10.2565
سِ	-10.2569
▁سجن	-10.2571
▁لأي	-10.2572
ألم	-10.2572
▁لإنتاج	-10.2575
▁قرأ	-10.2576
▁ديوان	-10.2585
بيئة	-10.2587
▁كثافة	-10.2592
▁الحجري	-10.2593
▁الجمل	-10.2596
جهود	-10.26
شيف	-10.2602
جزيئات	-10.2603
بِ	-10.2605
▁300	-10.2606
▁الأوراق	-10.2612
جسم	-10.2612
الإسبان	-10.2613
▁الاتجاه	-10.2613
▁شهادة	-10.2616
▁المنورة	-10.2617
ناغا	-10.2617
▁عبادة	-10.2617
▁التفاعلات	-10.262
▁سريع	-10.2622
مدارس	-10.2624
▁منصبه	-10.2625
▁تمتد	-10.2626
▁شعبية	-10.2629
كوارك	-10.2634
\	-10.2634
صغر	-10.2644
▁الصغير	-10.2645
▁مركبات	-10.2647
▁ثور	-10.2653
▁الشعراء	-10.2654
غيل	-10.2663
▁تحتل	-10.2663
▁وقع	-10.2665
سكا	-10.2671
▁أوتو	-10.2677
▁الكهرباء	-10.268
▁اهتمام	-10.268
شخص	-10.2681
▁الوحدات	-10.2681
▁بلدان	-10.2682
▁أهمها	-10.2683
▁البرمجة	-10.2684
▁ألفا	-10.2684
▁يصدر	-10.2685
شوغون	-10.2688
نخفض	-10.2691
▁نيسان	-10.2692
▁تجارية	-10.2702
▁خلق	-10.2704
▁باقي	-10.2707
آثار	-10.2709
▁موري	-10.2714
جزيرة	-10.2719
▁موسيقى	-10.272
▁ذري	-10.2722
▁ومخرج	-10.2727
▁أطول	-10.2733
تشو	-10.2734
▁أغاني	-10.2737
▁رياضية	-10.2737
▁الشاب	-10.2738
غاب	-10.2738
im	-10.2748
▁إسحاق	-10.2751
محاصيل	-10.2751
وظيفة	-10.2752
▁النجوم	-10.2752
تناول	-10.2755
▁تفاعلات	-10.2756
▁اتخذ	-10.2756
▁وأول	-10.2757
▁فعال	-10.2759
▁المساجد	-10.276
▁الطعام	-10.2762
▁النحو	-10.2782
▁حصار	-10.2783
▁زياد	-10.2784
ci	-10.2784
▁المقر	-10.2789
▁سالم	-10.279
رشد	-10.2791
▁الألب	-10.2802
▁السلم	-10.2803
تفق	-10.2819
▁التفاضل	-10.2823
▁بعنوان	-10.2823
▁هريرة	-10.2823
▁شقيق	-10.2824
عازف	-10.2824
▁الأردنية	-10.2825
▁1908	-10.2825
▁الدنيا	-10.2826
▁الكائن	-10.283
▁بهدف	-10.2834
▁خوان	-10.2848
دعي	-10.2853
▁لوحة	-10.2857
▁بطولة	-10.2864
▁بعمل	-10.2867
▁أغ	-10.2882
▁الهندية	-10.2886
خيم	-10.2892
نيوترونات	-10.2895
▁باعتباره	-10.2897
▁البخاري	-10.2897
▁المعارضة	-10.2898
▁تقول	-10.29
▁الدوائر	-10.2901
▁قتيل	-10.2902
مرض	-10.2903
▁الإشعاع	-10.2904
حظر	-10.2908
▁النصر	-10.2913
التي	-10.2914
▁كندي	-10.2916
▁ربما	-10.2917
▁فروع	-10.2918
فاصل	-10.2919
▁لتكون	-10.2928
رجح	-10.2931
سيارات	-10.2931
مارك	-10.2936
▁الخطوط	-10.2942
▁يتبع	-10.2942
▁الصليب	-10.2952
▁الأمازيغ	-10.2956
مسجد	-10.2958
▁طبيعية	-10.296
▁النازية	-10.2964
سفير	-10.2964
▁يرى	-10.2965
▁أنشأ	-10.2966
▁حُ	-10.2968
▁يعقوب	-10.2968
▁انفجار	-10.2968
▁احتلال	-10.2969
▁الثابت	-10.2969
▁مراحل	-10.2969
▁التحتية	-10.2969
▁كربون	-10.2969
▁الصلاة	-10.2969
هيدروجين	-10.2972
▁1910	-10.2974
▁الرمز	-10.2976
▁موسكو	-10.2978
خلق	-10.2979
ine	-10.2991
▁العالية	-10.2993
▁المنظمة	-10.2994
غب	-10.2995
رطب	-10.2998
طباعة	-10.2998
محاولة	-10.3005
▁مستمر	-10.301
▁مرتبطة	-10.3016
جمهورية	-10.3032
إلكترون	-10.3036
أدوية	-10.3036
▁علوم	-10.3037
ou	-10.3037
هدم	-10.3038
▁دبلوماسي	-10.3042
منشآت	-10.3042
▁قوائم	-10.3042
▁تؤدي	-10.3042
▁الداخلي	-10.3044
▁مسعود	-10.3046
▁ولهذا	-10.3047
▁الحضارة	-10.3048
▁لتصبح	-10.3048
سيف	-10.3049
نار	-10.3059
قرار	-10.3059
▁رضا	-10.3061
▁شهدت	-10.3062
▁يفوز	-10.3074
▁الإيرانية	-10.308
▁بلغت	-10.308
▁البيض	-10.3081
زاع	-10.3083
▁المقام	-10.3084
تقريب	-10.3086
▁يقدم	-10.3089
مواجهة	-10.3104
▁منخفض	-10.3109
شبع	-10.3114
▁الخلايا	-10.3116
▁صلاة	-10.3117
▁أسلوب	-10.3122
▁إنجليز	-10.313
ستهلك	-10.313
حتفظ	-10.3131
▁علاج	-10.3132
▁السطح	-10.3137
عقاب	-10.3141
▁إف	-10.3141
▁بعضهم	-10.3142
▁وليام	-10.315
▁رود	-10.3157
فارق	-10.3157
▁العقل	-10.3161
عقب	-10.3164
▁كاليفورنيا	-10.3167
سيادة	-10.3172
شاب	-10.3176
حبوب	-10.3186
▁للمدينة	-10.3188
4)	-10.3189
قوش	-10.3189
▁التركي	-10.3191
▁يأتي	-10.3192
▁الأمين	-10.3192
▁قصص	-10.3193
▁ذكور	-10.3193
▁يونكس	-10.3194
▁ويلز	-10.3194
▁1911	-10.3195
▁تقريباً	-10.3195
▁Z	-10.3198
▁انطلاق	-10.3202
▁العصبي	-10.3206
تدمير	-10.3207
▁حالياً	-10.3208
▁(15	-10.3213
▁فاز	-10.3219
▁استمرت	-10.3219
▁وتسمى	-10.322
▁فيزيائية	-10.3227
▁الأسماء	-10.3231
▁يدخل	-10.3245
وفيتش	-10.3248
▁وبقي	-10.3257
ـ/	-10.3262
▁أرجنتيني	-10.3266
▁يسمح	-10.3267
▁The	-10.3268
co	-10.3268
فيتامين	-10.3273
▁شارع	-10.3276
▁رشيد	-10.3276
أكثر	-10.3281
▁إنسان	-10.3282
▁ومؤسس	-10.3282
▁مستشار	-10.3283
سوس	-10.3297
▁بتاريخ	-10.3299
▁السائل	-10.3304
▁رسميًا	-10.3306
▁معاوية	-10.3306
انضمام	-10.3311
ساط	-10.3311
▁الاجتماع	-10.3312
▁الاحتفال	-10.3314
شاط	-10.3314
▁يتعلق	-10.3318
▁توفيق	-10.3318
▁أعلنت	-10.3324
معرفة	-10.3327
q	-10.3327
▁المؤمنين	-10.3342
▁الخصائص	-10.3342
▁أمثلة	-10.3345
▁ممكن	-10.3345
أساليب	-10.3347
تأخر	-10.3349
▁Ma	-10.3352
▁أسباب	-10.3353
▁الفرس	-10.3354
▁اقترح	-10.3356
▁الصلبة	-10.3358
▁للعمل	-10.3366
▁لاحقًا	-10.3375
جيب	-10.3377
ركب	-10.3381
الذي	-10.3383
▁1-	-10.3392
فوس	-10.3397
▁الكلية	-10.3399
كيمياء	-10.34
▁الأشعة	-10.3401
إيطالي	-10.3401
شاء	-10.3403
▁عاصمتها	-10.3418
▁الأصوات	-10.3418
▁إعلامي	-10.3418
▁التغيير	-10.3418
▁المطلوب	-10.3418
▁ينتمي	-10.3418
▁الخشب	-10.342
▁طارق	-10.342
▁شعره	-10.342
فتتح	-10.3423
▁عادةً	-10.3428
▁صديق	-10.3431
▁تمثيل	-10.3432
▁مقال	-10.3432
▁ترجمة	-10.3437
▁ملا	-10.3441
▁قريش	-10.3447
▁الطول	-10.3465
▁المهمة	-10.3471
▁قبر	-10.3472
▁الأعضاء	-10.3474
▁الزواج	-10.349
ff	-10.3491
تفكير	-10.3495
▁الضوئي	-10.3495
▁المباشر	-10.3495
▁صقلية	-10.3495
▁أحياء	-10.3495
▁أدولف	-10.3496
▁المستعمر	-10.3498
▁وثيق	-10.35
▁السريع	-10.3503
▁وصحفي	-10.3503
▁وتعني	-10.3503
▁برمجة	-10.3504
▁رواية	-10.3505
▁شرح	-10.3508
▁الحقبة	-10.3519
▁مكونات	-10.3521
▁أيدي	-10.3522
▁مقاتل	-10.3526
▁الأسد	-10.3529
كنيسة	-10.3531
نتظم	-10.3533
يبلغ	-10.3533
▁عامر	-10.3551
هداف	-10.3564
▁المعادن	-10.3573
▁إشارة	-10.3574
زرقاء	-10.3574
▁ووزير	-10.3575
▁1916	-10.3575
مراقبة	-10.3576
▁الصيغة	-10.3576
▁الصحية	-10.3579
تكرر	-10.3583
▁الخدمة	-10.3584
▁اليسار	-10.3585
▁الجنسي	-10.3586
▁لاحقا	-10.3587
▁عمارة	-10.359
▁سمير	-10.3591
▁الهجري	-10.3593
▁(13	-10.3594
▁القرى	-10.3595
ell	-10.3596
▁البدو	-10.3599
▁الفيزيائي	-10.3601
محمد	-10.3612
بشر	-10.3613
▁البولي	-10.3618
▁الثقافي	-10.3619
▁فما	-10.3621
تبعد	-10.3623
▁الوطن	-10.3625
أبو	-10.3627
▁ويست	-10.363
▁لصالح	-10.3637
▁المنزل	-10.3642
▁سالب	-10.3642
▁خلفًا	-10.3646
▁تستعمل	-10.3649
•	-10.3651
▁عائشة	-10.3651
▁مفتوح	-10.3651
▁شاطئ	-10.3651
▁بالعربية	-10.3651
▁متعلقة	-10.3652
▁الغابات	-10.3653
▁ليصبح	-10.3659
قراطي	-10.3664
▁صدور	-10.368
عُ	-10.3681
▁الأرقام	-10.3689
▁التأثير	-10.3692
▁قرى	-10.3694
▁الأسلحة	-10.3696
غرام	-10.37
▁الأشخاص	-10.37
▁تاكا	-10.3701
▁مريم	-10.3702
▁للعلوم	-10.3708
ناقل	-10.3711
▁أدوات	-10.3713
▁كير	-10.3715
َوْ	-10.3728
▁اثنين	-10.3729
▁اللغوي	-10.3735
▁تسميته	-10.3738
▁المباني	-10.3738
ستبدل	-10.3743
▁دوران	-10.3746
دِ	-10.3748
فندق	-10.3748
▁شيعي	-10.3751
ضبط	-10.3752
▁التعامل	-10.3762
▁أخيه	-10.377
▁التفسير	-10.3781
▁يساعد	-10.379
▁2-	-10.3793
▁سبق	-10.3794
▁تولي	-10.3799
▁متغير	-10.3802
لبرت	-10.3802
انتشار	-10.3803
▁جدًا	-10.3808
▁الهيكل	-10.381
▁طبيعة	-10.3816
أمازيغية	-10.3822
▁تنتج	-10.3823
▁جلال	-10.3825
ni	-10.3831
▁يتحدث	-10.3835
▁الجلد	-10.3839
▁الحديدية	-10.3839
وكل	-10.3841
▁المنطق	-10.3848
▁فلز	-10.3855
رود	-10.3861
▁التجاري	-10.3864
▁بيير	-10.387
▁مساحتها	-10.3889
▁الأحياء	-10.3889
▁هتلر	-10.3889
▁انتصار	-10.3889
أفراد	-10.3889
▁الناحية	-10.389
تسبب	-10.3891
▁الاتفاق	-10.3892
▁أكاديمي	-10.3892
▁الفلبين	-10.3893
▁معارض	-10.3898
▁كوكب	-10.391
▁(11	-10.3911
▁يريد	-10.3912
▁الارتفاع	-10.3916
▁الجمهوري	-10.3919
غالبية	-10.3926
حيوان	-10.3931
▁السجن	-10.3936
▁معامل	-10.3938
▁الراين	-10.3947
▁عصا	-10.3947
▁يعطي	-10.3955
بروتوكول	-10.3969
▁سويسري	-10.3969
▁الروابط	-10.3969
▁عظيم	-10.3969
▁الحمراء	-10.3972
▁الأجسام	-10.3973
▁الأسنان	-10.3973
▁المعادلات	-10.3974
▁ظاهرة	-10.3977
إعلان	-10.3977
▁الموجة	-10.3979
▁الشديد	-10.3985
▁القطاع	-10.3987
▁مقالات	-10.399
▁الصليبية	-10.3991
غرق	-10.3993
▁تصدر	-10.3999
▁المائية	-10.4004
▁(12	-10.4011
حسين	-10.4026
▁لديها	-10.4026
▁الصادر	-10.4031
▁الظواهر	-10.4051
▁نيوتن	-10.4054
نتاج	-10.4056
▁أقام	-10.4057
توازن	-10.4061
غناء	-10.4082
▁ومحمد	-10.4096
▁هيكل	-10.4097
خلاص	-10.4104
▁حوض	-10.4108
توقيع	-10.4124
ألكين	-10.4124
▁المعرفة	-10.4127
▁تجاري	-10.4129
▁إليزابيث	-10.4133
▁حاسوب	-10.4133
▁المعدنية	-10.4133
▁غالبًا	-10.4134
▁فريدريك	-10.4137
▁مؤقت	-10.4137
▁راشد	-10.4138
▁ياسين	-10.4138
سُ	-10.4139
شبيه	-10.4144
▁إصلاح	-10.4144
صادر	-10.4148
جمل	-10.4156
▁الآخرين	-10.4159
لدراسة	-10.4162
▁منطق	-10.4167
▁كريم	-10.4185
▁للجمهورية	-10.4194
▁تشبه	-10.4198
حصر	-10.4199
▁انضم	-10.4199
مفهوم	-10.4207
▁فلور	-10.421
▁يوشي	-10.4211
▁وأيضا	-10.4213
▁الانقلاب	-10.4215
انسحاب	-10.4215
طرابلس	-10.4215
ساموراي	-10.4215
▁الأماكن	-10.4215
▁المهندس	-10.4216
▁النهضة	-10.4217
▁1913	-10.4219
▁مرجع	-10.4219
فريد	-10.4221
أهل	-10.4221
▁الهاتف	-10.4222
▁النسب	-10.4226
سلطنة	-10.4226
▁وأكبر	-10.4231
▁قيل	-10.424
توجد	-10.4242
▁القضاء	-10.4243
▁بأس	-10.4254
▁ثمانية	-10.4265
سْ	-10.4268
▁الصناعي	-10.4278
▁حروب	-10.4284
▁السوفييتي	-10.4298
▁الآلهة	-10.4299
▁الاتصال	-10.43
لاج	-10.4302
▁الحجاج	-10.4315
▁كوبا	-10.4317
▁برلين	-10.4317
العراق	-10.4318
▁عودة	-10.4318
pe	-10.4319
0,000	-10.4322
▁ويسمى	-10.4325
▁معماري	-10.4341
اشتراك	-10.4354
▁ويقال	-10.4358
▁العثمانيين	-10.4359
فلسطين	-10.4362
عتاد	-10.4364
Cl	-10.4366
▁نمو	-10.4381
▁نابليون	-10.4383
▁كريستيان	-10.4383
▁النسخة	-10.4383
▁الأخلاق	-10.4383
▁القلعة	-10.4384
▁آمون	-10.4384
ضرورة	-10.4385
استبدال	-10.4386
▁الحقيقة	-10.439
▁الإطلاق	-10.4395
▁الجهة	-10.442
▁الخير	-10.4425
الديانة	-10.4427
▁مثلث	-10.4428
▁استقلالها	-10.4438
بلاد	-10.4446
▁تنتم	-10.4456
فيلد	-10.4458
▁يتميز	-10.4467
كاتدرائية	-10.4467
▁الفائق	-10.4468
▁إدريس	-10.447
▁الفضائي	-10.4471
▁بولندا	-10.4473
▁نادر	-10.4479
▁خطاب	-10.4484
▁محدد	-10.4485
حاك	-10.4486
▁الصلب	-10.4488
▁طبقة	-10.4493
▁الفرعي	-10.4495
ملابس	-10.4496
▁المنصور	-10.45
▁الصخر	-10.4502
age	-10.4514
▁القارة	-10.4514
غنى	-10.4516
ge	-10.452
▁ليبي	-10.4538
سند	-10.4544
قوي	-10.4546
▁يكتب	-10.4549
انخفاض	-10.4553
انتفاضة	-10.4553
▁الجزيء	-10.4553
شواطئ	-10.4553
▁معارك	-10.4556
حرارة	-10.4557
سابق	-10.4558
und	-10.456
▁الحقوق	-10.4562
ive	-10.4565
▁البيضاء	-10.4569
ربما	-10.457
▁البرتغالي	-10.4576
▁تخرج	-10.4577
▁المقابل	-10.4583
ثناء	-10.4588
▁شأن	-10.4591
يرمز	-10.4593
ran	-10.4595
▁أقرب	-10.4598
خلط	-10.4604
▁Co	-10.461
▁إسرائيليون	-10.4611
mo	-10.4613
▁الموضوع	-10.4626
جول	-10.4626
3,	-10.4628
▁بابل	-10.4629
قلب	-10.4633
▁المؤسسات	-10.464
▁الإجمالي	-10.4641
▁1909	-10.4642
▁ووضع	-10.4643
▁المؤلف	-10.4646
بدء	-10.4649
▁الصراع	-10.4651
عاش	-10.4659
-17	-10.4662
▁ساحة	-10.4671
تفسير	-10.4677
▁قطب	-10.4679
واحد	-10.4681
تقليل	-10.4683
▁لابن	-10.4692
جهاز	-10.4693
▁الإرهاب	-10.4718
▁قومي	-10.4721
لشركة	-10.4723
▁يضرب	-10.4724
▁الكثافة	-10.4724
▁جود	-10.4725
سلام	-10.4726
▁أيرلندي	-10.4726
▁الثانوية	-10.4726
▁مرشح	-10.4728
▁مخترع	-10.4728
▁1906	-10.4729
▁سوداني	-10.473
اغتيال	-10.473
▁الدكتوراه	-10.4732
أطباء	-10.4733
▁تقليدي	-10.4734
▁نقاط	-10.4737
▁مظاهر	-10.4739
▁لوحات	-10.4739
▁تمتلك	-10.4742
▁الدراسة	-10.4744
راسل	-10.4745
أزرق	-10.4746
▁التركيب	-10.475
ki	-10.4752
▁الأمور	-10.4753
▁الأعظم	-10.4753
ساق	-10.4755
▁للبلاد	-10.4759
ائهم	-10.4762
تعادل	-10.4769
▁الهادي	-10.4773
أفضل	-10.4779
▁النتائج	-10.4783
▁ومغني	-10.4787
▁ويعد	-10.4789
▁مواطن	-10.4792
▁الأسر	-10.4806
▁المؤسسة	-10.4815
غز	-10.4816
احتفال	-10.4816
▁1901	-10.4817
ho	-10.482
أسطورة	-10.4821
▁لسنة	-10.4823
▁الكورية	-10.4823
▁نهائي	-10.4824
▁القادم	-10.4824
▁بصفة	-10.4827
▁ياسر	-10.4828
درك	-10.4834
▁وحده	-10.4848
▁جغرافي	-10.4854
▁زيوس	-10.4855
▁كنت	-10.4857
ستقلال	-10.4859
▁جنب	-10.4863
▁المتعلق	-10.4896
▁الإسباني	-10.4899
▁ميخائيل	-10.4902
▁الأوَّل	-10.4902
▁المذكور	-10.4902
صواريخ	-10.4902
▁الهجوم	-10.4902
://	-10.4902
▁الشعوب	-10.4902
▁ترتبط	-10.4903
▁بحلول	-10.4903
▁أعد	-10.4907
▁الأبعاد	-10.4909
▁جهد	-10.4916
تقن	-10.4924
▁الأحمد	-10.4931
فساد	-10.4931
ef	-10.4936
حيث	-10.494
ذيب	-10.4941
▁الأساس	-10.4943
طرف	-10.4944
▁صلب	-10.4963
▁تربط	-10.4973
▁مرتفع	-10.4976
▁لغوي	-10.4976
▁الشهير	-10.4985
شرب	-10.4987
▁التشريع	-10.4989
▁الأولمبية	-10.4992
▁الصحابة	-10.4992
▁ناشط	-10.4992
▁لقياس	-10.4992
مبرهنة	-10.4992
▁بوجود	-10.4992
▁ببناء	-10.4992
▁سفيان	-10.4992
▁الاستوائي	-10.4993
▁وخلال	-10.4994
▁حارس	-10.4995
▁مشهور	-10.4995
▁نزلت	-10.4999
أخير	-10.5
▁حكومي	-10.5
▁البصري	-10.5
▁البلاط	-10.5004
▁إرسال	-10.5005
عثور	-10.5006
المعروف	-10.5007
▁فئة	-10.5014
▁شهور	-10.5018
ًّا	-10.5032
سوق	-10.5033
ثنائي	-10.5035
▁سيما	-10.5043
قاعدة	-10.5053
▁بالله	-10.5062
▁محور	-10.5063
▁مفاهيم	-10.5082
▁وأديب	-10.5083
باليابانية	-10.5084
▁استقر	-10.5085
▁اللازمة	-10.5087
▁الملفات	-10.5087
▁آرثر	-10.5088
▁العمارة	-10.5089
▁وسيلة	-10.5093
▁متساوي	-10.5093
▁يعبر	-10.5095
ستثمار	-10.5096
▁يونس	-10.5097
اقتصاد	-10.5099
أعوام	-10.51
▁مخطط	-10.51
دعاء	-10.5104
▁كائن	-10.5113
▁ينص	-10.513
▁غالي	-10.513
va	-10.5133
أسلحة	-10.5135
▁حماس	-10.5138
▁ماكس	-10.5142
▁جسر	-10.5143
-12	-10.5147
نيك	-10.5155
▁1900	-10.5164
ist	-10.5167
قلاع	-10.5169
تتألف	-10.5171
Q	-10.5172
http	-10.5172
▁الإخوان	-10.5173
▁ثقافي	-10.5173
▁ظروف	-10.5173
▁الخواص	-10.5173
▁الخضراء	-10.5173
ضاعف	-10.5173
▁1904	-10.5176
▁حامل	-10.5178
▁الغلاف	-10.518
▁اللعبة	-10.5182
▁تحوي	-10.5182
أتراك	-10.5183
▁قائم	-10.5189
▁الثماني	-10.5192
▁موطن	-10.5193
▁أهداف	-10.5194
َّل	-10.5203
▁استعمل	-10.5213
▁شائع	-10.5216
▁دينار	-10.5219
▁غرار	-10.5222
ستند	-10.5223
عاطف	-10.5223
▁خشب	-10.5225
▁للحصول	-10.5226
▁مباشر	-10.5233
تصرف	-10.525
mp	-10.5259
▁الابتدائي	-10.5264
▁بسهولة	-10.5264
▁فاطمة	-10.5264
▁وآخر	-10.5264
▁بشأن	-10.5264
▁الأجنبي	-10.5265
▁بروتون	-10.5265
بلجيكا	-10.5265
▁السالب	-10.5272
▁بوينغ	-10.5279
ity	-10.528
▁الكرك	-10.5287
▁المنصب	-10.5287
أذن	-10.529
دكتور	-10.5307
▁القدماء	-10.5325
فرج	-10.5335
تظاهر	-10.5337
1,	-10.5342
▁أيرلندا	-10.5357
▁الانتداب	-10.5357
تأكيد	-10.5357
▁النرويج	-10.5357
▁الصهيوني	-10.5357
▁المقاطعات	-10.5358
▁الشحنة	-10.5361
▁سال	-10.5362
استيلاء	-10.5362
▁البالغ	-10.5364
▁بولاية	-10.5365
حافل	-10.537
▁حادثة	-10.5371
خلص	-10.5376
▁صلة	-10.5379
شباب	-10.5381
▁المحرك	-10.539
▁رائد	-10.5391
▁بالمدينة	-10.5397
▁يحصل	-10.5398
لأسباب	-10.5411
▁أيزو	-10.5419
لكتابة	-10.542
تأثير	-10.5427
▁البنك	-10.5431
أسماء	-10.5437
معلومات	-10.5449
▁الهاشمي	-10.545
قنبلة	-10.545
▁قرطبة	-10.5451
▁البصرة	-10.5451
▁الكاثوليك	-10.5452
▁بدراسة	-10.5453
▁جريدة	-10.5453
▁ويقع	-10.5454
▁المغزلي	-10.5455
▁جرائم	-10.5456
▁مشابه	-10.5456
▁جسيمات	-10.5456
▁In	-10.5459
▁المجيد	-10.546
▁الأيام	-10.546
▁150	-10.5468
▁نجيب	-10.5469
إزالة	-10.547
▁الجابر	-10.5472
▁السياح	-10.5474
ard	-10.5475
ow	-10.5481
▁طوب	-10.5482
زخر	-10.5497
▁أشار	-10.5497
سعى	-10.5497
▁قاسم	-10.5502
▁Re	-10.5503
تخلص	-10.5503
لبنان	-10.5507
عصر	-10.5508
َنَ	-10.5509
تقى	-10.5511
▁قرن	-10.5526
ion	-10.5527
▁عثر	-10.553
▁لحم	-10.5535
إنتاج	-10.5536
▁أيوب	-10.5537
مرور	-10.5538
#	-10.5545
إندونيسيا	-10.5545
▁التكافؤ	-10.5545
▁سفينة	-10.5545
▁إجمالي	-10.5545
▁فضاء	-10.5547
▁زيارة	-10.5548
▁الموارد	-10.5554
▁العمود	-10.5556
▁الفلاح	-10.5557
خير	-10.5566
سفن	-10.5568
▁بوضع	-10.5569
رحلات	-10.5578
حذف	-10.5578
▁يُعرف	-10.5589
▁جذر	-10.5589
▁تحسين	-10.5604
▁كاس	-10.5613
إجراء	-10.5613
مزارع	-10.5624
▁عنوان	-10.5629
▁الحقل	-10.5639
center	-10.564
▁التكامل	-10.564
▁انهيار	-10.564
أصناف	-10.5642
▁التقليدي	-10.5644
▁الدقيقة	-10.5644
هضبة	-10.5644
آداب	-10.5646
▁فاروق	-10.5646
▁سول	-10.5646
▁التشيك	-10.5647
▁إيفان	-10.5657
vi	-10.5662
أوروبا	-10.5671
باكستان	-10.5675
▁هاجر	-10.5679
▁للإلكترون	-10.5682
فقد	-10.5684
▁كارول	-10.57
▁مطبخ	-10.57
نشئ	-10.5705
▁حزم	-10.5712
▁إسطنبول	-10.5736
▁الأسبوع	-10.5736
بندقية	-10.5736
▁تقويم	-10.5736
▁الطائف	-10.5737
▁إدخال	-10.5738
▁1902	-10.5739
▁مكعب	-10.5739
▁نزول	-10.574
توصيل	-10.5743
▁الحفاظ	-10.5744
▁مشكلة	-10.5745
▁إلياس	-10.5753
▁خوسي	-10.5758
▁عزيز	-10.5761
▁الأرثوذكسية	-10.5773
▁إتش	-10.5776
▁الطفل	-10.5776
ستهدف	-10.5782
der	-10.5804
رجاء	-10.5814
سماها	-10.5828
▁وحيد	-10.583
▁للولايات	-10.5833
الحواسيب	-10.5834
ثدييات	-10.5835
▁بكثير	-10.5837
▁حمزة	-10.5838
تسليم	-10.5842
▁الفيروس	-10.5842
▁الجماعة	-10.5846
▁شوقي	-10.5846
▁قبرص	-10.5848
▁الأصغر	-10.5853
عزى	-10.5859
أنظمة	-10.586
▁النازي	-10.5861
▁طوال	-10.5867
▁تحتاج	-10.5881
▁يشبه	-10.589
خطر	-10.5891
توفي	-10.5911
▁جندي	-10.5912
مسيحيين	-10.5912
رياضيات	-10.5919
▁تأتي	-10.5933
▁الوقود	-10.5934
▁1905	-10.5934
▁الحلفاء	-10.5935
▁1907	-10.5935
▁تسمح	-10.5936
▁العبرية	-10.5937
متوسط	-10.5943
▁الخلية	-10.5948
بروك	-10.5955
▁أسفر	-10.5957
▁1898	-10.5959
▁مؤلفاته	-10.5959
رحيل	-10.596
▁أقيم	-10.596
▁تجعل	-10.5966
▁درا	-10.5967
َعْ	-10.5968
مختلف	-10.5968
▁الجنود	-10.5971
▁سلوك	-10.5975
▁الآيات	-10.5976
قاص	-10.5994
بوليس	-10.5998
▁المنتخب	-10.6008
ber	-10.6012
▁يمتد	-10.602
▁العزم	-10.6026
تتكون	-10.6028
ستغل	-10.6029
▁اسكتلندا	-10.603
إعطاء	-10.603
▁تسجيل	-10.6035
▁مدريد	-10.6035
▁بورصة	-10.6037
▁صيغة	-10.6039
▁شحنة	-10.6039
أوكرانيا	-10.604
عير	-10.6043
▁إلكتروني	-10.6043
▁حضارة	-10.6045
▁1896	-10.6055
▁الآلة	-10.6058
▁للعناصر	-10.6062
▁ويعتقد	-10.6062
▁اعتمد	-10.6062
شتاء	-10.6064
مسائل	-10.6064
سعد	-10.6074
▁والاقتصاد	-10.6077
تكرار	-10.6081
راز	-10.6084
▁فيكتور	-10.6086
▁متصل	-10.609
▁طفل	-10.6092
إيران	-10.6121
عناصر	-10.6126
پ	-10.613
▁مستعمرات	-10.613
صياغة	-10.613
▁دمياط	-10.613
▁ارتباط	-10.613
▁أنطونيو	-10.613
▁قصائد	-10.6131
موسيقى	-10.6131
▁باتجاه	-10.6133
▁الأمثلة	-10.6133
استقبال	-10.6134
▁مقدمة	-10.6135
▁1915	-10.6135
تصدير	-10.6139
▁الشرعي	-10.6141
▁وعدم	-10.6147
▁مسلح	-10.6148
▁شهد	-10.6153
نتر	-10.6161
▁طيار	-10.6167
أرقام	-10.617
▁حلقي	-10.6171
▁منافس	-10.6174
▁ويستخدم	-10.6176
مجال	-10.6181
سقف	-10.6184
Ar	-10.6185
art	-10.6201
أحجار	-10.6214
▁أمراء	-10.6219
دوس	-10.6227
▁السفلى	-10.6231
▁اللفظ	-10.6232
▁الطيور	-10.6233
▁بئر	-10.6233
▁يسوع	-10.6235
▁اعتقال	-10.6237
▁التحويل	-10.6238
فوض	-10.6247
▁1882	-10.6254
بروتين	-10.626
▁الحجاز	-10.6261
ak	-10.6262
▁الثوري	-10.6265
صاص	-10.6269
▁ديل	-10.6275
إسماعيل	-10.6279
▁تستطيع	-10.6279
▁السنوي	-10.6283
100	-10.6294
▁شريف	-10.6304
tic	-10.631
bl	-10.6321
—	-10.6333
▁أساطير	-10.6333
▁الزعتر	-10.6334
▁وتشمل	-10.6334
▁ضعيف	-10.6335
–19	-10.6337
▁2023	-10.634
▁فوائد	-10.6341
▁فترات	-10.6348
جوب	-10.6348
▁الشيء	-10.635
▁المستمر	-10.635
▁جزيئ	-10.6352
خوف	-10.6357
▁الأنهار	-10.6362
▁حقل	-10.6363
ud	-10.6367
شئ	-10.6373
بطولة	-10.6373
▁الخطيب	-10.6375
▁العقيد	-10.6383
▁وجاء	-10.6409
فوز	-10.641
ment	-10.6413
ate	-10.6414
مواطنين	-10.6426
if	-10.643
▁بارز	-10.6434
گ	-10.6436
▁آذار	-10.6436
▁نفوذ	-10.6436
▁الكنيست	-10.6436
▁قصيدة	-10.6437
▁طيران	-10.6437
▁بجانب	-10.6438
كبير	-10.6441
لزم	-10.6441
▁الموجات	-10.6441
▁نمط	-10.6441
أعط	-10.6444
▁الحيوية	-10.6445
▁جمهور	-10.6449
إلقاء	-10.6451
all	-10.6455
رخصة	-10.6457
لتخزين	-10.6458
عتبار	-10.6461
ant	-10.6464
تفرع	-10.647
▁طالبان	-10.6471
▁رياض	-10.6474
▁نجح	-10.6476
▁أعظم	-10.6478
▁مسلسل	-10.6481
ريل	-10.6484
كتمل	-10.6497
ديمير	-10.6526
عضلة	-10.6527
صطلح	-10.6527
مقياس	-10.6532
عتماد	-10.6533
▁الأحزاب	-10.654
▁موسوعة	-10.654
▁يحتاج	-10.6541
▁عشوائي	-10.6541
▁غينيا	-10.6542
▁الاستقرار	-10.6542
تحضير	-10.6542
▁1903	-10.6544
▁التطبيقات	-10.6544
▁فيتنام	-10.6547
▁والعديد	-10.6556
▁صراع	-10.6559
▁حقيقة	-10.656
نطلق	-10.6564
▁الدوران	-10.6566
▁بمصر	-10.6572
إيرل	-10.6573
طبخ	-10.6579
شتمل	-10.6579
حناء	-10.6581
▁جوهر	-10.6584
ندل	-10.6587
▁St	-10.6588
▁إبان	-10.6592
طلاع	-10.6595
▁داود	-10.6596
▁أنشئ	-10.6599
آسيوية	-10.6612
▁عزل	-10.6612
▁كونغ	-10.6635
كوشي	-10.6636
0000	-10.6641
▁والثقافة	-10.6641
▁قتال	-10.6645
▁النبلاء	-10.6646
▁المعاهد	-10.6646
احتجاجات	-10.6646
▁مكتوم	-10.6646
▁بمثاب	-10.6647
▁الوهاب	-10.6647
غذاء	-10.6654
أئمة	-10.6654
-18	-10.666
▁كولوم	-10.6667
▁النجم	-10.6667
مشروع	-10.6673
▁التناظر	-10.6679
فوتون	-10.6687
نقطة	-10.6689
▁السويدي	-10.6696
du	-10.67
-10	-10.6707
مئة	-10.6709
إجراءات	-10.6715
عجز	-10.6725
عقيدة	-10.6726
عمليات	-10.6731
▁عرش	-10.6732
▁ومصر	-10.6734
▁المصفوفة	-10.6752
▁الأساطير	-10.6752
▁بلجيكي	-10.6752
▁ومؤلف	-10.6752
▁أنفسهم	-10.6752
▁أنتونوف	-10.6752
▁الشيطان	-10.6752
▁برلمان	-10.6752
▁قيصر	-10.6754
▁متنوعة	-10.6755
▁أغنية	-10.6756
▁ومؤرخ	-10.6757
أعمدة	-10.6758
▁دراسات	-10.6759
رنر	-10.6761
▁الزجاج	-10.6762
قرض	-10.6763
▁عودته	-10.6763
ستطيع	-10.677
▁تيمور	-10.6779
▁أقسام	-10.6786
عجم	-10.6804
▁ويعرف	-10.6805
▁حسان	-10.6815
نهاية	-10.6823
شمس	-10.6826
ليكس	-10.6827
ضرر	-10.6835
جنس	-10.6838
▁قشتالة	-10.686
▁الاختلاف	-10.686
▁الدنمارك	-10.686
▁الجذور	-10.686
▁الروايات	-10.686
▁الطاهر	-10.686
محاكاة	-10.6861
▁الناطق	-10.6861
▁وغالبا	-10.6862
▁الهوي	-10.6862
مختبر	-10.6864
تمويل	-10.6864
▁مبكر	-10.6865
▁الموجب	-10.6868
▁الدهون	-10.6872
▁لعدة	-10.6873
▁الدائم	-10.6874
▁أخو	-10.6881
▁بوابة	-10.6889
▁أحيانا	-10.6896
▁جنود	-10.6906
▁القائم	-10.6912
▁الألمان	-10.6928
مقارنة	-10.693
▁توفير	-10.6936
www	-10.6968
▁بالكامل	-10.6968
أعراض	-10.6969
▁التوالي	-10.6971
▁الهلال	-10.6972
ang	-10.698
▁سيمون	-10.698
▁بْن	-10.6981
معظم	-10.6983
▁مئات	-10.6983
▁نشيد	-10.6999
▁تشيلي	-10.7003
▁نظريات	-10.7004
▁والدته	-10.7022
ْمَ	-10.7022
▁صخر	-10.7023
▁وتستخدم	-10.7027
أنشطة	-10.7035
تعريف	-10.7036
تلقي	-10.706
▁كافي	-10.7072
ک	-10.7078
▁مكسيكي	-10.7078
▁الظروف	-10.7078
▁إمكانية	-10.7078
▁المعارك	-10.7079
▁الألبان	-10.708
شهداء	-10.708
▁بذور	-10.7081
▁عشيرة	-10.7082
▁ليلى	-10.7084
▁طراز	-10.7085
أفعال	-10.709
▁الفخار	-10.7097
▁للغة	-10.7105
▁سيارة	-10.7108
تنقل	-10.7115
إقليم	-10.7121
▁شيئا	-10.713
ْتُ	-10.7132
▁الخلفي	-10.7135
عراب	-10.7137
▁سلف	-10.7154
سقوط	-10.7162
قدّم	-10.7168
أحياناً	-10.7188
▁موريتانيا	-10.7189
▁إغريق	-10.7189
▁الثقيل	-10.719
▁هاشم	-10.7191
موافقة	-10.7191
▁بقايا	-10.7191
فخر	-10.7192
0.000	-10.7193
استهلاك	-10.7193
▁تورنغ	-10.7194
▁الأرز	-10.7194
مجزرة	-10.7195
▁عُرف	-10.7196
▁تجارة	-10.7197
توقيت	-10.7206
▁1881	-10.7212
▁موجة	-10.7213
▁رابع	-10.7213
▁1894	-10.722
▁أفريقي	-10.723
-16	-10.7236
لجأ	-10.7238
▁مهام	-10.7239
▁وكما	-10.7244
▁للاست	-10.7245
▁بحريني	-10.7274
man	-10.7286
▁غريب	-10.73
نيتروجين	-10.7302
ü	-10.7302
▁برتغالي	-10.7302
▁أحيانًا	-10.7302
إنكليزي	-10.7302
▁تحطم	-10.7302
▁نيجيري	-10.7303
▁الحارث	-10.7303
▁مانويل	-10.7303
▁الطراز	-10.7306
▁البارز	-10.7312
▁السفلي	-10.7312
▁الشخصيات	-10.7318
حجارة	-10.7323
▁الرأي	-10.7326
نسج	-10.7328
ov	-10.7357
عائلة	-10.7371
كترون	-10.7375
تحرر	-10.7379
ديوان	-10.7384
تركز	-10.7396
▁توليد	-10.7396
تغلب	-10.7405
▁الأفغاني	-10.7415
▁فلسفة	-10.7415
▁مستعمرة	-10.7415
▁سواحل	-10.7416
أزهار	-10.7416
▁الأهرام	-10.7416
▁المرتبطة	-10.7416
▁السوداء	-10.7417
▁السادات	-10.7417
▁ساعات	-10.7418
تكاثر	-10.742
▁دارفور	-10.7423
▁الجيولوجي	-10.7425
لتشكيل	-10.7425
▁الحريري	-10.7427
▁الدجاج	-10.7428
إنهاء	-10.7428
▁أيلول	-10.7431
▁تغطي	-10.7434
▁الهامة	-10.7435
مقابر	-10.7439
▁البحار	-10.7447
▁النطاق	-10.745
▁1899	-10.7453
res	-10.7462
سلالات	-10.7466
قتصر	-10.7468
▁فيكتوريا	-10.7468
تنتهي	-10.7469
لوصول	-10.7471
▁يدعو	-10.7482
ميتر	-10.749
▁محاكم	-10.7494
▁وثم	-10.7497
▁حداد	-10.7501
▁مؤدي	-10.7505
سوء	-10.7509
▁800	-10.7516
▁البروتونات	-10.753
▁جوائز	-10.753
▁كولومبيا	-10.753
▁العوامل	-10.7531
▁عائلته	-10.7531
▁عادل	-10.7532
▁المتعددة	-10.7533
▁سيناء	-10.7533
▁مدفون	-10.7534
▁بشدة	-10.7536
▁طلال	-10.7538
▁الكحول	-10.754
▁الجليد	-10.7542
توصل	-10.755
الشيخ	-10.7551
منظمة	-10.7557
▁شامل	-10.7562
▁ميدان	-10.7564
▁لمجلس	-10.7566
▁أثار	-10.7567
▁An	-10.7568
▁الأصول	-10.757
▁الطبقة	-10.7574
مسيرة	-10.7575
معركة	-10.7598
علاقة	-10.7599
أشجار	-10.7599
ترتيبها	-10.7606
مرمى	-10.7619
▁ساد	-10.764
قسنطينة	-10.7646
▁يرتبط	-10.7647
ثقافات	-10.7647
▁أسبوع	-10.7647
▁والثلاثون	-10.7647
مواصفات	-10.7647
إسقاط	-10.7648
▁مقعد	-10.7648
▁ألفريد	-10.7657
▁المكونة	-10.766
▁البيوت	-10.7667
قترب	-10.7676
سينما	-10.7684
▁سعر	-10.7691
▁أقوى	-10.7692
▁الإنجليز	-10.7695
تجنب	-10.7695
▁رجب	-10.7697
▁إرهابي	-10.7715
700	-10.772
ديمقراطية	-10.7739
خاطر	-10.7741
دائرة	-10.7744
2022	-10.7752
▁أوكراني	-10.7756
style	-10.7764
▁الصاروخ	-10.7764
مفاوضات	-10.7764
▁اللاحقة	-10.7764
▁تخزين	-10.7764
▁وروائي	-10.7772
▁الموجية	-10.7775
ألقاب	-10.778
أقوال	-10.7783
▁ناتج	-10.7786
لحركة	-10.779
أمير	-10.7793
▁إِل	-10.7794
أهمية	-10.7795
ستغرق	-10.7801
فشل	-10.7813
▁الدولار	-10.7816
▁أدبي	-10.7816
bo	-10.782
لاجئ	-10.7827
حقبة	-10.7835
اجتماع	-10.7839
ساكي	-10.7856
رابطة	-10.7861
تشارك	-10.7879
▁أندرو	-10.7881
▁إشبيلية	-10.7883
▁اتخاذ	-10.7883
▁الأبحاث	-10.7883
تفاصيل	-10.7883
▁المزدوج	-10.7883
▁المفتوح	-10.7883
▁تقنيات	-10.7883
▁انحلال	-10.7883
▁الشريعة	-10.7884
▁اختلف	-10.7884
up	-10.7884
▁الفرعون	-10.7884
▁فائق	-10.7886
إشراف	-10.7886
▁طلاب	-10.7887
ـــ	-10.7892
▁جملة	-10.7894
▁إيجاد	-10.7895
▁الرشيد	-10.7897
▁مستقيم	-10.7898
بداية	-10.7899
▁بولندي	-10.7901
▁إنجاز	-10.7906
▁قاعة	-10.7907
حشرات	-10.7926
▁العاص	-10.7927
▁قبول	-10.794
رقيق	-10.7962
رحب	-10.7967
تحليل	-10.7987
مركبات	-10.7992
8%	-10.7993
→	-10.8004
−	-10.8004
▁سويسرا	-10.8004
▁فرديناند	-10.8004
▁رسائل	-10.8004
▁مفتاح	-10.8004
▁تورينو	-10.8005
▁يشمل	-10.8005
▁صاروخ	-10.8005
▁الطلاب	-10.8007
▁سميث	-10.8017
▁بدقة	-10.8021
إبادة	-10.8024
▁ناجي	-10.8039
شراء	-10.804
عيّن	-10.8067
▁زكي	-10.8075
نزع	-10.8091
مشهد	-10.8093
معادلة	-10.8096
أعداد	-10.8102
▁خصوصا	-10.8105
▁Ch	-10.8105
▁الجماعي	-10.8109
▁Al	-10.8112
▁بالقاهرة	-10.8126
▁روزفلت	-10.8126
▁الفيدرالي	-10.8126
▁أحزاب	-10.8126
▁مكتوب	-10.8126
▁الصومال	-10.8126
▁الألوان	-10.8127
▁أعلاه	-10.8127
▁الرحلة	-10.8127
▁تدريس	-10.8127
▁طالع	-10.8128
▁النيجر	-10.813
▁وجرح	-10.8131
▁يتضمن	-10.8136
▁أمتار	-10.814
استعادة	-10.8147
▁حلقة	-10.815
حاط	-10.8151
▁ونظرا	-10.8181
▁الفقه	-10.8197
لتدريس	-10.8218
عجب	-10.823
ו	-10.8249
▁الأناضول	-10.8249
▁الذاكرة	-10.8249
▁ابتداء	-10.8249
▁الفاطمي	-10.8249
▁الأجزاء	-10.8249
أشعار	-10.825
▁تمامًا	-10.825
مكافحة	-10.825
خسائر	-10.8252
▁بدورها	-10.8254
▁كالتالي	-10.8254
▁ليمون	-10.8266
▁1897	-10.8282
أنثى	-10.829
▁مرتبط	-10.8293
منتشرة	-10.8296
ُعرف	-10.8308
▁الإيراني	-10.8323
مجرى	-10.8333
▁ريفي	-10.8347
توضع	-10.8349
▁اضطر	-10.8352
▁صربيا	-10.8374
انحراف	-10.8376
▁القصص	-10.8376
▁فرانسيسكو	-10.8376
▁الشحنات	-10.8377
▁النمط	-10.8378
▁أسرته	-10.8379
▁المؤقت	-10.838
▁السيارة	-10.8381
▁إميل	-10.8381
كأس	-10.8382
▁البيئي	-10.8382
▁استحداث	-10.8383
▁جسد	-10.8387
▁إشعاع	-10.8394
▁النظريات	-10.84
خزن	-10.8404
ختصر	-10.8405
▁فيديو	-10.841
تحريك	-10.8427
▁سراح	-10.8427
محمود	-10.8429
▁الكندي	-10.8429
▁المرتب	-10.8458
لتحرير	-10.8491
▁أنتوني	-10.8494
صام	-10.8496
▁ذاك	-10.8498
مساجد	-10.8499
ä	-10.8501
▁ملحوظ	-10.8501
▁التلفزيون	-10.8501
▁تلفزيون	-10.8501
▁دنماركي	-10.8501
▁أبحاث	-10.8501
▁غليزان	-10.8501
▁إرنست	-10.8501
▁للميلاد	-10.8501
▁الشورى	-10.8502
▁بدايات	-10.8502
▁وبلدات	-10.8503
▁للطاقة	-10.8504
▁أكسيد	-10.8504
▁الذكور	-10.8505
▁فيزيائي	-10.8512
مقدار	-10.8513
أنواع	-10.8536
▁الفحم	-10.8547
قبيلة	-10.8554
سوى	-10.8564
يوضع	-10.8608
كتشاف	-10.8614
مسؤول	-10.8614
J	-10.8629
ھ	-10.8629
▁تضاريس	-10.8629
▁محفوظ	-10.8629
▁سينمائي	-10.8629
▁فنلندا	-10.8629
▁اقتراح	-10.863
▁يوقع	-10.863
رائحة	-10.863
▁الموساد	-10.8631
باحثون	-10.8631
ío	-10.8631
▁محاولات	-10.8631
gra	-10.8632
▁الوسيط	-10.8632
▁معتدل	-10.8632
مفعول	-10.8635
▁الصليبيين	-10.8635
▁مستكشف	-10.8637
▁الصخور	-10.8638
▁القناة	-10.8639
حوسبة	-10.8639
▁انتهى	-10.864
▁وكذا	-10.8645
▁صمم	-10.8646
▁1876	-10.8656
صحراء	-10.866
درجات	-10.8664
▁روك	-10.8672
▁الكلاسيكي	-10.8701
▁غري	-10.8711
إصدار	-10.8752
&	-10.8759
▁المخابرات	-10.8759
▁بونابرت	-10.8759
▁ساكسونيا	-10.8759
▁مصفوفة	-10.8759
▁الصحراوي	-10.8759
▁كلاسيكي	-10.8759
▁ويندوز	-10.8759
▁مشاكل	-10.8759
▁تيودور	-10.8759
▁الآشوري	-10.876
▁الواضح	-10.876
▁الأيوبي	-10.8761
2%	-10.8761
مهاجرون	-10.8761
ختلط	-10.8761
فنادق	-10.8762
▁السماوية	-10.8762
▁الاعتبار	-10.8763
مطبوع	-10.8764
▁لينكس	-10.8764
زعيم	-10.8771
تزامن	-10.8772
محطة	-10.8773
▁وهران	-10.8775
مستشار	-10.8777
تسخين	-10.8782
▁تركيز	-10.8796
▁غرين	-10.8814
حمص	-10.8863
▁الشامل	-10.8872
شتاين	-10.888
شبكة	-10.889
‍	-10.889
▁الطوائف	-10.889
▁غرناطة	-10.889
▁الموسوعة	-10.889
▁البحيرات	-10.889
▁إخراج	-10.889
▁إعداد	-10.889
مقاييس	-10.8891
▁تدريجي	-10.8891
بطريرك	-10.8891
▁شعوب	-10.8891
▁طاهر	-10.8891
تعويض	-10.8892
▁المحمول	-10.8892
▁يمنع	-10.8894
▁وخمس	-10.8898
▁جاو	-10.8898
تماثيل	-10.8898
▁الدوحة	-10.89
تعليق	-10.8903
شركات	-10.8905
تأمل	-10.8914
▁تشيكي	-10.8917
▁استقرار	-10.8922
▁زكريا	-10.8923
▁بيرس	-10.8927
▁الآسيوي	-10.8933
▁الحلقي	-10.8936
نبأ	-10.8943
▁ولعل	-10.8946
▁السلوك	-10.895
ver	-10.8951
تعدي	-10.8957
هرتز	-10.8983
خوارزمية	-10.9024
▁القسطنطينية	-10.9024
▁الكمبيوتر	-10.9024
▁الوظيفي	-10.9024
▁درويش	-10.9024
تصاوغ	-10.9024
▁متكامل	-10.9024
▁الارتباط	-10.9024
هالوجين	-10.9024
▁التمثيل	-10.9024
▁باسكال	-10.9024
▁وسوريا	-10.9025
▁تساهم	-10.9026
مخصصة	-10.9026
لقيام	-10.9027
▁وأيضاً	-10.9028
تجسس	-10.903
▁الآلات	-10.903
استيطان	-10.9032
تماكب	-10.9033
أجمل	-10.9034
▁مناصب	-10.9038
▁المتحركة	-10.9041
خبز	-10.9049
أكاديمية	-10.9083
▁إفريقي	-10.9084
act	-10.9098
إقرار	-10.9123
▁القرطاجي	-10.9159
▁والفرنسية	-10.9159
▁غرداية	-10.9159
ذبذب	-10.9159
▁والثقافي	-10.9159
▁فيلهلم	-10.9159
▁كاسترو	-10.916
▁التربية	-10.9161
▁الرصاص	-10.9165
▁الصفحة	-10.9171
▁مميزة	-10.9174
▁العودة	-10.9179
ُونَ	-10.9184
▁غلاف	-10.9186
▁صوفي	-10.9194
محاكمة	-10.9204
▁المواطن	-10.921
ماتسو	-10.9284
▁غوستاف	-10.9296
▁وفيلسوف	-10.9296
▁الصغرى	-10.9296
▁الفلزات	-10.9296
▁الجيوش	-10.9297
▁روايات	-10.9298
▁الفخرية	-10.9298
▁وبناء	-10.9299
▁ذاكرة	-10.9299
▁الأفيون	-10.9299
إحياء	-10.93
▁التربة	-10.9301
▁هنالك	-10.9301
▁الآلاف	-10.9302
▁البابلي	-10.9304
ata	-10.9311
قوانين	-10.9316
▁ونشر	-10.9324
▁بصفته	-10.9325
تحتوي	-10.9331
▁والسياسي	-10.9349
مقبرة	-10.9352
▁بلانك	-10.938
فقهاء	-10.9383
▁فرانسيس	-10.9432
▁ويكيبيديا	-10.9435
▁التأسيس	-10.9435
▁ريختر	-10.9435
▁ويحتوي	-10.9435
▁الكنعاني	-10.9435
تأكد	-10.9435
▁البرونزي	-10.9435
▁مصنوع	-10.9435
▁السنديان	-10.9435
▁اليونسكو	-10.9435
▁والاجتماعية	-10.9435
▁الرحيم	-10.9435
▁المعابد	-10.9435
▁ميشيل	-10.9435
▁المراكز	-10.9436
▁يعادل	-10.9436
▁الشارقة	-10.9436
▁للجيش	-10.9436
▁القيصر	-10.9436
▁ناروتو	-10.9437
▁ناطق	-10.9437
▁الجيزة	-10.9438
أضرار	-10.944
▁ضريح	-10.944
▁فراغ	-10.9442
▁ضباط	-10.9442
أنماط	-10.9443
▁خليط	-10.9444
▁الجهاد	-10.9448
برنامج	-10.9454
البرتغال	-10.9456
صاعد	-10.9462
▁رباعي	-10.9473
جهز	-10.948
6%	-10.9483
وراثة	-10.9489
السكك	-10.9533
لظهور	-10.9543
ev	-10.9575
color	-10.9575
▁ISBN	-10.9575
▁ينبغي	-10.9576
▁والخمسون	-10.9576
صعوبة	-10.9576
▁العظام	-10.9576
▁بالسجن	-10.9576
▁فنلندي	-10.9576
▁الفلسفي	-10.9577
▁الاكتشاف	-10.9579
▁ضفاف	-10.958
▁القاضي	-10.9581
▁محمية	-10.9584
▁الهوائي	-10.9587
لائم	-10.9588
تطوع	-10.96
مهندس	-10.96
خصائص	-10.9601
▁الحبيب	-10.9602
ألعاب	-10.9602
▁النجف	-10.9612
تبريد	-10.9644
منتزه	-10.9675
مجلة	-10.9676
▁جاي	-10.9678
مزيج	-10.9695
▁الانفجار	-10.9718
▁الهيدروكربونات	-10.9718
▁برشلونة	-10.9718
استكشاف	-10.9718
▁أثينا	-10.9719
▁وخصوصا	-10.9719
▁النقاط	-10.9719
▁التجريبي	-10.9719
▁كبرى	-10.9721
▁فأصبح	-10.9725
▁المستقلة	-10.9726
▁الشاي	-10.9733
▁كهربي	-10.9739
▁كرواتي	-10.9743
الثروة	-10.9747
مؤتمر	-10.975
مغامر	-10.9764
ستفاد	-10.9787
قناع	-10.9792
▁كربلاء	-10.9863
▁وألمانيا	-10.9863
▁الكونغرس	-10.9863
▁حضرموت	-10.9863
▁رونالد	-10.9863
لحفاظ	-10.9864
▁لبناء	-10.9864
▁التكنولوجي	-10.9864
▁القهوة	-10.9864
▁الحلقات	-10.9865
▁الزيوت	-10.9866
▁السلالة	-10.9867
▁معدنية	-10.9867
▁الفاتح	-10.9871
▁مصمم	-10.9873
▁سقطت	-10.9874
▁الجرماني	-10.9874
العادات	-10.9875
أولئك	-10.9875
▁ويتكون	-10.9878
▁كيوتو	-10.9879
هيمنة	-10.9886
تصوف	-10.989
▁البهائي	-10.9892
كثافة	-10.9902
مواليد	-10.9906
▁العصا	-10.9921
لأكثر	-10.9921
عبارة	-10.9927
▁الصحفي	-10.993
موشح	-10.993
י	-11.001
▁إثيوبيا	-11.001
▁الشاذلي	-11.001
▁المفاتيح	-11.001
▁زنجبار	-11.001
▁مغترب	-11.001
▁الصوديوم	-11.001
▁استفتاء	-11.001
▁مِنْ	-11.0011
▁كلثوم	-11.0011
▁نيكسون	-11.0011
▁الرسائل	-11.0011
▁وقاضي	-11.0011
تثبيت	-11.0012
▁رفيق	-11.0012
أجنحة	-11.0013
▁مذيع	-11.0014
مساواة	-11.0016
▁أوفيس	-11.0016
▁أبطال	-11.0018
▁الرسالة	-11.0019
تزامر	-11.0022
4%	-11.0025
شتغل	-11.0028
مساكن	-11.0038
▁سرعا	-11.0044
إسبانيا	-11.005
ترشح	-11.005
أصحاب	-11.0054
اللغات	-11.0069
▁الانتخاب	-11.0074
1%	-11.0126
نهض	-11.0136
مفردات	-11.0159
▁التصويت	-11.016
▁ستيوارت	-11.016
▁سكيكدة	-11.016
▁لشبونة	-11.016
▁الاهتمام	-11.016
▁انعقاد	-11.016
مغادرة	-11.016
▁التقنيات	-11.016
▁المشاكل	-11.016
▁بمساعدة	-11.016
▁الطقس	-11.016
▁الليزر	-11.0161
▁يوافق	-11.0161
▁ماكسويل	-11.0161
▁تشهد	-11.0161
▁ناجح	-11.0162
▁وُلد	-11.0162
▁يحدها	-11.0163
▁نوكيا	-11.0163
▁الأسلوب	-11.0164
▁واللغة	-11.0164
▁العرقي	-11.0166
طاحة	-11.017
تفاوت	-11.017
▁براءة	-11.0174
▁الحلقة	-11.0175
▁لكونه	-11.0175
تراكم	-11.0233
مناهض	-11.0239
َةُ	-11.0241
▁جماعي	-11.0263
لجمهورية	-11.0286
background	-11.0311
Univers	-11.0311
▁الاصطناعي	-11.0311
▁بطليموس	-11.0311
▁لتطوير	-11.0311
▁تشيكوسلوفاكي	-11.0311
▁فرانكفورت	-11.0311
▁كليفلاند	-11.0311
▁تتويج	-11.0311
إظهار	-11.0311
▁دبلن	-11.0311
▁برنارد	-11.0311
تغذية	-11.0312
▁موانئ	-11.0312
·	-11.0465
?	-11.0621
ڤ	-11.078
ə	-11.2335
α	-11.2523
[	-11.3475
á	-11.3737
א	-11.3737
ö	-11.3737
ı	-11.3954
ε	-11.4177
ר	-11.4177
Z	-11.4613
ο	-11.4636
ש	-11.4636
í	-11.5114
<	-11.5624
ν	-11.5625
ה	-11.5888
ë	-11.5888
ς	-11.7016
σ	-11.7016
ל	-11.7016
$	-11.7016
ó	-11.7319
è	-11.7319
μ	-11.7631
δ	-11.7954
λ	-11.7954
ō	-11.7954
ת	-11.7954
大	-11.8287
ٰ	-11.8632
{	-11.8728
⁬	-11.8989
’	-11.8989
מ	-11.936
市	-11.936
π	-11.936
ρ	-11.9744
ב	-11.9744
ι	-12.0144
Δ	-12.0144
à	-12.0144
^	-12.0561
田	-12.0561
﴾	-12.0561
天	-12.0561
~	-12.0561
к	-12.0996
о	-12.0996
ע	-12.0996
信	-12.0996
区	-12.0996
﴿	-12.0996
а	-12.0996
ā	-12.145
の	-12.145
ū	-12.1926
神	-12.1926
τ	-12.2426
ร	-12.2426
′	-12.2426
ⴰ	-12.2426
κ	-12.2953
±	-12.2953
е	-12.2953
ן	-12.2953
道	-12.2953
چ	-12.2953
ד	-12.3508
ñ	-12.3508
ú	-12.3508
ʾ	-12.3508
Ω	-12.3508
川	-12.3508
長	-12.3508
β	-12.4097
и	-12.4097
η	-12.4097
١	-12.4097
代	-12.4097
ⵜ	-12.4097
θ	-12.4722
ٱ	-12.4722
٠	-12.4722
時	-12.4722
武	-12.4722
《	-12.5388
р	-12.5388
ק	-12.5388
٬	-12.5388
ş	-12.5388
פ	-12.5388
צ	-12.6102
東	-12.6103
γ	-12.6103
า	-12.6103
←	-12.6103
》	-12.6103
平	-12.6103
徳	-12.6103
ם	-12.6103
в	-12.6872
ח	-12.6872
Σ	-12.6872
ζ	-12.6872
国	-12.6872
寺	-12.6872
ג	-12.6872
ό	-12.6872
本	-12.6872
כ	-12.6872
น	-12.7705
宮	-12.7705
ß	-12.7705
ç	-12.7705
ł	-12.7705
ิ	-12.7705
≤	-12.7705
日	-12.7705
д	-12.8614
ω	-12.8614
原	-12.8614
家	-12.8614
朝	-12.8614
藤	-12.8614
ę	-12.8614
ī	-12.8614
ί	-12.8614
ڨ	-12.8614
∞	-12.8614
和	-12.8614
山	-12.8614
康	-12.8614
織	-12.8614
河	-12.8614
ⵉ	-12.8614
源	-12.8614
ม	-12.8614
ì	-12.8614
́	-12.9614
ά	-12.9614
∘	-12.9614
ט	-12.9614
‘	-12.9614
利	-12.9614
Ü	-12.9614
ː	-12.9614
у	-12.9614
٨	-12.9614
⟶	-13.0725
月	-13.0725
義	-13.0725
É	-13.0725
÷	-13.0725
٢	-13.0725
ᄋ	-13.0725
ⵏ	-13.0725
氏	-13.0725
子	-13.0725
足	-13.0725
ą	-13.0725
名	-13.1975
ô	-13.1975
ٲ	-13.1975
â	-13.1975
ַ	-13.1975
ก	-13.1975
≈	-13.1975
中	-13.1975
人	-13.1975
仁	-13.1975
ɣ	-13.1975
ܐ	-13.1975
ܢ	-13.1975
戦	-13.1975
л	-13.1975
南	-13.1975
吉	-13.1975
安	-13.1975
С	-13.1975
ܡ	-13.1975
物	-13.1975
ò	-13.1975
ǎ	-13.1975
พ	-13.1975
ุ	-13.3404
ְ	-13.3404
新	-13.3404
書	-13.3404
江	-13.3404
õ	-13.3404
ě	-13.3404
ь	-13.3404
٤	-13.3404
≠	-13.3404
ー	-13.3404
區	-13.3404
社	-13.3404
秀	-13.3404
花	-13.3404
西	-13.3404
豊	-13.3404
٩	-13.3404
ท	-13.3404
文	-13.3404
白	-13.3404
་	-13.507
ா	-13.507
ˈ	-13.5071
й	-13.5071
ڠ	-13.5071
タ	-13.5071
政	-13.5071
治	-13.5071
ύ	-13.5071
ั	-13.5071
์	-13.5071
√	-13.5071
将	-13.5071
戸	-13.5071
玄	-13.5071
軍	-13.5071
関	-13.5071
頼	-13.5071
館	-13.5071
ê	-13.5071
č	-13.5071
ܘ	-13.5071
上	-13.5071
光	-13.5071
北	-13.5071
島	-13.5071
ต	-13.5071
古	-13.5071
ۡ	-13.707
υ	-13.707
風	-13.707
ர	-13.707
і	-13.707
ָ	-13.707
し	-13.707
ん	-13.707
æ	-13.707
行	-13.707
京	-13.7071
明	-13.7071
Æ	-13.7071
ψ	-13.7071
ס	-13.7071
٣	-13.7071
க	-13.7071
ᄅ	-13.7071
⟩	-13.7071
ⵎ	-13.7071
久	-13.7071
州	-13.7071
杉	-13.7071
鳥	-13.7071
ܟ	-13.7071
ē	-13.7071
ส	-13.7071
ⵙ	-13.7071
ⵡ	-13.7071
ܕ	-13.7071
木	-13.7071
清	-13.7071
野	-13.7071
٥	-13.7071
ܬ	-13.7071
เ	-13.7071
ⵍ	-13.7071
定	-13.7071
海	-13.7071
語	-13.7071
อ	-13.7071
@	-13.957
ธ	-13.957
ナ	-13.957
έ	-13.957
ή	-13.957
்	-13.957
ง	-13.957
ⲡ	-13.957
カ	-13.957
草	-13.957
た	-13.957
ܪ	-13.9571
摂	-13.9571
生	-13.9571
š	-13.9571
ż	-13.9571
Φ	-13.9571
ώ	-13.9571
ч	-13.9571
ہ	-13.9571
ܝ	-13.9571
ย	-13.9571
ῶ	-13.9571
›	-13.9571
≥	-13.9571
ⵔ	-13.9571
り	-13.9571
イ	-13.9571
シ	-13.9571
东	-13.9571
事	-13.9571
参	-13.9571
圓	-13.9571
城	-13.9571
士	-13.9571
夫	-13.9571
応	-13.9571
摩	-13.9571
桜	-13.9571
満	-13.9571
盛	-13.9571
紫	-13.9571
茶	-13.9571
謙	-13.9571
어	-13.9571
法	-13.9571
町	-13.9571
省	-13.9571
礼	-13.9571
Α	-13.9571
٦	-13.9571
ܚ	-13.9571
ⲁ	-13.9571
万	-13.9571
阪	-13.9571
ܫ	-13.9571
下	-13.9571
薩	-13.9571
φ	-13.9571
ว	-13.9571
後	-13.9571
`	-13.9571
ད	-14.2903
ช	-14.2904
ù	-14.2904
か	-14.2904
八	-14.2904
那	-14.2904
î	-14.2904
ะ	-14.2904
ン	-14.2904
・	-14.2904
特	-14.2904
Ö	-14.2904
ژ	-14.2904
七	-14.2904
五	-14.2904
式	-14.2904
水	-14.2904
	-14.2904
Å	-14.2904
ğ	-14.2904
ŋ	-14.2904
ž	-14.2904
ɛ	-14.2904
Γ	-14.2904
Є	-14.2904
ֵ	-14.2904
ׁ	-14.2904
ז	-14.2904
٭	-14.2904
۔	-14.2904
ە	-14.2904
ܠ	-14.2904
ு	-14.2904
ณ	-14.2904
ᄀ	-14.2904
ᄂ	-14.2904
‡	-14.2904
ⴳ	-14.2904
ⴷ	-14.2904
ⵖ	-14.2904
い	-14.2904
ウ	-14.2904
ジ	-14.2904
ブ	-14.2904
ロ	-14.2904
侍	-14.2904
保	-14.2904
元	-14.2904
县	-14.2904
夷	-14.2904
孔	-14.2904
孝	-14.2904
尾	-14.2904
广	-14.2904
方	-14.2904
族	-14.2904
昭	-14.2904
条	-14.2904
林	-14.2904
洋	-14.2904
湯	-14.2904
禅	-14.2904
稲	-14.2904
紀	-14.2904
紅	-14.2904
縣	-14.2904
見	-14.2904
記	-14.2904
通	-14.2904
部	-14.2904
隆	-14.2904
鲁	-14.2904
ि	-14.2904
⊆	-14.2904
ア	-14.2904
飛	-14.2904
ŏ	-14.2904
ś	-14.2904
≡	-14.2904
ⴻ	-14.2904
ⵓ	-14.2904
ⵣ	-14.2904
ニ	-14.2904
地	-14.2904
한	-14.2904
ї	-14.2904
革	-14.2904
ེ	-14.7903
ྲ	-14.7903
ี	-14.7903
འ	-14.7903
ས	-14.7903
ི	-14.7903
མ	-14.7904
ལ	-14.7904
ப	-14.7904
私	-14.7904
ֶ	-14.7904
ந	-14.7904
ⲓ	-14.7904
ⲟ	-14.7904
幡	-14.7904
ɾ	-14.7904
Ḥ	-14.7904
ⲩ	-14.7904
梅	-14.7904
民	-14.7904
門	-14.7904
자	-14.7904
ڈ	-14.7904
君	-14.7904
岡	-14.7904
所	-14.7904
景	-14.7904
王	-14.7904
間	-14.7904
¡	-14.7904
Ñ	-14.7904
ð	-14.7904
ý	-14.7904
İ	-14.7904
ƒ	-14.7904
ǔ	-14.7904
ʒ	-14.7904
ʤ	-14.7904
ʿ	-14.7904
͡	-14.7904
Ν	-14.7904
Υ	-14.7904
ξ	-14.7904
К	-14.7904
Ц	-14.7904
ш	-14.7904
щ	-14.7904
я	-14.7904
ѕ	-14.7904
ך	-14.7904
ף	-14.7904
ץ	-14.7904
٧	-14.7904
٫	-14.7904
ێ	-14.7904
ۗ	-14.7904
ۢ	-14.7904
ܣ	-14.7904
ܤ	-14.7904
গ	-14.7904
த	-14.7904
ி	-14.7904
ค	-14.7904
ด	-14.7904
ภ	-14.7904
ᄑ	-14.7904
ᅡ	-14.7904
ር	-14.7904
ሷ	-14.7904
ṭ	-14.7904
ệ	-14.7904
ὰ	-14.7904
ῆ	-14.7904
ῷ	-14.7904
⁩	-14.7904
↔	-14.7904
ⲛ	-14.7904
ⲥ	-14.7904
ⲫ	-14.7904
ⴱ	-14.7904
え	-14.7904
く	-14.7904
に	-14.7904
び	-14.7904
れ	-14.7904
ト	-14.7904
ド	-14.7904
ヌ	-14.7904
ム	-14.7904
ョ	-14.7904
ラ	-14.7904
リ	-14.7904
ヶ	-14.7904
丸	-14.7904
二	-14.7904
伊	-14.7904
允	-14.7904
分	-14.7904
室	-14.7904
尊	-14.7904
崇	-14.7904
崎	-14.7904
幕	-14.7904
府	-14.7904
忠	-14.7904
慶	-14.7904
手	-14.7904
拜	-14.7904
撒	-14.7904
智	-14.7904
洪	-14.7904
洲	-14.7904
淮	-14.7904
澤	-14.7904
睦	-14.7904
空	-14.7904
紙	-14.7904
羽	-14.7904
能	-14.7904
苏	-14.7904
蔘	-14.7904
術	-14.7904
街	-14.7904
衣	-14.7904
袋	-14.7904
谷	-14.7904
越	-14.7904
郷	-14.7904
都	-14.7904
重	-14.7904
開	-14.7904
陵	-14.7904
集	-14.7904
야	-14.7904
𐤇	-14.7904
𐩩	-14.7904
ᅣ	-14.7904
世	-14.7904
女	-14.7904
改	-14.7904
金	-14.7904
阳	-14.7904
鹿	-14.7904
아	-14.7904
ܥ	-14.7904
ⴼ	-14.7904
ⵊ	-14.7904
げ	-14.7904
コ	-14.7904
ス	-14.7904
プ	-14.7904
兵	-14.7904
化	-14.7904
少	-14.7904
征	-14.7904
泉	-14.7904
淡	-14.7904
真	-14.7904
葉	-14.7904
井	-14.7904
Χ	-14.7904
ۈ	-14.7904
ग	-14.7904
ा	-14.7904
と	-14.7904
千	-14.7904
𐩳	-15.7772
𐩧	-15.7773
𐩣	-15.7774
𐩢	-15.7775
𐀮	-15.7776
𐀡	-15.7777
𐀆	-15.7778
외	-15.7779
래	-15.778
간	-15.7781
默	-15.7782
魏	-15.7783
鎌	-15.7784
辽	-15.7785
辖	-15.7786
荷	-15.7787
自	-15.7788
肥	-15.7789
線	-15.779
福	-15.7791
相	-15.7792
直	-15.7793
甚	-15.7794
漢	-15.7795
湾	-15.7796
深	-15.7797
沈	-15.7798
汉	-15.7799
更	-15.78
撲	-15.7801
弥	-15.7802
库	-15.7803
広	-15.7804
幹	-15.7805
屋	-15.7806
居	-15.7807
姑	-15.7808
太	-15.7809
圳	-15.781
四	-15.7811
哇	-15.7812
台	-15.7813
剣	-15.7814
别	-15.7815
円	-15.7816
僕	-15.7817
倉	-15.7818
仮	-15.7819
ャ	-15.782
ク	-15.7821
わ	-15.7822
ⲙ	-15.7823
₭	-15.7824
⁧	-15.7825
ἀ	-15.7826
ạ	-15.7827
አ	-15.7828
ᄆ	-15.7829
ᄃ	-15.783
ถ	-15.7831
ய	-15.7832
ઠ	-15.7833
ܩ	-15.7834
ܙ	-15.7835
ܗ	-15.7836
ܓ	-15.7837
۝	-15.7838
ٔ	-15.7839
Я	-15.784
Ю	-15.7841
Х	-15.7842
У	-15.7843
П	-15.7844
Г	-15.7845
В	-15.7846
Б	-15.7847
Τ	-15.7848
Λ	-15.7849
Θ	-15.785
Ζ	-15.7851
Ε	-15.7852
Β	-15.7853
Ά	-15.7854
̆	-15.7855
ń	-15.7856
Ĝ	-15.7857
Đ	-15.7858
Č	-15.7859
閣	-15.786
銀	-15.7861
良	-15.7862
筛	-15.7863
奈	-15.7864
合	-15.7865
ⵢ	-15.7866
በ	-15.7867
ᄇ	-15.7868
ܒ	-15.7869
Ф	-15.787
Р	-15.7871
Н	-15.7872
Κ	-15.7873
û	-15.7874
‹	-15.7875
ֹ	-15.7876
п	-15.7877
Ж	-15.7878
ő	-15.7879
ï	-15.788
⟨	-15.7881
ห	-15.7882
м	-15.7883
М	-15.7884
̄	-15.7885
§	-15.7886
£	-15.7887
	-15.7888
臣	-15.7889
照	-15.789
т	-15.7891
Ç	-15.7892
ḍ	-15.7893
Π	-15.7894
ٳ	-15.7895
А	-15.7896
ִ	-15.7897
с	-15.7898
ּ	-15.7899
皇	-15.79
н	-15.7901
Ş	-15.7902
ཕ	-15.7903
ཟ	-15.7903
ར	-15.7903
ོ	-15.7903
⁄	-15.7903
บ	-15.7903
ག	-15.7903
ན	-15.7903
ֲ	-15.7904
ײ	-15.7904
ட	-15.7904
ண	-15.7904
ἰ	-15.7904
片	-15.7904
ɑ	-15.7904
ூ	-15.7904
ป	-15.7904
ὕ	-15.7904
ガ	-15.7904
共	-15.7904
出	-15.7904
华	-15.7904
怀	-15.7904
攻	-15.7904
未	-15.7904
来	-15.7904
楷	-15.7904
鶴	-15.7904
대	-15.7904
표	-15.7904
Á	-15.7904
å	-15.7904
फ	-15.7904
ẓ	-15.7904
ụ	-15.7904
ἤ	-15.7904
⁪	-15.7904
€	-15.7904
∂	-15.7904
ⴽ	-15.7904
于	-15.7904
回	-15.7904
形	-15.7904
得	-15.7904
成	-15.7904
曜	-15.7904
桶	-15.7904
梧	-15.7904
無	-15.7904
笔	-15.7904
艾	-15.7904
虎	-15.7904
雄	-15.7904
马	-15.7904
¢	-15.7904
¥	-15.7904
­	-15.7904
Ä	-15.7904
Î	-15.7904
Ø	-15.7904
ã	-15.7904
Ā	-15.7904
ć	-15.7904
ĉ	-15.7904
ĝ	-15.7904
ĥ	-15.7904
ħ	-15.7904
ĵ	-15.7904
Ľ	-15.7904
ň	-15.7904
Ō	-15.7904
œ	-15.7904
Ŝ	-15.7904
ŝ	-15.7904
ŭ	-15.7904
ź	-15.7904
ǧ	-15.7904
ș	-15.7904
ɲ	-15.7904
ʃ	-15.7904
ʦ	-15.7904
ˁ	-15.7904
ˌ	-15.7904
ˑ	-15.7904
̃	-15.7904
̊	-15.7904
Η	-15.7904
Ι	-15.7904
Μ	-15.7904
Ξ	-15.7904
Ο	-15.7904
Ρ	-15.7904
Ψ	-15.7904
χ	-15.7904
ϝ	-15.7904
І	-15.7904
Ї	-15.7904
Љ	-15.7904
Њ	-15.7904
Ћ	-15.7904
Џ	-15.7904
Д	-15.7904
Е	-15.7904
З	-15.7904
И	-15.7904
Й	-15.7904
Л	-15.7904
О	-15.7904
Т	-15.7904
Ч	-15.7904
Ш	-15.7904
Щ	-15.7904
Ъ	-15.7904
Ы	-15.7904
Ь	-15.7904
г	-15.7904
з	-15.7904
х	-15.7904
ё	-15.7904
љ	-15.7904
Ґ	-15.7904
қ	-15.7904
ң	-15.7904
ү	-15.7904
ө	-15.7904
Թ	-15.7904
ի	-15.7904
ն	-15.7904
ո	-15.7904
ր	-15.7904
ֻ	-15.7904
־	-15.7904
״	-15.7904
ؐ	-15.7904
ٓ	-15.7904
ٕ	-15.7904
ٞ	-15.7904
ٹ	-15.7904
ۃ	-15.7904
ۆ	-15.7904
ۖ	-15.7904
ۚ	-15.7904
۟	-15.7904
۱	-15.7904
ܛ	-15.7904
ܦ	-15.7904
ܨ	-15.7904
ݘ	-15.7904
क	-15.7904
च	-15.7904
त	-15.7904
व	-15.7904
श	-15.7904
स	-15.7904
़	-15.7904
्	-15.7904
ঙ	-15.7904
া	-15.7904
্	-15.7904
ਖ	-15.7904
ਸ	-15.7904
ਿ	-15.7904
ੀ	-15.7904
ੱ	-15.7904
ங	-15.7904
ச	-15.7904
ம	-15.7904
வ	-15.7904
ප	-15.7904
ය	-15.7904
ර	-15.7904
ල	-15.7904
්	-15.7904
ි	-15.7904
ු	-15.7904
ฑ	-15.7904
ล	-15.7904
ศ	-15.7904
ษ	-15.7904
ฯ	-15.7904
โ	-15.7904
ບ	-15.7904
ີ	-15.7904
།	-15.7904
ཀ	-15.7904
ང	-15.7904
ཇ	-15.7904
ུ	-15.7904
ᄁ	-15.7904
ᄄ	-15.7904
ᄈ	-15.7904
ᄉ	-15.7904
ᄊ	-15.7904
ᄌ	-15.7904
ᄍ	-15.7904
ᄎ	-15.7904
ᄏ	-15.7904
ᄐ	-15.7904
ᄒ	-15.7904
ᅢ	-15.7904
ᅤ	-15.7904
ᅥ	-15.7904
ᅦ	-15.7904
ᅧ	-15.7904
ᅨ	-15.7904
ᅩ	-15.7904
ᅪ	-15.7904
ᅫ	-15.7904
ᅬ	-15.7904
ᅭ	-15.7904
ᅮ	-15.7904
ᅯ	-15.7904
ᅰ	-15.7904
ᅱ	-15.7904
ᅲ	-15.7904
ᅳ	-15.7904
ᅴ	-15.7904
ᅵ	-15.7904
ል	-15.7904
ሎ	-15.7904
ማ	-15.7904
ም	-15.7904
ቅ	-15.7904
ቡ	-15.7904
ኛ	-15.7904
ደ	-15.7904
ዳ	-15.7904
ድ	-15.7904
ጃ	-15.7904
ጊ	-15.7904
ጋ	-15.7904
ᒾ	-15.7904
ḕ	-15.7904
ḗ	-15.7904
Ṣ	-15.7904
ṣ	-15.7904
ố	-15.7904
ộ	-15.7904
ἄ	-15.7904
Ἀ	-15.7904
ἑ	-15.7904
ἴ	-15.7904
Ἰ	-15.7904
ὐ	-15.7904
ὴ	-15.7904
ᾱ	-15.7904
ᾶ	-15.7904
ῦ	-15.7904
₣	-15.7904
₮	-15.7904
↑	-15.7904
⇝	-15.7904
∆	-15.7904
⊕	-15.7904
⋅	-15.7904
┒	-15.7904
☉	-15.7904
ⴶ	-15.7904
ⵃ	-15.7904
ⵄ	-15.7904
あ	-15.7904
お	-15.7904
が	-15.7904
け	-15.7904
こ	-15.7904
ず	-15.7904
せ	-15.7904
だ	-15.7904
っ	-15.7904
は	-15.7904
ば	-15.7904
ぶ	-15.7904
べ	-15.7904
ぼ	-15.7904
ゆ	-15.7904
ら	-15.7904
ゑ	-15.7904
を	-15.7904
ァ	-15.7904
ィ	-15.7904
オ	-15.7904
グ	-15.7904
ッ	-15.7904
ハ	-15.7904
バ	-15.7904
ビ	-15.7904
ピ	-15.7904
フ	-15.7904
ベ	-15.7904
ボ	-15.7904
モ	-15.7904
ュ	-15.7904
ル	-15.7904
ㄅ	-15.7904
ㄆ	-15.7904
ㄇ	-15.7904
ㄈ	-15.7904
ㄉ	-15.7904
ㄊ	-15.7904
ㄋ	-15.7904
ㄌ	-15.7904
ㄍ	-15.7904
ㄎ	-15.7904
ㄏ	-15.7904
ㄐ	-15.7904
ㄑ	-15.7904
ㄒ	-15.7904
ㄓ	-15.7904
ㄔ	-15.7904
ㄕ	-15.7904
ㄖ	-15.7904
ㄗ	-15.7904
ㄘ	-15.7904
ㄙ	-15.7904
ㄚ	-15.7904
ㄛ	-15.7904
ㄜ	-15.7904
ㄝ	-15.7904
ㄞ	-15.7904
ㄟ	-15.7904
ㄠ	-15.7904
ㄡ	-15.7904
ㄢ	-15.7904
ㄣ	-15.7904
ㄤ	-15.7904
ㄥ	-15.7904
ㄦ	-15.7904
ㄧ	-15.7904
ㄨ	-15.7904
ㄩ	-15.7904
丁	-15.7904
三	-15.7904
与	-15.7904
乌	-15.7904
争	-15.7904
亳	-15.7904
今	-15.7904
仙	-15.7904
令	-15.7904
伎	-15.7904
伏	-15.7904
作	-15.7904
便	-15.7904
俺	-15.7904
値	-15.7904
儒	-15.7904
先	-15.7904
児	-15.7904
入	-15.7904
列	-15.7904
初	-15.7904
別	-15.7904
前	-15.7904
功	-15.7904
加	-15.7904
勇	-15.7904
動	-15.7904
勢	-15.7904
十	-15.7904
単	-15.7904
博	-15.7904
历	-15.7904
厘	-15.7904
厚	-15.7904
口	-15.7904
句	-15.7904
呂	-15.7904
周	-15.7904
命	-15.7904
唐	-15.7904
善	-15.7904
喜	-15.7904
圆	-15.7904
圣	-15.7904
场	-15.7904
垂	-15.7904
基	-15.7904
堀	-15.7904
堂	-15.7904
場	-15.7904
墓	-15.7904
夢	-15.7904
央	-15.7904
如	-15.7904
姫	-15.7904
娘	-15.7904
孫	-15.7904
宁	-15.7904
宋	-15.7904
宝	-15.7904
宾	-15.7904
富	-15.7904
將	-15.7904
小	-15.7904
履	-15.7904
岛	-15.7904
峦	-15.7904
峻	-15.7904
布	-15.7904
帝	-15.7904
帯	-15.7904
幌	-15.7904
年	-15.7904
廣	-15.7904
弓	-15.7904
弗	-15.7904
弘	-15.7904
張	-15.7904
弾	-15.7904
影	-15.7904
御	-15.7904
德	-15.7904
徽	-15.7904
戊	-15.7904
我	-15.7904
扁	-15.7904
扬	-15.7904
投	-15.7904
折	-15.7904
抹	-15.7904
振	-15.7904
推	-15.7904
操	-15.7904
料	-15.7904
於	-15.7904
施	-15.7904
旋	-15.7904
春	-15.7904
曳	-15.7904
曹	-15.7904
札	-15.7904
村	-15.7904
松	-15.7904
枚	-15.7904
枝	-15.7904
架	-15.7904
柔	-15.7904
栃	-15.7904
校	-15.7904
桐	-15.7904
梟	-15.7904
森	-15.7904
楊	-15.7904
楽	-15.7904
榮	-15.7904
横	-15.7904
橋	-15.7904
歌	-15.7904
殿	-15.7904
気	-15.7904
沙	-15.7904
津	-15.7904
浅	-15.7904
浴	-15.7904
温	-15.7904
湖	-15.7904
瀋	-15.7904
災	-15.7904
爆	-15.7904
牛	-15.7904
狭	-15.7904
目	-15.7904
着	-15.7904
石	-15.7904
祭	-15.7904
祯	-15.7904
禁	-15.7904
禪	-15.7904
禮	-15.7904
秋	-15.7904
秦	-15.7904
穀	-15.7904
穆	-15.7904
立	-15.7904
箇	-15.7904
箏	-15.7904
管	-15.7904
節	-15.7904
米	-15.7904
粟	-15.7904
納	-15.7904
絵	-15.7904
綱	-15.7904
红	-15.7904
纳	-15.7904
线	-15.7904
羅	-15.7904
者	-15.7904
而	-15.7904
聖	-15.7904
舞	-15.7904
舟	-15.7904
芜	-15.7904
芭	-15.7904
苑	-15.7904
茂	-15.7904
茅	-15.7904
菅	-15.7904
蕉	-15.7904
蕪	-15.7904
蘇	-15.7904
蝦	-15.7904
螺	-15.7904
衛	-15.7904
袴	-15.7904
言	-15.7904
詮	-15.7904
話	-15.7904
誉	-15.7904
誓	-15.7904
誠	-15.7904
読	-15.7904
謝	-15.7904
豆	-15.7904
豚	-15.7904
贤	-15.7904
赤	-15.7904
身	-15.7904
車	-15.7904
輝	-15.7904
车	-15.7904
近	-15.7904
连	-15.7904
迪	-15.7904
速	-15.7904
遠	-15.7904
遼	-15.7904
里	-15.7904
銭	-15.7904
錢	-15.7904
鐘	-15.7904
鐵	-15.7904
长	-15.7904
閥	-15.7904
门	-15.7904
阿	-15.7904
陳	-15.7904
隊	-15.7904
雪	-15.7904
雲	-15.7904
震	-15.7904
青	-15.7904
面	-15.7904
鞋	-15.7904
食	-15.7904
馆	-15.7904
馬	-15.7904
駄	-15.7904
駿	-15.7904
魯	-15.7904
麦	-15.7904
麻	-15.7904
黍	-15.7904
黒	-15.7904
齐	-15.7904
가	-15.7904
고	-15.7904
국	-15.7904
글	-15.7904
기	-15.7904
닙	-15.7904
려	-15.7904
말	-15.7904
삼	-15.7904
선	-15.7904
시	-15.7904
역	-15.7904
음	-15.7904
일	-15.7904
잎	-15.7904
홍	-15.7904
￼	-15.7904
𐀃	-15.7904
𐀚	-15.7904
𐀺	-15.7904
𐡇	-15.7904
𐢊	-15.7904
𐤁	-15.7904
𐤋	-15.7904
𐤌	-15.7904
𐤍	-15.7904
𐤏	-15.7904
𐩥	-15.7904
𓅓	-15.7904
𓆎	-15.7904
𓈖	-15.7904
𓊖	-15.7904
𓏏	-15.7904
𓏺	-15.7904
ڢ	-15.7904
Ɣ	-15.7904
้	-15.7904
ກ	-15.7904
ፊ	-15.7904
ᾍ	-15.7904
主	-15.7904
俳	-15.7904
六	-15.7904
刺	-15.7904
勝	-15.7904
可	-15.7904
墨	-15.7904
愛	-15.7904
毛	-15.7904
浮	-15.7904
濃	-15.7904
為	-15.7904
等	-15.7904
絹	-15.7904
縄	-15.7904
莲	-15.7904
表	-15.7904
財	-15.7904
資	-15.7904
铁	-15.7904
阜	-15.7904
黑	-15.7904
龍	-15.7904
요	-15.7904
월	-15.7904
조	-15.7904
𓂋	-15.7904
ɔ	-15.7904
ы	-15.7904
ं	-15.7904
ἡ	-15.7904
ⵀ	-15.7904
ⵝ	-15.7904
う	-15.7904
つ	-15.7904
な	-15.7904
も	-15.7904
よ	-15.7904
ポ	-15.7904
レ	-15.7904
九	-15.7904
冷	-15.7904
厳	-15.7904
学	-15.7904
宅	-15.7904
守	-15.7904
尋	-15.7904
崖	-15.7904
急	-15.7904
斯	-15.7904
染	-15.7904
護	-15.7904
路	-15.7904
辰	-15.7904
隠	-15.7904
魔	-15.7904
б	-15.7904
נ	-15.7904
參	-15.7904
