<unk>	0
<s>	0
</s>	0
ال	-0
▁ال	-1
▁م	-2
▁و	-3
▁أ	-4
▁ف	-5
▁ب	-6
ية	-7
ان	-8
▁ع	-9
▁في	-10
ات	-11
▁ل	-12
▁ت	-13
▁الم	-14
ين	-15
ار	-16
▁من	-17
ام	-18
▁ي	-19
▁ك	-20
ري	-21
▁إ	-22
ون	-23
لى	-24
▁1	-25
ها	-26
را	-27
▁الأ	-28
ول	-29
▁ح	-30
▁س	-31
ير	-32
يا	-33
▁وال	-34
▁ه	-35
▁ق	-36
▁ن	-37
▁الع	-38
ور	-39
▁الت	-40
دي	-41
اس	-42
▁ج	-43
▁-	-44
لي	-45
اب	-46
ما	-47
لا	-48
▁على	-49
▁19	-50
ائ	-51
وم	-52
▁(	-53
▁الح	-54
▁الس	-55
رب	-56
اد	-57
لك	-58
▁الق	-59
▁ش	-60
▁أن	-61
▁لل	-62
اع	-63
▁الب	-64
▁ر	-65
▁د	-66
رة	-67
يس	-68
وا	-69
يل	-70
▁الج	-71
دة	-72
▁إلى	-73
▁الن	-74
▁2	-75
يم	-76
ست	-77
وب	-78
▁الك	-79
▁خ	-80
اء	-81
▁الإ	-82
▁الش	-83
عد	-84
في	-85
وس	-86
▁عن	-87
يد	-88
▁مع	-89
▁بال	-90
لم	-91
عة	-92
اني	-93
بر	-94
▁أو	-95
▁بن	-96
اف	-97
ود	-98
ًا	-99
هم	-100
▁الف	-101
لة	-102
رك	-103
▁الد	-104
وي	-105
قة	-106
▁ص	-107
▁وت	-108
اح	-109
▁ط	-110
مة	-111
▁وم	-112
نا	-113
انت	-114
بي	-115
است	-116
▁الر	-117
▁20	-118
قد	-119
▁عام	-120
▁هذ	-121
▁غ	-122
▁مح	-123
سي	-124
اص	-125
وج	-126
رن	-127
تي	-128
▁الص	-129
تم	-130
▁الخ	-131
▁الل	-132
سب	-133
هر	-134
▁التي	-135
▁الث	-136
صر	-137
دين	-138
▁ذ	-139
وف	-140
كن	-141
قي	-142
انية	-143
▁الذ	-144
▁«	-145
▁وه	-146
سم	-147
مل	-148
▁وأ	-149
زي	-150
ثل	-151
نة	-152
حد	-153
▁ث	-154
دم	-155
▁ما	-156
كي	-157
بد	-158
▁أي	-159
اري	-160
تر	-161
بل	-162
▁بعد	-163
شر	-164
▁أم	-165
الي	-166
مد	-167
ني	-168
الم	-169
لف	-170
خر	-171
▁الط	-172
▁ا	-173
جم	-174
▁بين	-175
ند	-176
صل	-177
دينة	-178
▁وي	-179
وت	-180
وق	-181
عل	-182
يات	-183
كل	-184
▁آ	-185
▁كان	-186
مر	-187
تح	-188
ته	-189
سل	-190
اً	-191
من	-192
يو	-193
كون	-194
قل	-195
رية	-196
ارة	-197
00	-198
كان	-199
يرة	-200
وري	-201
لس	-202
كت	-203
بة	-204
ئيس	-205
▁ز	-206
يث	-207
▁هو	-208
▁تح	-209
▁است	-210
رف	-211
▁تع	-212
اط	-213
▁18	-214
كر	-215
مال	-216
قت	-217
▁هي	-218
اج	-219
وع	-220
اه	-221
طة	-222
▁هذا	-223
▁لم	-224
▁الو	-225
رج	-226
▁وب	-227
▁الذي	-228
يت	-229
عض	-230
▁مم	-231
▁الغ	-232
▁هذه	-233
▁الأم	-234
▁اله	-235
رق	-236
▁علي	-237
▁وفي	-238
لال	-239
ثر	-240
▁تم	-241
وية	-242
راء	-243
▁ان	-244
رض	-245
ورة	-246
خت	-247
▁عبد	-248
▁إن	-249
▁الي	-250
▁كل	-251
▁مص	-252
وات	-253
ديد	-254
▁مت	-255
سة	-256
اك	-257
).	-258
▁لا	-259
▁المن	-260
در	-261
اسم	-262
▁حيث	-263
ولة	-264
وك	-265
▁المع	-266
▁تق	-267
▁يع	-268
ذا	-269
▁مس	-270
▁وع	-271
▁أس	-272
▁ض	-273
▁محمد	-274
دد	-275
يف	-276
صب	-277
▁بد	-278
▁أب	-279
▁201	-280
اض	-281
رت	-282
▁200	-283
هد	-284
▁المح	-285
طل	-286
مي	-287
حة	-288
▁كما	-289
▁مثل	-290
زة	-291
ذلك	-292
اريخ	-293
▁ذلك	-294
▁أك	-295
َّ	-296
▁والم	-297
ربية	-298
▁3	-299
▁الله	-300
▁أيض	-301
الة	-302
أس	-303
▁تش	-304
وز	-305
▁وك	-306
▁مدينة	-307
ركة	-308
▁كانت	-309
▁وق	-310
إن	-311
▁198	-312
راج	-313
ولا	-314
▁الز	-315
أن	-316
يك	-317
صف	-318
ياء	-319
▁يت	-320
نية	-321
▁عند	-322
▁197	-323
خل	-324
▁المت	-325
▁بل	-326
برا	-327
ريق	-328
يط	-329
فس	-330
غة	-331
▁القرن	-332
ورية	-333
ادة	-334
▁ول	-335
رد	-336
▁مق	-337
سا	-338
▁أمري	-339
▁له	-340
▁وج	-341
▁ومن	-342
كم	-343
▁مو	-344
▁العالم	-345
سية	-346
▁سنة	-347
يني	-348
رائ	-349
▁199	-350
▁رئيس	-351
خص	-352
اق	-353
▁يم	-354
▁ين	-355
▁وقد	-356
افة	-357
▁مج	-358
اش	-359
▁وف	-360
سلام	-361
▁قبل	-362
▁ولا	-363
▁المس	-364
بية	-365
▁كت	-366
طقة	-367
▁دي	-368
ربي	-369
تى	-370
بات	-371
▁أول	-372
▁بم	-373
▁وهو	-374
يب	-375
▁نظ	-376
▁196	-377
نت	-378
▁المتح	-379
▁تت	-380
فة	-381
رم	-382
▁ثم	-383
▁الآ	-384
حي	-385
▁وس	-386
الية	-387
بن	-388
▁وهي	-389
از	-390
عي	-391
نوب	-392
لاد	-393
▁قدم	-394
بع	-395
)،	-396
▁بح	-397
ارج	-398
راجع	-399
▁كرة	-400
ليم	-401
▁مست	-402
خرى	-403
▁وح	-404
▁اليوم	-405
▁مد	-406
اث	-407
عية	-408
ادي	-409
▁أع	-410
▁لت	-411
▁بعض	-412
جل	-413
رات	-414
▁عدد	-415
يز	-416
▁أش	-417
وان	-418
▁لاع	-419
▁المتحدة	-420
تها	-421
▁يق	-422
▁194	-423
▁انت	-424
يش	-425
▁الأس	-426
وعة	-427
انيا	-428
▁أح	-429
▁أحد	-430
لب	-431
▁للم	-432
▁195	-433
صبح	-434
▁مصر	-435
▁حتى	-436
▁لاعب	-437
وى	-438
ماء	-439
ثة	-440
عب	-441
خدم	-442
▁تن	-443
ظر	-444
▁أنه	-445
▁غير	-446
كية	-447
▁(1	-448
▁المج	-449
ارات	-450
راق	-451
▁قد	-452
▁تو	-453
افظ	-454
▁بي	-455
امة	-456
▁الجز	-457
▁الأول	-458
له	-459
وة	-460
▁حد	-461
غير	-462
فاع	-463
▁وز	-464
▁اب	-465
▁بر	-466
قط	-467
▁المدينة	-468
▁خلال	-469
▁الملك	-470
▁4	-471
فر	-472
ارت	-473
شي	-474
▁بت	-475
▁إس	-476
دا	-477
ائية	-478
كس	-479
▁يمكن	-480
▁فيها	-481
▁بش	-482
ضع	-483
▁المست	-484
سك	-485
دام	-486
▁والأ	-487
▁والت	-488
شت	-489
ظم	-490
▁.	-491
جد	-492
▁يوم	-493
▁أمريكي	-494
ينية	-495
▁البح	-496
ياب	-497
▁5	-498
▁كب	-499
اي	-500
▁المص	-501
لية	-502
وار	-503
▁فرن	-504
ثلة	-505
جة	-506
ئة	-507
وط	-508
اعت	-509
ومة	-510
ناء	-511
▁أف	-512
▁به	-513
▁ري	-514
▁سب	-515
▁الاست	-516
وح	-517
▁سيا	-518
▁الأو	-519
▁وإ	-520
▁ون	-521
وسي	-522
▁السل	-523
ترة	-524
▁الإسلام	-525
▁الرا	-526
▁ممثل	-527
لات	-528
ابة	-529
عم	-530
▁جز	-531
اليد	-532
▁وكان	-533
▁تحت	-534
▁مغ	-535
▁الض	-536
ثير	-537
▁مؤ	-538
▁عشر	-539
▁الولا	-540
ارس	-541
▁لي	-542
ختلف	-543
ريط	-544
▁بو	-545
ائر	-546
ارية	-547
طي	-548
ولي	-549
ضي	-550
به	-551
▁تاريخ	-552
▁الأمري	-553
▁الرئيس	-554
عت	-555
▁،	-556
▁أد	-557
▁17	-558
▁بها	-559
وجد	-560
جموعة	-561
▁عالم	-562
▁لأ	-563
▁فر	-564
▁193	-565
مان	-566
▁ولك	-567
▁والتي	-568
لسط	-569
▁خارج	-570
ائي	-571
▁يح	-572
ائل	-573
ارك	-574
سن	-575
▁6	-576
مه	-577
▁المد	-578
▁ات	-579
▁أكثر	-580
▁واح	-581
امعة	-582
جر	-583
er	-584
ائزة	-585
▁ألم	-586
▁سي	-587
▁ولكن	-588
ناع	-589
».	-590
وقع	-591
قا	-592
▁فإن	-593
جلي	-594
لاح	-595
رح	-596
امل	-597
ندي	-598
▁العربية	-599
وسط	-600
▁مراجع	-601
راف	-602
▁عمل	-603
ترون	-604
عات	-605
▁الإم	-606
▁الحرب	-607
▁الإن	-608
▁مصري	-609
خدام	-610
▁الثاني	-611
قر	-612
ئية	-613
▁اسم	-614
ناط	-615
لكة	-616
▁ابن	-617
قال	-618
لاف	-619
ويل	-620
▁نفس	-621
▁مواليد	-622
رس	-623
▁السيا	-624
▁التح	-625
كا	-626
▁الوط	-627
▁كم	-628
▁منها	-629
▁نوب	-630
افظة	-631
وروب	-632
ركز	-633
▁الياب	-634
▁للت	-635
▁أبو	-636
▁أما	-637
▁15	-638
الب	-639
▁جائزة	-640
قع	-641
مس	-642
ناك	-643
كو	-644
▁يتم	-645
احت	-646
اية	-647
تين	-648
▁الأن	-649
▁أغ	-650
لاق	-651
▁7	-652
▁|	-653
يخ	-654
▁الا	-655
جي	-656
بال	-657
▁14	-658
▁وصل	-659
▁ممثلة	-660
ذي	-661
جه	-662
براط	-663
▁يكون	-664
سبب	-665
▁أخرى	-666
▁سع	-667
▁المغ	-668
▁16	-669
▁وذلك	-670
▁وفيات	-671
▁192	-672
اته	-673
an	-674
▁قال	-675
▁لها	-676
ظهر	-677
رجة	-678
▁كتاب	-679
▁والع	-680
اصل	-681
▁أحمد	-682
▁نوبل	-683
اصة	-684
اعر	-685
قتص	-686
▁منطقة	-687
▁أيضا	-688
وه	-689
▁12	-690
والي	-691
▁القدي	-692
ئي	-693
اليا	-694
لق	-695
▁عليه	-696
▁8	-697
▁تأس	-698
▁إد	-699
▁البر	-700
▁يُ	-701
سبة	-702
▁يست	-703
سان	-704
ظام	-705
لت	-706
ذه	-707
▁إلا	-708
▁التق	-709
انون	-710
▁خارجية	-711
ضم	-712
ادر	-713
▁الأولى	-714
▁قام	-715
▁ملك	-716
▁تكون	-717
▁المؤ	-718
▁بأ	-719
لاث	-720
اة	-721
بار	-722
راد	-723
▁ذات	-724
▁13	-725
سين	-726
صول	-727
روف	-728
en	-729
▁مي	-730
▁وش	-731
▁العديد	-732
▁بق	-733
ودي	-734
نوات	-735
▁تج	-736
▁فيه	-737
غات	-738
حو	-739
▁يد	-740
▁إلي	-741
▁منذ	-742
زياء	-743
▁سل	-744
كومة	-745
▁العل	-746
▁بشكل	-747
ليل	-748
▁شخص	-749
▁المم	-750
▁أث	-751
ابات	-752
▁تص	-753
▁يون	-754
وفي	-755
▁أهم	-756
انات	-757
اصمة	-758
الات	-759
ضافة	-760
دية	-761
ظمة	-762
ترا	-763
ديدة	-764
ثم	-765
واع	-766
▁الشع	-767
▁الفرن	-768
▁10	-769
وض	-770
▁الري	-771
▁:	-772
بط	-773
▁عمر	-774
▁را	-775
▁قر	-776
▁الكت	-777
لكترون	-778
▁191	-779
طب	-780
▁عب	-781
▁حاصل	-782
▁–	-783
ياس	-784
▁الات	-785
زب	-786
ده	-787
ائرة	-788
..	-789
▁آخر	-790
▁عم	-791
▁الفي	-792
in	-793
▁شع	-794
طر	-795
▁القر	-796
با	-797
هي	-798
▁9	-799
▁الولايات	-800
رائيل	-801
▁الثال	-802
▁الساب	-803
▁حدث	-804
يلة	-805
▁11	-806
اسي	-807
▁مش	-808
▁ولاية	-809
ودة	-810
صد	-811
▁تأسيس	-812
قية	-813
▁العام	-814
▁عندما	-815
▁علم	-816
▁التاريخ	-817
▁لكن	-818
▁جامعة	-819
اقة	-820
وني	-821
امي	-822
بلغ	-823
ومات	-824
سط	-825
▁الكيم	-826
فض	-827
▁التع	-828
▁الدين	-829
▁بأن	-830
▁المي	-831
كة	-832
▁عل	-833
▁بع	-834
▁حول	-835
طان	-836
وال	-837
اتب	-838
هما	-839
واب	-840
▁للأ	-841
▁خط	-842
▁أصبح	-843
تد	-844
▁الكب	-845
تبر	-846
يادة	-847
▁تلك	-848
جز	-849
سمى	-850
فت	-851
▁تط	-852
▁لبن	-853
خذ	-854
▁اللغة	-855
ليون	-856
▁أبي	-857
▁دا	-858
▁الدولة	-859
طلق	-860
▁لح	-861
▁S	-862
▁بط	-863
سيم	-864
ودية	-865
▁لو	-866
حاد	-867
▁دول	-868
on	-869
فا	-870
▁الثانية	-871
▁بالم	-872
الت	-873
▁المق	-874
▁مجموعة	-875
لمة	-876
000	-877
احة	-878
»،	-879
▁والح	-880
ريف	-881
مية	-882
▁لأن	-883
▁أيضًا	-884
▁تر	-885
▁البي	-886
وغ	-887
▁أكبر	-888
-1	-889
▁هناك	-890
▁جنوب	-891
زل	-892
تش	-893
طف	-894
فع	-895
▁وصلات	-896
ينة	-897
▁الوا	-898
نى	-899
▁قائ	-900
▁"	-901
غم	-902
▁مر	-903
▁نس	-904
▁سياسي	-905
▁الجنوب	-906
▁إذا	-907
▁ها	-908
▁ور	-909
غي	-910
▁مب	-911
صة	-912
▁مما	-913
سون	-914
▁تد	-915
▁الروم	-916
اند	-917
ريد	-918
▁طريق	-919
▁البحر	-920
▁عليها	-921
▁الدول	-922
▁العراق	-923
واد	-924
ياً	-925
▁تست	-926
يسة	-927
▁تأ	-928
▁التج	-929
▁الحر	-930
▁اعت	-931
▁باسم	-932
▁انظر	-933
شف	-934
▁الأرض	-935
يه	-936
ميع	-937
▁الأح	-938
▁السنة	-939
طار	-940
ينا	-941
ياة	-942
▁مل	-943
جن	-944
قى	-945
▁نظام	-946
▁يش	-947
▁حوالي	-948
20	-949
▁إم	-950
هرب	-951
▁فقد	-952
▁الانت	-953
فق	-954
فل	-955
▁رس	-956
خاص	-957
ورا	-958
▁الأخ	-959
▁الهند	-960
ربع	-961
يمة	-962
▁الإس	-963
▁الشيخ	-964
al	-965
▁أق	-966
▁أص	-967
▁تس	-968
وص	-969
اير	-970
قتصاد	-971
▁فلسط	-972
▁ألف	-973
مع	-974
قدم	-975
or	-976
ثال	-977
تج	-978
▁الحدي	-979
▁عدة	-980
▁المش	-981
▁بالإ	-982
هل	-983
▁المنطقة	-984
ندا	-985
سمية	-986
▁جميع	-987
▁A	-988
حدث	-989
▁بإ	-990
قب	-991
اسية	-992
▁الشمال	-993
▁درجة	-994
▁العمل	-995
▁الأك	-996
▁بدأ	-997
َّة	-998
▁الإمبراط	-999
وبر	-1000
▁الأع	-1001
اعة	-1002
صار	-1003
خط	-1004
مو	-1005
ّة	-1006
▁ست	-1007
يران	-1008
ثي	-1009
▁بسبب	-1010
▁لإ	-1011
▁البل	-1012
▁موا	-1013
زية	-1014
▁الأد	-1015
▁الثالث	-1016
قتل	-1017
▁لد	-1018
▁الذين	-1019
حية	-1020
وير	-1021
▁بار	-1022
▁يج	-1023
▁C	-1024
▁شمال	-1025
ديم	-1026
فن	-1027
▁الشرق	-1028
▁والذي	-1029
بت	-1030
عمل	-1031
تما	-1032
▁ود	-1033
▁اليابان	-1034
▁نق	-1035
راقي	-1036
▁أنها	-1037
وش	-1038
مهورية	-1039
▁الأمريكية	-1040
▁الأخرى	-1041
زم	-1042
▁تقع	-1043
اصر	-1044
الح	-1045
اغ	-1046
▁190	-1047
▁العم	-1048
▁سوري	-1049
يلي	-1050
ريل	-1051
صور	-1052
▁سكان	-1053
▁الموج	-1054
▁للح	-1055
▁مجلس	-1056
ضاء	-1057
▁والن	-1058
▁ظ	-1059
▁اخت	-1060
▁بير	-1061
▁الوطني	-1062
▁B	-1063
▁الوق	-1064
▁الجن	-1065
▁العالمية	-1066
ناطيس	-1067
ارل	-1068
ضر	-1069
لاء	-1070
زيز	-1071
▁جن	-1072
▁حم	-1073
▁أل	-1074
▁محافظة	-1075
▁جون	-1076
▁أثناء	-1077
عداد	-1078
هاية	-1079
ar	-1080
سر	-1081
ختلفة	-1082
▁حكم	-1083
▁فن	-1084
▁مدن	-1085
وما	-1086
▁ترك	-1087
▁كبير	-1088
ريطاني	-1089
at	-1090
▁لن	-1091
ارد	-1092
سيا	-1093
يائية	-1094
▁كيم	-1095
راً	-1096
امج	-1097
هة	-1098
كرة	-1099
ريقة	-1100
▁وص	-1101
▁العربي	-1102
سكري	-1103
▁وكانت	-1104
▁استخدام	-1105
الد	-1106
رير	-1107
▁تُ	-1108
▁الطب	-1109
▁أوروب	-1110
ويت	-1111
▁فترة	-1112
تل	-1113
▁فرنسي	-1114
يون	-1115
is	-1116
▁إيط	-1117
▁الرياض	-1118
▁فل	-1119
▁الخط	-1120
▁القديمة	-1121
▁يول	-1122
بدأ	-1123
علن	-1124
▁أيضاً	-1125
واء	-1126
▁العثم	-1127
يست	-1128
ريب	-1129
▁ومع	-1130
جار	-1131
▁شي	-1132
▁نش	-1133
▁وخ	-1134
▁المسلم	-1135
▁إنجلي	-1136
هور	-1137
اخ	-1138
▁لع	-1139
غل	-1140
طن	-1141
▁الأمريكي	-1142
ساب	-1143
▁سم	-1144
▁الأش	-1145
▁أكت	-1146
▁النظام	-1147
خرج	-1148
ويم	-1149
▁ام	-1150
ذكر	-1151
▁تف	-1152
▁أشخاص	-1153
▁فقط	-1154
ورج	-1155
▁التش	-1156
▁يوجد	-1157
▁أصل	-1158
▁يناير	-1159
هيم	-1160
▁إسرائيل	-1161
قًا	-1162
▁فرنسا	-1163
عضاء	-1164
▁واحد	-1165
▁الشر	-1166
▁البلاد	-1167
es	-1168
▁مارس	-1169
▁ياب	-1170
▁العلم	-1171
▁السع	-1172
ستان	-1173
▁الطبي	-1174
اذ	-1175
سات	-1176
▁المملكة	-1177
▁حسب	-1178
غر	-1179
ليات	-1180
▁نهر	-1181
ابل	-1182
▁دون	-1183
▁الحد	-1184
▁أكتوبر	-1185
نع	-1186
ولوج	-1187
ياد	-1188
ركات	-1189
ريقيا	-1190
▁الرح	-1191
تاج	-1192
ياه	-1193
▁أيام	-1194
▁والإ	-1195
▁الخام	-1196
جمع	-1197
▁الان	-1198
لاً	-1199
▁آل	-1200
▁مركز	-1201
قلال	-1202
▁الوز	-1203
قات	-1204
▁العرب	-1205
زا	-1206
▁تي	-1207
▁إسب	-1208
▁بول	-1209
▁نوف	-1210
هاء	-1211
يين	-1212
▁القط	-1213
▁وزراء	-1214
▁التن	-1215
رش	-1216
جموع	-1217
▁يس	-1218
▁الجيش	-1219
لاثة	-1220
▁يوليو	-1221
ضة	-1222
▁واست	-1223
ol	-1224
راض	-1225
اعدة	-1226
▁الألم	-1227
▁كبيرة	-1228
سمي	-1229
يدر	-1230
▁احت	-1231
▁أوروبا	-1232
▁بالن	-1233
وء	-1234
اعد	-1235
سطس	-1236
▁يونيو	-1237
▁ألمانيا	-1238
رع	-1239
ِّ	-1240
وائ	-1241
▁باست	-1242
▁شاعر	-1243
وزي	-1244
ارب	-1245
انب	-1246
نان	-1247
▁إذ	-1248
▁ضد	-1249
ناصر	-1250
▁الحكومة	-1251
ch	-1252
ظيم	-1253
اسع	-1254
ونغ	-1255
▁تا	-1256
▁للع	-1257
ينات	-1258
▁ولي	-1259
▁وجود	-1260
▁المراجع	-1261
راك	-1262
▁وغير	-1263
▁عبر	-1264
براير	-1265
▁وأن	-1266
▁مايو	-1267
آن	-1268
انا	-1269
حات	-1270
سمبر	-1271
ستر	-1272
▁صف	-1273
اسة	-1274
مبر	-1275
لادي	-1276
▁موقع	-1277
بح	-1278
▁مف	-1279
▁موس	-1280
▁الإسلامية	-1281
▁189	-1282
▁(19	-1283
حل	-1284
اهرة	-1285
▁الحم	-1286
▁أخ	-1287
بطة	-1288
▁M	-1289
صرية	-1290
فاعل	-1291
▁أعمال	-1292
▁(2	-1293
قم	-1294
▁قص	-1295
شرين	-1296
▁ساب	-1297
▁فأ	-1298
▁الساد	-1299
ئات	-1300
0.	-1301
زال	-1302
▁قط	-1303
▁حين	-1304
▁ديسمبر	-1305
تمبر	-1306
▁متر	-1307
▁إحد	-1308
ابت	-1309
وبة	-1310
▁نحو	-1311
▁فبراير	-1312
▁لق	-1313
▁ني	-1314
▁الفترة	-1315
▁أمريكية	-1316
▁الغربي	-1317
▁جد	-1318
▁حر	-1319
▁سن	-1320
▁عملية	-1321
▁السكان	-1322
▁الاتحاد	-1323
علام	-1324
▁داخل	-1325
كتب	-1326
راسة	-1327
▁حرب	-1328
▁مصرية	-1329
▁العزيز	-1330
ساوي	-1331
ونية	-1332
▁با	-1333
▁قب	-1334
▁الوقت	-1335
ثار	-1336
▁مك	-1337
▁أغسطس	-1338
قيق	-1339
اما	-1340
ونات	-1341
▁طبي	-1342
▁بك	-1343
▁هن	-1344
▁موج	-1345
▁عهد	-1346
▁شكل	-1347
انيون	-1348
▁نظرية	-1349
▁مرة	-1350
▁سبتمبر	-1351
ورك	-1352
▁أنواع	-1353
▁معظم	-1354
تمد	-1355
خابات	-1356
▁نوفمبر	-1357
▁نوع	-1358
غط	-1359
▁ذكر	-1360
▁ولم	-1361
▁=	-1362
▁اليون	-1363
▁بج	-1364
ومية	-1365
▁دولة	-1366
▁واحدة	-1367
▁منه	-1368
▁العامة	-1369
▁ولد	-1370
▁حاليا	-1371
▁الجزائر	-1372
شار	-1373
▁تب	-1374
▁الحكم	-1375
2.	-1376
حن	-1377
براهيم	-1378
▁حالة	-1379
▁بداية	-1380
زو	-1381
تون	-1382
ساء	-1383
غيرة	-1384
▁الإلكترون	-1385
انة	-1386
▁والث	-1387
رخ	-1388
▁جورج	-1389
▁202	-1390
▁نسمة	-1391
▁أحداث	-1392
it	-1393
شاء	-1394
داد	-1395
▁مُ	-1396
▁ارت	-1397
▁لغة	-1398
▁وضع	-1399
▁/	-1400
▁مليون	-1401
هود	-1402
▁رم	-1403
▁السود	-1404
زيد	-1405
فاق	-1406
ومي	-1407
يام	-1408
▁القوات	-1409
▁حركة	-1410
▁طب	-1411
▁للإ	-1412
ريم	-1413
▁عرف	-1414
ريك	-1415
▁المب	-1416
▁أعضاء	-1417
ناطق	-1418
▁المصري	-1419
▁أبريل	-1420
▁الموا	-1421
▁إق	-1422
▁الكهرب	-1423
يائي	-1424
وسف	-1425
▁جي	-1426
▁بالت	-1427
سام	-1428
▁اكت	-1429
▁وط	-1430
▁إي	-1431
▁ضمن	-1432
▁كون	-1433
▁السنوات	-1434
▁حق	-1435
ناعة	-1436
▁وبعد	-1437
▁25	-1438
▁عش	-1439
▁الأمير	-1440
▁زي	-1441
▁طول	-1442
ينغ	-1443
تا	-1444
فظ	-1445
▁شركة	-1446
▁والد	-1447
ورد	-1448
▁مه	-1449
▁الأرد	-1450
راضي	-1451
▁الفلسط	-1452
▁فيما	-1453
شع	-1454
▁رياض	-1455
▁شرق	-1456
▁ويم	-1457
▁الجم	-1458
▁188	-1459
▁نهاية	-1460
▁الثق	-1461
▁يؤ	-1462
▁بما	-1463
▁بالإضافة	-1464
▁الكم	-1465
▁والق	-1466
▁الأص	-1467
▁الإد	-1468
▁النبي	-1469
▁المنا	-1470
▁دم	-1471
سكرية	-1472
▁المر	-1473
▁ثلاث	-1474
▁الفرنسية	-1475
▁المه	-1476
▁الوسط	-1477
طلاق	-1478
▁الغربية	-1479
▁وهذا	-1480
▁إبراهيم	-1481
▁مار	-1482
▁الفرنسي	-1483
ورن	-1484
عادة	-1485
▁دار	-1486
▁وتع	-1487
▁خاصة	-1488
▁والف	-1489
اجتما	-1490
▁الصح	-1491
▁القد	-1492
اطق	-1493
▁سنوات	-1494
▁إنجليزي	-1495
وث	-1496
▁ألماني	-1497
▁بينما	-1498
▁الفيزياء	-1499
كال	-1500
▁إحدى	-1501
بير	-1502
▁بناء	-1503
▁يب	-1504
▁والج	-1505
▁والس	-1506
▁الاقتصاد	-1507
▁الصين	-1508
ic	-1509
▁بالق	-1510
جاه	-1511
▁بالأ	-1512
▁لغات	-1513
قرا	-1514
أة	-1515
امن	-1516
طية	-1517
▁أر	-1518
▁بغ	-1519
▁وعلى	-1520
كار	-1521
▁فران	-1522
▁كاتب	-1523
▁الولاية	-1524
رعة	-1525
1.	-1526
طح	-1527
▁وتم	-1528
▁تعتبر	-1529
▁عض	-1530
▁شر	-1531
▁فت	-1532
▁كيل	-1533
جوم	-1534
▁فه	-1535
الك	-1536
▁نسبة	-1537
ِي	-1538
اوية	-1539
جرة	-1540
رفة	-1541
▁تك	-1542
▁عاصمة	-1543
▁الرابع	-1544
▁القانون	-1545
▁جزيرة	-1546
▁صح	-1547
le	-1548
اكم	-1549
▁والب	-1550
▁العصر	-1551
▁المسي	-1552
▁للن	-1553
يكية	-1554
▁الناس	-1555
ابع	-1556
تمع	-1557
▁عراقي	-1558
عدد	-1559
▁محم	-1560
▁حيات	-1561
▁الحياة	-1562
خب	-1563
ضل	-1564
ئاسة	-1565
تيجة	-1566
▁الاحت	-1567
حت	-1568
شاف	-1569
▁لج	-1570
▁الاسم	-1571
ريس	-1572
هاز	-1573
لمان	-1574
▁الخارج	-1575
ورغ	-1576
▁أشهر	-1577
يع	-1578
▁وما	-1579
اهر	-1580
▁186	-1581
▁المسلمين	-1582
لاقة	-1583
ليفة	-1584
▁حل	-1585
▁رب	-1586
اطعة	-1587
▁العن	-1588
▁سليم	-1589
ورت	-1590
قيقة	-1591
▁العاصمة	-1592
▁T	-1593
وارد	-1594
شق	-1595
▁كر	-1596
▁إل	-1597
ائلة	-1598
▁30	-1599
▁بالع	-1600
جا	-1601
▁توفي	-1602
▁والص	-1603
3.	-1604
راع	-1605
ارع	-1606
عتبر	-1607
▁اليم	-1608
19	-1609
4.	-1610
▁جم	-1611
▁وين	-1612
st	-1613
جاج	-1614
▁للك	-1615
▁مرت	-1616
▁المعل	-1617
▁الخامس	-1618
▁العناصر	-1619
▁187	-1620
▁دين	-1621
▁المصرية	-1622
باط	-1623
كام	-1624
▁العب	-1625
ائق	-1626
▁شهر	-1627
▁الأف	-1628
▁P	-1629
ائب	-1630
دمة	-1631
ريغ	-1632
▁الأوروب	-1633
▁الكيمياء	-1634
باء	-1635
يرات	-1636
5.	-1637
ربعة	-1638
▁مؤس	-1639
▁الطاقة	-1640
▁يعتبر	-1641
▁السادس	-1642
وجه	-1643
▁غرب	-1644
▁الإنسان	-1645
ذج	-1646
ريت	-1647
ويس	-1648
عمال	-1649
▁بلغ	-1650
▁وقت	-1651
▁الشمس	-1652
حص	-1653
الف	-1654
ويتي	-1655
▁روس	-1656
▁نفسه	-1657
▁القرآن	-1658
▁الكثير	-1659
هولة	-1660
▁منت	-1661
▁الوطنية	-1662
لام	-1663
ميم	-1664
وجين	-1665
▁الرس	-1666
▁الكن	-1667
▁المدن	-1668
ربة	-1669
درسة	-1670
▁دور	-1671
▁زوج	-1672
▁الميلاد	-1673
▁موسي	-1674
▁قائمة	-1675
ائد	-1676
▁عد	-1677
▁حسين	-1678
▁مسلم	-1679
علان	-1680
▁نج	-1681
▁مناطق	-1682
▁الخاصة	-1683
▁الميلادي	-1684
▁H	-1685
هار	-1686
بكة	-1687
▁للد	-1688
▁ويت	-1689
تمر	-1690
همة	-1691
يفة	-1692
▁جزء	-1693
▁السوفي	-1694
اسوب	-1695
غراف	-1696
▁فيزياء	-1697
ندية	-1698
▁الشم	-1699
او	-1700
ماع	-1701
▁كث	-1702
جو	-1703
▁مقتل	-1704
ليف	-1705
نين	-1706
بو	-1707
▁ليس	-1708
▁بواس	-1709
▁وكذلك	-1710
8.	-1711
ونس	-1712
▁إليه	-1713
▁الدولي	-1714
▁المناطق	-1715
▁I	-1716
▁R	-1717
▁كي	-1718
▁مض	-1719
▁بني	-1720
▁الشهر	-1721
ضا	-1722
وفر	-1723
▁وقال	-1724
▁الآن	-1725
▁قانون	-1726
▁وتقع	-1727
ريا	-1728
امات	-1729
▁لاح	-1730
▁هول	-1731
▁مكان	-1732
▁أصبحت	-1733
انغ	-1734
▁يف	-1735
▁معد	-1736
▁توجد	-1737
▁الحرارة	-1738
▁مختلفة	-1739
▁فع	-1740
واج	-1741
▁والش	-1742
om	-1743
▁رؤ	-1744
ائري	-1745
▁النظ	-1746
▁الإنجلي	-1747
ابا	-1748
وكي	-1749
اول	-1750
فيد	-1751
▁كن	-1752
▁خلف	-1753
▁جمهورية	-1754
▁السعودية	-1755
▁يقوم	-1756
▁عسكري	-1757
▁السلطان	-1758
ونة	-1759
شروع	-1760
▁روب	-1761
▁لكل	-1762
▁المرك	-1763
َل	-1764
برت	-1765
ابعة	-1766
▁برا	-1767
▁والك	-1768
خاب	-1769
▁كال	-1770
ريطانية	-1771
▁فلسطين	-1772
7.	-1773
▁ثلاثة	-1774
افية	-1775
▁التص	-1776
▁المك	-1777
▁الإمبراطورية	-1778
فو	-1779
لاج	-1780
▁اس	-1781
▁تتم	-1782
▁بواسطة	-1783
اتها	-1784
▁كلمة	-1785
▁يوسف	-1786
رجع	-1787
▁إير	-1788
▁عنه	-1789
▁ـ	-1790
▁21	-1791
▁وسط	-1792
▁معركة	-1793
عى	-1794
▁رأس	-1795
▁اغ	-1796
▁كتب	-1797
واص	-1798
▁عادة	-1799
▁الوسطى	-1800
تيب	-1801
تيال	-1802
▁ظهر	-1803
▁مث	-1804
▁تل	-1805
▁يبلغ	-1806
el	-1807
اتي	-1808
▁حزب	-1809
امية	-1810
▁علماء	-1811
رى	-1812
ادل	-1813
▁اف	-1814
▁غر	-1815
▁محمود	-1816
▁التاسع	-1817
▁البريطاني	-1818
▁الحق	-1819
ليب	-1820
وسية	-1821
رائيلي	-1822
▁مجموع	-1823
غان	-1824
ولد	-1825
يناء	-1826
▁مجال	-1827
▁يستخدم	-1828
نب	-1829
باح	-1830
▁عيد	-1831
صوص	-1832
▁ميلاد	-1833
طات	-1834
فية	-1835
ادية	-1836
▁اشت	-1837
▁الرحمن	-1838
▁السابق	-1839
راب	-1840
▁الاجتما	-1841
عيم	-1842
وريا	-1843
▁فوق	-1844
▁وإن	-1845
▁الإنت	-1846
9.	-1847
باتات	-1848
▁الجزي	-1849
ادلة	-1850
جلترا	-1851
ربون	-1852
ستور	-1853
▁D	-1854
طلح	-1855
▁كام	-1856
▁المف	-1857
▁أماكن	-1858
▁الحديث	-1859
50	-1860
جان	-1861
▁هنري	-1862
▁المغرب	-1863
▁الشمالية	-1864
▁وغ	-1865
▁بيت	-1866
▁كول	-1867
6.	-1868
▁الني	-1869
▁جديد	-1870
▁الزرا	-1871
ديث	-1872
وتي	-1873
▁فتح	-1874
سيمات	-1875
▁ياباني	-1876
▁تستخدم	-1877
ion	-1878
كمة	-1879
▁المُ	-1880
ليج	-1881
▁حياته	-1882
he	-1883
دان	-1884
▁إف	-1885
لسلة	-1886
▁وصف	-1887
▁المقد	-1888
▁اللغات	-1889
لع	-1890
▁)	-1891
ابن	-1892
▁فال	-1893
ويورك	-1894
▁سعيد	-1895
▁الصناع	-1896
ولى	-1897
▁بص	-1898
▁لف	-1899
▁روم	-1900
30	-1901
وله	-1902
▁حسن	-1903
▁المواد	-1904
طبي	-1905
▁الفن	-1906
▁الماء	-1907
▁أهل	-1908
▁الظ	-1909
▁وتت	-1910
▁وفقًا	-1911
هب	-1912
▁نز	-1913
▁يص	-1914
▁إيطالي	-1915
▁الكويت	-1916
▁العالمي	-1917
▁وتح	-1918
▁العثمانية	-1919
أي	-1920
مت	-1921
▁وفاة	-1922
▁الجام	-1923
▁إسلام	-1924
▁جديدة	-1925
▁بعده	-1926
10	-1927
باب	-1928
واة	-1929
▁المعروف	-1930
لاع	-1931
▁مأ	-1932
▁منصب	-1933
َن	-1934
جال	-1935
▁جيم	-1936
▁ساح	-1937
▁الجد	-1938
▁اللي	-1939
▁بدأت	-1940
▁سورة	-1941
▁والخ	-1942
ُّ	-1943
▁الآخر	-1944
ينو	-1945
▁الثامن	-1946
▁أُ	-1947
▁لبناني	-1948
▁الوزراء	-1949
▁c	-1950
▁t	-1951
غيل	-1952
▁24	-1953
▁كار	-1954
▁بلاد	-1955
قبل	-1956
▁لب	-1957
▁وث	-1958
▁المعلومات	-1959
اهد	-1960
▁مخ	-1961
▁أفريقيا	-1962
نات	-1963
▁أقل	-1964
▁لويس	-1965
شيد	-1966
▁الإسلامي	-1967
وخ	-1968
▁الفر	-1969
▁الجزيرة	-1970
ur	-1971
▁بالح	-1972
▁فقال	-1973
طق	-1974
▁السلام	-1975
▁أجل	-1976
▁أج	-1977
▁السي	-1978
▁الشخص	-1979
الغ	-1980
▁الحديثة	-1981
▁للق	-1982
▁الثلاث	-1983
▁المجلس	-1984
عا	-1985
رها	-1986
وابط	-1987
▁نقل	-1988
▁تسمى	-1989
اسب	-1990
ديب	-1991
كيل	-1992
▁الأز	-1993
▁التر	-1994
▁النق	-1995
ورات	-1996
▁إليها	-1997
▁d	-1998
لين	-1999
▁بس	-2000
▁بات	-2001
▁الثورة	-2002
▁جاء	-2003
▁عين	-2004
▁الصف	-2005
▁وزير	-2006
▁الشرقية	-2007
▁E	-2008
كثر	-2009
▁عقد	-2010
▁وحدة	-2011
▁الجمهورية	-2012
ّا	-2013
ارا	-2014
ماد	-2015
رحلة	-2016
▁2000	-2017
▁اللا	-2018
▁ويمكن	-2019
▁المجموعة	-2020
ريات	-2021
▁كويتي	-2022
وين	-2023
▁كثير	-2024
▁فلسطيني	-2025
ضمن	-2026
▁الأمر	-2027
طفى	-2028
وست	-2029
▁أط	-2030
▁يعرف	-2031
▁إضافة	-2032
▁كيمياء	-2033
ويات	-2034
لندي	-2035
▁اج	-2036
▁قوات	-2037
▁الموقع	-2038
▁لك	-2039
▁بور	-2040
▁الحزب	-2041
▁القدم	-2042
▁إنجلترا	-2043
راث	-2044
▁لدى	-2045
▁نصف	-2046
▁خالد	-2047
▁منهم	-2048
▁الأدب	-2049
▁بالنسبة	-2050
,000	-2051
▁الوح	-2052
▁الترك	-2053
▁سعودي	-2054
▁وله	-2055
▁القب	-2056
▁23	-2057
▁تخ	-2058
▁برن	-2059
▁رقم	-2060
▁مرك	-2061
▁الكبير	-2062
un	-2063
جب	-2064
ذب	-2065
زوج	-2066
صال	-2067
فسير	-2068
▁العد	-2069
▁ثابت	-2070
قتصادي	-2071
▁سف	-2072
▁الها	-2073
▁إسبانيا	-2074
▁الجنوبية	-2075
ابر	-2076
حاب	-2077
▁جبل	-2078
▁ومد	-2079
▁يحت	-2080
▁آسيا	-2081
▁السلطة	-2082
▁التعليم	-2083
▁ميل	-2084
▁الزي	-2085
ولوجيا	-2086
▁الإيط	-2087
▁مقاطعة	-2088
زن	-2089
▁L	-2090
اهدة	-2091
حدات	-2092
▁المل	-2093
▁سوريا	-2094
اخل	-2095
▁الأب	-2096
ريغوري	-2097
راز	-2098
وتو	-2099
▁22	-2100
طفال	-2101
▁كارل	-2102
▁الجديدة	-2103
▁السياسية	-2104
▁تعد	-2105
▁السابع	-2106
▁برم	-2107
▁عناصر	-2108
▁مساحة	-2109
▁الدولية	-2110
لالة	-2111
يكاني	-2112
▁الأمم	-2113
▁s	-2114
▁للج	-2115
▁مكت	-2116
▁ومح	-2117
▁الحيو	-2118
▁مصادر	-2119
▁خاص	-2120
▁هير	-2121
اسبات	-2122
لاقات	-2123
▁مغني	-2124
تو	-2125
▁G	-2126
وائي	-2127
▁لما	-2128
▁2011	-2129
▁نقطة	-2130
جراء	-2131
▁2017	-2132
▁وكالة	-2133
▁عرض	-2134
▁وتن	-2135
▁الحج	-2136
صى	-2137
لهة	-2138
▁وا	-2139
▁مقد	-2140
▁هند	-2141
▁2004	-2142
▁أعلى	-2143
جهزة	-2144
▁يكن	-2145
▁الرغم	-2146
▁الموسي	-2147
نيف	-2148
تيار	-2149
برى	-2150
لغة	-2151
َة	-2152
قيه	-2153
حداث	-2154
▁توم	-2155
▁لذلك	-2156
▁الحركة	-2157
▁القديم	-2158
تهم	-2159
زين	-2160
وقف	-2161
▁الدي	-2162
▁الكيميائية	-2163
تاح	-2164
فاض	-2165
▁الكل	-2166
▁النم	-2167
▁العدد	-2168
▁الرومانية	-2169
اشا	-2170
اثول	-2171
▁لين	-2172
▁الأردن	-2173
▁إلكترون	-2174
ُم	-2175
اضي	-2176
▁27	-2177
▁قل	-2178
▁100	-2179
تن	-2180
▁N	-2181
▁بف	-2182
▁حي	-2183
▁عبارة	-2184
▁الهيدر	-2185
ذك	-2186
عرف	-2187
▁سطح	-2188
▁مستوى	-2189
▁مصطفى	-2190
سلحة	-2191
سيطة	-2192
▁يبقى	-2193
▁أساس	-2194
▁طالب	-2195
▁يسمى	-2196
ائص	-2197
▁المركز	-2198
شارة	-2199
▁طويل	-2200
ناطيسي	-2201
شة	-2202
▁سلطان	-2203
▁البريطانية	-2204
كب	-2205
مم	-2206
▁لش	-2207
جزاء	-2208
▁2003	-2209
▁عدم	-2210
انيين	-2211
▁2009	-2212
▁أسست	-2213
▁ويس	-2214
▁سلسلة	-2215
▁منظمة	-2216
▁إدوارد	-2217
▁العلوم	-2218
2،	-2219
هير	-2220
▁28	-2221
ائرات	-2222
▁الأر	-2223
▁اللبن	-2224
ig	-2225
op	-2226
قه	-2227
▁26	-2228
▁سبيل	-2229
َر	-2230
▁أمير	-2231
اوي	-2232
▁بمع	-2233
▁البن	-2234
▁السب	-2235
▁الحاسوب	-2236
▁باستخدام	-2237
▁وو	-2238
▁لهم	-2239
▁يجب	-2240
▁دائرة	-2241
نف	-2242
▁شبه	-2243
غو	-2244
▁كلم	-2245
▁للتق	-2246
▁أدى	-2247
▁الجزء	-2248
▁المجال	-2249
▁العلماء	-2250
▁القاهرة	-2251
▁المختلفة	-2252
):	-2253
شأ	-2254
ارف	-2255
احتم	-2256
▁يقول	-2257
▁صغيرة	-2258
▁السودان	-2259
صي	-2260
اولة	-2261
▁صور	-2262
▁فهي	-2263
▁كذلك	-2264
▁F	-2265
صدار	-2266
موذج	-2267
ولاية	-2268
▁اغتيال	-2269
طلب	-2270
كات	-2271
لندا	-2272
▁فهو	-2273
▁المز	-2274
▁التقلي	-2275
▁بقيادة	-2276
تية	-2277
▁حض	-2278
التالي	-2279
▁الشعب	-2280
▁السياسي	-2281
ذهب	-2282
احية	-2283
▁البعض	-2284
▁المصادر	-2285
صابة	-2286
▁للش	-2287
▁2010	-2288
▁الجسم	-2289
▁حكومة	-2290
▁مواقع	-2291
▁وغيرها	-2292
▁العسكرية	-2293
امت	-2294
▁وظ	-2295
ماية	-2296
ولية	-2297
ac	-2298
ويد	-2299
▁يه	-2300
▁وير	-2301
▁وعند	-2302
▁الأصل	-2303
▁تحتوي	-2304
تب	-2305
تمي	-2306
وحة	-2307
يلية	-2308
▁تقوم	-2309
ناطيسية	-2310
▁الجديد	-2311
مار	-2312
اشرة	-2313
▁لتح	-2314
▁المط	-2315
▁المو	-2316
▁إنتاج	-2317
▁184	-2318
▁مات	-2319
▁الكون	-2320
▁الكتاب	-2321
خة	-2322
هدف	-2323
▁يقع	-2324
▁1980	-2325
▁العق	-2326
▁p	-2327
ثمان	-2328
▁2005	-2329
▁مختلف	-2330
▁الحالة	-2331
▁بريطاني	-2332
▁السف	-2333
▁النب	-2334
جين	-2335
ماً	-2336
▁مط	-2337
جيات	-2338
▁جان	-2339
et	-2340
لد	-2341
بيض	-2342
▁29	-2343
▁آن	-2344
لاحظ	-2345
▁جعل	-2346
▁لبنان	-2347
▁وشاعر	-2348
am	-2349
ent	-2350
برز	-2351
اليوم	-2352
▁أمام	-2353
ديل	-2354
قاً	-2355
▁تضم	-2356
▁مون	-2357
▁الأكبر	-2358
▁العشرين	-2359
▁ميلادية	-2360
جمه	-2361
لاط	-2362
▁لس	-2363
▁مز	-2364
▁وتش	-2365
▁النوع	-2366
ابي	-2367
▁عُ	-2368
▁نف	-2369
ماعة	-2370
▁2015	-2371
▁الحض	-2372
▁مملكة	-2373
وقي	-2374
▁الديم	-2375
▁ارتفاع	-2376
ره	-2377
▁حساب	-2378
▁الأمن	-2379
▁معروف	-2380
غال	-2381
▁قاد	-2382
▁جبال	-2383
▁الإمبراطور	-2384
انو	-2385
عام	-2386
▁جام	-2387
▁أسماء	-2388
▁الاعت	-2389
▁رح	-2390
▁الحك	-2391
▁استقلال	-2392
ولت	-2393
▁وفاته	-2394
▁الانتخابات	-2395
12	-2396
ائم	-2397
احب	-2398
▁وان	-2399
▁الغرب	-2400
▁الحدود	-2401
▁المثال	-2402
شد	-2403
قوط	-2404
▁قرية	-2405
غرافيا	-2406
▁الحسن	-2407
▁النهر	-2408
▁المحيط	-2409
BC	-2410
▁||	-2411
▁وآ	-2412
▁الأحمر	-2413
الى	-2414
ضية	-2415
طيع	-2416
وانين	-2417
▁الزمن	-2418
▁المتوسط	-2419
فيذ	-2420
▁لص	-2421
▁يعد	-2422
▁الأسب	-2423
▁طائرة	-2424
18	-2425
سع	-2426
ثيل	-2427
طاق	-2428
▁أرض	-2429
▁ألك	-2430
▁للب	-2431
▁سليمان	-2432
افي	-2433
فضل	-2434
▁بذلك	-2435
▁والر	-2436
▁المياه	-2437
ائه	-2438
اين	-2439
تقد	-2440
جية	-2441
مثل	-2442
▁بب	-2443
عددة	-2444
▁ويل	-2445
▁التك	-2446
▁طاقة	-2447
▁إنشاء	-2448
▁الكبيسة	-2449
14	-2450
قلاب	-2451
ياسي	-2452
▁ستي	-2453
▁عصر	-2454
▁جانب	-2455
▁اكتشاف	-2456
َم	-2457
ناة	-2458
▁هم	-2459
▁ثورة	-2460
▁طريقة	-2461
▁مغنية	-2462
▁تأسيسات	-2463
رنت	-2464
مسة	-2465
حيان	-2466
▁ومؤ	-2467
ائرية	-2468
▁المخ	-2469
▁قائد	-2470
▁أمريكا	-2471
بنى	-2472
▁يأ	-2473
صلاح	-2474
▁دمشق	-2475
▁عنها	-2476
▁وبال	-2477
▁كانوا	-2478
▁العراقي	-2479
as	-2480
▁لغ	-2481
▁2006	-2482
▁الشكل	-2483
▁نتيجة	-2484
re	-2485
ro	-2486
غيير	-2487
▁فان	-2488
غن	-2489
▁بنت	-2490
▁لانت	-2491
▁الألمانية	-2492
25	-2493
▁1.	-2494
▁قت	-2495
واجد	-2496
▁كري	-2497
▁1991	-2498
▁الأق	-2499
▁المادة	-2500
تع	-2501
ــ	-2502
وليد	-2503
ومتر	-2504
▁كوب	-2505
▁يصل	-2506
▁1979	-2507
▁التأ	-2508
▁جيمس	-2509
▁قامت	-2510
دف	-2511
ِن	-2512
ادم	-2513
زمة	-2514
▁متح	-2515
▁أعياد	-2516
▁الإسرائيلي	-2517
ابه	-2518
سكي	-2519
يكا	-2520
▁كات	-2521
▁ملا	-2522
▁1981	-2523
ad	-2524
us	-2525
ذور	-2526
ريش	-2527
لاة	-2528
ورو	-2529
▁روا	-2530
▁لدي	-2531
▁نشر	-2532
▁غالب	-2533
▁ماري	-2534
▁الأنباء	-2535
▁الرئيسية	-2536
▁عز	-2537
كتور	-2538
▁رجل	-2539
▁2008	-2540
▁إدارة	-2541
ريطانيا	-2542
▁الشرقي	-2543
▁التالية	-2544
▁الرئيسي	-2545
▁185	-2546
▁بحر	-2547
▁البد	-2548
▁أعلام	-2549
▁الداخل	-2550
▁المناخ	-2551
▁إيطاليا	-2552
▁الموجودة	-2553
▁الاستقلال	-2554
جيل	-2555
رمز	-2556
▁قوة	-2557
▁النف	-2558
▁والده	-2559
▁القطري	-2560
and	-2561
▁قدي	-2562
▁وتق	-2563
▁بحيث	-2564
▁يعمل	-2565
▁للتقويم	-2566
يمز	-2567
▁حصل	-2568
▁سعد	-2569
▁قياس	-2570
▁وكاتب	-2571
ريقية	-2572
▁سرعة	-2573
▁مدرسة	-2574
▁سكانها	-2575
تان	-2576
خفض	-2577
▁(18	-2578
▁BBC	-2579
▁سير	-2580
▁لمن	-2581
▁1982	-2582
▁تطوير	-2583
َي	-2584
حيح	-2585
زاب	-2586
هام	-2587
▁سعود	-2588
▁إعادة	-2589
▁الإسب	-2590
▁صناعة	-2591
▁مأهولة	-2592
شل	-2593
▁تؤ	-2594
▁نم	-2595
ستخدم	-2596
▁الإق	-2597
▁لمدة	-2598
▁وأصبح	-2599
▁\	-2600
▁والغ	-2601
▁استمر	-2602
▁بغداد	-2603
▁تأثير	-2604
▁الأساسية	-2605
▁K	-2606
مون	-2607
▁ذو	-2608
صائص	-2609
فاعلات	-2610
▁دخل	-2611
▁نيك	-2612
▁مؤلف	-2613
▁واله	-2614
▁الضوء	-2615
▁الفلسطينية	-2616
ّن	-2617
▁1973	-2618
▁باشا	-2619
▁وانت	-2620
▁إيران	-2621
▁إمبراط	-2622
▁الشعبية	-2623
▁اخ	-2624
اعات	-2625
ينيا	-2626
▁2016	-2627
▁أربعة	-2628
الغريغوري	-2629
▁بان	-2630
▁قصر	-2631
▁2012	-2632
▁الشي	-2633
▁يعود	-2634
▁المحافظة	-2635
▁نت	-2636
▁تمت	-2637
▁حيو	-2638
▁قتل	-2639
▁بالس	-2640
▁المرت	-2641
▁باريس	-2642
▁الأراضي	-2643
حدد	-2644
وجود	-2645
▁سان	-2646
▁فار	-2647
حم	-2648
ديات	-2649
▁مشت	-2650
▁الدم	-2651
▁لهذا	-2652
▁معينة	-2653
▁ومناسبات	-2654
وفة	-2655
▁قطر	-2656
▁معل	-2657
▁الساح	-2658
▁بعدها	-2659
جير	-2660
قسم	-2661
▁نسب	-2662
▁حدود	-2663
▁البرم	-2664
▁البشر	-2665
▁الإمام	-2666
حاء	-2667
بلوم	-2668
▁تنا	-2669
▁ماي	-2670
▁أفضل	-2671
▁نادي	-2672
▁التفاعل	-2673
اجة	-2674
يمان	-2675
▁كلية	-2676
ّر	-2677
هاد	-2678
وام	-2679
كوين	-2680
▁اتفاق	-2681
تز	-2682
▁0	-2683
▁o	-2684
▁الحل	-2685
▁العض	-2686
▁وادي	-2687
▁بلدية	-2688
▁تحديد	-2689
▁روسيا	-2690
▁وهناك	-2691
▁البروت	-2692
▁الرسمي	-2693
▁الاقتصادية	-2694
ادن	-2695
بين	-2696
▁بري	-2697
▁روبرت	-2698
▁البيانات	-2699
سو	-2700
ّل	-2701
روي	-2702
▁بِ	-2703
▁تنت	-2704
▁محد	-2705
▁الأسود	-2706
▁الكهربائية	-2707
▁أور	-2708
▁لإن	-2709
▁قيمة	-2710
▁يوما	-2711
▁الطبيعية	-2712
...	-2713
ندن	-2714
يتها	-2715
▁أوس	-2716
▁1977	-2717
▁السن	-2718
▁النو	-2719
▁تعمل	-2720
▁يزيد	-2721
▁الأما	-2722
▁الأبيض	-2723
▁الكبرى	-2724
▁الديمقرا	-2725
راح	-2726
راءة	-2727
▁شيء	-2728
▁1990	-2729
▁تايمز	-2730
id	-2731
▁1989	-2732
▁الأث	-2733
سس	-2734
▁+	-2735
▁1992	-2736
▁يطلق	-2737
▁النسب	-2738
أو	-2739
قرار	-2740
▁خري	-2741
▁تعريف	-2742
▁الأكثر	-2743
▁الخارجية	-2744
▁الفلسطيني	-2745
60	-2746
▁بكر	-2747
▁تمثل	-2748
▁وبين	-2749
▁يحتوي	-2750
▁استخدم	-2751
ازي	-2752
▁عق	-2753
▁نو	-2754
▁أمر	-2755
▁نور	-2756
▁ثاني	-2757
▁لأول	-2758
▁اليابانية	-2759
أمة	-2760
▁مان	-2761
▁1984	-2762
▁صالح	-2763
▁إقليم	-2764
▁والمع	-2765
▁العليا	-2766
um	-2767
قق	-2768
رجنت	-2769
▁وجه	-2770
▁الأعداد	-2771
رر	-2772
فاء	-2773
▁أخذ	-2774
▁صوت	-2775
▁1974	-2776
▁موسى	-2777
▁المعد	-2778
▁دراسة	-2779
▁الملكية	-2780
زون	-2781
▁سا	-2782
ادات	-2783
حافظة	-2784
▁أداء	-2785
▁الكنيسة	-2786
▁القطريَّة	-2787
ضح	-2788
ائج	-2789
لاك	-2790
رجات	-2791
▁اللات	-2792
▁البحرية	-2793
نائي	-2794
▁1975	-2795
▁تقريب	-2796
▁البرلمان	-2797
دري	-2798
هاب	-2799
يسي	-2800
▁2020	-2801
▁تطبي	-2802
▁وهذه	-2803
▁بيروت	-2804
▁V	-2805
▁m	-2806
جميع	-2807
▁فون	-2808
▁مكون	-2809
حب	-2810
قدر	-2811
ميز	-2812
▁ليب	-2813
قاليم	-2814
▁2018	-2815
▁بأنه	-2816
▁الحديد	-2817
11	-2818
احث	-2819
يته	-2820
▁1948	-2821
▁تعني	-2822
▁البار	-2823
▁العهد	-2824
▁الواق	-2825
▁حرارة	-2826
▁العصور	-2827
▁وبالتالي	-2828
قول	-2829
▁تغ	-2830
▁ملي	-2831
▁الأعمال	-2832
▁الألماني	-2833
خي	-2834
ذر	-2835
▁[	-2836
▁b	-2837
ربط	-2838
علق	-2839
قار	-2840
▁جهاز	-2841
▁الأند	-2842
▁تنظيم	-2843
▁التالي	-2844
راغ	-2845
ضاف	-2846
وبي	-2847
▁مستق	-2848
▁الشعر	-2849
▁الفلك	-2850
▁التاريخية	-2851
▁جدا	-2852
راسات	-2853
▁2007	-2854
▁البرت	-2855
▁يومًا	-2856
▁التقويم	-2857
▁النيويورك	-2858
il	-2859
ْن	-2860
▁f	-2861
هوم	-2862
▁افت	-2863
▁عشرة	-2864
▁القدس	-2865
▁انتخاب	-2866
وشي	-2867
قافة	-2868
ونيا	-2869
▁رسام	-2870
▁وسام	-2871
▁وقوع	-2872
▁رؤساء	-2873
-2	-2874
▁حال	-2875
▁متن	-2876
جمهورية	-2877
▁n	-2878
ائع	-2879
عود	-2880
▁إله	-2881
▁يؤدي	-2882
▁عثمان	-2883
خول	-2884
ذية	-2885
واف	-2886
▁وجد	-2887
▁ويتم	-2888
▁ثانية	-2889
الع	-2890
درس	-2891
طور	-2892
▁31	-2893
يرية	-2894
▁عرب	-2895
▁1988	-2896
▁تشكل	-2897
▁عباس	-2898
ماعيل	-2899
▁2014	-2900
▁القص	-2901
▁رسول	-2902
▁ويلي	-2903
▁الأعلى	-2904
▁اليهود	-2905
▁الرومان	-2906
الج	-2907
▁نص	-2908
اسعة	-2909
▁واش	-2910
▁آثار	-2911
▁كامل	-2912
شكل	-2913
طاع	-2914
لائ	-2915
▁عاش	-2916
▁الهي	-2917
▁سيدي	-2918
▁البسيطة	-2919
▁الإنجليزية	-2920
برية	-2921
نائية	-2922
▁1967	-2923
▁تعرف	-2924
شاط	-2925
▁جيش	-2926
▁حجم	-2927
وائية	-2928
▁1945	-2929
▁1976	-2930
▁مادة	-2931
▁إطلاق	-2932
▁الكتلة	-2933
▁العسكري	-2934
ترف	-2935
ريح	-2936
كند	-2937
▁(3	-2938
▁وبعض	-2939
▁كثيرة	-2940
15	-2941
▁للس	-2942
▁وكل	-2943
▁مربع	-2944
▁توأمة	-2945
70	-2946
ارض	-2947
ريع	-2948
هرة	-2949
▁1960	-2950
▁اليه	-2951
▁المجتمع	-2952
▁أمريكيون	-2953
افر	-2954
برة	-2955
▁بمن	-2956
▁1978	-2957
▁بريطانيا	-2958
يار	-2959
▁حرف	-2960
▁1969	-2961
▁1986	-2962
▁روابط	-2963
▁رئيسًا	-2964
▁زمن	-2965
▁فلا	-2966
▁كيف	-2967
▁2021	-2968
▁أستر	-2969
▁كهرب	-2970
▁سياسية	-2971
22	-2972
اعي	-2973
صلة	-2974
▁آر	-2975
▁حياة	-2976
▁يعني	-2977
اديمية	-2978
▁شعراء	-2979
▁مصطلح	-2980
رائيلية	-2981
▁الأخير	-2982
ed	-2983
iv	-2984
▁%	-2985
ing	-2986
خصص	-2987
يزن	-2988
واخر	-2989
▁قدر	-2990
▁عامة	-2991
▁أنحاء	-2992
▁الخلا	-2993
▁الكريم	-2994
كد	-2995
▁تصل	-2996
▁أمين	-2997
▁انته	-2998
▁بالف	-2999
▁لندن	-3000
▁نائب	-3001
▁اجتما	-3002
▁مشروع	-3003
▁بدء	-3004
▁2013	-3005
▁عنصر	-3006
زيائية	-3007
▁الرياضيات	-3008
13	-3009
رو	-3010
▁اند	-3011
▁لقب	-3012
▁2001	-3013
▁أقدم	-3014
▁الأقل	-3015
▁إفريقيا	-3016
="	-3017
لو	-3018
جاز	-3019
ولف	-3020
▁179	-3021
▁1983	-3022
▁1987	-3023
▁الكه	-3024
▁بروت	-3025
▁سانت	-3026
▁قيام	-3027
▁إسباني	-3028
طع	-3029
▁<	-3030
▁سك	-3031
▁السك	-3032
▁معرض	-3033
▁النات	-3034
▁باللغة	-3035
علوم	-3036
واعد	-3037
يطرة	-3038
▁سيد	-3039
▁للف	-3040
▁تونس	-3041
▁لأنه	-3042
▁أنظمة	-3043
▁خليفة	-3044
▁عربية	-3045
▁الكبيرة	-3046
عيد	-3047
قرأ	-3048
ظاهر	-3049
▁أربع	-3050
▁النس	-3051
▁سقوط	-3052
▁الشام	-3053
▁الضغط	-3054
▁الموس	-3055
▁نباتات	-3056
ـ«	-3057
▁لله	-3058
▁1971	-3059
▁2019	-3060
▁التجارية	-3061
▁السوفيتي	-3062
▁الإسرائيلية	-3063
-19	-3064
اصط	-3065
▁بون	-3066
▁رسم	-3067
▁الجدول	-3068
▁معاهدة	-3069
▁الأوروبي	-3070
شب	-3071
▁يا	-3072
سرعة	-3073
لسفة	-3074
▁183	-3075
▁جمع	-3076
▁الأل	-3077
▁التف	-3078
▁شبكة	-3079
▁فإنه	-3080
▁تعالى	-3081
▁العنصر	-3082
▁الثقافة	-3083
▁الكاثول	-3084
طاء	-3085
يرو	-3086
▁وهم	-3087
صالات	-3088
▁التيار	-3089
▁بالقرب	-3090
ْر	-3091
▁W	-3092
جري	-3093
▁اتجاه	-3094
▁ومنها	-3095
يكانيكا	-3096
▁إسماعيل	-3097
▁الأخيرة	-3098
▁الثالثة	-3099
▁الرابطة	-3100
غا	-3101
سلم	-3102
▁حك	-3103
▁لهذه	-3104
▁عالية	-3105
▁مباشرة	-3106
80	-3107
بان	-3108
خدمة	-3109
▁قصة	-3110
▁كلا	-3111
▁1970	-3112
▁الفضاء	-3113
▁كيلومتر	-3114
حق	-3115
َب	-3116
ُل	-3117
امر	-3118
▁اع	-3119
دمات	-3120
▁180	-3121
▁البط	-3122
▁بهذا	-3123
▁وحتى	-3124
▁الغاز	-3125
▁المنت	-3126
▁ميناء	-3127
ذاك	-3128
▁نا	-3129
▁شهد	-3130
▁مال	-3131
▁طبيب	-3132
▁الخاص	-3133
▁اقتصاد	-3134
▁ويليام	-3135
40	-3136
بول	-3137
▁اق	-3138
▁دو	-3139
ريبة	-3140
▁أسب	-3141
ادلات	-3142
▁1965	-3143
▁تبلغ	-3144
▁فقيه	-3145
▁أهمية	-3146
▁الصباح	-3147
▁المستوى	-3148
خم	-3149
▁فق	-3150
ادرة	-3151
▁باب	-3152
▁عاص	-3153
▁1994	-3154
▁فريد	-3155
ارتفاع	-3156
▁تتكون	-3157
ag	-3158
وها	-3159
▁نب	-3160
شرون	-3161
▁نشأ	-3162
▁الرب	-3163
▁المحلية	-3164
زيغ	-3165
هتم	-3166
يمون	-3167
▁تيم	-3168
▁أديب	-3169
▁بالر	-3170
▁هيئة	-3171
▁المال	-3172
▁الداخلية	-3173
ul	-3174
ائف	-3175
انس	-3176
بري	-3177
ندس	-3178
اركة	-3179
ريقي	-3180
هران	-3181
▁الأه	-3182
▁حديث	-3183
▁مسجد	-3184
▁الشيو	-3185
▁خريجو	-3186
▁موسيقي	-3187
▁الروسية	-3188
▁لانتهاء	-3189
َا	-3190
بعة	-3191
فال	-3192
يدا	-3193
▁فري	-3194
▁1996	-3195
▁تغير	-3196
▁ليست	-3197
▁والمن	-3198
▁المسجد	-3199
▁الدينية	-3200
▁رياضيات	-3201
ht	-3202
▁يخ	-3203
▁مثال	-3204
▁والط	-3205
▁المشت	-3206
▁برنامج	-3207
▁متعددة	-3208
هن	-3209
كور	-3210
▁صد	-3211
ائمة	-3212
▁1999	-3213
▁قاعدة	-3214
شن	-3215
قف	-3216
تال	-3217
دات	-3218
سمح	-3219
▁اث	-3220
رافي	-3221
راكز	-3222
▁الور	-3223
▁الجمه	-3224
▁النار	-3225
▁عديدة	-3226
▁يساوي	-3227
▁الدوري	-3228
▁الرسمية	-3229
▁الصينية	-3230
بس	-3231
َع	-3232
الأ	-3233
شرق	-3234
صرف	-3235
كين	-3236
وافق	-3237
▁جزر	-3238
▁طرق	-3239
▁فير	-3240
▁ياس	-3241
▁الطريق	-3242
▁السابقة	-3243
▁of	-3244
اعية	-3245
سلسل	-3246
▁مقر	-3247
▁البو	-3248
▁ظهور	-3249
▁الحسين	-3250
▁التسمية	-3251
ربيع	-3252
▁1985	-3253
▁أطلق	-3254
▁الرم	-3255
▁عمرو	-3256
▁القوة	-3257
▁طويلة	-3258
ادق	-3259
اكا	-3260
بدو	-3261
▁1998	-3262
▁أصول	-3263
▁ظهرت	-3264
▁النظرية	-3265
جنة	-3266
سيط	-3267
يغة	-3268
ابلة	-3269
ارضة	-3270
▁الإغ	-3271
▁الاش	-3272
▁عمليات	-3273
▁العملية	-3274
▁التقليدية	-3275
ْت	-3276
خار	-3277
ضرب	-3278
اسبة	-3279
هروم	-3280
▁أسس	-3281
▁سين	-3282
▁منح	-3283
▁ناب	-3284
▁ينت	-3285
▁جمال	-3286
▁صلاح	-3287
▁آخرين	-3288
▁المؤس	-3289
▁بعضها	-3290
▁نفسها	-3291
▁الجزائري	-3292
نط	-3293
سكر	-3294
يان	-3295
سلوب	-3296
▁صاحب	-3297
▁الهندسة	-3298
▁العلاقات	-3299
17	-3300
الق	-3301
وكس	-3302
افظات	-3303
ينيات	-3304
▁1964	-3305
▁جوزي	-3306
▁رئاسة	-3307
▁الجامعة	-3308
▁الشمالي	-3309
▁تكن	-3310
▁قرب	-3311
▁وأد	-3312
قاومة	-3313
▁كتلة	-3314
▁مطار	-3315
▁العظم	-3316
▁ومدرب	-3317
2)	-3318
طول	-3319
واح	-3320
يسى	-3321
▁حس	-3322
▁لر	-3323
▁أرد	-3324
▁اسمه	-3325
▁أجزاء	-3326
▁إجراء	-3327
▁شركات	-3328
▁يتكون	-3329
▁مجموعات	-3330
ؤول	-3331
▁عاد	-3332
▁للغ	-3333
▁صوتي	-3334
▁يحدث	-3335
ولايات	-3336
▁أواخر	-3337
▁الطرق	-3338
ut	-3339
ترع	-3340
▁للص	-3341
▁واض	-3342
▁الأغ	-3343
▁المئ	-3344
▁مخرج	-3345
▁وليس	-3346
os	-3347
ثرة	-3348
▁50	-3349
▁برج	-3350
▁رمز	-3351
▁تحمل	-3352
▁فكان	-3353
▁لكرة	-3354
▁يعلن	-3355
▁الصلي	-3356
▁القمر	-3357
▁فرانس	-3358
▁الجوية	-3359
▁التحرير	-3360
ؤون	-3361
ديو	-3362
قاء	-3363
لفة	-3364
▁جزي	-3365
▁حمل	-3366
▁رغم	-3367
▁قرط	-3368
▁1946	-3369
▁صورة	-3370
▁يمثل	-3371
▁دولار	-3372
▁النسبية	-3373
78	-3374
▁زم	-3375
ارلز	-3376
راعة	-3377
▁أوب	-3378
▁باك	-3379
▁مول	-3380
▁وأم	-3381
▁1958	-3382
▁ملوك	-3383
▁الآية	-3384
▁الإله	-3385
▁تعتمد	-3386
▁توماس	-3387
▁سورية	-3388
▁عائلة	-3389
▁العراقية	-3390
▁فك	-3391
لعاب	-3392
▁طلب	-3393
▁مسي	-3394
▁أغلب	-3395
▁التد	-3396
▁موري	-3397
▁أفراد	-3398
▁الدورة	-3399
▁عسكرية	-3400
▁الخليفة	-3401
▁الصغيرة	-3402
▁الجسيمات	-3403
ذن	-3404
ّه	-3405
ضيق	-3406
قاد	-3407
▁بث	-3408
ريبا	-3409
نيات	-3410
▁ألب	-3411
▁فعل	-3412
هرومغ	-3413
▁صناع	-3414
▁يجعل	-3415
▁بينها	-3416
نق	-3417
ِل	-3418
زات	-3419
ندر	-3420
ولات	-3421
▁عضو	-3422
▁هنا	-3423
▁وات	-3424
▁معين	-3425
▁أراضي	-3426
▁تحويل	-3427
▁الإنترنت	-3428
َت	-3429
▁مئ	-3430
▁1949	-3431
▁تفسير	-3432
▁الخليج	-3433
ائها	-3434
▁صدر	-3435
▁هار	-3436
▁1956	-3437
▁التم	-3438
▁والز	-3439
جهة	-3440
داء	-3441
ًّا	-3442
▁رأ	-3443
ظمات	-3444
لفات	-3445
▁موت	-3446
▁1953	-3447
▁انتقل	-3448
حر	-3449
بره	-3450
▁قلي	-3451
▁التب	-3452
▁قادة	-3453
▁لاست	-3454
كندرية	-3455
▁كريست	-3456
▁الأندلس	-3457
▁السياحة	-3458
▁انتخابات	-3459
sis	-3460
طوير	-3461
▁بلا	-3462
▁وأي	-3463
▁1995	-3464
▁الرئ	-3465
▁المض	-3466
▁تعلن	-3467
الجة	-3468
اليف	-3469
ظروف	-3470
وزيع	-3471
▁رفض	-3472
▁شاه	-3473
▁نجد	-3474
زيائي	-3475
▁1963	-3476
▁تعرض	-3477
▁قرار	-3478
▁أنهار	-3479
▁زيادة	-3480
▁للسلام	-3481
▁بيل	-3482
▁الشه	-3483
▁كمية	-3484
▁التجارة	-3485
16	-3486
تة	-3487
ايا	-3488
ائدة	-3489
▁فصل	-3490
▁مرا	-3491
▁2022	-3492
▁بالك	-3493
▁روسي	-3494
▁مالك	-3495
▁تسمية	-3496
▁الأسرة	-3497
▁المؤرخ	-3498
▁المسيحية	-3499
36	-3500
بهة	-3501
صاص	-3502
عبة	-3503
اريا	-3504
عبير	-3505
▁انف	-3506
▁جهة	-3507
▁خمس	-3508
▁طرف	-3509
▁هام	-3510
شتاين	-3511
▁درجات	-3512
▁الشريف	-3513
▁الطائرة	-3514
▁الطبيعة	-3515
▁الكربون	-3516
ظة	-3517
َو	-3518
حنة	-3519
لبة	-3520
▁40	-3521
▁إخ	-3522
قيات	-3523
ونسي	-3524
▁معه	-3525
▁1961	-3526
▁1972	-3527
▁كتابة	-3528
▁الاجتماعية	-3529
ادث	-3530
جلس	-3531
يدو	-3532
▁جر	-3533
عدام	-3534
▁رائ	-3535
▁قسم	-3536
▁1997	-3537
▁لكنه	-3538
▁يظهر	-3539
▁الاحتلال	-3540
ورين	-3541
▁واج	-3542
▁العمر	-3543
▁هندسة	-3544
▁وزارة	-3545
▁الكيميائي	-3546
24	-3547
▁كأ	-3548
راست	-3549
▁اقت	-3550
ation	-3551
▁الفل	-3552
▁رسمي	-3553
▁قناة	-3554
▁نطاق	-3555
▁الرسول	-3556
ّم	-3557
نيع	-3558
ترات	-3559
▁جاك	-3560
▁هيل	-3561
▁2002	-3562
▁مارت	-3563
▁النيل	-3564
▁عليهم	-3565
▁المكان	-3566
▁الجنوبي	-3567
▁الإيطالية	-3568
ذة	-3569
ّد	-3570
▁,	-3571
رال	-3572
فاف	-3573
وتن	-3574
ونه	-3575
يتو	-3576
بورغ	-3577
▁محل	-3578
▁مكة	-3579
▁الجي	-3580
▁الذه	-3581
▁بنفس	-3582
▁خمسة	-3583
احتمال	-3584
▁وسياسي	-3585
جع	-3586
بيا	-3587
ترح	-3588
فاظ	-3589
▁2.	-3590
▁فم	-3591
▁يك	-3592
▁سبب	-3593
▁فرع	-3594
▁ورد	-3595
▁فيليب	-3596
▁النمسا	-3597
▁الروماني	-3598
ct	-3599
▁O	-3600
ابد	-3601
حصاء	-3602
ريعة	-3603
▁جسم	-3604
▁فوز	-3605
▁للط	-3606
▁منف	-3607
اطعات	-3608
▁الحب	-3609
▁سابق	-3610
▁تصميم	-3611
▁علاقة	-3612
▁انتهاء	-3613
▁تشارلز	-3614
▁الدستور	-3615
▁الأوروبية	-3616
ترض	-3617
لقى	-3618
هات	-3619
▁كا	-3620
▁تشت	-3621
▁نيو	-3622
▁التس	-3623
▁الهر	-3624
▁ريتش	-3625
▁فيلم	-3626
▁تعليم	-3627
▁الأصلي	-3628
▁الذرية	-3629
▁القرية	-3630
▁النواب	-3631
▁يابانية	-3632
▁المعروفة	-3633
▁جع	-3634
▁بوس	-3635
▁مخت	-3636
إنجلي	-3637
▁العش	-3638
▁الغذ	-3639
▁الإير	-3640
▁الكلمة	-3641
▁الواقع	-3642
اشر	-3643
عمر	-3644
▁ير	-3645
▁1952	-3646
▁وقام	-3647
▁أشكال	-3648
▁المحت	-3649
▁السورة	-3650
▁الإنتاج	-3651
انه	-3652
كلي	-3653
مين	-3654
▁ماس	-3655
طلحات	-3656
▁1941	-3657
▁اقرأ	-3658
▁تشير	-3659
▁حاكم	-3660
▁السيد	-3661
▁تشكيل	-3662
▁أعماله	-3663
▁إيراني	-3664
▁التشري	-3665
▁الرياضية	-3666
▁الجزائرية	-3667
em	-3668
اكل	-3669
عدم	-3670
ناه	-3671
اكمة	-3672
مائة	-3673
وسيا	-3674
▁مفت	-3675
▁ابنه	-3676
▁الدن	-3677
▁القل	-3678
▁بدون	-3679
▁مؤسس	-3680
▁ويست	-3681
ab	-3682
ri	-3683
اره	-3684
تاء	-3685
لمي	-3686
هري	-3687
▁يل	-3688
▁انح	-3689
▁هما	-3690
▁وعدد	-3691
▁ليبيا	-3692
▁متوسط	-3693
▁اختيار	-3694
▁الآثار	-3695
▁الحادي	-3696
▁محاولة	-3697
▁الجمعية	-3698
▁المسلمون	-3699
ضان	-3700
وند	-3701
علقة	-3702
▁زيد	-3703
اذبية	-3704
▁أبرز	-3705
▁الشاعر	-3706
▁الإعلان	-3707
▁الزراعة	-3708
▁الهيدروجين	-3709
شو	-3710
ّى	-3711
راس	-3712
واي	-3713
وكا	-3714
▁إح	-3715
▁شم	-3716
رتبط	-3717
▁أست	-3718
▁أير	-3719
▁حمد	-3720
▁1947	-3721
▁الحس	-3722
▁تشمل	-3723
▁إعلان	-3724
▁هولندي	-3725
89	-3726
جدية	-3727
▁ومس	-3728
▁بحيرة	-3729
▁عامًا	-3730
▁الأوسط	-3731
▁السوري	-3732
▁الملكة	-3733
▁استعمال	-3734
▁المساحة	-3735
▁الإلكترونات	-3736
زر	-3737
ائن	-3738
بيه	-3739
داب	-3740
قطع	-3741
كذا	-3742
واس	-3743
ويدي	-3744
▁شعب	-3745
▁1968	-3746
▁دالة	-3747
▁مقابل	-3748
▁الذرات	-3749
▁العثماني	-3750
64	-3751
ثلث	-3752
عوة	-3753
▁أنط	-3754
▁للر	-3755
▁البش	-3756
▁تعود	-3757
▁مارك	-3758
▁الجبل	-3759
▁الحقي	-3760
▁افتتاح	-3761
▁حاصلون	-3762
▁الكهربائي	-3763
29	-3764
75	-3765
اجد	-3766
شرف	-3767
ساهم	-3768
▁ترا	-3769
▁كوم	-3770
▁لمع	-3771
▁1954	-3772
▁المئة	-3773
▁يعتقد	-3774
▁والاست	-3775
▁وتعتبر	-3776
▁المرحلة	-3777
35	-3778
ْم	-3779
وكو	-3780
▁إع	-3781
تجات	-3782
▁مصدر	-3783
▁الاخت	-3784
▁بمعنى	-3785
▁ترتيب	-3786
▁منتصف	-3787
▁اليونان	-3788
ثو	-3789
خال	-3790
قيع	-3791
▁بز	-3792
▁شك	-3793
▁ظل	-3794
▁فإ	-3795
▁فض	-3796
▁وَ	-3797
افات	-3798
رقام	-3799
▁إيف	-3800
▁تور	-3801
▁يلي	-3802
▁1950	-3803
▁بالد	-3804
▁الألب	-3805
▁البدا	-3806
▁كتابه	-3807
لمات	-3808
ونيس	-3809
▁ويع	-3810
ضى	-3811
▁J	-3812
ياف	-3813
لزال	-3814
هداف	-3815
وبية	-3816
▁ضرب	-3817
▁تطور	-3818
▁تقدم	-3819
▁عيسى	-3820
▁مساح	-3821
▁برامج	-3822
▁بسرعة	-3823
▁قيادة	-3824
▁التراث	-3825
▁الحالي	-3826
▁الوحدة	-3827
▁ويعتبر	-3828
ؤاد	-3829
ارق	-3830
▁60	-3831
▁يغ	-3832
امين	-3833
عمار	-3834
قافي	-3835
قلية	-3836
▁1966	-3837
▁أوائل	-3838
▁خصائص	-3839
▁ويوجد	-3840
▁الدفاع	-3841
▁السورية	-3842
▁العمليات	-3843
3)	-3844
بيب	-3845
اصيل	-3846
هاجر	-3847
يسان	-3848
▁كور	-3849
▁كين	-3850
▁اسكت	-3851
▁الرق	-3852
▁بأنها	-3853
▁سابقة	-3854
27	-3855
67	-3856
هُ	-3857
انع	-3858
حمد	-3859
▁جو	-3860
اسفة	-3861
البة	-3862
▁ويُ	-3863
▁أعلن	-3864
▁باعت	-3865
▁عرفت	-3866
▁مثلا	-3867
▁معهد	-3868
▁مهمة	-3869
▁يحمل	-3870
▁المجموع	-3871
▁عص	-3872
▁وض	-3873
وحات	-3874
▁إثر	-3875
▁ميت	-3876
▁الأج	-3877
▁بدور	-3878
▁صحيح	-3879
▁آنذاك	-3880
▁السبع	-3881
▁النفس	-3882
▁يعتمد	-3883
▁بمدينة	-3884
لح	-3885
ادت	-3886
واصل	-3887
▁إست	-3888
▁هان	-3889
▁1962	-3890
▁المكت	-3891
▁تحقيق	-3892
▁تعيين	-3893
▁مؤتمر	-3894
▁ولكنه	-3895
▁الأولية	-3896
▁ريتشارد	-3897
▁الصناعية	-3898
اكي	-3899
▁تز	-3900
▁مرض	-3901
▁أسرة	-3902
▁النح	-3903
▁فيصل	-3904
▁الإنس	-3905
▁البيت	-3906
▁المعم	-3907
▁سياسيون	-3908
▁الكاثوليكية	-3909
ديق	-3910
ضوع	-3911
ناف	-3912
▁از	-3913
▁بصف	-3914
▁1993	-3915
▁آلاف	-3916
▁الفق	-3917
▁الكتب	-3918
▁المطل	-3919
▁النقل	-3920
▁جوزيف	-3921
▁وإصابة	-3922
▁العلمية	-3923
▁الواقعة	-3924
▁معلومات	-3925
وتر	-3926
▁أت	-3927
▁بخ	-3928
▁لط	-3929
وامل	-3930
▁أثر	-3931
▁ذرة	-3932
▁وحد	-3933
▁تتميز	-3934
▁ورئيس	-3935
َد	-3936
ضيع	-3937
ويا	-3938
▁ته	-3939
رسال	-3940
▁لقد	-3941
لالات	-3942
▁1944	-3943
▁مالي	-3944
▁نشاط	-3945
▁كنيسة	-3946
غانستان	-3947
26	-3948
ُر	-3949
▁{	-3950
اطع	-3951
فيل	-3952
ثناء	-3953
هادة	-3954
▁كأس	-3955
▁1939	-3956
▁1957	-3957
▁تظهر	-3958
▁سويس	-3959
▁واسع	-3960
▁مصريون	-3961
▁الإقليم	-3962
▁الزراعية	-3963
▁المستخدم	-3964
▁اليونانية	-3965
رز	-3966
ِم	-3967
ضار	-3968
على	-3969
ليد	-3970
وجب	-3971
بناء	-3972
▁تشي	-3973
▁فكرة	-3974
▁يرجع	-3975
لمانية	-3976
▁اتحاد	-3977
▁اسمها	-3978
▁الحرة	-3979
▁الكونغ	-3980
▁الطريقة	-3981
▁إمبراطور	-3982
عر	-3983
▁حص	-3984
▁خل	-3985
▁دن	-3986
▁غز	-3987
يديا	-3988
▁حدي	-3989
▁لوك	-3990
▁ويح	-3991
▁تولى	-3992
▁صغير	-3993
▁مياه	-3994
▁يشكل	-3995
▁أبناء	-3996
▁مرحلة	-3997
▁الحاكم	-3998
▁انتشار	-3999
إنجليزية	-4000
▁العلاقة	-4001
28	-4002
▁U	-4003
تمل	-4004
جات	-4005
شفى	-4006
كلة	-4007
واط	-4008
َّل	-4009
▁ضع	-4010
رمان	-4011
ملكة	-4012
▁مهم	-4013
▁ذرات	-4014
▁سميت	-4015
▁متحف	-4016
▁والل	-4017
▁يصبح	-4018
▁أجهزة	-4019
▁وعندما	-4020
▁اللاتينية	-4021
▁المغناطيسي	-4022
1)	-4023
65	-4024
اطير	-4025
املة	-4026
▁حائ	-4027
▁1940	-4028
▁العرش	-4029
▁شخصًا	-4030
▁وحدات	-4031
▁بطريقة	-4032
▁المركبات	-4033
99	-4034
زام	-4035
هول	-4036
وكب	-4037
يتي	-4038
▁سد	-4039
▁صار	-4040
▁وقيل	-4041
▁الألك	-4042
▁ناحية	-4043
▁الدالة	-4044
▁جزائري	-4045
▁اقتصادي	-4046
45	-4047
نون	-4048
وران	-4049
▁Sol	-4050
▁فهم	-4051
زاوية	-4052
▁الذرة	-4053
▁بينهم	-4054
▁تغيير	-4055
▁النساء	-4056
▁البداية	-4057
▁الشخصية	-4058
▁الإيطالي	-4059
48	-4060
دل	-4061
افع	-4062
ولو	-4063
بعاد	-4064
▁ففي	-4065
▁لات	-4066
▁وأك	-4067
▁زعيم	-4068
▁لعام	-4069
▁الألف	-4070
▁قبائل	-4071
▁للاست	-4072
▁المكون	-4073
رأ	-4074
وته	-4075
وجة	-4076
▁سوق	-4077
▁يتح	-4078
▁1959	-4079
▁توزي	-4080
▁روما	-4081
▁البول	-4082
▁الشبكة	-4083
اطئ	-4084
الث	-4085
▁قطع	-4086
▁قوم	-4087
▁البص	-4088
▁النص	-4089
▁انتهت	-4090
▁تفاعل	-4091
▁يتولى	-4092
▁العلمي	-4093
▁المسرح	-4094
▁تقريبا	-4095
▁الأطفال	-4096
شام	-4097
فين	-4098
ؤلاء	-4099
ارنة	-4100
رياض	-4101
▁سما	-4102
انوية	-4103
▁رجال	-4104
▁الفار	-4105
▁المرا	-4106
▁مئوية	-4107
▁وخاصة	-4108
▁الحصول	-4109
▁الوحيد	-4110
▁الياباني	-4111
زان	-4112
فات	-4113
وجي	-4114
اربة	-4115
وحدة	-4116
▁دوق	-4117
▁سود	-4118
▁وبر	-4119
▁الوس	-4120
▁ملحن	-4121
▁اليمن	-4122
▁مقياس	-4123
▁انقلاب	-4124
طم	-4125
راتي	-4126
▁كثي	-4127
▁معبد	-4128
▁قبيلة	-4129
▁شخصيات	-4130
▁الكتابة	-4131
im	-4132
جاد	-4133
▁al	-4134
▁در	-4135
▁طل	-4136
▁يو	-4137
enop	-4138
متها	-4139
هائي	-4140
▁the	-4141
▁دير	-4142
▁رود	-4143
▁1938	-4144
▁مدار	-4145
▁إصدار	-4146
▁الشركة	-4147
▁الصيني	-4148
▁الواحد	-4149
▁القاعدة	-4150
▁المقاومة	-4151
▁الحيوانات	-4152
▁اللبنانية	-4153
39	-4154
ائيل	-4155
تباع	-4156
ركان	-4157
▁تتح	-4158
▁كلي	-4159
▁شارك	-4160
▁الملا	-4161
▁تختلف	-4162
▁الشرطة	-4163
▁الممكن	-4164
▁الوصول	-4165
▁الطبيعي	-4166
--	-4167
شئ	-4168
ers	-4169
فان	-4170
واق	-4171
▁سر	-4172
زيمة	-4173
لفزي	-4174
▁قبر	-4175
▁مور	-4176
▁يحي	-4177
▁1955	-4178
▁بالج	-4179
▁ساحل	-4180
▁فؤاد	-4181
▁ديفيد	-4182
▁لأنها	-4183
enopsis	-4184
▁التطبي	-4185
▁القياس	-4186
▁النشاط	-4187
صح	-4188
ليط	-4189
غالي	-4190
يسكو	-4191
▁فين	-4192
▁قلعة	-4193
▁ليون	-4194
▁أصحاب	-4195
▁النظر	-4196
▁تابعة	-4197
▁تاريخية	-4198
اجي	-4199
صدر	-4200
▁عر	-4201
ستون	-4202
▁إنه	-4203
▁باي	-4204
جمالي	-4205
▁الخل	-4206
▁وصول	-4207
▁الباب	-4208
▁النفط	-4209
▁تشغيل	-4210
▁اعتبار	-4211
▁الملكي	-4212
▁المالية	-4213
▁المحكمة	-4214
▁Solenopsis	-4215
تهي	-4216
سوف	-4217
ليس	-4218
يًا	-4219
خطيط	-4220
لفاء	-4221
وبات	-4222
▁شعر	-4223
▁عائ	-4224
▁كبي	-4225
▁أنهم	-4226
▁البع	-4227
▁السر	-4228
▁خطوط	-4229
▁فريق	-4230
▁روائي	-4231
▁معالم	-4232
▁الجهاز	-4233
▁الإمارات	-4234
▁الجزيئات	-4235
ra	-4236
▁l	-4237
▁أز	-4238
فيون	-4239
▁اهتم	-4240
▁حروف	-4241
▁سواء	-4242
▁مراد	-4243
▁الجما	-4244
▁الصور	-4245
▁البناء	-4246
▁التابعة	-4247
▁المئتين	-4248
يق	-4249
حاق	-4250
▁نح	-4251
ازية	-4252
رقية	-4253
عتقد	-4254
▁ميد	-4255
▁ويق	-4256
▁يعيش	-4257
▁زلزال	-4258
▁مفهوم	-4259
▁وأكثر	-4260
▁وبذلك	-4261
▁القيمة	-4262
▁السياسة	-4263
▁وأقاليم	-4264
▁ميكانيكا	-4265
38	-4266
od	-4267
th	-4268
اغا	-4269
يمن	-4270
▁إغ	-4271
▁لِ	-4272
▁يز	-4273
يروس	-4274
▁جري	-4275
▁عثم	-4276
▁قيم	-4277
▁امتد	-4278
▁تزوج	-4279
▁تمكن	-4280
▁حاول	-4281
▁فارس	-4282
▁ناصر	-4283
▁والآ	-4284
▁يشير	-4285
ولوجية	-4286
▁الأمة	-4287
▁تطبيق	-4288
▁الهندي	-4289
▁برمجيات	-4290
69	-4291
سه	-4292
ِر	-4293
ألف	-4294
خمة	-4295
مري	-4296
▁خر	-4297
ديان	-4298
▁بكل	-4299
▁كاب	-4300
▁موز	-4301
▁1936	-4302
▁1951	-4303
▁تصبح	-4304
▁نواب	-4305
▁تقسيم	-4306
▁شخصية	-4307
▁نموذج	-4308
▁الألعاب	-4309
▁السلطات	-4310
▁الديمقراطية	-4311
4)	-4312
طى	-4313
جاب	-4314
نها	-4315
ريرة	-4316
سندر	-4317
▁مدى	-4318
▁ويب	-4319
جزائر	-4320
▁إطار	-4321
▁عامي	-4322
▁مسرح	-4323
▁الجهد	-4324
▁الصوت	-4325
▁موضوع	-4326
▁الجانب	-4327
▁الماضي	-4328
▁اليهودية	-4329
CH	-4330
اشي	-4331
ظرية	-4332
وكيو	-4333
▁بإن	-4334
▁أصدر	-4335
▁السم	-4336
▁معدل	-4337
▁البحث	-4338
▁قديمة	-4339
▁الكهرومغ	-4340
66	-4341
▁w	-4342
▁جل	-4343
▁غي	-4344
ارقة	-4345
▁المث	-4346
▁ساعة	-4347
▁عربي	-4348
▁مرات	-4349
▁الأطل	-4350
▁ولكنها	-4351
▁الإدارة	-4352
▁التشغيل	-4353
▁الثلاثة	-4354
▁المدرسة	-4355
▁الطائرات	-4356
▁والعشرون	-4357
▁الإسبانية	-4358
خلص	-4359
ونا	-4360
▁أصغر	-4361
▁التخ	-4362
▁عمان	-4363
▁قوله	-4364
▁ويكي	-4365
▁اشتهر	-4366
▁الحال	-4367
▁الروا	-4368
▁تركيا	-4369
▁اللجنة	-4370
▁الزاوية	-4371
▁محافظات	-4372
77	-4373
ادثة	-4374
▁الفض	-4375
▁الكث	-4376
▁النج	-4377
▁تبدأ	-4378
▁حقوق	-4379
▁إسلامية	-4380
▁الخامسة	-4381
▁المؤتمر	-4382
▁كيميائي	-4383
▁a	-4384
جلة	-4385
ويب	-4386
غرافي	-4387
▁خليل	-4388
▁كلها	-4389
▁أولاد	-4390
▁الفرق	-4391
▁ويكون	-4392
▁المرأة	-4393
▁النشيد	-4394
▁اتفاقية	-4395
▁مصطلحات	-4396
▁الحكومية	-4397
▁كيميائية	-4398
88	-4399
غب	-4400
بيت	-4401
ياط	-4402
▁خي	-4403
الين	-4404
اهيم	-4405
▁باس	-4406
▁رام	-4407
▁انضم	-4408
▁تحدث	-4409
▁مكتب	-4410
▁مواد	-4411
▁وابن	-4412
▁السما	-4413
▁الفيل	-4414
▁المخت	-4415
▁جماعة	-4416
▁الأحداث	-4417
▁الأهلية	-4418
لل	-4419
نغ	-4420
ign	-4421
und	-4422
ارن	-4423
▁35	-4424
▁طن	-4425
▁فرق	-4426
قالية	-4427
▁1943	-4428
▁اليس	-4429
▁جامع	-4430
▁البيزن	-4431
▁التحكم	-4432
▁يستعمل	-4433
▁المركزية	-4434
ia	-4435
شم	-4436
▁g	-4437
برغ	-4438
خرة	-4439
عرض	-4440
علم	-4441
رجمة	-4442
▁مطل	-4443
▁مقا	-4444
▁ألمان	-4445
▁الحرف	-4446
▁الصيف	-4447
بلوماسي	-4448
▁العظمى	-4449
▁الناتج	-4450
▁ساحلية	-4451
▁الأثرية	-4452
87	-4453
بكات	-4454
خرية	-4455
▁أوغ	-4456
▁ضغط	-4457
▁وبل	-4458
▁السد	-4459
▁الكر	-4460
▁رموز	-4461
▁أعداد	-4462
▁والمح	-4463
▁الإداري	-4464
▁الإسكندرية	-4465
َق	-4466
سيك	-4467
وسع	-4468
▁فا	-4469
▁ميش	-4470
▁يزال	-4471
فاقيات	-4472
▁رابطة	-4473
▁السويد	-4474
▁الهواء	-4475
▁الاشترا	-4476
▁المعالم	-4477
▁جغرافيا	-4478
▁الموسيقى	-4479
▁الاستخدام	-4480
21	-4481
ُو	-4482
عاب	-4483
كشف	-4484
▁امر	-4485
▁بقي	-4486
▁بمس	-4487
▁توف	-4488
▁حقي	-4489
▁فمن	-4490
▁لان	-4491
▁ومت	-4492
▁أولى	-4493
▁تتبع	-4494
▁الضفة	-4495
▁الهول	-4496
▁العاشر	-4497
▁المدني	-4498
▁النهاية	-4499
▁والعشرين	-4500
33	-4501
َس	-4502
زيل	-4503
شية	-4504
ناق	-4505
ودا	-4506
▁دع	-4507
داخل	-4508
دارة	-4509
▁خلا	-4510
▁سام	-4511
▁سيف	-4512
▁شيو	-4513
▁قيد	-4514
▁القوى	-4515
▁كولوم	-4516
▁مؤسسة	-4517
▁بينهما	-4518
▁الحالية	-4519
▁المعادلة	-4520
"،	-4521
عه	-4522
نج	-4523
فون	-4524
▁اض	-4525
عليم	-4526
كتاب	-4527
ماذج	-4528
▁جول	-4529
▁فيت	-4530
▁القي	-4531
▁فيلس	-4532
▁وراء	-4533
▁استطاع	-4534
▁المهدي	-4535
▁الإدارية	-4536
▁أفغانستان	-4537
طبق	-4538
لول	-4539
هضة	-4540
▁تقد	-4541
▁مين	-4542
▁وسي	-4543
▁يوه	-4544
غيرات	-4545
▁أرسل	-4546
▁بحسب	-4547
▁هجوم	-4548
اسيكية	-4549
ترونات	-4550
▁اللون	-4551
▁حالات	-4552
▁دقيقة	-4553
▁رسمية	-4554
▁المقدس	-4555
▁البحرين	-4556
▁الصحراء	-4557
57	-4558
92	-4559
اون	-4560
سلة	-4561
فور	-4562
قوب	-4563
▁in	-4564
▁فح	-4565
باشر	-4566
رائم	-4567
▁إما	-4568
▁روز	-4569
▁فلم	-4570
كتابة	-4571
▁1937	-4572
▁شديد	-4573
▁مجلة	-4574
▁وإلى	-4575
▁المجا	-4576
▁بنسبة	-4577
▁وتكون	-4578
▁الوليد	-4579
▁طائرات	-4580
▁الأحيان	-4581
▁السيطرة	-4582
▁النووية	-4583
▁الجامعات	-4584
شح	-4585
بحث	-4586
ذار	-4587
نيه	-4588
▁رج	-4589
▁طي	-4590
ليان	-4591
وائر	-4592
وتشي	-4593
▁بتح	-4594
▁تمن	-4595
▁كافة	-4596
▁نجاح	-4597
▁وإذا	-4598
▁المؤمن	-4599
▁مسلمون	-4600
▁ولايات	-4601
▁البلدان	-4602
▁المسيحي	-4603
ادئ	-4604
ثلا	-4605
ديس	-4606
ديه	-4607
عين	-4608
قام	-4609
كير	-4610
زيلي	-4611
▁بوم	-4612
▁مائ	-4613
▁نار	-4614
▁ماكس	-4615
▁نبات	-4616
▁أفلام	-4617
▁المرض	-4618
▁الحساب	-4619
▁الحميد	-4620
▁النبات	-4621
▁والسيا	-4622
".	-4623
47	-4624
90	-4625
شاب	-4626
ماك	-4627
يكو	-4628
َال	-4629
▁0.	-4630
▁|-	-4631
ايير	-4632
حيدة	-4633
عاية	-4634
▁جنو	-4635
▁فلك	-4636
▁يضم	-4637
راعات	-4638
ولوجي	-4639
▁1934	-4640
▁1942	-4641
▁الحي	-4642
▁بهذه	-4643
▁خليج	-4644
▁دورة	-4645
▁ولقد	-4646
▁يهود	-4647
▁الوزن	-4648
▁هؤلاء	-4649
▁ولذلك	-4650
▁احتمال	-4651
▁البيئة	-4652
▁الجبال	-4653
▁الساحل	-4654
▁السماء	-4655
▁باعتبار	-4656
▁المستقبل	-4657
▁المجموعات	-4658
مى	-4659
طبخ	-4660
ارها	-4661
رنسا	-4662
واحي	-4663
▁برت	-4664
▁مير	-4665
▁الوظ	-4666
▁بلدة	-4667
▁تدخل	-4668
▁دوري	-4669
▁صباح	-4670
▁صفحة	-4671
▁هشام	-4672
▁ينتج	-4673
▁الذري	-4674
▁معرفة	-4675
▁الساعة	-4676
▁النواة	-4677
▁فيلسوف	-4678
▁الأرجنت	-4679
▁المركزي	-4680
▁لبنانية	-4681
85	-4682
هج	-4683
بعد	-4684
زلي	-4685
▁رفع	-4686
▁ستة	-4687
▁فرض	-4688
▁نظر	-4689
▁أقصى	-4690
▁زوجة	-4691
▁فإذا	-4692
▁ملكة	-4693
▁واعت	-4694
▁ملاحظ	-4695
▁البابا	-4696
▁الباحث	-4697
▁القومي	-4698
▁المصدر	-4699
▁الأمطار	-4700
▁أستراليا	-4701
نز	-4702
اثة	-4703
خور	-4704
▁رق	-4705
ويين	-4706
▁140	-4707
▁امت	-4708
▁جين	-4709
▁صنع	-4710
▁فور	-4711
▁قلب	-4712
▁1918	-4713
▁الإخ	-4714
▁الجو	-4715
▁معنى	-4716
▁يبدأ	-4717
▁الصحة	-4718
▁الأزهر	-4719
▁المحلي	-4720
▁الأكاديمية	-4721
ّي	-4722
اله	-4723
صفر	-4724
ضيح	-4725
جارة	-4726
خصصة	-4727
شعاع	-4728
واصم	-4729
وجيه	-4730
▁شيخ	-4731
▁قمة	-4732
▁للخ	-4733
▁الزم	-4734
▁بالط	-4735
▁يذكر	-4736
▁اكتشف	-4737
▁الجوي	-4738
▁لفترة	-4739
▁والتح	-4740
▁البراز	-4741
▁الشعبي	-4742
▁ألكسندر	-4743
▁الأمراض	-4744
▁العائلة	-4745
▁السياحية	-4746
دو	-4747
سد	-4748
200	-4749
فري	-4750
طورة	-4751
▁أون	-4752
▁لون	-4753
▁وصح	-4754
البية	-4755
▁قطاع	-4756
▁السوق	-4757
▁الفعل	-4758
▁الكرة	-4759
▁مبارك	-4760
▁الفنون	-4761
▁القادر	-4762
▁القديس	-4763
▁الأطلسي	-4764
▁الأنواع	-4765
▁الشركات	-4766
▁نيويورك	-4767
▁الاقتصادي	-4768
ir	-4769
صيب	-4770
مرد	-4771
▁80	-4772
اريع	-4773
زايد	-4774
وفاك	-4775
▁بالب	-4776
▁شارل	-4777
▁وعبد	-4778
▁الحجم	-4779
▁تنفيذ	-4780
▁السرعة	-4781
▁قوانين	-4782
▁الأشجار	-4783
▁الإشارة	-4784
دى	-4785
اتل	-4786
غاء	-4787
وسا	-4788
يمي	-4789
▁150	-4790
▁بعن	-4791
▁تقل	-4792
▁فهد	-4793
▁مخط	-4794
زيغية	-4795
▁تجمع	-4796
▁صحفي	-4797
▁مبدأ	-4798
▁بصورة	-4799
▁توزيع	-4800
▁مليار	-4801
▁اختلاف	-4802
▁السويس	-4803
▁الخارجي	-4804
▁الدكتور	-4805
▁الرابعة	-4806
▁الجغرافيا	-4807
23	-4808
ot	-4809
ww	-4810
تبة	-4811
شين	-4812
عاد	-4813
هان	-4814
َنْ	-4815
راوح	-4816
وزير	-4817
▁حجر	-4818
▁دائ	-4819
▁عكس	-4820
▁وأس	-4821
راقية	-4822
ورنيا	-4823
▁كندا	-4824
▁نظرا	-4825
▁وأول	-4826
▁الرقم	-4827
▁كوريا	-4828
▁مسافة	-4829
▁العالي	-4830
▁موجودة	-4831
▁الحالات	-4832
▁اتفاقيات	-4833
▁الصناعات	-4834
غرب	-4835
نطن	-4836
▁بذ	-4837
أسيس	-4838
حدها	-4839
▁and	-4840
▁استق	-4841
▁الخض	-4842
▁بعيد	-4843
▁سبعة	-4844
▁الطرف	-4845
▁الموض	-4846
▁واشنطن	-4847
▁الشيوعي	-4848
▁المقدسة	-4849
▁السيارات	-4850
َى	-4851
ّف	-4852
راي	-4853
رفع	-4854
شيخ	-4855
▁70	-4856
امنة	-4857
▁فول	-4858
ستانت	-4859
كتورا	-4860
▁العص	-4861
▁القض	-4862
▁السبب	-4863
▁تنقسم	-4864
▁دستور	-4865
▁مغربي	-4866
▁واسعة	-4867
▁وجنوب	-4868
▁معادلة	-4869
▁الأساسي	-4870
▁البرامج	-4871
▁البشرية	-4872
▁القبائل	-4873
▁تقريبًا	-4874
49	-4875
أل	-4876
ئر	-4877
▁x	-4878
الا	-4879
واك	-4880
وبا	-4881
يوش	-4882
▁حف	-4883
جمات	-4884
▁خرج	-4885
▁زيت	-4886
▁ساك	-4887
▁صفر	-4888
▁مرس	-4889
▁منع	-4890
▁1930	-4891
▁أوكر	-4892
▁الزع	-4893
▁جعفر	-4894
▁وبدأ	-4895
▁وقعت	-4896
▁الحجر	-4897
▁الداخ	-4898
▁القصر	-4899
▁وهكذا	-4900
▁الذهبي	-4901
▁النموذج	-4902
▁فرنسيون	-4903
▁الإنجليزي	-4904
ce	-4905
افؤ	-4906
بحر	-4907
رحي	-4908
شطة	-4909
ضيف	-4910
ويه	-4911
▁رف	-4912
▁كه	-4913
حيحة	-4914
وائم	-4915
واجه	-4916
▁خان	-4917
▁للا	-4918
▁أراد	-4919
▁الطي	-4920
▁مضرب	-4921
▁مناخ	-4922
▁يحيى	-4923
▁ألبرت	-4924
▁الصيد	-4925
▁الموت	-4926
▁تصنيف	-4927
▁فرانك	-4928
▁نتائج	-4929
▁الأقصى	-4930
▁الحملة	-4931
▁المستق	-4932
▁بلديات	-4933
▁فلاسفة	-4934
▁الرئاسية	-4935
▁التشريعية	-4936
86	-4937
رفض	-4938
▁1,	-4939
▁ضم	-4940
بيين	-4941
▁وبد	-4942
▁1920	-4943
▁دخول	-4944
▁كمال	-4945
▁مضيق	-4946
▁الرجل	-4947
▁تحرير	-4948
▁للدولة	-4949
▁للغاية	-4950
▁مستقلة	-4951
▁معروفة	-4952
▁المسلحة	-4953
▁الحرارية	-4954
▁الغذائية	-4955
اطة	-4956
امه	-4957
خيل	-4958
يطة	-4959
اكرة	-4960
بحاث	-4961
وادي	-4962
يوان	-4963
▁(20	-4964
▁دفع	-4965
▁سوف	-4966
▁نظم	-4967
▁وعن	-4968
▁تايل	-4969
▁تزال	-4970
▁مؤرخ	-4971
▁والا	-4972
▁السام	-4973
▁تأسست	-4974
▁صفحات	-4975
▁مكتبة	-4976
▁وعالم	-4977
▁العظيم	-4978
▁التعريف	-4979
▁المشروع	-4980
▁والثلاث	-4981
اليفورنيا	-4982
▁الدراسات	-4983
ضب	-4984
يغ	-4985
ندق	-4986
وزع	-4987
جلات	-4988
ملية	-4989
▁حلب	-4990
▁زين	-4991
▁ناش	-4992
سلسلة	-4993
منطقة	-4994
▁الاب	-4995
▁بيتر	-4996
▁مناص	-4997
▁يقال	-4998
▁البرن	-4999
▁والمس	-5000
▁نمساوي	-5001
تس	-5002
عو	-5003
▁v	-5004
رجل	-5005
طنة	-5006
يره	-5007
▁حب	-5008
صلات	-5009
▁جير	-5010
▁لكي	-5011
▁ماك	-5012
▁نصر	-5013
كسجين	-5014
▁الوف	-5015
▁حدوث	-5016
▁حكام	-5017
▁وتعد	-5018
▁تفجير	-5019
▁رمضان	-5020
▁كاملة	-5021
▁الإصلاح	-5022
▁المستخدمة	-5023
ie	-5024
هِ	-5025
برم	-5026
فيف	-5027
فيه	-5028
ياز	-5029
▁300	-5030
▁بحث	-5031
▁كير	-5032
▁ليف	-5033
▁ابتد	-5034
▁الإف	-5035
▁اللغ	-5036
▁بقوة	-5037
▁كوري	-5038
▁أحيان	-5039
▁الفرد	-5040
▁ويبلغ	-5041
▁يختلف	-5042
▁القائد	-5043
▁يستطيع	-5044
▁السعودي	-5045
▁النباتات	-5046
زف	-5047
ـ)	-5048
جون	-5049
يده	-5050
▁أه	-5051
▁اد	-5052
ارسة	-5053
ريان	-5054
▁لعب	-5055
▁وفق	-5056
▁(200	-5057
▁رحلة	-5058
▁أنتون	-5059
▁تساوي	-5060
▁تشتهر	-5061
▁عاماً	-5062
▁قصيرة	-5063
▁الأربع	-5064
▁الشباب	-5065
▁المسيح	-5066
▁ملايين	-5067
▁الرياضي	-5068
▁الشهيرة	-5069
53	-5070
كنة	-5071
▁فص	-5072
▁قي	-5073
عمرة	-5074
ندسة	-5075
واهر	-5076
وعات	-5077
يطان	-5078
▁وأش	-5079
▁يقل	-5080
▁الحص	-5081
▁خواص	-5082
▁مرور	-5083
▁النقد	-5084
▁الشتاء	-5085
▁التركية	-5086
▁التقسيم	-5087
▁الكلاسيكية	-5088
صاب	-5089
وتا	-5090
تميز	-5091
علنت	-5092
▁سبع	-5093
▁فرد	-5094
▁قول	-5095
هائية	-5096
▁لجنة	-5097
▁نواة	-5098
▁وسلم	-5099
▁تتضمن	-5100
▁حماية	-5101
▁زوجته	-5102
▁سياسة	-5103
▁للمرة	-5104
▁البنية	-5105
▁الدرجة	-5106
▁الرجال	-5107
▁الجاذبية	-5108
),	-5109
ذف	-5110
ـ.	-5111
مح	-5112
اتف	-5113
ثور	-5114
ساس	-5115
عاء	-5116
هون	-5117
▁اح	-5118
▁ثق	-5119
▁لآ	-5120
طلقت	-5121
▁أدت	-5122
▁الْ	-5123
▁بْن	-5124
▁فاس	-5125
▁مدة	-5126
عمرات	-5127
▁آلهة	-5128
▁تحول	-5129
▁عضوا	-5130
▁كبار	-5131
▁مبنى	-5132
▁وذكر	-5133
▁السكر	-5134
▁المحم	-5135
▁وتوفي	-5136
▁حائزون	-5137
▁مقارنة	-5138
▁مقاومة	-5139
▁واستمر	-5140
▁اللبناني	-5141
▁المجاورة	-5142
▁الإلكترونية	-5143
94	-5144
اكو	-5145
جمة	-5146
شير	-5147
▁لخ	-5148
▁وُ	-5149
▁غاز	-5150
▁وتأ	-5151
▁ويد	-5152
مبراط	-5153
▁1921	-5154
▁1925	-5155
▁1931	-5156
▁1935	-5157
▁الكي	-5158
▁اليد	-5159
▁صدام	-5160
غرافية	-5161
▁الكول	-5162
▁كلمات	-5163
▁محكمة	-5164
▁الأرضية	-5165
▁المعركة	-5166
▁المواقع	-5167
74	-5168
آت	-5169
ؤه	-5170
حف	-5171
زع	-5172
شا	-5173
فى	-5174
رار	-5175
فيق	-5176
▁90	-5177
وائد	-5178
واكب	-5179
▁آدم	-5180
▁أنّ	-5181
▁بوت	-5182
▁حلف	-5183
▁دعم	-5184
▁سكن	-5185
▁شار	-5186
▁تمام	-5187
▁خلاف	-5188
▁داني	-5189
▁المصف	-5190
▁دينية	-5191
▁رسالة	-5192
▁مايكل	-5193
▁مروان	-5194
▁والمد	-5195
▁وسائل	-5196
▁الأصلية	-5197
▁التعبير	-5198
▁الخلافة	-5199
▁الكلمات	-5200
▁باكستان	-5201
▁البرنامج	-5202
og	-5203
ابط	-5204
سورة	-5205
فاوض	-5206
فيفة	-5207
وئية	-5208
▁اصط	-5209
▁لذا	-5210
▁معم	-5211
▁بطرس	-5212
▁جداً	-5213
▁هيدر	-5214
▁الصفر	-5215
▁للأمم	-5216
▁محددة	-5217
▁الفنان	-5218
▁القدرة	-5219
▁النصوص	-5220
▁النووي	-5221
▁اندلاع	-5222
▁هولندا	-5223
▁الأنظمة	-5224
68	-5225
▁r	-5226
الإ	-5227
تراك	-5228
وسوف	-5229
▁بشر	-5230
▁سمي	-5231
▁سيل	-5232
▁ونا	-5233
هرجان	-5234
ياسية	-5235
▁1926	-5236
▁1933	-5237
▁الاف	-5238
▁الوجه	-5239
▁تحليل	-5240
▁جمعية	-5241
▁قواعد	-5242
▁ليكون	-5243
▁محلية	-5244
▁مراكز	-5245
▁معسكر	-5246
▁مقبرة	-5247
▁الخطاب	-5248
▁المثلث	-5249
▁مستشفى	-5250
▁الجنسية	-5251
▁الاجتماعي	-5252
▁البرمجيات	-5253
شط	-5254
اده	-5255
سمة	-5256
ليك	-5257
▁رد	-5258
▁سُ	-5259
اليب	-5260
حتوي	-5261
▁تبع	-5262
▁قرأ	-5263
▁معا	-5264
▁يمن	-5265
▁والذ	-5266
كتوراه	-5267
▁أصوات	-5268
▁تقديم	-5269
▁الأخضر	-5270
▁الأسبق	-5271
▁الحروب	-5272
▁النقطة	-5273
▁المسافة	-5274
▁البرازيل	-5275
▁الفيزيائية	-5276
98	-5277
اسل	-5278
رنة	-5279
شرات	-5280
ماثل	-5281
يتين	-5282
▁أبا	-5283
▁وتر	-5284
▁أندر	-5285
▁جابر	-5286
▁توقيع	-5287
▁حيوية	-5288
▁سلالة	-5289
▁طهران	-5290
▁الجمعة	-5291
▁العلاج	-5292
▁القاسم	-5293
▁بيانات	-5294
كنولوجيا	-5295
▁الخدمات	-5296
▁المدارس	-5297
▁الهندية	-5298
▁الأرجنتين	-5299
ant	-5300
com	-5301
ابق	-5302
بون	-5303
ريض	-5304
كلم	-5305
0000	-5306
ترول	-5307
عيدة	-5308
▁تدم	-5309
▁غزة	-5310
كتشاف	-5311
▁خدمة	-5312
▁شجرة	-5313
▁كيلو	-5314
▁لبعض	-5315
▁يدعى	-5316
▁أتباع	-5317
▁أشجار	-5318
▁أهمها	-5319
▁الأجن	-5320
▁القسم	-5321
▁الويب	-5322
▁تكوين	-5323
▁الأرثو	-5324
▁العمال	-5325
▁القائمة	-5326
الن	-5327
خصوص	-5328
▁حام	-5329
▁وست	-5330
▁1928	-5331
▁النز	-5332
▁ثالث	-5333
▁طبقا	-5334
▁عمله	-5335
ندونيس	-5336
▁align	-5337
▁أردني	-5338
▁ألعاب	-5339
▁الرأس	-5340
▁سويدي	-5341
▁عواصم	-5342
يابانية	-5343
▁الروسي	-5344
▁الزعيم	-5345
▁مركبات	-5346
▁الإصدار	-5347
▁الجمهور	-5348
▁الدائرة	-5349
▁المحيطة	-5350
▁الثقافية	-5351
32	-5352
96	-5353
ائس	-5354
تلك	-5355
اندو	-5356
سطنط	-5357
ضايا	-5358
فيان	-5359
وازي	-5360
ودور	-5361
ولين	-5362
▁بيس	-5363
▁راف	-5364
▁ومغ	-5365
▁يمر	-5366
▁ابنة	-5367
▁الأي	-5368
▁تسبب	-5369
▁تيار	-5370
▁زالت	-5371
▁سلطة	-5372
▁عمره	-5373
▁فلما	-5374
▁محطة	-5375
▁وأبو	-5376
▁السفن	-5377
▁دراست	-5378
▁سلمان	-5379
▁شعبية	-5380
▁مهندس	-5381
▁الشيعة	-5382
▁الفراغ	-5383
▁التفاعلات	-5384
عون	-5385
ليه	-5386
▁أنت	-5387
▁درس	-5388
▁سوا	-5389
▁لفظ	-5390
▁هدف	-5391
▁هون	-5392
▁وسم	-5393
ائنات	-5394
جمعات	-5395
رائية	-5396
ضاريس	-5397
▁1923	-5398
▁الأط	-5399
▁التو	-5400
▁المذ	-5401
▁ببعض	-5402
▁مجمع	-5403
▁إمارة	-5404
▁الهرم	-5405
▁امرأة	-5406
▁كثافة	-5407
▁مسرحي	-5408
▁والأس	-5409
▁إسلامي	-5410
▁الحروف	-5411
▁برئاسة	-5412
▁رياضية	-5413
▁الرئاسة	-5414
▁الزيتون	-5415
▁الطيران	-5416
▁الأردنية	-5417
▁القوانين	-5418
▁الاتصالات	-5419
▁الديمقراطي	-5420
55	-5421
ْل	-5422
▁إب	-5423
ثيقة	-5424
رائي	-5425
قيدة	-5426
ويون	-5427
▁%).	-5428
▁أكس	-5429
▁محت	-5430
▁الغز	-5431
▁تمتد	-5432
▁الجزر	-5433
▁الرائ	-5434
▁السين	-5435
▁العرض	-5436
▁والتر	-5437
▁الطويل	-5438
▁تجارية	-5439
▁كارلوس	-5440
▁لإنتاج	-5441
▁موسيقى	-5442
▁العضوية	-5443
▁المصطلح	-5444
▁كهربائي	-5445
37	-5446
54	-5447
97	-5448
تق	-5449
ئين	-5450
ادا	-5451
انج	-5452
▁ذي	-5453
▁رك	-5454
▁فس	-5455
ريين	-5456
▁عقب	-5457
▁نال	-5458
▁وأخ	-5459
▁واف	-5460
كانية	-5461
▁البخ	-5462
▁الخي	-5463
▁تحتل	-5464
▁حملة	-5465
▁وتضم	-5466
▁أغاني	-5467
▁البلا	-5468
▁الحار	-5469
▁الخمس	-5470
▁الصدر	-5471
▁المنش	-5472
▁بلدان	-5473
▁شهادة	-5474
▁عبادة	-5475
▁عدنان	-5476
▁مارتن	-5477
▁منصبه	-5478
▁اليمين	-5479
▁الأوراق	-5480
▁الاتجاه	-5481
▁الشعراء	-5482
▁المنورة	-5483
▁تفاعلات	-5484
ff	-5485
oc	-5486
ُن	-5487
حدر	-5488
ذان	-5489
شعر	-5490
▁قُ	-5491
عيين	-5492
وريس	-5493
▁بأس	-5494
▁قصي	-5495
اديمي	-5496
▁أطول	-5497
▁الخر	-5498
▁الرك	-5499
▁بهدف	-5500
▁ربما	-5501
▁علوم	-5502
▁يبدو	-5503
▁يصدر	-5504
▁الفرس	-5505
▁بطولة	-5506
▁ديوان	-5507
▁قليلة	-5508
▁كانون	-5509
▁نيسان	-5510
▁التفاض	-5511
▁فرنسية	-5512
▁البرمجة	-5513
▁الجنرال	-5514
▁المساجد	-5515
▁الموجود	-5516
▁الوحدات	-5517
▁البرتغال	-5518
▁الكهرباء	-5519
قها	-5520
مام	-5521
يفا	-5522
▁وذ	-5523
اصرة	-5524
صورة	-5525
مالك	-5526
ومان	-5527
▁أند	-5528
▁ديم	-5529
اتحاد	-5530
حيانا	-5531
▁النت	-5532
▁تقول	-5533
▁ساهم	-5534
▁موضع	-5535
▁إسحاق	-5536
▁البعث	-5537
▁المتر	-5538
▁تركيب	-5539
▁تصنيع	-5540
▁الخطوط	-5541
▁الطعام	-5542
▁طبيعية	-5543
▁العالية	-5544
34	-5545
ّب	-5546
▁أين	-5547
▁بهم	-5548
▁بوش	-5549
▁شغل	-5550
▁لمح	-5551
▁لنا	-5552
▁لوس	-5553
▁مِن	-5554
▁واق	-5555
▁وبي	-5556
▁يرى	-5557
ابايت	-5558
تمعات	-5559
▁1919	-5560
▁1932	-5561
▁الام	-5562
▁تركي	-5563
▁حافظ	-5564
▁خوان	-5565
▁سالم	-5566
▁للمع	-5567
▁لوحة	-5568
▁منتج	-5569
▁وأهم	-5570
▁يتبع	-5571
▁أساسي	-5572
▁زاوية	-5573
▁لكنها	-5574
▁هريرة	-5575
▁الأولم	-5576
▁الدنيا	-5577
▁بعنوان	-5578
▁وأصبحت	-5579
▁وغيرهم	-5580
▁النازية	-5581
▁إسرائيلي	-5582
▁الإلكتروني	-5583
زه	-5584
َه	-5585
الس	-5586
تلر	-5587
▁3.	-5588
لقات	-5589
وسطة	-5590
ولاي	-5591
▁انه	-5592
▁بمح	-5593
▁تسم	-5594
▁جما	-5595
▁أنشأ	-5596
▁أنَّ	-5597
▁بالش	-5598
▁فروع	-5599
▁الأور	-5600
▁التنا	-5601
▁الذهب	-5602
▁النصف	-5603
▁ثنائي	-5604
▁لتكون	-5605
▁الصغير	-5606
▁النجوم	-5607
▁مرتبطة	-5608
▁الدوائر	-5609
▁المنظمة	-5610
▁المعارضة	-5611
95	-5612
ML	-5613
نه	-5614
-20	-5615
ريج	-5616
عار	-5617
نصر	-5618
▁كف	-5619
▁نُ	-5620
ائفة	-5621
فتاء	-5622
ناها	-5623
هيار	-5624
وحيد	-5625
▁بدر	-5626
▁جيد	-5627
▁فاز	-5628
اسيكي	-5629
رنسية	-5630
▁1917	-5631
▁حصار	-5632
▁زياد	-5633
▁سلام	-5634
▁مركب	-5635
▁وترك	-5636
▁الدست	-5637
▁تقنية	-5638
▁يعقوب	-5639
▁التابع	-5640
▁الصلاة	-5641
▁التحتية	-5642
▁الإيرانية	-5643
83	-5644
ell	-5645
ابس	-5646
ارو	-5647
شرة	-5648
قاط	-5649
ناث	-5650
يتا	-5651
ارته	-5652
ريون	-5653
مادة	-5654
▁(10	-5655
▁إيه	-5656
▁سنت	-5657
▁سوى	-5658
▁خصوص	-5659
▁قوية	-5660
▁يدخل	-5661
▁يفوز	-5662
▁اعتبر	-5663
▁لتصبح	-5664
▁منخفض	-5665
▁ولهذا	-5666
▁احتلال	-5667
▁استقال	-5668
▁الثابت	-5669
بلوماسية	-5670
▁الإعلام	-5671
▁الحضارة	-5672
▁الوحيدة	-5673
▁للمدينة	-5674
pt	-5675
طا	-5676
ـ/	-5677
▁Z	-5678
ist	-5679
جزء	-5680
شرت	-5681
▁رئ	-5682
جرية	-5683
راوي	-5684
قامة	-5685
كامل	-5686
هورة	-5687
ودان	-5688
▁أبد	-5689
▁عدا	-5690
▁كفر	-5691
▁لأي	-5692
▁ليت	-5693
▁وتد	-5694
زابيث	-5695
▁1929	-5696
▁جدول	-5697
▁صلاة	-5698
▁القطب	-5699
▁تعداد	-5700
▁ثقافة	-5701
▁قوائم	-5702
▁مسعود	-5703
▁والأد	-5704
▁وفيها	-5705
▁وليام	-5706
▁استمرت	-5707
▁الكلية	-5708
▁الأسماء	-5709
▁الخلايا	-5710
▁برازيلي	-5711
▁فيزيائية	-5712
▁الإنسانية	-5713
▁كاليفورنيا	-5714
44	-5715
هلك	-5716
▁إث	-5717
داول	-5718
وادث	-5719
▁آلة	-5720
▁بلد	-5721
▁لتش	-5722
▁نيل	-5723
سيوية	-5724
▁1914	-5725
▁الخم	-5726
▁عامر	-5727
سرائيل	-5728
▁وتسمى	-5729
▁يونكس	-5730
▁الأشعة	-5731
▁الصلبة	-5732
▁الفيني	-5733
▁بتاريخ	-5734
▁حالياً	-5735
▁تقريباً	-5736
1،	-5737
َف	-5738
َك	-5739
ومو	-5740
اندي	-5741
ايات	-5742
رقاء	-5743
فنون	-5744
لقاء	-5745
▁160	-5746
▁خلق	-5747
▁سجن	-5748
▁ماء	-5749
▁1000	-5750
▁اتخذ	-5751
▁وعمل	-5752
▁يسمح	-5753
▁أرجنت	-5754
▁أسلوب	-5755
▁الحرم	-5756
▁بموجب	-5757
▁ثابتة	-5758
▁يتعلق	-5759
▁الزواج	-5760
▁الصورة	-5761
▁الناصر	-5762
▁رسميًا	-5763
▁معاوية	-5764
▁الخصائص	-5765
▁الكونغو	-5766
▁تاريخها	-5767
▁الفيزيائي	-5768
76	-5769
ايد	-5770
مرة	-5771
ناً	-5772
وفا	-5773
َّم	-5774
حنات	-5775
رهاب	-5776
كتشف	-5777
وايا	-5778
وكرب	-5779
▁500	-5780
▁سرع	-5781
▁الفع	-5782
▁بلغت	-5783
▁تؤدي	-5784
▁حديد	-5785
▁حكمت	-5786
▁دورا	-5787
▁شارع	-5788
▁قطعة	-5789
▁قليل	-5790
▁مناف	-5791
▁وأما	-5792
▁يأتي	-5793
▁أمثلة	-5794
▁توفيق	-5795
▁خلالها	-5796
▁لاحقًا	-5797
▁التوزيع	-5798
▁الصناعة	-5799
▁المكسيك	-5800
▁المؤمنين	-5801
ub	-5802
▁4.	-5803
▁يط	-5804
تمام	-5805
عامل	-5806
فاضة	-5807
وائل	-5808
▁أمن	-5809
▁تصف	-5810
▁شرح	-5811
▁لتن	-5812
▁وتُ	-5813
ينيون	-5814
▁1924	-5815
▁الجل	-5816
▁دليل	-5817
▁طارق	-5818
▁قصير	-5819
▁يقدم	-5820
▁أدوات	-5821
▁أعلنت	-5822
▁الانف	-5823
▁ترجمة	-5824
▁تشرين	-5825
▁عادةً	-5826
▁غالبا	-5827
▁والأن	-5828
▁ينتمي	-5829
▁اجتماع	-5830
▁الحقبة	-5831
▁المهمة	-5832
▁الأصوات	-5833
▁الأعضاء	-5834
▁الترتيب	-5835
▁عاصمتها	-5836
te	-5837
تار	-5838
لاه	-5839
يدات	-5840
▁باف	-5841
▁سهل	-5842
▁سور	-5843
راقبة	-5844
▁1927	-5845
▁أيدي	-5846
▁الاس	-5847
▁قريش	-5848
▁أحياء	-5849
▁القرى	-5850
▁برمجة	-5851
▁تونسي	-5852
▁رواية	-5853
▁صقلية	-5854
▁كاثول	-5855
▁منصور	-5856
▁وتعني	-5857
▁الداخلي	-5858
▁الجمهوري	-5859
ـ،	-5860
سلح	-5861
صيل	-5862
ينه	-5863
▁st	-5864
▁آب	-5865
▁جذ	-5866
وبول	-5867
وراي	-5868
▁أجن	-5869
▁بمر	-5870
▁ذهب	-5871
▁رضا	-5872
▁قرى	-5873
▁منش	-5874
▁ولو	-5875
▁ومص	-5876
غلبية	-5877
ونسية	-5878
▁الثل	-5879
▁الطق	-5880
▁مترا	-5881
▁إشارة	-5882
▁الفكر	-5883
▁خلفًا	-5884
▁عمارة	-5885
▁لصالح	-5886
▁والمت	-5887
▁وممثل	-5888
▁الخدمة	-5889
▁الصحية	-5890
▁الصيغة	-5891
▁القرار	-5892
▁تستعمل	-5893
▁عراقية	-5894
▁الأرقام	-5895
▁الأسلحة	-5896
▁الجامعي	-5897
▁المباني	-5898
▁الثلاثمائة	-5899
ؤس	-5900
ine	-5901
راه	-5902
نوع	-5903
▁1-	-5904
▁حُ	-5905
اتية	-5906
ستاذ	-5907
صفات	-5908
وائز	-5909
▁كرب	-5910
▁وقع	-5911
▁إمام	-5912
▁الإب	-5913
▁باقي	-5914
▁بالغ	-5915
▁توفر	-5916
▁صدور	-5917
▁عاما	-5918
▁قضاء	-5919
▁للإن	-5920
▁محرك	-5921
▁أسباب	-5922
▁الجمع	-5923
▁الحاج	-5924
▁الفرع	-5925
▁الوضع	-5926
▁دولية	-5927
▁عائشة	-5928
▁ليصبح	-5929
▁موسكو	-5930
▁وغالب	-5931
▁البحري	-5932
▁التركي	-5933
▁النحاس	-5934
▁بالرغم	-5935
▁ثنائية	-5936
▁للعلوم	-5937
▁متعلقة	-5938
▁الأشخاص	-5939
▁التأثير	-5940
▁الغابات	-5941
▁المائية	-5942
▁المعادن	-5943
▁الحديدية	-5944
▁المصريين	-5945
▁بالعربية	-5946
وئي	-5947
َان	-5948
▁إض	-5949
▁بُ	-5950
▁حز	-5951
▁فج	-5952
ونها	-5953
▁The	-5954
▁وبه	-5955
يمياء	-5956
▁ألفا	-5957
▁جدًا	-5958
▁علاج	-5959
▁كويت	-5960
▁مريم	-5961
لمانيا	-5962
▁اثنين	-5963
▁الطول	-5964
▁القلب	-5965
▁الكبد	-5966
▁موجود	-5967
▁يتحدث	-5968
▁الفنية	-5969
▁المدار	-5970
▁الهيئة	-5971
▁الارتفاع	-5972
ph	-5973
ثف	-5974
افا	-5975
داة	-5976
ذيب	-5977
كدة	-5978
▁(4	-5979
▁2-	-5980
▁In	-5981
▁خص	-5982
فسهم	-5983
وارع	-5984
وتون	-5985
▁بدل	-5986
▁سيط	-5987
▁صلى	-5988
▁نات	-5989
ذكسية	-5990
▁رشيد	-5991
▁التحق	-5992
▁الفتح	-5993
▁الهدف	-5994
▁رومان	-5995
▁طبيعة	-5996
▁طوكيو	-5997
▁فمثلا	-5998
▁مجتمع	-5999
▁مراحل	-6000
▁مساعد	-6001
▁وإنما	-6002
▁الراين	-6003
▁مواضيع	-6004
▁الأجهزة	-6005
▁الثقافي	-6006
▁المعادلات	-6007
ay	-6008
ئذ	-6009
زق	-6010
نك	-6011
وّ	-6012
حدة	-6013
ضاع	-6014
▁de	-6015
وبيا	-6016
وفات	-6017
ومين	-6018
▁حرة	-6019
▁التل	-6020
▁الول	-6021
▁بابا	-6022
▁بقية	-6023
▁تصدر	-6024
▁مدير	-6025
▁الإحص	-6026
▁الفلب	-6027
▁القول	-6028
▁النيو	-6029
▁لديها	-6030
▁والبر	-6031
▁إنجليز	-6032
▁الجنسي	-6033
▁الأحياء	-6034
▁الرياضة	-6035
▁الناحية	-6036
▁مساحتها	-6037
▁الصليبية	-6038
▁الاستعمار	-6039
ِد	-6040
ئلة	-6041
خاذ	-6042
مير	-6043
▁إج	-6044
▁سه	-6045
▁ضر	-6046
قتها	-6047
ناول	-6048
▁بنو	-6049
▁روى	-6050
▁شاع	-6051
▁للز	-6052
▁ميخ	-6053
▁ميز	-6054
تالية	-6055
▁تعطي	-6056
▁تميز	-6057
▁لديه	-6058
▁هتلر	-6059
▁يريد	-6060
ظاهرات	-6061
▁المحد	-6062
▁الميث	-6063
▁ظاهرة	-6064
▁لاحقا	-6065
▁ومحمد	-6066
▁القضاء	-6067
▁الموجة	-6068
▁معالجة	-6069
▁الآخرين	-6070
▁الأجسام	-6071
▁التعامل	-6072
▁الثامنة	-6073
▁الحمراء	-6074
▁الروابط	-6075
▁الفلسفة	-6076
▁المعرفة	-6077
56	-6078
▁“	-6079
اسا	-6080
حيد	-6081
زيم	-6082
طرا	-6083
فير	-6084
كوك	-6085
لقب	-6086
وتش	-6087
يتش	-6088
يزة	-6089
وازن	-6090
واني	-6091
▁120	-6092
▁حفظ	-6093
▁شين	-6094
▁عاز	-6095
▁أشعة	-6096
▁تقلي	-6097
▁توقع	-6098
▁كاست	-6099
▁واضح	-6100
▁ومست	-6101
درائية	-6102
وفاكيا	-6103
▁الجاه	-6104
▁السجن	-6105
▁القيم	-6106
▁المفت	-6107
▁النصر	-6108
▁مسيحي	-6109
▁اعتماد	-6110
▁الطبية	-6111
▁التجاري	-6112
▁الأبجدية	-6113
وأ	-6114
فرد	-6115
فيس	-6116
تنام	-6117
▁أسر	-6118
▁جيل	-6119
▁زال	-6120
▁قوى	-6121
▁قيل	-6122
▁كيو	-6123
اولات	-6124
▁1922	-6125
▁أبيه	-6126
▁الدر	-6127
▁بالص	-6128
▁تنتج	-6129
▁ذكور	-6130
▁راشد	-6131
▁سامي	-6132
▁شاطئ	-6133
▁شعره	-6134
▁مؤقت	-6135
▁معها	-6136
▁أدولف	-6137
▁البلد	-6138
▁السور	-6139
▁حاسوب	-6140
▁كثيرا	-6141
▁كميات	-6142
▁نيوتن	-6143
▁والتق	-6144
▁ياسين	-6145
▁اختصار	-6146
▁غالبًا	-6147
▁لولاية	-6148
رائيليون	-6149
▁الأربعة	-6150
▁إليزابيث	-6151
▁إنجليزية	-6152
▁المعدنية	-6153
▁للجمهورية	-6154
58	-6155
تاز	-6156
ضغط	-6157
فرع	-6158
▁قض	-6159
اليم	-6160
طباء	-6161
▁كاز	-6162
▁مسب	-6163
▁1916	-6164
▁تدعى	-6165
▁نصوص	-6166
▁أنطون	-6167
▁السير	-6168
▁الوطن	-6169
▁بالله	-6170
▁صحيفة	-6171
▁كبيرا	-6172
▁وأكبر	-6173
▁وأيضا	-6174
▁النهضة	-6175
▁تاريخه	-6176
▁ثمانية	-6177
▁مقالات	-6178
▁ألمانية	-6179
▁الأماكن	-6180
▁اسكتلندي	-6181
▁العثمانيين	-6182
43	-6183
59	-6184
73	-6185
ظل	-6186
ْد	-6187
سكو	-6188
▁كش	-6189
ائعة	-6190
ابيع	-6191
اطمة	-6192
جاوز	-6193
يسون	-6194
▁حوض	-6195
▁لمس	-6196
▁لوي	-6197
▁متع	-6198
▁نجم	-6199
▁ونظ	-6200
شارات	-6201
▁العر	-6202
▁تشبه	-6203
▁جلال	-6204
▁عودة	-6205
▁وأحد	-6206
▁أندري	-6207
▁الأنا	-6208
▁خدمات	-6209
▁سابقا	-6210
▁منهما	-6211
▁وصحفي	-6212
▁ومخرج	-6213
▁ويسمى	-6214
▁ويقال	-6215
▁الآلهة	-6216
▁الحجاج	-6217
▁الكامل	-6218
▁الأسنان	-6219
▁التقنية	-6220
▁فريدريك	-6221
▁استقلالها	-6222
84	-6223
▁X	-6224
اضر	-6225
دون	-6226
ماج	-6227
وسة	-6228
يوم	-6229
▁شت	-6230
رابل	-6231
رافق	-6232
▁بوز	-6233
▁ترت	-6234
▁للو	-6235
▁وتص	-6236
ؤولية	-6237
علامي	-6238
▁1910	-6239
▁تبعد	-6240
▁جميل	-6241
▁رسوم	-6242
▁قدرة	-6243
▁قضية	-6244
▁مكسي	-6245
▁هندي	-6246
▁ولها	-6247
▁الترا	-6248
▁الجهة	-6249
▁تجربة	-6250
▁يتميز	-6251
▁يساعد	-6252
▁الربيع	-6253
▁القلعة	-6254
▁النسخة	-6255
▁علاقات	-6256
▁لمدينة	-6257
▁منظمات	-6258
▁الإطلاق	-6259
▁الاتصال	-6260
▁الحقيقة	-6261
▁نابليون	-6262
▁الفارسية	-6263
tp	-6264
ئا	-6265
قص	-6266
باه	-6267
غلب	-6268
فعة	-6269
كيف	-6270
▁مذ	-6271
جمال	-6272
خفاض	-6273
طنين	-6274
لكية	-6275
واطئ	-6276
▁عال	-6277
▁فيل	-6278
▁مقت	-6279
▁ممن	-6280
طنبول	-6281
▁آمون	-6282
▁الاث	-6283
▁بيير	-6284
▁طبقة	-6285
▁محدد	-6286
▁وصلت	-6287
▁إقامة	-6288
▁الغزو	-6289
▁رئيسة	-6290
▁وتوجد	-6291
▁ووزير	-6292
▁القارة	-6293
▁الموصل	-6294
▁الهيكل	-6295
▁بولندا	-6296
▁دراسته	-6297
▁الصناعي	-6298
▁المبكرة	-6299
اكس	-6300
ورى	-6301
▁تسي	-6302
▁سلم	-6303
▁صحة	-6304
▁غور	-6305
▁فما	-6306
▁قوي	-6307
واريخ	-6308
وشيما	-6309
▁1912	-6310
▁أقرب	-6311
▁جوان	-6312
▁حروب	-6313
▁دائم	-6314
▁نسخة	-6315
▁وقبل	-6316
▁أطفال	-6317
▁الاصط	-6318
▁تماما	-6319
▁تمثيل	-6320
▁معارك	-6321
▁التوقي	-6322
▁الجزيء	-6323
▁القيام	-6324
▁الأميرة	-6325
▁البخاري	-6326
▁البيضاء	-6327
▁إسرائيليون	-6328
79	-6329
sp	-6330
جح	-6331
لر	-6332
ِ،	-6333
▁•	-6334
رسة	-6335
عدل	-6336
▁آي	-6337
▁فد	-6338
▁هل	-6339
بدال	-6340
ركية	-6341
فورد	-6342
وجات	-6343
ودين	-6344
يفية	-6345
▁انع	-6346
▁بيد	-6347
▁فضل	-6348
▁للث	-6349
▁مصف	-6350
▁ناج	-6351
برهنة	-6352
ديلات	-6353
وفسكي	-6354
وفيتش	-6355
▁1908	-6356
▁بانت	-6357
▁بيري	-6358
▁ساحة	-6359
▁شهدت	-6360
▁وجعل	-6361
▁يكتب	-6362
▁إدريس	-6363
▁الرمز	-6364
▁الصلب	-6365
▁الليل	-6366
▁برلين	-6367
▁تنتمي	-6368
▁فكانت	-6369
▁للعمل	-6370
▁ماريا	-6371
▁الحقيقي	-6372
▁الكثافة	-6373
▁المدنية	-6374
▁عراقيون	-6375
▁المؤسسات	-6376
''	-6377
ap	-6378
eb	-6379
ud	-6380
زى	-6381
▁Y	-6382
▁k	-6383
ack	-6384
ter	-6385
ئمة	-6386
ئيل	-6387
ايت	-6388
ضاً	-6389
غار	-6390
قاب	-6391
ماة	-6392
هوة	-6393
▁لز	-6394
اصلة	-6395
اقية	-6396
خطوط	-6397
ذاعة	-6398
سلطة	-6399
▁جنس	-6400
▁لتق	-6401
▁واط	-6402
▁يدل	-6403
خدمات	-6404
سبورغ	-6405
▁قديم	-6406
▁لسنة	-6407
▁مثلث	-6408
▁نقاط	-6409
▁ووضع	-6410
▁الجنس	-6411
▁العين	-6412
▁المجر	-6413
▁المقر	-6414
▁بعدما	-6415
▁تمتلك	-6416
▁والتن	-6417
▁يوهان	-6418
▁أساسية	-6419
▁الابتد	-6420
▁الحجري	-6421
▁الحقوق	-6422
▁القتال	-6423
▁كويتية	-6424
▁للبلاد	-6425
▁الاتفاق	-6426
▁الحربية	-6427
▁الدراسة	-6428
▁الكويتي	-6429
▁النتائج	-6430
▁الثانوية	-6431
▁الدكتوراه	-6432
▁الموسيقية	-6433
5%	-6434
62	-6435
ik	-6436
الش	-6437
روة	-6438
غبة	-6439
فوذ	-6440
▁هر	-6441
ليوم	-6442
يلاء	-6443
▁أوت	-6444
▁ابت	-6445
▁بتر	-6446
▁بتق	-6447
▁عود	-6448
غالية	-6449
▁أخيه	-6450
▁بصفة	-6451
▁تربط	-6452
▁زيوس	-6453
▁عبيد	-6454
▁فرقة	-6455
▁ياسر	-6456
▁اقترح	-6457
▁مسؤول	-6458
▁الأساس	-6459
▁الفريق	-6460
▁الهادي	-6461
▁الثنائي	-6462
▁الكورية	-6463
▁	-6464
ا	-6465
ل	-6466
ي	-6467
م	-6468
و	-6469
ن	-6470
ر	-6471
ت	-6472
ب	-6473
ة	-6474
ع	-6475
د	-6476
س	-6477
ف	-6478
ه	-6479
ك	-6480
أ	-6481
ق	-6482
ح	-6483
ج	-6484
.	-6485
،	-6486
ط	-6487
ش	-6488
ص	-6489
إ	-6490
خ	-6491
ز	-6492
ى	-6493
ث	-6494
1	-6495
غ	-6496
ذ	-6497
ض	-6498
ئ	-6499
9	-6500
0	-6501
-	-6502
2	-6503
ء	-6504
ً	-6505
(	-6506
)	-6507
ظ	-6508
8	-6509
:	-6510
3	-6511
5	-6512
7	-6513
4	-6514
6	-6515
ّ	-6516
َ	-6517
ُ	-6518
آ	-6519
e	-6520
a	-6521
«	-6522
»	-6523
i	-6524
ؤ	-6525
n	-6526
o	-6527
r	-6528
t	-6529
ِ	-6530
s	-6531
ـ	-6532
l	-6533
c	-6534
,	-6535
u	-6536
d	-6537
ْ	-6538
h	-6539
m	-6540
"	-6541
/	-6542
p	-6543
C	-6544
g	-6545
S	-6546
|	-6547
A	-6548
B	-6549
–	-6550
y	-6551
f	-6552
b	-6553
؛	-6554
=	-6555
%	-6556
H	-6557
ٍ	-6558
M	-6559
P	-6560
T	-6561
k	-6562
I	-6563
w	-6564
v	-6565
D	-6566
N	-6567
R	-6568
E	-6569
L	-6570
O	-6571
x	-6572
F	-6573
G	-6574
ٌ	-6575
z	-6576
+	-6577
V	-6578
'	-6579
K	-6580
\	-6581
>	-6582
W	-6583
U	-6584
؟	-6585
<	-6586
]	-6587
ی	-6588
[	-6589
!	-6590
J	-6591
;	-6592
X	-6593
*	-6594
{	-6595
j	-6596
}	-6597
_	-6598
٪	-6599
q	-6600
°	-6601
Y	-6602
Z	-6603
”	-6604
×	-6605
“	-6606
é	-6607
•	-6608
í	-6609
Q	-6610
#	-6611
پ	-6612
—	-6613
گ	-6614
ک	-6615
ü	-6616
→	-6617
−	-6618
ו	-6619
ä	-6620
ھ	-6621
&	-6622
‍	-6623
י	-6624
·	-6625
?	-6626
ڤ	-6627
ə	-6628
α	-6629
á	-6630
ö	-6631
א	-6632
ı	-6633
ε	-6634
ר	-6635
ο	-6636
ש	-6637
ν	-6638
ë	-6639
ה	-6640
$	-6641
ς	-6642
σ	-6643
ל	-6644
è	-6645
ó	-6646
μ	-6647
ō	-6648
δ	-6649
λ	-6650
ת	-6651
נ	-6652
⁄	-6653
大	-6654
ٰ	-6655
’	-6656
⁬	-6657
π	-6658
מ	-6659
市	-6660
ρ	-6661
ב	-6662
à	-6663
Δ	-6664
ι	-6665
^	-6666
~	-6667
天	-6668
田	-6669
﴾	-6670
а	-6671
к	-6672
о	-6673
ע	-6674
信	-6675
区	-6676
﴿	-6677
ā	-6678
Ş	-6679
の	-6680
ū	-6681
神	-6682
τ	-6683
н	-6684
ร	-6685
′	-6686
ⴰ	-6687
±	-6688
κ	-6689
е	-6690
ן	-6691
چ	-6692
道	-6693
ñ	-6694
ú	-6695
ʾ	-6696
Ω	-6697
ד	-6698
川	-6699
皇	-6700
長	-6701
β	-6702
η	-6703
и	-6704
١	-6705
ⵜ	-6706
代	-6707
θ	-6708
٠	-6709
ٱ	-6710
時	-6711
武	-6712
ş	-6713
р	-6714
ּ	-6715
פ	-6716
ק	-6717
٬	-6718
《	-6719
γ	-6720
ם	-6721
צ	-6722
า	-6723
←	-6724
》	-6725
平	-6726
徳	-6727
東	-6728
Σ	-6729
ζ	-6730
ό	-6731
в	-6732
с	-6733
ג	-6734
ח	-6735
כ	-6736
国	-6737
寺	-6738
本	-6739
ß	-6740
ç	-6741
ł	-6742
น	-6743
ิ	-6744
≤	-6745
宮	-6746
日	-6747
ì	-6748
ę	-6749
ī	-6750
ί	-6751
ω	-6752
д	-6753
ִ	-6754
ڨ	-6755
ม	-6756
∞	-6757
ⵉ	-6758
原	-6759
和	-6760
家	-6761
山	-6762
康	-6763
朝	-6764
河	-6765
源	-6766
織	-6767
藤	-6768
Ü	-6769
ː	-6770
́	-6771
ά	-6772
у	-6773
ט	-6774
٨	-6775
‘	-6776
∘	-6777
利	-6778
É	-6779
÷	-6780
ą	-6781
٢	-6782
ᄋ	-6783
⟶	-6784
ⵏ	-6785
子	-6786
月	-6787
氏	-6788
義	-6789
足	-6790
â	-6791
ò	-6792
ô	-6793
ǎ	-6794
ɣ	-6795
А	-6796
С	-6797
л	-6798
ַ	-6799
ٲ	-6800
ٳ	-6801
ܐ	-6802
ܡ	-6803
ܢ	-6804
ก	-6805
พ	-6806
≈	-6807
中	-6808
人	-6809
仁	-6810
南	-6811
吉	-6812
名	-6813
安	-6814
戦	-6815
物	-6816
õ	-6817
ě	-6818
Π	-6819
ь	-6820
ְ	-6821
٤	-6822
٩	-6823
ท	-6824
ุ	-6825
ḍ	-6826
≠	-6827
ー	-6828
區	-6829
文	-6830
新	-6831
書	-6832
江	-6833
白	-6834
社	-6835
秀	-6836
花	-6837
西	-6838
豊	-6839
Ç	-6840
ê	-6841
č	-6842
ˈ	-6843
ύ	-6844
й	-6845
т	-6846
ڠ	-6847
ܘ	-6848
ா	-6849
ต	-6850
ั	-6851
์	-6852
་	-6853
√	-6854
タ	-6855
上	-6856
光	-6857
北	-6858
古	-6859
将	-6860
島	-6861
戸	-6862
政	-6863
治	-6864
照	-6865
玄	-6866
臣	-6867
軍	-6868
関	-6869
頼	-6870
館	-6871
	-6872
£	-6873
§	-6874
Æ	-6875
æ	-6876
ē	-6877
̄	-6878
υ	-6879
ψ	-6880
М	-6881
м	-6882
і	-6883
ָ	-6884
ס	-6885
٣	-6886
٥	-6887
ۡ	-6888
ܕ	-6889
ܟ	-6890
ܬ	-6891
க	-6892
ர	-6893
ส	-6894
ห	-6895
อ	-6896
เ	-6897
ᄅ	-6898
⟨	-6899
⟩	-6900
ⵍ	-6901
ⵎ	-6902
ⵙ	-6903
ⵡ	-6904
し	-6905
ん	-6906
久	-6907
京	-6908
定	-6909
州	-6910
明	-6911
木	-6912
杉	-6913
海	-6914
清	-6915
行	-6916
語	-6917
野	-6918
風	-6919
鳥	-6920
@	-6921
`	-6922
ï	-6923
ő	-6924
š	-6925
ż	-6926
Α	-6927
Φ	-6928
έ	-6929
ή	-6930
φ	-6931
ώ	-6932
Ж	-6933
п	-6934
ч	-6935
ֹ	-6936
٦	-6937
ہ	-6938
ܚ	-6939
ܝ	-6940
ܪ	-6941
ܫ	-6942
்	-6943
ง	-6944
ธ	-6945
ย	-6946
ว	-6947
ῶ	-6948
‹	-6949
›	-6950
≥	-6951
ⲁ	-6952
ⲡ	-6953
ⵔ	-6954
た	-6955
り	-6956
イ	-6957
カ	-6958
シ	-6959
ナ	-6960
万	-6961
下	-6962
东	-6963
事	-6964
参	-6965
圓	-6966
城	-6967
士	-6968
夫	-6969
後	-6970
応	-6971
摂	-6972
摩	-6973
桜	-6974
法	-6975
満	-6976
生	-6977
町	-6978
盛	-6979
省	-6980
礼	-6981
紫	-6982
茶	-6983
草	-6984
薩	-6985
謙	-6986
阪	-6987
어	-6988
	-6989
Å	-6990
Ö	-6991
î	-6992
ù	-6993
û	-6994
ğ	-6995
ŋ	-6996
ŏ	-6997
ś	-6998
ž	-6999
ɛ	-7000
Γ	-7001
Κ	-7002
Є	-7003
Н	-7004
Р	-7005
Ф	-7006
ї	-7007
ֵ	-7008
ׁ	-7009
ז	-7010
٭	-7011
ژ	-7012
۔	-7013
ە	-7014
ܒ	-7015
ܠ	-7016
ि	-7017
ு	-7018
ช	-7019
ณ	-7020
ะ	-7021
ད	-7022
ᄀ	-7023
ᄂ	-7024
ᄇ	-7025
በ	-7026
‡	-7027
≡	-7028
⊆	-7029
ⴳ	-7030
ⴷ	-7031
ⴻ	-7032
ⵓ	-7033
ⵖ	-7034
ⵢ	-7035
ⵣ	-7036
い	-7037
か	-7038
ア	-7039
ウ	-7040
ジ	-7041
ニ	-7042
ブ	-7043
ロ	-7044
ン	-7045
・	-7046
七	-7047
五	-7048
侍	-7049
保	-7050
元	-7051
八	-7052
县	-7053
合	-7054
地	-7055
夷	-7056
奈	-7057
孔	-7058
孝	-7059
尾	-7060
广	-7061
式	-7062
方	-7063
族	-7064
昭	-7065
条	-7066
林	-7067
水	-7068
洋	-7069
湯	-7070
特	-7071
禅	-7072
稲	-7073
筛	-7074
紀	-7075
紅	-7076
縣	-7077
良	-7078
見	-7079
記	-7080
通	-7081
那	-7082
部	-7083
銀	-7084
閣	-7085
隆	-7086
革	-7087
飛	-7088
鲁	-7089
한	-7090
¡	-7091
Ñ	-7092
ð	-7093
ý	-7094
Č	-7095
Đ	-7096
Ĝ	-7097
İ	-7098
ń	-7099
ƒ	-7100
ǔ	-7101
ɾ	-7102
ʒ	-7103
ʤ	-7104
ʿ	-7105
̆	-7106
͡	-7107
Ά	-7108
Β	-7109
Ε	-7110
Ζ	-7111
Θ	-7112
Λ	-7113
Ν	-7114
Τ	-7115
Υ	-7116
Χ	-7117
ξ	-7118
Б	-7119
В	-7120
Г	-7121
К	-7122
П	-7123
У	-7124
Х	-7125
Ц	-7126
Ю	-7127
Я	-7128
ш	-7129
щ	-7130
я	-7131
ѕ	-7132
ֶ	-7133
ך	-7134
ף	-7135
ץ	-7136
ٔ	-7137
٧	-7138
٫	-7139
ڈ	-7140
ۈ	-7141
ێ	-7142
ۗ	-7143
۝	-7144
ۢ	-7145
ܓ	-7146
ܗ	-7147
ܙ	-7148
ܣ	-7149
ܤ	-7150
ܥ	-7151
ܩ	-7152
ग	-7153
ा	-7154
গ	-7155
ઠ	-7156
த	-7157
ந	-7158
ப	-7159
ய	-7160
ி	-7161
ค	-7162
ด	-7163
ถ	-7164
ภ	-7165
ี	-7166
མ	-7167
འ	-7168
ལ	-7169
ས	-7170
ི	-7171
ེ	-7172
ྲ	-7173
ᄃ	-7174
ᄆ	-7175
ᄑ	-7176
ᅡ	-7177
ᅣ	-7178
ር	-7179
ሷ	-7180
አ	-7181
Ḥ	-7182
ṭ	-7183
ạ	-7184
ệ	-7185
ἀ	-7186
ὰ	-7187
ῆ	-7188
ῷ	-7189
⁧	-7190
⁩	-7191
₭	-7192
↔	-7193
ⲓ	-7194
ⲙ	-7195
ⲛ	-7196
ⲟ	-7197
ⲥ	-7198
ⲩ	-7199
ⲫ	-7200
ⴱ	-7201
ⴼ	-7202
ⵊ	-7203
え	-7204
く	-7205
げ	-7206
と	-7207
に	-7208
び	-7209
れ	-7210
わ	-7211
ク	-7212
コ	-7213
ス	-7214
ト	-7215
ド	-7216
ヌ	-7217
プ	-7218
ム	-7219
ャ	-7220
ョ	-7221
ラ	-7222
リ	-7223
ヶ	-7224
世	-7225
丸	-7226
二	-7227
井	-7228
仮	-7229
伊	-7230
倉	-7231
僕	-7232
允	-7233
兵	-7234
円	-7235
分	-7236
别	-7237
剣	-7238
化	-7239
千	-7240
台	-7241
君	-7242
哇	-7243
四	-7244
圳	-7245
太	-7246
女	-7247
姑	-7248
室	-7249
尊	-7250
少	-7251
居	-7252
屋	-7253
岡	-7254
崇	-7255
崎	-7256
幕	-7257
幡	-7258
幹	-7259
広	-7260
库	-7261
府	-7262
弥	-7263
征	-7264
忠	-7265
慶	-7266
所	-7267
手	-7268
拜	-7269
撒	-7270
撲	-7271
改	-7272
景	-7273
智	-7274
更	-7275
梅	-7276
民	-7277
汉	-7278
沈	-7279
泉	-7280
洪	-7281
洲	-7282
淡	-7283
淮	-7284
深	-7285
湾	-7286
漢	-7287
澤	-7288
王	-7289
甚	-7290
直	-7291
相	-7292
真	-7293
睦	-7294
福	-7295
私	-7296
空	-7297
紙	-7298
線	-7299
羽	-7300
肥	-7301
能	-7302
自	-7303
苏	-7304
荷	-7305
葉	-7306
蔘	-7307
術	-7308
街	-7309
衣	-7310
袋	-7311
谷	-7312
越	-7313
辖	-7314
辽	-7315
郷	-7316
都	-7317
重	-7318
金	-7319
鎌	-7320
門	-7321
開	-7322
間	-7323
阳	-7324
陵	-7325
集	-7326
魏	-7327
鹿	-7328
默	-7329
간	-7330
래	-7331
아	-7332
야	-7333
외	-7334
자	-7335
𐀆	-7336
𐀡	-7337
𐀮	-7338
𐤇	-7339
𐩢	-7340
𐩣	-7341
𐩧	-7342
𐩩	-7343
𐩳	-7344
¢	-7345
¥	-7346
­	-7347
Á	-7348
Ä	-7349
Î	-7350
Ø	-7351
ã	-7352
å	-7353
Ā	-7354
ć	-7355
ĉ	-7356
ĝ	-7357
ĥ	-7358
ħ	-7359
ĵ	-7360
Ľ	-7361
ň	-7362
Ō	-7363
œ	-7364
Ŝ	-7365
ŝ	-7366
ŭ	-7367
ź	-7368
Ɣ	-7369
ǧ	-7370
ș	-7371
ɑ	-7372
ɔ	-7373
ɲ	-7374
ʃ	-7375
ʦ	-7376
ˁ	-7377
ˌ	-7378
ˑ	-7379
̃	-7380
̊	-7381
Η	-7382
Ι	-7383
Μ	-7384
Ξ	-7385
Ο	-7386
Ρ	-7387
Ψ	-7388
χ	-7389
ϝ	-7390
І	-7391
Ї	-7392
Љ	-7393
Њ	-7394
Ћ	-7395
Џ	-7396
Д	-7397
Е	-7398
З	-7399
И	-7400
Й	-7401
Л	-7402
О	-7403
Т	-7404
Ч	-7405
Ш	-7406
Щ	-7407
Ъ	-7408
Ы	-7409
Ь	-7410
б	-7411
г	-7412
з	-7413
х	-7414
ы	-7415
ё	-7416
љ	-7417
Ґ	-7418
қ	-7419
ң	-7420
ү	-7421
ө	-7422
Թ	-7423
ի	-7424
ն	-7425
ո	-7426
ր	-7427
ֲ	-7428
ֻ	-7429
־	-7430
ײ	-7431
״	-7432
ؐ	-7433
ٓ	-7434
ٕ	-7435
ٞ	-7436
ٹ	-7437
ڢ	-7438
ۃ	-7439
ۆ	-7440
ۖ	-7441
ۚ	-7442
۟	-7443
۱	-7444
ܛ	-7445
ܦ	-7446
ܨ	-7447
ݘ	-7448
ं	-7449
क	-7450
च	-7451
त	-7452
फ	-7453
व	-7454
श	-7455
स	-7456
़	-7457
्	-7458
ঙ	-7459
া	-7460
্	-7461
ਖ	-7462
ਸ	-7463
ਿ	-7464
ੀ	-7465
ੱ	-7466
ங	-7467
ச	-7468
ட	-7469
ண	-7470
ம	-7471
வ	-7472
ூ	-7473
ප	-7474
ය	-7475
ර	-7476
ල	-7477
්	-7478
ි	-7479
ු	-7480
ฑ	-7481
บ	-7482
ป	-7483
ล	-7484
ศ	-7485
ษ	-7486
ฯ	-7487
โ	-7488
้	-7489
ກ	-7490
ບ	-7491
ີ	-7492
།	-7493
ཀ	-7494
ག	-7495
ང	-7496
ཇ	-7497
ན	-7498
ཕ	-7499
ཟ	-7500
ར	-7501
ུ	-7502
ོ	-7503
ᄁ	-7504
ᄄ	-7505
ᄈ	-7506
ᄉ	-7507
ᄊ	-7508
ᄌ	-7509
ᄍ	-7510
ᄎ	-7511
ᄏ	-7512
ᄐ	-7513
ᄒ	-7514
ᅢ	-7515
ᅤ	-7516
ᅥ	-7517
ᅦ	-7518
ᅧ	-7519
ᅨ	-7520
ᅩ	-7521
ᅪ	-7522
ᅫ	-7523
ᅬ	-7524
ᅭ	-7525
ᅮ	-7526
ᅯ	-7527
ᅰ	-7528
ᅱ	-7529
ᅲ	-7530
ᅳ	-7531
ᅴ	-7532
ᅵ	-7533
ል	-7534
ሎ	-7535
ማ	-7536
ም	-7537
ቅ	-7538
ቡ	-7539
ኛ	-7540
ደ	-7541
ዳ	-7542
ድ	-7543
ጃ	-7544
ጊ	-7545
ጋ	-7546
ፊ	-7547
ᒾ	-7548
ḕ	-7549
ḗ	-7550
Ṣ	-7551
ṣ	-7552
ẓ	-7553
ố	-7554
ộ	-7555
ụ	-7556
ἄ	-7557
Ἀ	-7558
ἑ	-7559
ἡ	-7560
ἤ	-7561
ἰ	-7562
ἴ	-7563
Ἰ	-7564
ὐ	-7565
ὕ	-7566
ὴ	-7567
ᾍ	-7568
ᾱ	-7569
ᾶ	-7570
ῦ	-7571
⁪	-7572
₣	-7573
€	-7574
₮	-7575
↑	-7576
⇝	-7577
∂	-7578
∆	-7579
⊕	-7580
⋅	-7581
┒	-7582
☉	-7583
ⴶ	-7584
ⴽ	-7585
ⵀ	-7586
ⵃ	-7587
ⵄ	-7588
ⵝ	-7589
あ	-7590
う	-7591
お	-7592
が	-7593
け	-7594
こ	-7595
ず	-7596
せ	-7597
だ	-7598
っ	-7599
つ	-7600
な	-7601
は	-7602
ば	-7603
ぶ	-7604
べ	-7605
ぼ	-7606
も	-7607
ゆ	-7608
よ	-7609
ら	-7610
ゑ	-7611
を	-7612
ァ	-7613
ィ	-7614
オ	-7615
ガ	-7616
グ	-7617
ッ	-7618
ハ	-7619
バ	-7620
ビ	-7621
ピ	-7622
フ	-7623
ベ	-7624
ボ	-7625
ポ	-7626
モ	-7627
ュ	-7628
ル	-7629
レ	-7630
ㄅ	-7631
ㄆ	-7632
ㄇ	-7633
ㄈ	-7634
ㄉ	-7635
ㄊ	-7636
ㄋ	-7637
ㄌ	-7638
ㄍ	-7639
ㄎ	-7640
ㄏ	-7641
ㄐ	-7642
ㄑ	-7643
ㄒ	-7644
ㄓ	-7645
ㄔ	-7646
ㄕ	-7647
ㄖ	-7648
ㄗ	-7649
ㄘ	-7650
ㄙ	-7651
ㄚ	-7652
ㄛ	-7653
ㄜ	-7654
ㄝ	-7655
ㄞ	-7656
ㄟ	-7657
ㄠ	-7658
ㄡ	-7659
ㄢ	-7660
ㄣ	-7661
ㄤ	-7662
ㄥ	-7663
ㄦ	-7664
ㄧ	-7665
ㄨ	-7666
ㄩ	-7667
丁	-7668
三	-7669
与	-7670
主	-7671
乌	-7672
九	-7673
争	-7674
于	-7675
亳	-7676
今	-7677
仙	-7678
令	-7679
伎	-7680
伏	-7681
作	-7682
便	-7683
俳	-7684
俺	-7685
値	-7686
儒	-7687
先	-7688
児	-7689
入	-7690
六	-7691
共	-7692
冷	-7693
出	-7694
列	-7695
初	-7696
別	-7697
刺	-7698
前	-7699
功	-7700
加	-7701
勇	-7702
動	-7703
勝	-7704
勢	-7705
十	-7706
华	-7707
単	-7708
博	-7709
历	-7710
厘	-7711
厚	-7712
厳	-7713
參	-7714
口	-7715
句	-7716
可	-7717
呂	-7718
周	-7719
命	-7720
唐	-7721
善	-7722
喜	-7723
回	-7724
圆	-7725
圣	-7726
场	-7727
垂	-7728
基	-7729
堀	-7730
堂	-7731
場	-7732
墓	-7733
墨	-7734
夢	-7735
央	-7736
如	-7737
姫	-7738
娘	-7739
学	-7740
孫	-7741
宁	-7742
宅	-7743
守	-7744
宋	-7745
宝	-7746
宾	-7747
富	-7748
將	-7749
尋	-7750
小	-7751
履	-7752
岛	-7753
峦	-7754
峻	-7755
崖	-7756
布	-7757
帝	-7758
帯	-7759
幌	-7760
年	-7761
廣	-7762
弓	-7763
弗	-7764
弘	-7765
張	-7766
弾	-7767
形	-7768
影	-7769
得	-7770
御	-7771
德	-7772
徽	-7773
怀	-7774
急	-7775
愛	-7776
戊	-7777
成	-7778
我	-7779
扁	-7780
扬	-7781
投	-7782
折	-7783
抹	-7784
振	-7785
推	-7786
操	-7787
攻	-7788
料	-7789
斯	-7790
於	-7791
施	-7792
旋	-7793
春	-7794
曜	-7795
曳	-7796
曹	-7797
未	-7798
札	-7799
村	-7800
来	-7801
松	-7802
枚	-7803
枝	-7804
架	-7805
染	-7806
柔	-7807
栃	-7808
校	-7809
桐	-7810
桶	-7811
梟	-7812
梧	-7813
森	-7814
楊	-7815
楷	-7816
楽	-7817
榮	-7818
横	-7819
橋	-7820
歌	-7821
殿	-7822
毛	-7823
気	-7824
沙	-7825
津	-7826
浅	-7827
浮	-7828
浴	-7829
温	-7830
湖	-7831
濃	-7832
瀋	-7833
災	-7834
為	-7835
無	-7836
爆	-7837
片	-7838
牛	-7839
狭	-7840
目	-7841
着	-7842
石	-7843
祭	-7844
祯	-7845
禁	-7846
禪	-7847
禮	-7848
秋	-7849
秦	-7850
穀	-7851
穆	-7852
立	-7853
笔	-7854
等	-7855
箇	-7856
箏	-7857
管	-7858
節	-7859
米	-7860
粟	-7861
納	-7862
絵	-7863
絹	-7864
綱	-7865
縄	-7866
红	-7867
纳	-7868
线	-7869
羅	-7870
者	-7871
而	-7872
聖	-7873
舞	-7874
舟	-7875
艾	-7876
芜	-7877
芭	-7878
苑	-7879
茂	-7880
茅	-7881
莲	-7882
菅	-7883
蕉	-7884
蕪	-7885
蘇	-7886
虎	-7887
蝦	-7888
螺	-7889
衛	-7890
表	-7891
袴	-7892
言	-7893
詮	-7894
話	-7895
誉	-7896
誓	-7897
誠	-7898
読	-7899
謝	-7900
護	-7901
豆	-7902
豚	-7903
財	-7904
資	-7905
贤	-7906
赤	-7907
路	-7908
身	-7909
車	-7910
輝	-7911
车	-7912
辰	-7913
近	-7914
连	-7915
迪	-7916
速	-7917
遠	-7918
遼	-7919
里	-7920
銭	-7921
錢	-7922
鐘	-7923
鐵	-7924
铁	-7925
长	-7926
閥	-7927
门	-7928
阜	-7929
阿	-7930
陳	-7931
隊	-7932
隠	-7933
雄	-7934
雪	-7935
雲	-7936
震	-7937
青	-7938
面	-7939
鞋	-7940
食	-7941
馆	-7942
馬	-7943
駄	-7944
駿	-7945
马	-7946
魔	-7947
魯	-7948
鶴	-7949
麦	-7950
麻	-7951
黍	-7952
黑	-7953
黒	-7954
齐	-7955
龍	-7956
가	-7957
고	-7958
국	-7959
글	-7960
기	-7961
닙	-7962
대	-7963
려	-7964
말	-7965
삼	-7966
선	-7967
시	-7968
역	-7969
요	-7970
월	-7971
음	-7972
일	-7973
잎	-7974
조	-7975
표	-7976
홍	-7977
￼	-7978
𐀃	-7979
𐀚	-7980
𐀺	-7981
𐡇	-7982
𐢊	-7983
𐤁	-7984
𐤋	-7985
𐤌	-7986
𐤍	-7987
𐤏	-7988
𐩥	-7989
𓂋	-7990
𓅓	-7991
𓆎	-7992
𓈖	-7993
𓊖	-7994
𓏏	-7995
𓏺	-7996
