<unk>	0
<s>	0
</s>	0
▁क	-0
▁स	-1
▁ह	-2
▁म	-3
▁प	-4
ें	-5
ार	-6
ने	-7
▁के	-8
्र	-9
▁ब	-10
▁है	-11
▁ज	-12
या	-13
▁द	-14
▁में	-15
▁र	-16
▁ल	-17
▁अ	-18
▁व	-19
ों	-20
▁की	-21
▁न	-22
▁को	-23
▁ग	-24
ान	-25
र्	-26
▁आ	-27
▁से	-28
▁कि	-29
ता	-30
▁इ	-31
▁कर	-32
▁का	-33
▁भ	-34
▁त	-35
▁उ	-36
▁ने	-37
ना	-38
िक	-39
्य	-40
▁पर	-41
ाल	-42
िल	-43
▁च	-44
▁श	-45
▁औ	-46
स्	-47
▁प्र	-48
▁और	-49
क्	-50
▁ए	-51
ही	-52
▁इस	-53
हा	-54
ड़	-55
▁हो	-56
▁जा	-57
▁हैं	-58
ित	-59
िया	-60
▁य	-61
▁थ	-62
ाम	-63
िए	-64
वा	-65
▁ख	-66
▁भी	-67
▁फ	-68
िय	-69
ंग	-70
ला	-71
के	-72
ते	-73
▁बा	-74
त्र	-75
ेश	-76
री	-77
▁स्	-78
▁वि	-79
ले	-80
हीं	-81
न्	-82
कर	-83
▁लिए	-84
▁रा	-85
ती	-86
रा	-87
िस	-88
ारी	-89
▁सा	-90
▁ट	-91
गा	-92
से	-93
िन	-94
▁एक	-95
सी	-96
्या	-97
ोग	-98
▁सं	-99
ुर	-100
▁नहीं	-101
ति	-102
नी	-103
▁ले	-104
▁अप	-105
ली	-106
▁हु	-107
क्ष	-108
▁किया	-109
का	-110
▁सम	-111
▁ड	-112
ां	-113
▁मु	-114
▁1	-115
▁रह	-116
ंद	-117
▁दे	-118
वार	-119
▁ही	-120
▁गया	-121
ाय	-122
ुल	-123
▁नि	-124
▁पह	-125
त्	-126
ार्	-127
▁2	-128
ियों	-129
की	-130
टी	-131
▁घ	-132
▁कहा	-133
▁था	-134
िला	-135
▁कार	-136
कार	-137
▁करने	-138
▁तो	-139
ंड	-140
न्ह	-141
ंच	-142
्म	-143
▁साथ	-144
ास	-145
▁सि	-146
▁लोग	-147
रो	-148
▁यह	-149
▁बाद	-150
▁अध	-151
दी	-152
मा	-153
▁राज	-154
▁रहे	-155
भा	-156
▁पू	-157
ल्	-158
गी	-159
▁दिया	-160
▁कु	-161
▁उन्ह	-162
▁वाल	-163
रे	-164
ढ़	-165
कि	-166
वि	-167
ाह	-168
▁उन	-169
▁दो	-170
▁छ	-171
▁सु	-172
जी	-173
देश	-174
भी	-175
ष्	-176
▁अन	-177
▁सर	-178
्री	-179
▁गई	-180
▁तक	-181
टर	-182
▁या	-183
ंत्र	-184
पी	-185
सा	-186
दा	-187
▁ला	-188
▁रहा	-189
ेल	-190
▁मिल	-191
ओं	-192
▁आप	-193
वी	-194
▁उस	-195
िर	-196
ौर	-197
▁हुए	-198
गे	-199
▁रही	-200
▁सी	-201
▁बता	-202
▁जो	-203
▁पुल	-204
▁बी	-205
▁सक	-206
गर	-207
स्ट	-208
▁चु	-209
▁दी	-210
▁(	-211
▁ध	-212
ाना	-213
▁हम	-214
स्त	-215
ानी	-216
्ष	-217
ोज	-218
▁पुलिस	-219
बा	-220
▁थी	-221
्रे	-222
▁भार	-223
▁लोगों	-224
श्	-225
जा	-226
▁मह	-227
▁अपने	-228
ैं	-229
▁जिस	-230
किन	-231
ाई	-232
▁मा	-233
▁बार	-234
▁जाए	-235
तर	-236
ोंने	-237
में	-238
द्	-239
पा	-240
शन	-241
▁सरकार	-242
िव	-243
नों	-244
..	-245
▁लेकिन	-246
▁लगा	-247
▁स्थ	-248
▁मौ	-249
▁थे	-250
स्थ	-251
▁पा	-252
▁20	-253
्त	-254
ुप	-255
▁अब	-256
ंत्री	-257
▁उन्होंने	-258
ेट	-259
बर	-260
च्	-261
▁अधिक	-262
मी	-263
▁गए	-264
द्र	-265
ड़ी	-266
हां	-267
ूर	-268
▁टी	-269
क्र	-270
▁बना	-271
▁इसके	-272
ंह	-273
हर	-274
▁उप	-275
▁होने	-276
▁मो	-277
▁पहले	-278
▁जान	-279
▁ऐ	-280
वे	-281
ष्ट	-282
▁पी	-283
▁तर	-284
र्ट	-285
▁कार्य	-286
▁जब	-287
▁कुछ	-288
▁बताया	-289
ये	-290
िंग	-291
▁जी	-292
▁वर्	-293
▁भा	-294
▁दिन	-295
ड़ा	-296
▁मे	-297
▁सिंह	-298
को	-299
िल्	-300
▁वाले	-301
▁निर्	-302
्यू	-303
खा	-304
▁कम	-305
▁वह	-306
▁बि	-307
ड़े	-308
पुर	-309
▁सो	-310
▁बात	-311
▁माम	-312
▁सब	-313
▁इन	-314
्स	-315
ंध	-316
▁ओ	-317
कों	-318
ोट	-319
ीन	-320
▁3	-321
▁पहु	-322
▁हि	-323
▁लेकर	-324
धान	-325
▁करते	-326
क्षा	-327
▁क्ष	-328
▁भारत	-329
▁दौर	-330
▁साल	-331
▁पहुंच	-332
एम	-333
र्म	-334
▁कोई	-335
कारी	-336
▁रुप	-337
ंप	-338
▁उत्	-339
▁बे	-340
▁बढ़	-341
▁रू	-342
ंट	-343
▁देश	-344
िश	-345
▁बै	-346
▁साम	-347
▁अपनी	-348
बी	-349
ाइ	-350
▁चाह	-351
▁कई	-352
ाप	-353
00	-354
जे	-355
क्त	-356
र्व	-357
▁परि	-358
▁शुर	-359
▁दौरान	-360
▁फिल	-361
वाल	-362
▁हुई	-363
जन	-364
▁काम	-365
िट	-366
िप	-367
ूस	-368
▁ऑ	-369
जार	-370
▁ये	-371
▁रो	-372
▁वे	-373
▁सभी	-374
▁दु	-375
ेत्र	-376
▁हाल	-377
▁अनु	-378
मंत्री	-379
ाने	-380
▁देख	-381
ेंद्र	-382
▁किसी	-383
▁द्	-384
▁तरह	-385
मान	-386
▁क्षेत्र	-387
डी	-388
वर	-389
▁मुख	-390
▁चल	-391
▁बह	-392
▁मै	-393
वं	-394
ोड़	-395
▁आय	-396
▁दिल्	-397
▁प्रदेश	-398
▁समय	-399
▁सू	-400
्रेस	-401
▁स्ट	-402
सर	-403
िका	-404
▁अं	-405
▁जन	-406
▁पार्	-407
मार	-408
▁गां	-409
▁लिया	-410
▁राज्य	-411
ूल	-412
ोल	-413
▁जु	-414
वारा	-415
▁व्य	-416
ज़	-417
एस	-418
ारा	-419
▁हुआ	-420
▁दिल्ली	-421
्ल	-422
▁विक	-423
▁नाम	-424
▁प्रति	-425
▁करें	-426
सान	-427
▁फिल्म	-428
म्म	-429
▁शिक	-430
▁हर	-431
▁उनके	-432
द्ध	-433
▁अभ	-434
▁चुना	-435
▁रूप	-436
▁द्वारा	-437
▁आरो	-438
चा	-439
▁घर	-440
▁जाने	-441
▁कह	-442
▁ना	-443
▁दर्	-444
▁5	-445
बंध	-446
▁शाम	-447
▁शुरू	-448
▁सह	-449
▁टीम	-450
▁इं	-451
▁उन्हें	-452
▁रख	-453
▁बीच	-454
रोना	-455
▁खिला	-456
▁ग्र	-457
▁लग	-458
यर	-459
चार	-460
▁बु	-461
फी	-462
▁कोरोना	-463
▁होगा	-464
▁महिला	-465
▁4	-466
▁यु	-467
च्च	-468
दार	-469
▁आज	-470
्यक्ष	-471
क्रम	-472
▁'	-473
▁दूस	-474
▁मुख्य	-475
▁लाख	-476
▁पु	-477
ून	-478
▁कै	-479
जर	-480
र्स	-481
स्प	-482
▁अम	-483
▁निक	-484
▁पै	-485
▁बन	-486
▁खु	-487
▁हा	-488
▁कांग	-489
▁तै	-490
▁सकता	-491
▁चुनाव	-492
▁पि	-493
एं	-494
▁जानकारी	-495
लय	-496
▁स्थित	-497
▁वर्ष	-498
ीड	-499
धार	-500
लों	-501
▁आई	-502
▁जाता	-503
▁वहीं	-504
िले	-505
▁मामले	-506
ंस	-507
▁ता	-508
▁ट्र	-509
▁जर	-510
▁फै	-511
ुत	-512
▁दोनों	-513
ब्	-514
▁एस	-515
▁चौ	-516
▁ठ	-517
हत	-518
ोक	-519
▁मैं	-520
ंक	-521
तीय	-522
▁करना	-523
▁जाएगा	-524
▁कांग्रेस	-525
ेज	-526
क्स	-527
▁एवं	-528
वन	-529
▁मान	-530
▁यहां	-531
▁201	-532
्यों	-533
ारे	-534
▁जै	-535
क्ट	-536
▁बैठ	-537
दे	-538
वाई	-539
▁रुपये	-540
प्	-541
िम	-542
्रीय	-543
▁पास	-544
▁झ	-545
भाग	-546
वाद	-547
जू	-548
टा	-549
▁गु	-550
▁करोड़	-551
▁कुमार	-552
▁तीन	-553
▁वाली	-554
आई	-555
ोर	-556
ताओं	-557
हार	-558
्यादा	-559
शी	-560
▁छा	-561
ोर्ट	-562
▁कारण	-563
ेर	-564
दान	-565
▁दि	-566
▁फिर	-567
▁पूर्व	-568
टना	-569
▁सुर	-570
▁पार्टी	-571
▁वै	-572
क्ति	-573
▁जारी	-574
▁सबसे	-575
धिक	-576
▁अव	-577
▁बद	-578
▁लि	-579
▁क्र	-580
▁जांच	-581
ांच	-582
ोजना	-583
▁गांव	-584
पर	-585
▁मांग	-586
▁कॉ	-587
▁सकते	-588
▁शामिल	-589
लो	-590
ेशन	-591
▁6	-592
सार	-593
ियां	-594
▁राम	-595
▁चाहिए	-596
नि	-597
र्थ	-598
ूम	-599
▁कंप	-600
▁तैय	-601
▁जिला	-602
▁ज्यादा	-603
था	-604
ीस	-605
▁ऐसे	-606
णा	-607
▁मोदी	-608
▁अध्यक्ष	-609
च्छ	-610
ायर	-611
▁अग	-612
दि	-613
▁किए	-614
ूं	-615
क्टर	-616
▁अन्य	-617
▁इससे	-618
▁किसान	-619
▁भारतीय	-620
▁उसे	-621
▁उसके	-622
▁विभाग	-623
धी	-624
▁‘	-625
▁आरोप	-626
▁महा	-627
्यालय	-628
▁जिले	-629
▁राष्ट	-630
ज्	-631
▁-	-632
चना	-633
ायत	-634
▁ओर	-635
▁गो	-636
प्र	-637
▁10	-638
▁विश्	-639
▁हजार	-640
ेंगे	-641
▁बच्च	-642
▁दा	-643
▁आए	-644
फ्त	-645
▁ली	-646
▁इसी	-647
▁काफी	-648
ोष	-649
ंदी	-650
सभा	-651
▁डॉ	-652
▁प्रधान	-653
ंबर	-654
न्न	-655
ामी	-656
ियो	-657
त्रा	-658
▁बहुत	-659
▁श्री	-660
▁गिर	-661
▁उनकी	-662
▁देने	-663
▁प्रत	-664
योग	-665
ैन	-666
जपा	-667
ुक	-668
▁खिलाफ	-669
ंब	-670
▁पद	-671
कर्	-672
▁बारे	-673
▁मंत्री	-674
र्ड	-675
▁होगी	-676
ंत	-677
▁:	-678
वान	-679
ाली	-680
ाया	-681
▁सद	-682
▁स्व	-683
ारियों	-684
▁भाजपा	-685
ुरु	-686
▁नी	-687
▁यू	-688
▁आने	-689
▁शिक्ष	-690
▁आर	-691
▁सामने	-692
गत	-693
द्य	-694
▁डी	-695
▁शु	-696
ार्ड	-697
▁क्यों	-698
इन	-699
वास	-700
▁स्क	-701
स्तान	-702
भाव	-703
ासन	-704
▁मौत	-705
ताल	-706
▁आपको	-707
धा	-708
रण	-709
ूट	-710
ेंट	-711
▁बो	-712
▁पांच	-713
▁खा	-714
▁न्यू	-715
▁प्रश	-716
▁अगर	-717
▁19	-718
▁अभी	-719
▁नई	-720
▁इला	-721
▁दिए	-722
▁अस्प	-723
▁योजना	-724
शे	-725
र्ण	-726
▁पूरी	-727
मु	-728
▁स्वा	-729
▁उत्तर	-730
ेंद	-731
▁जि	-732
ीक्षा	-733
म्	-734
▁ई	-735
पाल	-736
▁निय	-737
▁रिप	-738
ाज	-739
▁पिछ	-740
▁दर्ज	-741
आर	-742
लग	-743
दर्	-744
▁चे	-745
▁तथा	-746
िज	-747
ृत	-748
▁7	-749
...	-750
▁कप	-751
ांकि	-752
▁विध	-753
▁अपना	-754
▁हालांकि	-755
ध्य	-756
स्था	-757
▁करी	-758
▁चला	-759
रीज	-760
ख्या	-761
▁नगर	-762
▁बंद	-763
▁मार्	-764
▁8	-765
करण	-766
▁वो	-767
▁अला	-768
▁होता	-769
ेड	-770
▁उठ	-771
▁सफ	-772
निया	-773
▁याद	-774
▁विकास	-775
पू	-776
▁इंड	-777
जह	-778
▁बल्	-779
▁अनुसार	-780
▁चार	-781
▁आयोज	-782
▁घटना	-783
▁संबंध	-784
जूद	-785
वासी	-786
▁मैच	-787
▁रिपोर्ट	-788
▁मुख्यमंत्री	-789
वल	-790
जय	-791
ंगे	-792
्ला	-793
▁शा	-794
▁पढ़	-795
▁क्या	-796
ीर	-797
बाद	-798
्रा	-799
▁इसे	-800
▁करीब	-801
▁बैठक	-802
▁होती	-803
▁इसमें	-804
▁वजह	-805
▁विश्व	-806
▁केंद्र	-807
ोन	-808
ंगल	-809
ताब	-810
र्फ	-811
▁बॉ	-812
▁शहर	-813
▁प्रधानमंत्री	-814
लिए	-815
▁मन	-816
▁लड़	-817
▁व्यव	-818
▁अलावा	-819
क्सी	-820
ाला	-821
▁टे	-822
▁मद	-823
त्या	-824
▁बड़ी	-825
▁कान	-826
▁जीत	-827
▁अच्छ	-828
▁तैयार	-829
ेत	-830
▁।	-831
▁आग	-832
▁आम	-833
▁डे	-834
ुक्त	-835
▁संग	-836
▁पिछले	-837
▁स्थिति	-838
▁मज	-839
▁नेता	-840
▁जग	-841
▁अस्पताल	-842
तार	-843
▁12	-844
▁जबकि	-845
▁छात्र	-846
ीद	-847
्याप	-848
▁घोष	-849
▁फैस	-850
▁प्रा	-851
▁निर्देश	-852
र्च	-853
▁पंच	-854
फ्तार	-855
▁पानी	-856
डा	-857
बह	-858
र्चा	-859
▁खेल	-860
▁पड़	-861
▁उम्म	-862
▁मिले	-863
ंज	-864
ज्ञ	-865
स्क	-866
स्ता	-867
▁कर्म	-868
▁रुपए	-869
▁दिनों	-870
डे	-871
त्म	-872
▁गा	-873
▁202	-874
▁ऐसा	-875
▁बजे	-876
▁बैं	-877
▁अफ	-878
मारी	-879
▁इसलिए	-880
▁दूसरे	-881
▁उम्मीद	-882
▁अधिकारी	-883
ोध	-884
त्व	-885
▁युव	-886
▁हों	-887
▁इसकी	-888
▁संख्या	-889
गढ़	-890
▁वा	-891
▁पत्र	-892
▁जाएगी	-893
▁सुरक्षा	-894
माण	-895
िता	-896
▁दर	-897
▁करे	-898
▁मार	-899
▁सदस	-900
▁कहना	-901
▁कंपनी	-902
▁जिसमें	-903
ियन	-904
स्ते	-905
▁जिन	-906
▁सकती	-907
▁क्योंकि	-908
▁डि	-909
▁आगे	-910
▁फीस	-911
ची	-912
दन	-913
खंड	-914
शेष	-915
▁जहां	-916
▁रहने	-917
▁बनाने	-918
हन	-919
र्य	-920
ष्ठ	-921
▁पं	-922
▁रेल	-923
▁परीक्षा	-924
▁मत	-925
▁लोक	-926
▁हूं	-927
▁जनता	-928
▁थाना	-929
▁किसानों	-930
ायक	-931
ियर	-932
▁भर	-933
▁तहत	-934
▁नजर	-935
▁मंद	-936
▁सुबह	-937
▁विधान	-938
▁कार्यक्रम	-939
मत	-940
राज	-941
▁खान	-942
▁दें	-943
▁जरूर	-944
▁लेने	-945
▁विशेष	-946
सल	-947
▁नए	-948
क्षण	-949
मेंट	-950
▁बेह	-951
▁मिला	-952
▁मिली	-953
▁स्कूल	-954
▁हिंदी	-955
मिक	-956
▁बस	-957
▁मीड	-958
▁आधार	-959
▁कोर्ट	-960
कान	-961
▁निवासी	-962
▁परिवार	-963
▁9	-964
▁ऊ	-965
वीर	-966
▁ऑफ	-967
▁नौ	-968
▁सच	-969
ार्थ	-970
▁कुल	-971
▁पाकि	-972
धि	-973
▁15	-974
▁मही	-975
▁जाती	-976
▁प्रदर्	-977
▁मीडिया	-978
इक	-979
▁कृ	-980
▁डा	-981
▁रे	-982
▁मंदिर	-983
▁मुताब	-984
फ्	-985
चित	-986
वरी	-987
▁जगह	-988
▁लगे	-989
▁जैसे	-990
▁प्रो	-991
▁स्वास्थ	-992
ar	-993
सम	-994
्‍	-995
तिक	-996
ूरी	-997
▁पता	-998
▁हाथ	-999
▁मुताबिक	-1000
ालय	-1001
▁बच	-1002
▁सौ	-1003
▁खरी	-1004
▁मरीज	-1005
▁सूचना	-1006
▁योग	-1007
▁सड़	-1008
▁करता	-1009
▁हत्या	-1010
▁संक्रम	-1011
झे	-1012
विड	-1013
▁आत	-1014
▁मौके	-1015
▁वहां	-1016
▁स्वास्थ्य	-1017
एन	-1018
शि	-1019
▁11	-1020
▁नर	-1021
▁बर	-1022
▁मि	-1023
▁वीड	-1024
▁सीट	-1025
▁न्या	-1026
▁पहली	-1027
▁पूरा	-1028
▁बाहर	-1029
▁करेंगे	-1030
ट्	-1031
यन	-1032
ीय	-1033
ेंस	-1034
▁उनका	-1035
▁गिरफ्तार	-1036
▁एम	-1037
▁पो	-1038
▁इसका	-1039
▁वायर	-1040
इट	-1041
टे	-1042
हम	-1043
वेश	-1044
िति	-1045
▁शे	-1046
▁ब्र	-1047
▁शर्	-1048
▁स्प	-1049
▁गुरु	-1050
▁पूरे	-1051
▁सेवा	-1052
▁होते	-1053
▁वीडियो	-1054
▁विधानसभा	-1055
शा	-1056
▁जे	-1057
▁आदि	-1058
▁रात	-1059
▁चर्चा	-1060
▁प्रशासन	-1061
▁लॉ	-1062
▁वाह	-1063
्रवाई	-1064
▁बैंक	-1065
▁जिससे	-1066
▁पहुंचे	-1067
▁कार्रवाई	-1068
-1	-1069
श्म	-1070
▁आस	-1071
▁नोट	-1072
▁वाप	-1073
यी	-1074
नाथ	-1075
ल्ड	-1076
▁खे	-1077
▁जल्	-1078
▁बुध	-1079
▁यादव	-1080
▁मंत्र	-1081
एल	-1082
बू	-1083
शल	-1084
ायल	-1085
▁इत	-1086
▁पे	-1087
ाप्त	-1088
ार्ट	-1089
▁अलग	-1090
▁खबर	-1091
▁खुद	-1092
▁मदद	-1093
▁पंचायत	-1094
ात	-1095
मुख	-1096
स्या	-1097
▁भाग	-1098
▁उसकी	-1099
▁जिसके	-1100
▁बिहार	-1101
▁बच्चों	-1102
तन	-1103
माल	-1104
राब	-1105
ेंड	-1106
▁ची	-1107
▁जल	-1108
ियान	-1109
▁समझ	-1110
▁बड़े	-1111
द्यालय	-1112
▁राजनी	-1113
▁राष्ट्र	-1114
▁14	-1115
▁तब	-1116
▁उपल	-1117
▁श्र	-1118
यास	-1119
▁एन	-1120
▁गि	-1121
▁पाल	-1122
▁परेश	-1123
▁मध्य	-1124
▁युवक	-1125
▁व्याप	-1126
▁स्थान	-1127
▁शिक्षा	-1128
▁व्यक्ति	-1129
▁राष्ट्रीय	-1130
रि	-1131
काश	-1132
िने	-1133
▁गं	-1134
ामीण	-1135
▁दिख	-1136
▁सर्	-1137
▁सोम	-1138
▁विरो	-1139
▁सम्म	-1140
▁सवाल	-1141
▁सहित	-1142
▁हिस्	-1143
▁कोविड	-1144
▁मिलने	-1145
▁सिर्फ	-1146
▁ग्रामीण	-1147
ॉल	-1148
▁ढ	-1149
काल	-1150
▁मंड	-1151
▁न्यूज़	-1152
▁महिलाओं	-1153
▁पाकिस्तान	-1154
▁अधिकारियों	-1155
चान	-1156
▁शिव	-1157
▁ट्रे	-1158
▁गांधी	-1159
▁फीसदी	-1160
▁मौजूद	-1161
▁प्रदर्शन	-1162
an	-1163
मे	-1164
▁रन	-1165
▁शि	-1166
रिया	-1167
▁आया	-1168
▁उसने	-1169
▁जीवन	-1170
▁बढ़ा	-1171
▁आरोपी	-1172
▁उपलब्	-1173
▁मामला	-1174
▁लगाया	-1175
▁सदस्य	-1176
▁बुधवार	-1177
▁सोमवार	-1178
बे	-1179
यू	-1180
षि	-1181
ंगा	-1182
तरा	-1183
लाई	-1184
वाब	-1185
श्य	-1186
हरी	-1187
▁गै	-1188
▁बज	-1189
▁कभी	-1190
▁तरफ	-1191
▁हाई	-1192
स्थान	-1193
▁फैसला	-1194
in	-1195
गम	-1196
ंदर	-1197
लेज	-1198
ैंड	-1199
र्ती	-1200
▁रवि	-1201
▁चुकी	-1202
▁देते	-1203
▁निर्माण	-1204
एफ	-1205
टन	-1206
ंटे	-1207
िये	-1208
्यान	-1209
▁करा	-1210
▁सके	-1211
▁सुन	-1212
▁मंगल	-1213
▁वाला	-1214
▁महीने	-1215
▁दुनिया	-1216
▁व्यवस्था	-1217
ेम	-1218
रिक	-1219
हरा	-1220
▁वित	-1221
▁मुझे	-1222
▁समस्या	-1223
ंबई	-1224
ग्र	-1225
पति	-1226
र्क	-1227
▁रि	-1228
▁पुर	-1229
▁भूम	-1230
▁रोक	-1231
▁इंटर	-1232
▁होंगे	-1233
▁इंडिया	-1234
▁,	-1235
ल्प	-1236
▁अर	-1237
▁ते	-1238
▁वन	-1239
▁शी	-1240
▁राय	-1241
▁शनि	-1242
▁करती	-1243
▁गेंद	-1244
▁चलते	-1245
▁जाना	-1246
▁युवा	-1247
▁बाजार	-1248
▁अभियान	-1249
उन	-1250
▁लख	-1251
त्री	-1252
▁पेश	-1253
▁लाभ	-1254
▁अमेर	-1255
▁आपके	-1256
▁कराने	-1257
▁दूसरी	-1258
▁लगातार	-1259
▁30	-1260
....	-1261
▁राह	-1262
▁चुके	-1263
▁पीएम	-1264
▁शादी	-1265
▁समाज	-1266
▁कराया	-1267
▁उपलब्ध	-1268
▁शिकायत	-1269
कत	-1270
ग्	-1271
णी	-1272
वत	-1273
सि	-1274
ुआ	-1275
यों	-1276
स्‍	-1277
▁25	-1278
▁चि	-1279
▁चिक	-1280
▁दिव	-1281
▁करके	-1282
▁क्रिक	-1283
▁शर्मा	-1284
▁प्रभाव	-1285
जल	-1286
टक	-1287
बल	-1288
मो	-1289
शत	-1290
षण	-1291
भीर	-1292
▁कल	-1293
▁क्	-1294
▁धन	-1295
क्शन	-1296
▁नियम	-1297
▁जरूरत	-1298
▁शुक्र	-1299
▁प्रमुख	-1300
▁नरेंद्र	-1301
भग	-1302
ैल	-1303
िकल	-1304
▁जय	-1305
▁भे	-1306
▁शाह	-1307
▁चुका	-1308
▁जाते	-1309
▁घोषणा	-1310
▁रेलवे	-1311
▁शनिवार	-1312
ठन	-1313
▁ज़	-1314
ंद्र	-1315
दारी	-1316
▁पूछ	-1317
▁माल	-1318
▁रखा	-1319
▁मुंबई	-1320
▁प्रयास	-1321
काब	-1322
रों	-1323
▁दल	-1324
▁दूर	-1325
न्द्र	-1326
▁जल्द	-1327
▁नंबर	-1328
▁विधायक	-1329
जि	-1330
पु	-1331
▁"	-1332
िनि	-1333
▁पेट	-1334
▁आतंक	-1335
▁कीमत	-1336
▁बड़ा	-1337
▁लगभग	-1338
▁समिति	-1339
▁सरकारी	-1340
▁मंगलवार	-1341
20	-1342
▁आव	-1343
लाइन	-1344
विधा	-1345
▁कर्	-1346
▁लाल	-1347
▁उसका	-1348
▁छोड़	-1349
▁बिना	-1350
▁वापस	-1351
▁सड़क	-1352
धिकारी	-1353
▁गंभीर	-1354
▁ध्यान	-1355
षा	-1356
ांस	-1357
्रम	-1358
▁पक	-1359
▁लौ	-1360
▁खास	-1361
▁तेज	-1362
▁मेड	-1363
▁रिक	-1364
▁संप	-1365
▁केवल	-1366
▁जवाब	-1367
▁राशि	-1368
▁चिकित	-1369
▁निकाल	-1370
▁वालों	-1371
यान	-1372
वाह	-1373
हाय	-1374
ानि	-1375
▁आद	-1376
▁तय	-1377
▁अहम	-1378
▁चाल	-1379
▁जेल	-1380
▁दिल	-1381
▁विप	-1382
▁सोशल	-1383
▁होना	-1384
▁दुकान	-1385
▁वैक्सी	-1386
जु	-1387
तम	-1388
लब	-1389
ूह	-1390
ोस	-1391
▁P	-1392
ोरी	-1393
▁उम	-1394
▁पीछ	-1395
▁माह	-1396
▁सप्	-1397
▁साफ	-1398
पूर्ण	-1399
स्ट्र	-1400
▁अंतर	-1401
▁पक्ष	-1402
▁यूपी	-1403
▁लिखा	-1404
▁इस्ते	-1405
▁बनाया	-1406
▁इस्तेमाल	-1407
फा	-1408
000	-1409
▁फर	-1410
▁शव	-1411
▁तौर	-1412
▁यही	-1413
▁एक्स	-1414
▁कार्ड	-1415
▁भर्ती	-1416
▁विरोध	-1417
▁आयोजित	-1418
ूप	-1419
ूब	-1420
ेस	-1421
बार	-1422
ियम	-1423
ूर्	-1424
▁अति	-1425
▁कमी	-1426
▁डाल	-1427
▁तस्	-1428
▁मना	-1429
▁संय	-1430
▁कृषि	-1431
▁देखा	-1432
▁मुकाब	-1433
▁लगाने	-1434
▁यात्रा	-1435
▁सुविधा	-1436
▁शुक्रवार	-1437
ंका	-1438
▁दौ	-1439
▁पत्	-1440
श्मीर	-1441
▁किलो	-1442
▁खरीद	-1443
▁निगम	-1444
▁बाइक	-1445
▁सहाय	-1446
▁हमारे	-1447
इल	-1448
नल	-1449
भर	-1450
षद	-1451
ुड	-1452
बंधन	-1453
लेबा	-1454
▁200	-1455
▁पार	-1456
▁भेज	-1457
▁मूल	-1458
▁सैन	-1459
▁आदेश	-1460
▁करवा	-1461
▁निकल	-1462
▁प्रभ	-1463
▁समेत	-1464
▁सीमा	-1465
▁ग्राम	-1466
▁टेस्ट	-1467
▁देखते	-1468
▁राहुल	-1469
▁रविवार	-1470
▁प्रतिशत	-1471
नर	-1472
ैक	-1473
▁C	-1474
ोटो	-1475
▁13	-1476
▁आइ	-1477
▁फ़	-1478
▁मी	-1479
क्षक	-1480
र्या	-1481
्रोल	-1482
▁कोश	-1483
स्थित	-1484
▁प्राप्त	-1485
गल	-1486
गू	-1487
ोह	-1488
िटी	-1489
जेपी	-1490
र्जी	-1491
▁पाए	-1492
▁लखन	-1493
▁सही	-1494
▁सात	-1495
▁घायल	-1496
▁सचिव	-1497
▁स्तर	-1498
▁बल्कि	-1499
▁समर्थ	-1500
▁कार्यालय	-1501
▁0	-1502
ांत	-1503
▁चा	-1504
▁थीं	-1505
▁लक्ष	-1506
▁चाहते	-1507
▁बल्लेबा	-1508
▁कार्यकर्	-1509
कु	-1510
भि	-1511
ॉप	-1512
▁पस	-1513
ानीय	-1514
▁बिज	-1515
▁बेट	-1516
▁स्थानीय	-1517
at	-1518
ताह	-1519
मति	-1520
र्ष	-1521
वुड	-1522
▁18	-1523
▁50	-1524
▁गल	-1525
▁ट्	-1526
▁वृ	-1527
▁हे	-1528
▁जमा	-1529
▁तेल	-1530
▁बाल	-1531
▁मिश	-1532
▁रोज	-1533
▁आयोजन	-1534
▁उपयोग	-1535
▁सहयोग	-1536
▁राज्यों	-1537
तृ	-1538
फ़	-1539
लर	-1540
चाल	-1541
मता	-1542
▁आठ	-1543
जनों	-1544
▁एयर	-1545
▁तला	-1546
▁पति	-1547
▁2021	-1548
▁उत्पा	-1549
▁पोस्ट	-1550
▁बारिश	-1551
▁नेताओं	-1552
▁सम्मान	-1553
कट	-1554
धे	-1555
▁B	-1556
ंदा	-1557
न्द	-1558
ैंप	-1559
▁ज्	-1560
ड़ों	-1561
स्ती	-1562
▁उल्	-1563
▁सफल	-1564
क्षित	-1565
▁आयोग	-1566
▁बनाए	-1567
▁लखनऊ	-1568
▁कानून	-1569
▁वायरस	-1570
▁विवाद	-1571
▁तस्वीर	-1572
▁बीजेपी	-1573
▁उम्मीदवार	-1574
▁R	-1575
केट	-1576
गार	-1577
▁24	-1578
धानी	-1579
वेदन	-1580
▁अंत	-1581
▁बंग	-1582
▁मिन	-1583
▁हाद	-1584
द्योग	-1585
▁जिसे	-1586
▁बदला	-1587
▁शेयर	-1588
▁कोशिश	-1589
▁देखने	-1590
▁सूत्र	-1591
▁न्याया	-1592
▁मामलों	-1593
धन	-1594
▁–	-1595
खिल	-1596
▁16	-1597
▁एज	-1598
▁टै	-1599
▁रै	-1600
ांति	-1601
▁ऐसी	-1602
▁टिक	-1603
▁लिख	-1604
लीवुड	-1605
स्ताव	-1606
▁अवसर	-1607
▁पीछे	-1608
▁माना	-1609
▁सामान	-1610
▁जाएंगे	-1611
▁संक्रमण	-1612
ंख	-1613
▁A	-1614
▁कट	-1615
▁रु	-1616
बाइल	-1617
▁गयी	-1618
▁जमी	-1619
▁बदल	-1620
▁हास	-1621
ज्ञान	-1622
नलाइन	-1623
▁घंटे	-1624
▁ताकि	-1625
▁दिखा	-1626
▁पंजा	-1627
▁पीड़	-1628
▁बयान	-1629
▁मुद्	-1630
▁हमने	-1631
▁जुड़े	-1632
▁जुलाई	-1633
ेंद्रीय	-1634
▁प्रकार	-1635
▁मरीजों	-1636
▁क्रिकेट	-1637
▁गुरुवार	-1638
चे	-1639
फे	-1640
ेक	-1641
करी	-1642
शनल	-1643
▁ति	-1644
वादी	-1645
▁अर्	-1646
▁जन्	-1647
▁तीस	-1648
▁मां	-1649
▁तेजी	-1650
▁पसंद	-1651
▁रखने	-1652
▁सांस	-1653
▁सीएम	-1654
▁कॉलेज	-1655
▁हासिल	-1656
▁प्रदान	-1657
▁मेडिकल	-1658
▁मोबाइल	-1659
भव	-1660
ीक	-1661
त्त	-1662
हाल	-1663
िशा	-1664
▁मई	-1665
द्धि	-1666
▁उठा	-1667
▁लगी	-1668
▁संघ	-1669
▁सित	-1670
▁अप्र	-1671
▁कैसे	-1672
▁पिता	-1673
▁फोटो	-1674
▁हमें	-1675
▁संगठन	-1676
▁हिस्सा	-1677
▁केंद्रीय	-1678
▁प्रस्ताव	-1679
▁मंत्रालय	-1680
ड्	-1681
लू	-1682
ील	-1683
ंगी	-1684
तिम	-1685
▁17	-1686
▁23	-1687
▁अद	-1688
श्यक	-1689
▁बजट	-1690
▁बने	-1691
▁रोड	-1692
▁सिल	-1693
▁इलाज	-1694
▁एक्ट	-1695
▁वाहन	-1696
▁विभि	-1697
▁बोर्ड	-1698
▁शुरुआ	-1699
▁छात्रों	-1700
▁राजस्थान	-1701
जों	-1702
हित	-1703
▁छह	-1704
चारी	-1705
▁ब्ल	-1706
न्हें	-1707
मार्ट	-1708
▁जागर	-1709
▁दुर्	-1710
▁नागर	-1711
▁सेना	-1712
▁बच्चे	-1713
▁आवश्यक	-1714
▁अमेरिका	-1715
▁वैक्सीन	-1716
on	-1717
झा	-1718
पन	-1719
▁M	-1720
ंडी	-1721
राव	-1722
ूबर	-1723
▁ती	-1724
▁भग	-1725
िलों	-1726
▁गौर	-1727
▁ड्र	-1728
▁दाम	-1729
▁भाई	-1730
▁मृत	-1731
▁दक्ष	-1732
▁पर्य	-1733
▁हमला	-1734
▁अभिने	-1735
▁बिजली	-1736
▁सप्ताह	-1737
ठी	-1738
मन	-1739
ुट	-1740
गंज	-1741
दों	-1742
पास	-1743
फ्ट	-1744
श्च	-1745
ष्य	-1746
▁एड	-1747
▁शो	-1748
ितों	-1749
▁असर	-1750
▁गति	-1751
▁यदि	-1752
▁पड़ा	-1753
▁जरूरी	-1754
▁निर्ण	-1755
▁मैंने	-1756
▁परेशान	-1757
▁प्रकाश	-1758
▁पेट्रोल	-1759
▁प्रतिनि	-1760
▁बॉलीवुड	-1761
काउ	-1762
रीब	-1763
लाह	-1764
वीं	-1765
ुओं	-1766
▁आख	-1767
▁तम	-1768
▁पट	-1769
▁सल	-1770
कर्म	-1771
▁आंक	-1772
▁क्ल	-1773
▁खूब	-1774
▁चीन	-1775
▁चुन	-1776
▁निश	-1777
▁वोट	-1778
▁सें	-1779
स्कार	-1780
▁अगले	-1781
▁परिव	-1782
▁वक्त	-1783
क्रिया	-1784
▁अच्छा	-1785
▁पंजाब	-1786
▁बेहतर	-1787
▁संवाद	-1788
▁ऑनलाइन	-1789
▁नागरिक	-1790
विद्यालय	-1791
एच	-1792
दम	-1793
▁S	-1794
स्ल	-1795
ांड	-1796
▁ख़	-1797
▁खो	-1798
▁तु	-1799
▁मश	-1800
▁नुक	-1801
▁फोन	-1802
▁बनी	-1803
▁विष	-1804
▁समु	-1805
▁खर्च	-1806
▁हमले	-1807
▁हालत	-1808
ड़ियों	-1809
▁अंतिम	-1810
▁परिषद	-1811
▁विपक्ष	-1812
▁विभिन्न	-1813
▁प्रक्रिया	-1814
इस	-1815
फर	-1816
मर	-1817
-19	-1818
तरी	-1819
दाय	-1820
स्व	-1821
्यो	-1822
्ले	-1823
▁हॉ	-1824
क्ता	-1825
ड़ने	-1826
त्ता	-1827
त्ति	-1828
वजूद	-1829
▁100	-1830
▁चरण	-1831
▁जून	-1832
▁दिस	-1833
▁हार	-1834
▁इतना	-1835
▁कंपन	-1836
▁टीका	-1837
▁देशों	-1838
▁पहचान	-1839
▁बदलाव	-1840
▁मार्ग	-1841
▁प्रवेश	-1842
▁वर्षीय	-1843
▁परिजनों	-1844
▁प्रभारी	-1845
▁कर्मचारी	-1846
▁प्रभावित	-1847
or	-1848
क़	-1849
ूक	-1850
▁I	-1851
▁“	-1852
चीत	-1853
ष्ण	-1854
▁अल	-1855
▁एल	-1856
▁रण	-1857
िक्ष	-1858
▁ठीक	-1859
▁मजद	-1860
▁सभा	-1861
धियों	-1862
▁खुला	-1863
▁नेतृ	-1864
▁मौसम	-1865
▁अगस्त	-1866
▁मैदान	-1867
▁विचार	-1868
▁अधिकार	-1869
▁बातचीत	-1870
▁बावजूद	-1871
▁भूमिका	-1872
▁लोकसभा	-1873
▁राष्ट्रपति	-1874
दू	-1875
्व	-1876
देव	-1877
व्य	-1878
सिक	-1879
हान	-1880
▁अस	-1881
▁घा	-1882
▁भो	-1883
▁वी	-1884
▁छोट	-1885
▁ज्ञ	-1886
▁देव	-1887
▁फाइ	-1888
▁जमीन	-1889
▁दिला	-1890
▁पाया	-1891
▁बेहद	-1892
▁मिनट	-1893
▁विजय	-1894
▁सर्व	-1895
▁होकर	-1896
▁अच्छी	-1897
▁आवेदन	-1898
▁दक्षि	-1899
▁महत्व	-1900
▁विद्य	-1901
▁संचाल	-1902
चारियों	-1903
▁छात्रा	-1904
▁संयुक्त	-1905
▁राजनीतिक	-1906
कल	-1907
टल	-1908
ूड	-1909
ौन	-1910
तों	-1911
धरी	-1912
ामा	-1913
ृति	-1914
ोजन	-1915
किंग	-1916
प्री	-1917
ित्र	-1918
▁केस	-1919
▁कोल	-1920
▁गर्	-1921
▁मोह	-1922
▁यून	-1923
▁अपरा	-1924
▁दावा	-1925
▁धर्म	-1926
▁प्ला	-1927
▁भारी	-1928
▁भेजा	-1929
▁लागू	-1930
▁कश्मीर	-1931
▁डॉक्टर	-1932
▁तैयारी	-1933
▁नुकसान	-1934
▁नेतृत्व	-1935
▁महामारी	-1936
▁क्षेत्रों	-1937
er	-1938
चर	-1939
थि	-1940
सन	-1941
ृह	-1942
▁H	-1943
टने	-1944
त्स	-1945
न्‍	-1946
वनी	-1947
िली	-1948
ेशा	-1949
्ता	-1950
ग्री	-1951
स्टर	-1952
▁अफग	-1953
▁आते	-1954
▁इंत	-1955
▁चयन	-1956
▁तभी	-1957
▁तरी	-1958
▁दोप	-1959
▁वरि	-1960
▁अदाल	-1961
▁पूजा	-1962
▁समूह	-1963
▁स्वी	-1964
ध्यक्ष	-1965
▁जिम्म	-1966
▁भगवान	-1967
▁माध्य	-1968
▁समर्थन	-1969
▁मुकाबले	-1970
ंघ	-1971
िक्	-1972
▁गठ	-1973
▁दू	-1974
▁नव	-1975
▁पॉ	-1976
न्ना	-1977
▁आवा	-1978
▁रंग	-1979
धिकार	-1980
रिक्त	-1981
▁सलाह	-1982
▁दोस्त	-1983
▁नोटिस	-1984
▁पढ़ें	-1985
▁पत्नी	-1986
▁विकेट	-1987
▁दिसंबर	-1988
▁निर्णय	-1989
▁पहुंची	-1990
▁मिलेगा	-1991
▁वरिष्ठ	-1992
▁राजधानी	-1993
al	-1994
घा	-1995
रु	-1996
लि	-1997
केश	-1998
त्य	-1999
रात	-2000
चिका	-2001
▁ऊपर	-2002
▁कदम	-2003
▁2020	-2004
▁अंदर	-2005
▁टिकट	-2006
▁पहला	-2007
▁मुश्	-2008
▁शराब	-2009
▁जनवरी	-2010
▁दोपहर	-2011
▁पुत्र	-2012
▁रहेगा	-2013
▁सुधार	-2014
▁हमेशा	-2015
▁हादसे	-2016
▁अतिरिक्त	-2017
▁ग्रामीणों	-2018
▁कर्मचारियों	-2019
डल	-2020
तक	-2021
यं	-2022
ंसा	-2023
जाम	-2024
दीप	-2025
▁ठा	-2026
▁पौ	-2027
▁भु	-2028
क्कर	-2029
दाता	-2030
बाजी	-2031
म्मू	-2032
राने	-2033
▁कित	-2034
▁पदा	-2035
▁बचा	-2036
▁रोग	-2037
▁संत	-2038
▁साइ	-2039
श्चित	-2040
▁अपील	-2041
▁कपूर	-2042
▁कहते	-2043
▁खत्म	-2044
▁देकर	-2045
▁निजी	-2046
▁मंडल	-2047
▁मुला	-2048
▁मेरी	-2049
▁रहता	-2050
▁सफाई	-2051
▁हिंद	-2052
▁इलाके	-2053
▁करेगा	-2054
▁चौधरी	-2055
▁महारा	-2056
▁मार्च	-2057
▁शुरुआत	-2058
▁उपस्थित	-2059
▁राजनीति	-2060
▁सूत्रों	-2061
▁विश्वविद्यालय	-2062
.5	-2063
ंव	-2064
गु	-2065
चन	-2066
नो	-2067
▁N	-2068
कडा	-2069
हाँ	-2070
▁छो	-2071
वंबर	-2072
▁आता	-2073
▁आयु	-2074
▁कब्	-2075
▁चले	-2076
▁जता	-2077
▁देर	-2078
▁प्ल	-2079
▁फ्र	-2080
▁भाव	-2081
▁रिज	-2082
▁वार	-2083
▁शुभ	-2084
कडाउन	-2085
ियाणा	-2086
▁2019	-2087
▁कराई	-2088
▁कहीं	-2089
▁देता	-2090
▁मेरे	-2091
▁रहते	-2092
▁अदालत	-2093
▁एक्सप	-2094
▁जिलों	-2095
▁ट्रेन	-2096
▁शांति	-2097
▁उत्तरा	-2098
▁याचिका	-2099
▁सितंबर	-2100
ानिस्तान	-2101
▁आरोपियों	-2102
धर	-2103
सत	-2104
सू	-2105
।'	-2106
उंड	-2107
जीत	-2108
ेटी	-2109
ौती	-2110
▁60	-2111
▁जम	-2112
▁फॉ	-2113
▁मं	-2114
▁हट	-2115
ंदोल	-2116
ेंसी	-2117
▁गुप	-2118
▁साब	-2119
▁आपकी	-2120
▁आर्थ	-2121
▁उनसे	-2122
▁उम्र	-2123
▁जन्म	-2124
▁जवान	-2125
▁जाकर	-2126
▁तैना	-2127
▁थाने	-2128
▁पड़े	-2129
▁कमेटी	-2130
▁घोषित	-2131
▁चंद्र	-2132
▁देखकर	-2133
▁नवंबर	-2134
▁न्याय	-2135
▁पर्या	-2136
▁पूर्ण	-2137
▁विदेश	-2138
▁संभाव	-2139
▁अनुमति	-2140
▁शिक्षक	-2141
▁न्यायालय	-2142
ंभ	-2143
किल	-2144
णाम	-2145
ाइड	-2146
िकी	-2147
्रो	-2148
▁22	-2149
▁26	-2150
▁फी	-2151
▁मध	-2152
ॉर्ड	-2153
▁अली	-2154
▁किस	-2155
▁बोल	-2156
▁सजा	-2157
राष्ट	-2158
▁जैसी	-2159
▁पालन	-2160
▁मजबू	-2161
▁लाइन	-2162
▁आंदोल	-2163
▁जम्मू	-2164
▁दिखाई	-2165
▁भोपाल	-2166
▁सांसद	-2167
▁स्थाप	-2168
▁अप्रैल	-2169
▁जिम्मे	-2170
▁हरियाणा	-2171
▁विद्यालय	-2172
),	-2173
30	-2174
es	-2175
चल	-2176
दु	-2177
ंता	-2178
असल	-2179
क्‍	-2180
जिट	-2181
नगर	-2182
निक	-2183
न्स	-2184
ब्ल	-2185
वर्	-2186
साय	-2187
्यु	-2188
्‍य	-2189
▁40	-2190
▁घु	-2191
▁थो	-2192
▁सै	-2193
ष्टि	-2194
▁गृह	-2195
▁दीप	-2196
▁बिग	-2197
▁संस	-2198
▁साह	-2199
▁आत्म	-2200
▁गोली	-2201
▁दर्श	-2202
▁देवी	-2203
▁पश्च	-2204
▁बेटी	-2205
▁भीड़	-2206
▁संजय	-2207
▁सीबी	-2208
क्टूबर	-2209
▁आसपास	-2210
▁इनमें	-2211
▁निवेश	-2212
▁बंगाल	-2213
▁बनाकर	-2214
▁मजदूर	-2215
▁आर्थिक	-2216
▁स्टेशन	-2217
▁खिलाड़ी	-2218
▁लॉकडाउन	-2219
▁कंपनियों	-2220
di	-2221
रल	-2222
▁›	-2223
ंटी	-2224
अलग	-2225
कुल	-2226
नेट	-2227
र्प	-2228
ुल्	-2229
ेश्	-2230
▁अश	-2231
▁आन	-2232
▁आश	-2233
▁लं	-2234
तमान	-2235
त्ती	-2236
वाली	-2237
▁इंद	-2238
▁ओवर	-2239
▁टाइ	-2240
▁डाय	-2241
▁त्र	-2242
▁पें	-2243
▁बर्	-2244
▁लूट	-2245
▁वेब	-2246
▁सब्	-2247
▁उपाय	-2248
▁खड़े	-2249
▁ट्वी	-2250
▁तारी	-2251
▁लगता	-2252
▁लिये	-2253
▁संकट	-2254
▁दरअसल	-2255
▁देंगे	-2256
▁स्वयं	-2257
▁परिणाम	-2258
▁व्यक्त	-2259
▁सुनवाई	-2260
ार्थियों	-2261
▁महत्वपूर्ण	-2262
वै	-2263
▁ऋ	-2264
ंकी	-2265
ंडल	-2266
बोध	-2267
विक	-2268
वें	-2269
साद	-2270
▁गौ	-2271
▁दस	-2272
▁नो	-2273
विंद	-2274
िएशन	-2275
ुरुष	-2276
▁एंड	-2277
▁कला	-2278
▁कही	-2279
▁गलत	-2280
▁फुट	-2281
▁शान	-2282
▁सिर	-2283
ूर्ति	-2284
ेलिया	-2285
▁अग्र	-2286
▁देना	-2287
▁पैसे	-2288
▁मौका	-2289
▁रिश्	-2290
▁लाने	-2291
▁विषय	-2292
▁सुना	-2293
▁पुरुष	-2294
▁सलमान	-2295
▁आंदोलन	-2296
▁पहुंचा	-2297
▁फिलहाल	-2298
▁माध्यम	-2299
▁अक्टूबर	-2300
)।	-2301
ताछ	-2302
यात	-2303
ल्स	-2304
िटल	-2305
्टी	-2306
▁1.	-2307
▁धो	-2308
,000	-2309
चानक	-2310
वाना	-2311
ेंडर	-2312
▁अंक	-2313
▁गैस	-2314
▁घरे	-2315
▁चोट	-2316
▁जोर	-2317
▁पां	-2318
▁फाय	-2319
पोर्ट	-2320
ारखंड	-2321
▁एसोस	-2322
▁गरीब	-2323
▁चोरी	-2324
▁तलाश	-2325
▁प्रव	-2326
▁प्ले	-2327
▁यानी	-2328
▁राहत	-2329
▁स्थल	-2330
▁अचानक	-2331
▁तीनों	-2332
▁पड़ता	-2333
▁वायरल	-2334
▁क्षमता	-2335
▁पूछताछ	-2336
▁चिकित्स	-2337
▁मुश्किल	-2338
▁वर्तमान	-2339
▁व्यापार	-2340
▁उत्तराखंड	-2341
▁अफगानिस्तान	-2342
ad	-2343
me	-2344
पो	-2345
ीत	-2346
ौल	-2347
▁D	-2348
ंकर	-2349
फिक	-2350
मैन	-2351
राह	-2352
िसर	-2353
▁घट	-2354
▁बल	-2355
ंदगी	-2356
तिहा	-2357
वानी	-2358
वाही	-2359
ार्ज	-2360
िक्र	-2361
▁उद्	-2362
▁कमल	-2363
▁किन	-2364
▁कैं	-2365
▁दबा	-2366
▁दवा	-2367
▁नही	-2368
▁भवि	-2369
▁सपा	-2370
काउंट	-2371
▁खाने	-2372
▁जाये	-2373
▁टीवी	-2374
▁ट्रक	-2375
▁बनाई	-2376
▁लगाए	-2377
▁सुपर	-2378
▁जिसका	-2379
▁पार्क	-2380
▁मजबूत	-2381
▁वार्ड	-2382
▁दक्षिण	-2383
▁बढ़ाने	-2384
▁बीमारी	-2385
▁वृद्धि	-2386
▁टीकाकरण	-2387
▁संबंधित	-2388
▁संभावना	-2389
▁समीक्षा	-2390
▁सुरक्षित	-2391
स्ट्रेलिया	-2392
इड	-2393
ण्	-2394
।"	-2395
कृत	-2396
र्ग	-2397
हरे	-2398
ेंज	-2399
्सा	-2400
▁35	-2401
▁भू	-2402
थमिक	-2403
देशक	-2404
ानों	-2405
▁काउ	-2406
▁तुल	-2407
▁नया	-2408
▁भ्र	-2409
▁लें	-2410
▁शरी	-2411
▁एसडी	-2412
▁खराब	-2413
▁चालक	-2414
▁दिशा	-2415
▁बाबा	-2416
▁बीते	-2417
▁बेटे	-2418
▁रैली	-2419
▁लगाई	-2420
▁करेगी	-2421
▁खाद्य	-2422
▁घरेलू	-2423
▁फैसले	-2424
▁मतदान	-2425
▁मास्क	-2426
▁विमान	-2427
त्रियों	-2428
▁भविष्य	-2429
▁शानदार	-2430
▁श्रद्ध	-2431
▁परेशानी	-2432
▁रिकॉर्ड	-2433
▁सामान्य	-2434
राष्ट्रीय	-2435
▁चिकित्सा	-2436
दय	-2437
राम	-2438
ामद	-2439
▁एश	-2440
▁गण	-2441
▁मर	-2442
▁लो	-2443
काता	-2444
पीएल	-2445
मीटर	-2446
सगढ़	-2447
ाचार	-2448
ारोह	-2449
▁अंग	-2450
▁गये	-2451
▁गाय	-2452
▁लौट	-2453
तंत्र	-2454
▁2018	-2455
▁उससे	-2456
▁निभा	-2457
▁निरी	-2458
▁परिय	-2459
▁बनने	-2460
▁बिल्	-2461
▁माता	-2462
▁वर्ग	-2463
▁वार्	-2464
▁शासन	-2465
▁ट्वीट	-2466
▁तरीके	-2467
▁नौकरी	-2468
▁सामना	-2469
▁सीरीज	-2470
▁हमारी	-2471
▁झारखंड	-2472
▁मिश्रा	-2473
▁रास्ते	-2474
▁समारोह	-2475
▁एसोसिएशन	-2476
▁परियोजना	-2477
▁प्राथमिक	-2478
▁अध्यक्षता	-2479
अप	-2480
थम	-2481
लम	-2482
ोश	-2483
▁J	-2484
ंतर	-2485
ट्र	-2486
द्द	-2487
नीय	-2488
माश	-2489
लाल	-2490
ांक	-2491
ापन	-2492
▁31	-2493
▁एफ	-2494
▁नक	-2495
▁पृ	-2496
▁मॉ	-2497
वाला	-2498
ियार	-2499
▁अभि	-2500
▁इन्	-2501
▁उसी	-2502
▁किश	-2503
▁तत्	-2504
▁तिव	-2505
▁मगर	-2506
▁लंब	-2507
▁लाइ	-2508
▁हड़	-2509
तियों	-2510
▁2017	-2511
▁अमित	-2512
▁अर्थ	-2513
▁उच्च	-2514
▁उत्स	-2515
▁किये	-2516
▁पैदा	-2517
▁मेरा	-2518
▁छत्ती	-2519
▁फरवरी	-2520
▁लाखों	-2521
▁संदेश	-2522
▁सहायक	-2523
▁साबित	-2524
▁सैनिक	-2525
▁गुप्ता	-2526
▁तिवारी	-2527
▁सहायता	-2528
▁सुप्री	-2529
▁पत्रकार	-2530
▁फिल्मों	-2531
▁छत्तीसगढ़	-2532
▁कार्यकर्ता	-2533
पद	-2534
पे	-2535
िग	-2536
।’	-2537
कात	-2538
कुर	-2539
ट्स	-2540
तलब	-2541
शील	-2542
सों	-2543
ियल	-2544
▁21	-2545
▁तह	-2546
▁फा	-2547
▁हथ	-2548
▁हल	-2549
क्सर	-2550
न्या	-2551
बादी	-2552
म्मद	-2553
र्जा	-2554
ाजिक	-2555
्राम	-2556
▁कले	-2557
▁काल	-2558
▁चली	-2559
▁छूट	-2560
▁फेस	-2561
▁बिक	-2562
▁भवन	-2563
▁वही	-2564
▁सोच	-2565
▁सोन	-2566
ेश्वर	-2567
▁अवधि	-2568
▁आवास	-2569
▁एसपी	-2570
▁कड़ी	-2571
▁क्रम	-2572
▁जमकर	-2573
▁दिवस	-2574
▁पटना	-2575
▁लेना	-2576
▁विरा	-2577
▁सारे	-2578
▁सूची	-2579
▁उसमें	-2580
▁कक्षा	-2581
▁तैनात	-2582
▁बरामद	-2583
▁मिलकर	-2584
▁मूल्य	-2585
▁रक्षा	-2586
▁अकाउंट	-2587
▁खुलासा	-2588
▁जिनमें	-2589
▁पीड़ित	-2590
▁प्रत्य	-2591
▁वर्षों	-2592
▁कोलकाता	-2593
▁प्रत्या	-2594
धिकारियों	-2595
▁किलोमीटर	-2596
खी	-2597
ठा	-2598
फल	-2599
यक	-2600
सो	-2601
-20	-2602
har	-2603
तौर	-2604
फोन	-2605
बुक	-2606
विर	-2607
साथ	-2608
▁लै	-2609
जूदा	-2610
वधान	-2611
साइट	-2612
ियोग	-2613
▁आंख	-2614
▁कोह	-2615
▁चढ़	-2616
▁जित	-2617
▁नदी	-2618
▁प्य	-2619
▁बहन	-2620
▁बाग	-2621
▁बिल	-2622
▁वीर	-2623
▁सम्	-2624
कर्मी	-2625
ष्ट्र	-2626
▁अखिल	-2627
▁आदमी	-2628
▁छोटे	-2629
▁जरिए	-2630
▁डॉलर	-2631
▁दौरे	-2632
▁पकड़	-2633
▁बाकी	-2634
▁सत्र	-2635
▁सार्	-2636
▁गतिवि	-2637
▁गाड़ी	-2638
▁दूसरा	-2639
▁पेंशन	-2640
▁प्रेम	-2641
▁वितरण	-2642
▁हालात	-2643
▁गौरतलब	-2644
▁मौजूदा	-2645
▁उत्पादन	-2646
▁सदस्यों	-2647
▁स्मार्ट	-2648
▁संक्रमित	-2649
▁खिलाड़ियों	-2650
.4	-2651
उस	-2652
तु	-2653
ाब	-2654
ॉक	-2655
ॉय	-2656
कील	-2657
देन	-2658
भार	-2659
ल्ट	-2660
श्न	-2661
सित	-2662
सूस	-2663
हिर	-2664
ूरत	-2665
्मी	-2666
▁27	-2667
▁पल	-2668
▁शौ	-2669
बंदी	-2670
रावट	-2671
िक्स	-2672
्रमण	-2673
▁आजा	-2674
▁जला	-2675
▁रखे	-2676
जिटिव	-2677
दारों	-2678
▁अफसर	-2679
▁आसान	-2680
▁कारो	-2681
▁तकनी	-2682
▁दुष्	-2683
▁धारा	-2684
▁निरा	-2685
▁पदों	-2686
▁योगी	-2687
▁रहती	-2688
▁लेते	-2689
प्रदेश	-2690
स्ट्री	-2691
▁चिंता	-2692
▁ठाकुर	-2693
▁प्रदू	-2694
▁प्रभा	-2695
▁प्रिय	-2696
▁बदमाश	-2697
▁रोकने	-2698
▁लड़की	-2699
▁शक्ति	-2700
▁कानपुर	-2701
▁गिरावट	-2702
▁पुरानी	-2703
▁प्रस्त	-2704
▁युवाओं	-2705
▁अग्रवाल	-2706
▁आतंकवाद	-2707
▁वेबसाइट	-2708
▁प्रशिक्ष	-2709
▁प्रतिनिधि	-2710
▁कार्यकर्ताओं	-2711
▁अंतरराष्ट्रीय	-2712
is	-2713
ra	-2714
डर	-2715
मि	-2716
ीप	-2717
जरी	-2718
रान	-2719
वरण	-2720
वेज	-2721
्रह	-2722
▁28	-2723
▁Re	-2724
▁एच	-2725
▁डर	-2726
▁नम	-2727
एसपी	-2728
्रेट	-2729
▁अजय	-2730
▁कोत	-2731
▁चौक	-2732
▁जाय	-2733
▁पाठ	-2734
▁पैर	-2735
▁फ्ल	-2736
▁मंच	-2737
▁मनी	-2738
▁मुह	-2739
▁सां	-2740
▁हटा	-2741
▁होम	-2742
कोर्ट	-2743
▁अशोक	-2744
▁आवाज	-2745
▁तमाम	-2746
▁दलों	-2747
▁नक्स	-2748
▁बुला	-2749
▁भोजन	-2750
▁अच्छे	-2751
▁चौहान	-2752
▁जानते	-2753
▁मानना	-2754
▁संबोध	-2755
▁सर्वे	-2756
▁सार्व	-2757
▁सालों	-2758
▁सेंटर	-2759
▁आरक्षण	-2760
▁एजेंसी	-2761
▁प्रसाद	-2762
▁मात्रा	-2763
▁मुलाकात	-2764
▁प्रत्येक	-2765
▁बल्लेबाज	-2766
▁एक्सप्रेस	-2767
▁यात्रियों	-2768
▁महाराष्ट्र	-2769
▁ऑस्ट्रेलिया	-2770
19	-2771
22	-2772
li	-2773
कम	-2774
खे	-2775
▁G	-2776
ंडा	-2777
कीय	-2778
दिन	-2779
नाक	-2780
लेट	-2781
सील	-2782
▁सत	-2783
सेना	-2784
स्पे	-2785
▁आती	-2786
▁निर	-2787
▁पहल	-2788
▁भरो	-2789
▁मल्	-2790
▁मुक	-2791
▁रखी	-2792
ग्राम	-2793
तिहास	-2794
▁उनको	-2795
▁क्ला	-2796
▁जाएं	-2797
▁दर्द	-2798
▁पारी	-2799
▁मकान	-2800
▁मानव	-2801
▁राजा	-2802
▁लंबे	-2803
▁शरीर	-2804
▁हवाई	-2805
क्सीजन	-2806
▁उपचार	-2807
▁चलाने	-2808
▁जिसकी	-2809
▁महसूस	-2810
▁मिलता	-2811
▁वर्मा	-2812
▁अध्याप	-2813
▁इतिहास	-2814
▁उद्योग	-2815
▁लक्ष्य	-2816
▁समुदाय	-2817
▁स्वागत	-2818
▁प्रदूषण	-2819
▁सार्वजन	-2820
ch	-2821
गो	-2822
ैध	-2823
ॉन	-2824
च्‍	-2825
म्प	-2826
लोड	-2827
वीन	-2828
ियत	-2829
▁29	-2830
▁छु	-2831
▁धर	-2832
▁मू	-2833
टीएम	-2834
त्मक	-2835
न्हा	-2836
न्‍ह	-2837
वाले	-2838
ित्य	-2839
्तान	-2840
्यता	-2841
▁199	-2842
▁कैब	-2843
▁गुज	-2844
▁चेक	-2845
▁जुट	-2846
▁जोन	-2847
▁तुर	-2848
▁शूट	-2849
▁सुल	-2850
▁स्‍	-2851
▁अनुप	-2852
▁अनुर	-2853
▁अवैध	-2854
▁इनके	-2855
▁नारा	-2856
▁पटेल	-2857
▁पाने	-2858
▁बचाव	-2859
▁रावत	-2860
▁विजे	-2861
▁आतंकी	-2862
▁आबादी	-2863
▁कोहली	-2864
▁गार्ड	-2865
▁तहसील	-2866
▁परिसर	-2867
▁प्रता	-2868
▁प्रथम	-2869
▁बीमार	-2870
▁विराट	-2871
▁सत्ता	-2872
▁सफलता	-2873
▁सिद्ध	-2874
▁सीटों	-2875
न्होंने	-2876
वासियों	-2877
▁इंतजार	-2878
▁इन्हें	-2879
▁नियमित	-2880
▁निर्वा	-2881
▁पश्चिम	-2882
▁भ्रष्ट	-2883
▁रायपुर	-2884
▁वाहनों	-2885
▁संपर्क	-2886
▁सड़कों	-2887
▁पॉजिटिव	-2888
▁सामाजिक	-2889
▁पुरस्कार	-2890
▁प्रवक्ता	-2891
▁सार्वजनिक	-2892
50	-2893
ha	-2894
उट	-2895
ह्	-2896
ेन	-2897
▁L	-2898
▁V	-2899
जिद	-2900
नाम	-2901
नाव	-2902
र्न	-2903
लेख	-2904
ाइल	-2905
▁एप	-2906
▁गे	-2907
▁टा	-2908
▁मल	-2909
▁मस	-2910
▁रज	-2911
ंग्ल	-2912
जूरी	-2913
द्दी	-2914
पुरा	-2915
विता	-2916
श्वर	-2917
▁उपा	-2918
▁कमा	-2919
▁किर	-2920
▁खुल	-2921
▁गईं	-2922
▁डेट	-2923
▁रजि	-2924
▁शही	-2925
▁सुख	-2926
िमंडल	-2927
▁अक्ष	-2928
▁अभिन	-2929
▁आपने	-2930
▁कानू	-2931
▁खेती	-2932
▁गर्म	-2933
▁ट्रै	-2934
▁डीएम	-2935
▁दबाव	-2936
▁नीचे	-2937
▁यहाँ	-2938
▁रद्द	-2939
▁लगने	-2940
▁वैसे	-2941
▁श्रे	-2942
▁आगामी	-2943
▁तुरंत	-2944
▁पांडे	-2945
▁मालिक	-2946
▁मिलते	-2947
▁शीर्ष	-2948
▁गांवों	-2949
▁चुनौती	-2950
▁नियमों	-2951
▁प्रखंड	-2952
▁फेसबुक	-2953
▁मिलेगी	-2954
▁मुद्दे	-2955
▁राजस्व	-2956
▁संस्था	-2957
▁समाप्त	-2958
........	-2959
▁मोहम्मद	-2960
▁शिक्षकों	-2961
▁उम्मीदवारों	-2962
.2	-2963
भू	-2964
रत	-2965
शु	-2966
▁>	-2967
▁T	-2968
▁|	-2969
ंटर	-2970
ंदन	-2971
ग्ग	-2972
डेट	-2973
तरे	-2974
नेश	-2975
मित	-2976
ाइन	-2977
िरी	-2978
ेलर	-2979
ैंस	-2980
▁70	-2981
▁कठ	-2982
▁मच	-2983
▁लु	-2984
एमसी	-2985
त्मा	-2986
बारा	-2987
र्डर	-2988
लैंड	-2989
वाने	-2990
ुल्क	-2991
▁अमर	-2992
▁खेत	-2993
▁डिज	-2994
▁लेख	-2995
▁शाय	-2996
▁साव	-2997
तालों	-2998
दाबाद	-2999
▁कार्	-3000
▁खतरा	-3001
▁खाना	-3002
▁खेले	-3003
▁चीनी	-3004
▁डाउन	-3005
▁दावे	-3006
▁पौधे	-3007
▁भूमि	-3008
▁मंडी	-3009
▁मारे	-3010
▁रिली	-3011
▁लॉन्	-3012
▁वकील	-3013
▁संसद	-3014
▁सवार	-3015
▁होटल	-3016
ोग्राम	-3017
▁एशिया	-3018
▁कर्ना	-3019
▁ड्राइ	-3020
▁तारीख	-3021
▁तीसरे	-3022
▁फर्जी	-3023
▁फायदा	-3024
▁मिलती	-3025
▁विस्त	-3026
▁स्टूड	-3027
▁गठबंधन	-3028
▁जागरूक	-3029
▁प्रचार	-3030
▁प्रयोग	-3031
▁मंजूरी	-3032
▁सीबीआई	-3033
▁निर्धार	-3034
▁पहुंचने	-3035
▁निर्वाचन	-3036
▁प्रतियोग	-3037
▁हाईकोर्ट	-3038
▁अभिनेत्री	-3039
▁अस्पतालों	-3040
▁संवाददाता	-3041
.0	-3042
आइ	-3043
सं	-3044
सु	-3045
▁#	-3046
नेस	-3047
पीट	-3048
पेट	-3049
बाल	-3050
मैं	-3051
राग	-3052
विल	-3053
हता	-3054
ायी	-3055
▁32	-3056
▁उद	-3057
▁री	-3058
इयों	-3059
पुरी	-3060
भाषा	-3061
र्तन	-3062
वारी	-3063
्याम	-3064
्‍या	-3065
▁आकर	-3066
▁कौन	-3067
▁खंड	-3068
▁चीज	-3069
▁निप	-3070
▁फिट	-3071
▁बाब	-3072
▁बेच	-3073
▁मिट	-3074
▁संभ	-3075
▁संर	-3076
▁हिस	-3077
कर्ता	-3078
यरमैन	-3079
ुक्ति	-3080
ेंट्स	-3081
▁आखिर	-3082
▁आनंद	-3083
▁इतनी	-3084
▁खाते	-3085
▁चेता	-3086
▁जनपद	-3087
▁फरार	-3088
▁फायर	-3089
▁बैठे	-3090
▁मोहन	-3091
▁विधे	-3092
▁संभव	-3093
▁सिया	-3094
▁सीधे	-3095
▁इंग्ल	-3096
▁ऊर्जा	-3097
▁कहानी	-3098
▁कैंसर	-3099
▁टक्कर	-3100
▁तुलना	-3101
▁मात्र	-3102
▁मिश्र	-3103
▁मुक्त	-3104
▁युद्ध	-3105
▁वास्त	-3106
▁शिविर	-3107
▁हटाने	-3108
धिकारिक	-3109
▁इंडियन	-3110
▁इंस्पे	-3111
▁रोजगार	-3112
▁स्पष्ट	-3113
▁ऑक्सीजन	-3114
▁मार्केट	-3115
▁सुप्रीम	-3116
▁आधिकारिक	-3117
▁राज्यपाल	-3118
-2	-3119
nt	-3120
गण	-3121
टो	-3122
पत	-3123
यम	-3124
▁K	-3125
ढ़ी	-3126
तीश	-3127
थित	-3128
पान	-3129
शिप	-3130
ाले	-3131
▁45	-3132
▁दम	-3133
▁नै	-3134
कल्प	-3135
टिंग	-3136
र्गत	-3137
लोनी	-3138
ार्म	-3139
िनेट	-3140
▁अधी	-3141
▁इजा	-3142
▁कने	-3143
▁कां	-3144
▁खोल	-3145
▁ताप	-3146
▁दोष	-3147
▁नाग	-3148
▁फैल	-3149
▁बहु	-3150
▁मजब	-3151
▁मस्	-3152
▁रेड	-3153
▁वाय	-3154
▁शब्	-3155
▁समा	-3156
▁अतिक	-3157
▁इच्छ	-3158
▁कैंप	-3159
▁देगा	-3160
▁नारे	-3161
▁नीति	-3162
▁पंजी	-3163
▁पेड़	-3164
▁प्रे	-3165
▁भुगत	-3166
▁मनोज	-3167
▁रखना	-3168
▁लंबी	-3169
▁साझा	-3170
▁हाउस	-3171
▁अपडेट	-3172
▁चाहता	-3173
▁दाखिल	-3174
▁नाराज	-3175
▁पढ़ाई	-3176
▁प्रोड	-3177
▁ब्रिट	-3178
▁मैचों	-3179
▁लगाते	-3180
▁लड़ाई	-3181
▁वित्त	-3182
▁इलाकों	-3183
▁खरीदने	-3184
▁चुनावी	-3185
▁जायेगा	-3186
▁ज्ञापन	-3187
▁ट्रांस	-3188
▁दोबारा	-3189
▁निर्मा	-3190
▁रहेंगे	-3191
▁विकसित	-3192
▁सिन्हा	-3193
▁हिस्से	-3194
कर्मियों	-3195
▁अभिनेता	-3196
▁कर्नाटक	-3197
▁कलेक्टर	-3198
▁चेतावनी	-3199
▁चेयरमैन	-3200
▁दर्शकों	-3201
▁मजदूरों	-3202
▁विश्वास	-3203
▁व्यवसाय	-3204
▁संस्थान	-3205
▁स्थापित	-3206
▁एक्ट्रेस	-3207
▁डॉक्टरों	-3208
▁तस्वीरें	-3209
▁मुख्यालय	-3210
▁विशेषज्ञ	-3211
▁समस्याओं	-3212
▁गतिविधियों	-3213
▁विद्यार्थियों	-3214
id	-3215
कॉ	-3216
यु	-3217
ैर	-3218
▁U	-3219
केत	-3220
प्त	-3221
बान	-3222
बीन	-3223
रोज	-3224
र्द	-3225
वेद	-3226
षित	-3227
सेज	-3228
हाद	-3229
ेलन	-3230
्हा	-3231
▁छि	-3232
▁जू	-3233
▁दब	-3234
▁धम	-3235
▁सख	-3236
डिया	-3237
देवी	-3238
राया	-3239
व्यव	-3240
्याण	-3241
्यास	-3242
्रीन	-3243
▁असम	-3244
▁खार	-3245
▁खुश	-3246
▁गोल	-3247
▁छाप	-3248
▁जबर	-3249
▁टॉप	-3250
▁पदक	-3251
▁हंग	-3252
▁हवा	-3253
श्वास	-3254
स्लिम	-3255
िक्कत	-3256
▁अध्य	-3257
▁अनिल	-3258
▁इस्ल	-3259
▁ऑफिस	-3260
▁कर्ज	-3261
▁कॉन्	-3262
▁गाइड	-3263
▁चलने	-3264
▁तोड़	-3265
▁बीएस	-3266
▁मतलब	-3267
▁रखते	-3268
▁रखें	-3269
▁राजी	-3270
▁लाइट	-3271
▁शहीद	-3272
▁सारा	-3273
ार्मिक	-3274
▁अपराध	-3275
▁उठाया	-3276
▁उन्‍ह	-3277
▁ग्रुप	-3278
▁जयपुर	-3279
▁जागरण	-3280
▁जोड़ी	-3281
▁नक्सल	-3282
▁नेशनल	-3283
▁प्रेर	-3284
▁फाइनल	-3285
▁बचाने	-3286
▁भरोसा	-3287
▁सूर्य	-3288
▁सैन्य	-3289
▁स्टेट	-3290
ज्ञानिक	-3291
▁अनुमान	-3292
▁गुजरात	-3293
▁डिजिटल	-3294
▁तत्काल	-3295
▁तापमान	-3296
▁दिक्कत	-3297
▁परिवहन	-3298
▁पुष्टि	-3299
▁वार्ता	-3300
▁श्रमिक	-3301
▁अधीक्षक	-3302
▁केन्द्र	-3303
▁कैबिनेट	-3304
▁कोतवाली	-3305
▁जिन्हें	-3306
▁दुकानों	-3307
▁महिलाएं	-3308
▁स्कूलों	-3309
▁गेंदबाजी	-3310
▁निर्धारित	-3311
▁प्रशिक्षण	-3312
▁प्रतियोगिता	-3313
.1	-3314
ew	-3315
it	-3316
थी	-3317
दल	-3318
नन	-3319
ाफ	-3320
ॉट	-3321
ंती	-3322
काम	-3323
घ्र	-3324
जनक	-3325
णसी	-3326
त्‍	-3327
पने	-3328
फ्र	-3329
मिट	-3330
वली	-3331
वां	-3332
श्व	-3333
ायण	-3334
ैया	-3335
▁अथ	-3336
▁ओम	-3337
▁चर	-3338
▁ठे	-3339
▁धी	-3340
▁फे	-3341
▁बट	-3342
एंगे	-3343
कारा	-3344
नियर	-3345
फेसर	-3346
माचल	-3347
वेयर	-3348
स्टम	-3349
ांकन	-3350
ारंभ	-3351
ित्व	-3352
िस्ट	-3353
▁अंड	-3354
▁अनि	-3355
▁आर्	-3356
▁ऊंच	-3357
▁कोच	-3358
▁खोज	-3359
▁घुस	-3360
▁चोर	-3361
▁धार	-3362
▁पाई	-3363
▁भले	-3364
▁सेक	-3365
कारों	-3366
स्टिस	-3367
▁उर्फ	-3368
▁गंगा	-3369
▁जैसा	-3370
▁तहरी	-3371
▁प्रि	-3372
▁भाषा	-3373
▁मुकद	-3374
▁लड़क	-3375
▁शुक्	-3376
▁सिलस	-3377
▁सीजन	-3378
▁सुनि	-3379
▁सुनी	-3380
▁होनी	-3381
लेरिया	-3382
▁एटीएम	-3383
▁जानिए	-3384
▁जाहिर	-3385
▁दर्शन	-3386
▁पृष्ठ	-3387
▁प्लान	-3388
▁बढ़कर	-3389
▁रवाना	-3390
▁रिलीज	-3391
▁रोहित	-3392
▁लगाकर	-3393
▁लॉन्च	-3394
▁शिकार	-3395
▁शीघ्र	-3396
▁हाथों	-3397
▁हिंदू	-3398
▁आधारित	-3399
▁गिरफ्त	-3400
▁प्लांट	-3401
▁रफ्तार	-3402
▁वर्ल्ड	-3403
▁हथियार	-3404
▁अमेरिकी	-3405
▁धार्मिक	-3406
▁मुस्लिम	-3407
▁अतिक्रमण	-3408
▁इंग्लैंड	-3409
▁नियुक्ति	-3410
▁इंस्पेक्टर	-3411
▁जिम्मेदारी	-3412
खर	-3413
भो	-3414
हण	-3415
ैट	-3416
▁W	-3417
ंघन	-3418
ंजी	-3419
ज़ा	-3420
ज्ज	-3421
बीर	-3422
रेन	-3423
लाइ	-3424
शान	-3425
शोध	-3426
िरा	-3427
▁(2	-3428
▁33	-3429
▁अय	-3430
▁क़	-3431
▁टॉ	-3432
▁दृ	-3433
▁धु	-3434
▁फल	-3435
▁बू	-3436
गांव	-3437
ट्टी	-3438
डिंग	-3439
फ्ते	-3440
शाला	-3441
हतरी	-3442
िलास	-3443
ेंगी	-3444
▁गुण	-3445
▁गुर	-3446
▁गोर	-3447
▁घूम	-3448
▁चां	-3449
▁परी	-3450
▁पुन	-3451
▁रूस	-3452
▁लोन	-3453
▁शोध	-3454
▁सफर	-3455
ेडियम	-3456
▁आक्र	-3457
▁एंटी	-3458
▁करनी	-3459
▁घरों	-3460
▁चौकी	-3461
▁छोटी	-3462
▁जताई	-3463
▁जोड़	-3464
▁डीजल	-3465
▁दूरी	-3466
▁बताई	-3467
▁मोटर	-3468
▁रहना	-3469
▁लागत	-3470
▁वारा	-3471
▁शायद	-3472
▁स्कू	-3473
मार्टम	-3474
▁आंखों	-3475
▁आग्रह	-3476
▁आसानी	-3477
▁काउंस	-3478
▁कृष्ण	-3479
▁ट्रंप	-3480
▁थोड़ा	-3481
▁देखें	-3482
▁निकले	-3483
▁बताते	-3484
▁बातें	-3485
▁मुफ्त	-3486
▁हिंसा	-3487
▁आदित्य	-3488
▁उत्पाद	-3489
▁कल्याण	-3490
▁कोरिया	-3491
▁जवानों	-3492
▁ट्रेलर	-3493
▁डिग्री	-3494
▁पुराने	-3495
▁बेहतरी	-3496
▁विकल्प	-3497
▁विजेता	-3498
▁संबंधी	-3499
▁सकेंगे	-3500
▁इंटरनेट	-3501
▁मलेरिया	-3502
▁मुकाबला	-3503
▁वाराणसी	-3504
▁संचालित	-3505
▁संबोधित	-3506
▁सामग्री	-3507
▁आवश्यकता	-3508
▁दुष्कर्म	-3509
▁स्टेडियम	-3510
▁पदाधिकारी	-3511
▁बल्लेबाजी	-3512
▁वैज्ञानिक	-3513
▁सुनिश्चित	-3514
▁जिलाधिकारी	-3515
▁पदाधिकारियों	-3516
80	-3517
डि	-3518
दर	-3519
नु	-3520
पल	-3521
मल	-3522
िब	-3523
ूद	-3524
्प	-3525
ion	-3526
ढ़े	-3527
मती	-3528
शनी	-3529
ाइम	-3530
ेटर	-3531
▁Ho	-3532
▁आल	-3533
▁गह	-3534
▁झा	-3535
▁दश	-3536
▁पथ	-3537
▁फो	-3538
▁वॉ	-3539
▁‘‘	-3540
घटना	-3541
च्चा	-3542
फिया	-3543
बारी	-3544
मानत	-3545
लंघन	-3546
लपुर	-3547
ांसी	-3548
्रिय	-3549
▁500	-3550
▁अब्	-3551
▁अरब	-3552
▁इका	-3553
▁ओपन	-3554
▁कैम	-3555
▁खून	-3556
▁गेम	-3557
▁ठंड	-3558
▁फें	-3559
▁मेट	-3560
▁विल	-3561
▁शेर	-3562
चार्य	-3563
▁अभिय	-3564
▁खाली	-3565
▁ग्रे	-3566
▁जब्त	-3567
▁जोशी	-3568
▁धमकी	-3569
▁बढ़ो	-3570
▁ममता	-3571
▁मैने	-3572
▁रहीं	-3573
▁वस्त	-3574
▁सिटी	-3575
ंडीगढ़	-3576
कश्मीर	-3577
स्तानी	-3578
▁अक्सर	-3579
▁इंदौर	-3580
▁कोर्स	-3581
▁खारिज	-3582
▁चार्ज	-3583
▁चेहरे	-3584
▁जिसने	-3585
▁जुड़ी	-3586
▁तहरीर	-3587
▁प्रती	-3588
▁मांगी	-3589
▁राकेश	-3590
▁राजीव	-3591
▁लिस्ट	-3592
▁संकेत	-3593
▁सिविल	-3594
▁स्टार	-3595
▁हमारा	-3596
▁हिसाब	-3597
▁आंकड़े	-3598
▁कॉलोनी	-3599
▁निकलने	-3600
▁निशाना	-3601
▁पदार्थ	-3602
▁प्रसार	-3603
▁बिक्री	-3604
▁भुगतान	-3605
▁रिश्ते	-3606
▁सक्रिय	-3607
▁सिस्टम	-3608
▁सेक्टर	-3609
▁हिमाचल	-3610
व्यवस्था	-3611
▁अंतर्गत	-3612
▁नियुक्त	-3613
▁पीड़िता	-3614
▁आतंकियों	-3615
▁दुर्घटना	-3616
▁पहुंचाने	-3617
▁प्रस्तुत	-3618
▁प्रावधान	-3619
▁प्रोफेसर	-3620
▁जिन्होंने	-3621
▁प्रत्याशी	-3622
▁भ्रष्टाचार	-3623
▁मध्यप्रदेश	-3624
▁पोस्टमार्टम	-3625
ic	-3626
ol	-3627
ँच	-3628
चु	-3629
डू	-3630
ुण	-3631
ंटा	-3632
टिव	-3633
दरा	-3634
फान	-3635
भूम	-3636
राय	-3637
रीय	-3638
र्श	-3639
वित	-3640
हूं	-3641
ेड़	-3642
▁रम	-3643
इकिल	-3644
करों	-3645
कृति	-3646
क्का	-3647
टीवी	-3648
भागी	-3649
लिंग	-3650
वार्	-3651
विटर	-3652
सीसी	-3653
स्कर	-3654
स्‍ट	-3655
ेक्ट	-3656
ैनिक	-3657
▁अके	-3658
▁आउट	-3659
▁इरा	-3660
▁इले	-3661
▁गीत	-3662
▁गेट	-3663
▁टूट	-3664
▁डेब	-3665
▁नाइ	-3666
▁महो	-3667
▁मिस	-3668
▁साध	-3669
▁हल्	-3670
विधान	-3671
सिद्ध	-3672
▁Read	-3673
▁उपभो	-3674
▁कथित	-3675
▁खतरे	-3676
▁खूबस	-3677
▁डाला	-3678
▁पढ़े	-3679
▁पैसा	-3680
▁फैला	-3681
▁बिंद	-3682
▁भीतर	-3683
▁समान	-3684
▁साथी	-3685
▁सीसी	-3686
▁सेवन	-3687
क्ताओं	-3688
▁आखिरी	-3689
▁इंस्ट	-3690
▁उनमें	-3691
▁कितना	-3692
▁ग्राह	-3693
▁चलाया	-3694
▁चित्र	-3695
▁जयंती	-3696
▁जुड़ा	-3697
▁प्यार	-3698
▁बढ़ते	-3699
▁मनाया	-3700
▁लड़ने	-3701
▁विवाह	-3702
▁सहमति	-3703
▁हफ्ते	-3704
द्योगिक	-3705
▁अखिलेश	-3706
▁अरविंद	-3707
▁उल्लेख	-3708
▁किरदार	-3709
▁जस्टिस	-3710
▁ट्विटर	-3711
▁निदेशक	-3712
▁पर्यटन	-3713
▁मारपीट	-3714
▁रिजर्व	-3715
▁विधेयक	-3716
▁शुक्ला	-3717
▁स्वर्ण	-3718
▁कार्यों	-3719
▁चंडीगढ़	-3720
▁चुनावों	-3721
▁दोस्तों	-3722
▁नामांकन	-3723
▁नियंत्र	-3724
▁बिल्कुल	-3725
▁लक्ष्मी	-3726
▁व्यवहार	-3727
▁परिवर्तन	-3728
▁पर्याप्त	-3729
▁पर्यावरण	-3730
▁सम्मानित	-3731
▁उपाध्यक्ष	-3732
.3	-3733
40	-3734
as	-3735
ed	-3736
en	-3737
re	-3738
एक	-3739
छा	-3740
पं	-3741
ूत	-3742
ेप	-3743
ews	-3744
ंपा	-3745
कोर	-3746
जित	-3747
झाव	-3748
ट्ट	-3749
बाज	-3750
मेल	-3751
म्ब	-3752
रुख	-3753
लाब	-3754
हूर	-3755
िनी	-3756
िमा	-3757
‍ली	-3758
▁कब	-3759
▁कस	-3760
▁ग्	-3761
▁टू	-3762
▁भि	-3763
▁शख	-3764
▁शॉ	-3765
ंगाई	-3766
ंपरा	-3767
भूमि	-3768
ल्ला	-3769
वाया	-3770
िटाई	-3771
▁...	-3772
▁आशी	-3773
▁उड़	-3774
▁उतर	-3775
▁काट	-3776
▁खतर	-3777
▁गठन	-3778
▁जाम	-3779
▁जैन	-3780
▁दूध	-3781
▁नार	-3782
▁पहन	-3783
▁पीठ	-3784
▁मद्	-3785
▁मधु	-3786
▁मेर	-3787
▁रिस	-3788
▁शास	-3789
देनजर	-3790
पूर्व	-3791
शियों	-3792
स्कृत	-3793
स्त्र	-3794
ायकों	-3795
ूर्ना	-3796
▁2014	-3797
▁2016	-3798
▁अहमद	-3799
▁आएगी	-3800
▁आकर्	-3801
▁उसको	-3802
▁केरल	-3803
▁चावल	-3804
▁तनाव	-3805
▁देती	-3806
▁प्री	-3807
▁बुरी	-3808
▁बोला	-3809
▁मीटर	-3810
▁मेहन	-3811
▁रहें	-3812
▁रेफर	-3813
▁लापर	-3814
▁वनडे	-3815
▁वायु	-3816
▁सिने	-3817
▁सौंप	-3818
▁कब्जे	-3819
▁कालेज	-3820
▁गेहूं	-3821
▁गोल्ड	-3822
▁चारों	-3823
▁जगहों	-3824
▁ज्ञान	-3825
▁डेस्क	-3826
▁दिनेश	-3827
▁पोर्ट	-3828
▁फॉर्म	-3829
▁मशहूर	-3830
▁मारने	-3831
▁वापसी	-3832
▁शहरों	-3833
▁शुल्क	-3834
▁आईपीएल	-3835
▁कप्तान	-3836
▁टूर्ना	-3837
▁परंपरा	-3838
▁पालिका	-3839
▁प्रताप	-3840
▁प्रबंध	-3841
▁मानसिक	-3842
▁मिट्टी	-3843
▁यात्री	-3844
▁शाहरुख	-3845
▁शूटिंग	-3846
▁स्वामी	-3847
▁हंगामा	-3848
▁हजारों	-3849
▁उल्लंघन	-3850
▁कारोबार	-3851
▁निकालने	-3852
▁परीक्षण	-3853
▁बेहतरीन	-3854
▁विस्तार	-3855
▁संस्कार	-3856
▁सम्मेलन	-3857
▁कार्यकाल	-3858
▁क्रिकेटर	-3859
▁पंचायतों	-3860
▁प्रियंका	-3861
▁मद्देनजर	-3862
▁गिरफ्तारी	-3863
▁चिकित्सकों	-3864
▁टूर्नामेंट	-3865
▁व्यापारियों	-3866
.6	-3867
.9	-3868
ho	-3869
कू	-3870
कृ	-3871
दो	-3872
पै	-3873
बत	-3874
ाद	-3875
ोप	-3876
ंची	-3877
ंजन	-3878
ंदे	-3879
एडा	-3880
धीश	-3881
नान	-3882
पूत	-3883
रोध	-3884
ल्ल	-3885
वाइ	-3886
ुति	-3887
ुरा	-3888
ैंक	-3889
▁36	-3890
▁in	-3891
▁अख	-3892
▁अह	-3893
▁ओल	-3894
▁टन	-3895
डियो	-3896
पत्र	-3897
श्री	-3898
स्टी	-3899
▁198	-3900
▁अंब	-3901
▁अपर	-3902
▁आये	-3903
▁गाँ	-3904
▁घाट	-3905
▁डिप	-3906
▁नयी	-3907
▁पुण	-3908
▁पोल	-3909
▁बजा	-3910
▁बैग	-3911
▁लीग	-3912
▁सदन	-3913
▁सीओ	-3914
स्टिक	-3915
ार्थी	-3916
िनियम	-3917
िमांड	-3918
▁Home	-3919
▁आएगा	-3920
▁इतने	-3921
▁इनकी	-3922
▁उत्प	-3923
▁खड़ा	-3924
▁गैंग	-3925
▁जंगल	-3926
▁ट्रॉ	-3927
▁ताकत	-3928
▁धोनी	-3929
▁पड़ी	-3930
▁पायल	-3931
▁प्रण	-3932
▁बजाय	-3933
▁बांग	-3934
▁बांध	-3935
▁बादल	-3936
▁बोले	-3937
▁ब्रे	-3938
▁महास	-3939
▁मिलन	-3940
▁मिशन	-3941
▁मुंह	-3942
▁मॉडल	-3943
▁लिहा	-3944
▁विवे	-3945
▁शख्स	-3946
▁संगठ	-3947
▁सकें	-3948
▁सैंप	-3949
▁सोने	-3950
जरीवाल	-3951
प्रकाश	-3952
ेन्द्र	-3953
▁अक्षय	-3954
▁किताब	-3955
▁गोपाल	-3956
▁चार्ट	-3957
▁टैक्स	-3958
▁दैनिक	-3959
▁पात्र	-3960
▁बनाना	-3961
▁मेहनत	-3962
▁मैसेज	-3963
▁लेंगे	-3964
▁वेस्ट	-3965
▁संशोध	-3966
▁सब्जी	-3967
▁साढ़े	-3968
▁सीटें	-3969
▁स्ट्र	-3970
▁अध्ययन	-3971
▁अनुरोध	-3972
▁आयुक्त	-3973
▁उद्देश	-3974
▁करवाया	-3975
▁किनारे	-3976
▁कीमतों	-3977
▁जिंदगी	-3978
▁तकनीकी	-3979
▁प्रश्न	-3980
▁बनर्जी	-3981
▁महंगाई	-3982
▁यूनियन	-3983
▁योगदान	-3984
▁विदेशी	-3985
▁विरोधी	-3986
▁सिनेमा	-3987
▁सेवाएं	-3988
▁अधिनियम	-3989
▁दिल्‍ली	-3990
▁पहुंचकर	-3991
▁बढ़ोतरी	-3992
▁संपत्ति	-3993
▁स्वीकार	-3994
▁एयरपोर्ट	-3995
▁औद्योगिक	-3996
▁केजरीवाल	-3997
▁पहुंचाया	-3998
▁प्रसिद्ध	-3999
▁अर्थव्यवस्था	-4000
-3	-4001
.7	-4002
49	-4003
am	-4004
ay	-4005
ob	-4006
om	-4007
गठ	-4008
तः	-4009
धु	-4010
नस	-4011
फॉ	-4012
यल	-4013
ोद	-4014
▁)	-4015
▁E	-4016
ंतु	-4017
खों	-4018
ज़र	-4019
ज़ी	-4020
जान	-4021
जीव	-4022
दात	-4023
नेक	-4024
मंद	-4025
याग	-4026
सोई	-4027
ाहन	-4028
ेतु	-4029
▁90	-4030
▁In	-4031
▁खी	-4032
▁टो	-4033
▁नज	-4034
▁मछ	-4035
▁शर	-4036
▁सॉ	-4037
एसएस	-4038
क्षी	-4039
टकों	-4040
न्नई	-4041
पिता	-4042
वरूप	-4043
व्यू	-4044
ैक्ट	-4045
▁असल	-4046
▁गुम	-4047
▁गैर	-4048
▁जंग	-4049
▁नती	-4050
▁नीर	-4051
▁नेट	-4052
▁फसल	-4053
▁फूल	-4054
▁बंध	-4055
▁बें	-4056
▁मुर	-4057
▁मेह	-4058
▁रिल	-4059
▁रोम	-4060
▁रोल	-4061
▁लेन	-4062
▁शौच	-4063
▁हेम	-4064
द्दीन	-4065
परेशन	-4066
िवर्स	-4067
ोध्या	-4068
्यूटर	-4069
▁2015	-4070
▁आईटी	-4071
▁आपका	-4072
▁उड़ा	-4073
▁उतार	-4074
▁कंटे	-4075
▁कराए	-4076
▁कहां	-4077
▁क्लब	-4078
▁खुशी	-4079
▁खेला	-4080
▁गठित	-4081
▁गुस्	-4082
▁चाहे	-4083
▁त्रि	-4084
▁नौकर	-4085
▁पर्व	-4086
▁भक्त	-4087
▁मशीन	-4088
▁मुसल	-4089
▁मृतक	-4090
▁रचना	-4091
▁रमेश	-4092
▁रोशन	-4093
▁विनो	-4094
▁समीप	-4095
▁सर्च	-4096
▁हेतु	-4097
▁इनकार	-4098
▁एकत्र	-4099
▁कामका	-4100
▁खेलने	-4101
▁चक्कर	-4102
▁जमानत	-4103
▁जल्दी	-4104
▁टीमों	-4105
▁डायरे	-4106
▁नोएडा	-4107
▁पायलट	-4108
▁पार्ट	-4109
▁पुस्त	-4110
▁प्रोज	-4111
▁भावना	-4112
▁मांगा	-4113
▁मुकेश	-4114
▁श्याम	-4115
▁संतोष	-4116
▁सरदार	-4117
▁स्टाफ	-4118
▁हाईवे	-4119
कर्ताओं	-4120
▁अभ्यास	-4121
▁इस्लाम	-4122
▁एसडीएम	-4123
▁किशोरी	-4124
▁छोड़कर	-4125
▁पड़ेगा	-4126
▁पाएंगे	-4127
▁बढ़ाकर	-4128
▁बैंकों	-4129
▁महीनों	-4130
▁मांगों	-4131
▁मुकदमा	-4132
▁मुद्दा	-4133
▁वारदात	-4134
▁विक्रम	-4135
▁व्यापक	-4136
▁डाउनलोड	-4137
▁निर्यात	-4138
▁पुरुषों	-4139
▁प्रतिभा	-4140
▁बदमाशों	-4141
▁विज्ञान	-4142
▁स्थानों	-4143
▁इंटरव्यू	-4144
▁छात्राओं	-4145
▁नागरिकों	-4146
▁निरीक्षक	-4147
▁लड़कियों	-4148
▁सीसीटीवी	-4149
▁प्रशासनिक	-4150
▁प्रस्तावित	-4151
▁व्यक्तियों	-4152
45	-4153
le	-4154
th	-4155
ur	-4156
ईओ	-4157
गन	-4158
घर	-4159
थे	-4160
पथ	-4161
ing	-4162
करे	-4163
डि़	-4164
ण्ड	-4165
यां	-4166
लान	-4167
लील	-4168
वती	-4169
श्त	-4170
श्‍	-4171
ष्‍	-4172
सीय	-4173
सेस	-4174
िडी	-4175
ेगा	-4176
ौली	-4177
▁1,	-4178
▁80	-4179
▁अट	-4180
▁इश	-4181
▁कौ	-4182
▁गू	-4183
▁डो	-4184
▁बम	-4185
▁बौ	-4186
घाटन	-4187
ज़ार	-4188
डिशा	-4189
त्रि	-4190
पीएफ	-4191
पीसी	-4192
बद्ध	-4193
मपुर	-4194
माने	-4195
मार्	-4196
माही	-4197
र्सी	-4198
शांत	-4199
शाली	-4200
स्थल	-4201
हारी	-4202
्तीय	-4203
्याज	-4204
▁आना	-4205
▁ओपी	-4206
▁नवा	-4207
▁पहा	-4208
▁पॉल	-4209
▁बरा	-4210
▁बुल	-4211
▁माइ	-4212
▁माय	-4213
▁यूज	-4214
▁रिट	-4215
▁रेट	-4216
▁लुक	-4217
▁शरण	-4218
▁सौर	-4219
तायात	-4220
धिकरण	-4221
युक्त	-4222
लिबान	-4223
हादुर	-4224
हाबाद	-4225
्यूटी	-4226
▁2012	-4227
▁2013	-4228
▁अन्न	-4229
▁ईरान	-4230
▁कैप्	-4231
▁जलवा	-4232
▁जेएन	-4233
▁ज्यो	-4234
▁टाइम	-4235
▁ठेके	-4236
▁तिथि	-4237
▁देखी	-4238
▁नवीन	-4239
▁बदले	-4240
▁बरसा	-4241
▁माने	-4242
▁लीटर	-4243
▁व्हा	-4244
▁सख्त	-4245
▁सिंध	-4246
▁सोना	-4247
▁हेल्	-4248
दुनिया	-4249
फिकेशन	-4250
स्थिति	-4251
▁अंकित	-4252
▁अनुभव	-4253
▁आशंका	-4254
▁इच्छा	-4255
▁इस्ती	-4256
▁करियर	-4257
▁क्लास	-4258
▁चाहती	-4259
▁तीसरी	-4260
▁दिग्ग	-4261
▁निशान	-4262
▁पिटाई	-4263
▁प्लेट	-4264
▁फुटेज	-4265
▁मजबूर	-4266
▁मानते	-4267
▁रहेगी	-4268
▁राजेश	-4269
▁विनोद	-4270
▁सुझाव	-4271
▁सुनील	-4272
▁स्पेश	-4273
न्द्रीय	-4274
फ्टवेयर	-4275
▁अफसरों	-4276
▁आक्रोश	-4277
▁उत्तरी	-4278
▁ऑपरेशन	-4279
▁क्राइम	-4280
▁दिलाने	-4281
▁दीपिका	-4282
▁प्रमाण	-4283
▁मस्जिद	-4284
▁मिलाकर	-4285
▁रास्ता	-4286
▁रोजाना	-4287
▁श्रीवा	-4288
▁सहयोगी	-4289
▁सियासी	-4290
▁सेवाओं	-4291
▁अयोध्या	-4292
▁आपूर्ति	-4293
▁ट्रेनों	-4294
▁तालिबान	-4295
▁निश्चित	-4296
▁मुसलमान	-4297
▁यातायात	-4298
▁योजनाओं	-4299
▁वित्तीय	-4300
▁संगठनों	-4301
▁सैनिकों	-4302
▁स्थापना	-4303
▁आतंकवादी	-4304
▁निरीक्षण	-4305
▁परिवारों	-4306
▁लापरवाही	-4307
▁विधायकों	-4308
▁इंडस्ट्री	-4309
▁न्यायाधीश	-4310
▁पाकिस्तानी	-4311
▁मंत्रिमंडल	-4312
.'	-4313
.’	-4314
अल	-4315
चय	-4316
जग	-4317
पि	-4318
ेद	-4319
्ट	-4320
।”	-4321
▁F	-4322
ide	-4323
ईडी	-4324
करा	-4325
कोट	-4326
जलि	-4327
जुन	-4328
टका	-4329
डनी	-4330
दीय	-4331
धाई	-4332
रिए	-4333
हीन	-4334
ांश	-4335
ियस	-4336
िसी	-4337
ुली	-4338
ूला	-4339
ेबल	-4340
ोषण	-4341
्मण	-4342
▁''	-4343
▁01	-4344
▁PM	-4345
▁अक	-4346
▁खि	-4347
▁झू	-4348
▁दह	-4349
▁बग	-4350
▁बढ	-4351
▁मण	-4352
▁शह	-4353
▁शै	-4354
▁सश	-4355
केशन	-4356
क्‍स	-4357
गणना	-4358
डीपी	-4359
तिथि	-4360
त्सव	-4361
नीति	-4362
ब्दी	-4363
मरान	-4364
लंका	-4365
स्तव	-4366
ाहरण	-4367
ाहित	-4368
िटेड	-4369
िल्म	-4370
▁इंच	-4371
▁उधर	-4372
▁एप्	-4373
▁करण	-4374
▁चाय	-4375
▁दान	-4376
▁धान	-4377
▁नशे	-4378
▁बड़	-4379
▁बाय	-4380
▁भरा	-4381
▁मंज	-4382
▁मरा	-4383
▁मुआ	-4384
▁रुक	-4385
▁रूम	-4386
▁सका	-4387
▁सदर	-4388
▁सार	-4389
▁हित	-4390
▁हॉल	-4391
ंद्रा	-4392
कुमार	-4393
दायिक	-4394
द्वार	-4395
नेशनल	-4396
प्रिय	-4397
हत्या	-4398
हराया	-4399
ांजलि	-4400
▁अंडर	-4401
▁अनेक	-4402
▁आगरा	-4403
▁इंजी	-4404
▁उक्त	-4405
▁कमरे	-4406
▁क्वि	-4407
▁खुले	-4408
▁गाने	-4409
▁गुजर	-4410
▁गोरख	-4411
▁दायर	-4412
▁दीपा	-4413
▁दुबे	-4414
▁नजदी	-4415
▁निधन	-4416
▁पुष्	-4417
▁प्रस	-4418
▁प्लस	-4419
▁बच्‍	-4420
▁बधाई	-4421
▁बीबी	-4422
▁मनीष	-4423
▁महान	-4424
▁मारा	-4425
▁मिमी	-4426
▁म्यू	-4427
▁रक्त	-4428
▁रसोई	-4429
▁शाखा	-4430
▁शुरु	-4431
▁संसा	-4432
▁समझा	-4433
▁सागर	-4434
▁सेल्	-4435
गठबंधन	-4436
जीलैंड	-4437
वालियर	-4438
▁अफ्री	-4439
▁आजादी	-4440
▁उपकरण	-4441
▁एडमिट	-4442
▁ओडिशा	-4443
▁करवाई	-4444
▁कितने	-4445
▁क्वार	-4446
▁जानने	-4447
▁जानें	-4448
▁जापान	-4449
▁जिनके	-4450
▁दर्जन	-4451
▁नीतीश	-4452
▁न्यूज	-4453
▁पूंजी	-4454
▁प्रोट	-4455
▁फोर्स	-4456
▁बढ़ने	-4457
▁माहौल	-4458
▁मिर्च	-4459
▁रणवीर	-4460
▁विष्ण	-4461
▁सुरेश	-4462
▁सुशील	-4463
▁हस्ता	-4464
▁अनिवार	-4465
▁आरोपित	-4466
▁गरीबों	-4467
▁चेन्नई	-4468
▁प्रकरण	-4469
▁प्रेमी	-4470
▁बॉर्डर	-4471
▁मृत्यु	-4472
▁मोटरसा	-4473
▁शौचालय	-4474
▁संघर्ष	-4475
▁संचालन	-4476
▁सवालों	-4477
▁स्वच्छ	-4478
▁स्वस्थ	-4479
कारात्मक	-4480
िवर्सिटी	-4481
▁उद्घाटन	-4482
▁बांग्ला	-4483
▁सिलेंडर	-4484
▁ग्वालियर	-4485
▁ज्यादातर	-4486
▁वैक्सीने	-4487
▁श्रीलंका	-4488
▁स्वतंत्र	-4489
▁इंटरनेशनल	-4490
▁केन्द्रीय	-4491
▁तैयारियां	-4492
▁प्राधिकरण	-4493
▁प्लास्टिक	-4494
▁श्रीवास्तव	-4495
▁स्मार्टफोन	-4496
.8	-4497
15	-4498
ir	-4499
ंश	-4500
जो	-4501
तल	-4502
पट	-4503
बस	-4504
सह	-4505
हे	-4506
ॉस	-4507
▁p	-4508
▁s	-4509
ंटन	-4510
खार	-4511
गति	-4512
जिए	-4513
जोर	-4514
दून	-4515
पंच	-4516
र्ख	-4517
वंत	-4518
शित	-4519
षेक	-4520
ष्क	-4521
िमी	-4522
▁42	-4523
▁51	-4524
▁52	-4525
▁उज	-4526
▁उत	-4527
▁चम	-4528
▁टि	-4529
▁तृ	-4530
▁लू	-4531
▁वस	-4532
आईसी	-4533
च्चे	-4534
जारी	-4535
टीएफ	-4536
दर्श	-4537
ध्या	-4538
रासत	-4539
रेली	-4540
र्की	-4541
वायर	-4542
वेदी	-4543
शंकर	-4544
शासन	-4545
सिंह	-4546
ेंगू	-4547
▁अना	-4548
▁आइए	-4549
▁आईं	-4550
▁आलो	-4551
▁कैश	-4552
▁कोड	-4553
▁चैन	-4554
▁जाल	-4555
▁टिप	-4556
▁टैग	-4557
▁ठिक	-4558
▁डोज	-4559
▁पंड	-4560
▁पंप	-4561
▁पुत	-4562
▁बचे	-4563
▁भरी	-4564
▁मचा	-4565
▁महज	-4566
▁मास	-4567
▁यमु	-4568
▁राव	-4569
▁लिप	-4570
▁विश	-4571
▁वेल	-4572
▁सकी	-4573
▁सेट	-4574
▁हरे	-4575
गरानी	-4576
जुर्ग	-4577
दियों	-4578
फॉर्म	-4579
▁2011	-4580
▁News	-4581
▁अधिव	-4582
▁अस्थ	-4583
▁आकार	-4584
▁आर्ट	-4585
▁उठाए	-4586
▁एकता	-4587
▁ऐलान	-4588
▁काली	-4589
▁क्ली	-4590
▁खड़ी	-4591
▁गुना	-4592
▁गौतम	-4593
▁चपेट	-4594
▁चलता	-4595
▁छोटा	-4596
▁जाति	-4597
▁जाया	-4598
▁टेली	-4599
▁डांस	-4600
▁दोषी	-4601
▁दौरा	-4602
▁द्वि	-4603
▁नकली	-4604
▁नेहर	-4605
▁पावर	-4606
▁पूछा	-4607
▁पैदल	-4608
▁प्रॉ	-4609
▁फैंस	-4610
▁बचने	-4611
▁बतौर	-4612
▁मेरठ	-4613
▁लंदन	-4614
▁लाया	-4615
▁वेतन	-4616
▁शब्द	-4617
▁शर्त	-4618
▁शारी	-4619
▁सत्य	-4620
▁सराह	-4621
दराबाद	-4622
दाताओं	-4623
स्कृति	-4624
हरादून	-4625
ाग्राम	-4626
िमिटेड	-4627
▁अंजाम	-4628
▁एक्टर	-4629
▁एक्शन	-4630
▁कविता	-4631
▁किशोर	-4632
▁चीजों	-4633
▁चोरों	-4634
▁जिक्र	-4635
▁डेंगू	-4636
▁दामों	-4637
▁परिजन	-4638
▁प्राप	-4639
▁बातों	-4640
▁बिलास	-4641
▁ब्लैक	-4642
▁मल्टी	-4643
▁रांची	-4644
▁रूपये	-4645
▁शिफ्ट	-4646
▁सकेगा	-4647
▁समर्प	-4648
▁सुंदर	-4649
▁सुनकर	-4650
▁सैंपल	-4651
▁हवाले	-4652
▁होंगी	-4653
▁उदाहरण	-4654
▁एसएसपी	-4655
▁करवाने	-4656
▁कानूनी	-4657
▁निकाली	-4658
▁पर्यटक	-4659
▁पार्षद	-4660
▁ब्रांच	-4661
▁मुखिया	-4662
▁मेट्रो	-4663
▁रिजल्ट	-4664
▁श्रेणी	-4665
▁संपन्न	-4666
▁सेकेंड	-4667
▁हड़ताल	-4668
▁हिरासत	-4669
▁आंकड़ों	-4670
▁उत्पन्न	-4671
▁खूबसूरत	-4672
▁निगरानी	-4673
▁नोटबंदी	-4674
▁प्रभावी	-4675
▁प्रोत्स	-4676
▁फायरिंग	-4677
▁बुजुर्ग	-4678
▁विपक्षी	-4679
▁शारीरिक	-4680
▁सिलसिला	-4681
▁स्क्रीन	-4682
▁कंप्यूटर	-4683
▁पर्यटकों	-4684
▁प्रतिदिन	-4685
▁प्रतिनिध	-4686
▁प्रतिबंध	-4687
▁बिलासपुर	-4688
▁रजिस्ट्र	-4689
▁श्रद्धाल	-4690
▁संस्कृति	-4691
▁हैदराबाद	-4692
▁उल्लेखनीय	-4693
▁महागठबंधन	-4694
▁न्यूजीलैंड	-4695
▁पुलिसकर्मी	-4696
▁वैक्सीनेशन	-4697
▁स्टूडेंट्स	-4698
▁इंस्टाग्राम	-4699
▁यूनिवर्सिटी	-4700
',	-4701
10	-4702
27	-4703
ck	-4704
ig	-4705
so	-4706
tr	-4707
इज	-4708
चि	-4709
नई	-4710
मस	-4711
िद	-4712
▁/	-4713
▁O	-4714
▁»	-4715
com	-4716
han	-4717
चिव	-4718
टरी	-4719
टिल	-4720
दूस	-4721
नतम	-4722
नीश	-4723
न्ग	-4724
ब्र	-4725
रेज	-4726
रेट	-4727
स्म	-4728
हरण	-4729
ानु	-4730
ोने	-4731
।’’	-4732
▁37	-4733
▁इम	-4734
▁ऐप	-4735
▁ऑल	-4736
▁कच	-4737
▁ख्	-4738
▁गत	-4739
▁पत	-4740
▁फस	-4741
▁शू	-4742
ment	-4743
ंगना	-4744
ंटों	-4745
ंदाज	-4746
ंपिक	-4747
एसटी	-4748
क्रो	-4749
दिग्	-4750
द्रा	-4751
निर्	-4752
माणु	-4753
सीबी	-4754
स्तर	-4755
िलंब	-4756
्रीम	-4757
▁अमी	-4758
▁अल्	-4759
▁आधा	-4760
▁एडी	-4761
▁कंट	-4762
▁कमि	-4763
▁कुर	-4764
▁कोय	-4765
▁गाव	-4766
▁चरम	-4767
▁छवि	-4768
▁जूझ	-4769
▁जोध	-4770
▁ढंग	-4771
▁दास	-4772
▁दुख	-4773
▁द्र	-4774
▁नाथ	-4775
▁नित	-4776
▁फर्	-4777
▁बचत	-4778
▁बहस	-4779
▁बाई	-4780
▁बीज	-4781
▁बेड	-4782
▁बैल	-4783
▁मिठ	-4784
▁वजन	-4785
▁विन	-4786
▁शेख	-4787
▁सिम	-4788
ation	-4789
कालीन	-4790
क्ट्र	-4791
त्कार	-4792
ब्लिक	-4793
रुद्ध	-4794
ियर्स	-4795
्यर्थ	-4796
्यूरो	-4797
▁अरुण	-4798
▁अल्प	-4799
▁आरटी	-4800
▁इनका	-4801
▁उचित	-4802
▁खींच	-4803
▁गणेश	-4804
▁गूगल	-4805
▁घाटी	-4806
▁जुटा	-4807
▁टाटा	-4808
▁डिजा	-4809
▁डीजी	-4810
▁तुम्	-4811
▁दत्त	-4812
▁दिये	-4813
▁पूर्	-4814
▁फ्ला	-4815
▁बेटा	-4816
▁बैनर	-4817
▁बॉडी	-4818
▁ब्रा	-4819
▁ब्लड	-4820
▁ब्ला	-4821
▁भागी	-4822
▁मानस	-4823
▁मुआव	-4824
▁मुना	-4825
▁मेला	-4826
▁रखकर	-4827
▁राशन	-4828
▁लालू	-4829
▁लेता	-4830
▁लोगो	-4831
▁वादा	-4832
▁शंकर	-4833
▁शर्म	-4834
▁सचिन	-4835
▁सपने	-4836
▁सब्स	-4837
▁समझौ	-4838
▁सिले	-4839
▁सेले	-4840
▁स्टी	-4841
▁हड़क	-4842
▁हर्ष	-4843
ड़ियां	-4844
फ्रेंस	-4845
श्वासन	-4846
▁आयुर्	-4847
▁आर्मी	-4848
▁इमरान	-4849
▁ऑडियो	-4850
▁कपड़े	-4851
▁कमजोर	-4852
▁कमांड	-4853
▁खबरों	-4854
▁ग्रहण	-4855
▁घंटों	-4856
▁जताया	-4857
▁जितना	-4858
▁जिनकी	-4859
▁जीतने	-4860
▁जुर्म	-4861
▁देखना	-4862
▁धनबाद	-4863
▁निकाय	-4864
▁नेहरू	-4865
▁पकड़ा	-4866
▁पिछली	-4867
▁प्रजा	-4868
▁फार्म	-4869
▁बढ़ती	-4870
▁बॉक्स	-4871
▁भारती	-4872
▁महानि	-4873
▁मानें	-4874
▁युवती	-4875
▁रोहता	-4876
▁लक्षण	-4877
▁संगीत	-4878
▁संभाल	-4879
▁सर्वा	-4880
▁सुनाई	-4881
▁सुर्ख	-4882
▁सूचित	-4883
▁स्थिर	-4884
▁स्नान	-4885
▁हादसा	-4886
▁हिन्द	-4887
▁अंग्रे	-4888
▁अर्जुन	-4889
▁आंकड़ा	-4890
▁इंतजाम	-4891
▁इंदिरा	-4892
▁एसटीएफ	-4893
▁कमलनाथ	-4894
▁कलाकार	-4895
▁कुमारी	-4896
▁खतरनाक	-4897
▁गुस्सा	-4898
▁ज्योति	-4899
▁निकाला	-4900
▁निपटने	-4901
▁पक्षों	-4902
▁परमाणु	-4903
▁प्रगति	-4904
▁प्रिंस	-4905
▁बढ़ावा	-4906
▁बुलाया	-4907
▁ब्रांड	-4908
▁मोर्चा	-4909
▁यूजर्स	-4910
▁राजपूत	-4911
▁शिवराज	-4912
▁संकल्प	-4913
▁संशोधन	-4914
▁सालाना	-4915
▁अभ्यर्थ	-4916
▁करोड़ों	-4917
▁ज़्यादा	-4918
▁ड्राइवर	-4919
▁दीपावली	-4920
▁न्यूनतम	-4921
▁प्रबंधन	-4922
▁महोत्सव	-4923
▁मुद्दों	-4924
▁विरुद्ध	-4925
▁श्रीनगर	-4926
▁संरक्षण	-4927
▁सावधानी	-4928
▁अनिवार्य	-4929
▁उद्देश्य	-4930
▁कर्मियों	-4931
▁देहरादून	-4932
▁नियंत्रण	-4933
▁परिस्थित	-4934
▁व्यापारी	-4935
▁अध्यापकों	-4936
▁कार्यकारी	-4937
▁प्रोजेक्ट	-4938
▁बांग्लादेश	-4939
▁विद्यार्थी	-4940
▁आतंकवादियों	-4941
▁पुलिसकर्मियों	-4942
."	-4943
ak	-4944
oo	-4945
ve	-4946
एप	-4947
ग़	-4948
घु	-4949
ठे	-4950
डु	-4951
बो	-4952
वृ	-4953
हल	-4954
हि	-4955
हो	-4956
िड	-4957
ैग	-4958
ौज	-4959
▁b	-4960
▁m	-4961
▁̈	-4962
▁​	-4963
▁”	-4964
:00	-4965
ंकन	-4966
ंगर	-4967
ंटल	-4968
कूट	-4969
घाट	-4970
ड़क	-4971
डीए	-4972
दाई	-4973
न्व	-4974
मेर	-4975
र्त	-4976
वाय	-4977
षिक	-4978
ाये	-4979
ॉजी	-4980
्मा	-4981
्लो	-4982
▁2.	-4983
▁38	-4984
▁आँ	-4985
▁झग	-4986
▁तट	-4987
▁फि	-4988
▁बख	-4989
▁यश	-4990
▁यो	-4991
▁वर	-4992
▁सृ	-4993
▁हू	-4994
आईआर	-4995
आईएम	-4996
क्षम	-4997
क्षर	-4998
ट्यू	-4999
ड्डा	-5000
धाना	-5001
पाठी	-5002
ब्बत	-5003
म्बर	-5004
रेशन	-5005
लामी	-5006
वाड़	-5007
सारी	-5008
ारों	-5009
िटीज	-5010
ूंगा	-5011
▁आजम	-5012
▁आशा	-5013
▁उन्	-5014
▁ऑफर	-5015
▁कस्	-5016
▁कहर	-5017
▁किल	-5018
▁कुश	-5019
▁कॉल	-5020
▁खाद	-5021
▁गढ़	-5022
▁गुल	-5023
▁चंद	-5024
▁छीन	-5025
▁तिर	-5026
▁तुम	-5027
▁दाय	-5028
▁दाल	-5029
▁धूम	-5030
▁नये	-5031
▁पंत	-5032
▁पवन	-5033
▁पाक	-5034
▁फंड	-5035
▁फूड	-5036
▁बहा	-5037
▁बहू	-5038
▁भरप	-5039
▁मनु	-5040
▁मिड	-5041
▁मौल	-5042
▁रकम	-5043
▁रवी	-5044
▁लहर	-5045
▁लाए	-5046
▁शेष	-5047
▁सेल	-5048
▁स्म	-5049
▁हरि	-5050
ट्सएप	-5051
दिग्ध	-5052
नमेंट	-5053
मार्ग	-5054
वर्ती	-5055
▁2022	-5056
▁अबतक	-5057
▁अब्द	-5058
▁आपसी	-5059
▁इकाई	-5060
▁करार	-5061
▁खादी	-5062
▁गर्व	-5063
▁घटकर	-5064
▁चाचा	-5065
▁छापे	-5066
▁जानी	-5067
▁जीता	-5068
▁जुड़	-5069
▁डेटा	-5070
▁डेढ़	-5071
▁तर्क	-5072
▁त्या	-5073
▁दिलच	-5074
▁दीपक	-5075
▁धीरे	-5076
▁धोखा	-5077
▁पूजन	-5078
▁बलों	-5079
▁बसपा	-5080
▁बांट	-5081
▁बारी	-5082
▁भरने	-5083
▁मरने	-5084
▁माइक	-5085
▁मुल्	-5086
▁रहकर	-5087
▁लाइफ	-5088
▁लिखे	-5089
▁लौटे	-5090
▁विधि	-5091
▁व्या	-5092
▁शिल्	-5093
▁सब्ज	-5094
▁सांप	-5095
▁सेंट	-5096
▁सोनू	-5097
▁हस्त	-5098
▁हाला	-5099
▁हॉकी	-5100
काउंटर	-5101
ग्रस्त	-5102
ब्ल्यू	-5103
▁अतिथि	-5104
▁अलर्ट	-5105
▁ईश्वर	-5106
▁उठाने	-5107
▁एंड्र	-5108
▁एजेंस	-5109
▁कन्या	-5110
▁कब्जा	-5111
▁कामया	-5112
▁कैमरे	-5113
▁क्वाल	-5114
▁जरिये	-5115
▁जिसमे	-5116
▁डालकर	-5117
▁तलाशी	-5118
▁दस्ता	-5119
▁पकड़े	-5120
▁पड़ने	-5121
▁प्रभु	-5122
▁फील्ड	-5123
▁बच्चा	-5124
▁बच्ची	-5125
▁बढ़ता	-5126
▁बेंगल	-5127
▁ब्लॉक	-5128
▁मनाली	-5129
▁मानवा	-5130
▁मारकर	-5131
▁यंत्र	-5132
▁रोशनी	-5133
▁वस्तु	-5134
▁समक्ष	-5135
▁स्कोर	-5136
▁हिंदु	-5137
▁हेल्थ	-5138
रेन्द्र	-5139
िक्रिया	-5140
▁अभिषेक	-5141
▁अलीगढ़	-5142
▁इन्हीं	-5143
▁उत्साह	-5144
▁कामकाज	-5145
▁जबलपुर	-5146
▁जोधपुर	-5147
▁ट्रॉफी	-5148
▁ड्यूटी	-5149
▁तिमाही	-5150
▁दिग्गज	-5151
▁दिवसीय	-5152
▁दिव्या	-5153
▁निरंतर	-5154
▁प्रयाग	-5155
▁भाइयों	-5156
▁मुक्ति	-5157
▁विक्रे	-5158
▁विष्णु	-5159
▁सप्लाई	-5160
▁समाधान	-5161
▁सोनिया	-5162
▁आश्वासन	-5163
▁इस्तीफा	-5164
▁कनेक्शन	-5165
▁कानूनों	-5166
▁ट्रैफिक	-5167
▁नाराजगी	-5168
▁प्रधाना	-5169
▁प्रारंभ	-5170
▁रिकार्ड	-5171
▁रोहतांग	-5172
▁लिमिटेड	-5173
▁संदिग्ध	-5174
▁संविधान	-5175
▁सब्सिडी	-5176
▁सलाहकार	-5177
▁अहमदाबाद	-5178
▁आयुर्वेद	-5179
▁इंजीनियर	-5180
▁इलाहाबाद	-5181
▁उपायुक्त	-5182
▁एनकाउंटर	-5183
▁निर्माता	-5184
▁राज्यसभा	-5185
▁लोकप्रिय	-5186
▁वीरेंद्र	-5187
▁समर्थकों	-5188
▁आत्महत्या	-5189
▁उन्‍होंने	-5190
▁कार्यवाही	-5191
▁जिम्मेदार	-5192
▁डायरेक्टर	-5193
▁निर्देशित	-5194
▁प्रोग्राम	-5195
▁मंत्रियों	-5196
▁महानिदेशक	-5197
▁मानवाधिकार	-5198
▁विशेषज्ञों	-5199
▁प्रतिक्रिया	-5200
▁श्रद्धांजलि	-5201
................	-5202
18	-5203
77	-5204
ag	-5205
el	-5206
il	-5207
os	-5208
अर	-5209
मै	-5210
लन	-5211
्न	-5212
:30	-5213
ore	-5214
ंगन	-5215
ंचल	-5216
एसी	-5217
कुछ	-5218
खिम	-5219
गाह	-5220
जना	-5221
जुट	-5222
धित	-5223
धीन	-5224
पता	-5225
पाट	-5226
बॉल	-5227
मेट	-5228
वेट	-5229
शाह	-5230
सीन	-5231
ह्न	-5232
िको	-5233
िसू	-5234
ोजक	-5235
्वे	-5236
▁2,	-5237
▁34	-5238
▁48	-5239
▁75	-5240
▁Al	-5241
▁गर	-5242
▁ग़	-5243
▁तू	-5244
▁नग	-5245
▁फं	-5246
▁भय	-5247
▁रॉ	-5248
ंख्य	-5249
ंचित	-5250
आरसी	-5251
एनएस	-5252
कांत	-5253
दर्भ	-5254
देशी	-5255
धारी	-5256
न्ने	-5257
पक्ष	-5258
पीएस	-5259
प्रत	-5260
राहा	-5261
र्जर	-5262
र्टी	-5263
लीला	-5264
सवाल	-5265
सेवी	-5266
स्‍थ	-5267
ांतर	-5268
ेडकर	-5269
्याल	-5270
▁(19	-5271
▁̈सह	-5272
▁अदा	-5273
▁अमन	-5274
▁आयी	-5275
▁आला	-5276
▁इधर	-5277
▁एएम	-5278
▁खिल	-5279
▁चतु	-5280
▁जहर	-5281
▁जेट	-5282
▁तिल	-5283
▁नहर	-5284
▁नाक	-5285
▁पटा	-5286
▁पप्	-5287
▁पर्	-5288
▁पेय	-5289
▁बरत	-5290
▁बाज	-5291
▁बुक	-5292
▁भंड	-5293
▁भरे	-5294
▁मदन	-5295
▁मनो	-5296
▁मुज	-5297
▁मेक	-5298
▁मेल	-5299
▁मैन	-5300
▁रुख	-5301
▁लीड	-5302
▁शपथ	-5303
▁शिम	-5304
▁सीर	-5305
▁सेन	-5306
▁हंस	-5307
▁हेड	-5308
▁होश	-5309
दूसरे	-5310
बाजार	-5311
भागीय	-5312
वर्धन	-5313
वितीय	-5314
श्विक	-5315
स्करण	-5316
हित्य	-5317
ेक्षा	-5318
्यवाद	-5319
▁अंदा	-5320
▁अगला	-5321
▁अगली	-5322
▁अमृत	-5323
▁आपदा	-5324
▁आसार	-5325
▁इसको	-5326
▁उग्र	-5327
▁कर्फ	-5328
▁कस्ट	-5329
▁कांड	-5330
▁कायम	-5331
▁किंग	-5332
▁कोटा	-5333
▁कौशल	-5334
▁गायब	-5335
▁गिरी	-5336
▁गोवा	-5337
▁चालू	-5338
▁चैंप	-5339
▁जबरद	-5340
▁जहाँ	-5341
▁टेक्	-5342
▁डीसी	-5343
▁ड्रग	-5344
▁तत्व	-5345
▁त्यो	-5346
▁दौड़	-5347
▁निष्	-5348
▁नेहा	-5349
▁पीछा	-5350
▁पीटा	-5351
▁पेंट	-5352
▁फ्री	-5353
▁बनार	-5354
▁बिता	-5355
▁माफी	-5356
▁यहीं	-5357
▁रेखा	-5358
▁लंबा	-5359
▁लोकल	-5360
▁शहरी	-5361
▁शांत	-5362
▁सबके	-5363
▁साइन	-5364
▁सिखा	-5365
▁सूरत	-5366
▁स्पी	-5367
▁हरकत	-5368
▁हेली	-5369
▁अकाली	-5370
▁अपहरण	-5371
▁अभिनय	-5372
▁आएंगे	-5373
▁इंद्र	-5374
▁इंसान	-5375
▁एकजुट	-5376
▁कंगना	-5377
▁कटौती	-5378
▁कराना	-5379
▁क्लिक	-5380
▁खबरें	-5381
▁खोलने	-5382
▁गर्मी	-5383
▁चिन्ह	-5384
▁जोखिम	-5385
▁डालने	-5386
▁तारीफ	-5387
▁दर्शक	-5388
▁दवाओं	-5389
▁नजदीक	-5390
▁निराश	-5391
▁नेपाल	-5392
▁परंतु	-5393
▁पारित	-5394
▁प्रोफ	-5395
▁बच्चन	-5396
▁बस्ती	-5397
▁बाबरी	-5398
▁बाहरी	-5399
▁ब्रेक	-5400
▁भेजने	-5401
▁मित्र	-5402
▁लगाएं	-5403
▁लगेगा	-5404
▁लापता	-5405
▁लिखित	-5406
▁सक्षम	-5407
▁स्टोर	-5408
▁हराया	-5409
▁हवाला	-5410
कारियों	-5411
▁अपराधी	-5412
▁आईसीसी	-5413
▁आपत्ति	-5414
▁उन्हीं	-5415
▁करेंगी	-5416
▁खुफिया	-5417
▁घटनाओं	-5418
▁छोड़ने	-5419
▁जाएंगी	-5420
▁टीएमसी	-5421
▁डेब्यू	-5422
▁दिखाया	-5423
▁दुर्गा	-5424
▁पहलवान	-5425
▁प्रतीक	-5426
▁प्रदीप	-5427
▁प्रभात	-5428
▁प्रिया	-5429
▁फ्लाइट	-5430
▁भास्कर	-5431
▁मतगणना	-5432
▁मानसून	-5433
▁मिलियन	-5434
▁मुनाफा	-5435
▁रणनीति	-5436
▁रिसर्च	-5437
▁शासकीय	-5438
▁स्पेशल	-5439
▁स्वरूप	-5440
▁अधिकांश	-5441
▁अध्यापक	-5442
▁कर्फ्यू	-5443
▁काउंसिल	-5444
▁क्वारंट	-5445
▁क्विंटल	-5446
▁त्योहार	-5447
▁पश्चिमी	-5448
▁प्रवासी	-5449
▁प्रेरित	-5450
▁ब्रिटिश	-5451
▁महात्मा	-5452
▁महासचिव	-5453
▁मान्यता	-5454
▁शुरुआती	-5455
▁संज्ञान	-5456
▁समर्पित	-5457
▁साहित्य	-5458
▁स्वीकृत	-5459
▁ओमप्रकाश	-5460
▁घटनास्थल	-5461
▁चिकित्सक	-5462
▁जुर्माना	-5463
▁तहसीलदार	-5464
▁त्रिपाठी	-5465
▁राजमार्ग	-5466
▁राजेंद्र	-5467
▁समाजवादी	-5468
▁सुविधाओं	-5469
▁किलोग्राम	-5470
▁तैयारियों	-5471
▁सकारात्मक	-5472
▁सोफ्टवेयर	-5473
▁परियोजनाओं	-5474
▁मोटरसाइकिल	-5475
▁संक्रमितों	-5476
▁कार्यक्रमों	-5477
▁प्रत्याशियों	-5478
-0	-5479
:2	-5480
ma	-5481
ow	-5482
एँ	-5483
जत	-5484
णु	-5485
तू	-5486
तो	-5487
दक	-5488
बि	-5489
रू	-5490
लक	-5491
सद	-5492
िफ	-5493
ोच	-5494
ौत	-5495
dia	-5496
ंबा	-5497
ंसक	-5498
उडर	-5499
एलए	-5500
कां	-5501
किट	-5502
गित	-5503
चों	-5504
टली	-5505
टीन	-5506
ड्र	-5507
तान	-5508
त्न	-5509
निस	-5510
पित	-5511
पैड	-5512
फार	-5513
बरा	-5514
भाष	-5515
म्‍	-5516
रित	-5517
लीम	-5518
वेल	-5519
वों	-5520
साई	-5521
सास	-5522
सेट	-5523
ाइज	-5524
ूनी	-5525
ूने	-5526
▁44	-5527
▁49	-5528
▁72	-5529
▁इक	-5530
▁ऋण	-5531
▁गी	-5532
▁घे	-5533
▁छत	-5534
▁झु	-5535
▁तथ	-5536
▁धै	-5537
▁नॉ	-5538
▁पश	-5539
▁मक	-5540
▁मथ	-5541
▁लव	-5542
ंखला	-5543
जीएम	-5544
जीवन	-5545
ट्टा	-5546
डीजल	-5547
ड्डे	-5548
पीएम	-5549
प्टर	-5550
बीआई	-5551
भारत	-5552
मुझे	-5553
मोहन	-5554
म्मत	-5555
रानी	-5556
रीका	-5557
र्धा	-5558
वंशी	-5559
ार्क	-5560
िताभ	-5561
ूहिक	-5562
ृत्य	-5563
▁150	-5564
▁अन्	-5565
▁आलम	-5566
▁आह्	-5567
▁एजु	-5568
▁काग	-5569
▁केश	-5570
▁खंग	-5571
▁घात	-5572
▁जवा	-5573
▁जॉन	-5574
▁टुक	-5575
▁टोक	-5576
▁टोल	-5577
▁तार	-5578
▁दशक	-5579
▁धमा	-5580
▁धूल	-5581
▁नमक	-5582
▁नाल	-5583
▁पीट	-5584
▁पृथ	-5585
▁फंस	-5586
▁बला	-5587
▁बैच	-5588
▁भूप	-5589
▁मजा	-5590
▁मदर	-5591
▁राघ	-5592
▁रॉय	-5593
▁लीक	-5594
▁लोह	-5595
▁वसू	-5596
▁सिस	-5597
▁सीख	-5598
▁सैक	-5599
▁हरा	-5600
▁हसन	-5601
▁हिम	-5602
क्षेप	-5603
ट्रिक	-5604
ड़िया	-5605
प्रीत	-5606
राज्य	-5607
वत्ता	-5608
वार्ड	-5609
शिष्ट	-5610
िकाओं	-5611
ुलेंस	-5612
ोलॉजी	-5613
▁आपात	-5614
▁आलोक	-5615
▁इंजन	-5616
▁ईमान	-5617
▁उधार	-5618
▁उमेश	-5619
▁ऑक्स	-5620
▁कहने	-5621
▁कारा	-5622
▁केसर	-5623
▁गिरि	-5624
▁चलती	-5625
▁चलाई	-5626
▁चौथे	-5627
▁जनसं	-5628
▁जर्म	-5629
▁जश्न	-5630
▁जुटे	-5631
▁डायब	-5632
▁डीलर	-5633
▁तमिल	-5634
▁ताजा	-5635
▁दस्त	-5636
▁दादा	-5637
▁देगी	-5638
▁देरी	-5639
▁धरना	-5640
▁नरेश	-5641
▁नर्स	-5642
▁नामक	-5643
▁नाहन	-5644
▁प्रौ	-5645
▁फ़ीस	-5646
▁फेंक	-5647
▁बसों	-5648
▁बाढ़	-5649
▁बाला	-5650
▁भेजे	-5651
▁मनोर	-5652
▁रखता	-5653
▁रनों	-5654
▁रानी	-5655
▁रुबी	-5656
▁लगती	-5657
▁लड़े	-5658
▁लाइस	-5659
▁श्रम	-5660
▁सबको	-5661
▁सिक्	-5662
▁सीता	-5663
▁सेहत	-5664
▁स्ना	-5665
▁स्रो	-5666
▁हत्य	-5667
क्तूबर	-5668
ार्थना	-5669
िसूचना	-5670
्यक्रम	-5671
▁अपमान	-5672
▁आवंटन	-5673
▁आसमान	-5674
▁इजाजत	-5675
▁कमेंट	-5676
▁कर्मी	-5677
▁केदार	-5678
▁कोयला	-5679
▁क्रमश	-5680
▁क्रॉस	-5681
▁खरीदी	-5682
▁गंदगी	-5683
▁चांदी	-5684
▁चीजें	-5685
▁जोड़े	-5686
▁टिहरी	-5687
▁ट्रेड	-5688
▁ठाकरे	-5689
▁ड्रेस	-5690
▁तकनीक	-5691
▁तुम्ह	-5692
▁दिलीप	-5693
▁देशभर	-5694
▁धैर्य	-5695
▁निंदा	-5696
▁पप्पू	-5697
▁पहनने	-5698
▁पाउडर	-5699
▁पैकेट	-5700
▁प्रेस	-5701
▁फसलों	-5702
▁फायदे	-5703
▁बराबर	-5704
▁बिगड़	-5705
▁बेसिक	-5706
▁बैठकर	-5707
▁बौद्ध	-5708
▁ब्याज	-5709
▁मौतों	-5710
▁रिक्त	-5711
▁वंचित	-5712
▁वोटों	-5713
▁शुरूआ	-5714
▁साइबर	-5715
▁सीमित	-5716
▁सुनने	-5717
▁सौंपा	-5718
▁हैरान	-5719
प्रतिनि	-5720
स्कृतिक	-5721
▁अंदाजा	-5722
▁अधिकतम	-5723
▁अनुराग	-5724
▁अब्दुल	-5725
▁अभिभाव	-5726
▁अमिताभ	-5727
▁आरएसएस	-5728
▁आलोचना	-5729
▁इंस्टी	-5730
▁ओलंपिक	-5731
▁छुट्टी	-5732
▁जोरदार	-5733
▁डिजाइन	-5734
▁दिवाली	-5735
▁दूसरों	-5736
▁नारायण	-5737
▁पब्लिक	-5738
▁पांडेय	-5739
▁पासवान	-5740
▁पोस्टर	-5741
▁फिटनेस	-5742
▁फ्रांस	-5743
▁बढ़ाया	-5744
▁बीएसएफ	-5745
▁मनुष्य	-5746
▁मुद्रा	-5747
▁मैनेजर	-5748
▁रिमांड	-5749
▁विश्ले	-5750
▁विषयों	-5751
▁संदर्भ	-5752
▁संसाधन	-5753
▁सराहना	-5754
▁सर्विस	-5755
▁हड़कंप	-5756
द्योगिकी	-5757
▁आकर्षित	-5758
▁उन्‍हें	-5759
▁कार्यरत	-5760
▁गंभीरता	-5761
▁चैंपियन	-5762
▁दक्षिणी	-5763
▁द्वितीय	-5764
▁धन्यवाद	-5765
▁निकालकर	-5766
▁प्रकृति	-5767
▁प्रेरणा	-5768
▁फिल्में	-5769
▁ब्रिटेन	-5770
▁वैश्विक	-5771
▁शिवसेना	-5772
▁श्रीमती	-5773
▁सामूहिक	-5774
▁सुपरस्ट	-5775
▁अंतरिक्ष	-5776
▁अधिकारों	-5777
▁उपस्थिति	-5778
▁गुणवत्ता	-5779
▁छापेमारी	-5780
▁जनसंख्या	-5781
▁जागरूकता	-5782
▁ट्रांसफर	-5783
▁नारेबाजी	-5784
▁पदार्थों	-5785
▁प्रकाशित	-5786
▁वास्तविक	-5787
▁आदित्यनाथ	-5788
▁जनप्रतिनि	-5789
▁पाठ्यक्रम	-5790
▁प्रदर्शित	-5791
▁प्रार्थना	-5792
▁उपभोक्ताओं	-5793
▁सांस्कृतिक	-5794
▁याचिकाकर्ता	-5795
▁प्रतिनिधिमंडल	-5796
.”	-5797
14	-5798
38	-5799
46	-5800
57	-5801
ap	-5802
av	-5803
ct	-5804
to	-5805
un	-5806
एई	-5807
कश	-5808
खु	-5809
चक	-5810
जब	-5811
टू	-5812
ठभ	-5813
थर	-5814
यह	-5815
यॉ	-5816
सब	-5817
ाव	-5818
ुन	-5819
500	-5820
ech	-5821
ँकि	-5822
ंकज	-5823
ंजा	-5824
ंधा	-5825
ऊदी	-5826
एचओ	-5827
कूल	-5828
ड़प	-5829
डीह	-5830
दगी	-5831
दिक	-5832
देह	-5833
धाम	-5834
भवी	-5835
माग	-5836
मौर	-5837
वनि	-5838
वाए	-5839
वीय	-5840
िकर	-5841
िजन	-5842
िपल	-5843
ूरज	-5844
ृदय	-5845
ेगी	-5846
ोगी	-5847
ौदा	-5848
्तर	-5849
्ती	-5850
्वी	-5851
▁4.	-5852
▁43	-5853
▁55	-5854
▁इज	-5855
▁औष	-5856
▁कं	-5857
▁गड	-5858
▁गम	-5859
▁चै	-5860
▁जख	-5861
▁जॉ	-5862
▁तप	-5863
▁पठ	-5864
▁भौ	-5865
▁मय	-5866
▁सस	-5867
अपने	-5868
आईटी	-5869
आरटी	-5870
एचसी	-5871
एससी	-5872
चालन	-5873
दायक	-5874
नामा	-5875
पंथी	-5876
पाही	-5877
भाजन	-5878
र्जन	-5879
ल्टी	-5880
वाइस	-5881
वाहा	-5882
विंग	-5883
स्पी	-5884
ायंस	-5885
ार्प	-5886
ार्स	-5887
ोकॉल	-5888
▁250	-5889
▁Job	-5890
▁अटक	-5891
▁अफ़	-5892
▁अवध	-5893
▁अवि	-5894
▁अश्	-5895
▁इंट	-5896
▁एंब	-5897
▁एक्	-5898
▁करो	-5899
▁कवि	-5900
▁कूद	-5901
▁खनन	-5902
▁गड़	-5903
▁घेर	-5904
▁जना	-5905
▁जहा	-5906
▁जिम	-5907
▁टाल	-5908
▁डिफ	-5909
▁ढाई	-5910
▁दाख	-5911
▁धूप	-5912
▁नकल	-5913
▁निच	-5914
▁पैक	-5915
▁फुल	-5916
▁फेल	-5917
▁बॉय	-5918
▁भिज	-5919
▁भोज	-5920
▁मीर	-5921
▁रूट	-5922
▁लाह	-5923
▁लैब	-5924
▁वां	-5925
▁शतक	-5926
▁शता	-5927
▁शरद	-5928
▁साज	-5929
▁सान	-5930
▁हनु	-5931
▁हां	-5932
▁हूँ	-5933
▁हॉट	-5934
कृतिक	-5935
गारों	-5936
गेटिव	-5937
ज्ञात	-5938
ठभेड़	-5939
तिष्क	-5940
धुनिक	-5941
फारिश	-5942
र्में	-5943
र्वाद	-5944
लाइंस	-5945
वायरस	-5946
वेस्ट	-5947
संख्य	-5948
स्थाप	-5949
िंगटन	-5950
्तानी	-5951
▁अत्य	-5952
▁अथवा	-5953
▁अनाज	-5954
▁अवगत	-5955
▁असली	-5956
▁आजाद	-5957
▁आराम	-5958
▁इनाम	-5959
▁ईमेल	-5960
▁उज्ज	-5961
▁काशी	-5962
▁किमी	-5963
▁किरा	-5964
▁कॉपी	-5965
▁खेली	-5966
▁खोला	-5967
▁गलती	-5968
▁गहरा	-5969
▁गाँव	-5970
▁चक्र	-5971
▁चैनल	-5972
▁जनरल	-5973
▁जबरन	-5974
▁जहरी	-5975
▁जुटी	-5976
▁डाली	-5977
▁तलाक	-5978
▁तोमर	-5979
▁नाइट	-5980
▁नाटक	-5981
▁नाते	-5982
▁पंकज	-5983
▁पहना	-5984
▁पीने	-5985
▁पूछे	-5986
▁फीसद	-5987
▁फैशन	-5988
▁बचपन	-5989
▁बाधा	-5990
▁बारह	-5991
▁बुरा	-5992
▁बोली	-5993
▁भेंट	-5994
▁मछली	-5995
▁राजन	-5996
▁रिया	-5997
▁लिंक	-5998
▁सबूत	-5999
▁सामु	-6000
▁सारी	-6001
▁सूरज	-6002
▁सोया	-6003
▁स्वि	-6004
▁हायर	-6005
▁हुये	-6006
▁होली	-6007
त्यादि	-6008
ल्सियस	-6009
स्टेंट	-6010
िलंबित	-6011
ुद्दीन	-6012
्यांकन	-6013
▁अभिनव	-6014
▁इजाफा	-6015
▁उजाला	-6016
▁किडनी	-6017
▁क्षति	-6018
▁खन्ना	-6019
▁खासकर	-6020
▁खेलों	-6021
▁ख्याल	-6022
▁गडकरी	-6023
▁गुहार	-6024
▁चोटिल	-6025
▁चौंका	-6026
▁छावनी	-6027
▁जीतकर	-6028
▁तुलसी	-6029
▁थोड़ी	-6030
▁निकला	-6031
▁पुण्य	-6032
▁पुनर्	-6033
▁प्रकट	-6034
▁प्रको	-6035
▁फास्ट	-6036
▁बताती	-6037
▁बदलने	-6038
▁बनारस	-6039
▁बुखार	-6040
▁बैठने	-6041
▁बोलते	-6042
▁मंजूर	-6043
▁यमुना	-6044
▁वृद्ध	-6045
▁शिमला	-6046
▁सुरंग	-6047
▁सोरेन	-6048
त्तियों	-6049
▁अज्ञात	-6050
▁अनुभवी	-6051
▁अर्पित	-6052
▁अवार्ड	-6053
▁आह्वान	-6054
▁एक्टिव	-6055
▁कपड़ों	-6056
▁गेंदबा	-6057
▁ग्राहक	-6058
▁जलवायु	-6059
▁जूनियर	-6060
▁जेएनएन	-6061
▁जोड़ने	-6062
▁ट्रेंड	-6063
▁डाक्टर	-6064
▁डिवाइस	-6065
▁दोस्ती	-6066
▁नीलामी	-6067
▁पुत्री	-6068
▁पैमाने	-6069
▁फ़ीसदी	-6070
▁बहादुर	-6071
▁ब्यूरो	-6072
▁मतदाता	-6073
▁महाराज	-6074
▁मास्टर	-6075
▁मुआवजा	-6076
▁युवकों	-6077
▁रात्रि	-6078
▁रामनगर	-6079
▁वितरित	-6080
▁संसदीय	-6081
▁समूहों	-6082
▁सहकारी	-6083
▁स्थगित	-6084
▁अक्तूबर	-6085
▁अफ्रीका	-6086
▁आखिरकार	-6087
▁इत्यादि	-6088
▁कॉलेजों	-6089
▁गोरखपुर	-6090
▁जायसवाल	-6091
▁ठेकेदार	-6092
▁दर्जनों	-6093
▁दीक्षित	-6094
▁नीतियों	-6095
▁पंजीकरण	-6096
▁पेंटिंग	-6097
▁प्रणाली	-6098
▁बच्‍चों	-6099
▁मंदिरों	-6100
▁मौजूदगी	-6101
▁रक्तदान	-6102
▁रिलायंस	-6103
▁लाइसेंस	-6104
▁शुभारंभ	-6105
▁संस्करण	-6106
▁सरकारों	-6107
▁सिफारिश	-6108
▁सैकड़ों	-6109
▁हालाँकि	-6110
▁अधिसूचना	-6111
▁आशीर्वाद	-6112
▁कंपनियां	-6113
▁कार्यपाल	-6114
▁केंद्रों	-6115
▁केसरवानी	-6116
▁ट्रैक्टर	-6117
▁द्विवेदी	-6118
▁नक्सलवाद	-6119
▁नरेन्द्र	-6120
▁नागरिकता	-6121
▁प्रयासों	-6122
▁बलात्कार	-6123
▁राजकुमार	-6124
▁श्रीदेवी	-6125
▁संस्थाओं	-6126
▁सेल्सियस	-6127
▁स्वच्छता	-6128
▁एजेंसियों	-6129
▁परीक्षाएं	-6130
▁प्रस्तुति	-6131
▁मुसलमानों	-6132
▁व्हाट्सएप	-6133
▁सिद्धार्थ	-6134
▁हस्ताक्षर	-6135
▁क्वारंटाइन	-6136
▁बल्लेबाजों	-6137
▁मार्केटिंग	-6138
▁रजिस्ट्रेशन	-6139
▁श्रद्धालुओं	-6140
▁परिस्थितियों	-6141
,7	-6142
23	-6143
47	-6144
5)	-6145
AN	-6146
GB	-6147
cu	-6148
ly	-6149
ro	-6150
us	-6151
ंझ	-6152
कन	-6153
कै	-6154
खल	-6155
गि	-6156
घन	-6157
झी	-6158
टि	-6159
णे	-6160
फो	-6161
बन	-6162
मह	-6163
रस	-6164
वो	-6165
ुम	-6166
▁!	-6167
▁*	-6168
▁—	-6169
.50	-6170
est	-6171
ist	-6172
ंडे	-6173
ंपी	-6174
आईए	-6175
कीन	-6176
चीन	-6177
णिज	-6178
नीत	-6179
फ़ी	-6180
फाइ	-6181
भाई	-6182
भाल	-6183
माज	-6184
मिन	-6185
मूल	-6186
म्भ	-6187
याल	-6188
रीत	-6189
रोह	-6190
लेन	-6191
लोत	-6192
ल्‍	-6193
संध	-6194
सेव	-6195
स्य	-6196
हों	-6197
ासा	-6198
िवृ	-6199
ूंढ	-6200
ूबी	-6201
्ति	-6202
्यौ	-6203
्रल	-6204
्लू	-6205
▁85	-6206
▁अज	-6207
▁अत	-6208
▁उल	-6209
▁कू	-6210
▁चू	-6211
▁जद	-6212
▁ढा	-6213
▁पव	-6214
▁बृ	-6215
▁शक	-6216
▁सप	-6217
▁हँ	-6218
▁हद	-6219
ideo	-6220
ihar	-6221
indi	-6222
ंचाई	-6223
ंडीज	-6224
काया	-6225
क्कत	-6226
क्के	-6227
ग्रा	-6228
चुअल	-6229
जागर	-6230
जारा	-6231
जाही	-6232
टरों	-6233
त्ते	-6234
द्दा	-6235
पूर्	-6236
भवती	-6237
मर्श	-6238
मर्स	-6239
मानी	-6240
म्बे	-6241
रांत	-6242
रीबन	-6243
ल्ले	-6244
वरों	-6245
वाणी	-6246
विजय	-6247
व्या	-6248
श्चा	-6249
श्नर	-6250
श्मी	-6251
श्यप	-6252
स्वी	-6253
िपुर	-6254
ुद्ध	-6255
ुष्ट	-6256
ूंकि	-6257
्यां	-6258
्यूल	-6259
्रीट	-6260
्रेड	-6261
▁108	-6262
▁400	-6263
▁600	-6264
▁अटल	-6265
▁अमल	-6266
▁आंस	-6267
▁एंट	-6268
▁एग्	-6269
▁एफए	-6270
▁एबी	-6271
▁औसत	-6272
▁कन्	-6273
▁कैप	-6274
▁कोर	-6275
▁क्‍	-6276
▁घाय	-6277
▁जगत	-6278
▁ज़र	-6279
▁ठगी	-6280
▁ठोस	-6281
▁डबल	-6282
▁ढेर	-6283
▁दुब	-6284
▁नशा	-6285
▁पिक	-6286
▁पॉप	-6287
▁फार	-6288
▁बंट	-6289
▁बाइ	-6290
▁बिछ	-6291
▁बीत	-6292
▁बूथ	-6293
▁बेन	-6294
▁बेल	-6295
▁भरत	-6296
▁महि	-6297
▁माध	-6298
▁रघु	-6299
▁रजत	-6300
▁राग	-6301
▁रिव	-6302
▁रोष	-6303
▁लाश	-6304
▁वाइ	-6305
▁वास	-6306
▁वेद	-6307
▁शीत	-6308
▁शोर	-6309
▁सक्	-6310
▁सनी	-6311
▁सवा	-6312
▁सिख	-6313
▁सेव	-6314
▁हाइ	-6315
ंगुली	-6316
इंडीज	-6317
क्रमण	-6318
क्ष्य	-6319
ख्यात	-6320
चार्ज	-6321
णिज्य	-6322
त्स्य	-6323
द्रोह	-6324
बालिग	-6325
भाग्य	-6326
मात्र	-6327
यॉर्क	-6328
योजना	-6329
राधिक	-6330
वाड़ा	-6331
स्टिव	-6332
ियाना	-6333
▁2008	-6334
▁अटैक	-6335
▁अनंत	-6336
▁अनदे	-6337
▁आंगन	-6338
▁आयात	-6339
▁आयुष	-6340
▁आरंभ	-6341
▁आरती	-6342
▁आर्य	-6343
▁आशीष	-6344
▁उद्ध	-6345
▁उनपर	-6346
▁एचडी	-6347
▁एनसी	-6348
▁एमएस	-6349
▁कठिन	-6350
▁कपिल	-6351
▁कर्ण	-6352
▁काबू	-6353
▁किशन	-6354
▁ख़बर	-6355
▁खाता	-6356
▁गड़ब	-6357
▁गहरी	-6358
▁गौरव	-6359
▁गौरी	-6360
▁छेड़	-6361
▁जटिल	-6362
▁जलकर	-6363
▁टीबी	-6364
▁टैंक	-6365
▁डिस्	-6366
▁दंडा	-6367
▁देनी	-6368
▁नकदी	-6369
▁नज़र	-6370
▁नष्ट	-6371
▁नाले	-6372
▁नीरज	-6373
▁नेटव	-6374
▁पाती	-6375
▁पाली	-6376
▁पीजी	-6377
▁पेपर	-6378
▁पेशे	-6379
▁फंसा	-6380
▁बजाए	-6381
▁बटाल	-6382
▁बढ़त	-6383
▁बनता	-6384
▁बनते	-6385
▁बैठा	-6386
▁भट्ट	-6387
▁भाषण	-6388
▁भिड़	-6389
▁भेजी	-6390
▁महाप	-6391
▁मिनी	-6392
▁मुरा	-6393
▁मेगा	-6394
▁मेले	-6395
▁यानि	-6396
▁यूरो	-6397
▁रत्न	-6398
▁राजद	-6399
▁राणा	-6400
▁रिहा	-6401
▁रोहत	-6402
▁लड़ा	-6403
▁लाइव	-6404
▁वर्ड	-6405
▁वसूल	-6406
▁विफल	-6407
▁विवि	-6408
▁शुभम	-6409
▁सऊदी	-6410
▁सम्प	-6411
▁सिल्	-6412
▁सीईओ	-6413
▁सुने	-6414
▁सोनी	-6415
▁स्टो	-6416
▁हाइड	-6417
▁हार्	-6418
▁हुईं	-6419
▁हृदय	-6420
पीसीआर	-6421
मूर्ति	-6422
वानिवृ	-6423
स्तरीय	-6424
स्पिटल	-6425
▁अंदाज	-6426
▁अकेले	-6427
▁अड्डे	-6428
▁आदर्श	-6429
▁आमतौर	-6430
▁उत्सव	-6431
▁एसडीओ	-6432
▁कमीशन	-6433
▁कश्यप	-6434
▁काटने	-6435
▁खुलकर	-6436
▁गन्ने	-6437
▁गहलोत	-6438
▁गानों	-6439
▁गिरोह	-6440
▁गुलाब	-6441
▁ग्रीन	-6442
▁चलेगा	-6443
▁जानकर	-6444
▁जिनका	-6445
▁झगड़ा	-6446
▁टाइगर	-6447
▁ट्रैक	-6448
▁तीसरा	-6449
▁थानों	-6450
▁नाकाम	-6451
▁नितिन	-6452
▁नृत्य	-6453
▁पंडित	-6454
▁परिचय	-6455
▁पश्चा	-6456
▁पेयजल	-6457
▁पेशकश	-6458
▁प्रॉप	-6459
▁फैन्स	-6460
▁बहुमत	-6461
▁बालों	-6462
▁बेचने	-6463
▁बोलने	-6464
▁भक्ति	-6465
▁भरपूर	-6466
▁मथुरा	-6467
▁मालूम	-6468
▁मिठाई	-6469
▁मुजफ्	-6470
▁मैनेज	-6471
▁म्यूज	-6472
▁योग्य	-6473
▁राउंड	-6474
▁वसूली	-6475
▁विवेक	-6476
▁विशाल	-6477
▁संचार	-6478
▁संजीव	-6479
▁सबकुछ	-6480
▁समस्त	-6481
▁सर्दी	-6482
▁सविता	-6483
▁साजिद	-6484
▁सुभाष	-6485
▁स्किन	-6486
▁स्रोत	-6487
▁हार्ट	-6488
▁हितों	-6489
विश्वास	-6490
▁अधिकतर	-6491
▁अमरीका	-6492
▁आक्रमण	-6493
▁आरोपों	-6494
▁इसीलिए	-6495
▁उपरांत	-6496
▁एंट्री	-6497
▁एफआईआर	-6498
▁कोविंद	-6499
▁घायलों	-6500
▁जर्मनी	-6501
▁डीजीपी	-6502
▁तैनाती	-6503
▁दलितों	-6504
▁दिलाया	-6505
▁दृष्टि	-6506
▁धाराओं	-6507
▁निर्भर	-6508
▁निशाने	-6509
▁पुजारी	-6510
▁पुस्तक	-6511
▁पोर्टल	-6512
▁फ़िल्म	-6513
▁बैलेंस	-6514
▁मजदूरी	-6515
▁मणिपुर	-6516
▁मत्स्य	-6517
▁मुहैया	-6518
▁मूर्ति	-6519
▁लेनदेन	-6520
▁विपरीत	-6521
▁शिवानी	-6522
▁शुरूआत	-6523
▁संयोजक	-6524
▁सपोर्ट	-6525
▁समुद्र	-6526
▁सिपाही	-6527
▁सीनियर	-6528
▁स्कूटी	-6529
▁स्कूली	-6530
▁हनुमान	-6531
▁अंबेडकर	-6532
▁आपराधिक	-6533
▁आवाजाही	-6534
▁उन्होने	-6535
▁एकमात्र	-6536
▁एजुकेशन	-6537
▁ऑक्सिजन	-6538
▁कंट्रोल	-6539
▁कप्तानी	-6540
▁कमिश्नर	-6541
▁क्रांति	-6542
▁चिन्हित	-6543
▁जन्मदिन	-6544
▁दुकानें	-6545
▁निलंबित	-6546
▁परिचालन	-6547
▁पात्रता	-6548
▁प्रतिमा	-6549
▁प्रबंधक	-6550
▁फेस्टिव	-6551
▁मुठभेड़	-6552
▁योग्यता	-6553
▁रामलीला	-6554
▁वाणिज्य	-6555
▁विद्युत	-6556
▁विभागीय	-6557
▁विभागों	-6558
▁विशिष्ट	-6559
▁संबंधों	-6560
▁सिंधिया	-6561
▁सोयाबीन	-6562
▁स्वदेशी	-6563
▁अधिवक्ता	-6564
▁आरोपितों	-6565
▁एंबुलेंस	-6566
▁क्रॉसिंग	-6567
▁ग्राहकों	-6568
▁डायबिटीज	-6569
▁तस्वीरों	-6570
▁दस्तावेज	-6571
▁देवेंद्र	-6572
▁पार्किंग	-6573
▁प्रतिष्ठ	-6574
▁बेंगलुरु	-6575
▁सर्वाधिक	-6576
▁सुविधाएं	-6577
▁सेवानिवृ	-6578
▁हॉस्पिटल	-6579
▁अपराधियों	-6580
▁गृहमंत्री	-6581
▁नक्सलियों	-6582
▁न्यूयॉर्क	-6583
▁पत्रकारों	-6584
▁परीक्षाओं	-6585
▁पृष्ठभूमि	-6586
▁प्रत्यक्ष	-6587
▁प्रयागराज	-6588
▁प्राकृतिक	-6589
▁प्राचार्य	-6590
▁प्रोटोकॉल	-6591
▁बीमारियों	-6592
▁व्यक्तिगत	-6593
▁सामुदायिक	-6594
▁स्थानांतर	-6595
▁कॉन्फ्रेंस	-6596
▁जिलाध्यक्ष	-6597
▁प्राथमिकता	-6598
▁विद्यालयों	-6599
▁अभ्यर्थियों	-6600
▁प्रोत्साहित	-6601
▁वैज्ञानिकों	-6602
▁प्रौद्योगिकी	-6603
))	-6604
,9	-6605
--	-6606
13	-6607
60	-6608
69	-6609
70	-6610
79	-6611
8,	-6612
em	-6613
ht	-6614
ov	-6615
up	-6616
अद	-6617
ईस	-6618
कप	-6619
खन	-6620
ख़	-6621
जै	-6622
डन	-6623
णन	-6624
दृ	-6625
यत	-6626
वट	-6627
वह	-6628
है	-6629
ौस	-6630
’।	-6631
.30	-6632
and	-6633
ंकल	-6634
ंधे	-6635
कड़	-6636
कलन	-6637
क्ल	-6638
गूस	-6639
चंद	-6640
जगह	-6641
झकर	-6642
ड़न	-6643
डोर	-6644
ड्ढ	-6645
तिर	-6646
दनी	-6647
दरी	-6648
पंप	-6649
पात	-6650
पीओ	-6651
पीय	-6652
फेल	-6653
बन्	-6654
बीए	-6655
मका	-6656
मणी	-6657
मला	-6658
मिथ	-6659
यना	-6660
रूख	-6661
लाश	-6662
विन	-6663
वीण	-6664
शिक	-6665
साफ	-6666
हेल	-6667
ारण	-6668
ारू	-6669
ुलर	-6670
ूरक	-6671
ेयर	-6672
ोलो	-6673
्रु	-6674
्शा	-6675
्‍त	-6676
▁02	-6677
▁64	-6678
▁71	-6679
▁आड	-6680
▁एव	-6681
▁कन	-6682
▁खर	-6683
▁जज	-6684
▁जौ	-6685
▁डू	-6686
▁तन	-6687
▁नु	-6688
▁प्	-6689
इटेड	-6690
काने	-6691
कारो	-6692
क्की	-6693
क्चर	-6694
क्टी	-6695
चर्स	-6696
चेंज	-6697
ज्ञा	-6698
टीआई	-6699
ट्वि	-6700
डि़त	-6701
ड्डू	-6702
णमूल	-6703
त्वा	-6704
धारण	-6705
नसनी	-6706
नाएं	-6707
न्नत	-6708
न्‍य	-6709
पानी	-6710
फोड़	-6711
फ्तर	-6712
भूषण	-6713
म्प्	-6714
यूवी	-6715
रवरी	-6716
रोधक	-6717
लायन	-6718
वर्स	-6719
विदा	-6720
वियर	-6721
श्मन	-6722
श्रे	-6723
साइड	-6724
स्टल	-6725
ाइजर	-6726
ायती	-6727
ायूं	-6728
ाराम	-6729
ियंस	-6730
ियाँ	-6731
▁आंध	-6732
▁आईए	-6733
▁आपस	-6734
▁इको	-6735
▁ईयर	-6736
▁उदय	-6737
▁उपज	-6738
▁एकल	-6739
▁एके	-6740
▁एसी	-6741
▁ऐंड	-6742
▁ऑटो	-6743
▁काब	-6744
▁कौर	-6745
▁गली	-6746
▁गोप	-6747
▁घोट	-6748
▁चिप	-6749
▁चुप	-6750
▁चैल	-6751
▁जड़	-6752
▁झेल	-6753
▁टूर	-6754
▁टैं	-6755
▁डील	-6756
▁ताइ	-6757
▁ताल	-6758
▁दाह	-6759
▁ध्व	-6760
▁नाच	-6761
▁पेर	-6762
▁फीट	-6763
▁फेम	-6764
▁बिख	-6765
▁बॉस	-6766
▁भगत	-6767
▁भगा	-6768
▁भड़	-6769
▁भूल	-6770
▁मटर	-6771
▁मुझ	-6772
▁रेप	-6773
▁रेश	-6774
▁रोट	-6775
▁लखी	-6776
▁विद	-6777
▁शिर	-6778
▁शेट	-6779
▁सतह	-6780
▁सिक	-6781
▁सील	-6782
▁स्ल	-6783
▁हरी	-6784
▁हिट	-6785
कृष्ट	-6786
कृष्ण	-6787
जीपुर	-6788
ट्यूट	-6789
ताहिक	-6790
धियां	-6791
न्यास	-6792
रिएंट	-6793
ल्पना	-6794
स्करी	-6795
स्कूल	-6796
ानबीन	-6797
ुल्हन	-6798
ृंखला	-6799
्युनि	-6800
्रेसी	-6801
▁(200	-6802
▁2004	-6803
▁2009	-6804
▁अनूप	-6805
▁आईसी	-6806
▁आमिर	-6807
▁आयकर	-6808
▁इराक	-6809
▁उद्य	-6810
▁एमडी	-6811
▁कक्ष	-6812
▁कड़ा	-6813
▁कमाई	-6814
▁कम्प	-6815
▁काला	-6816
▁कुरु	-6817
▁कॉफी	-6818
▁कोमल	-6819
▁क्यू	-6820
▁गर्ल	-6821
▁गाली	-6822
▁गिरा	-6823
▁गैले	-6824
▁गोयल	-6825
▁चढ़ा	-6826
▁चाकू	-6827
▁चौबे	-6828
▁छाया	-6829
▁छुपा	-6830
▁जरुर	-6831
▁जाँच	-6832
▁जेने	-6833
▁टकरा	-6834
▁टीचर	-6835
▁डिली	-6836
▁ढूंढ	-6837
▁तमंच	-6838
▁दबिश	-6839
▁दरवा	-6840
▁नवरा	-6841
▁निधि	-6842
▁नींद	-6843
▁नैनी	-6844
▁पढ़ा	-6845
▁पहने	-6846
▁पांव	-6847
▁पारा	-6848
▁फंसे	-6849
▁फिल्	-6850
▁बंदी	-6851
▁बगैर	-6852
▁बढ़ी	-6853
▁बताए	-6854
▁बनना	-6855
▁बसें	-6856
▁बीसी	-6857
▁भैंस	-6858
▁मानी	-6859
▁माया	-6860
▁मारी	-6861
▁राजग	-6862
▁राजू	-6863
▁रेंज	-6864
▁लगते	-6865
▁लाठी	-6866
▁लेती	-6867
▁लैंड	-6868
▁वर्क	-6869
▁वादे	-6870
▁विलय	-6871
▁शिखर	-6872
▁श्रा	-6873
▁संगी	-6874
▁सतना	-6875
▁सरोज	-6876
▁ससुर	-6877
▁साधा	-6878
▁साप्	-6879
▁साहब	-6880
▁सीडी	-6881
▁सेमी	-6882
▁स्क्	-6883
▁हैंड	-6884
ंत्रिक	-6885
गूसराय	-6886
डि़यों	-6887
नाइटेड	-6888
निर्भर	-6889
पूर्वक	-6890
फ्रेंड	-6891
स्त्री	-6892
स्थापक	-6893
्‍यादा	-6894
▁Video	-6895
▁अखबार	-6896
▁अपलोड	-6897
▁अहसास	-6898
▁इंकार	-6899
▁इशारे	-6900
▁एएमजी	-6901
▁एजेंट	-6902
▁ऑफिसर	-6903
▁कराएं	-6904
▁कश्मी	-6905
▁कितनी	-6906
▁कैलाश	-6907
▁खेलना	-6908
▁गाँधी	-6909
▁गेम्स	-6910
▁चलाना	-6911
▁चूंकि	-6912
▁चेहरा	-6913
▁जख्मी	-6914
▁जवाहर	-6915
▁झांसी	-6916
▁टेनिस	-6917
▁टैगोर	-6918
▁डेबिट	-6919
▁तरीका	-6920
▁ताहिर	-6921
▁दफ्तर	-6922
▁दिमाग	-6923
▁दुर्ग	-6924
▁द्वार	-6925
▁धमाके	-6926
▁नतीजा	-6927
▁निकली	-6928
▁निभाई	-6929
▁नोटों	-6930
▁पंवार	-6931
▁पलायन	-6932
▁फैलने	-6933
▁फ्रंट	-6934
▁फ्लोर	-6935
▁बताने	-6936
▁बेरोज	-6937
▁बेस्ट	-6938
▁मध्या	-6939
▁माइकल	-6940
▁मायने	-6941
▁मेहरा	-6942
▁रणबीर	-6943
▁राफेल	-6944
▁रिस्प	-6945
▁लिखकर	-6946
▁लिहाज	-6947
▁लौटने	-6948
▁शाहिद	-6949
▁शॉर्प	-6950
▁श्रेय	-6951
▁संदीप	-6952
▁सनसनी	-6953
▁सर्वो	-6954
▁सवारी	-6955
▁सहारे	-6956
▁साइंस	-6957
▁साजिश	-6958
▁सादगी	-6959
▁साहिब	-6960
▁सौंपी	-6961
▁स्टेप	-6962
▁स्मिथ	-6963
▁हज़ार	-6964
किस्तान	-6965
ट्विंकल	-6966
वेदनशील	-6967
्यातिथि	-6968
▁अंसारी	-6969
▁अनदेखी	-6970
▁अनन्या	-6971
▁अनुरूप	-6972
▁अमृतसर	-6973
▁अश्लील	-6974
▁कनेक्ट	-6975
▁कांस्ट	-6976
▁कारणों	-6977
▁कुर्सी	-6978
▁कुलदीप	-6979
▁कैप्टन	-6980
▁गिराया	-6981
▁गुर्जर	-6982
▁गोविंद	-6983
▁घटनाएं	-6984
▁चैलेंज	-6985
▁चौराहा	-6986
▁जानकार	-6987
▁जीएसटी	-6988
▁डिप्टी	-6989
▁तकरीबन	-6990
▁तस्करी	-6991
▁तिब्बत	-6992
▁तृणमूल	-6993
▁धर्में	-6994
▁निभाते	-6995
▁पंक्ति	-6996
▁पंजीयन	-6997
▁पटवारी	-6998
▁पूर्वी	-6999
▁पृथ्वी	-7000
▁प्रवीण	-7001
▁प्रांत	-7002
▁फ़रवरी	-7003
▁बदायूं	-7004
▁बुद्धि	-7005
▁भक्तों	-7006
▁मजबूरी	-7007
▁मजिस्ट	-7008
▁मशक्कत	-7009
▁माफिया	-7010
▁मिश्रण	-7011
▁मुलायम	-7012
▁मेकर्स	-7013
▁रामदेव	-7014
▁रिश्ता	-7015
▁रुबीना	-7016
▁लगवाने	-7017
▁लिहाजा	-7018
▁वास्तव	-7019
▁शाहरूख	-7020
▁शिल्पा	-7021
▁शेट्टी	-7022
▁संबोधन	-7023
▁समझौते	-7024
▁समाचार	-7025
▁सानिया	-7026
▁सिरमौर	-7027
▁सीएचसी	-7028
▁सुशांत	-7029
▁सेल्फी	-7030
▁स्टैंड	-7031
▁स्टोरी	-7032
▁स्थायी	-7033
▁स्मृति	-7034
▁अपेक्षा	-7035
▁गर्भवती	-7036
▁गांगुली	-7037
▁गेंदबाज	-7038
▁जबरदस्त	-7039
▁ज्‍यादा	-7040
▁दर्दनाक	-7041
▁दिलचस्प	-7042
▁दोषियों	-7043
▁निराकरण	-7044
▁बटालियन	-7045
▁भागलपुर	-7046
▁मनोरंजन	-7047
▁माइक्रो	-7048
▁लखीमपुर	-7049
▁वार्षिक	-7050
▁शताब्दी	-7051
▁संतुष्ट	-7052
▁सचिवालय	-7053
▁सदस्यीय	-7054
▁साथियों	-7055
▁सिलसिले	-7056
▁सुल्तान	-7057
▁सेंट्रल	-7058
▁इलेक्ट्र	-7059
▁उत्पादों	-7060
▁उपभोक्ता	-7061
▁क्वालिटी	-7062
▁गाड़ियों	-7063
▁चित्रकूट	-7064
▁निर्देशन	-7065
▁पूर्णिमा	-7066
▁प्रोडक्ट	-7067
▁मस्तिष्क	-7068
▁महिंद्रा	-7069
▁माध्यमिक	-7070
▁शिकायतें	-7071
▁सुप्रीमो	-7072
▁अल्पसंख्य	-7073
▁कंटेनमेंट	-7074
▁कांग्रेसी	-7075
▁काउंसलिंग	-7076
▁छात्रावास	-7077
▁धर्मेंद्र	-7078
▁प्रतिबद्ध	-7079
▁प्रदर्शनी	-7080
▁प्रॉपर्टी	-7081
▁महामंत्री	-7082
▁मुरादाबाद	-7083
▁मूल्यांकन	-7084
▁मैनेजमेंट	-7085
▁सर्वेक्षण	-7086
▁साप्ताहिक	-7087
▁सुपरस्टार	-7088
▁सुर्खियों	-7089
▁हस्तक्षेप	-7090
▁इंडस्ट्रीज	-7091
▁मजिस्ट्रेट	-7092
▁मुख्यातिथि	-7093
▁विक्रेताओं	-7094
▁शोधकर्ताओं	-7095
▁स्वतंत्रता	-7096
▁आत्मविश्वास	-7097
▁इंजीनियरिंग	-7098
▁कोरोनावायरस	-7099
▁सेवानिवृत्त	-7100
-4	-7101
16	-7102
84	-7103
BG	-7104
EE	-7105
JP	-7106
PF	-7107
SI	-7108
ab	-7109
ex	-7110
io	-7111
iv	-7112
pe	-7113
ri	-7114
ti	-7115
ub	-7116
और	-7117
कण	-7118
डो	-7119
थन	-7120
नम	-7121
ूज	-7122
ॉग	-7123
’,	-7124
▁.	-7125
▁?	-7126
UBG	-7127
jan	-7128
ocu	-7129
ंवर	-7130
इंड	-7131
एगी	-7132
एसई	-7133
कने	-7134
किस	-7135
केज	-7136
गाज	-7137
गाम	-7138
णवी	-7139
तेह	-7140
थाम	-7141
पिछ	-7142
प्ट	-7143
फरी	-7144
फाई	-7145
बरी	-7146
ब्स	-7147
भास	-7148
मास	-7149
म्र	-7150
र्ज	-7151
लें	-7152
शिव	-7153
साम	-7154
ानू	-7155
ामक	-7156
िना	-7157
िपू	-7158
ुरी	-7159
ूली	-7160
ेंच	-7161
ेशर	-7162
ोगु	-7163
ोसी	-7164
ौरा	-7165
्रत	-7166
्रय	-7167
।''	-7168
▁3,	-7169
▁57	-7170
▁58	-7171
▁87	-7172
▁उछ	-7173
▁ओप	-7174
▁पड	-7175
▁बत	-7176
▁व्	-7177
ंगों	-7178
आरपी	-7179
एसआई	-7180
एसके	-7181
कांग	-7182
कालत	-7183
क्‍त	-7184
खाना	-7185
च्‍छ	-7186
छाड़	-7187
जवान	-7188
जहां	-7189
ज्जा	-7190
टाला	-7191
ट्टर	-7192
ट्ठा	-7193
डीसी	-7194
त्तर	-7195
न्दी	-7196
न्यू	-7197
पटॉप	-7198
पांच	-7199
पाली	-7200
प्पी	-7201
प्शन	-7202
बड़े	-7203
बलों	-7204
ब्बे	-7205
मंडल	-7206
यराम	-7207
रांव	-7208
र्षि	-7209
लमेल	-7210
लेवा	-7211
ल्ली	-7212
ल्हा	-7213
वाकर	-7214
वारे	-7215
विटी	-7216
शाही	-7217
सिटी	-7218
स्को	-7219
हराम	-7220
ानंद	-7221
िप्त	-7222
िल्स	-7223
ूंगी	-7224
ॉक्स	-7225
ोसिस	-7226
ौड़ा	-7227
्राट	-7228
▁125	-7229
▁195	-7230
▁197	-7231
▁230	-7232
▁300	-7233
▁Cho	-7234
▁अंप	-7235
▁अंश	-7236
▁अका	-7237
▁आसन	-7238
▁उभर	-7239
▁ऋषि	-7240
▁कथा	-7241
▁काे	-7242
▁कैद	-7243
▁कैल	-7244
▁गले	-7245
▁गिल	-7246
▁चप्	-7247
▁जाट	-7248
▁जोश	-7249
▁झोप	-7250
▁टंड	-7251
▁डिट	-7252
▁डूब	-7253
▁दखल	-7254
▁धात	-7255
▁नकद	-7256
▁नबी	-7257
▁पशु	-7258
▁पाय	-7259
▁फेड	-7260
▁फेर	-7261
▁बगल	-7262
▁बगा	-7263
▁बरी	-7264
▁बीस	-7265
▁बृज	-7266
▁भंग	-7267
▁भीम	-7268
▁मेन	-7269
▁रवै	-7270
▁राइ	-7271
▁राठ	-7272
▁रैं	-7273
▁लंड	-7274
▁वाक	-7275
▁वीं	-7276
▁शैल	-7277
▁सत्	-7278
▁समृ	-7279
▁सूद	-7280
▁सैल	-7281
▁हकी	-7282
▁हनी	-7283
▁हैक	-7284
खेड़ा	-7285
चंद्र	-7286
चित्र	-7287
चुनाव	-7288
जाबाद	-7289
जिस्ट	-7290
तियां	-7291
दासीन	-7292
ध्याय	-7293
न्नति	-7294
फाइनल	-7295
फार्म	-7296
मुख्य	-7297
लेक्स	-7298
वाइंट	-7299
वाड़े	-7300
विंदर	-7301
शक्ति	-7302
संधान	-7303
सूचना	-7304
सेक्स	-7305
स्वती	-7306
ार्पण	-7307
िकासी	-7308
ेशिया	-7309
्यूशन	-7310
▁2005	-7311
▁Also	-7312
▁Docu	-7313
▁Jobs	-7314
▁PUBG	-7315
▁अर्ध	-7316
▁अस्त	-7317
▁आंसू	-7318
▁आकलन	-7319
▁इटली	-7320
▁इसने	-7321
▁एनपी	-7322
▁एफसी	-7323
▁एमएम	-7324
▁एमसी	-7325
▁एम्स	-7326
▁एसिड	-7327
▁कहती	-7328
▁कागज	-7329
▁किरण	-7330
▁किस्	-7331
▁गड्ढ	-7332
▁गर्भ	-7333
▁गवाह	-7334
▁गांड	-7335
▁गायक	-7336
▁घातक	-7337
▁चलिए	-7338
▁चिंत	-7339
▁छिपा	-7340
▁जगदी	-7341
▁जनजा	-7342
▁जेपी	-7343
▁ठहरा	-7344
▁डाटा	-7345
▁डाले	-7346
▁डीटी	-7347
▁तथ्य	-7348
▁त्यौ	-7349
▁दमकल	-7350
▁दलील	-7351
▁दुबई	-7352
▁देखे	-7353
▁देवे	-7354
▁दोगु	-7355
▁धीमी	-7356
▁नायक	-7357
▁पठान	-7358
▁पद्म	-7359
▁पर्स	-7360
▁पवार	-7361
▁पहलू	-7362
▁पाता	-7363
▁पाते	-7364
▁पाना	-7365
▁पिला	-7366
▁पुणे	-7367
▁पैनल	-7368
▁फलों	-7369
▁फाइन	-7370
▁फेमस	-7371
▁फॉलो	-7372
▁बवाल	-7373
▁बहाल	-7374
▁बागी	-7375
▁बालक	-7376
▁बीके	-7377
▁बीमा	-7378
▁बॉन्	-7379
▁बोतल	-7380
▁भीषण	-7381
▁भूषण	-7382
▁मजाक	-7383
▁मप्र	-7384
▁महंत	-7385
▁मीना	-7386
▁मुट्	-7387
▁राजे	-7388
▁रूपए	-7389
▁रोका	-7390
▁रोगी	-7391
▁लांच	-7392
▁लायक	-7393
▁लीला	-7394
▁लेखक	-7395
▁लेवल	-7396
▁व्यय	-7397
▁व्यू	-7398
▁शत्र	-7399
▁शिया	-7400
▁शिरो	-7401
▁शिवा	-7402
▁शोभा	-7403
▁श्वे	-7404
▁सतीश	-7405
▁सबका	-7406
▁साहू	-7407
▁सीधा	-7408
▁सीने	-7409
▁सौरव	-7410
▁हासन	-7411
▁हिला	-7412
क्टर्स	-7413
क्टेयर	-7414
नेश्वर	-7415
रीक्षक	-7416
व्यापी	-7417
ियाबाद	-7418
▁अत्या	-7419
▁अनुपम	-7420
▁अफ़ग़	-7421
▁अवश्य	-7422
▁आइईडी	-7423
▁आत्मा	-7424
▁उजागर	-7425
▁उड़ान	-7426
▁उत्पी	-7427
▁उद्धव	-7428
▁उरांव	-7429
▁ऊंचाई	-7430
▁एनडीए	-7431
▁एलईडी	-7432
▁ऑर्डर	-7433
▁कमरों	-7434
▁कमाने	-7435
▁करवाए	-7436
▁कराते	-7437
▁कस्बे	-7438
▁कामना	-7439
▁कामों	-7440
▁किन्न	-7441
▁कीजिए	-7442
▁कैंपस	-7443
▁कॉन्ट	-7444
▁खरीदा	-7445
▁खुदरा	-7446
▁खेलते	-7447
▁गन्ना	-7448
▁गिरने	-7449
▁ग्रेड	-7450
▁चरणों	-7451
▁चिराग	-7452
▁चौड़ी	-7453
▁छोड़ी	-7454
▁जयराम	-7455
▁जलाने	-7456
▁जायजा	-7457
▁जैविक	-7458
▁टिप्प	-7459
▁टीमें	-7460
▁डिस्ट	-7461
▁तब्दी	-7462
▁तालाब	-7463
▁त्याग	-7464
▁नमूने	-7465
▁पक्का	-7466
▁पढ़ने	-7467
▁पथराव	-7468
▁पहुँच	-7469
▁पाएगा	-7470
▁प्रमो	-7471
▁प्रार	-7472
▁बरसात	-7473
▁बरेली	-7474
▁भाग्य	-7475
▁महंगा	-7476
▁महिमा	-7477
▁मासूम	-7478
▁मिलना	-7479
▁मुरली	-7480
▁मुल्क	-7481
▁मेहता	-7482
▁रोगों	-7483
▁रोहतक	-7484
▁लड़के	-7485
▁वकालत	-7486
▁विज्ञ	-7487
▁शासित	-7488
▁शिरकत	-7489
▁शॉर्ट	-7490
▁संदेह	-7491
▁समझने	-7492
▁सरपंच	-7493
▁सर्जन	-7494
▁सलामी	-7495
▁सशक्त	-7496
▁सिंगल	-7497
▁सिंगा	-7498
▁सीएमओ	-7499
▁सॉन्ग	-7500
▁स्टॉक	-7501
▁स्‍वा	-7502
▁हमलों	-7503
▁हेमंत	-7504
क्षेत्र	-7505
श्रेष्ठ	-7506
िफिकेशन	-7507
▁अंपायर	-7508
▁अनुकूल	-7509
▁आजमगढ़	-7510
▁आधुनिक	-7511
▁आसाराम	-7512
▁इच्छुक	-7513
▁एयरवेज	-7514
▁एशियाई	-7515
▁कमांडर	-7516
▁करवाते	-7517
▁किंग्स	-7518
▁कोहराम	-7519
▁गार्डन	-7520
▁चौटाला	-7521
▁छानबीन	-7522
▁जहरीली	-7523
▁जुड़ने	-7524
▁ट्रस्ट	-7525
▁डिफेंस	-7526
▁डिमांड	-7527
▁तालमेल	-7528
▁तुर्की	-7529
▁दिखाकर	-7530
▁दुश्मन	-7531
▁निकासी	-7532
▁निराशा	-7533
▁नौजवान	-7534
▁पवित्र	-7535
▁पीडि़त	-7536
▁पॉलिसी	-7537
▁फर्स्ट	-7538
▁फिल्मी	-7539
▁बालाजी	-7540
▁बिताने	-7541
▁बीबीसी	-7542
▁बुकिंग	-7543
▁बोकारो	-7544
▁महाकाल	-7545
▁महापौर	-7546
▁महाप्र	-7547
▁मांगने	-7548
▁मामूली	-7549
▁माल्या	-7550
▁मीटिंग	-7551
▁मेहमान	-7552
▁मौलाना	-7553
▁राजनाथ	-7554
▁रोकथाम	-7555
▁लैपटॉप	-7556
▁वाहिनी	-7557
▁विभाजन	-7558
▁व्यर्थ	-7559
▁शब्दों	-7560
▁शुभकाम	-7561
▁शेयरों	-7562
▁संगीता	-7563
▁सत्तार	-7564
▁साइकिल	-7565
▁सिंचाई	-7566
▁सियासत	-7567
▁सिलेबस	-7568
▁सीरियल	-7569
▁स्टाइल	-7570
▁स्थलों	-7571
▁हैरानी	-7572
▁अनुपूरक	-7573
▁अभियंता	-7574
▁उपचुनाव	-7575
▁उपयुक्त	-7576
▁कुख्यात	-7577
▁चौकीदार	-7578
▁जानलेवा	-7579
▁जेनेरिक	-7580
▁डब्ल्यू	-7581
▁त्यौहार	-7582
▁नाबालिग	-7583
▁नेटवर्क	-7584
▁न्यायिक	-7585
▁पंचायती	-7586
▁पहुंचती	-7587
▁प्रसन्न	-7588
▁प्राचीन	-7589
▁बिगड़ने	-7590
▁भोजपुरी	-7591
▁मिलेंगे	-7592
▁मुजफ्फर	-7593
▁लक्ष्मण	-7594
▁वर्डपैड	-7595
▁वस्तुओं	-7596
▁वार्डों	-7597
▁श्रद्धा	-7598
▁संपूर्ण	-7599
▁सक्सेना	-7600
▁सरस्वती	-7601
▁स्ट्राइ	-7602
▁स्ट्रीट	-7603
▁स्पर्धा	-7604
▁Document	-7605
▁अनुसंधान	-7606
▁आक्रोशित	-7607
▁ईमानदारी	-7608
▁केंद्रित	-7609
▁गैलेक्सी	-7610
▁गोलीबारी	-7611
▁छेड़छाड़	-7612
▁तत्कालीन	-7613
▁दिक्कतों	-7614
▁नौकरियों	-7615
▁प्राप्ति	-7616
▁फेस्टिवल	-7617
▁बिल्डिंग	-7618
▁बेगूसराय	-7619
▁मतदाताओं	-7620
▁विश्लेषण	-7621
▁श्रमिकों	-7622
▁सब्जियों	-7623
▁सिद्धांत	-7624
▁सुरेंद्र	-7625
▁सेंसेक्स	-7626
▁स्टूडेंट	-7627
▁हथियारों	-7628
▁हाईस्कूल	-7629
▁हिस्ट्री	-7630
▁हेक्टेयर	-7631
▁अंग्रेजों	-7632
▁अभिभावकों	-7633
▁कांस्टेबल	-7634
▁कार्यपालक	-7635
▁त्योहारों	-7636
▁पार्टियों	-7637
▁बीमारियां	-7638
▁रक्षाबंधन	-7639
▁रिपोर्ट्स	-7640
▁संवेदनशील	-7641
▁संस्थानों	-7642
मुख्यमंत्री	-7643
▁कार्ययोजना	-7644
▁दंडाधिकारी	-7645
▁दुकानदारों	-7646
▁निर्माताओं	-7647
▁प्लेटफॉर्म	-7648
▁वेस्टइंडीज	-7649
▁इंस्टीट्यूट	-7650
▁कुरुक्षेत्र	-7651
▁न्यायमूर्ति	-7652
▁महाविद्यालय	-7653
▁सर्वश्रेष्ठ	-7654
▁सुरक्षाबलों	-7655
▁ऑस्ट्रेलियाई	-7656
▁प्रतिनिधियों	-7657
▁चिकित्साधिकारी	-7658
,8	-7659
-8	-7660
04	-7661
1,	-7662
17	-7663
33	-7664
36	-7665
48	-7666
96	-7667
99	-7668
SC	-7669
aj	-7670
ka	-7671
ंठ	-7672
अब	-7673
आम	-7674
इच	-7675
चौ	-7676
टम	-7677
मक	-7678
रथ	-7679
रन	-7680
लभ	-7681
लु	-7682
व्	-7683
ूण	-7684
ैत	-7685
ैम	-7686
ोड	-7687
।।	-7688
‍म	-7689
▁Y	-7690
▁[	-7691
▁w	-7692
▁ष	-7693
▁१	-7694
ain	-7695
ang	-7696
ary	-7697
att	-7698
ess	-7699
gle	-7700
ँचा	-7701
ंगत	-7702
ंडो	-7703
ंधर	-7704
ंबल	-7705
ंसी	-7706
अगर	-7707
एआई	-7708
एगा	-7709
एनए	-7710
एपी	-7711
एसए	-7712
ओमी	-7713
कता	-7714
कपा	-7715
कभी	-7716
कॉम	-7717
खरी	-7718
गात	-7719
गीर	-7720
घेल	-7721
चरण	-7722
छित	-7723
जात	-7724
जूर	-7725
टकी	-7726
टेक	-7727
डेय	-7728
ड्स	-7729
ढ़ा	-7730
तृक	-7731
दमी	-7732
दास	-7733
दूर	-7734
द्घ	-7735
द्व	-7736
नार	-7737
नाश	-7738
पड़	-7739
फुल	-7740
बाग	-7741
बास	-7742
बिन	-7743
भीत	-7744
मुन	-7745
राई	-7746
रिज	-7747
रेख	-7748
लीट	-7749
लीय	-7750
वाज	-7751
विद	-7752
सेल	-7753
स्ड	-7754
हेज	-7755
ांट	-7756
िणी	-7757
िसे	-7758
ैंट	-7759
ोंस	-7760
ोकर	-7761
ोटे	-7762
ौना	-7763
ौरी	-7764
्यव	-7765
▁00	-7766
▁08	-7767
▁54	-7768
▁65	-7769
▁66	-7770
▁68	-7771
▁79	-7772
▁84	-7773
▁97	-7774
▁Ex	-7775
▁आफ	-7776
▁इर	-7777
▁ऋष	-7778
▁एथ	-7779
▁छू	-7780
▁जह	-7781
▁फड	-7782
▁मृ	-7783
▁रं	-7784
▁रथ	-7785
▁लह	-7786
▁वु	-7787
▁सई	-7788
▁सड	-7789
▁सन	-7790
▁हक	-7791
▁हब	-7792
▁	-7793
ा	-7794
क	-7795
र	-7796
े	-7797
ी	-7798
न	-7799
्	-7800
स	-7801
ि	-7802
ं	-7803
ह	-7804
म	-7805
ल	-7806
त	-7807
ो	-7808
प	-7809
य	-7810
व	-7811
द	-7812
ज	-7813
ब	-7814
ग	-7815
ु	-7816
ै	-7817
ट	-7818
।	-7819
ए	-7820
श	-7821
च	-7822
ड	-7823
अ	-7824
भ	-7825
ू	-7826
इ	-7827
आ	-7828
थ	-7829
,	-7830
ख	-7831
ध	-7832
उ	-7833
फ	-7834
़	-7835
ई	-7836
ष	-7837
.	-7838
औ	-7839
ण	-7840
ौ	-7841
0	-7842
1	-7843
2	-7844
छ	-7845
-	-7846
ॉ	-7847
घ	-7848
ओ	-7849
ठ	-7850
ढ	-7851
5	-7852
3	-7853
4	-7854
ृ	-7855
9	-7856
)	-7857
(	-7858
a	-7859
झ	-7860
8	-7861
6	-7862
:	-7863
‍	-7864
'	-7865
7	-7866
e	-7867
i	-7868
ऐ	-7869
o	-7870
r	-7871
n	-7872
ऑ	-7873
t	-7874
s	-7875
ऊ	-7876
‘	-7877
’	-7878
h	-7879
ँ	-7880
d	-7881
l	-7882
ञ	-7883
"	-7884
A	-7885
m	-7886
c	-7887
P	-7888
?	-7889
u	-7890
S	-7891
C	-7892
B	-7893
I	-7894
M	-7895
R	-7896
p	-7897
g	-7898
N	-7899
D	-7900
/	-7901
|	-7902
k	-7903
E	-7904
H	-7905
y	-7906
G	-7907
T	-7908
b	-7909
w	-7910
v	-7911
–	-7912
ः	-7913
”	-7914
U	-7915
J	-7916
“	-7917
!	-7918
L	-7919
F	-7920
O	-7921
W	-7922
ऋ	-7923
V	-7924
›	-7925
j	-7926
K	-7927
ॅ	-7928
>	-7929
‌	-7930
#	-7931
f	-7932
x	-7933
%	-7934
​	-7935
०	-7936
—	-7937
;	-7938
Y	-7939
»	-7940
̈	-7941
१	-7942
॰	-7943
*	-7944
@	-7945
z	-7946
[	-7947
]	-7948
+	-7949
í	-7950
ऩ	-7951
३	-7952
२	-7953
७	-7954
&	-7955
Q	-7956
X	-7957
_	-7958
🔊	-7959
५	-7960
६	-7961
Z	-7962
q	-7963
	-7964
ऱ	-7965
ï	-7966
८	-7967
×	-7968
४	-7969
९	-7970
﻿	-7971
�	-7972
=	-7973
^	-7974
£	-7975
©	-7976
«	-7977
Ó	-7978
Ü	-7979
в	-7980
и	-7981
л	-7982
о	-7983
т	-7984
я	-7985
ا	-7986
ت	-7987
ل	-7988
و	-7989
ی	-7990
ऌ	-7991
ङ	-7992
‎	-7993
←	-7994
➽	-7995
🔵	-7996
