<unk>	0
<s>	0
</s>	0
▁क	-0
▁स	-1
▁ह	-2
▁म	-3
▁प	-4
ें	-5
ार	-6
ने	-7
▁के	-8
्र	-9
▁ब	-10
▁है	-11
▁ज	-12
या	-13
▁द	-14
▁में	-15
▁र	-16
▁ल	-17
▁अ	-18
▁व	-19
ों	-20
▁की	-21
▁न	-22
▁को	-23
▁ग	-24
ान	-25
र्	-26
▁आ	-27
▁से	-28
▁कि	-29
ता	-30
▁इ	-31
▁कर	-32
▁का	-33
▁भ	-34
▁त	-35
▁उ	-36
▁ने	-37
ना	-38
िक	-39
्य	-40
▁पर	-41
ाल	-42
िल	-43
▁च	-44
▁श	-45
▁औ	-46
स्	-47
▁प्र	-48
▁और	-49
क्	-50
▁ए	-51
ही	-52
▁इस	-53
हा	-54
ड़	-55
▁हो	-56
▁जा	-57
▁हैं	-58
ित	-59
िया	-60
▁य	-61
▁थ	-62
ाम	-63
िए	-64
वा	-65
▁ख	-66
▁भी	-67
▁फ	-68
िय	-69
ंग	-70
ला	-71
के	-72
ते	-73
▁बा	-74
त्र	-75
ेश	-76
री	-77
▁स्	-78
▁वि	-79
ले	-80
हीं	-81
न्	-82
कर	-83
▁लिए	-84
▁रा	-85
ती	-86
रा	-87
िस	-88
ारी	-89
▁सा	-90
▁ट	-91
गा	-92
से	-93
िन	-94
▁एक	-95
सी	-96
्या	-97
ोग	-98
▁सं	-99
ुर	-100
▁नहीं	-101
ति	-102
नी	-103
▁ले	-104
▁अप	-105
ली	-106
▁हु	-107
क्ष	-108
▁किया	-109
का	-110
▁सम	-111
▁ड	-112
ां	-113
▁मु	-114
▁1	-115
▁रह	-116
ंद	-117
▁दे	-118
वार	-119
▁ही	-120
▁गया	-121
ाय	-122
ुल	-123
▁नि	-124
▁पह	-125
त्	-126
ार्	-127
▁2	-128
ियों	-129
की	-130
टी	-131
▁घ	-132
▁कहा	-133
▁था	-134
िला	-135
▁कार	-136
कार	-137
▁करने	-138
▁तो	-139
ंड	-140
न्ह	-141
ंच	-142
्म	-143
▁साथ	-144
ास	-145
▁सि	-146
▁लोग	-147
रो	-148
▁यह	-149
▁बाद	-150
▁अध	-151
दी	-152
मा	-153
▁राज	-154
▁रहे	-155
भा	-156
▁पू	-157
ल्	-158
गी	-159
▁दिया	-160
▁कु	-161
▁उन्ह	-162
▁वाल	-163
रे	-164
ढ़	-165
कि	-166
वि	-167
ाह	-168
▁उन	-169
▁दो	-170
▁छ	-171
▁सु	-172
जी	-173
देश	-174
भी	-175
ष्	-176
▁अन	-177
▁सर	-178
्री	-179
▁गई	-180
▁तक	-181
टर	-182
▁या	-183
ंत्र	-184
पी	-185
सा	-186
दा	-187
▁ला	-188
▁रहा	-189
ेल	-190
▁मिल	-191
ओं	-192
▁आप	-193
वी	-194
▁उस	-195
िर	-196
ौर	-197
▁हुए	-198
गे	-199
▁रही	-200
▁सी	-201
▁बता	-202
▁जो	-203
▁पुल	-204
▁बी	-205
▁सक	-206
गर	-207
स्ट	-208
▁चु	-209
▁दी	-210
▁(	-211
▁ध	-212
ाना	-213
▁हम	-214
स्त	-215
ानी	-216
्ष	-217
ोज	-218
▁पुलिस	-219
बा	-220
▁थी	-221
्रे	-222
▁भार	-223
▁लोगों	-224
श्	-225
जा	-226
▁मह	-227
▁अपने	-228
ैं	-229
▁जिस	-230
किन	-231
ाई	-232
▁मा	-233
▁बार	-234
▁जाए	-235
तर	-236
ोंने	-237
में	-238
द्	-239
पा	-240
शन	-241
▁सरकार	-242
िव	-243
नों	-244
..	-245
▁लेकिन	-246
▁लगा	-247
▁स्थ	-248
▁मौ	-249
▁थे	-250
स्थ	-251
▁पा	-252
▁20	-253
्त	-254
ुप	-255
▁अब	-256
ंत्री	-257
▁उन्होंने	-258
ेट	-259
बर	-260
च्	-261
▁अधिक	-262
मी	-263
▁गए	-264
द्र	-265
ड़ी	-266
हां	-267
ूर	-268
▁टी	-269
क्र	-270
▁बना	-271
▁इसके	-272
ंह	-273
हर	-274
▁उप	-275
▁होने	-276
▁मो	-277
▁पहले	-278
▁जान	-279
▁ऐ	-280
वे	-281
ष्ट	-282
▁पी	-283
▁तर	-284
र्ट	-285
▁कार्य	-286
▁जब	-287
▁कुछ	-288
▁बताया	-289
ये	-290
िंग	-291
▁जी	-292
▁वर्	-293
▁भा	-294
▁दिन	-295
ड़ा	-296
▁मे	-297
▁सिंह	-298
को	-299
िल्	-300
▁वाले	-301
▁निर्	-302
्यू	-303
खा	-304
▁कम	-305
▁वह	-306
▁बि	-307
ड़े	-308
पुर	-309
▁सो	-310
▁बात	-311
▁माम	-312
▁सब	-313
▁इन	-314
्स	-315
ंध	-316
▁ओ	-317
कों	-318
ोट	-319
ीन	-320
▁3	-321
▁पहु	-322
▁हि	-323
▁लेकर	-324
धान	-325
▁करते	-326
क्षा	-327
▁क्ष	-328
▁भारत	-329
▁दौर	-330
▁साल	-331
▁पहुंच	-332
एम	-333
र्म	-334
▁कोई	-335
कारी	-336
▁रुप	-337
ंप	-338
▁उत्	-339
▁बे	-340
▁बढ़	-341
▁रू	-342
ंट	-343
▁देश	-344
िश	-345
▁बै	-346
▁साम	-347
▁अपनी	-348
बी	-349
ाइ	-350
▁चाह	-351
▁कई	-352
ाप	-353
00	-354
जे	-355
क्त	-356
र्व	-357
▁परि	-358
▁शुर	-359
▁दौरान	-360
▁फिल	-361
वाल	-362
▁हुई	-363
जन	-364
▁काम	-365
िट	-366
िप	-367
ूस	-368
▁ऑ	-369
जार	-370
▁ये	-371
▁रो	-372
▁वे	-373
▁सभी	-374
▁दु	-375
ेत्र	-376
▁हाल	-377
▁अनु	-378
मंत्री	-379
ाने	-380
▁देख	-381
ेंद्र	-382
▁किसी	-383
▁द्	-384
▁तरह	-385
मान	-386
▁क्षेत्र	-387
डी	-388
वर	-389
▁मुख	-390
▁चल	-391
▁बह	-392
▁मै	-393
वं	-394
ोड़	-395
▁आय	-396
▁दिल्	-397
▁प्रदेश	-398
▁समय	-399
▁सू	-400
्रेस	-401
▁स्ट	-402
सर	-403
िका	-404
▁अं	-405
▁जन	-406
▁पार्	-407
मार	-408
▁गां	-409
▁लिया	-410
▁राज्य	-411
ूल	-412
ोल	-413
▁जु	-414
वारा	-415
▁व्य	-416
ज़	-417
एस	-418
ारा	-419
▁हुआ	-420
▁दिल्ली	-421
्ल	-422
▁विक	-423
▁नाम	-424
▁प्रति	-425
▁करें	-426
सान	-427
▁फिल्म	-428
म्म	-429
▁शिक	-430
▁हर	-431
▁उनके	-432
द्ध	-433
▁अभ	-434
▁चुना	-435
▁रूप	-436
▁द्वारा	-437
▁आरो	-438
चा	-439
▁घर	-440
▁जाने	-441
▁कह	-442
▁ना	-443
▁दर्	-444
▁5	-445
बंध	-446
▁शाम	-447
▁शुरू	-448
▁सह	-449
▁टीम	-450
▁इं	-451
▁उन्हें	-452
▁रख	-453
▁बीच	-454
रोना	-455
▁खिला	-456
▁ग्र	-457
▁लग	-458
यर	-459
चार	-460
▁बु	-461
फी	-462
▁कोरोना	-463
▁होगा	-464
▁महिला	-465
▁4	-466
▁यु	-467
च्च	-468
दार	-469
▁आज	-470
्यक्ष	-471
क्रम	-472
▁'	-473
▁दूस	-474
▁मुख्य	-475
▁लाख	-476
▁पु	-477
ून	-478
▁कै	-479
जर	-480
र्स	-481
स्प	-482
▁अम	-483
▁निक	-484
▁पै	-485
▁बन	-486
▁खु	-487
▁हा	-488
▁कांग	-489
▁तै	-490
▁सकता	-491
▁चुनाव	-492
▁पि	-493
एं	-494
▁जानकारी	-495
लय	-496
▁स्थित	-497
▁वर्ष	-498
ीड	-499
धार	-500
लों	-501
▁आई	-502
▁जाता	-503
▁वहीं	-504
िले	-505
▁मामले	-506
ंस	-507
▁ता	-508
▁ट्र	-509
▁जर	-510
▁फै	-511
ुत	-512
▁दोनों	-513
ब्	-514
▁एस	-515
▁चौ	-516
▁ठ	-517
हत	-518
ोक	-519
▁मैं	-520
ंक	-521
तीय	-522
▁करना	-523
▁जाएगा	-524
▁कांग्रेस	-525
ेज	-526
क्स	-527
▁एवं	-528
वन	-529
▁मान	-530
▁यहां	-531
▁201	-532
्यों	-533
ारे	-534
▁जै	-535
क्ट	-536
▁बैठ	-537
दे	-538
वाई	-539
▁रुपये	-540
प्	-541
िम	-542
्रीय	-543
▁पास	-544
▁झ	-545
भाग	-546
वाद	-547
जू	-548
टा	-549
▁गु	-550
▁करोड़	-551
▁कुमार	-552
▁तीन	-553
▁वाली	-554
आई	-555
ोर	-556
ताओं	-557
हार	-558
्यादा	-559
शी	-560
▁छा	-561
ोर्ट	-562
▁कारण	-563
ेर	-564
दान	-565
▁दि	-566
▁फिर	-567
▁पूर्व	-568
टना	-569
▁सुर	-570
▁पार्टी	-571
▁वै	-572
क्ति	-573
▁जारी	-574
▁सबसे	-575
धिक	-576
▁अव	-577
▁बद	-578
▁लि	-579
▁क्र	-580
▁जांच	-581
ांच	-582
ोजना	-583
▁गांव	-584
पर	-585
▁मांग	-586
▁कॉ	-587
▁सकते	-588
▁शामिल	-589
लो	-590
ेशन	-591
▁6	-592
सार	-593
ियां	-594
▁राम	-595
▁चाहिए	-596
नि	-597
र्थ	-598
ूम	-599
▁कंप	-600
▁तैय	-601
▁जिला	-602
▁ज्यादा	-603
था	-604
ीस	-605
▁ऐसे	-606
णा	-607
▁मोदी	-608
▁अध्यक्ष	-609
च्छ	-610
ायर	-611
▁अग	-612
दि	-613
▁किए	-614
ूं	-615
क्टर	-616
▁अन्य	-617
▁इससे	-618
▁किसान	-619
▁भारतीय	-620
▁उसे	-621
▁उसके	-622
▁विभाग	-623
धी	-624
▁‘	-625
▁आरोप	-626
▁महा	-627
्यालय	-628
▁जिले	-629
▁राष्ट	-630
ज्	-631
▁-	-632
चना	-633
ायत	-634
▁ओर	-635
▁गो	-636
प्र	-637
▁10	-638
▁विश्	-639
▁हजार	-640
ेंगे	-641
▁बच्च	-642
▁दा	-643
▁आए	-644
फ्त	-645
▁ली	-646
▁इसी	-647
▁काफी	-648
ोष	-649
ंदी	-650
सभा	-651
▁डॉ	-652
▁प्रधान	-653
ंबर	-654
न्न	-655
ामी	-656
ियो	-657
त्रा	-658
▁बहुत	-659
▁श्री	-660
▁गिर	-661
▁उनकी	-662
▁देने	-663
▁प्रत	-664
योग	-665
ैन	-666
जपा	-667
ुक	-668
▁खिलाफ	-669
ंब	-670
▁पद	-671
कर्	-672
▁बारे	-673
▁मंत्री	-674
र्ड	-675
▁होगी	-676
ंत	-677
▁:	-678
वान	-679
ाली	-680
ाया	-681
▁सद	-682
▁स्व	-683
ारियों	-684
▁भाजपा	-685
ुरु	-686
▁नी	-687
▁यू	-688
▁आने	-689
▁शिक्ष	-690
▁आर	-691
▁सामने	-692
गत	-693
द्य	-694
▁डी	-695
▁शु	-696
ार्ड	-697
▁क्यों	-698
इन	-699
वास	-700
▁स्क	-701
स्तान	-702
भाव	-703
ासन	-704
▁मौत	-705
ताल	-706
▁आपको	-707
धा	-708
रण	-709
ूट	-710
ेंट	-711
▁बो	-712
▁पांच	-713
▁खा	-714
▁न्यू	-715
▁प्रश	-716
▁अगर	-717
▁19	-718
▁अभी	-719
▁नई	-720
▁इला	-721
▁दिए	-722
▁अस्प	-723
▁योजना	-724
शे	-725
र्ण	-726
▁पूरी	-727
मु	-728
▁स्वा	-729
▁उत्तर	-730
ेंद	-731
▁जि	-732
ीक्षा	-733
म्	-734
▁ई	-735
पाल	-736
▁निय	-737
▁रिप	-738
ाज	-739
▁पिछ	-740
▁दर्ज	-741
आर	-742
लग	-743
दर्	-744
▁चे	-745
▁तथा	-746
िज	-747
ृत	-748
▁7	-749
...	-750
▁कप	-751
ांकि	-752
▁विध	-753
▁अपना	-754
▁हालांकि	-755
ध्य	-756
स्था	-757
▁करी	-758
▁चला	-759
रीज	-760
ख्या	-761
▁नगर	-762
▁बंद	-763
▁मार्	-764
▁8	-765
करण	-766
▁वो	-767
▁अला	-768
▁होता	-769
ेड	-770
▁उठ	-771
▁सफ	-772
निया	-773
▁याद	-774
▁विकास	-775
पू	-776
▁इंड	-777
जह	-778
▁बल्	-779
▁अनुसार	-780
▁चार	-781
▁आयोज	-782
▁घटना	-783
▁संबंध	-784
जूद	-785
वासी	-786
▁मैच	-787
▁रिपोर्ट	-788
▁मुख्यमंत्री	-789
वल	-790
जय	-791
ंगे	-792
्ला	-793
▁शा	-794
▁पढ़	-795
▁क्या	-796
ीर	-797
बाद	-798
्रा	-799
▁इसे	-800
▁करीब	-801
▁बैठक	-802
▁होती	-803
▁इसमें	-804
▁वजह	-805
▁विश्व	-806
▁केंद्र	-807
ोन	-808
ंगल	-809
ताब	-810
र्फ	-811
▁बॉ	-812
▁शहर	-813
▁प्रधानमंत्री	-814
लिए	-815
▁मन	-816
▁लड़	-817
▁व्यव	-818
▁अलावा	-819
क्सी	-820
ाला	-821
▁टे	-822
▁मद	-823
त्या	-824
▁बड़ी	-825
▁कान	-826
▁जीत	-827
▁अच्छ	-828
▁तैयार	-829
ेत	-830
▁।	-831
▁आग	-832
▁आम	-833
▁डे	-834
ुक्त	-835
▁संग	-836
▁पिछले	-837
▁स्थिति	-838
▁मज	-839
▁नेता	-840
▁जग	-841
▁अस्पताल	-842
तार	-843
▁12	-844
▁जबकि	-845
▁छात्र	-846
ीद	-847
्याप	-848
▁घोष	-849
▁फैस	-850
▁प्रा	-851
▁निर्देश	-852
र्च	-853
▁पंच	-854
फ्तार	-855
▁पानी	-856
डा	-857
बह	-858
र्चा	-859
▁खेल	-860
▁पड़	-861
▁उम्म	-862
▁मिले	-863
ंज	-864
ज्ञ	-865
स्क	-866
स्ता	-867
▁कर्म	-868
▁रुपए	-869
▁दिनों	-870
डे	-871
त्म	-872
▁गा	-873
▁202	-874
▁ऐसा	-875
▁बजे	-876
▁बैं	-877
▁अफ	-878
मारी	-879
▁इसलिए	-880
▁दूसरे	-881
▁उम्मीद	-882
▁अधिकारी	-883
ोध	-884
त्व	-885
▁युव	-886
▁हों	-887
▁इसकी	-888
▁संख्या	-889
गढ़	-890
▁वा	-891
▁पत्र	-892
▁जाएगी	-893
▁सुरक्षा	-894
माण	-895
िता	-896
▁दर	-897
▁करे	-898
▁मार	-899
▁सदस	-900
▁कहना	-901
▁कंपनी	-902
▁जिसमें	-903
ियन	-904
स्ते	-905
▁जिन	-906
▁सकती	-907
▁क्योंकि	-908
▁डि	-909
▁आगे	-910
▁फीस	-911
ची	-912
दन	-913
खंड	-914
शेष	-915
▁जहां	-916
▁रहने	-917
▁बनाने	-918
हन	-919
र्य	-920
ष्ठ	-921
▁पं	-922
▁रेल	-923
▁परीक्षा	-924
▁मत	-925
▁लोक	-926
▁हूं	-927
▁जनता	-928
▁थाना	-929
▁किसानों	-930
ायक	-931
ियर	-932
▁भर	-933
▁तहत	-934
▁नजर	-935
▁मंद	-936
▁सुबह	-937
▁विधान	-938
▁कार्यक्रम	-939
मत	-940
राज	-941
▁खान	-942
▁दें	-943
▁जरूर	-944
▁लेने	-945
▁विशेष	-946
सल	-947
▁नए	-948
क्षण	-949
मेंट	-950
▁बेह	-951
▁मिला	-952
▁मिली	-953
▁स्कूल	-954
▁हिंदी	-955
मिक	-956
▁बस	-957
▁मीड	-958
▁आधार	-959
▁कोर्ट	-960
कान	-961
▁निवासी	-962
▁परिवार	-963
▁9	-964
▁ऊ	-965
वीर	-966
▁ऑफ	-967
▁नौ	-968
▁सच	-969
ार्थ	-970
▁कुल	-971
▁पाकि	-972
धि	-973
▁15	-974
▁मही	-975
▁जाती	-976
▁प्रदर्	-977
▁मीडिया	-978
इक	-979
▁कृ	-980
▁डा	-981
▁रे	-982
▁मंदिर	-983
▁मुताब	-984
फ्	-985
चित	-986
वरी	-987
▁जगह	-988
▁लगे	-989
▁जैसे	-990
▁प्रो	-991
▁स्वास्थ	-992
ar	-993
सम	-994
्‍	-995
तिक	-996
ूरी	-997
▁पता	-998
▁हाथ	-999
▁मुताबिक	-1000
ालय	-1001
▁बच	-1002
▁सौ	-1003
▁खरी	-1004
▁मरीज	-1005
▁सूचना	-1006
▁योग	-1007
▁सड़	-1008
▁करता	-1009
▁हत्या	-1010
▁संक्रम	-1011
झे	-1012
विड	-1013
▁आत	-1014
▁मौके	-1015
▁वहां	-1016
▁स्वास्थ्य	-1017
एन	-1018
शि	-1019
▁11	-1020
▁नर	-1021
▁बर	-1022
▁मि	-1023
▁वीड	-1024
▁सीट	-1025
▁न्या	-1026
▁पहली	-1027
▁पूरा	-1028
▁बाहर	-1029
▁करेंगे	-1030
ट्	-1031
यन	-1032
ीय	-1033
ेंस	-1034
▁उनका	-1035
▁गिरफ्तार	-1036
▁एम	-1037
▁पो	-1038
▁इसका	-1039
▁वायर	-1040
इट	-1041
टे	-1042
हम	-1043
वेश	-1044
िति	-1045
▁शे	-1046
▁ब्र	-1047
▁शर्	-1048
▁स्प	-1049
▁गुरु	-1050
▁पूरे	-1051
▁सेवा	-1052
▁होते	-1053
▁वीडियो	-1054
▁विधानसभा	-1055
शा	-1056
▁जे	-1057
▁आदि	-1058
▁रात	-1059
▁चर्चा	-1060
▁प्रशासन	-1061
▁लॉ	-1062
▁वाह	-1063
्रवाई	-1064
▁बैंक	-1065
▁जिससे	-1066
▁पहुंचे	-1067
▁कार्रवाई	-1068
-1	-1069
श्म	-1070
▁आस	-1071
▁नोट	-1072
▁वाप	-1073
यी	-1074
नाथ	-1075
ल्ड	-1076
▁खे	-1077
▁जल्	-1078
▁बुध	-1079
▁यादव	-1080
▁मंत्र	-1081
एल	-1082
बू	-1083
शल	-1084
ायल	-1085
▁इत	-1086
▁पे	-1087
ाप्त	-1088
ार्ट	-1089
▁अलग	-1090
▁खबर	-1091
▁खुद	-1092
▁मदद	-1093
▁पंचायत	-1094
ात	-1095
मुख	-1096
स्या	-1097
▁भाग	-1098
▁उसकी	-1099
▁जिसके	-1100
▁बिहार	-1101
▁बच्चों	-1102
तन	-1103
माल	-1104
राब	-1105
ेंड	-1106
▁ची	-1107
▁जल	-1108
ियान	-1109
▁समझ	-1110
▁बड़े	-1111
द्यालय	-1112
▁राजनी	-1113
▁राष्ट्र	-1114
▁14	-1115
▁तब	-1116
▁उपल	-1117
▁श्र	-1118
यास	-1119
▁एन	-1120
▁गि	-1121
▁पाल	-1122
▁परेश	-1123
▁मध्य	-1124
▁युवक	-1125
▁व्याप	-1126
▁स्थान	-1127
▁शिक्षा	-1128
▁व्यक्ति	-1129
▁राष्ट्रीय	-1130
रि	-1131
काश	-1132
िने	-1133
▁गं	-1134
ामीण	-1135
▁दिख	-1136
▁सर्	-1137
▁सोम	-1138
▁विरो	-1139
▁सम्म	-1140
▁सवाल	-1141
▁सहित	-1142
▁हिस्	-1143
▁कोविड	-1144
▁मिलने	-1145
▁सिर्फ	-1146
▁ग्रामीण	-1147
ॉल	-1148
▁ढ	-1149
काल	-1150
▁मंड	-1151
▁न्यूज़	-1152
▁महिलाओं	-1153
▁पाकिस्तान	-1154
▁अधिकारियों	-1155
चान	-1156
▁शिव	-1157
▁ट्रे	-1158
▁गांधी	-1159
▁फीसदी	-1160
▁मौजूद	-1161
▁प्रदर्शन	-1162
an	-1163
मे	-1164
▁रन	-1165
▁शि	-1166
रिया	-1167
▁आया	-1168
▁उसने	-1169
▁जीवन	-1170
▁बढ़ा	-1171
▁आरोपी	-1172
▁उपलब्	-1173
▁मामला	-1174
▁लगाया	-1175
▁सदस्य	-1176
▁बुधवार	-1177
▁सोमवार	-1178
बे	-1179
यू	-1180
षि	-1181
ंगा	-1182
तरा	-1183
लाई	-1184
वाब	-1185
श्य	-1186
हरी	-1187
▁गै	-1188
▁बज	-1189
▁कभी	-1190
▁तरफ	-1191
▁हाई	-1192
स्थान	-1193
▁फैसला	-1194
in	-1195
गम	-1196
ंदर	-1197
लेज	-1198
ैंड	-1199
र्ती	-1200
▁रवि	-1201
▁चुकी	-1202
▁देते	-1203
▁निर्माण	-1204
एफ	-1205
टन	-1206
ंटे	-1207
िये	-1208
्यान	-1209
▁करा	-1210
▁सके	-1211
▁सुन	-1212
▁मंगल	-1213
▁वाला	-1214
▁महीने	-1215
▁दुनिया	-1216
▁व्यवस्था	-1217
ेम	-1218
रिक	-1219
हरा	-1220
▁वित	-1221
▁मुझे	-1222
▁समस्या	-1223
ंबई	-1224
ग्र	-1225
पति	-1226
र्क	-1227
▁रि	-1228
▁पुर	-1229
▁भूम	-1230
▁रोक	-1231
▁इंटर	-1232
▁होंगे	-1233
▁इंडिया	-1234
▁,	-1235
ल्प	-1236
▁अर	-1237
▁ते	-1238
▁वन	-1239
▁शी	-1240
▁राय	-1241
▁शनि	-1242
▁करती	-1243
▁गेंद	-1244
▁चलते	-1245
▁जाना	-1246
▁युवा	-1247
▁बाजार	-1248
▁अभियान	-1249
उन	-1250
▁लख	-1251
त्री	-1252
▁पेश	-1253
▁लाभ	-1254
▁अमेर	-1255
▁आपके	-1256
▁कराने	-1257
▁दूसरी	-1258
▁लगातार	-1259
▁30	-1260
....	-1261
▁राह	-1262
▁चुके	-1263
▁पीएम	-1264
▁शादी	-1265
▁समाज	-1266
▁कराया	-1267
▁उपलब्ध	-1268
▁शिकायत	-1269
कत	-1270
ग्	-1271
णी	-1272
वत	-1273
सि	-1274
ुआ	-1275
यों	-1276
स्‍	-1277
▁25	-1278
▁चि	-1279
▁चिक	-1280
▁दिव	-1281
▁करके	-1282
▁क्रिक	-1283
▁शर्मा	-1284
▁प्रभाव	-1285
जल	-1286
टक	-1287
बल	-1288
मो	-1289
शत	-1290
षण	-1291
भीर	-1292
▁कल	-1293
▁क्	-1294
▁धन	-1295
क्शन	-1296
▁नियम	-1297
▁जरूरत	-1298
▁शुक्र	-1299
▁प्रमुख	-1300
▁नरेंद्र	-1301
भग	-1302
ैल	-1303
िकल	-1304
▁जय	-1305
▁भे	-1306
▁शाह	-1307
▁चुका	-1308
▁जाते	-1309
▁घोषणा	-1310
▁रेलवे	-1311
▁शनिवार	-1312
ठन	-1313
▁ज़	-1314
ंद्र	-1315
दारी	-1316
▁पूछ	-1317
▁माल	-1318
▁रखा	-1319
▁मुंबई	-1320
▁प्रयास	-1321
काब	-1322
रों	-1323
▁दल	-1324
▁दूर	-1325
न्द्र	-1326
▁जल्द	-1327
▁नंबर	-1328
▁विधायक	-1329
जि	-1330
पु	-1331
▁"	-1332
िनि	-1333
▁पेट	-1334
▁आतंक	-1335
▁कीमत	-1336
▁बड़ा	-1337
▁लगभग	-1338
▁समिति	-1339
▁सरकारी	-1340
▁मंगलवार	-1341
20	-1342
▁आव	-1343
लाइन	-1344
विधा	-1345
▁कर्	-1346
▁लाल	-1347
▁उसका	-1348
▁छोड़	-1349
▁बिना	-1350
▁वापस	-1351
▁सड़क	-1352
धिकारी	-1353
▁गंभीर	-1354
▁ध्यान	-1355
षा	-1356
ांस	-1357
्रम	-1358
▁पक	-1359
▁लौ	-1360
▁खास	-1361
▁तेज	-1362
▁मेड	-1363
▁रिक	-1364
▁संप	-1365
▁केवल	-1366
▁जवाब	-1367
▁राशि	-1368
▁चिकित	-1369
▁निकाल	-1370
▁वालों	-1371
यान	-1372
वाह	-1373
हाय	-1374
ानि	-1375
▁आद	-1376
▁तय	-1377
▁अहम	-1378
▁चाल	-1379
▁जेल	-1380
▁दिल	-1381
▁विप	-1382
▁सोशल	-1383
▁होना	-1384
▁दुकान	-1385
▁वैक्सी	-1386
जु	-1387
तम	-1388
लब	-1389
ूह	-1390
ोस	-1391
▁P	-1392
ोरी	-1393
▁उम	-1394
▁पीछ	-1395
▁माह	-1396
▁सप्	-1397
▁साफ	-1398
पूर्ण	-1399
स्ट्र	-1400
▁अंतर	-1401
▁पक्ष	-1402
▁यूपी	-1403
▁लिखा	-1404
▁इस्ते	-1405
▁बनाया	-1406
▁इस्तेमाल	-1407
फा	-1408
000	-1409
▁फर	-1410
▁शव	-1411
▁तौर	-1412
▁यही	-1413
▁एक्स	-1414
▁कार्ड	-1415
▁भर्ती	-1416
▁विरोध	-1417
▁आयोजित	-1418
ूप	-1419
ूब	-1420
ेस	-1421
बार	-1422
ियम	-1423
ूर्	-1424
▁अति	-1425
▁कमी	-1426
▁डाल	-1427
▁तस्	-1428
▁मना	-1429
▁संय	-1430
▁कृषि	-1431
▁देखा	-1432
▁मुकाब	-1433
▁लगाने	-1434
▁यात्रा	-1435
▁सुविधा	-1436
▁शुक्रवार	-1437
ंका	-1438
▁दौ	-1439
▁पत्	-1440
श्मीर	-1441
▁किलो	-1442
▁खरीद	-1443
▁निगम	-1444
▁बाइक	-1445
▁सहाय	-1446
▁हमारे	-1447
इल	-1448
नल	-1449
भर	-1450
षद	-1451
ुड	-1452
बंधन	-1453
लेबा	-1454
▁200	-1455
▁पार	-1456
▁भेज	-1457
▁मूल	-1458
▁सैन	-1459
▁आदेश	-1460
▁करवा	-1461
▁निकल	-1462
▁प्रभ	-1463
▁समेत	-1464
▁सीमा	-1465
▁ग्राम	-1466
▁टेस्ट	-1467
▁देखते	-1468
▁राहुल	-1469
▁रविवार	-1470
▁प्रतिशत	-1471
नर	-1472
ैक	-1473
▁C	-1474
ोटो	-1475
▁13	-1476
▁आइ	-1477
▁फ़	-1478
▁मी	-1479
क्षक	-1480
र्या	-1481
्रोल	-1482
▁कोश	-1483
स्थित	-1484
▁प्राप्त	-1485
गल	-1486
गू	-1487
ोह	-1488
िटी	-1489
जेपी	-1490
र्जी	-1491
▁पाए	-1492
▁लखन	-1493
▁सही	-1494
▁सात	-1495
▁घायल	-1496
▁सचिव	-1497
▁स्तर	-1498
▁बल्कि	-1499
▁समर्थ	-1500
▁कार्यालय	-1501
▁0	-1502
ांत	-1503
▁चा	-1504
▁थीं	-1505
▁लक्ष	-1506
▁चाहते	-1507
▁बल्लेबा	-1508
▁कार्यकर्	-1509
कु	-1510
भि	-1511
ॉप	-1512
▁पस	-1513
ानीय	-1514
▁बिज	-1515
▁बेट	-1516
▁स्थानीय	-1517
at	-1518
ताह	-1519
मति	-1520
र्ष	-1521
वुड	-1522
▁18	-1523
▁50	-1524
▁गल	-1525
▁ट्	-1526
▁वृ	-1527
▁हे	-1528
▁जमा	-1529
▁तेल	-1530
▁बाल	-1531
▁मिश	-1532
▁रोज	-1533
▁आयोजन	-1534
▁उपयोग	-1535
▁सहयोग	-1536
▁राज्यों	-1537
तृ	-1538
फ़	-1539
लर	-1540
चाल	-1541
मता	-1542
▁आठ	-1543
जनों	-1544
▁एयर	-1545
▁तला	-1546
▁पति	-1547
▁2021	-1548
▁उत्पा	-1549
▁पोस्ट	-1550
▁बारिश	-1551
▁नेताओं	-1552
▁सम्मान	-1553
कट	-1554
धे	-1555
▁B	-1556
ंदा	-1557
न्द	-1558
ैंप	-1559
▁ज्	-1560
ड़ों	-1561
स्ती	-1562
▁उल्	-1563
▁सफल	-1564
क्षित	-1565
▁आयोग	-1566
▁बनाए	-1567
▁लखनऊ	-1568
▁कानून	-1569
▁वायरस	-1570
▁विवाद	-1571
▁तस्वीर	-1572
▁बीजेपी	-1573
▁उम्मीदवार	-1574
▁R	-1575
केट	-1576
गार	-1577
▁24	-1578
धानी	-1579
वेदन	-1580
▁अंत	-1581
▁बंग	-1582
▁मिन	-1583
▁हाद	-1584
द्योग	-1585
▁जिसे	-1586
▁बदला	-1587
▁शेयर	-1588
▁कोशिश	-1589
▁देखने	-1590
▁सूत्र	-1591
▁न्याया	-1592
▁मामलों	-1593
धन	-1594
▁–	-1595
खिल	-1596
▁16	-1597
▁एज	-1598
▁टै	-1599
▁रै	-1600
ांति	-1601
▁ऐसी	-1602
▁टिक	-1603
▁लिख	-1604
लीवुड	-1605
स्ताव	-1606
▁अवसर	-1607
▁पीछे	-1608
▁माना	-1609
▁सामान	-1610
▁जाएंगे	-1611
▁संक्रमण	-1612
ंख	-1613
▁A	-1614
▁कट	-1615
▁रु	-1616
बाइल	-1617
▁गयी	-1618
▁जमी	-1619
▁बदल	-1620
▁हास	-1621
ज्ञान	-1622
नलाइन	-1623
▁घंटे	-1624
▁ताकि	-1625
▁दिखा	-1626
▁पंजा	-1627
▁पीड़	-1628
▁बयान	-1629
▁मुद्	-1630
▁हमने	-1631
▁जुड़े	-1632
▁जुलाई	-1633
ेंद्रीय	-1634
▁प्रकार	-1635
▁मरीजों	-1636
▁क्रिकेट	-1637
▁गुरुवार	-1638
चे	-1639
फे	-1640
ेक	-1641
करी	-1642
शनल	-1643
▁ति	-1644
वादी	-1645
▁अर्	-1646
▁जन्	-1647
▁तीस	-1648
▁मां	-1649
▁तेजी	-1650
▁पसंद	-1651
▁रखने	-1652
▁सांस	-1653
▁सीएम	-1654
▁कॉलेज	-1655
▁हासिल	-1656
▁प्रदान	-1657
▁मेडिकल	-1658
▁मोबाइल	-1659
भव	-1660
ीक	-1661
त्त	-1662
हाल	-1663
िशा	-1664
▁मई	-1665
द्धि	-1666
▁उठा	-1667
▁लगी	-1668
▁संघ	-1669
▁सित	-1670
▁अप्र	-1671
▁कैसे	-1672
▁पिता	-1673
▁फोटो	-1674
▁हमें	-1675
▁संगठन	-1676
▁हिस्सा	-1677
▁केंद्रीय	-1678
▁प्रस्ताव	-1679
▁मंत्रालय	-1680
ड्	-1681
लू	-1682
ील	-1683
ंगी	-1684
तिम	-1685
▁17	-1686
▁23	-1687
▁अद	-1688
श्यक	-1689
▁बजट	-1690
▁बने	-1691
▁रोड	-1692
▁सिल	-1693
▁इलाज	-1694
▁एक्ट	-1695
▁वाहन	-1696
▁विभि	-1697
▁बोर्ड	-1698
▁शुरुआ	-1699
▁छात्रों	-1700
▁राजस्थान	-1701
जों	-1702
हित	-1703
▁छह	-1704
चारी	-1705
▁ब्ल	-1706
न्हें	-1707
मार्ट	-1708
▁जागर	-1709
▁दुर्	-1710
▁नागर	-1711
▁सेना	-1712
▁बच्चे	-1713
▁आवश्यक	-1714
▁अमेरिका	-1715
▁वैक्सीन	-1716
on	-1717
झा	-1718
पन	-1719
▁M	-1720
ंडी	-1721
राव	-1722
ूबर	-1723
▁ती	-1724
▁भग	-1725
िलों	-1726
▁गौर	-1727
▁ड्र	-1728
▁दाम	-1729
▁भाई	-1730
▁मृत	-1731
▁दक्ष	-1732
▁पर्य	-1733
▁हमला	-1734
▁अभिने	-1735
▁बिजली	-1736
▁सप्ताह	-1737
ठी	-1738
मन	-1739
ुट	-1740
गंज	-1741
दों	-1742
पास	-1743
फ्ट	-1744
श्च	-1745
ष्य	-1746
▁एड	-1747
▁शो	-1748
ितों	-1749
▁असर	-1750
▁गति	-1751
▁यदि	-1752
▁पड़ा	-1753
▁जरूरी	-1754
▁निर्ण	-1755
▁मैंने	-1756
▁परेशान	-1757
▁प्रकाश	-1758
▁पेट्रोल	-1759
▁प्रतिनि	-1760
▁बॉलीवुड	-1761
काउ	-1762
रीब	-1763
लाह	-1764
वीं	-1765
ुओं	-1766
▁आख	-1767
▁तम	-1768
▁पट	-1769
▁सल	-1770
कर्म	-1771
▁आंक	-1772
▁क्ल	-1773
▁खूब	-1774
▁चीन	-1775
▁चुन	-1776
▁निश	-1777
▁वोट	-1778
▁सें	-1779
स्कार	-1780
▁अगले	-1781
▁परिव	-1782
▁वक्त	-1783
क्रिया	-1784
▁अच्छा	-1785
▁पंजाब	-1786
▁बेहतर	-1787
▁संवाद	-1788
▁ऑनलाइन	-1789
▁नागरिक	-1790
विद्यालय	-1791
एच	-1792
▁	-1793
ा	-1794
क	-1795
र	-1796
े	-1797
ी	-1798
न	-1799
्	-1800
स	-1801
ि	-1802
ं	-1803
ह	-1804
म	-1805
ल	-1806
त	-1807
ो	-1808
प	-1809
य	-1810
व	-1811
द	-1812
ज	-1813
ब	-1814
ग	-1815
ु	-1816
ै	-1817
ट	-1818
।	-1819
ए	-1820
श	-1821
च	-1822
ड	-1823
अ	-1824
भ	-1825
ू	-1826
इ	-1827
आ	-1828
थ	-1829
,	-1830
ख	-1831
ध	-1832
उ	-1833
फ	-1834
़	-1835
ई	-1836
ष	-1837
.	-1838
औ	-1839
ण	-1840
ौ	-1841
0	-1842
1	-1843
2	-1844
छ	-1845
-	-1846
ॉ	-1847
घ	-1848
ओ	-1849
ठ	-1850
ढ	-1851
5	-1852
3	-1853
4	-1854
ृ	-1855
9	-1856
)	-1857
(	-1858
a	-1859
झ	-1860
8	-1861
6	-1862
:	-1863
‍	-1864
'	-1865
7	-1866
e	-1867
i	-1868
ऐ	-1869
o	-1870
r	-1871
n	-1872
ऑ	-1873
t	-1874
s	-1875
ऊ	-1876
‘	-1877
’	-1878
h	-1879
ँ	-1880
d	-1881
l	-1882
ञ	-1883
"	-1884
A	-1885
m	-1886
c	-1887
P	-1888
?	-1889
u	-1890
S	-1891
C	-1892
B	-1893
I	-1894
M	-1895
R	-1896
p	-1897
g	-1898
N	-1899
D	-1900
/	-1901
|	-1902
k	-1903
E	-1904
H	-1905
y	-1906
G	-1907
T	-1908
b	-1909
w	-1910
v	-1911
–	-1912
ः	-1913
”	-1914
U	-1915
J	-1916
“	-1917
!	-1918
L	-1919
F	-1920
O	-1921
W	-1922
ऋ	-1923
V	-1924
›	-1925
j	-1926
K	-1927
ॅ	-1928
>	-1929
‌	-1930
#	-1931
f	-1932
x	-1933
%	-1934
​	-1935
०	-1936
—	-1937
;	-1938
Y	-1939
»	-1940
̈	-1941
१	-1942
॰	-1943
*	-1944
@	-1945
z	-1946
[	-1947
]	-1948
+	-1949
í	-1950
ऩ	-1951
३	-1952
२	-1953
७	-1954
&	-1955
Q	-1956
X	-1957
_	-1958
🔊	-1959
५	-1960
६	-1961
Z	-1962
q	-1963
	-1964
ऱ	-1965
ï	-1966
८	-1967
×	-1968
४	-1969
९	-1970
﻿	-1971
�	-1972
=	-1973
^	-1974
£	-1975
©	-1976
«	-1977
Ó	-1978
Ü	-1979
в	-1980
и	-1981
л	-1982
о	-1983
т	-1984
я	-1985
ا	-1986
ت	-1987
ل	-1988
و	-1989
ی	-1990
ऌ	-1991
ङ	-1992
‎	-1993
←	-1994
➽	-1995
🔵	-1996
