<unk>	0
<s>	0
</s>	0
▁क	-0
▁स	-1
▁ह	-2
▁म	-3
▁प	-4
ें	-5
ार	-6
ने	-7
▁के	-8
्र	-9
▁ब	-10
▁है	-11
▁ज	-12
या	-13
▁द	-14
▁में	-15
▁र	-16
▁ल	-17
▁अ	-18
▁व	-19
ों	-20
▁की	-21
▁न	-22
▁को	-23
▁ग	-24
ान	-25
र्	-26
▁आ	-27
▁से	-28
▁कि	-29
ता	-30
▁इ	-31
▁कर	-32
▁का	-33
▁भ	-34
▁त	-35
▁उ	-36
▁ने	-37
ना	-38
िक	-39
्य	-40
▁पर	-41
ाल	-42
िल	-43
▁च	-44
▁श	-45
▁औ	-46
स्	-47
▁प्र	-48
▁और	-49
क्	-50
▁ए	-51
ही	-52
▁इस	-53
हा	-54
ड़	-55
▁हो	-56
▁जा	-57
▁हैं	-58
ित	-59
िया	-60
▁य	-61
▁थ	-62
ाम	-63
िए	-64
वा	-65
▁ख	-66
▁भी	-67
▁फ	-68
िय	-69
ंग	-70
ला	-71
के	-72
ते	-73
▁बा	-74
त्र	-75
ेश	-76
री	-77
▁स्	-78
▁वि	-79
ले	-80
हीं	-81
न्	-82
कर	-83
▁लिए	-84
▁रा	-85
ती	-86
रा	-87
िस	-88
ारी	-89
▁सा	-90
▁ट	-91
गा	-92
से	-93
िन	-94
▁एक	-95
सी	-96
्या	-97
ोग	-98
▁सं	-99
ुर	-100
▁नहीं	-101
ति	-102
नी	-103
▁ले	-104
▁अप	-105
ली	-106
▁हु	-107
क्ष	-108
▁किया	-109
का	-110
▁सम	-111
▁ड	-112
ां	-113
▁मु	-114
▁1	-115
▁रह	-116
ंद	-117
▁दे	-118
वार	-119
▁ही	-120
▁गया	-121
ाय	-122
ुल	-123
▁नि	-124
▁पह	-125
त्	-126
ार्	-127
▁2	-128
ियों	-129
की	-130
टी	-131
▁घ	-132
▁कहा	-133
▁था	-134
िला	-135
▁कार	-136
कार	-137
▁करने	-138
▁तो	-139
ंड	-140
न्ह	-141
ंच	-142
्म	-143
▁साथ	-144
ास	-145
▁सि	-146
▁लोग	-147
रो	-148
▁यह	-149
▁बाद	-150
▁अध	-151
दी	-152
मा	-153
▁राज	-154
▁रहे	-155
भा	-156
▁पू	-157
ल्	-158
गी	-159
▁दिया	-160
▁कु	-161
▁उन्ह	-162
▁वाल	-163
रे	-164
ढ़	-165
कि	-166
वि	-167
ाह	-168
▁उन	-169
▁दो	-170
▁छ	-171
▁सु	-172
जी	-173
देश	-174
भी	-175
ष्	-176
▁अन	-177
▁सर	-178
्री	-179
▁गई	-180
▁तक	-181
टर	-182
▁या	-183
ंत्र	-184
पी	-185
सा	-186
दा	-187
▁ला	-188
▁रहा	-189
ेल	-190
▁मिल	-191
ओं	-192
▁आप	-193
वी	-194
▁उस	-195
िर	-196
ौर	-197
▁हुए	-198
गे	-199
▁रही	-200
▁सी	-201
▁बता	-202
▁जो	-203
▁पुल	-204
▁बी	-205
▁सक	-206
गर	-207
स्ट	-208
▁चु	-209
▁दी	-210
▁(	-211
▁ध	-212
ाना	-213
▁हम	-214
स्त	-215
ानी	-216
्ष	-217
ोज	-218
▁पुलिस	-219
बा	-220
▁थी	-221
्रे	-222
▁भार	-223
▁लोगों	-224
श्	-225
जा	-226
▁मह	-227
▁अपने	-228
ैं	-229
▁जिस	-230
किन	-231
ाई	-232
▁मा	-233
▁बार	-234
▁जाए	-235
तर	-236
ोंने	-237
में	-238
द्	-239
पा	-240
शन	-241
▁सरकार	-242
िव	-243
नों	-244
..	-245
▁लेकिन	-246
▁लगा	-247
▁स्थ	-248
▁मौ	-249
▁थे	-250
स्थ	-251
▁पा	-252
▁20	-253
्त	-254
ुप	-255
▁अब	-256
ंत्री	-257
▁उन्होंने	-258
ेट	-259
बर	-260
च्	-261
▁अधिक	-262
मी	-263
▁गए	-264
द्र	-265
ड़ी	-266
हां	-267
ूर	-268
▁टी	-269
क्र	-270
▁बना	-271
▁इसके	-272
ंह	-273
हर	-274
▁उप	-275
▁होने	-276
▁मो	-277
▁पहले	-278
▁जान	-279
▁ऐ	-280
वे	-281
ष्ट	-282
▁पी	-283
▁तर	-284
र्ट	-285
▁कार्य	-286
▁जब	-287
▁कुछ	-288
▁बताया	-289
ये	-290
िंग	-291
▁जी	-292
▁वर्	-293
▁भा	-294
▁दिन	-295
ड़ा	-296
▁मे	-297
▁सिंह	-298
को	-299
िल्	-300
▁वाले	-301
▁निर्	-302
्यू	-303
खा	-304
▁कम	-305
▁वह	-306
▁बि	-307
ड़े	-308
पुर	-309
▁सो	-310
▁बात	-311
▁माम	-312
▁सब	-313
▁इन	-314
्स	-315
ंध	-316
▁ओ	-317
कों	-318
ोट	-319
ीन	-320
▁3	-321
▁पहु	-322
▁हि	-323
▁लेकर	-324
धान	-325
▁करते	-326
क्षा	-327
▁क्ष	-328
▁भारत	-329
▁दौर	-330
▁साल	-331
▁पहुंच	-332
एम	-333
र्म	-334
▁कोई	-335
कारी	-336
▁रुप	-337
ंप	-338
▁उत्	-339
▁बे	-340
▁बढ़	-341
▁रू	-342
ंट	-343
▁देश	-344
िश	-345
▁बै	-346
▁साम	-347
▁अपनी	-348
बी	-349
ाइ	-350
▁चाह	-351
▁कई	-352
ाप	-353
00	-354
जे	-355
क्त	-356
र्व	-357
▁परि	-358
▁शुर	-359
▁दौरान	-360
▁फिल	-361
वाल	-362
▁हुई	-363
जन	-364
▁काम	-365
िट	-366
िप	-367
ूस	-368
▁ऑ	-369
जार	-370
▁ये	-371
▁रो	-372
▁वे	-373
▁सभी	-374
▁दु	-375
ेत्र	-376
▁हाल	-377
▁अनु	-378
मंत्री	-379
ाने	-380
▁देख	-381
ेंद्र	-382
▁किसी	-383
▁द्	-384
▁तरह	-385
मान	-386
▁क्षेत्र	-387
डी	-388
वर	-389
▁मुख	-390
▁चल	-391
▁बह	-392
▁मै	-393
वं	-394
ोड़	-395
▁आय	-396
▁दिल्	-397
▁प्रदेश	-398
▁समय	-399
▁सू	-400
्रेस	-401
▁स्ट	-402
सर	-403
िका	-404
▁अं	-405
▁जन	-406
▁पार्	-407
मार	-408
▁गां	-409
▁लिया	-410
▁राज्य	-411
ूल	-412
ोल	-413
▁जु	-414
वारा	-415
▁व्य	-416
ज़	-417
एस	-418
ारा	-419
▁हुआ	-420
▁दिल्ली	-421
्ल	-422
▁विक	-423
▁नाम	-424
▁प्रति	-425
▁करें	-426
सान	-427
▁फिल्म	-428
म्म	-429
▁शिक	-430
▁हर	-431
▁उनके	-432
द्ध	-433
▁अभ	-434
▁चुना	-435
▁रूप	-436
▁द्वारा	-437
▁आरो	-438
चा	-439
▁घर	-440
▁जाने	-441
▁कह	-442
▁ना	-443
▁दर्	-444
▁5	-445
बंध	-446
▁शाम	-447
▁शुरू	-448
▁सह	-449
▁टीम	-450
▁इं	-451
▁उन्हें	-452
▁रख	-453
▁बीच	-454
रोना	-455
▁खिला	-456
▁ग्र	-457
▁लग	-458
यर	-459
चार	-460
▁बु	-461
फी	-462
▁कोरोना	-463
▁होगा	-464
▁महिला	-465
▁4	-466
▁यु	-467
च्च	-468
दार	-469
▁आज	-470
्यक्ष	-471
क्रम	-472
▁'	-473
▁दूस	-474
▁मुख्य	-475
▁लाख	-476
▁पु	-477
ून	-478
▁कै	-479
जर	-480
र्स	-481
स्प	-482
▁अम	-483
▁निक	-484
▁पै	-485
▁बन	-486
▁खु	-487
▁हा	-488
▁कांग	-489
▁तै	-490
▁सकता	-491
▁चुनाव	-492
▁पि	-493
एं	-494
▁जानकारी	-495
लय	-496
▁स्थित	-497
▁वर्ष	-498
ीड	-499
धार	-500
लों	-501
▁आई	-502
▁जाता	-503
▁वहीं	-504
िले	-505
▁मामले	-506
ंस	-507
▁ता	-508
▁ट्र	-509
▁जर	-510
▁फै	-511
ुत	-512
▁दोनों	-513
ब्	-514
▁एस	-515
▁चौ	-516
▁ठ	-517
हत	-518
ोक	-519
▁मैं	-520
ंक	-521
तीय	-522
▁करना	-523
▁जाएगा	-524
▁कांग्रेस	-525
ेज	-526
क्स	-527
▁एवं	-528
वन	-529
▁मान	-530
▁यहां	-531
▁201	-532
्यों	-533
ारे	-534
▁जै	-535
क्ट	-536
▁बैठ	-537
दे	-538
वाई	-539
▁रुपये	-540
प्	-541
िम	-542
्रीय	-543
▁पास	-544
▁झ	-545
भाग	-546
वाद	-547
जू	-548
टा	-549
▁गु	-550
▁करोड़	-551
▁कुमार	-552
▁तीन	-553
▁वाली	-554
आई	-555
ोर	-556
ताओं	-557
हार	-558
्यादा	-559
शी	-560
▁छा	-561
ोर्ट	-562
▁कारण	-563
ेर	-564
दान	-565
▁दि	-566
▁फिर	-567
▁पूर्व	-568
टना	-569
▁सुर	-570
▁पार्टी	-571
▁वै	-572
क्ति	-573
▁जारी	-574
▁सबसे	-575
धिक	-576
▁अव	-577
▁बद	-578
▁लि	-579
▁क्र	-580
▁जांच	-581
ांच	-582
ोजना	-583
▁गांव	-584
पर	-585
▁मांग	-586
▁कॉ	-587
▁सकते	-588
▁शामिल	-589
लो	-590
ेशन	-591
▁6	-592
सार	-593
ियां	-594
▁राम	-595
▁चाहिए	-596
नि	-597
र्थ	-598
ूम	-599
▁कंप	-600
▁तैय	-601
▁जिला	-602
▁ज्यादा	-603
था	-604
ीस	-605
▁ऐसे	-606
णा	-607
▁मोदी	-608
▁अध्यक्ष	-609
च्छ	-610
ायर	-611
▁अग	-612
दि	-613
▁किए	-614
ूं	-615
क्टर	-616
▁अन्य	-617
▁इससे	-618
▁किसान	-619
▁भारतीय	-620
▁उसे	-621
▁उसके	-622
▁विभाग	-623
धी	-624
▁‘	-625
▁आरोप	-626
▁महा	-627
्यालय	-628
▁जिले	-629
▁राष्ट	-630
ज्	-631
▁-	-632
चना	-633
ायत	-634
▁ओर	-635
▁गो	-636
प्र	-637
▁10	-638
▁विश्	-639
▁हजार	-640
ेंगे	-641
▁बच्च	-642
▁दा	-643
▁आए	-644
फ्त	-645
▁ली	-646
▁इसी	-647
▁काफी	-648
ोष	-649
ंदी	-650
सभा	-651
▁डॉ	-652
▁प्रधान	-653
ंबर	-654
न्न	-655
ामी	-656
ियो	-657
त्रा	-658
▁बहुत	-659
▁श्री	-660
▁गिर	-661
▁उनकी	-662
▁देने	-663
▁प्रत	-664
योग	-665
ैन	-666
जपा	-667
ुक	-668
▁खिलाफ	-669
ंब	-670
▁पद	-671
कर्	-672
▁बारे	-673
▁मंत्री	-674
र्ड	-675
▁होगी	-676
ंत	-677
▁:	-678
वान	-679
ाली	-680
ाया	-681
▁सद	-682
▁स्व	-683
ारियों	-684
▁भाजपा	-685
ुरु	-686
▁नी	-687
▁यू	-688
▁आने	-689
▁शिक्ष	-690
▁आर	-691
▁सामने	-692
गत	-693
द्य	-694
▁डी	-695
▁शु	-696
ार्ड	-697
▁क्यों	-698
इन	-699
वास	-700
▁स्क	-701
स्तान	-702
भाव	-703
ासन	-704
▁मौत	-705
ताल	-706
▁आपको	-707
धा	-708
रण	-709
ूट	-710
ेंट	-711
▁बो	-712
▁पांच	-713
▁खा	-714
▁न्यू	-715
▁प्रश	-716
▁अगर	-717
▁19	-718
▁अभी	-719
▁नई	-720
▁इला	-721
▁दिए	-722
▁अस्प	-723
▁योजना	-724
शे	-725
र्ण	-726
▁पूरी	-727
मु	-728
▁स्वा	-729
▁उत्तर	-730
ेंद	-731
▁जि	-732
ीक्षा	-733
म्	-734
▁ई	-735
पाल	-736
▁निय	-737
▁रिप	-738
ाज	-739
▁पिछ	-740
▁दर्ज	-741
आर	-742
लग	-743
दर्	-744
▁चे	-745
▁तथा	-746
िज	-747
ृत	-748
▁7	-749
...	-750
▁कप	-751
ांकि	-752
▁विध	-753
▁अपना	-754
▁हालांकि	-755
ध्य	-756
स्था	-757
▁करी	-758
▁चला	-759
रीज	-760
ख्या	-761
▁नगर	-762
▁बंद	-763
▁मार्	-764
▁8	-765
करण	-766
▁वो	-767
▁अला	-768
▁होता	-769
ेड	-770
▁उठ	-771
▁सफ	-772
निया	-773
▁याद	-774
▁विकास	-775
पू	-776
▁इंड	-777
जह	-778
▁बल्	-779
▁अनुसार	-780
▁चार	-781
▁आयोज	-782
▁घटना	-783
▁संबंध	-784
जूद	-785
वासी	-786
▁मैच	-787
▁रिपोर्ट	-788
▁मुख्यमंत्री	-789
वल	-790
जय	-791
ंगे	-792
्ला	-793
▁शा	-794
▁पढ़	-795
▁क्या	-796
ीर	-797
बाद	-798
्रा	-799
▁इसे	-800
▁करीब	-801
▁बैठक	-802
▁होती	-803
▁इसमें	-804
▁वजह	-805
▁विश्व	-806
▁केंद्र	-807
ोन	-808
ंगल	-809
ताब	-810
र्फ	-811
▁बॉ	-812
▁शहर	-813
▁प्रधानमंत्री	-814
लिए	-815
▁मन	-816
▁लड़	-817
▁व्यव	-818
▁अलावा	-819
क्सी	-820
ाला	-821
▁टे	-822
▁मद	-823
त्या	-824
▁बड़ी	-825
▁कान	-826
▁जीत	-827
▁अच्छ	-828
▁तैयार	-829
ेत	-830
▁।	-831
▁आग	-832
▁आम	-833
▁डे	-834
ुक्त	-835
▁संग	-836
▁पिछले	-837
▁स्थिति	-838
▁मज	-839
▁नेता	-840
▁जग	-841
▁अस्पताल	-842
तार	-843
▁12	-844
▁जबकि	-845
▁छात्र	-846
ीद	-847
्याप	-848
▁घोष	-849
▁फैस	-850
▁प्रा	-851
▁निर्देश	-852
र्च	-853
▁पंच	-854
फ्तार	-855
▁पानी	-856
डा	-857
बह	-858
र्चा	-859
▁खेल	-860
▁पड़	-861
▁उम्म	-862
▁मिले	-863
ंज	-864
ज्ञ	-865
स्क	-866
स्ता	-867
▁कर्म	-868
▁रुपए	-869
▁दिनों	-870
डे	-871
त्म	-872
▁गा	-873
▁202	-874
▁ऐसा	-875
▁बजे	-876
▁बैं	-877
▁अफ	-878
मारी	-879
▁इसलिए	-880
▁दूसरे	-881
▁उम्मीद	-882
▁अधिकारी	-883
ोध	-884
त्व	-885
▁युव	-886
▁हों	-887
▁इसकी	-888
▁संख्या	-889
गढ़	-890
▁वा	-891
▁पत्र	-892
▁जाएगी	-893
▁सुरक्षा	-894
माण	-895
िता	-896
▁दर	-897
▁करे	-898
▁मार	-899
▁सदस	-900
▁कहना	-901
▁कंपनी	-902
▁जिसमें	-903
ियन	-904
स्ते	-905
▁जिन	-906
▁सकती	-907
▁क्योंकि	-908
▁डि	-909
▁आगे	-910
▁फीस	-911
ची	-912
दन	-913
खंड	-914
शेष	-915
▁जहां	-916
▁रहने	-917
▁बनाने	-918
हन	-919
र्य	-920
ष्ठ	-921
▁पं	-922
▁रेल	-923
▁परीक्षा	-924
▁मत	-925
▁लोक	-926
▁हूं	-927
▁जनता	-928
▁थाना	-929
▁किसानों	-930
ायक	-931
ियर	-932
▁भर	-933
▁तहत	-934
▁नजर	-935
▁मंद	-936
▁सुबह	-937
▁विधान	-938
▁कार्यक्रम	-939
मत	-940
राज	-941
▁खान	-942
▁दें	-943
▁जरूर	-944
▁लेने	-945
▁विशेष	-946
सल	-947
▁नए	-948
क्षण	-949
मेंट	-950
▁बेह	-951
▁मिला	-952
▁मिली	-953
▁स्कूल	-954
▁हिंदी	-955
मिक	-956
▁बस	-957
▁मीड	-958
▁आधार	-959
▁कोर्ट	-960
कान	-961
▁निवासी	-962
▁परिवार	-963
▁9	-964
▁ऊ	-965
वीर	-966
▁ऑफ	-967
▁नौ	-968
▁सच	-969
ार्थ	-970
▁कुल	-971
▁पाकि	-972
धि	-973
▁15	-974
▁मही	-975
▁जाती	-976
▁प्रदर्	-977
▁मीडिया	-978
इक	-979
▁कृ	-980
▁डा	-981
▁रे	-982
▁मंदिर	-983
▁मुताब	-984
फ्	-985
चित	-986
वरी	-987
▁जगह	-988
▁लगे	-989
▁जैसे	-990
▁प्रो	-991
▁स्वास्थ	-992
ar	-993
सम	-994
्‍	-995
तिक	-996
ूरी	-997
▁पता	-998
▁हाथ	-999
▁मुताबिक	-1000
ालय	-1001
▁बच	-1002
▁सौ	-1003
▁खरी	-1004
▁मरीज	-1005
▁सूचना	-1006
▁योग	-1007
▁सड़	-1008
▁करता	-1009
▁हत्या	-1010
▁संक्रम	-1011
झे	-1012
विड	-1013
▁आत	-1014
▁मौके	-1015
▁वहां	-1016
▁स्वास्थ्य	-1017
एन	-1018
शि	-1019
▁11	-1020
▁नर	-1021
▁बर	-1022
▁मि	-1023
▁वीड	-1024
▁सीट	-1025
▁न्या	-1026
▁पहली	-1027
▁पूरा	-1028
▁बाहर	-1029
▁करेंगे	-1030
ट्	-1031
यन	-1032
ीय	-1033
ेंस	-1034
▁उनका	-1035
▁गिरफ्तार	-1036
▁एम	-1037
▁पो	-1038
▁इसका	-1039
▁वायर	-1040
इट	-1041
टे	-1042
हम	-1043
वेश	-1044
िति	-1045
▁शे	-1046
▁ब्र	-1047
▁शर्	-1048
▁स्प	-1049
▁गुरु	-1050
▁पूरे	-1051
▁सेवा	-1052
▁होते	-1053
▁वीडियो	-1054
▁विधानसभा	-1055
शा	-1056
▁जे	-1057
▁आदि	-1058
▁रात	-1059
▁चर्चा	-1060
▁प्रशासन	-1061
▁लॉ	-1062
▁वाह	-1063
्रवाई	-1064
▁बैंक	-1065
▁जिससे	-1066
▁पहुंचे	-1067
▁कार्रवाई	-1068
-1	-1069
श्म	-1070
▁आस	-1071
▁नोट	-1072
▁वाप	-1073
यी	-1074
नाथ	-1075
ल्ड	-1076
▁खे	-1077
▁जल्	-1078
▁बुध	-1079
▁यादव	-1080
▁मंत्र	-1081
एल	-1082
बू	-1083
शल	-1084
ायल	-1085
▁इत	-1086
▁पे	-1087
ाप्त	-1088
ार्ट	-1089
▁अलग	-1090
▁खबर	-1091
▁खुद	-1092
▁मदद	-1093
▁पंचायत	-1094
ात	-1095
मुख	-1096
स्या	-1097
▁भाग	-1098
▁उसकी	-1099
▁जिसके	-1100
▁बिहार	-1101
▁बच्चों	-1102
तन	-1103
माल	-1104
राब	-1105
ेंड	-1106
▁ची	-1107
▁जल	-1108
ियान	-1109
▁समझ	-1110
▁बड़े	-1111
द्यालय	-1112
▁राजनी	-1113
▁राष्ट्र	-1114
▁14	-1115
▁तब	-1116
▁उपल	-1117
▁श्र	-1118
यास	-1119
▁एन	-1120
▁गि	-1121
▁पाल	-1122
▁परेश	-1123
▁मध्य	-1124
▁युवक	-1125
▁व्याप	-1126
▁स्थान	-1127
▁शिक्षा	-1128
▁व्यक्ति	-1129
▁राष्ट्रीय	-1130
रि	-1131
काश	-1132
िने	-1133
▁गं	-1134
ामीण	-1135
▁दिख	-1136
▁सर्	-1137
▁सोम	-1138
▁विरो	-1139
▁सम्म	-1140
▁सवाल	-1141
▁सहित	-1142
▁हिस्	-1143
▁कोविड	-1144
▁मिलने	-1145
▁सिर्फ	-1146
▁ग्रामीण	-1147
ॉल	-1148
▁ढ	-1149
काल	-1150
▁मंड	-1151
▁न्यूज़	-1152
▁महिलाओं	-1153
▁पाकिस्तान	-1154
▁अधिकारियों	-1155
चान	-1156
▁शिव	-1157
▁ट्रे	-1158
▁गांधी	-1159
▁फीसदी	-1160
▁मौजूद	-1161
▁प्रदर्शन	-1162
an	-1163
मे	-1164
▁रन	-1165
▁शि	-1166
रिया	-1167
▁आया	-1168
▁उसने	-1169
▁जीवन	-1170
▁बढ़ा	-1171
▁आरोपी	-1172
▁उपलब्	-1173
▁मामला	-1174
▁लगाया	-1175
▁सदस्य	-1176
▁बुधवार	-1177
▁सोमवार	-1178
बे	-1179
यू	-1180
षि	-1181
ंगा	-1182
तरा	-1183
लाई	-1184
वाब	-1185
श्य	-1186
हरी	-1187
▁गै	-1188
▁बज	-1189
▁कभी	-1190
▁तरफ	-1191
▁हाई	-1192
स्थान	-1193
▁फैसला	-1194
in	-1195
गम	-1196
ंदर	-1197
लेज	-1198
ैंड	-1199
र्ती	-1200
▁रवि	-1201
▁चुकी	-1202
▁देते	-1203
▁निर्माण	-1204
एफ	-1205
टन	-1206
ंटे	-1207
िये	-1208
्यान	-1209
▁करा	-1210
▁सके	-1211
▁सुन	-1212
▁मंगल	-1213
▁वाला	-1214
▁महीने	-1215
▁दुनिया	-1216
▁व्यवस्था	-1217
ेम	-1218
रिक	-1219
हरा	-1220
▁वित	-1221
▁मुझे	-1222
▁समस्या	-1223
ंबई	-1224
ग्र	-1225
पति	-1226
र्क	-1227
▁रि	-1228
▁पुर	-1229
▁भूम	-1230
▁रोक	-1231
▁इंटर	-1232
▁होंगे	-1233
▁इंडिया	-1234
▁,	-1235
ल्प	-1236
▁अर	-1237
▁ते	-1238
▁वन	-1239
▁शी	-1240
▁राय	-1241
▁शनि	-1242
▁करती	-1243
▁गेंद	-1244
▁चलते	-1245
▁जाना	-1246
▁युवा	-1247
▁बाजार	-1248
▁अभियान	-1249
उन	-1250
▁लख	-1251
त्री	-1252
▁पेश	-1253
▁लाभ	-1254
▁अमेर	-1255
▁आपके	-1256
▁कराने	-1257
▁दूसरी	-1258
▁लगातार	-1259
▁30	-1260
....	-1261
▁राह	-1262
▁चुके	-1263
▁पीएम	-1264
▁शादी	-1265
▁समाज	-1266
▁कराया	-1267
▁उपलब्ध	-1268
▁शिकायत	-1269
कत	-1270
ग्	-1271
णी	-1272
वत	-1273
सि	-1274
ुआ	-1275
यों	-1276
स्‍	-1277
▁25	-1278
▁चि	-1279
▁चिक	-1280
▁दिव	-1281
▁करके	-1282
▁क्रिक	-1283
▁शर्मा	-1284
▁प्रभाव	-1285
जल	-1286
टक	-1287
बल	-1288
मो	-1289
शत	-1290
षण	-1291
भीर	-1292
▁कल	-1293
▁क्	-1294
▁धन	-1295
क्शन	-1296
▁नियम	-1297
▁जरूरत	-1298
▁शुक्र	-1299
▁प्रमुख	-1300
▁नरेंद्र	-1301
भग	-1302
ैल	-1303
िकल	-1304
▁जय	-1305
▁भे	-1306
▁शाह	-1307
▁चुका	-1308
▁जाते	-1309
▁घोषणा	-1310
▁रेलवे	-1311
▁शनिवार	-1312
ठन	-1313
▁ज़	-1314
ंद्र	-1315
दारी	-1316
▁पूछ	-1317
▁माल	-1318
▁रखा	-1319
▁मुंबई	-1320
▁प्रयास	-1321
काब	-1322
रों	-1323
▁दल	-1324
▁दूर	-1325
न्द्र	-1326
▁जल्द	-1327
▁नंबर	-1328
▁विधायक	-1329
जि	-1330
पु	-1331
▁"	-1332
िनि	-1333
▁पेट	-1334
▁आतंक	-1335
▁कीमत	-1336
▁बड़ा	-1337
▁लगभग	-1338
▁समिति	-1339
▁सरकारी	-1340
▁मंगलवार	-1341
20	-1342
▁आव	-1343
लाइन	-1344
विधा	-1345
▁कर्	-1346
▁लाल	-1347
▁उसका	-1348
▁छोड़	-1349
▁बिना	-1350
▁वापस	-1351
▁सड़क	-1352
धिकारी	-1353
▁गंभीर	-1354
▁ध्यान	-1355
षा	-1356
ांस	-1357
्रम	-1358
▁पक	-1359
▁लौ	-1360
▁खास	-1361
▁तेज	-1362
▁मेड	-1363
▁रिक	-1364
▁संप	-1365
▁केवल	-1366
▁जवाब	-1367
▁राशि	-1368
▁चिकित	-1369
▁निकाल	-1370
▁वालों	-1371
यान	-1372
वाह	-1373
हाय	-1374
ानि	-1375
▁आद	-1376
▁तय	-1377
▁अहम	-1378
▁चाल	-1379
▁जेल	-1380
▁दिल	-1381
▁विप	-1382
▁सोशल	-1383
▁होना	-1384
▁दुकान	-1385
▁वैक्सी	-1386
जु	-1387
तम	-1388
लब	-1389
ूह	-1390
ोस	-1391
▁P	-1392
ोरी	-1393
▁उम	-1394
▁पीछ	-1395
▁माह	-1396
▁सप्	-1397
▁साफ	-1398
पूर्ण	-1399
स्ट्र	-1400
▁अंतर	-1401
▁पक्ष	-1402
▁यूपी	-1403
▁लिखा	-1404
▁इस्ते	-1405
▁बनाया	-1406
▁इस्तेमाल	-1407
फा	-1408
000	-1409
▁फर	-1410
▁शव	-1411
▁तौर	-1412
▁यही	-1413
▁एक्स	-1414
▁कार्ड	-1415
▁भर्ती	-1416
▁विरोध	-1417
▁आयोजित	-1418
ूप	-1419
ूब	-1420
ेस	-1421
बार	-1422
ियम	-1423
ूर्	-1424
▁अति	-1425
▁कमी	-1426
▁डाल	-1427
▁तस्	-1428
▁मना	-1429
▁संय	-1430
▁कृषि	-1431
▁देखा	-1432
▁मुकाब	-1433
▁लगाने	-1434
▁यात्रा	-1435
▁सुविधा	-1436
▁शुक्रवार	-1437
ंका	-1438
▁दौ	-1439
▁पत्	-1440
श्मीर	-1441
▁किलो	-1442
▁खरीद	-1443
▁निगम	-1444
▁बाइक	-1445
▁सहाय	-1446
▁हमारे	-1447
इल	-1448
नल	-1449
भर	-1450
षद	-1451
ुड	-1452
बंधन	-1453
लेबा	-1454
▁200	-1455
▁पार	-1456
▁भेज	-1457
▁मूल	-1458
▁सैन	-1459
▁आदेश	-1460
▁करवा	-1461
▁निकल	-1462
▁प्रभ	-1463
▁समेत	-1464
▁सीमा	-1465
▁ग्राम	-1466
▁टेस्ट	-1467
▁देखते	-1468
▁राहुल	-1469
▁रविवार	-1470
▁प्रतिशत	-1471
नर	-1472
ैक	-1473
▁C	-1474
ोटो	-1475
▁13	-1476
▁आइ	-1477
▁फ़	-1478
▁मी	-1479
क्षक	-1480
र्या	-1481
्रोल	-1482
▁कोश	-1483
स्थित	-1484
▁प्राप्त	-1485
गल	-1486
गू	-1487
ोह	-1488
िटी	-1489
जेपी	-1490
र्जी	-1491
▁पाए	-1492
▁लखन	-1493
▁सही	-1494
▁सात	-1495
▁घायल	-1496
▁सचिव	-1497
▁स्तर	-1498
▁बल्कि	-1499
▁समर्थ	-1500
▁कार्यालय	-1501
▁0	-1502
ांत	-1503
▁चा	-1504
▁थीं	-1505
▁लक्ष	-1506
▁चाहते	-1507
▁बल्लेबा	-1508
▁कार्यकर्	-1509
कु	-1510
भि	-1511
ॉप	-1512
▁पस	-1513
ानीय	-1514
▁बिज	-1515
▁बेट	-1516
▁स्थानीय	-1517
at	-1518
ताह	-1519
मति	-1520
र्ष	-1521
वुड	-1522
▁18	-1523
▁50	-1524
▁गल	-1525
▁ट्	-1526
▁वृ	-1527
▁हे	-1528
▁जमा	-1529
▁तेल	-1530
▁बाल	-1531
▁मिश	-1532
▁रोज	-1533
▁आयोजन	-1534
▁उपयोग	-1535
▁सहयोग	-1536
▁राज्यों	-1537
तृ	-1538
फ़	-1539
लर	-1540
चाल	-1541
मता	-1542
▁आठ	-1543
जनों	-1544
▁एयर	-1545
▁तला	-1546
▁पति	-1547
▁2021	-1548
▁उत्पा	-1549
▁पोस्ट	-1550
▁बारिश	-1551
▁नेताओं	-1552
▁सम्मान	-1553
कट	-1554
धे	-1555
▁B	-1556
ंदा	-1557
न्द	-1558
ैंप	-1559
▁ज्	-1560
ड़ों	-1561
स्ती	-1562
▁उल्	-1563
▁सफल	-1564
क्षित	-1565
▁आयोग	-1566
▁बनाए	-1567
▁लखनऊ	-1568
▁कानून	-1569
▁वायरस	-1570
▁विवाद	-1571
▁तस्वीर	-1572
▁बीजेपी	-1573
▁उम्मीदवार	-1574
▁R	-1575
केट	-1576
गार	-1577
▁24	-1578
धानी	-1579
वेदन	-1580
▁अंत	-1581
▁बंग	-1582
▁मिन	-1583
▁हाद	-1584
द्योग	-1585
▁जिसे	-1586
▁बदला	-1587
▁शेयर	-1588
▁कोशिश	-1589
▁देखने	-1590
▁सूत्र	-1591
▁न्याया	-1592
▁मामलों	-1593
धन	-1594
▁–	-1595
खिल	-1596
▁16	-1597
▁एज	-1598
▁टै	-1599
▁रै	-1600
ांति	-1601
▁ऐसी	-1602
▁टिक	-1603
▁लिख	-1604
लीवुड	-1605
स्ताव	-1606
▁अवसर	-1607
▁पीछे	-1608
▁माना	-1609
▁सामान	-1610
▁जाएंगे	-1611
▁संक्रमण	-1612
ंख	-1613
▁A	-1614
▁कट	-1615
▁रु	-1616
बाइल	-1617
▁गयी	-1618
▁जमी	-1619
▁बदल	-1620
▁हास	-1621
ज्ञान	-1622
नलाइन	-1623
▁घंटे	-1624
▁ताकि	-1625
▁दिखा	-1626
▁पंजा	-1627
▁पीड़	-1628
▁बयान	-1629
▁मुद्	-1630
▁हमने	-1631
▁जुड़े	-1632
▁जुलाई	-1633
ेंद्रीय	-1634
▁प्रकार	-1635
▁मरीजों	-1636
▁क्रिकेट	-1637
▁गुरुवार	-1638
चे	-1639
फे	-1640
ेक	-1641
करी	-1642
शनल	-1643
▁ति	-1644
वादी	-1645
▁अर्	-1646
▁जन्	-1647
▁तीस	-1648
▁मां	-1649
▁तेजी	-1650
▁पसंद	-1651
▁रखने	-1652
▁सांस	-1653
▁सीएम	-1654
▁कॉलेज	-1655
▁हासिल	-1656
▁प्रदान	-1657
▁मेडिकल	-1658
▁मोबाइल	-1659
भव	-1660
ीक	-1661
त्त	-1662
हाल	-1663
िशा	-1664
▁मई	-1665
द्धि	-1666
▁उठा	-1667
▁लगी	-1668
▁संघ	-1669
▁सित	-1670
▁अप्र	-1671
▁कैसे	-1672
▁पिता	-1673
▁फोटो	-1674
▁हमें	-1675
▁संगठन	-1676
▁हिस्सा	-1677
▁केंद्रीय	-1678
▁प्रस्ताव	-1679
▁मंत्रालय	-1680
ड्	-1681
लू	-1682
ील	-1683
ंगी	-1684
तिम	-1685
▁17	-1686
▁23	-1687
▁अद	-1688
श्यक	-1689
▁बजट	-1690
▁बने	-1691
▁रोड	-1692
▁सिल	-1693
▁इलाज	-1694
▁एक्ट	-1695
▁वाहन	-1696
▁विभि	-1697
▁बोर्ड	-1698
▁शुरुआ	-1699
▁छात्रों	-1700
▁राजस्थान	-1701
जों	-1702
हित	-1703
▁छह	-1704
चारी	-1705
▁ब्ल	-1706
न्हें	-1707
मार्ट	-1708
▁जागर	-1709
▁दुर्	-1710
▁नागर	-1711
▁सेना	-1712
▁बच्चे	-1713
▁आवश्यक	-1714
▁अमेरिका	-1715
▁वैक्सीन	-1716
on	-1717
झा	-1718
पन	-1719
▁M	-1720
ंडी	-1721
राव	-1722
ूबर	-1723
▁ती	-1724
▁भग	-1725
िलों	-1726
▁गौर	-1727
▁ड्र	-1728
▁दाम	-1729
▁भाई	-1730
▁मृत	-1731
▁दक्ष	-1732
▁पर्य	-1733
▁हमला	-1734
▁अभिने	-1735
▁बिजली	-1736
▁सप्ताह	-1737
ठी	-1738
मन	-1739
ुट	-1740
गंज	-1741
दों	-1742
पास	-1743
फ्ट	-1744
श्च	-1745
ष्य	-1746
▁एड	-1747
▁शो	-1748
ितों	-1749
▁असर	-1750
▁गति	-1751
▁यदि	-1752
▁पड़ा	-1753
▁जरूरी	-1754
▁निर्ण	-1755
▁मैंने	-1756
▁परेशान	-1757
▁प्रकाश	-1758
▁पेट्रोल	-1759
▁प्रतिनि	-1760
▁बॉलीवुड	-1761
काउ	-1762
रीब	-1763
लाह	-1764
वीं	-1765
ुओं	-1766
▁आख	-1767
▁तम	-1768
▁पट	-1769
▁सल	-1770
कर्म	-1771
▁आंक	-1772
▁क्ल	-1773
▁खूब	-1774
▁चीन	-1775
▁चुन	-1776
▁निश	-1777
▁वोट	-1778
▁सें	-1779
स्कार	-1780
▁अगले	-1781
▁परिव	-1782
▁वक्त	-1783
क्रिया	-1784
▁अच्छा	-1785
▁पंजाब	-1786
▁बेहतर	-1787
▁संवाद	-1788
▁ऑनलाइन	-1789
▁नागरिक	-1790
विद्यालय	-1791
एच	-1792
दम	-1793
▁S	-1794
स्ल	-1795
ांड	-1796
▁ख़	-1797
▁खो	-1798
▁तु	-1799
▁मश	-1800
▁नुक	-1801
▁फोन	-1802
▁बनी	-1803
▁विष	-1804
▁समु	-1805
▁खर्च	-1806
▁हमले	-1807
▁हालत	-1808
ड़ियों	-1809
▁अंतिम	-1810
▁परिषद	-1811
▁विपक्ष	-1812
▁विभिन्न	-1813
▁प्रक्रिया	-1814
इस	-1815
फर	-1816
मर	-1817
-19	-1818
तरी	-1819
दाय	-1820
स्व	-1821
्यो	-1822
्ले	-1823
▁हॉ	-1824
क्ता	-1825
ड़ने	-1826
त्ता	-1827
त्ति	-1828
वजूद	-1829
▁100	-1830
▁चरण	-1831
▁जून	-1832
▁दिस	-1833
▁हार	-1834
▁इतना	-1835
▁कंपन	-1836
▁टीका	-1837
▁देशों	-1838
▁पहचान	-1839
▁बदलाव	-1840
▁मार्ग	-1841
▁प्रवेश	-1842
▁वर्षीय	-1843
▁परिजनों	-1844
▁प्रभारी	-1845
▁कर्मचारी	-1846
▁प्रभावित	-1847
or	-1848
क़	-1849
ूक	-1850
▁I	-1851
▁“	-1852
चीत	-1853
ष्ण	-1854
▁अल	-1855
▁एल	-1856
▁रण	-1857
िक्ष	-1858
▁ठीक	-1859
▁मजद	-1860
▁सभा	-1861
धियों	-1862
▁खुला	-1863
▁नेतृ	-1864
▁मौसम	-1865
▁अगस्त	-1866
▁मैदान	-1867
▁विचार	-1868
▁अधिकार	-1869
▁बातचीत	-1870
▁बावजूद	-1871
▁भूमिका	-1872
▁लोकसभा	-1873
▁राष्ट्रपति	-1874
दू	-1875
्व	-1876
देव	-1877
व्य	-1878
सिक	-1879
हान	-1880
▁अस	-1881
▁घा	-1882
▁भो	-1883
▁वी	-1884
▁छोट	-1885
▁ज्ञ	-1886
▁देव	-1887
▁फाइ	-1888
▁जमीन	-1889
▁दिला	-1890
▁पाया	-1891
▁बेहद	-1892
▁मिनट	-1893
▁विजय	-1894
▁सर्व	-1895
▁होकर	-1896
▁अच्छी	-1897
▁आवेदन	-1898
▁दक्षि	-1899
▁महत्व	-1900
▁विद्य	-1901
▁संचाल	-1902
चारियों	-1903
▁छात्रा	-1904
▁संयुक्त	-1905
▁राजनीतिक	-1906
कल	-1907
टल	-1908
ूड	-1909
ौन	-1910
तों	-1911
धरी	-1912
ामा	-1913
ृति	-1914
ोजन	-1915
किंग	-1916
प्री	-1917
ित्र	-1918
▁केस	-1919
▁कोल	-1920
▁गर्	-1921
▁मोह	-1922
▁यून	-1923
▁अपरा	-1924
▁दावा	-1925
▁धर्म	-1926
▁प्ला	-1927
▁भारी	-1928
▁भेजा	-1929
▁लागू	-1930
▁कश्मीर	-1931
▁डॉक्टर	-1932
▁तैयारी	-1933
▁नुकसान	-1934
▁नेतृत्व	-1935
▁महामारी	-1936
▁क्षेत्रों	-1937
er	-1938
चर	-1939
थि	-1940
सन	-1941
ृह	-1942
▁H	-1943
टने	-1944
त्स	-1945
न्‍	-1946
वनी	-1947
िली	-1948
ेशा	-1949
्ता	-1950
ग्री	-1951
स्टर	-1952
▁अफग	-1953
▁आते	-1954
▁इंत	-1955
▁चयन	-1956
▁तभी	-1957
▁तरी	-1958
▁दोप	-1959
▁वरि	-1960
▁अदाल	-1961
▁पूजा	-1962
▁समूह	-1963
▁स्वी	-1964
ध्यक्ष	-1965
▁जिम्म	-1966
▁भगवान	-1967
▁माध्य	-1968
▁समर्थन	-1969
▁मुकाबले	-1970
ंघ	-1971
िक्	-1972
▁गठ	-1973
▁दू	-1974
▁नव	-1975
▁पॉ	-1976
न्ना	-1977
▁आवा	-1978
▁रंग	-1979
धिकार	-1980
रिक्त	-1981
▁सलाह	-1982
▁दोस्त	-1983
▁नोटिस	-1984
▁पढ़ें	-1985
▁पत्नी	-1986
▁विकेट	-1987
▁दिसंबर	-1988
▁निर्णय	-1989
▁पहुंची	-1990
▁मिलेगा	-1991
▁वरिष्ठ	-1992
▁राजधानी	-1993
al	-1994
घा	-1995
रु	-1996
लि	-1997
केश	-1998
त्य	-1999
रात	-2000
चिका	-2001
▁ऊपर	-2002
▁कदम	-2003
▁2020	-2004
▁अंदर	-2005
▁टिकट	-2006
▁पहला	-2007
▁मुश्	-2008
▁शराब	-2009
▁जनवरी	-2010
▁दोपहर	-2011
▁पुत्र	-2012
▁रहेगा	-2013
▁सुधार	-2014
▁हमेशा	-2015
▁हादसे	-2016
▁अतिरिक्त	-2017
▁ग्रामीणों	-2018
▁कर्मचारियों	-2019
डल	-2020
तक	-2021
यं	-2022
ंसा	-2023
जाम	-2024
दीप	-2025
▁ठा	-2026
▁पौ	-2027
▁भु	-2028
क्कर	-2029
दाता	-2030
बाजी	-2031
म्मू	-2032
राने	-2033
▁कित	-2034
▁पदा	-2035
▁बचा	-2036
▁रोग	-2037
▁संत	-2038
▁साइ	-2039
श्चित	-2040
▁अपील	-2041
▁कपूर	-2042
▁कहते	-2043
▁खत्म	-2044
▁देकर	-2045
▁निजी	-2046
▁मंडल	-2047
▁मुला	-2048
▁मेरी	-2049
▁रहता	-2050
▁सफाई	-2051
▁हिंद	-2052
▁इलाके	-2053
▁करेगा	-2054
▁चौधरी	-2055
▁महारा	-2056
▁मार्च	-2057
▁शुरुआत	-2058
▁उपस्थित	-2059
▁राजनीति	-2060
▁सूत्रों	-2061
▁विश्वविद्यालय	-2062
.5	-2063
ंव	-2064
गु	-2065
चन	-2066
नो	-2067
▁N	-2068
कडा	-2069
हाँ	-2070
▁छो	-2071
वंबर	-2072
▁आता	-2073
▁आयु	-2074
▁कब्	-2075
▁चले	-2076
▁जता	-2077
▁देर	-2078
▁प्ल	-2079
▁फ्र	-2080
▁भाव	-2081
▁रिज	-2082
▁वार	-2083
▁शुभ	-2084
कडाउन	-2085
ियाणा	-2086
▁2019	-2087
▁कराई	-2088
▁कहीं	-2089
▁देता	-2090
▁मेरे	-2091
▁रहते	-2092
▁अदालत	-2093
▁एक्सप	-2094
▁जिलों	-2095
▁ट्रेन	-2096
▁शांति	-2097
▁उत्तरा	-2098
▁याचिका	-2099
▁सितंबर	-2100
ानिस्तान	-2101
▁आरोपियों	-2102
धर	-2103
सत	-2104
सू	-2105
।'	-2106
उंड	-2107
जीत	-2108
ेटी	-2109
ौती	-2110
▁60	-2111
▁जम	-2112
▁फॉ	-2113
▁मं	-2114
▁हट	-2115
ंदोल	-2116
ेंसी	-2117
▁गुप	-2118
▁साब	-2119
▁आपकी	-2120
▁आर्थ	-2121
▁उनसे	-2122
▁उम्र	-2123
▁जन्म	-2124
▁जवान	-2125
▁जाकर	-2126
▁तैना	-2127
▁थाने	-2128
▁पड़े	-2129
▁कमेटी	-2130
▁घोषित	-2131
▁चंद्र	-2132
▁देखकर	-2133
▁नवंबर	-2134
▁न्याय	-2135
▁पर्या	-2136
▁पूर्ण	-2137
▁विदेश	-2138
▁संभाव	-2139
▁अनुमति	-2140
▁शिक्षक	-2141
▁न्यायालय	-2142
ंभ	-2143
किल	-2144
णाम	-2145
ाइड	-2146
िकी	-2147
्रो	-2148
▁22	-2149
▁26	-2150
▁फी	-2151
▁मध	-2152
ॉर्ड	-2153
▁अली	-2154
▁किस	-2155
▁बोल	-2156
▁सजा	-2157
राष्ट	-2158
▁जैसी	-2159
▁पालन	-2160
▁मजबू	-2161
▁लाइन	-2162
▁आंदोल	-2163
▁जम्मू	-2164
▁दिखाई	-2165
▁भोपाल	-2166
▁सांसद	-2167
▁स्थाप	-2168
▁अप्रैल	-2169
▁जिम्मे	-2170
▁हरियाणा	-2171
▁विद्यालय	-2172
),	-2173
30	-2174
es	-2175
चल	-2176
दु	-2177
ंता	-2178
असल	-2179
क्‍	-2180
जिट	-2181
नगर	-2182
निक	-2183
न्स	-2184
ब्ल	-2185
वर्	-2186
साय	-2187
्यु	-2188
्‍य	-2189
▁40	-2190
▁घु	-2191
▁थो	-2192
▁सै	-2193
ष्टि	-2194
▁गृह	-2195
▁दीप	-2196
▁बिग	-2197
▁संस	-2198
▁साह	-2199
▁आत्म	-2200
▁गोली	-2201
▁दर्श	-2202
▁देवी	-2203
▁पश्च	-2204
▁बेटी	-2205
▁भीड़	-2206
▁संजय	-2207
▁सीबी	-2208
क्टूबर	-2209
▁आसपास	-2210
▁इनमें	-2211
▁निवेश	-2212
▁बंगाल	-2213
▁बनाकर	-2214
▁मजदूर	-2215
▁आर्थिक	-2216
▁स्टेशन	-2217
▁खिलाड़ी	-2218
▁लॉकडाउन	-2219
▁कंपनियों	-2220
di	-2221
रल	-2222
▁›	-2223
ंटी	-2224
अलग	-2225
कुल	-2226
नेट	-2227
र्प	-2228
ुल्	-2229
ेश्	-2230
▁अश	-2231
▁आन	-2232
▁आश	-2233
▁लं	-2234
तमान	-2235
त्ती	-2236
वाली	-2237
▁इंद	-2238
▁ओवर	-2239
▁टाइ	-2240
▁डाय	-2241
▁त्र	-2242
▁पें	-2243
▁बर्	-2244
▁लूट	-2245
▁वेब	-2246
▁सब्	-2247
▁उपाय	-2248
▁खड़े	-2249
▁ट्वी	-2250
▁तारी	-2251
▁लगता	-2252
▁लिये	-2253
▁संकट	-2254
▁दरअसल	-2255
▁देंगे	-2256
▁स्वयं	-2257
▁परिणाम	-2258
▁व्यक्त	-2259
▁सुनवाई	-2260
ार्थियों	-2261
▁महत्वपूर्ण	-2262
वै	-2263
▁ऋ	-2264
ंकी	-2265
ंडल	-2266
बोध	-2267
विक	-2268
वें	-2269
साद	-2270
▁गौ	-2271
▁दस	-2272
▁नो	-2273
विंद	-2274
िएशन	-2275
ुरुष	-2276
▁एंड	-2277
▁कला	-2278
▁कही	-2279
▁गलत	-2280
▁फुट	-2281
▁शान	-2282
▁सिर	-2283
ूर्ति	-2284
ेलिया	-2285
▁अग्र	-2286
▁देना	-2287
▁पैसे	-2288
▁मौका	-2289
▁रिश्	-2290
▁लाने	-2291
▁विषय	-2292
▁सुना	-2293
▁पुरुष	-2294
▁सलमान	-2295
▁आंदोलन	-2296
▁पहुंचा	-2297
▁फिलहाल	-2298
▁माध्यम	-2299
▁अक्टूबर	-2300
)।	-2301
ताछ	-2302
यात	-2303
ल्स	-2304
िटल	-2305
्टी	-2306
▁1.	-2307
▁धो	-2308
,000	-2309
चानक	-2310
वाना	-2311
ेंडर	-2312
▁अंक	-2313
▁गैस	-2314
▁घरे	-2315
▁चोट	-2316
▁जोर	-2317
▁पां	-2318
▁फाय	-2319
पोर्ट	-2320
ारखंड	-2321
▁एसोस	-2322
▁गरीब	-2323
▁चोरी	-2324
▁तलाश	-2325
▁प्रव	-2326
▁प्ले	-2327
▁यानी	-2328
▁राहत	-2329
▁स्थल	-2330
▁अचानक	-2331
▁तीनों	-2332
▁पड़ता	-2333
▁वायरल	-2334
▁क्षमता	-2335
▁पूछताछ	-2336
▁चिकित्स	-2337
▁मुश्किल	-2338
▁वर्तमान	-2339
▁व्यापार	-2340
▁उत्तराखंड	-2341
▁अफगानिस्तान	-2342
ad	-2343
me	-2344
पो	-2345
ीत	-2346
ौल	-2347
▁D	-2348
ंकर	-2349
फिक	-2350
मैन	-2351
राह	-2352
िसर	-2353
▁घट	-2354
▁बल	-2355
ंदगी	-2356
तिहा	-2357
वानी	-2358
वाही	-2359
ार्ज	-2360
िक्र	-2361
▁उद्	-2362
▁कमल	-2363
▁किन	-2364
▁कैं	-2365
▁दबा	-2366
▁दवा	-2367
▁नही	-2368
▁भवि	-2369
▁सपा	-2370
काउंट	-2371
▁खाने	-2372
▁जाये	-2373
▁टीवी	-2374
▁ट्रक	-2375
▁बनाई	-2376
▁लगाए	-2377
▁सुपर	-2378
▁जिसका	-2379
▁पार्क	-2380
▁मजबूत	-2381
▁वार्ड	-2382
▁दक्षिण	-2383
▁बढ़ाने	-2384
▁बीमारी	-2385
▁वृद्धि	-2386
▁टीकाकरण	-2387
▁संबंधित	-2388
▁संभावना	-2389
▁समीक्षा	-2390
▁सुरक्षित	-2391
स्ट्रेलिया	-2392
इड	-2393
ण्	-2394
।"	-2395
कृत	-2396
र्ग	-2397
हरे	-2398
ेंज	-2399
्सा	-2400
▁35	-2401
▁भू	-2402
थमिक	-2403
देशक	-2404
ानों	-2405
▁काउ	-2406
▁तुल	-2407
▁नया	-2408
▁भ्र	-2409
▁लें	-2410
▁शरी	-2411
▁एसडी	-2412
▁खराब	-2413
▁चालक	-2414
▁दिशा	-2415
▁बाबा	-2416
▁बीते	-2417
▁बेटे	-2418
▁रैली	-2419
▁लगाई	-2420
▁करेगी	-2421
▁खाद्य	-2422
▁घरेलू	-2423
▁फैसले	-2424
▁मतदान	-2425
▁मास्क	-2426
▁विमान	-2427
त्रियों	-2428
▁भविष्य	-2429
▁शानदार	-2430
▁श्रद्ध	-2431
▁परेशानी	-2432
▁रिकॉर्ड	-2433
▁सामान्य	-2434
राष्ट्रीय	-2435
▁चिकित्सा	-2436
दय	-2437
राम	-2438
ामद	-2439
▁एश	-2440
▁गण	-2441
▁मर	-2442
▁लो	-2443
काता	-2444
पीएल	-2445
मीटर	-2446
सगढ़	-2447
ाचार	-2448
ारोह	-2449
▁अंग	-2450
▁गये	-2451
▁गाय	-2452
▁लौट	-2453
तंत्र	-2454
▁2018	-2455
▁उससे	-2456
▁निभा	-2457
▁निरी	-2458
▁परिय	-2459
▁बनने	-2460
▁बिल्	-2461
▁माता	-2462
▁वर्ग	-2463
▁वार्	-2464
▁शासन	-2465
▁ट्वीट	-2466
▁तरीके	-2467
▁नौकरी	-2468
▁सामना	-2469
▁सीरीज	-2470
▁हमारी	-2471
▁झारखंड	-2472
▁मिश्रा	-2473
▁रास्ते	-2474
▁समारोह	-2475
▁एसोसिएशन	-2476
▁परियोजना	-2477
▁प्राथमिक	-2478
▁अध्यक्षता	-2479
अप	-2480
थम	-2481
लम	-2482
ोश	-2483
▁J	-2484
ंतर	-2485
ट्र	-2486
द्द	-2487
नीय	-2488
माश	-2489
लाल	-2490
ांक	-2491
ापन	-2492
▁31	-2493
▁एफ	-2494
▁नक	-2495
▁पृ	-2496
▁मॉ	-2497
वाला	-2498
ियार	-2499
▁अभि	-2500
▁इन्	-2501
▁उसी	-2502
▁किश	-2503
▁तत्	-2504
▁तिव	-2505
▁मगर	-2506
▁लंब	-2507
▁लाइ	-2508
▁हड़	-2509
तियों	-2510
▁2017	-2511
▁अमित	-2512
▁अर्थ	-2513
▁उच्च	-2514
▁उत्स	-2515
▁किये	-2516
▁पैदा	-2517
▁मेरा	-2518
▁छत्ती	-2519
▁फरवरी	-2520
▁लाखों	-2521
▁संदेश	-2522
▁सहायक	-2523
▁साबित	-2524
▁सैनिक	-2525
▁गुप्ता	-2526
▁तिवारी	-2527
▁सहायता	-2528
▁सुप्री	-2529
▁पत्रकार	-2530
▁फिल्मों	-2531
▁छत्तीसगढ़	-2532
▁कार्यकर्ता	-2533
पद	-2534
पे	-2535
िग	-2536
।’	-2537
कात	-2538
कुर	-2539
ट्स	-2540
तलब	-2541
शील	-2542
सों	-2543
ियल	-2544
▁21	-2545
▁तह	-2546
▁फा	-2547
▁हथ	-2548
▁हल	-2549
क्सर	-2550
न्या	-2551
बादी	-2552
म्मद	-2553
र्जा	-2554
ाजिक	-2555
्राम	-2556
▁कले	-2557
▁काल	-2558
▁चली	-2559
▁छूट	-2560
▁फेस	-2561
▁बिक	-2562
▁भवन	-2563
▁वही	-2564
▁सोच	-2565
▁सोन	-2566
ेश्वर	-2567
▁अवधि	-2568
▁आवास	-2569
▁एसपी	-2570
▁कड़ी	-2571
▁क्रम	-2572
▁जमकर	-2573
▁दिवस	-2574
▁पटना	-2575
▁लेना	-2576
▁विरा	-2577
▁सारे	-2578
▁सूची	-2579
▁उसमें	-2580
▁कक्षा	-2581
▁तैनात	-2582
▁बरामद	-2583
▁मिलकर	-2584
▁मूल्य	-2585
▁रक्षा	-2586
▁अकाउंट	-2587
▁खुलासा	-2588
▁जिनमें	-2589
▁पीड़ित	-2590
▁प्रत्य	-2591
▁वर्षों	-2592
▁कोलकाता	-2593
▁प्रत्या	-2594
धिकारियों	-2595
▁किलोमीटर	-2596
खी	-2597
ठा	-2598
फल	-2599
यक	-2600
सो	-2601
-20	-2602
har	-2603
तौर	-2604
फोन	-2605
बुक	-2606
विर	-2607
साथ	-2608
▁लै	-2609
जूदा	-2610
वधान	-2611
साइट	-2612
ियोग	-2613
▁आंख	-2614
▁कोह	-2615
▁चढ़	-2616
▁जित	-2617
▁नदी	-2618
▁प्य	-2619
▁बहन	-2620
▁बाग	-2621
▁बिल	-2622
▁वीर	-2623
▁सम्	-2624
कर्मी	-2625
ष्ट्र	-2626
▁अखिल	-2627
▁आदमी	-2628
▁छोटे	-2629
▁जरिए	-2630
▁डॉलर	-2631
▁दौरे	-2632
▁पकड़	-2633
▁बाकी	-2634
▁सत्र	-2635
▁सार्	-2636
▁गतिवि	-2637
▁गाड़ी	-2638
▁दूसरा	-2639
▁पेंशन	-2640
▁प्रेम	-2641
▁वितरण	-2642
▁हालात	-2643
▁गौरतलब	-2644
▁मौजूदा	-2645
▁उत्पादन	-2646
▁सदस्यों	-2647
▁स्मार्ट	-2648
▁संक्रमित	-2649
▁खिलाड़ियों	-2650
.4	-2651
उस	-2652
तु	-2653
ाब	-2654
ॉक	-2655
ॉय	-2656
कील	-2657
देन	-2658
भार	-2659
ल्ट	-2660
श्न	-2661
सित	-2662
सूस	-2663
हिर	-2664
ूरत	-2665
्मी	-2666
▁27	-2667
▁पल	-2668
▁शौ	-2669
बंदी	-2670
रावट	-2671
िक्स	-2672
्रमण	-2673
▁आजा	-2674
▁जला	-2675
▁रखे	-2676
जिटिव	-2677
दारों	-2678
▁अफसर	-2679
▁आसान	-2680
▁कारो	-2681
▁तकनी	-2682
▁दुष्	-2683
▁धारा	-2684
▁निरा	-2685
▁पदों	-2686
▁योगी	-2687
▁रहती	-2688
▁लेते	-2689
प्रदेश	-2690
स्ट्री	-2691
▁चिंता	-2692
▁ठाकुर	-2693
▁प्रदू	-2694
▁प्रभा	-2695
▁प्रिय	-2696
▁बदमाश	-2697
▁रोकने	-2698
▁लड़की	-2699
▁शक्ति	-2700
▁कानपुर	-2701
▁गिरावट	-2702
▁पुरानी	-2703
▁प्रस्त	-2704
▁युवाओं	-2705
▁अग्रवाल	-2706
▁आतंकवाद	-2707
▁वेबसाइट	-2708
▁प्रशिक्ष	-2709
▁प्रतिनिधि	-2710
▁कार्यकर्ताओं	-2711
▁अंतरराष्ट्रीय	-2712
is	-2713
ra	-2714
डर	-2715
मि	-2716
ीप	-2717
जरी	-2718
रान	-2719
वरण	-2720
वेज	-2721
्रह	-2722
▁28	-2723
▁Re	-2724
▁एच	-2725
▁डर	-2726
▁नम	-2727
एसपी	-2728
्रेट	-2729
▁अजय	-2730
▁कोत	-2731
▁चौक	-2732
▁जाय	-2733
▁पाठ	-2734
▁पैर	-2735
▁फ्ल	-2736
▁मंच	-2737
▁मनी	-2738
▁मुह	-2739
▁सां	-2740
▁हटा	-2741
▁होम	-2742
कोर्ट	-2743
▁अशोक	-2744
▁आवाज	-2745
▁तमाम	-2746
▁दलों	-2747
▁नक्स	-2748
▁बुला	-2749
▁भोजन	-2750
▁अच्छे	-2751
▁चौहान	-2752
▁जानते	-2753
▁मानना	-2754
▁संबोध	-2755
▁सर्वे	-2756
▁सार्व	-2757
▁सालों	-2758
▁सेंटर	-2759
▁आरक्षण	-2760
▁एजेंसी	-2761
▁प्रसाद	-2762
▁मात्रा	-2763
▁मुलाकात	-2764
▁प्रत्येक	-2765
▁बल्लेबाज	-2766
▁एक्सप्रेस	-2767
▁यात्रियों	-2768
▁महाराष्ट्र	-2769
▁ऑस्ट्रेलिया	-2770
19	-2771
22	-2772
li	-2773
कम	-2774
खे	-2775
▁G	-2776
ंडा	-2777
कीय	-2778
दिन	-2779
नाक	-2780
लेट	-2781
सील	-2782
▁सत	-2783
सेना	-2784
स्पे	-2785
▁आती	-2786
▁निर	-2787
▁पहल	-2788
▁भरो	-2789
▁मल्	-2790
▁मुक	-2791
▁रखी	-2792
ग्राम	-2793
तिहास	-2794
▁उनको	-2795
▁क्ला	-2796
▁जाएं	-2797
▁दर्द	-2798
▁पारी	-2799
▁मकान	-2800
▁मानव	-2801
▁राजा	-2802
▁लंबे	-2803
▁शरीर	-2804
▁हवाई	-2805
क्सीजन	-2806
▁उपचार	-2807
▁चलाने	-2808
▁जिसकी	-2809
▁महसूस	-2810
▁मिलता	-2811
▁वर्मा	-2812
▁अध्याप	-2813
▁इतिहास	-2814
▁उद्योग	-2815
▁लक्ष्य	-2816
▁समुदाय	-2817
▁स्वागत	-2818
▁प्रदूषण	-2819
▁सार्वजन	-2820
ch	-2821
गो	-2822
ैध	-2823
ॉन	-2824
च्‍	-2825
म्प	-2826
लोड	-2827
वीन	-2828
ियत	-2829
▁29	-2830
▁छु	-2831
▁धर	-2832
▁मू	-2833
टीएम	-2834
त्मक	-2835
न्हा	-2836
न्‍ह	-2837
वाले	-2838
ित्य	-2839
्तान	-2840
्यता	-2841
▁199	-2842
▁कैब	-2843
▁गुज	-2844
▁चेक	-2845
▁जुट	-2846
▁जोन	-2847
▁तुर	-2848
▁शूट	-2849
▁सुल	-2850
▁स्‍	-2851
▁अनुप	-2852
▁अनुर	-2853
▁अवैध	-2854
▁इनके	-2855
▁नारा	-2856
▁पटेल	-2857
▁पाने	-2858
▁बचाव	-2859
▁रावत	-2860
▁विजे	-2861
▁आतंकी	-2862
▁आबादी	-2863
▁कोहली	-2864
▁गार्ड	-2865
▁तहसील	-2866
▁परिसर	-2867
▁प्रता	-2868
▁प्रथम	-2869
▁बीमार	-2870
▁विराट	-2871
▁सत्ता	-2872
▁सफलता	-2873
▁सिद्ध	-2874
▁सीटों	-2875
न्होंने	-2876
वासियों	-2877
▁इंतजार	-2878
▁इन्हें	-2879
▁नियमित	-2880
▁निर्वा	-2881
▁पश्चिम	-2882
▁भ्रष्ट	-2883
▁रायपुर	-2884
▁वाहनों	-2885
▁संपर्क	-2886
▁सड़कों	-2887
▁पॉजिटिव	-2888
▁सामाजिक	-2889
▁पुरस्कार	-2890
▁प्रवक्ता	-2891
▁सार्वजनिक	-2892
50	-2893
ha	-2894
उट	-2895
ह्	-2896
ेन	-2897
▁L	-2898
▁V	-2899
जिद	-2900
नाम	-2901
नाव	-2902
र्न	-2903
लेख	-2904
ाइल	-2905
▁एप	-2906
▁गे	-2907
▁टा	-2908
▁मल	-2909
▁मस	-2910
▁रज	-2911
ंग्ल	-2912
जूरी	-2913
द्दी	-2914
पुरा	-2915
विता	-2916
श्वर	-2917
▁उपा	-2918
▁कमा	-2919
▁किर	-2920
▁खुल	-2921
▁गईं	-2922
▁डेट	-2923
▁रजि	-2924
▁शही	-2925
▁सुख	-2926
िमंडल	-2927
▁अक्ष	-2928
▁अभिन	-2929
▁आपने	-2930
▁कानू	-2931
▁खेती	-2932
▁गर्म	-2933
▁ट्रै	-2934
▁डीएम	-2935
▁दबाव	-2936
▁नीचे	-2937
▁यहाँ	-2938
▁रद्द	-2939
▁लगने	-2940
▁वैसे	-2941
▁श्रे	-2942
▁आगामी	-2943
▁तुरंत	-2944
▁पांडे	-2945
▁मालिक	-2946
▁मिलते	-2947
▁शीर्ष	-2948
▁गांवों	-2949
▁चुनौती	-2950
▁नियमों	-2951
▁प्रखंड	-2952
▁फेसबुक	-2953
▁मिलेगी	-2954
▁मुद्दे	-2955
▁राजस्व	-2956
▁संस्था	-2957
▁समाप्त	-2958
........	-2959
▁मोहम्मद	-2960
▁शिक्षकों	-2961
▁उम्मीदवारों	-2962
.2	-2963
भू	-2964
रत	-2965
शु	-2966
▁>	-2967
▁T	-2968
▁|	-2969
ंटर	-2970
ंदन	-2971
ग्ग	-2972
डेट	-2973
तरे	-2974
नेश	-2975
मित	-2976
ाइन	-2977
िरी	-2978
ेलर	-2979
ैंस	-2980
▁70	-2981
▁कठ	-2982
▁मच	-2983
▁लु	-2984
एमसी	-2985
त्मा	-2986
बारा	-2987
र्डर	-2988
लैंड	-2989
वाने	-2990
ुल्क	-2991
▁अमर	-2992
▁खेत	-2993
▁डिज	-2994
▁लेख	-2995
▁शाय	-2996
▁साव	-2997
तालों	-2998
दाबाद	-2999
▁कार्	-3000
▁खतरा	-3001
▁खाना	-3002
▁खेले	-3003
▁चीनी	-3004
▁डाउन	-3005
▁दावे	-3006
▁पौधे	-3007
▁भूमि	-3008
▁मंडी	-3009
▁मारे	-3010
▁रिली	-3011
▁लॉन्	-3012
▁वकील	-3013
▁संसद	-3014
▁सवार	-3015
▁होटल	-3016
ोग्राम	-3017
▁एशिया	-3018
▁कर्ना	-3019
▁ड्राइ	-3020
▁तारीख	-3021
▁तीसरे	-3022
▁फर्जी	-3023
▁फायदा	-3024
▁मिलती	-3025
▁विस्त	-3026
▁स्टूड	-3027
▁गठबंधन	-3028
▁जागरूक	-3029
▁प्रचार	-3030
▁प्रयोग	-3031
▁मंजूरी	-3032
▁सीबीआई	-3033
▁निर्धार	-3034
▁पहुंचने	-3035
▁निर्वाचन	-3036
▁प्रतियोग	-3037
▁हाईकोर्ट	-3038
▁अभिनेत्री	-3039
▁अस्पतालों	-3040
▁संवाददाता	-3041
.0	-3042
आइ	-3043
सं	-3044
सु	-3045
▁#	-3046
नेस	-3047
पीट	-3048
पेट	-3049
बाल	-3050
मैं	-3051
राग	-3052
विल	-3053
हता	-3054
ायी	-3055
▁32	-3056
▁उद	-3057
▁री	-3058
इयों	-3059
पुरी	-3060
भाषा	-3061
र्तन	-3062
वारी	-3063
्याम	-3064
्‍या	-3065
▁आकर	-3066
▁कौन	-3067
▁खंड	-3068
▁चीज	-3069
▁निप	-3070
▁फिट	-3071
▁बाब	-3072
▁बेच	-3073
▁मिट	-3074
▁संभ	-3075
▁संर	-3076
▁हिस	-3077
कर्ता	-3078
यरमैन	-3079
ुक्ति	-3080
ेंट्स	-3081
▁आखिर	-3082
▁आनंद	-3083
▁इतनी	-3084
▁खाते	-3085
▁चेता	-3086
▁जनपद	-3087
▁फरार	-3088
▁फायर	-3089
▁बैठे	-3090
▁मोहन	-3091
▁विधे	-3092
▁संभव	-3093
▁सिया	-3094
▁सीधे	-3095
▁इंग्ल	-3096
▁ऊर्जा	-3097
▁कहानी	-3098
▁कैंसर	-3099
▁टक्कर	-3100
▁तुलना	-3101
▁मात्र	-3102
▁मिश्र	-3103
▁मुक्त	-3104
▁युद्ध	-3105
▁वास्त	-3106
▁शिविर	-3107
▁हटाने	-3108
धिकारिक	-3109
▁इंडियन	-3110
▁इंस्पे	-3111
▁रोजगार	-3112
▁स्पष्ट	-3113
▁ऑक्सीजन	-3114
▁मार्केट	-3115
▁सुप्रीम	-3116
▁आधिकारिक	-3117
▁राज्यपाल	-3118
-2	-3119
nt	-3120
गण	-3121
टो	-3122
पत	-3123
यम	-3124
▁K	-3125
ढ़ी	-3126
तीश	-3127
थित	-3128
पान	-3129
शिप	-3130
ाले	-3131
▁45	-3132
▁दम	-3133
▁नै	-3134
कल्प	-3135
टिंग	-3136
र्गत	-3137
लोनी	-3138
ार्म	-3139
िनेट	-3140
▁अधी	-3141
▁इजा	-3142
▁कने	-3143
▁कां	-3144
▁खोल	-3145
▁ताप	-3146
▁दोष	-3147
▁नाग	-3148
▁फैल	-3149
▁बहु	-3150
▁मजब	-3151
▁मस्	-3152
▁रेड	-3153
▁वाय	-3154
▁शब्	-3155
▁समा	-3156
▁अतिक	-3157
▁इच्छ	-3158
▁कैंप	-3159
▁देगा	-3160
▁नारे	-3161
▁नीति	-3162
▁पंजी	-3163
▁पेड़	-3164
▁प्रे	-3165
▁भुगत	-3166
▁मनोज	-3167
▁रखना	-3168
▁लंबी	-3169
▁साझा	-3170
▁हाउस	-3171
▁अपडेट	-3172
▁चाहता	-3173
▁दाखिल	-3174
▁नाराज	-3175
▁पढ़ाई	-3176
▁प्रोड	-3177
▁ब्रिट	-3178
▁मैचों	-3179
▁लगाते	-3180
▁लड़ाई	-3181
▁वित्त	-3182
▁इलाकों	-3183
▁खरीदने	-3184
▁चुनावी	-3185
▁जायेगा	-3186
▁ज्ञापन	-3187
▁ट्रांस	-3188
▁दोबारा	-3189
▁निर्मा	-3190
▁रहेंगे	-3191
▁विकसित	-3192
▁सिन्हा	-3193
▁हिस्से	-3194
कर्मियों	-3195
▁अभिनेता	-3196
▁कर्नाटक	-3197
▁कलेक्टर	-3198
▁चेतावनी	-3199
▁चेयरमैन	-3200
▁दर्शकों	-3201
▁मजदूरों	-3202
▁विश्वास	-3203
▁व्यवसाय	-3204
▁संस्थान	-3205
▁स्थापित	-3206
▁एक्ट्रेस	-3207
▁डॉक्टरों	-3208
▁तस्वीरें	-3209
▁मुख्यालय	-3210
▁विशेषज्ञ	-3211
▁समस्याओं	-3212
▁गतिविधियों	-3213
▁विद्यार्थियों	-3214
id	-3215
कॉ	-3216
यु	-3217
ैर	-3218
▁U	-3219
केत	-3220
प्त	-3221
बान	-3222
बीन	-3223
रोज	-3224
र्द	-3225
वेद	-3226
षित	-3227
सेज	-3228
हाद	-3229
ेलन	-3230
्हा	-3231
▁छि	-3232
▁जू	-3233
▁दब	-3234
▁धम	-3235
▁सख	-3236
डिया	-3237
देवी	-3238
राया	-3239
व्यव	-3240
्याण	-3241
्यास	-3242
्रीन	-3243
▁असम	-3244
▁खार	-3245
▁खुश	-3246
▁गोल	-3247
▁छाप	-3248
▁जबर	-3249
▁टॉप	-3250
▁पदक	-3251
▁हंग	-3252
▁हवा	-3253
श्वास	-3254
स्लिम	-3255
िक्कत	-3256
▁अध्य	-3257
▁अनिल	-3258
▁इस्ल	-3259
▁ऑफिस	-3260
▁कर्ज	-3261
▁कॉन्	-3262
▁गाइड	-3263
▁चलने	-3264
▁तोड़	-3265
▁बीएस	-3266
▁मतलब	-3267
▁रखते	-3268
▁रखें	-3269
▁राजी	-3270
▁लाइट	-3271
▁शहीद	-3272
▁सारा	-3273
ार्मिक	-3274
▁अपराध	-3275
▁उठाया	-3276
▁उन्‍ह	-3277
▁ग्रुप	-3278
▁जयपुर	-3279
▁जागरण	-3280
▁जोड़ी	-3281
▁नक्सल	-3282
▁नेशनल	-3283
▁प्रेर	-3284
▁फाइनल	-3285
▁बचाने	-3286
▁भरोसा	-3287
▁सूर्य	-3288
▁सैन्य	-3289
▁स्टेट	-3290
ज्ञानिक	-3291
▁अनुमान	-3292
▁गुजरात	-3293
▁डिजिटल	-3294
▁तत्काल	-3295
▁तापमान	-3296
▁दिक्कत	-3297
▁परिवहन	-3298
▁पुष्टि	-3299
▁वार्ता	-3300
▁श्रमिक	-3301
▁अधीक्षक	-3302
▁केन्द्र	-3303
▁कैबिनेट	-3304
▁कोतवाली	-3305
▁जिन्हें	-3306
▁दुकानों	-3307
▁महिलाएं	-3308
▁स्कूलों	-3309
▁गेंदबाजी	-3310
▁निर्धारित	-3311
▁प्रशिक्षण	-3312
▁प्रतियोगिता	-3313
.1	-3314
ew	-3315
it	-3316
थी	-3317
दल	-3318
नन	-3319
ाफ	-3320
ॉट	-3321
ंती	-3322
काम	-3323
घ्र	-3324
जनक	-3325
णसी	-3326
त्‍	-3327
पने	-3328
फ्र	-3329
मिट	-3330
वली	-3331
वां	-3332
श्व	-3333
ायण	-3334
ैया	-3335
▁अथ	-3336
▁ओम	-3337
▁चर	-3338
▁ठे	-3339
▁धी	-3340
▁फे	-3341
▁बट	-3342
एंगे	-3343
कारा	-3344
नियर	-3345
फेसर	-3346
माचल	-3347
वेयर	-3348
स्टम	-3349
ांकन	-3350
ारंभ	-3351
ित्व	-3352
िस्ट	-3353
▁अंड	-3354
▁अनि	-3355
▁आर्	-3356
▁ऊंच	-3357
▁कोच	-3358
▁खोज	-3359
▁घुस	-3360
▁चोर	-3361
▁धार	-3362
▁पाई	-3363
▁भले	-3364
▁सेक	-3365
कारों	-3366
स्टिस	-3367
▁उर्फ	-3368
▁गंगा	-3369
▁जैसा	-3370
▁तहरी	-3371
▁प्रि	-3372
▁भाषा	-3373
▁मुकद	-3374
▁लड़क	-3375
▁शुक्	-3376
▁सिलस	-3377
▁सीजन	-3378
▁सुनि	-3379
▁सुनी	-3380
▁होनी	-3381
लेरिया	-3382
▁एटीएम	-3383
▁जानिए	-3384
▁जाहिर	-3385
▁दर्शन	-3386
▁पृष्ठ	-3387
▁प्लान	-3388
▁बढ़कर	-3389
▁रवाना	-3390
▁रिलीज	-3391
▁रोहित	-3392
▁लगाकर	-3393
▁लॉन्च	-3394
▁शिकार	-3395
▁शीघ्र	-3396
▁हाथों	-3397
▁हिंदू	-3398
▁आधारित	-3399
▁गिरफ्त	-3400
▁प्लांट	-3401
▁रफ्तार	-3402
▁वर्ल्ड	-3403
▁हथियार	-3404
▁अमेरिकी	-3405
▁धार्मिक	-3406
▁मुस्लिम	-3407
▁अतिक्रमण	-3408
▁इंग्लैंड	-3409
▁नियुक्ति	-3410
▁इंस्पेक्टर	-3411
▁जिम्मेदारी	-3412
खर	-3413
भो	-3414
हण	-3415
ैट	-3416
▁W	-3417
ंघन	-3418
ंजी	-3419
ज़ा	-3420
ज्ज	-3421
बीर	-3422
रेन	-3423
लाइ	-3424
शान	-3425
शोध	-3426
िरा	-3427
▁(2	-3428
▁33	-3429
▁अय	-3430
▁क़	-3431
▁टॉ	-3432
▁दृ	-3433
▁धु	-3434
▁फल	-3435
▁बू	-3436
गांव	-3437
ट्टी	-3438
डिंग	-3439
फ्ते	-3440
शाला	-3441
हतरी	-3442
िलास	-3443
ेंगी	-3444
▁गुण	-3445
▁गुर	-3446
▁गोर	-3447
▁घूम	-3448
▁चां	-3449
▁परी	-3450
▁पुन	-3451
▁रूस	-3452
▁लोन	-3453
▁शोध	-3454
▁सफर	-3455
ेडियम	-3456
▁आक्र	-3457
▁एंटी	-3458
▁करनी	-3459
▁घरों	-3460
▁चौकी	-3461
▁छोटी	-3462
▁जताई	-3463
▁जोड़	-3464
▁डीजल	-3465
▁दूरी	-3466
▁बताई	-3467
▁मोटर	-3468
▁रहना	-3469
▁लागत	-3470
▁वारा	-3471
▁शायद	-3472
▁स्कू	-3473
मार्टम	-3474
▁आंखों	-3475
▁आग्रह	-3476
▁आसानी	-3477
▁काउंस	-3478
▁कृष्ण	-3479
▁ट्रंप	-3480
▁थोड़ा	-3481
▁देखें	-3482
▁निकले	-3483
▁बताते	-3484
▁बातें	-3485
▁मुफ्त	-3486
▁हिंसा	-3487
▁आदित्य	-3488
▁उत्पाद	-3489
▁कल्याण	-3490
▁कोरिया	-3491
▁जवानों	-3492
▁ट्रेलर	-3493
▁डिग्री	-3494
▁पुराने	-3495
▁बेहतरी	-3496
▁विकल्प	-3497
▁विजेता	-3498
▁संबंधी	-3499
▁सकेंगे	-3500
▁इंटरनेट	-3501
▁मलेरिया	-3502
▁मुकाबला	-3503
▁वाराणसी	-3504
▁संचालित	-3505
▁संबोधित	-3506
▁सामग्री	-3507
▁आवश्यकता	-3508
▁दुष्कर्म	-3509
▁स्टेडियम	-3510
▁पदाधिकारी	-3511
▁बल्लेबाजी	-3512
▁वैज्ञानिक	-3513
▁सुनिश्चित	-3514
▁जिलाधिकारी	-3515
▁पदाधिकारियों	-3516
80	-3517
डि	-3518
दर	-3519
नु	-3520
पल	-3521
मल	-3522
िब	-3523
ूद	-3524
्प	-3525
ion	-3526
ढ़े	-3527
मती	-3528
शनी	-3529
ाइम	-3530
ेटर	-3531
▁Ho	-3532
▁आल	-3533
▁गह	-3534
▁झा	-3535
▁दश	-3536
▁पथ	-3537
▁फो	-3538
▁वॉ	-3539
▁‘‘	-3540
घटना	-3541
च्चा	-3542
फिया	-3543
बारी	-3544
मानत	-3545
लंघन	-3546
लपुर	-3547
ांसी	-3548
्रिय	-3549
▁500	-3550
▁अब्	-3551
▁अरब	-3552
▁इका	-3553
▁ओपन	-3554
▁कैम	-3555
▁खून	-3556
▁गेम	-3557
▁ठंड	-3558
▁फें	-3559
▁मेट	-3560
▁विल	-3561
▁शेर	-3562
चार्य	-3563
▁अभिय	-3564
▁खाली	-3565
▁ग्रे	-3566
▁जब्त	-3567
▁जोशी	-3568
▁धमकी	-3569
▁बढ़ो	-3570
▁ममता	-3571
▁मैने	-3572
▁रहीं	-3573
▁वस्त	-3574
▁सिटी	-3575
ंडीगढ़	-3576
कश्मीर	-3577
स्तानी	-3578
▁अक्सर	-3579
▁इंदौर	-3580
▁कोर्स	-3581
▁खारिज	-3582
▁चार्ज	-3583
▁चेहरे	-3584
▁जिसने	-3585
▁जुड़ी	-3586
▁तहरीर	-3587
▁प्रती	-3588
▁मांगी	-3589
▁राकेश	-3590
▁राजीव	-3591
▁लिस्ट	-3592
▁संकेत	-3593
▁सिविल	-3594
▁स्टार	-3595
▁हमारा	-3596
▁हिसाब	-3597
▁आंकड़े	-3598
▁कॉलोनी	-3599
▁निकलने	-3600
▁निशाना	-3601
▁पदार्थ	-3602
▁प्रसार	-3603
▁बिक्री	-3604
▁भुगतान	-3605
▁रिश्ते	-3606
▁सक्रिय	-3607
▁सिस्टम	-3608
▁सेक्टर	-3609
▁हिमाचल	-3610
व्यवस्था	-3611
▁अंतर्गत	-3612
▁नियुक्त	-3613
▁पीड़िता	-3614
▁आतंकियों	-3615
▁दुर्घटना	-3616
▁पहुंचाने	-3617
▁प्रस्तुत	-3618
▁प्रावधान	-3619
▁प्रोफेसर	-3620
▁जिन्होंने	-3621
▁प्रत्याशी	-3622
▁भ्रष्टाचार	-3623
▁मध्यप्रदेश	-3624
▁पोस्टमार्टम	-3625
ic	-3626
ol	-3627
ँच	-3628
चु	-3629
डू	-3630
ुण	-3631
ंटा	-3632
टिव	-3633
दरा	-3634
फान	-3635
भूम	-3636
राय	-3637
रीय	-3638
र्श	-3639
वित	-3640
हूं	-3641
ेड़	-3642
▁रम	-3643
इकिल	-3644
करों	-3645
कृति	-3646
क्का	-3647
टीवी	-3648
भागी	-3649
लिंग	-3650
वार्	-3651
विटर	-3652
सीसी	-3653
स्कर	-3654
स्‍ट	-3655
ेक्ट	-3656
ैनिक	-3657
▁अके	-3658
▁आउट	-3659
▁इरा	-3660
▁इले	-3661
▁गीत	-3662
▁गेट	-3663
▁टूट	-3664
▁डेब	-3665
▁नाइ	-3666
▁महो	-3667
▁मिस	-3668
▁साध	-3669
▁हल्	-3670
विधान	-3671
सिद्ध	-3672
▁Read	-3673
▁उपभो	-3674
▁कथित	-3675
▁खतरे	-3676
▁खूबस	-3677
▁डाला	-3678
▁पढ़े	-3679
▁पैसा	-3680
▁फैला	-3681
▁बिंद	-3682
▁भीतर	-3683
▁समान	-3684
▁साथी	-3685
▁सीसी	-3686
▁सेवन	-3687
क्ताओं	-3688
▁आखिरी	-3689
▁इंस्ट	-3690
▁उनमें	-3691
▁कितना	-3692
▁ग्राह	-3693
▁चलाया	-3694
▁चित्र	-3695
▁जयंती	-3696
▁जुड़ा	-3697
▁प्यार	-3698
▁बढ़ते	-3699
▁मनाया	-3700
▁लड़ने	-3701
▁विवाह	-3702
▁सहमति	-3703
▁हफ्ते	-3704
द्योगिक	-3705
▁अखिलेश	-3706
▁अरविंद	-3707
▁उल्लेख	-3708
▁किरदार	-3709
▁जस्टिस	-3710
▁ट्विटर	-3711
▁निदेशक	-3712
▁पर्यटन	-3713
▁मारपीट	-3714
▁रिजर्व	-3715
▁विधेयक	-3716
▁शुक्ला	-3717
▁स्वर्ण	-3718
▁कार्यों	-3719
▁चंडीगढ़	-3720
▁चुनावों	-3721
▁दोस्तों	-3722
▁नामांकन	-3723
▁नियंत्र	-3724
▁बिल्कुल	-3725
▁लक्ष्मी	-3726
▁व्यवहार	-3727
▁परिवर्तन	-3728
▁पर्याप्त	-3729
▁पर्यावरण	-3730
▁सम्मानित	-3731
▁उपाध्यक्ष	-3732
.3	-3733
40	-3734
as	-3735
ed	-3736
en	-3737
re	-3738
एक	-3739
छा	-3740
पं	-3741
ूत	-3742
ेप	-3743
ews	-3744
ंपा	-3745
कोर	-3746
जित	-3747
झाव	-3748
ट्ट	-3749
बाज	-3750
मेल	-3751
म्ब	-3752
रुख	-3753
लाब	-3754
हूर	-3755
िनी	-3756
िमा	-3757
‍ली	-3758
▁कब	-3759
▁कस	-3760
▁ग्	-3761
▁टू	-3762
▁भि	-3763
▁शख	-3764
▁शॉ	-3765
ंगाई	-3766
ंपरा	-3767
भूमि	-3768
ल्ला	-3769
वाया	-3770
िटाई	-3771
▁...	-3772
▁आशी	-3773
▁उड़	-3774
▁उतर	-3775
▁काट	-3776
▁खतर	-3777
▁गठन	-3778
▁जाम	-3779
▁जैन	-3780
▁दूध	-3781
▁नार	-3782
▁पहन	-3783
▁पीठ	-3784
▁मद्	-3785
▁मधु	-3786
▁मेर	-3787
▁रिस	-3788
▁शास	-3789
देनजर	-3790
पूर्व	-3791
शियों	-3792
▁	-3793
ा	-3794
क	-3795
र	-3796
े	-3797
ी	-3798
न	-3799
्	-3800
स	-3801
ि	-3802
ं	-3803
ह	-3804
म	-3805
ल	-3806
त	-3807
ो	-3808
प	-3809
य	-3810
व	-3811
द	-3812
ज	-3813
ब	-3814
ग	-3815
ु	-3816
ै	-3817
ट	-3818
।	-3819
ए	-3820
श	-3821
च	-3822
ड	-3823
अ	-3824
भ	-3825
ू	-3826
इ	-3827
आ	-3828
थ	-3829
,	-3830
ख	-3831
ध	-3832
उ	-3833
फ	-3834
़	-3835
ई	-3836
ष	-3837
.	-3838
औ	-3839
ण	-3840
ौ	-3841
0	-3842
1	-3843
2	-3844
छ	-3845
-	-3846
ॉ	-3847
घ	-3848
ओ	-3849
ठ	-3850
ढ	-3851
5	-3852
3	-3853
4	-3854
ृ	-3855
9	-3856
)	-3857
(	-3858
a	-3859
झ	-3860
8	-3861
6	-3862
:	-3863
‍	-3864
'	-3865
7	-3866
e	-3867
i	-3868
ऐ	-3869
o	-3870
r	-3871
n	-3872
ऑ	-3873
t	-3874
s	-3875
ऊ	-3876
‘	-3877
’	-3878
h	-3879
ँ	-3880
d	-3881
l	-3882
ञ	-3883
"	-3884
A	-3885
m	-3886
c	-3887
P	-3888
?	-3889
u	-3890
S	-3891
C	-3892
B	-3893
I	-3894
M	-3895
R	-3896
p	-3897
g	-3898
N	-3899
D	-3900
/	-3901
|	-3902
k	-3903
E	-3904
H	-3905
y	-3906
G	-3907
T	-3908
b	-3909
w	-3910
v	-3911
–	-3912
ः	-3913
”	-3914
U	-3915
J	-3916
“	-3917
!	-3918
L	-3919
F	-3920
O	-3921
W	-3922
ऋ	-3923
V	-3924
›	-3925
j	-3926
K	-3927
ॅ	-3928
>	-3929
‌	-3930
#	-3931
f	-3932
x	-3933
%	-3934
​	-3935
०	-3936
—	-3937
;	-3938
Y	-3939
»	-3940
̈	-3941
१	-3942
॰	-3943
*	-3944
@	-3945
z	-3946
[	-3947
]	-3948
+	-3949
í	-3950
ऩ	-3951
३	-3952
२	-3953
७	-3954
&	-3955
Q	-3956
X	-3957
_	-3958
🔊	-3959
५	-3960
६	-3961
Z	-3962
q	-3963
	-3964
ऱ	-3965
ï	-3966
८	-3967
×	-3968
४	-3969
९	-3970
﻿	-3971
�	-3972
=	-3973
^	-3974
£	-3975
©	-3976
«	-3977
Ó	-3978
Ü	-3979
в	-3980
и	-3981
л	-3982
о	-3983
т	-3984
я	-3985
ا	-3986
ت	-3987
ل	-3988
و	-3989
ی	-3990
ऌ	-3991
ङ	-3992
‎	-3993
←	-3994
➽	-3995
🔵	-3996
