<unk>	0
<s>	0
</s>	0
▁क	-0
▁स	-1
▁ह	-2
▁म	-3
▁प	-4
ें	-5
ार	-6
ने	-7
▁के	-8
्र	-9
▁ब	-10
▁है	-11
▁ज	-12
या	-13
▁द	-14
▁में	-15
▁र	-16
▁ल	-17
▁अ	-18
▁व	-19
ों	-20
▁की	-21
▁न	-22
▁को	-23
▁ग	-24
ान	-25
र्	-26
▁आ	-27
▁से	-28
▁कि	-29
ता	-30
▁इ	-31
▁कर	-32
▁का	-33
▁भ	-34
▁त	-35
▁उ	-36
▁ने	-37
ना	-38
िक	-39
्य	-40
▁पर	-41
ाल	-42
िल	-43
▁च	-44
▁श	-45
▁औ	-46
स्	-47
▁प्र	-48
▁और	-49
क्	-50
▁ए	-51
ही	-52
▁इस	-53
हा	-54
ड़	-55
▁हो	-56
▁जा	-57
▁हैं	-58
ित	-59
िया	-60
▁य	-61
▁थ	-62
ाम	-63
िए	-64
वा	-65
▁ख	-66
▁भी	-67
▁फ	-68
िय	-69
ंग	-70
ला	-71
के	-72
ते	-73
▁बा	-74
त्र	-75
ेश	-76
री	-77
▁स्	-78
▁वि	-79
ले	-80
हीं	-81
न्	-82
कर	-83
▁लिए	-84
▁रा	-85
ती	-86
रा	-87
िस	-88
ारी	-89
▁सा	-90
▁ट	-91
गा	-92
से	-93
िन	-94
▁एक	-95
सी	-96
्या	-97
ोग	-98
▁सं	-99
ुर	-100
▁नहीं	-101
ति	-102
नी	-103
▁ले	-104
▁अप	-105
ली	-106
▁हु	-107
क्ष	-108
▁किया	-109
का	-110
▁सम	-111
▁ड	-112
ां	-113
▁मु	-114
▁1	-115
▁रह	-116
ंद	-117
▁दे	-118
वार	-119
▁ही	-120
▁गया	-121
ाय	-122
ुल	-123
▁नि	-124
▁पह	-125
त्	-126
ार्	-127
▁2	-128
ियों	-129
की	-130
टी	-131
▁घ	-132
▁कहा	-133
▁था	-134
िला	-135
▁कार	-136
कार	-137
▁करने	-138
▁तो	-139
ंड	-140
न्ह	-141
ंच	-142
्म	-143
▁साथ	-144
ास	-145
▁सि	-146
▁लोग	-147
रो	-148
▁यह	-149
▁बाद	-150
▁अध	-151
दी	-152
मा	-153
▁राज	-154
▁रहे	-155
भा	-156
▁पू	-157
ल्	-158
गी	-159
▁दिया	-160
▁कु	-161
▁उन्ह	-162
▁वाल	-163
रे	-164
ढ़	-165
कि	-166
वि	-167
ाह	-168
▁उन	-169
▁दो	-170
▁छ	-171
▁सु	-172
जी	-173
देश	-174
भी	-175
ष्	-176
▁अन	-177
▁सर	-178
्री	-179
▁गई	-180
▁तक	-181
टर	-182
▁या	-183
ंत्र	-184
पी	-185
सा	-186
दा	-187
▁ला	-188
▁रहा	-189
ेल	-190
▁मिल	-191
ओं	-192
▁आप	-193
वी	-194
▁उस	-195
िर	-196
ौर	-197
▁हुए	-198
गे	-199
▁रही	-200
▁सी	-201
▁बता	-202
▁जो	-203
▁पुल	-204
▁बी	-205
▁सक	-206
गर	-207
स्ट	-208
▁चु	-209
▁दी	-210
▁(	-211
▁ध	-212
ाना	-213
▁हम	-214
स्त	-215
ानी	-216
्ष	-217
ोज	-218
▁पुलिस	-219
बा	-220
▁थी	-221
्रे	-222
▁भार	-223
▁लोगों	-224
श्	-225
जा	-226
▁मह	-227
▁अपने	-228
ैं	-229
▁जिस	-230
किन	-231
ाई	-232
▁मा	-233
▁बार	-234
▁जाए	-235
तर	-236
ोंने	-237
में	-238
द्	-239
पा	-240
शन	-241
▁सरकार	-242
िव	-243
नों	-244
..	-245
▁लेकिन	-246
▁लगा	-247
▁स्थ	-248
▁मौ	-249
▁थे	-250
स्थ	-251
▁पा	-252
▁20	-253
्त	-254
ुप	-255
▁अब	-256
ंत्री	-257
▁उन्होंने	-258
ेट	-259
बर	-260
च्	-261
▁अधिक	-262
मी	-263
▁गए	-264
द्र	-265
ड़ी	-266
हां	-267
ूर	-268
▁टी	-269
क्र	-270
▁बना	-271
▁इसके	-272
ंह	-273
हर	-274
▁उप	-275
▁होने	-276
▁मो	-277
▁पहले	-278
▁जान	-279
▁ऐ	-280
वे	-281
ष्ट	-282
▁पी	-283
▁तर	-284
र्ट	-285
▁कार्य	-286
▁जब	-287
▁कुछ	-288
▁बताया	-289
ये	-290
िंग	-291
▁जी	-292
▁वर्	-293
▁भा	-294
▁दिन	-295
ड़ा	-296
▁मे	-297
▁सिंह	-298
को	-299
िल्	-300
▁वाले	-301
▁निर्	-302
्यू	-303
खा	-304
▁कम	-305
▁वह	-306
▁बि	-307
ड़े	-308
पुर	-309
▁सो	-310
▁बात	-311
▁माम	-312
▁सब	-313
▁इन	-314
्स	-315
ंध	-316
▁ओ	-317
कों	-318
ोट	-319
ीन	-320
▁3	-321
▁पहु	-322
▁हि	-323
▁लेकर	-324
धान	-325
▁करते	-326
क्षा	-327
▁क्ष	-328
▁भारत	-329
▁दौर	-330
▁साल	-331
▁पहुंच	-332
एम	-333
र्म	-334
▁कोई	-335
कारी	-336
▁रुप	-337
ंप	-338
▁उत्	-339
▁बे	-340
▁बढ़	-341
▁रू	-342
ंट	-343
▁देश	-344
िश	-345
▁बै	-346
▁साम	-347
▁अपनी	-348
बी	-349
ाइ	-350
▁चाह	-351
▁कई	-352
ाप	-353
00	-354
जे	-355
क्त	-356
र्व	-357
▁परि	-358
▁शुर	-359
▁दौरान	-360
▁फिल	-361
वाल	-362
▁हुई	-363
जन	-364
▁काम	-365
िट	-366
िप	-367
ूस	-368
▁ऑ	-369
जार	-370
▁ये	-371
▁रो	-372
▁वे	-373
▁सभी	-374
▁दु	-375
ेत्र	-376
▁हाल	-377
▁अनु	-378
मंत्री	-379
ाने	-380
▁देख	-381
ेंद्र	-382
▁किसी	-383
▁द्	-384
▁तरह	-385
मान	-386
▁क्षेत्र	-387
डी	-388
वर	-389
▁मुख	-390
▁चल	-391
▁बह	-392
▁मै	-393
वं	-394
ोड़	-395
▁आय	-396
▁दिल्	-397
▁प्रदेश	-398
▁समय	-399
▁सू	-400
्रेस	-401
▁स्ट	-402
सर	-403
िका	-404
▁अं	-405
▁जन	-406
▁पार्	-407
मार	-408
▁गां	-409
▁लिया	-410
▁राज्य	-411
ूल	-412
ोल	-413
▁जु	-414
वारा	-415
▁व्य	-416
ज़	-417
एस	-418
ारा	-419
▁हुआ	-420
▁दिल्ली	-421
्ल	-422
▁विक	-423
▁नाम	-424
▁प्रति	-425
▁करें	-426
सान	-427
▁फिल्म	-428
म्म	-429
▁शिक	-430
▁हर	-431
▁उनके	-432
द्ध	-433
▁अभ	-434
▁चुना	-435
▁रूप	-436
▁द्वारा	-437
▁आरो	-438
चा	-439
▁घर	-440
▁जाने	-441
▁कह	-442
▁ना	-443
▁दर्	-444
▁5	-445
बंध	-446
▁शाम	-447
▁शुरू	-448
▁सह	-449
▁टीम	-450
▁इं	-451
▁उन्हें	-452
▁रख	-453
▁बीच	-454
रोना	-455
▁खिला	-456
▁ग्र	-457
▁लग	-458
यर	-459
चार	-460
▁बु	-461
फी	-462
▁कोरोना	-463
▁होगा	-464
▁महिला	-465
▁4	-466
▁यु	-467
च्च	-468
दार	-469
▁आज	-470
्यक्ष	-471
क्रम	-472
▁'	-473
▁दूस	-474
▁मुख्य	-475
▁लाख	-476
▁पु	-477
ून	-478
▁कै	-479
जर	-480
र्स	-481
स्प	-482
▁अम	-483
▁निक	-484
▁पै	-485
▁बन	-486
▁खु	-487
▁हा	-488
▁कांग	-489
▁तै	-490
▁सकता	-491
▁चुनाव	-492
▁पि	-493
एं	-494
▁जानकारी	-495
लय	-496
▁स्थित	-497
▁वर्ष	-498
ीड	-499
धार	-500
लों	-501
▁आई	-502
▁जाता	-503
▁वहीं	-504
िले	-505
▁मामले	-506
ंस	-507
▁ता	-508
▁ट्र	-509
▁जर	-510
▁फै	-511
ुत	-512
▁दोनों	-513
ब्	-514
▁एस	-515
▁चौ	-516
▁ठ	-517
हत	-518
ोक	-519
▁मैं	-520
ंक	-521
तीय	-522
▁करना	-523
▁जाएगा	-524
▁कांग्रेस	-525
ेज	-526
क्स	-527
▁एवं	-528
वन	-529
▁मान	-530
▁यहां	-531
▁201	-532
्यों	-533
ारे	-534
▁जै	-535
क्ट	-536
▁बैठ	-537
दे	-538
वाई	-539
▁रुपये	-540
प्	-541
िम	-542
्रीय	-543
▁पास	-544
▁झ	-545
भाग	-546
वाद	-547
जू	-548
टा	-549
▁गु	-550
▁करोड़	-551
▁कुमार	-552
▁तीन	-553
▁वाली	-554
आई	-555
ोर	-556
ताओं	-557
हार	-558
्यादा	-559
शी	-560
▁छा	-561
ोर्ट	-562
▁कारण	-563
ेर	-564
दान	-565
▁दि	-566
▁फिर	-567
▁पूर्व	-568
टना	-569
▁सुर	-570
▁पार्टी	-571
▁वै	-572
क्ति	-573
▁जारी	-574
▁सबसे	-575
धिक	-576
▁अव	-577
▁बद	-578
▁लि	-579
▁क्र	-580
▁जांच	-581
ांच	-582
ोजना	-583
▁गांव	-584
पर	-585
▁मांग	-586
▁कॉ	-587
▁सकते	-588
▁शामिल	-589
लो	-590
ेशन	-591
▁6	-592
सार	-593
ियां	-594
▁राम	-595
▁चाहिए	-596
नि	-597
र्थ	-598
ूम	-599
▁कंप	-600
▁तैय	-601
▁जिला	-602
▁ज्यादा	-603
था	-604
ीस	-605
▁ऐसे	-606
णा	-607
▁मोदी	-608
▁अध्यक्ष	-609
च्छ	-610
ायर	-611
▁अग	-612
दि	-613
▁किए	-614
ूं	-615
क्टर	-616
▁अन्य	-617
▁इससे	-618
▁किसान	-619
▁भारतीय	-620
▁उसे	-621
▁उसके	-622
▁विभाग	-623
धी	-624
▁‘	-625
▁आरोप	-626
▁महा	-627
्यालय	-628
▁जिले	-629
▁राष्ट	-630
ज्	-631
▁-	-632
चना	-633
ायत	-634
▁ओर	-635
▁गो	-636
प्र	-637
▁10	-638
▁विश्	-639
▁हजार	-640
ेंगे	-641
▁बच्च	-642
▁दा	-643
▁आए	-644
फ्त	-645
▁ली	-646
▁इसी	-647
▁काफी	-648
ोष	-649
ंदी	-650
सभा	-651
▁डॉ	-652
▁प्रधान	-653
ंबर	-654
न्न	-655
ामी	-656
ियो	-657
त्रा	-658
▁बहुत	-659
▁श्री	-660
▁गिर	-661
▁उनकी	-662
▁देने	-663
▁प्रत	-664
योग	-665
ैन	-666
जपा	-667
ुक	-668
▁खिलाफ	-669
ंब	-670
▁पद	-671
कर्	-672
▁बारे	-673
▁मंत्री	-674
र्ड	-675
▁होगी	-676
ंत	-677
▁:	-678
वान	-679
ाली	-680
ाया	-681
▁सद	-682
▁स्व	-683
ारियों	-684
▁भाजपा	-685
ुरु	-686
▁नी	-687
▁यू	-688
▁आने	-689
▁शिक्ष	-690
▁आर	-691
▁सामने	-692
गत	-693
द्य	-694
▁डी	-695
▁शु	-696
ार्ड	-697
▁क्यों	-698
इन	-699
वास	-700
▁स्क	-701
स्तान	-702
भाव	-703
ासन	-704
▁मौत	-705
ताल	-706
▁आपको	-707
धा	-708
रण	-709
ूट	-710
ेंट	-711
▁बो	-712
▁पांच	-713
▁खा	-714
▁न्यू	-715
▁प्रश	-716
▁अगर	-717
▁19	-718
▁अभी	-719
▁नई	-720
▁इला	-721
▁दिए	-722
▁अस्प	-723
▁योजना	-724
शे	-725
र्ण	-726
▁पूरी	-727
मु	-728
▁स्वा	-729
▁उत्तर	-730
ेंद	-731
▁जि	-732
ीक्षा	-733
म्	-734
▁ई	-735
पाल	-736
▁निय	-737
▁रिप	-738
ाज	-739
▁पिछ	-740
▁दर्ज	-741
आर	-742
लग	-743
दर्	-744
▁चे	-745
▁तथा	-746
िज	-747
ृत	-748
▁7	-749
...	-750
▁कप	-751
ांकि	-752
▁विध	-753
▁अपना	-754
▁हालांकि	-755
ध्य	-756
स्था	-757
▁करी	-758
▁चला	-759
रीज	-760
ख्या	-761
▁नगर	-762
▁बंद	-763
▁मार्	-764
▁8	-765
करण	-766
▁वो	-767
▁अला	-768
▁होता	-769
ेड	-770
▁उठ	-771
▁सफ	-772
निया	-773
▁याद	-774
▁विकास	-775
पू	-776
▁इंड	-777
जह	-778
▁बल्	-779
▁अनुसार	-780
▁चार	-781
▁आयोज	-782
▁घटना	-783
▁संबंध	-784
जूद	-785
वासी	-786
▁मैच	-787
▁रिपोर्ट	-788
▁मुख्यमंत्री	-789
वल	-790
जय	-791
ंगे	-792
▁	-793
ा	-794
क	-795
र	-796
े	-797
ी	-798
न	-799
्	-800
स	-801
ि	-802
ं	-803
ह	-804
म	-805
ल	-806
त	-807
ो	-808
प	-809
य	-810
व	-811
द	-812
ज	-813
ब	-814
ग	-815
ु	-816
ै	-817
ट	-818
।	-819
ए	-820
श	-821
च	-822
ड	-823
अ	-824
भ	-825
ू	-826
इ	-827
आ	-828
थ	-829
,	-830
ख	-831
ध	-832
उ	-833
फ	-834
़	-835
ई	-836
ष	-837
.	-838
औ	-839
ण	-840
ौ	-841
0	-842
1	-843
2	-844
छ	-845
-	-846
ॉ	-847
घ	-848
ओ	-849
ठ	-850
ढ	-851
5	-852
3	-853
4	-854
ृ	-855
9	-856
)	-857
(	-858
a	-859
झ	-860
8	-861
6	-862
:	-863
‍	-864
'	-865
7	-866
e	-867
i	-868
ऐ	-869
o	-870
r	-871
n	-872
ऑ	-873
t	-874
s	-875
ऊ	-876
‘	-877
’	-878
h	-879
ँ	-880
d	-881
l	-882
ञ	-883
"	-884
A	-885
m	-886
c	-887
P	-888
?	-889
u	-890
S	-891
C	-892
B	-893
I	-894
M	-895
R	-896
p	-897
g	-898
N	-899
D	-900
/	-901
|	-902
k	-903
E	-904
H	-905
y	-906
G	-907
T	-908
b	-909
w	-910
v	-911
–	-912
ः	-913
”	-914
U	-915
J	-916
“	-917
!	-918
L	-919
F	-920
O	-921
W	-922
ऋ	-923
V	-924
›	-925
j	-926
K	-927
ॅ	-928
>	-929
‌	-930
#	-931
f	-932
x	-933
%	-934
​	-935
०	-936
—	-937
;	-938
Y	-939
»	-940
̈	-941
१	-942
॰	-943
*	-944
@	-945
z	-946
[	-947
]	-948
+	-949
í	-950
ऩ	-951
३	-952
२	-953
७	-954
&	-955
Q	-956
X	-957
_	-958
🔊	-959
५	-960
६	-961
Z	-962
q	-963
	-964
ऱ	-965
ï	-966
८	-967
×	-968
४	-969
९	-970
﻿	-971
�	-972
=	-973
^	-974
£	-975
©	-976
«	-977
Ó	-978
Ü	-979
в	-980
и	-981
л	-982
о	-983
т	-984
я	-985
ا	-986
ت	-987
ل	-988
و	-989
ی	-990
ऌ	-991
ङ	-992
‎	-993
←	-994
➽	-995
🔵	-996
