<unk>	0
<s>	0
</s>	0
.	-3.31876
▁	-3.32794
n	-3.36416
,	-3.53244
a	-3.82265
t	-4.11535
▁ja	-4.13554
s	-4.3856
-	-4.55735
i	-4.56677
▁(	-4.59807
▁on	-4.60274
)	-4.84625
k	-4.86971
in	-4.94926
en	-5.06517
ta	-5.2107
▁–	-5.24513
ä	-5.29881
ssa	-5.39333
:	-5.42873
nen	-5.48418
o	-5.49788
u	-5.50822
an	-5.51805
e	-5.54212
sta	-5.65213
y	-5.70112
na	-5.76107
h	-5.76907
r	-5.84778
us	-5.92366
ja	-5.93668
lla	-5.97602
ksi	-6.00581
si	-6.0859
▁myös	-6.10395
la	-6.11545
te	-6.13999
l	-6.15094
lle	-6.17247
ka	-6.22866
▁oli	-6.23963
ri	-6.24405
▁tai	-6.26104
tu	-6.2964
▁ovat	-6.29645
li	-6.31831
ko	-6.33233
▁A	-6.33666
is	-6.34882
d	-6.40144
to	-6.40312
▁S	-6.40807
ke	-6.41125
ti	-6.41812
vat	-6.42519
et	-6.42709
m	-6.45425
p	-6.46192
re	-6.46489
ssä	-6.46511
kin	-6.49008
on	-6.49877
▁I	-6.50508
▁joka	-6.53566
▁se	-6.53826
tä	-6.54853
ista	-6.55366
▁17	-6.55894
vi	-6.56954
inen	-6.57462
luku	-6.57773
ma	-6.58938
stä	-6.59929
g	-6.6263
ra	-6.65494
–	-6.66539
▁Lähteet	-6.68996
▁16	-6.6922
eitä	-6.72096
ku	-6.75072
sti	-6.75579
de	-6.76783
it	-6.77293
ne	-6.77767
▁vuonna	-6.79036
▁15	-6.79685
lo	-6.79706
▁ei	-6.7989
▁kuningas	-6.80422
le	-6.80549
ro	-6.80841
ki	-6.80946
▁K	-6.81912
pa	-6.82744
c	-6.83274
va	-6.83541
▁muualla	-6.8426
▁Tapahtumi	-6.85392
▁Aihees	-6.87341
▁Kuolleita	-6.87445
▁Syntyn	-6.88179
issa	-6.89024
llä	-6.8971
ty	-6.89893
mutta	-6.9007
mi	-6.91758
3	-6.92163
▁Se	-6.94381
▁eli	-6.94614
▁E	-6.95232
iden	-6.96038
ut	-6.97218
el	-6.97743
jä	-6.97941
▁voi	-6.9842
▁jo	-6.98543
▁sekä	-6.99097
▁Suomessa	-7.00808
jen	-7.01809
että	-7.03639
sen	-7.03721
▁Suomen	-7.05944
ö	-7.05948
sa	-7.06488
▁sen	-7.06799
se	-7.06951
maan	-7.08129
tta	-7.09673
▁P	-7.10109
ur	-7.11182
er	-7.11281
v	-7.12528
f	-7.13089
ten	-7.13326
S	-7.14087
2	-7.14339
▁-	-7.14854
nä	-7.15556
illa	-7.17417
▁suomalainen	-7.18127
vät	-7.18668
▁19	-7.19445
di	-7.21098
▁1	-7.2143
un	-7.22926
▁000	-7.23373
tti	-7.23443
lta	-7.24089
C	-7.24156
ia	-7.26151
ita	-7.26655
▁osa	-7.27439
mo	-7.27946
▁keisari	-7.29569
/	-7.29862
▁14	-7.30094
ve	-7.31468
▁T	-7.31989
än	-7.32098
▁pää	-7.33194
▁18	-7.33695
9	-7.33787
▁de	-7.33808
▁ko	-7.34592
▁V	-7.34897
jo	-7.35365
▁O	-7.35433
▁M	-7.35518
A	-7.35673
▁kuin	-7.367
da	-7.37659
pu	-7.37816
pe	-7.3808
ha	-7.39601
me	-7.39676
ille	-7.39844
al	-7.40043
man	-7.408
b	-7.4099
kä	-7.41374
▁ku	-7.41561
il	-7.42269
▁F	-7.42487
z	-7.42855
minen	-7.43391
4	-7.43603
do	-7.44004
▁mukaan	-7.44824
P	-7.45188
▁eri	-7.45417
▁ole	-7.4574
or	-7.45763
▁II	-7.46373
ään	-7.46484
▁la	-7.46554
onnan	-7.46601
▁keskeise	-7.46634
kki	-7.46666
▁artikkelit	-7.47636
▁Seul	-7.47708
▁G	-7.48152
▁C	-7.48291
hi	-7.48292
”	-7.48507
▁Vuon	-7.4869
ar	-7.48736
istä	-7.48961
M	-7.49092
▁Pohjois	-7.49185
0	-7.49444
▁kun	-7.49493
tiin	-7.49503
pi	-7.49647
8	-7.49847
aan	-7.50086
mä	-7.50103
▁ranskalai	-7.50416
▁La	-7.50883
ll	-7.51312
os	-7.52067
nsa	-7.5215
1	-7.52236
▁2	-7.52245
lä	-7.52802
▁italialainen	-7.53119
▁p	-7.5466
he	-7.54766
6	-7.55765
▁pi	-7.56075
▁ollut	-7.56187
ng	-7.56639
es	-7.56874
den	-7.56992
▁jälkeen	-7.57282
),	-7.5782
vo	-7.57889
▁Ruotsin	-7.5791
▁H	-7.5795
x	-7.58041
▁jonk	-7.58159
▁”	-7.58412
▁ka	-7.58922
▁aikana	-7.60352
▁12	-7.60921
▁ma	-7.61275
▁Katso	-7.61739
noin	-7.61867
▁koko	-7.61996
▁10	-7.62873
▁tammikuuta	-7.62887
kko	-7.63122
at	-7.63412
voidaan	-7.6443
lainen	-7.65445
▁ruotsalainen	-7.65542
▁vain	-7.65698
T	-7.65934
▁s	-7.66061
ho	-7.66481
sto	-7.66606
▁yksi	-7.66878
tus	-7.67305
isen	-7.67313
L	-7.67339
▁joulukuuta	-7.68382
▁esimerkiksi	-7.69028
nut	-7.69551
▁marraskuuta	-7.69788
iset	-7.70277
lu	-7.70569
▁usein	-7.7101
▁3	-7.7131
▁Ma	-7.71642
▁huhtikuuta	-7.717
van	-7.72039
▁tuli	-7.72333
▁toukokuuta	-7.72705
▁syyskuuta	-7.72922
D	-7.73069
ttu	-7.73209
▁lokakuuta	-7.73396
▁ha	-7.74131
▁Kiinan	-7.74395
vä	-7.74415
▁säveltäjä	-7.74606
▁saksalainen	-7.74857
ihin	-7.75035
ch	-7.75514
kka	-7.75698
ot	-7.75777
▁Li	-7.77209
▁kuten	-7.77283
▁vuoden	-7.77392
ttä	-7.77454
▁Jo	-7.77572
▁muun	-7.77643
▁noi	-7.77741
▁Ra	-7.77844
▁kanssa	-7.78086
"	-7.7821
▁m	-7.78341
set	-7.78632
ru	-7.78693
so	-7.78946
sten	-7.79317
▁englantilai	-7.79484
sia	-7.79651
▁(19	-7.80419
teen	-7.80431
7	-7.80553
▁4	-7.80764
▁elokuuta	-7.80833
▁pesii	-7.80834
▁11	-7.80878
▁vi	-7.81044
▁he	-7.81216
essa	-7.81253
▁jotk	-7.81426
llis	-7.81453
▁Hän	-7.81523
issä	-7.81764
▁jossa	-7.81895
▁Etelä	-7.82409
▁maaliskuuta	-7.82434
▁saa	-7.82453
ul	-7.82501
I	-7.82689
▁kesäkuuta	-7.82709
▁yli	-7.828
▁helmikuuta	-7.82974
▁Ta	-7.83297
▁Euroopan	-7.84449
E	-7.84714
▁Sa	-7.85008
▁tu	-7.85169
neet	-7.85288
taan	-7.85395
▁"	-7.85484
io	-7.85485
iin	-7.85773
▁U	-7.86164
▁Si	-7.86434
ju	-7.86543
sä	-7.86615
▁W	-7.86853
bi	-7.87019
R	-7.87101
ir	-7.87333
▁heinäkuuta	-7.88013
isia	-7.88025
mpi	-7.88036
mp	-7.88276
▁käytetään	-7.8852
▁hän	-7.88938
K	-7.88978
▁R	-7.89012
▁Vi	-7.89034
▁sa	-7.89123
laiset	-7.89685
ge	-7.89718
;	-7.89959
▁pa	-7.89969
B	-7.89974
▁o	-7.89979
▁13	-7.90001
aika	-7.90686
▁Y	-7.90696
▁Ro	-7.90834
▁maa	-7.90853
▁ne	-7.90858
5	-7.90873
nyt	-7.91111
w	-7.917
lin	-7.91924
▁kirjailija	-7.93066
▁L	-7.93071
–19	-7.93347
▁muassa	-7.93524
rin	-7.94163
▁kuitenkin	-7.94275
dynastia	-7.94357
▁ra	-7.94518
aali	-7.9484
mies	-7.9485
▁cm	-7.95123
▁1.	-7.95436
im	-7.95917
▁al	-7.95964
ver	-7.95994
10	-7.96128
20	-7.96195
▁vanha	-7.965
▁Mi	-7.96557
mm	-7.96919
▁N	-7.9762
ter	-7.97666
▁J	-7.97716
▁5	-7.97721
ck	-7.98113
50	-7.98293
ys	-7.98725
go	-7.98994
ga	-7.99032
19	-7.99319
kunta	-7.9952
▁B	-8.00449
▁Ranskan	-8.00574
▁sai	-8.00735
▁Ba	-8.00914
du	-8.01001
tö	-8.0126
ran	-8.01723
▁Ar	-8.01864
iksi	-8.02052
▁III	-8.02234
kseen	-8.02468
▁olla	-8.02493
'	-8.0267
▁sitä	-8.03432
osa	-8.0346
lan	-8.03599
per	-8.03666
▁k	-8.03887
luvun	-8.04262
▁hyvin	-8.04348
illä	-8.04451
po	-8.04695
▁Va	-8.0496
uksen	-8.05104
▁mu	-8.05314
▁vuotta	-8.05351
ton	-8.05468
H	-8.05545
maa	-8.05591
▁Pa	-8.05625
▁Le	-8.05714
N	-8.06229
▁taidemaalari	-8.06374
via	-8.06593
elle	-8.06725
▁va	-8.06855
ly	-8.06962
ba	-8.07057
▁le	-8.07102
▁Ko	-8.07123
▁toimi	-8.07598
su	-8.07601
▁laji	-8.07711
llinen	-8.07723
▁muut	-8.08025
é	-8.08104
▁yleensä	-8.08105
▁tarkoittaa	-8.08286
▁Englannin	-8.08548
▁kaksi	-8.08577
luvulla	-8.08646
▁Al	-8.08673
men	-8.08739
mis	-8.08995
oi	-8.09027
ce	-8.0926
O	-8.09385
12	-8.09731
din	-8.09937
▁nimi	-8.10413
sin	-8.10479
▁Ku	-8.10526
han	-8.10643
▁Ha	-8.10912
’	-8.10936
lloin	-8.10951
oma	-8.10965
je	-8.11222
een	-8.11316
ing	-8.11705
tys	-8.12089
ee	-8.12154
ön	-8.1246
vu	-8.12851
▁Itä	-8.1324
▁Mo	-8.133
▁nä	-8.13408
▁filosofi	-8.13886
ää	-8.1413
▁Te	-8.14212
hu	-8.14827
ji	-8.15252
▁pitkä	-8.15257
▁ensimmäinen	-8.1534
▁var	-8.15488
▁perustettiin	-8.15729
j	-8.1575
mu	-8.15951
▁olivat	-8.16846
ala	-8.17091
▁paria	-8.17395
▁Kaarle	-8.17618
isi	-8.17788
▁runoilija	-8.18003
70	-8.18196
▁e	-8.18263
▁Pi	-8.18723
id	-8.19062
▁sillä	-8.19322
ol	-8.19479
▁g	-8.20701
tettiin	-8.21139
iä	-8.2141
▁Ca	-8.21739
seen	-8.21863
lais	-8.21863
tava	-8.22105
▁kirja	-8.22108
▁val	-8.2234
um	-8.22455
kaa	-8.22468
be	-8.22736
▁Mu	-8.2287
tuu	-8.22888
▁Me	-8.22947
▁To	-8.23009
▁paino	-8.23188
fi	-8.23469
▁Re	-8.23676
▁paavi	-8.23713
▁musta	-8.23715
▁7	-8.2372
misen	-8.24389
▁Pu	-8.2456
▁lintu	-8.24838
▁Hu	-8.25071
▁pu	-8.25099
ry	-8.25113
▁Bo	-8.25247
ien	-8.25339
ttiin	-8.25372
▁Na	-8.25885
▁luo	-8.25984
met	-8.26003
▁Levinneisyys	-8.26022
mia	-8.26048
uk	-8.26559
mista	-8.2685
bo	-8.27142
▁alkoi	-8.27543
estä	-8.27556
▁kieli	-8.27754
▁D	-8.285
ic	-8.28587
▁6	-8.28866
▁De	-8.28908
▁of	-8.29061
▁Su	-8.29127
ude	-8.29377
▁miljoonaa	-8.29378
eri	-8.29796
op	-8.30019
▁so	-8.30532
talo	-8.30571
ttaa	-8.30665
eli	-8.30732
▁Sen	-8.31205
▁pieni	-8.31344
miseen	-8.31397
isten	-8.3148
F	-8.31532
kas	-8.31613
▁IV	-8.31703
▁Henrik	-8.31748
gi	-8.31845
▁Tu	-8.31852
co	-8.31909
▁kolme	-8.32564
▁Venäjän	-8.32664
▁kuu	-8.32707
▁vasta	-8.32722
ven	-8.32778
▁Koko	-8.32799
▁Bysanti	-8.32937
▁jota	-8.33002
▁suur	-8.33002
▁So	-8.33468
ella	-8.33486
ava	-8.33495
ed	-8.336
▁vaa	-8.33667
min	-8.3373
▁f	-8.34065
▁Ni	-8.34083
▁Ravinto	-8.34288
▁Mar	-8.34545
isti	-8.35131
▁poika	-8.35526
ltaan	-8.35553
▁su	-8.35707
▁ke	-8.35846
▁vesi	-8.36298
ker	-8.36653
▁lähes	-8.36998
ina	-8.37078
ksen	-8.37216
▁ki	-8.37296
▁häne	-8.37507
▁Pyhä	-8.37536
▁esi	-8.37895
▁sota	-8.38015
▁niin	-8.38237
ppi	-8.38542
mat	-8.38593
ikka	-8.3878
▁Ka	-8.38982
▁alue	-8.39068
▁sy	-8.39114
ang	-8.39177
esta	-8.39245
▁arvo	-8.39247
kirja	-8.3937
00	-8.3968
▁Euroopassa	-8.39685
▁no	-8.39686
utta	-8.39902
mmin	-8.39975
eaa	-8.39978
pä	-8.40223
▁Ho	-8.40401
▁Ne	-8.40517
▁He	-8.40798
tte	-8.40823
ettu	-8.40849
▁maan	-8.41297
30	-8.41301
▁Lisääntymi	-8.41333
▁valtio	-8.41443
em	-8.41638
▁kuva	-8.41925
▁ennen	-8.42305
▁Keski	-8.42334
▁ase	-8.42445
isesti	-8.42695
rä	-8.42709
▁b	-8.42711
▁syö	-8.42877
dy	-8.42887
▁Lo	-8.43027
▁työ	-8.43078
don	-8.43139
▁X	-8.43327
▁väli	-8.43552
▁yleis	-8.43716
ivat	-8.43859
▁joita	-8.44597
G	-8.44678
yn	-8.44773
laji	-8.44801
▁niiden	-8.44804
usta	-8.44922
▁Da	-8.45012
▁vuosina	-8.45093
tettu	-8.45123
▁Lu	-8.45142
▁päivää	-8.45152
▁Ke	-8.45235
▁tavataan	-8.45363
th	-8.45537
var	-8.45576
▁eivät	-8.45727
essä	-8.45799
▁käyttää	-8.45826
▁=	-8.46657
2)	-8.46763
▁25.	-8.46829
ellä	-8.46887
▁9	-8.47025
vien	-8.47346
▁Viitteet	-8.4735
taja	-8.47388
▁hallitsija	-8.47465
▁suuri	-8.47624
▁pe	-8.47639
nsä	-8.47648
▁pesä	-8.47673
▁Ja	-8.47719
pin	-8.47874
▁lisäksi	-8.47995
▁vo	-8.48154
ltä	-8.48166
isin	-8.48188
▁to	-8.4824
▁moni	-8.48281
▁sana	-8.48415
▁Ju	-8.48719
tty	-8.48802
kon	-8.48811
▁ulkonäkö	-8.48915
▁vastaan	-8.48927
▁asu	-8.48998
80	-8.49126
ura	-8.49144
▁sisä	-8.49202
isto	-8.49264
▁Ch	-8.4954
ikko	-8.49876
▁Lintu	-8.49987
pää	-8.49989
ske	-8.50058
ius	-8.50134
yl	-8.50333
ris	-8.50371
▁Elinympäristö	-8.505
▁Radio	-8.50503
aari	-8.50863
▁8.	-8.50962
dynastian	-8.5105
ski	-8.51087
ilta	-8.51468
▁iso	-8.51632
▁välillä	-8.51752
▁Po	-8.52066
pp	-8.52232
oja	-8.52472
▁jää	-8.52561
▁määrä	-8.52971
▁The	-8.53038
uh	-8.53042
▁tulee	-8.53354
60	-8.53391
kku	-8.53637
▁John	-8.53775
▁lu	-8.53793
ppa	-8.5396
isiin	-8.54305
▁lo	-8.54405
neen	-8.54547
▁Ri	-8.54576
3)	-8.5478
99	-8.54811
om	-8.54898
▁3.	-8.54961
▁hi	-8.5512
▁valtakunnan	-8.55229
ulu	-8.55475
▁maailman	-8.55539
ttava	-8.55559
vel	-8.55587
▁kuuluu	-8.55614
▁väri	-8.55786
▁keski	-8.55813
kuva	-8.561
son	-8.56168
▁käy	-8.56387
▁valta	-8.56457
90	-8.56463
57	-8.56495
▁Tä	-8.56538
▁Naaras	-8.56546
nimi	-8.56688
▁kar	-8.56772
▁kuuluva	-8.56795
▁li	-8.56889
▁20	-8.57207
tra	-8.576
od	-8.57603
▁kaikki	-8.57722
itä	-8.57748
▁6.	-8.58319
▁alku	-8.58446
lintu	-8.58679
llo	-8.5903
11	-8.59342
▁29	-8.59376
▁josk	-8.59459
▁laske	-8.5946
▁24.	-8.59527
▁itse	-8.59683
▁tuo	-8.59866
ettiin	-8.60219
▁8	-8.60262
▁tieto	-8.60267
metri	-8.60472
15	-8.60538
▁27.	-8.607
ca	-8.6112
llisesti	-8.61152
▁Di	-8.61193
päivä	-8.61227
yt	-8.61696
tun	-8.61729
▁ulko	-8.61789
lm	-8.61917
▁Kun	-8.61996
▁Be	-8.62179
▁ro	-8.62281
▁Tapahtu	-8.62295
ska	-8.62314
val	-8.62376
▁the	-8.62577
malla	-8.62745
vin	-8.62786
kkaa	-8.62871
uutta	-8.62874
▁hu	-8.62875
▁Co	-8.63045
▁ala	-8.63264
ron	-8.63594
▁2.	-8.63737
sesti	-8.64
ori	-8.64017
▁herttua	-8.64176
valla	-8.64176
▁kuukautta	-8.64196
▁Länsi	-8.64197
▁pituus	-8.64202
▁nousi	-8.64209
▁31	-8.64396
tar	-8.64499
tetaan	-8.6467
▁taistelu	-8.6473
▁espanjalai	-8.6481
▁avulla	-8.6481
▁piispa	-8.64811
jopa	-8.64833
▁Laji	-8.6484
▁12.	-8.64879
yy	-8.65072
▁10.	-8.65307
mer	-8.6534
▁oleva	-8.654
tele	-8.6544
▁esiintyy	-8.65633
17	-8.65823
U	-8.65929
kuu	-8.65932
▁Z	-8.66024
▁ITIS	-8.66048
▁vielä	-8.66096
▁pappi	-8.66105
▁Turun	-8.66108
teet	-8.66133
mme	-8.66441
mistä	-8.6651
arvo	-8.66529
%	-8.66708
▁22.	-8.66791
vaa	-8.66904
▁4.	-8.66934
▁Hi	-8.67032
ite	-8.67234
▁Myös	-8.67303
her	-8.67386
tyy	-8.67491
▁koska	-8.67534
▁Ru	-8.67598
esti	-8.67965
23	-8.68057
muoto	-8.68185
eksi	-8.68218
▁Per	-8.68292
▁rengastettu	-8.68576
▁Vanhi	-8.68616
ell	-8.68634
▁alkaa	-8.68638
eita	-8.68686
▁talvehti	-8.68694
▁re	-8.68788
▁pois	-8.69031
▁5.	-8.69232
18	-8.69263
▁ensimmäisen	-8.6932
▁pohjois	-8.69346
▁23.	-8.69357
tai	-8.69521
lai	-8.69584
kala	-8.69751
▁joissa	-8.69824
▁kaupunki	-8.69879
▁28.	-8.69973
▁hä	-8.70057
toja	-8.70086
wa	-8.7021
▁21.	-8.70403
pal	-8.7051
▁siitä	-8.70565
▁kanta	-8.70721
alue	-8.71045
▁saksalais	-8.71169
▁elokuva	-8.71287
▁lähe	-8.71357
oli	-8.71382
▁kenraali	-8.71418
▁saman	-8.71597
mon	-8.71724
kunnan	-8.71724
▁vaalea	-8.71763
▁kau	-8.71863
mään	-8.7192
▁Go	-8.71969
▁yliopisto	-8.72176
▁20.	-8.72354
▁Historia	-8.72494
ukset	-8.72659
mmat	-8.72772
tia	-8.73027
V	-8.73363
▁valo	-8.73418
▁ääni	-8.73613
uun	-8.73642
▁pari	-8.73749
järvi	-8.73795
40	-8.7405
kaan	-8.74141
uuden	-8.74219
tila	-8.74394
▁kuninkaaksi	-8.74497
▁Val	-8.74623
▁myöhemmin	-8.74684
▁Norjan	-8.74735
▁oma	-8.75008
ttää	-8.75165
▁luku	-8.75184
▁muita	-8.7534
▁c	-8.7543
▁vuosikymmene	-8.75522
▁matemaatikko	-8.7586
▁musiikki	-8.7616
▁aika	-8.76188
▁11.	-8.76503
45	-8.7661
65	-8.76735
▁yksilö	-8.76742
▁joista	-8.76759
▁Japanin	-8.76773
▁and	-8.76831
▁13.	-8.76949
▁vuosi	-8.76983
▁hy	-8.77088
13	-8.77088
▁tila	-8.77125
▁Tämä	-8.77356
▁suurin	-8.77422
▁Poikase	-8.77509
▁Johann	-8.7761
▁erityise	-8.77694
▁asia	-8.77899
ian	-8.77926
ajan	-8.77955
▁käytetty	-8.77957
järjestelmä	-8.78052
▁Yle	-8.7855
26	-8.7856
▁neljä	-8.78568
▁hieman	-8.78648
▁aina	-8.78699
iivi	-8.78863
55	-8.78868
tään	-8.79039
stö	-8.79235
ologia	-8.79374
–18	-8.79534
▁puu	-8.79751
79	-8.79798
oni	-8.79894
▁au	-8.80026
▁munaa	-8.80092
▁kutsutaan	-8.80099
▁teho	-8.80135
35	-8.80307
▁Suuri	-8.80498
lis	-8.80651
▁paljon	-8.80791
gu	-8.80951
bu	-8.81041
▁7.	-8.8109
▁ar	-8.81092
uksia	-8.81095
ser	-8.81224
▁pohja	-8.81298
mar	-8.81388
▁9.	-8.81414
25	-8.8146
▁professori	-8.81515
▁syy	-8.81581
▁mitta	-8.8161
▁kautta	-8.81762
▁15.	-8.81764
▁useita	-8.81927
ile	-8.81971
siä	-8.81977
ise	-8.81984
tuksen	-8.82182
▁suure	-8.82194
▁alankomaalai	-8.82245
▁teologi	-8.8227
▁alueella	-8.82363
itti	-8.82392
tää	-8.82402
ojen	-8.82469
▁Johan	-8.82616
tor	-8.82659
94	-8.82695
▁ajan	-8.8294
▁poliitikko	-8.82982
▁puoliso	-8.83024
paikka	-8.83099
▁26.	-8.83123
▁mikä	-8.83166
▁St	-8.83257
isiä	-8.83289
64	-8.83393
puol	-8.83504
▁sama	-8.83509
27	-8.83605
ula	-8.83633
kor	-8.8365
▁metsä	-8.83716
▁kuningatar	-8.83729
chi	-8.83898
▁vanhin	-8.83949
▁30	-8.84309
24	-8.8433
llisen	-8.84332
eikä	-8.84348
▁kesä	-8.84518
▁18.	-8.84582
▁Lisä	-8.84642
Suomessa	-8.84643
aatio	-8.84741
ointi	-8.84759
inpoika	-8.8476
▁ruo	-8.84807
tori	-8.84885
▁vie	-8.84945
tävä	-8.85302
▁tie	-8.85313
ber	-8.85652
▁Pro	-8.85758
▁19.	-8.85791
▁henkilö	-8.85795
hin	-8.85812
▁josta	-8.85872
kään	-8.86033
22	-8.86089
▁mm	-8.86107
▁meri	-8.86111
ff	-8.86208
▁Ve	-8.86241
pol	-8.86386
▁teo	-8.86394
▁Tanskan	-8.86533
▁Ti	-8.86553
vii	-8.86703
▁Har	-8.86747
etaan	-8.86749
▁Maa	-8.86753
▁suku	-8.86762
▁seuraava	-8.86782
▁päivä	-8.86806
▁ru	-8.86901
▁munii	-8.86968
▁lii	-8.87038
lve	-8.87107
▁Do	-8.87182
▁etelä	-8.87184
tsi	-8.87265
ola	-8.87268
hen	-8.8731
tunut	-8.87478
▁kan	-8.87582
▁ilma	-8.87621
W	-8.87791
tion	-8.87971
▁tumma	-8.87985
▁asti	-8.8818
75	-8.8822
▁jolla	-8.88498
aatti	-8.88516
▁jäsen	-8.88564
▁suomalais	-8.88662
▁perin	-8.88712
kat	-8.88745
▁Var	-8.88763
28	-8.88792
▁vuoksi	-8.89074
siin	-8.89106
der	-8.89135
mpaa	-8.8915
▁laulu	-8.89194
▁Gu	-8.89383
inä	-8.89429
▁sähkö	-8.89854
▁900	-8.89895
▁Johannes	-8.89935
49	-8.90129
46	-8.9034
ano	-8.90524
▁(1	-8.90562
34	-8.90587
▁käyttöön	-8.90611
▁varsin	-8.9063
▁kala	-8.90634
▁käyttö	-8.90646
▁100	-8.90774
▁uusi	-8.90844
muodo	-8.91154
▁0	-8.91284
▁Esimerkiksi	-8.91447
▁taas	-8.91497
imi	-8.91513
▁tasa	-8.91526
ster	-8.91778
▁alussa	-8.91812
▁voima	-8.91891
ld	-8.92141
▁Kirjallisuutta	-8.92253
▁Näi	-8.92257
tojen	-8.92349
ment	-8.92514
▁toinen	-8.92557
▁Pää	-8.9269
kieli	-8.92716
voima	-8.92812
74	-8.92846
▁pro	-8.92867
viä	-8.92883
▁kappale	-8.92974
▁kaupungin	-8.93024
▁japanilai	-8.93074
▁syntyneet	-8.93114
ger	-8.93212
▁&	-8.93234
▁arkkitehti	-8.93264
hy	-8.934
38	-8.93448
29	-8.93569
▁itä	-8.93687
▁perus	-8.93699
▁LuontoPortti	-8.93886
▁havait	-8.93895
▁Musta	-8.9393
▁tois	-8.93931
▁sotilas	-8.9396
▁30.	-8.94006
▁muiden	-8.94128
▁kansan	-8.94275
▁perusti	-8.94305
▁km	-8.94621
▁soi	-8.94659
asema	-8.94671
▁kuoli	-8.94804
my	-8.94806
▁joukko	-8.9487
▁Jean	-8.94936
ohjelma	-8.9505
▁muoto	-8.95061
▁olevan	-8.95072
▁vai	-8.953
▁Iso	-8.95307
▁Ga	-8.95394
▁lääni	-8.95556
▁rauha	-8.95607
alainen	-8.95645
,5	-8.95661
eja	-8.95665
▁Jos	-8.95692
▁korkea	-8.95718
risti	-8.95824
31	-8.96221
sarja	-8.96255
58	-8.9629
▁tunnus	-8.96386
▁Luettelo	-8.96386
▁Portugali	-8.96386
▁jos	-8.96387
97	-8.96625
▁päättyi	-8.96665
▁ruskea	-8.96912
vuosi	-8.97043
▁Fa	-8.97162
▁koo	-8.97243
puoli	-8.97313
vuo	-8.97422
ero	-8.97458
opi	-8.97509
▁Par	-8.9751
str	-8.97823
67	-8.98
▁ihmis	-8.98047
▁epä	-8.98109
▁koostu	-8.98149
emi	-8.98341
▁pinta	-8.98343
iseksi	-8.98408
ppu	-8.98682
rit	-8.98693
▁joiden	-8.9882
mien	-8.98845
laisten	-8.98995
8)	-8.99063
kana	-8.99101
▁elää	-8.99164
seura	-8.99274
▁lähin	-8.99418
oppi	-8.99479
▁(18	-8.99566
▁pala	-8.99645
määrä	-8.99698
▁historia	-8.99705
16	-8.99822
▁pikku	-8.9987
▁harmaa	-8.99948
teoria	-8.99992
roomalaise	-9.00004
▁pesi	-9.0017
▁kielen	-9.0033
cc	-9.00402
fo	-9.00429
tieteilijä	-9.00446
▁16.	-9.00449
mus	-9.00479
▁vara	-9.00671
nes	-9.00674
▁kreivi	-9.00697
▁muistuttaa	-9.00704
▁kulttuuri	-9.00774
▁keisarikunnan	-9.00788
▁Eerik	-9.00869
yö	-9.00876
▁perustaja	-9.00938
voivat	-9.01129
ija	-9.01152
▁No	-9.01183
sson	-9.01401
▁d	-9.01416
▁Skotlanni	-9.01582
▁yhden	-9.01626
▁nime	-9.01665
ud	-9.01851
▁kal	-9.02058
ilu	-9.02249
massa	-9.02316
▁brittiläinen	-9.02475
▁johon	-9.02492
J	-9.02513
▁En	-9.02662
staan	-9.02825
59	-9.02852
▁Kor	-9.02973
42	-9.03092
▁ylä	-9.03283
▁Pe	-9.03308
▁Fredrik	-9.03376
▁1000-	-9.03378
51	-9.0338
▁oppi	-9.03542
▁syntyi	-9.03577
▁Rooman	-9.03587
▁tutki	-9.03718
laisen	-9.03802
▁vastaava	-9.03827
▁yksilöä	-9.04034
▁El	-9.04106
54	-9.0422
ü	-9.04285
▁LYL	-9.04286
▁1300-	-9.04286
▁Helsingin	-9.04378
aste	-9.04452
alli	-9.04461
▁Jin	-9.04527
amma	-9.04584
time	-9.04604
ow	-9.04658
▁raja	-9.04771
▁käytössä	-9.04882
▁ero	-9.04925
63	-9.0512
▁Or	-9.05194
▁kuukauden	-9.05222
▁lyhyt	-9.05245
▁sivu	-9.05256
miin	-9.0543
▁Kan	-9.05515
▁kunta	-9.05526
▁muu	-9.05592
ismi	-9.05658
za	-9.05727
lliset	-9.05745
uus	-9.0594
▁aja	-9.06025
▁käsi	-9.06064
▁kerran	-9.06132
▁puhu	-9.06166
–16	-9.0623
44	-9.06244
fa	-9.0632
▁missä	-9.06355
▁rakenta	-9.06517
71	-9.06619
▁Du	-9.06708
iseen	-9.06843
▁nykyise	-9.06958
▁kir	-9.07003
poja	-9.07036
▁Sii	-9.07043
▁Ludvig	-9.07063
▁kielet	-9.07072
tie	-9.07139
tetään	-9.07191
yys	-9.07238
kone	-9.07331
yttä	-9.07331
amp	-9.07333
▁lääkäri	-9.07361
▁Kir	-9.07484
▁17.	-9.0768
ologi	-9.07681
▁Tur	-9.07994
▁sijaitsee	-9.08006
▁niitä	-9.08009
sista	-9.08152
▁saakka	-9.08167
▁laaja	-9.08217
▁ho	-9.08427
ation	-9.08705
eet	-9.08712
▁taistelussa	-9.08718
iini	-9.08722
▁teki	-9.08737
ovi	-9.08764
▁kirkko	-9.08851
▁vir	-9.08863
oitu	-9.08905
▁vaikka	-9.09083
kö	-9.09156
▁par	-9.09229
▁valtion	-9.09239
▁1600-	-9.0924
88	-9.0937
tien	-9.09376
peli	-9.09455
valta	-9.09478
▁Espanjan	-9.09549
▁tavallisest	-9.0955
▁olisi	-9.09564
▁hallitsi	-9.09656
▁po	-9.09727
▁kasv	-9.09899
kset	-9.09904
▁yksikkö	-9.10256
▁keskus	-9.10692
▁joten	-9.10756
▁van	-9.10814
▁Han	-9.10828
▁Aleksanteri	-9.10891
ō	-9.10891
▁prosenttia	-9.10908
62	-9.10933
▁radio	-9.10939
▁me	-9.10958
▁toisen	-9.11241
▁vastaa	-9.11262
piir	-9.11489
▁maassa	-9.11538
vis	-9.11626
66	-9.11631
▁pyrstö	-9.11712
▁Kiinassa	-9.1172
ensa	-9.11794
▁hautoo	-9.11872
▁1400-	-9.11873
▁tähtitieteilijä	-9.1188
▁siipien	-9.11881
järve	-9.11883
kunti	-9.11903
▁nykyään	-9.11914
tyyppi	-9.11923
dan	-9.12073
▁piiri	-9.12177
▁ohjelma	-9.12183
–15	-9.12224
š	-9.12297
87	-9.12367
▁silmä	-9.12767
sessa	-9.12811
▁vuodesta	-9.12862
▁valittiin	-9.12863
▁ulottu	-9.12865
▁Robert	-9.12883
▁San	-9.13082
▁Kar	-9.13087
▁ryhmä	-9.13126
▁anta	-9.13169
▁vallan	-9.13196
Euroopassa	-9.13276
tetty	-9.13289
▁tapa	-9.13571
▁kel	-9.13623
▁virta	-9.13626
▁asema	-9.13749
▁loppu	-9.13793
▁luonnon	-9.13806
▁pääasiassa	-9.13862
▁siihen	-9.1387
▁2010	-9.13928
▁+	-9.14004
suku	-9.14006
▁Pal	-9.14087
▁Am	-9.14087
br	-9.141
▁esiinty	-9.14137
–17	-9.14237
▁Carl	-9.14318
▁piste	-9.14435
lah	-9.14484
▁juo	-9.14499
ppo	-9.14621
sesta	-9.14727
01	-9.14818
▁sulttaani	-9.14872
▁katolinen	-9.14873
▁Paavi	-9.14883
▁valtaneuvos	-9.14885
▁saapu	-9.14903
▁Vuoden	-9.14914
▁tulo	-9.14996
berg	-9.15016
▁Maria	-9.15181
hau	-9.15301
▁lisä	-9.15381
kylä	-9.15433
▁erittä	-9.15451
ivät	-9.15464
▁Kosk	-9.15687
▁ympäri	-9.15879
▁Osmani	-9.15892
tkimusmatkailija	-9.15893
▁selkä	-9.15895
▁Pesä	-9.15953
▁per	-9.16149
rd	-9.16156
ros	-9.16183
asu	-9.16293
aine	-9.16455
▁perustu	-9.16552
78	-9.16605
▁eten	-9.16659
▁usko	-9.16691
tusta	-9.16852
▁ISBN	-9.16923
▁sisältää	-9.16923
▁kahden	-9.16924
olo	-9.17011
▁merkit	-9.17031
oksen	-9.17291
teiden	-9.17321
X	-9.17349
ensä	-9.17374
▁alu	-9.17437
▁min	-9.17507
har	-9.17604
ltään	-9.17655
▁Gi	-9.17745
▁sää	-9.17873
▁Wi	-9.17943
▁Maailman	-9.17965
▁kärkiväli	-9.17965
▁viikon	-9.1798
▁arvioida	-9.18014
200	-9.18069
▁suurempi	-9.18136
järjestelmän	-9.18423
▁SI	-9.18617
und	-9.18722
▁viikkoa	-9.1902
▁da	-9.19035
▁usei	-9.19099
▁Juhana	-9.19207
sivat	-9.19209
36	-9.19253
▁lähtien	-9.19264
á	-9.19299
▁näyt	-9.19438
▁liike	-9.19468
oissa	-9.19526
yhtiö	-9.19668
valtio	-9.19777
piiri	-9.19989
▁kiinalai	-9.20053
▁William	-9.20081
▁vähintään	-9.20081
▁Muut	-9.20107
▁melko	-9.2015
▁VI	-9.203
▁Bu	-9.20327
▁halu	-9.2038
▁Maan	-9.20412
800-	-9.20493
▁Sitä	-9.21012
▁kii	-9.2103
▁Thomas	-9.21157
▁ruhtinas	-9.2117
▁läpi	-9.21175
▁aloitti	-9.21213
▁perusta	-9.21254
▁dynastiat	-9.21366
▁muuta	-9.21478
▁Ruotsi	-9.21602
▁yhteis	-9.21635
▁historioitsija	-9.21702
▁Jan	-9.21861
▁Ver	-9.21938
▁etu	-9.22047
▁edelleen	-9.22243
kar	-9.22285
▁mukana	-9.22288
▁valtiomies	-9.22325
▁siten	-9.22346
▁lähellä	-9.22413
kerttu	-9.22457
hal	-9.22624
▁hyvä	-9.22631
▁suosi	-9.22821
ryhmä	-9.23082
▁jouko	-9.23207
▁enemmän	-9.23342
▁kapina	-9.23544
▁nimellä	-9.23602
liikenne	-9.23695
yksikö	-9.23725
▁mahdollis	-9.23768
▁puoli	-9.23878
81	-9.23947
▁kutsu	-9.23975
llaan	-9.24311
▁siis	-9.24318
▁Kiina	-9.24387
▁Filip	-9.24408
▁hyönteisiä	-9.24464
▁pienempi	-9.24491
evä	-9.24662
che	-9.24703
85	-9.24753
▁kasvi	-9.24919
land	-9.25257
▁naaras	-9.25314
elokuva	-9.2534
▁ranta	-9.25481
▁yhtä	-9.25566
▁tämä	-9.25569
å	-9.25577
▁arkkipiispa	-9.25577
Saksa	-9.25577
▁vuoteen	-9.25579
▁tunnetaan	-9.25673
▁maakunta	-9.25716
▁Mer	-9.26047
hun	-9.26073
▁tur	-9.26243
iitti	-9.26259
▁lento	-9.26278
▁ilmais	-9.26418
virta	-9.26584
▁kuului	-9.26631
▁vapaa	-9.26641
­	-9.26713
▁ikäisinä	-9.26714
▁Ä	-9.26773
isissa	-9.26783
▁johtaja	-9.26817
▁2003	-9.26872
▁yh	-9.27033
wi	-9.27042
miseksi	-9.27153
▁pysty	-9.27356
▁hii	-9.27392
stel	-9.27606
▁aikaan	-9.27743
▁koulu	-9.27794
▁erot	-9.27832
▁Internet	-9.27863
▁tanskalai	-9.27863
▁Pietari	-9.27872
▁käyttämä	-9.27935
▁Suomalaise	-9.27958
qu	-9.27968
21	-9.27976
▁Laulu	-9.27985
▁saadaan	-9.28102
▁kuulu	-9.28195
teja	-9.28346
▁koiras	-9.28457
johtaja	-9.28498
jia	-9.28633
llään	-9.28792
keskus	-9.28866
▁300	-9.28947
Suomen	-9.28956
▁ensimmäise	-9.28986
▁säily	-9.29026
▁kirkkoherra	-9.29034
▁maaherra	-9.29053
▁piene	-9.29262
mor	-9.29365
ard	-9.29383
▁koske	-9.29404
▁Ber	-9.29624
▁siirto	-9.29668
ilija	-9.29738
halli	-9.29782
▁200	-9.29837
elli	-9.29893
▁Pohjan	-9.29896
for	-9.29909
kauden	-9.29962
piste	-9.30093
eista	-9.30115
kit	-9.30119
npoika	-9.30161
saari	-9.30198
ier	-9.30202
▁kertaa	-9.30206
▁pääkaupunki	-9.30229
▁nykyisin	-9.30238
les	-9.3027
ansa	-9.30273
▁mainit	-9.3028
▁johti	-9.30281
73	-9.30326
jien	-9.3035
ec	-9.30427
▁tuotta	-9.30436
joen	-9.3046
▁ruoka	-9.30461
llista	-9.30567
▁muodost	-9.30578
▁kivi	-9.3067
joki	-9.30678
▁samalla	-9.30762
kulma	-9.30857
▁Fi	-9.30861
Aasia	-9.31052
del	-9.31105
▁50	-9.31203
yhdysvaltalainen	-9.31393
▁Keisari	-9.31393
▁käytettiin	-9.3145
sessä	-9.31458
tunnus	-9.31469
▁siinä	-9.31494
suo	-9.31507
▁alle	-9.31605
▁raha	-9.32131
▁%	-9.32169
mman	-9.32209
cal	-9.32243
▁valkea	-9.32291
▁kuninkaan	-9.32299
we	-9.32299
▁lau	-9.32405
▁Yksi	-9.32426
▁suomen	-9.32498
▁presidentti	-9.32598
▁rajoi	-9.32618
bb	-9.32625
palvelu	-9.32647
▁väestö	-9.32648
▁kuolleet	-9.32652
▁valloitti	-9.32656
kaani	-9.32732
▁di	-9.3279
▁Yhdysvalta	-9.32828
▁Kau	-9.32847
telee	-9.32871
stään	-9.32916
▁suori	-9.32969
▁j	-9.32982
86	-9.3322
ston	-9.33276
▁1980-	-9.33332
–200	-9.33529
▁saattaa	-9.33531
▁Georg	-9.33776
▁julkaisi	-9.33817
▁ympäristö	-9.33845
▁tapahtuu	-9.34031
▁teksti	-9.34077
telu	-9.34401
▁har	-9.34541
ineen	-9.34623
▁vuosikymmen	-9.34725
▁ensi	-9.34837
Britannia	-9.34926
▁Ensimmäinen	-9.35051
puolella	-9.3506
▁kirkon	-9.35078
▁taka	-9.35147
(	-9.3521
▁Mat	-9.35244
ttävä	-9.35388
ive	-9.35398
verko	-9.3541
koko	-9.35452
▁pitää	-9.35475
sch	-9.35511
▁Kansa	-9.3558
▁Wei	-9.35692
osta	-9.35693
▁omi	-9.35725
▁ky	-9.35824
istus	-9.35853
▁sini	-9.35978
zi	-9.3602
tiikka	-9.36043
▁Vilhelm	-9.36301
▁yhteen	-9.36304
▁alkaen	-9.36308
▁osallistu	-9.3631
ttua	-9.36336
▁Oy	-9.36337
▁2009	-9.36375
suunta	-9.36427
yksikkö	-9.36445
▁koti	-9.36461
kunnat	-9.36533
puolue	-9.36686
misesta	-9.36701
▁levy	-9.3676
▁linnut	-9.36836
▁(20	-9.36916
laisia	-9.37014
utti	-9.37044
▁toise	-9.37056
seksi	-9.37462
▁nimen	-9.37549
▁aiemmin	-9.37567
▁julkaistiin	-9.37567
llisia	-9.37586
▁tämän	-9.37671
▁Kuu	-9.3769
▁korke	-9.37726
▁lähtevä	-9.3784
▁Leo	-9.37902
empi	-9.3798
oilla	-9.3802
▁Ol	-9.38135
▁lopulla	-9.38241
▁siirty	-9.38311
▁kansa	-9.38359
▁matka	-9.38373
56	-9.38373
luo	-9.3848
▁tietokone	-9.38587
lti	-9.38749
yhtye	-9.38752
sim	-9.38761
▁kiel	-9.38761
▁ainoa	-9.38836
▁senttimetriä	-9.38849
▁unioni	-9.38852
▁Qu	-9.38862
▁erikois	-9.38944
ikan	-9.39059
▁kuningaskunta	-9.39301
kien	-9.39384
▁kyl	-9.39418
bar	-9.39452
▁Kal	-9.39474
▁ilman	-9.39521
uksessa	-9.396
▁yhdist	-9.3963
▁video	-9.39658
▁Man	-9.39713
ion	-9.39832
by	-9.39863
sana	-9.39864
▁pieniä	-9.39999
silla	-9.4011
tiede	-9.40111
vää	-9.40127
▁juuri	-9.40155
dokument	-9.40155
väri	-9.40173
▁akatemian	-9.40183
▁katso	-9.40186
▁käytti	-9.40324
osissa	-9.4041
▁Ranska	-9.40412
▁Car	-9.40509
▁Br	-9.40572
▁For	-9.4063
▁25	-9.40645
zo	-9.40664
etti	-9.40675
92	-9.40708
▁60	-9.41036
▁joilla	-9.4108
uksesta	-9.4108
Eurooppa	-9.41187
▁laki	-9.4128
▁valtasi	-9.41365
▁nopea	-9.41413
▁Espanja	-9.41416
ex	-9.41423
▁pidetään	-9.41464
▁ottamatta	-9.41464
▁takia	-9.41472
▁matala	-9.41484
▁Tor	-9.41696
▁pitki	-9.41725
▁veden	-9.41794
eissa	-9.41814
liitto	-9.41872
toimi	-9.41901
▁populaatio	-9.41935
ossa	-9.42006
pul	-9.42012
▁Suure	-9.42024
▁maissa	-9.42197
ämä	-9.42356
▁emot	-9.42455
vän	-9.42527
▁Usei	-9.42706
▁kat	-9.42802
▁sävel	-9.42805
▁vuoro	-9.4282
perin	-9.4283
▁perusteella	-9.42839
▁myy	-9.42914
▁21	-9.4292
▁kausi	-9.42922
▁viimeinen	-9.42925
▁tarjo	-9.42969
que	-9.42983
▁180	-9.43015
▁1900	-9.4305
▁Ag	-9.43097
▁massa	-9.43303
esi	-9.43372
vissa	-9.43386
kausi	-9.4342
lukuun	-9.43447
▁Nyky	-9.43495
▁Yleis	-9.43528
ääni	-9.43529
▁nyky	-9.43532
veli	-9.43534
rus	-9.43557
▁avaruus	-9.43627
oihin	-9.43733
yksiä	-9.43756
päällikkö	-9.44125
ytelmäkirjailija	-9.44149
▁urkuri	-9.44149
▁tekee	-9.44149
lyhenne	-9.44204
▁myötä	-9.44268
▁Saksan	-9.44299
▁sarja	-9.44527
▁minkä	-9.4456
▁40	-9.44565
Y	-9.44593
tekijä	-9.44601
▁valkoinen	-9.44786
▁lähi	-9.44798
▁Bar	-9.44802
▁Kur	-9.44942
uudesta	-9.45009
▁tähti	-9.4514
▁kone	-9.45187
▁Com	-9.45278
▁seuraavia	-9.45366
▁yhdessä	-9.45519
▁poikke	-9.45525
▁150	-9.45527
▁Pikku	-9.45543
▁grammaa	-9.45543
▁toimii	-9.45553
▁Vuo	-9.45556
enää	-9.45577
▁valtakunta	-9.45604
uma	-9.45647
mpia	-9.45699
▁puolue	-9.45771
▁pensa	-9.45784
▁muodosta	-9.45801
vaihe	-9.45805
maat	-9.45866
▁äänen	-9.45923
Al	-9.45931
tit	-9.45999
pallo	-9.46026
▁sil	-9.46058
▁suu	-9.46122
▁isä	-9.46146
tš	-9.46274
ulo	-9.4634
jakso	-9.46586
dia	-9.46744
▁Suomi	-9.46745
▁Tämän	-9.469
tekniikka	-9.46907
▁vuorokautta	-9.46907
▁molemm	-9.46919
▁tsaari	-9.46979
▁New	-9.47014
vaunu	-9.47096
▁Kustaa	-9.47108
reuna	-9.47145
▁Ab	-9.47158
toista	-9.47276
▁Tanska	-9.47293
▁Suomeen	-9.47301
▁vatsa	-9.47355
▁Con	-9.47467
▁pur	-9.47692
▁jonkin	-9.47746
vara	-9.47746
Aasiassa	-9.48064
▁talous	-9.48146
▁venäläinen	-9.48316
▁järjestet	-9.48361
alus	-9.48396
▁suo	-9.48408
▁useimmi	-9.48475
sar	-9.48584
▁kehittä	-9.48619
▁2006	-9.4862
tapa	-9.48657
▁Song	-9.48665
▁Erik	-9.48751
ica	-9.48913
▁otta	-9.48928
ov	-9.49045
ettava	-9.49086
ira	-9.49178
–7	-9.49191
▁ter	-9.49304
rian	-9.49379
sella	-9.49707
ó	-9.49743
oista	-9.49769
asteikko	-9.49778
▁Nor	-9.49905
▁nokka	-9.49917
–14	-9.50068
tsu	-9.50147
oita	-9.50304
▁Er	-9.50339
▁metrin	-9.50368
raja	-9.50442
puu	-9.50484
radio	-9.50514
▁kokonais	-9.50552
▁Suo	-9.50728
mäki	-9.50766
eva	-9.50811
▁elämä	-9.50831
lleen	-9.50964
▁sala	-9.50995
gar	-9.51017
pei	-9.51107
▁Bi	-9.51188
▁Yhdysvalloissa	-9.51194
▁hyväksy	-9.51194
▁sodan	-9.51231
▁kuuluvat	-9.51264
TV	-9.51318
▁2004	-9.51358
työ	-9.51414
▁Eri	-9.51419
▁joutui	-9.51593
▁Nimi	-9.51687
82)	-9.517
▁Louis	-9.51728
▁kaava	-9.51856
▁kuitenk	-9.5192
▁Pel	-9.51933
".	-9.51994
musiikki	-9.52032
ze	-9.52081
merkki	-9.52109
anssi	-9.5212
▁eurooppalai	-9.52234
▁enti	-9.52338
▁Sama	-9.52455
dun	-9.5253
skus	-9.52593
▁palvelu	-9.52616
▁Venäjä	-9.52631
▁käytännö	-9.52664
▁yhteydessä	-9.52664
väylä	-9.52669
miehi	-9.52692
▁vastus	-9.52697
▁amiraali	-9.52704
mieli	-9.52788
satama	-9.52811
▁Oulu	-9.52853
▁suurimma	-9.52917
▁saanut	-9.52945
▁nuori	-9.53023
meri	-9.53036
kilo	-9.53081
▁valmista	-9.53199
▁Sal	-9.53249
otto	-9.53251
masta	-9.533
▁Lajin	-9.53312
▁kunnan	-9.53557
▁kuusi	-9.53721
0)	-9.53801
läinen	-9.54005
▁Puolan	-9.54053
▁tark	-9.54084
▁Ääni	-9.5416
▁viittaa	-9.54161
▁erottaa	-9.54218
ong	-9.54242
koodi	-9.5426
▁lehti	-9.5427
▁pyy	-9.54288
▁IX	-9.54377
▁edusta	-9.54483
▁ainakin	-9.54504
mentti	-9.54646
dor	-9.54837
laiva	-9.54915
84)	-9.55191
▁We	-9.55366
▁Rooma	-9.55476
▁kol	-9.55552
▁Sha	-9.55554
merki	-9.55614
▁Giovann	-9.55672
tuotanto	-9.55678
albumi	-9.55679
▁kehitty	-9.55685
▁Vanha	-9.55717
▁tutkimus	-9.55719
▁Her	-9.55741
▁tehty	-9.55768
53	-9.55788
▁2008	-9.55842
▁Muita	-9.55973
▁Cr	-9.56038
▁päivän	-9.56054
▁Gra	-9.56077
▁sh	-9.56086
rata	-9.5613
▁pesivä	-9.56207
tteli	-9.56518
ministeriö	-9.566
91)	-9.56704
▁voitti	-9.56724
vesi	-9.56778
▁muutama	-9.56787
levy	-9.56791
▁suuren	-9.56791
neuvos	-9.56843
▁energia	-9.56848
▁versio	-9.56906
nnin	-9.56945
hko	-9.57067
▁Afrikassa	-9.57207
▁Charles	-9.57214
▁heimoon	-9.57216
▁niistä	-9.57221
▁merkittävä	-9.57248
oitus	-9.5726
▁kasvaa	-9.57292
▁portugalilai	-9.5734
▁auto	-9.57382
pankki	-9.57423
▁pinna	-9.57425
koon	-9.57537
▁Vir	-9.57579
▁Anna	-9.57584
–13	-9.57614
▁varten	-9.5763
▁Helsinki	-9.57704
▁sata	-9.57744
eihin	-9.57756
▁rakenne	-9.57897
ttelu	-9.57904
▁itsenäis	-9.58104
▁puna	-9.5815
▁kansallis	-9.58163
▁vaati	-9.58191
alan	-9.582
ksessa	-9.58298
nssi	-9.58335
tikka	-9.58422
▁viime	-9.58428
▁paikallis	-9.58508
koski	-9.58584
▁elävä	-9.58628
tekniika	-9.58676
▁sijaitseva	-9.58689
▁aine	-9.58711
▁mikro	-9.5877
▁prinsessa	-9.58773
▁astetta	-9.58778
▁VIII	-9.58821
▁165	-9.58901
▁Toi	-9.58994
▁kirjoitta	-9.59025
▁vahv	-9.5907
yyli	-9.5918
ilainen	-9.59184
kanta	-9.59188
▁verkko	-9.59343
11)	-9.59493
▁omista	-9.59503
immi	-9.5959
jy	-9.59691
▁para	-9.5975
fer	-9.5983
▁armeijan	-9.59908
kuvio	-9.59982
▁Sch	-9.60045
pari	-9.60091
▁Kai	-9.60275
eilla	-9.60323
eläimet	-9.60355
▁François	-9.6036
▁MPEG	-9.6036
▁muuttolintu	-9.60361
▁Koiras	-9.60361
▁1100-	-9.60361
▁ran	-9.60364
▁puhe	-9.60376
ittain	-9.60416
▁ilme	-9.60429
vuor	-9.6045
▁olemassa	-9.60459
▁kannatta	-9.60464
▁1800-	-9.60476
▁osoit	-9.60528
▁viimeise	-9.60572
heimo	-9.60579
ler	-9.60694
rich	-9.60712
▁Kirja	-9.60809
mainen	-9.60814
▁miele	-9.60917
linja	-9.6092
vasta	-9.61026
miä	-9.61181
▁nais	-9.61268
lö	-9.61456
▁hovi	-9.61546
▁kr	-9.61573
taso	-9.61594
▁Japani	-9.6168
▁liit	-9.61732
▁Por	-9.61736
▁alueen	-9.61815
▁keskimäär	-9.61835
▁tiedosto	-9.6185
!	-9.61973
▁kulkee	-9.61973
▁uudelleen	-9.61973
▁Linux	-9.61973
▁Jaakko	-9.61977
▁ammatti	-9.61978
▁sotapäällikkö	-9.62001
▁syksyllä	-9.62017
▁Elävä	-9.62021
▁2013	-9.62022
▁erilaisia	-9.62087
2–	-9.62154
▁yhdisty	-9.62264
▁2002	-9.62292
95)	-9.62301
▁moottori	-9.62322
▁hallinto	-9.62324
lokakuussa	-9.62384
▁tunnettu	-9.62414
essaan	-9.62519
markkinoi	-9.62533
tius	-9.62672
jalka	-9.62772
▁mahdollista	-9.62876
▁Th	-9.62919
▁päästä	-9.62945
tse	-9.63321
53)	-9.63383
▁malli	-9.63401
muisti	-9.63424
▁valmistui	-9.63583
▁Edvard	-9.63612
▁elinympäristö	-9.63615
▁James	-9.63616
metsissä	-9.63617
77	-9.6363
▁Tra	-9.63722
▁2001	-9.63725
▁Qi	-9.63751
haukka	-9.63753
eläimi	-9.63845
isessa	-9.639
euvo	-9.63952
laitos	-9.63959
▁pohjoise	-9.6404
▁paina	-9.64044
▁suoja	-9.64082
neiden	-9.64083
▁Italia	-9.64108
▁käsitte	-9.64131
▁liittyvä	-9.64174
▁yö	-9.64208
▁otti	-9.64255
▁vaikut	-9.64257
▁Petr	-9.64274
▁Ruotsissa	-9.64323
▁meren	-9.64351
▁pesimä	-9.64395
▁mer	-9.6452
▁jäi	-9.64577
▁2000	-9.64648
▁synty	-9.65018
▁Gre	-9.65028
▁Cor	-9.65033
+	-9.65041
▁nuore	-9.65098
▁liitto	-9.65103
▁suora	-9.65121
linna	-9.65172
-1	-9.65242
ohjelmi	-9.65252
▁pyrki	-9.65279
▁Hei	-9.65279
▁määritelmä	-9.65281
▁toisistaan	-9.65281
▁olleet	-9.65282
talouden	-9.65284
▁kohti	-9.65296
▁VII	-9.65302
▁Pariisi	-9.65316
▁2011	-9.65338
▁Unkarin	-9.6536
▁2012	-9.65377
▁lap	-9.65438
vuotiaana	-9.65468
Si	-9.65529
▁ihmistä	-9.65578
▁viisi	-9.65608
▁pesästä	-9.65732
▁Tie	-9.65803
lasku	-9.65839
herra	-9.65853
▁Paul	-9.65936
ole	-9.65999
▁aikaa	-9.66165
keen	-9.66254
▁länsi	-9.66494
▁400	-9.66532
▁palo	-9.66548
tter	-9.66583
▁oikea	-9.66607
▁pysy	-9.66652
llisten	-9.66659
▁määrit	-9.66676
kilpailu	-9.66774
uuteen	-9.6679
▁ry	-9.66822
tulo	-9.66852
ällöin	-9.66917
▁Kuningas	-9.66974
▁diplomaatti	-9.66974
▁valtiopäivämies	-9.66974
▁Knuut	-9.66974
▁vaihtelee	-9.66974
▁prinssi	-9.66974
▁Pluto	-9.66976
▁Kirjallisuus	-9.66979
▁fyysikko	-9.66996
▁Konstantinos	-9.66999
elokuvi	-9.67006
▁ominais	-9.67031
▁heinä	-9.67086
▁2005	-9.67096
▁Samu	-9.67177
▁lämpötila	-9.67214
▁hänet	-9.67222
▁myö	-9.67298
tieteen	-9.67492
iikki	-9.67513
▁tiety	-9.67567
▁Alue	-9.67722
idae	-9.67837
alueet	-9.67921
▁tuki	-9.67943
▁luettelo	-9.6797
paino	-9.68038
▁vesistö	-9.68075
▁keksi	-9.68229
oiden	-9.68349
▁Ensimmäise	-9.68515
lehti	-9.68597
teeseen	-9.68615
▁Vaasa	-9.68693
▁Maunu	-9.68693
▁Konstantinopoli	-9.68698
Amerikan	-9.68699
▁heidä	-9.68702
resident	-9.68702
▁antoi	-9.68711
yritys	-9.68733
ttuja	-9.68757
▁George	-9.68757
▁nopeasti	-9.68857
▁mitä	-9.68862
▁kanava	-9.68909
77)	-9.68928
▁toukokuussa	-9.68985
▁[	-9.68992
kuor	-9.69001
eltä	-9.69027
solu	-9.69066
68	-9.69117
▁väl	-9.69134
syyskuussa	-9.69146
▁muisti	-9.69165
85)	-9.69262
▁mie	-9.69335
tarina	-9.69366
listi	-9.69379
kiina	-9.69423
sivusto	-9.69448
▁500	-9.69495
▁merkki	-9.69549
▁yllä	-9.69607
▁selv	-9.69629
▁1980	-9.69642
68)	-9.69667
mpää	-9.6993
▁sanasta	-9.69937
▁kuvaa	-9.69965
▁oman	-9.69975
▁tärkei	-9.70048
▁numero	-9.70187
▁Sana	-9.70209
▁euroa	-9.70254
▁peri	-9.70306
up	-9.70354
järjestö	-9.70377
esimerkiksi	-9.70413
}	-9.70452
▁sotamarsalkka	-9.70457
▁kokonaan	-9.70483
▁takaisin	-9.70486
▁valtaistuimelle	-9.70492
isempi	-9.70544
▁alueelle	-9.70578
cus	-9.70598
▁maailmansoda	-9.7066
ehdo	-9.70698
▁rii	-9.70784
▁kello	-9.70804
▁Ad	-9.70982
▁tarka	-9.70986
▁pyhimys	-9.71017
▁Pol	-9.71083
▁uuden	-9.71116
tystä	-9.71134
▁1990-	-9.71204
▁aiheutta	-9.71369
▁kehitys	-9.71515
org	-9.71701
▁ihmisen	-9.71811
q	-9.71826
▁armeija	-9.71858
▁eläin	-9.71911
▁kymmen	-9.7199
taminen	-9.72031
▁Mongoli	-9.72187
▁lyhye	-9.72227
▁Neuvostoliito	-9.72238
▁ikäinen	-9.72239
▁toisinaan	-9.7224
▁aikuis	-9.7224
Amerikka	-9.72243
burg	-9.72245
▁käyttävä	-9.72272
vaihto	-9.72275
▁muuttaa	-9.72363
▁%)	-9.72379
yyden	-9.72391
itse	-9.72418
▁yleisesti	-9.72423
▁Puola	-9.72437
▁poikasia	-9.72439
ksesta	-9.72459
Afrikassa	-9.72463
▁kohde	-9.72501
ham	-9.72541
yhä	-9.72545
amalla	-9.72561
▁koira	-9.72567
ville	-9.72587
koja	-9.72674
▁sitten	-9.72688
▁kauppa	-9.72694
▁lähtee	-9.72711
▁esiintyvä	-9.72727
vy	-9.72748
▁ajo	-9.7292
▁kulu	-9.72993
05)	-9.73024
▁kuun	-9.7305
▁levi	-9.73056
uksista	-9.73091
▁historian	-9.73187
▁valmistet	-9.73194
alueita	-9.73206
▁elo	-9.733
▁Je	-9.73316
▁johtu	-9.73422
▁media	-9.73499
utui	-9.73581
04)	-9.73788
udi	-9.73796
▁80	-9.73955
07)	-9.73993
▁talvi	-9.74011
kuvernööri	-9.74056
▁kalenteri	-9.74056
▁löysi	-9.74056
▁Jakob	-9.74057
vihreä	-9.74057
▁Mikael	-9.74058
▁sijaan	-9.74059
▁johtama	-9.74059
▁vuodel	-9.7406
▁kiinni	-9.74063
▁ulkopuolella	-9.74083
1969	-9.74085
▁todist	-9.74102
▁aihe	-9.74108
▁yleinen	-9.74126
▁ravi	-9.74163
▁Tiina	-9.74217
▁säteily	-9.74247
▁siirtyi	-9.74256
▁nimeltä	-9.74279
▁saari	-9.74289
uksissa	-9.74316
alueilla	-9.74318
▁keskitty	-9.74328
▁Nu	-9.74333
usten	-9.74404
isilla	-9.74497
▁syntyy	-9.74503
happo	-9.74764
▁Sar	-9.74807
▁valmistu	-9.7483
▁toukokuu	-9.7488
▁hevos	-9.74928
levinneisyysalue	-9.74951
86)	-9.75063
▁usea	-9.75119
ling	-9.75184
kasvu	-9.7529
93)	-9.75322
▁kirkka	-9.75331
bert	-9.75504
▁kohta	-9.75505
elokuussa	-9.75587
▁ranniko	-9.7565
ioni	-9.75707
▁Osa	-9.75745
▁ohjelmisto	-9.75753
▁viralli	-9.75767
▁Ferdinand	-9.75908
▁avoime	-9.75908
▁virsirunoilija	-9.75908
menetelmä	-9.75908
▁rehtori	-9.75908
luvulta	-9.75909
▁yhtenä	-9.75909
▁edeltä	-9.75911
▁Pituus	-9.75914
▁Jumala	-9.75917
▁Olavi	-9.75919
▁vaikea	-9.75924
▁kuukausi	-9.75943
▁huomattavasti	-9.75972
ttoman	-9.75978
standardi	-9.76039
▁Venäjällä	-9.7604
tiedosto	-9.7605
▁pääosi	-9.76106
1992	-9.76112
toon	-9.76144
▁taso	-9.76161
ootti	-9.76225
entti	-9.76375
tuksia	-9.76486
▁mene	-9.76502
ehto	-9.76513
▁toiminta	-9.76554
▁välise	-9.76657
puolestaan	-9.76671
joita	-9.76752
▁entise	-9.76997
ric	-9.77151
▁°	-9.77211
gel	-9.77224
▁arvioi	-9.77281
▁kato	-9.77425
96)	-9.77441
kannan	-9.77488
▁tunnetu	-9.77502
iiri	-9.77561
mässä	-9.77625
▁ravintoa	-9.77662
jö	-9.77683
▁löyty	-9.77796
▁pitä	-9.778
▁keväällä	-9.77839
▁My	-9.77887
▁ruoho	-9.77939
▁keskusta	-9.77983
historia	-9.78028
kuningas	-9.7808
▁han	-9.78192
▁Ura	-9.78294
▁tarkoiteta	-9.78334
▁190	-9.7834
linnut	-9.78354
isella	-9.78474
▁Hans	-9.78503
▁liitty	-9.78634
poik	-9.78658
▁joukot	-9.78794
▁Ter	-9.78815
06)	-9.78944
▁rake	-9.7896
▁säännö	-9.79069
▁tapahtuma	-9.79092
▁ravinto	-9.79146
▁1985	-9.79219
21)	-9.79307
▁tavoin	-9.79382
musiikin	-9.7948
▁Mor	-9.79551
▁tehdä	-9.79633
▁Kesä	-9.79704
sirkku	-9.79713
▁kardinaali	-9.79718
Amerikassa	-9.79718
protokolla	-9.79718
í	-9.79718
?	-9.79718
▁löytä	-9.79718
▁Pierre	-9.79719
▁Lähi	-9.79721
▁merkittävi	-9.79722
zhou	-9.79723
▁neliö	-9.79725
▁muistuttava	-9.79756
▁pelto	-9.79757
▁oike	-9.7976
hahmo	-9.79773
▁siirret	-9.79811
▁uudis	-9.79837
▁2007	-9.79841
1974	-9.79881
pohja	-9.79893
eille	-9.79912
▁muodostavat	-9.79958
numero	-9.80102
▁aiheuttaa	-9.80126
▁oikeus	-9.80258
▁Wal	-9.80315
pro	-9.8052
maton	-9.80583
rum	-9.80739
▁Aasiassa	-9.80818
▁Viro	-9.80818
mällä	-9.80819
tason	-9.80885
▁500-	-9.80901
plan	-9.80937
Itävalta	-9.81086
ukseen	-9.81158
”)	-9.81286
merkkejä	-9.81403
▁Tar	-9.81526
funktio	-9.81679
hydraatti	-9.81679
▁Fennica	-9.81679
▁Gabriel	-9.81679
▁kilometriä	-9.81679
▁kuoltua	-9.81679
▁suuriruhtinas	-9.81679
symboli	-9.81679
kauppias	-9.81679
▁pesimäkanta	-9.81687
▁York	-9.81715
▁jakautu	-9.81715
▁välinen	-9.81761
▁nimensä	-9.81799
▁Molemm	-9.81802
▁linnan	-9.81838
▁kirjoitus	-9.81886
▁Aasian	-9.81888
▁seuraaja	-9.81914
▁alueilla	-9.81959
col	-9.81995
▁kuningaskunnan	-9.82016
aattori	-9.82037
▁asioita	-9.8204
▁Eurooppaa	-9.82094
▁monia	-9.821
eistä	-9.82101
▁yleise	-9.82242
▁suoraan	-9.82263
▁parvi	-9.82343
▁kielissä	-9.82497
MD	-9.82502
▁kruunun	-9.82574
▁Alu	-9.8266
▁vaali	-9.82697
▁etsi	-9.82714
kanava	-9.82761
91	-9.82764
▁istu	-9.82778
▁sotila	-9.82792
ble	-9.82837
▁televisio	-9.82863
▁Poika	-9.82942
vaara	-9.82988
▁Sc	-9.82992
án	-9.83143
▁Yli	-9.83189
▁kg	-9.83191
▁viihty	-9.83238
▁tuleva	-9.83253
▁ensimmäisenä	-9.83411
▁pienen	-9.83415
Q	-9.8342
hard	-9.83561
vuus	-9.8359
▁Kil	-9.83651
▁ritari	-9.83666
▁Egypti	-9.83679
▁kahdeksa	-9.83679
▁skotlantilai	-9.83679
▁vaaliruhtinas	-9.83679
▁Sverker	-9.83679
▁Sähkö	-9.8368
▁Zhou	-9.83681
▁kestää	-9.83685
▁vanhempi	-9.83686
▁solmi	-9.83686
taiteilija	-9.83691
▁sosiaali	-9.83705
▁aikakausi	-9.83705
gra	-9.8371
▁alalaji	-9.83761
korkeakoulu	-9.83767
▁selvästi	-9.83769
▁linnun	-9.8379
▁Ö	-9.83794
sävy	-9.83882
▁maahan	-9.8393
−	-9.83975
toimisto	-9.83997
nopeus	-9.84003
▁lämm	-9.84031
alismi	-9.84163
lang	-9.842
▁Ala	-9.84207
▁kuninka	-9.84227
▁näin	-9.84279
▁lasku	-9.84361
päiv	-9.84386
▁yhtiö	-9.84466
▁poliitti	-9.84474
▁Ant	-9.84632
liiton	-9.84686
villa	-9.84934
väli	-9.84943
▁sanoi	-9.85062
▁esittä	-9.8513
▁Meri	-9.85209
▁mone	-9.85253
ikon	-9.85296
lahti	-9.85428
puisto	-9.85674
▁tarvi	-9.85692
▁samaan	-9.85703
mmät	-9.85713
sivu	-9.85719
•	-9.8572
▁tärkeä	-9.8572
▁tytär	-9.8572
vaihtelu	-9.85721
idässä	-9.85724
▁tehtävä	-9.85732
▁huono	-9.85738
suvun	-9.85767
ome	-9.85775
▁Media	-9.85784
▁kiertä	-9.85788
▁Nokka	-9.85825
▁liikku	-9.85884
tiedot	-9.85904
3–	-9.8597
toiminnan	-9.86006
▁kansainvälise	-9.86031
form	-9.86048
▁700	-9.86154
norm	-9.86282
▁vähä	-9.8637
▁luke	-9.86457
▁Siperia	-9.86458
▁lause	-9.865
kohd	-9.86536
▁apu	-9.86649
▁Sir	-9.86663
joht	-9.86736
82	-9.86773
84	-9.86922
▁Moni	-9.86934
rp	-9.86949
▁Linnun	-9.87095
▁laivasto	-9.87098
▁joulukuu	-9.87241
alueen	-9.87375
▁Uuden	-9.87386
Korea	-9.87458
#	-9.87467
▁peli	-9.87483
▁viide	-9.87725
▁peit	-9.87744
com	-9.87763
▁Englanti	-9.87803
▁hautovat	-9.87803
▁julkaistu	-9.87803
www	-9.87803
▁Kaakkois	-9.87803
▁Sendmail	-9.87803
▁huolehti	-9.87803
▁Fried	-9.87804
▁Itämeren	-9.87804
▁1960-	-9.87806
▁harvoin	-9.87808
▁hallitus	-9.87817
▁ainoastaan	-9.87826
▁Antonio	-9.87831
▁harv	-9.87833
▁saalista	-9.87836
▁ruotsalais	-9.87869
▁kehitti	-9.87875
▁Kaikki	-9.87885
▁velje	-9.87889
▁Peter	-9.87894
▁keksijä	-9.87919
▁kaiki	-9.87944
▁taide	-9.87944
▁Karhu	-9.88021
ajat	-9.88024
▁paine	-9.88034
▁voitta	-9.88085
▁toiminut	-9.88107
▁viesti	-9.88198
▁puuttu	-9.8821
▁Karl	-9.88268
▁esittää	-9.884
▁arabi	-9.88537
▁käsite	-9.88603
▁julkis	-9.88775
media	-9.888
▁suuria	-9.88825
▁alusta	-9.88925
kielinen	-9.88962
elma	-9.88981
▁paaviksi	-9.89107
▁valtaan	-9.89151
▁elä	-9.89344
mestari	-9.89468
vuori	-9.89509
määri	-9.89564
maailma	-9.89581
▁Eli	-9.89601
▁täysin	-9.89922
▁Pohjola	-9.89931
▁flaamilai	-9.89931
▁seitsemän	-9.89931
▁varpuslintu	-9.89931
signaali	-9.89931
▁Birger	-9.89931
▁kiinteä	-9.89932
▁David	-9.89933
▁johtaa	-9.89933
▁ohj	-9.89945
järjestelmi	-9.8996
▁Otto	-9.89968
▁alkio	-9.89979
▁nimetty	-9.89985
pakkaus	-9.90001
▁Voi	-9.90001
▁erilaisi	-9.90008
▁sii	-9.90015
▁seurasi	-9.90018
▁tausta	-9.90036
▁nimitystä	-9.90063
▁voimakas	-9.90085
▁Sini	-9.90211
▁ap	-9.90277
▁joulu	-9.90292
ttely	-9.90407
ello	-9.90516
tyksen	-9.90595
05	-9.9061
▁Ul	-9.9062
▁tode	-9.90634
▁yhdiste	-9.90676
=	-9.90679
▁marsalkka	-9.907
hem	-9.90733
▁häntä	-9.90789
Karjala	-9.90802
isuuden	-9.90958
verkko	-9.9106
▁keisariksi	-9.91185
▁Bro	-9.91295
▁Piet	-9.91295
▁suosittu	-9.91332
eeseen	-9.9146
▁por	-9.91624
▁for	-9.9184
▁kaikkia	-9.91969
▁paikoi	-9.9201
▁huolimatta	-9.92105
▁provinssi	-9.92105
è	-9.92105
▁uskonnolli	-9.92105
kansleri	-9.92105
▁Harald	-9.92106
▁kierto	-9.92106
▁asukasta	-9.92109
ttaessa	-9.9211
▁surma	-9.92112
▁Nuore	-9.92114
▁siemeniä	-9.92123
jumala	-9.92124
ium	-9.92147
▁järjestä	-9.92151
▁henkilöitä	-9.92167
milla	-9.92176
▁helposti	-9.92191
▁Bri	-9.92198
▁Uusi	-9.92227
gg	-9.92232
arvioitu	-9.92234
▁1981	-9.92254
uksella	-9.92301
▁kielessä	-9.92304
▁1979	-9.92334
suus	-9.92345
isuus	-9.92351
▁vaimo	-9.92444
niemi	-9.92791
▁kerä	-9.92821
▁1977	-9.92849
▁yhteisö	-9.92876
hkö	-9.92914
ruskea	-9.92958
▁aktiivi	-9.93187
▁Kii	-9.93212
▁kruunu	-9.93322
▁kolmi	-9.93325
tieto	-9.93553
kenttä	-9.93584
▁tuho	-9.93666
misestä	-9.93691
▁kaula	-9.93717
▁tri	-9.93757
▁punainen	-9.93775
ttömä	-9.93905
▁emo	-9.94071
tiheys	-9.94079
▁sopi	-9.94197
▁laina	-9.94203
▁lisäänty	-9.943
ympyrä	-9.94327
▁Auringon	-9.94327
▁Taiwan	-9.94327
▁naimisiin	-9.94327
·	-9.94327
▁Viipuri	-9.94327
▁mongoli	-9.94327
▁Presidentti	-9.94327
▁käyttäjä	-9.94327
▁1998	-9.94328
▁tyypillise	-9.94328
▁normaali	-9.94328
▁siivet	-9.94328
▁palveli	-9.94329
▁ohella	-9.94329
tuotanno	-9.94329
▁vuosittain	-9.94334
mpänä	-9.94337
uuri	-9.94339
sovellu	-9.94342
1976	-9.94345
▁Orion	-9.94365
▁silloin	-9.94387
luterilai	-9.94393
▁järjestö	-9.94426
▁tavalla	-9.94476
▁lain	-9.94501
▁eteläise	-9.94516
diodi	-9.9452
▁rinta	-9.94585
▁kilpailu	-9.94604
▁pysyvä	-9.94761
▁henkilöt	-9.94775
▁Australia	-9.94792
▁runsas	-9.94881
▁päivi	-9.94934
▁näyttelijä	-9.94961
▁hallinn	-9.94989
▁kuulo	-9.95042
iltä	-9.95059
▁laivaston	-9.95088
▁vaikutus	-9.95153
red	-9.95181
▁luu	-9.95255
▁alkuperäise	-9.95262
toiminta	-9.95357
TA	-9.95404
▁tee	-9.95417
turi	-9.95511
keino	-9.95559
muuto	-9.95629
laista	-9.95883
▁eroa	-9.9596
▁arvio	-9.9605
uksiin	-9.96064
▁Pesi	-9.96091
mba	-9.96219
56)	-9.9624
▁Ger	-9.96266
▁standardi	-9.9645
sota	-9.9648
puolelta	-9.96507
▁kesäkuussa	-9.96552
▁yleisty	-9.96568
pilkku	-9.96574
otettiin	-9.96574
<	-9.96599
▁Gregoriu	-9.96599
▁XHTML	-9.96599
▁käskynhaltija	-9.96599
▁August	-9.966
▁ensimmäist	-9.966
▁kertoo	-9.966
▁vuodessa	-9.966
▁ilmoitet	-9.966
▁kulkeva	-9.966
▁Henry	-9.96606
▁Koiraa	-9.96607
▁vakio	-9.96622
▁Albert	-9.96645
▁Nämä	-9.96663
▁Marc	-9.96698
▁joutu	-9.96705
▁johto	-9.96705
▁Intian	-9.9672
▁sijaitsevat	-9.96721
▁maakunnan	-9.96794
▁lähetti	-9.96883
▁lista	-9.96902
▁suom	-9.96946
▁seuraa	-9.97059
saaret	-9.9709
▁perhe	-9.97171
▁1989	-9.97219
▁tapahtu	-9.97236
▁etäisyys	-9.97249
▁muuttava	-9.97271
▁toimintaa	-9.97291
▁liha	-9.97357
lento	-9.97497
logi	-9.97498
▁Juha	-9.97582
DR	-9.97599
Euroopan	-9.97662
mmän	-9.97668
aalto	-9.97864
▁heinäkuu	-9.97905
aleja	-9.97944
harmaa	-9.98053
▁alla	-9.98096
▁olevi	-9.98346
kivi	-9.98391
▁lisää	-9.98428
▁kulta	-9.98536
▁sula	-9.98614
▁fr	-9.98674
▁Pohjoi	-9.98742
aikoina	-9.98857
molekyyli	-9.98925
▁Elisabet	-9.98925
▁Indonesia	-9.98925
▁kirjoitti	-9.98925
▁vallitseva	-9.98925
materiaali	-9.98925
▁Francesc	-9.98927
▁Tärkei	-9.98931
▁verran	-9.98934
▁kallio	-9.98934
▁kolmas	-9.98935
▁luostari	-9.98942
▁Vaasan	-9.98952
▁niemimaa	-9.98953
▁tehtiin	-9.98979
▁2014	-9.98983
▁2015	-9.99007
▁yhteensä	-9.99008
▁määritelty	-9.99031
▁saada	-9.99038
ight	-9.99052
▁luokiteltu	-9.99136
avio	-9.99221
aikaan	-9.99223
▁termi	-9.99335
▁1999	-9.99341
▁aloitta	-9.99407
▁virallise	-9.99419
▁95	-9.99494
▁CD	-9.99498
▁Valtio	-9.99539
▁muissa	-9.99704
▁pohjoisessa	-9.99742
▁Ly	-9.99757
▁Muni	-9.99814
imman	-9.9991
luokan	-9.99961
▁meni	-9.99977
▁rakennus	-10.0004
▁Nykyisi	-10.0005
järjestelmässä	-10.0007
suojelu	-10.0015
▁palasi	-10.0017
▁Persian	-10.004
▁vähän	-10.0055
▁heinäkuussa	-10.0078
llisuus	-10.0079
▁lait	-10.0079
hallinnon	-10.0082
▁runsa	-10.0092
▁Valo	-10.0097
latina	-10.0098
miehen	-10.0112
▁Shi	-10.0114
14)	-10.0123
projekti	-10.0131
▁kuvanveistäjä	-10.0131
▁vaihteleva	-10.0131
▁kärsi	-10.0131
▁lopulta	-10.0131
▁huomio	-10.0131
▁muodostuu	-10.0131
akseli	-10.0131
▁asui	-10.0131
▁hopea	-10.0132
▁ollessa	-10.0132
lajeja	-10.0132
▁atomi	-10.0133
▁Nokia	-10.0134
▁onnistu	-10.0134
▁uutis	-10.0134
▁äiti	-10.0134
kirjailija	-10.0135
uuttoaikoina	-10.0138
▁yksityis	-10.0138
okset	-10.0144
▁XI	-10.0145
▁kohda	-10.0146
▁lasketaan	-10.0148
▁merkitykse	-10.0149
▁poikaset	-10.0155
stein	-10.0155
▁Kas	-10.0157
▁kappaletta	-10.0158
Intia	-10.0159
▁600	-10.016
liitetty	-10.0168
▁tutkija	-10.0173
▁Toise	-10.0189
▁monet	-10.0199
myyrä	-10.0201
ikäis	-10.0206
▁Risti	-10.0209
ottelu	-10.0216
▁kymmenen	-10.022
▁tosi	-10.0221
öitä	-10.0224
siipi	-10.023
▁alkuperä	-10.0236
▁urheilu	-10.0263
iteetti	-10.0263
▁Lapissa	-10.0263
bul	-10.0264
▁tunni	-10.0265
teho	-10.0266
▁Vol	-10.0272
▁määrää	-10.0275
▁Moskovan	-10.0285
▁omaa	-10.0285
▁ryhmi	-10.0286
▁kielte	-10.0319
▁Fu	-10.0325
isistä	-10.0347
▁perustuva	-10.035
▁uhanalais	-10.0367
▁touko	-10.0373
▁kilpa	-10.0373
Yhdysvallat	-10.0375
organisaatio	-10.0375
▁Ahvenanmaan	-10.0375
▁Philip	-10.0375
Joseph	-10.0375
reaktio	-10.0375
▁IBM	-10.0375
▁Gustaf	-10.0375
▁runsaasti	-10.0375
▁Haakon	-10.0375
▁kolmanne	-10.0375
▁Muninta	-10.0377
suhde	-10.0379
summa	-10.0381
▁metriä	-10.0382
▁2017	-10.0383
▁tarkoitettu	-10.0383
▁liikkee	-10.0387
Pasila	-10.0391
▁metalli	-10.0392
▁Tri	-10.0395
▁miljoona	-10.0399
▁näkö	-10.04
▁vanhoi	-10.0403
▁euro	-10.0405
▁Mac	-10.0417
merellä	-10.0425
▁Tim	-10.0425
mag	-10.0433
▁Xi	-10.0441
joko	-10.0445
eiksi	-10.0448
pri	-10.0469
▁Tieto	-10.0471
▁Pri	-10.0475
▁aluksi	-10.0477
Pohjanmaa	-10.0482
▁siir	-10.0491
väline	-10.0505
▁laulaja	-10.051
Venäjä	-10.0514
ympäristö	-10.0514
▁sijoit	-10.0516
siirto	-10.0518
rakente	-10.0523
hevos	-10.0531
Kiinassa	-10.055
▁1990	-10.0552
▁tietokonee	-10.0553
▁tule	-10.0554
liike	-10.0554
▁seuraavi	-10.0555
atiivi	-10.0559
▁marraskuu	-10.0566
▁jotta	-10.0579
tämään	-10.0582
▁Lind	-10.0589
ljet	-10.0598
▁Kap	-10.0605
▁Klemens	-10.0625
▁kirjoitetaan	-10.0625
▁marjoja	-10.0625
▁Yrjö	-10.0625
▁MHz	-10.0625
▁pidetty	-10.0625
▁hallitse	-10.0625
▁vrk	-10.0625
▁avaruude	-10.0625
▁pääministeri	-10.0625
▁suhteellise	-10.0625
▁1970-	-10.0625
rannoilla	-10.0626
▁ettei	-10.0626
▁kruunattiin	-10.0626
▁murto	-10.0626
tavia	-10.0626
▁XV	-10.0633
▁Qing	-10.0633
▁luonto	-10.0634
▁Martin	-10.0637
tappio	-10.0638
▁1988	-10.0644
saksa	-10.0648
asteiko	-10.0648
▁tilasto	-10.065
▁120	-10.0656
▁havu	-10.0657
▁kesällä	-10.0659
▁lyh	-10.0661
▁syövät	-10.0664
luokka	-10.0676
▁etelässä	-10.0677
▁Mel	-10.0679
▁Sor	-10.0682
▁hui	-10.0686
▁erää	-10.0691
bol	-10.0705
oliitti	-10.0713
▁punaise	-10.0716
▁Star	-10.0728
▁1993	-10.074
▁upseeri	-10.0744
▁historialli	-10.0748
▁teh	-10.0759
▁korkein	-10.0775
oida	-10.0781
▁800	-10.0783
▁kyse	-10.0784
joukko	-10.0793
▁suositu	-10.0813
▁puolust	-10.0819
luvut	-10.0867
dle	-10.0869
▁War	-10.0869
Unkari	-10.0869
▁ehdot	-10.0871
▁opiskeli	-10.0881
▁Myöhemmin	-10.0881
▁Tukholma	-10.0881
ž	-10.0881
▁ansiosta	-10.0881
▁hyökkäsi	-10.0881
▁Andrea	-10.0881
▁viulisti	-10.0881
▁taloudelli	-10.0881
▁enimmä	-10.0881
▁Elokuva	-10.0881
▁Nicola	-10.0881
▁lakkaut	-10.0881
▁vaihde	-10.0881
▁saavutta	-10.0881
RNA	-10.0881
▁pyrit	-10.0881
▁Talvi	-10.0882
▁Nikola	-10.0882
Suomesta	-10.0882
kebab	-10.0882
▁Francisco	-10.0883
▁vaikuttaa	-10.0883
39)	-10.0884
▁isänsä	-10.0885
▁rakennettiin	-10.0886
öiden	-10.0886
▁kuoleman	-10.0886
murha	-10.0891
▁syntynyt	-10.0891
▁kuninkaat	-10.0892
▁hyönteiset	-10.0894
▁tyyli	-10.0895
▁rock	-10.09
▁Norja	-10.0903
▁tällai	-10.0906
▁rannikolla	-10.0917
▁Ze	-10.0918
▁löi	-10.0919
oksidi	-10.092
huone	-10.0928
▁peru	-10.0928
▁liittyy	-10.093
ander	-10.0934
▁Bor	-10.0947
jouko	-10.0948
▁Suur	-10.0952
taaju	-10.0971
▁1995	-10.0983
194	-10.0984
▁vero	-10.0991
▁jättä	-10.0995
▁Ruu	-10.1013
▁ilmiö	-10.1014
matka	-10.1034
▁julkaisu	-10.1034
laki	-10.1035
▁tietty	-10.104
▁turva	-10.1046
ssyntyi	-10.1071
▁Ker	-10.1072
▁data	-10.1081
▁perintei	-10.1085
▁kreikkalaise	-10.1092
korva	-10.1095
▁liittyi	-10.1098
▁vahva	-10.1107
▁havainto	-10.1113
▁edelli	-10.1123
järjestelmää	-10.113
kirjasto	-10.1133
yyttä	-10.1135
eväällä	-10.1142
×	-10.1144
—	-10.1144
▁Richard	-10.1144
▁Sveitsi	-10.1144
▁Välimere	-10.1144
▁jesuiitta	-10.1144
▁kansainvälinen	-10.1144
▁sveitsiläi	-10.1144
▁lähtö	-10.1144
▁Sisilia	-10.1144
▁lentämään	-10.1144
oikeudet	-10.1144
▁Ulkonäkö	-10.1144
häiriö	-10.1144
▁Metsä	-10.1145
▁Selkä	-10.1145
▁hovioikeuden	-10.1145
▁vapaaherra	-10.1146
▁mukaisesti	-10.1146
▁XIV	-10.1146
▁yhteistyö	-10.1146
opas	-10.1147
▁Nuori	-10.1147
järjestys	-10.1148
▁aikaisemmin	-10.1148
▁tavattu	-10.1149
▁Inn	-10.115
▁2016	-10.115
▁Pesimä	-10.1151
yöhempi	-10.1151
▁nuorempi	-10.1152
pitu	-10.1157
▁vapaut	-10.1162
▁1987	-10.1164
▁1997	-10.1168
▁Toisin	-10.1169
▁Auto	-10.1176
▁tunte	-10.1177
▁huhtikuussa	-10.1185
▁kaupunkiin	-10.1191
▁luokittelu	-10.1198
▁Alku	-10.1211
▁vanh	-10.1216
▁länsimai	-10.122
▁Wu	-10.122
sopimus	-10.1221
▁ruumiin	-10.1227
▁Bra	-10.1228
▁kieltä	-10.1243
▁muista	-10.1267
▁Ruka	-10.1269
▁til	-10.1269
▁lääk	-10.1272
▁Web	-10.1277
▁tapaan	-10.1278
▁silm	-10.1283
▁jaarli	-10.1288
▁Jotk	-10.1304
▁mitat	-10.1312
▁munia	-10.1313
▁kirjaime	-10.1315
▁2000-	-10.1315
47)	-10.1317
61)	-10.1332
▁muutti	-10.1332
]	-10.1334
▁Einstein	-10.1338
▁Vesi	-10.1354
impia	-10.1356
▁sille	-10.1358
▁merkitys	-10.1359
ttuaan	-10.1362
▁Matti	-10.1373
–30	-10.1393
▁selvä	-10.1393
▁todell	-10.1404
kyyhky	-10.1414
▁naapuri	-10.1414
▁Böömi	-10.1414
▁irlantilai	-10.1414
▁spektri	-10.1414
▁käytettävä	-10.1414
▁talvella	-10.1414
▁vaihtoehto	-10.1414
▁tundra	-10.1414
▁aateli	-10.1414
▁nähdä	-10.1414
▁lopussa	-10.1415
▁rannikko	-10.1415
▁levinnyt	-10.1415
▁hilja	-10.1415
▁poliisi	-10.1415
MS	-10.1415
://	-10.1415
▁pormestari	-10.1415
▁kytke	-10.1415
▁niissä	-10.1416
▁Lontoo	-10.1416
▁CMa	-10.1416
▁nopeude	-10.1417
▁julisti	-10.1417
▁tuntu	-10.1417
▁suunna	-10.1418
▁Punaise	-10.1418
▁mahdollisesti	-10.1419
▁sukupuoli	-10.1419
▁seteli	-10.1422
▁kunnia	-10.1422
▁rakennettu	-10.1425
▁pesänsä	-10.1426
misessa	-10.1427
LY	-10.1429
▁uhka	-10.1431
▁valloitta	-10.1432
▁asukkai	-10.1433
▁tätä	-10.1435
▁salli	-10.1446
▁puolalai	-10.1446
▁Lapin	-10.1447
▁32	-10.1447
▁ääntä	-10.1454
▁Mur	-10.1458
▁varsinaise	-10.1465
▁ved	-10.1471
▁Jacques	-10.1471
nyk	-10.1472
▁1982	-10.148
▁1996	-10.1481
ocen	-10.1484
▁kirjalli	-10.1496
▁Antti	-10.1502
▁osu	-10.1512
tynyt	-10.1518
arvio	-10.1521
▁Erä	-10.1545
▁liu	-10.1549
▁Fer	-10.1557
▁ilmesty	-10.1559
▁Vuosi	-10.156
▁Kieli	-10.1578
▁Kom	-10.1584
▁näke	-10.1588
▁lähti	-10.1627
▁sitte	-10.163
ugh	-10.1632
▁1991	-10.164
teknologia	-10.1642
▁aurinko	-10.1653
kasvi	-10.1655
▁Hel	-10.1667
▁Kunna	-10.1677
→	-10.1692
▁Agricola	-10.1692
▁University	-10.1692
▁prefektuuri	-10.1692
▁rauhoitettu	-10.1692
▁Hubble	-10.1692
▁Valdemar	-10.1692
▁World	-10.1692
▁Kastilia	-10.1692
▁sanotaan	-10.1692
▁poikue	-10.1692
▁vakiintu	-10.1692
▁taajuude	-10.1692
▁Tunturi	-10.1692
järjestykse	-10.1692
▁Christian	-10.1692
▁hiekka	-10.1692
▁keltainen	-10.1692
▁johdolla	-10.1693
▁leveä	-10.1693
▁Ohjelma	-10.1693
▁1700-	-10.1693
▁tarvitse	-10.1693
▁olemassaolo	-10.1694
juutalai	-10.1694
oikeuden	-10.1695
▁muinais	-10.1695
hallituks	-10.1696
▁kemialli	-10.1698
sääntö	-10.1698
▁muodossa	-10.1698
virasto	-10.1699
▁2018	-10.1701
▁nouse	-10.1702
▁ydin	-10.1703
▁intern	-10.1704
▁latinan	-10.1707
kyvy	-10.171
▁Liao	-10.1713
museo	-10.1714
orro	-10.1719
▁Red	-10.1735
▁ilmasto	-10.1738
▁{	-10.174
▁Anders	-10.1751
▁Jaala	-10.177
▁tunti	-10.1773
▁asettu	-10.1775
saaren	-10.1798
essään	-10.1805
marja	-10.1821
▁aineen	-10.1837
▁sisällä	-10.1854
▁mel	-10.1903
kauppa	-10.1905
maisen	-10.1913
▁Hal	-10.1915
utumis	-10.1919
▁tammikuu	-10.192
▁Eerikin	-10.1922
▁käsittä	-10.1946
▁Juan	-10.1976
▁suhte	-10.1977
▁Alfonso	-10.1978
▁Makedonia	-10.1978
▁Novgorod	-10.1978
▁sijaitsi	-10.1978
▁seurauksena	-10.1978
sihteeri	-10.1978
amerikkalai	-10.1978
▁galaksi	-10.1978
▁päätökse	-10.1978
▁Mad	-10.1979
▁ruokkiva	-10.198
▁pohjoisosissa	-10.1982
▁tasavalta	-10.1982
kyky	-10.1982
▁siellä	-10.1983
▁maapallo	-10.1986
▁Nils	-10.1986
▁Kanadan	-10.1987
ketju	-10.1988
▁Ilma	-10.1988
▁veto	-10.1989
▁Pekka	-10.1993
▁poly	-10.1996
▁käänty	-10.1997
immillaan	-10.2001
▁1994	-10.2008
▁kulje	-10.2014
▁muihin	-10.2017
▁mukais	-10.2026
oksia	-10.2029
▁juova	-10.2031
▁merkitse	-10.2033
▁iho	-10.2033
uudessa	-10.2036
▁korv	-10.2048
▁virka	-10.205
▁tuhoutu	-10.2059
▁Kuva	-10.2066
▁alkoivat	-10.2092
▁Itäinen	-10.2098
▁kutsuttu	-10.2099
steri	-10.2102
▁West	-10.2108
aalta	-10.2115
SE	-10.2127
▁syyskuu	-10.2137
ikut	-10.2147
tämällä	-10.2153
eettise	-10.2157
▁tulokse	-10.2159
▁poliittise	-10.2163
▁nolla	-10.2174
tieteellise	-10.2183
hallinto	-10.22
kaupunki	-10.2203
moottori	-10.2208
vuosikymmen	-10.2211
teksti	-10.2215
▁menesty	-10.2219
▁Luonno	-10.2255
PL	-10.2257
▁päässä	-10.2265
sopimuksen	-10.2271
▁englannin	-10.2272
_	-10.2272
▁Bysantti	-10.2272
▁Kulttuuri	-10.2272
suunnittelu	-10.2272
▁Pyrstö	-10.2272
▁ravinnokseen	-10.2272
▁venäläis	-10.2272
▁voimakkaasti	-10.2272
▁suhteellisuus	-10.2272
▁tähän	-10.2272
▁mennessä	-10.2272
kääntäjä	-10.2272
▁luokitell	-10.2272
▁pidettiin	-10.2272
▁kilju	-10.2272
▁tasavallan	-10.2272
▁ohjeelli	-10.2272
yhteys	-10.2272
vuotias	-10.2272
▁Iniö	-10.2273
▁Länti	-10.2273
▁terävä	-10.2273
▁Syysmuut	-10.2273
teollisuude	-10.2273
▁maksa	-10.2274
▁rauta	-10.2274
▁Tietokone	-10.2274
▁tekemä	-10.2274
ografia	-10.2274
▁puolet	-10.2275
▁tehdy	-10.2275
▁kapea	-10.2275
▁korja	-10.2278
▁Alankomaiden	-10.2278
▁Rauta	-10.228
▁perustettu	-10.228
▁puhutaan	-10.2286
▁Brahe	-10.2288
▁juna	-10.2293
▁kaasu	-10.2293
syntyi	-10.2295
▁ym	-10.2297
▁1967	-10.2298
▁arvonime	-10.2302
▁tunturi	-10.2305
▁sekunti	-10.2318
▁Firenze	-10.2318
▁sanoista	-10.2326
▁Martti	-10.2327
muutto	-10.2334
0%	-10.2336
liini	-10.2352
The	-10.2354
▁Tällai	-10.237
▁valkoiset	-10.2371
▁Luku	-10.2375
ranta	-10.2379
▁kukisti	-10.2381
▁Bur	-10.2396
▁tarkka	-10.2406
▁päätti	-10.2412
mmissa	-10.2418
▁lapsi	-10.2421
▁ilmestyi	-10.2425
aineiden	-10.2425
paikan	-10.2433
▁Aika	-10.2436
▁saira	-10.2447
▁huhtikuu	-10.2472
amb	-10.2474
▁puolueen	-10.2476
elius	-10.2495
▁koskaan	-10.2505
▁Yhdysvaltalaise	-10.2517
kapina	-10.2531
▁Aurinko	-10.2533
▁kommunisti	-10.2546
musta	-10.2551
minister	-10.2557
▁Cal	-10.256
▁linnu	-10.256
▁helpo	-10.2563
▁päällä	-10.2567
▁toimivat	-10.2574
и	-10.2575
▁markkina	-10.2575
▁Irlannin	-10.2575
▁ilmoitti	-10.2575
▁kansantasaval	-10.2575
▁ristiretke	-10.2575
Kansainvälinen	-10.2575
▁Tyypilli	-10.2575
▁mantšu	-10.2575
▁hiukkas	-10.2575
▁käytöstä	-10.2575
▁peräisin	-10.2575
▁tahansa	-10.2575
▁tullut	-10.2575
▁http	-10.2575
▁sammako	-10.2575
▁arkisto	-10.2575
▁kemisti	-10.2575
▁sisältävä	-10.2575
▁Kristian	-10.2575
▁itävaltalai	-10.2575
▁vuoristo	-10.2575
▁aakkos	-10.2576
▁talvehtimisalue	-10.2576
▁samoin	-10.2576
▁jälleen	-10.2576
ratkaisu	-10.2576
▁Maununpoika	-10.2577
▁Kolme	-10.2577
▁piilo	-10.2579
▁siiven	-10.2579
▁maku	-10.2579
▁lukumäärä	-10.2582
▁lyö	-10.2583
▁keskiarvo	-10.2585
▁palatsi	-10.2586
▁tällöin	-10.2586
▁siemenet	-10.2588
▁Hild	-10.2589
▁lintulaji	-10.2592
▁Hannu	-10.2592
▁pituude	-10.2594
▁2019	-10.2595
▁2020	-10.2596
▁Kanava	-10.2602
▁Dy	-10.2604
▁paju	-10.2605
kaudella	-10.2614
▁1930	-10.2623
▁37	-10.263
▁Luc	-10.2639
▁piti	-10.2645
yhtyeen	-10.2648
port	-10.2663
▁Japanissa	-10.2664
▁149	-10.2669
▁näht	-10.2673
▁ohjaa	-10.2677
▁jul	-10.2679
▁Fra	-10.269
torni	-10.2711
▁tapahtui	-10.2715
▁000–1	-10.2737
▁Koti	-10.2747
▁Pertt	-10.2749
▁vanhoj	-10.2753
▁Kaksi	-10.2758
radan	-10.2761
hjelm	-10.2786
Persia	-10.2797
graf	-10.2801
luvuilla	-10.2818
esim	-10.282
▁talvehtiva	-10.2826
lämpötila	-10.2841
laise	-10.2843
oikeus	-10.2851
ruoka	-10.2852
▁kova	-10.2862
▁perustamis	-10.288
kirjoitukse	-10.2887
▁julkaise	-10.2887
▁Medici	-10.2887
▁Oxford	-10.2887
▁Wilhelm	-10.2887
▁etäisyyde	-10.2887
▁humanisti	-10.2887
▁miljardi	-10.2887
▁neliökilometri	-10.2887
▁Magnus	-10.2888
▁kaikke	-10.2888
▁helppo	-10.2888
sosialisti	-10.2888
▁näkyvä	-10.2888
▁harmaanruskea	-10.2888
▁välttämätt	-10.2888
▁Lassie	-10.2888
▁sanottu	-10.2888
▁Itävallan	-10.2888
▁kotisivu	-10.2889
▁aivo	-10.2889
▁aloitettiin	-10.2889
▁virkamies	-10.2891
▁kehitykse	-10.2892
▁esimerkki	-10.2893
▁opettaja	-10.2899
▁palja	-10.2899
soittimi	-10.2902
▁kostei	-10.2904
llisiä	-10.2907
▁1978	-10.2911
▁muuttuu	-10.2913
liikke	-10.2914
▁päättyy	-10.2914
▁suola	-10.2914
teollisuus	-10.2926
▁osuus	-10.2928
▁Pitkä	-10.2934
▁alueelli	-10.2948
▁merkitystä	-10.2966
kokoelma	-10.2984
▁paperi	-10.2987
▁Sisä	-10.2989
olue	-10.2998
▁riittävä	-10.3014
idit	-10.3023
▁Sven	-10.3024
viulu	-10.3033
aasi	-10.3036
viljely	-10.3037
▁asioi	-10.304
▁viitat	-10.305
▁esittel	-10.3051
yksikkönä	-10.306
itz	-10.3084
▁herk	-10.3087
▁pyöri	-10.3089
▁tote	-10.309
nsininen	-10.3099
▁määrittele	-10.3103
alueella	-10.3105
▁liian	-10.3107
▁suosio	-10.3118
▁korvat	-10.3124
▁toimiva	-10.314
▁eks	-10.3157
viiva	-10.3166
cher	-10.3168
säteily	-10.3172
▁puolesta	-10.3175
kirjoitus	-10.3176
ravintoa	-10.3176
Z	-10.3176
filosofi	-10.3179
engl	-10.3201
yhteisö	-10.3207
Euroopasta	-10.321
viikkoisina	-10.321
▁Aadolf	-10.321
▁Haudonta	-10.321
▁Käytännö	-10.321
▁Margareeta	-10.321
▁kahlaaja	-10.321
▁merirosvo	-10.321
▁tarkoituksena	-10.321
▁kirjaimisto	-10.321
▁väkiluku	-10.321
▁Monaco	-10.321
▁Europe	-10.321
politiikka	-10.321
teatteri	-10.321
▁norjalai	-10.321
▁nähden	-10.321
▁saattoi	-10.321
▁vuosisata	-10.321
▁1972	-10.321
▁Lähe	-10.321
▁Talous	-10.321
▁punaruskea	-10.3211
▁kapinoi	-10.3212
▁tarkoitus	-10.3212
▁elokuu	-10.3212
formaatti	-10.3213
malli	-10.3213
▁Käyttö	-10.3214
▁kasvitieteilijä	-10.3214
▁ongelma	-10.3214
yhteyksi	-10.3215
▁kyseessä	-10.3215
▁Adam	-10.3216
▁yhteiskunta	-10.322
▁Inge	-10.3221
▁Frans	-10.3221
▁lentokykyisiä	-10.3223
▁valuutta	-10.3226
▁Filippo	-10.3228
▁tavu	-10.323
vaiheessa	-10.3231
▁säädet	-10.3231
▁päin	-10.3235
▁alkuaine	-10.3239
▁alkuperäis	-10.324
▁Britannian	-10.3243
▁alkunsa	-10.3244
▁nuor	-10.3245
▁pelastus	-10.3251
▁poikansa	-10.3252
▁Hau	-10.3254
▁eräi	-10.3259
▁Käyt	-10.3261
▁EU	-10.3262
▁esitti	-10.3265
▁neste	-10.328
nimen	-10.3284
▁suhteen	-10.3285
▁saatta	-10.3286
kulttuuri	-10.3286
▁1680	-10.329
▁osia	-10.329
▁lasten	-10.3297
vuotis	-10.3299
▁Italiassa	-10.3303
▁Ranskassa	-10.3328
▁sir	-10.3332
hoito	-10.3349
Andr	-10.3364
▁erityis	-10.3366
▁alkan	-10.3366
teeri	-10.3371
▁nimeä	-10.3385
▁kev	-10.3388
virhe	-10.3406
▁synnyttä	-10.3408
▁naarasta	-10.3411
rakentaja	-10.3418
▁jäsene	-10.3433
Kiina	-10.3457
kielessä	-10.3467
▁kukist	-10.347
▁laitte	-10.3477
▁Väestö	-10.3492
entin	-10.3495
laisuus	-10.3506
karva	-10.3509
Ruotsi	-10.3522
CN	-10.3529
▁puoliväli	-10.3529
rauha	-10.3537
▁Karthago	-10.3543
▁kahdesta	-10.3543
▁kristinusko	-10.3543
▁epäonnistu	-10.3543
▁kilometrin	-10.3543
▁riippuu	-10.3543
▁riippuen	-10.3543
▁kehitetty	-10.3543
▁saatavilla	-10.3543
▁taajama	-10.3543
▁Rovanieme	-10.3543
soittimet	-10.3543
▁täpli	-10.3543
prosessi	-10.3544
▁Nobel	-10.3544
▁Kuopio	-10.3544
▁Daniel	-10.3544
▁kannalta	-10.3544
▁Naaraa	-10.3544
▁Yuan	-10.3546
▁vatsapuoli	-10.3547
▁täyttä	-10.3547
▁keskenään	-10.3548
▁turkkilai	-10.3548
▁XIII	-10.3548
▁Free	-10.3549
▁esitetty	-10.3551
▁säde	-10.3553
▁kävi	-10.3555
▁Liettuan	-10.3555
▁Saksin	-10.3556
▁ollen	-10.3556
pito	-10.3558
▁rooli	-10.3558
▁tuolloin	-10.3562
▁Jerusalemin	-10.3563
▁elektroni	-10.3564
näkö	-10.3565
▁matoja	-10.3575
ttomia	-10.3575
▁ihmisten	-10.3583
uudeksi	-10.3586
▁Anton	-10.3587
▁1678	-10.3587
▁voitto	-10.3614
▁pääkaupungi	-10.3616
koulu	-10.3617
▁latinalai	-10.3617
▁muilla	-10.3627
▁koiraan	-10.3637
▁nimesi	-10.3638
▁Einsteinin	-10.3638
])	-10.3644
▁kesäkuu	-10.3649
kannat	-10.3653
käsittely	-10.3655
pitäjä	-10.3675
▁osin	-10.368
▁Kam	-10.3681
▁synny	-10.3682
▁jatka	-10.3687
▁pystyy	-10.3694
89)	-10.37
▁Pir	-10.3711
▁kerro	-10.3712
▁Ihmise	-10.3715
▁teko	-10.3725
▁Bre	-10.3729
▁osti	-10.3751
zar	-10.3781
▁rad	-10.3797
▁Finn	-10.3805
▁250	-10.3815
foni	-10.383
nimettiin	-10.3835
Afrikka	-10.3839
▁Järvi	-10.3842
▁Simon	-10.3848
vuotiaa	-10.385
etun	-10.3855
▁lähettä	-10.3867
▁hyönteis	-10.3868
▁huomattava	-10.3876
▁liikkuva	-10.3878
yksyllä	-10.3879
amiraali	-10.3879
Tampere	-10.3886
yhdeksän	-10.3888
▁Parmenion	-10.3888
▁ampeeri	-10.3888
▁asteroid	-10.3888
▁hemoglobiini	-10.3888
▁kahdesti	-10.3888
▁kaupungissa	-10.3888
▁matematiika	-10.3888
▁syrjäytti	-10.3888
lähetyssaarnaaja	-10.3888
▁serotoniini	-10.3888
▁GIF	-10.3888
▁TNT	-10.3888
▁Seuraava	-10.3888
▁yritti	-10.3888
▁4–6	-10.3888
dwig	-10.3888
▁rehevi	-10.3888
menetelmi	-10.3888
▁rakennukse	-10.3888
automaatti	-10.3889
malaiji	-10.3889
ominaisuuksi	-10.389
▁Arabi	-10.389
▁täysi	-10.389
▁Tampereen	-10.3891
▁käynnist	-10.3891
▁rautatie	-10.3891
OS	-10.3892
äännös	-10.3892
Hyper	-10.3892
▁pesimälintu	-10.3892
▁Saksassa	-10.3893
▁lenno	-10.3893
▁Alaska	-10.3894
▁myönnet	-10.3895
▁rasva	-10.3895
▁taivaan	-10.3896
▁jätti	-10.3897
▁parhai	-10.3897
▁viiko	-10.3898
▁2022	-10.3898
▁kielitieteilijä	-10.3899
▁varhais	-10.3899
▁lisääntymis	-10.3901
▁vaikuttava	-10.3902
▁miten	-10.3903
▁tehdään	-10.3904
▁soidin	-10.3904
käytön	-10.3906
▁nimitys	-10.3907
kaapeli	-10.3908
▁litra	-10.3911
▁Lento	-10.3912
▁Työ	-10.3917
▁loppuun	-10.3919
▁Ranta	-10.3922
▁Uude	-10.3924
▁rakentee	-10.3925
▁naaraan	-10.3928
▁Ulko	-10.3928
▁Marx	-10.3929
▁edellise	-10.3929
kärki	-10.3949
▁1640	-10.3954
▁Lars	-10.3961
▁1590	-10.3961
vuono	-10.3963
▁pääosa	-10.3967
▁toiseksi	-10.3978
▁AU	-10.3991
suora	-10.4001
▁sijoittu	-10.4024
▁Kone	-10.4047
▁pop	-10.4074
▁lähte	-10.4074
▁Will	-10.408
▁Tavalli	-10.4083
▁Preussin	-10.4101
▁julkise	-10.4117
bro	-10.4118
lehdi	-10.4123
▁1983	-10.4142
ohjaaja	-10.4143
▁nimittä	-10.4144
cker	-10.4164
kaupungin	-10.417
▁Nime	-10.4181
▁nope	-10.4206
sodan	-10.4231
▁1600	-10.4236
puvussa	-10.4236
harjoit	-10.4242
luutnantti	-10.4245
а	-10.4245
с	-10.4245
▁HTML	-10.4245
▁Justinianus	-10.4245
▁Katariina	-10.4245
▁Neuvostoliitto	-10.4245
▁Sigismund	-10.4245
▁elinvoimaiseksi	-10.4245
▁hollantilainen	-10.4245
▁komeetta	-10.4245
▁käsky	-10.4245
▁pesäpakoisia	-10.4245
▁senttimetrin	-10.4245
▁vähitellen	-10.4245
>	-10.4245
▁kristitty	-10.4245
▁Esimerkkejä	-10.4245
▁pelkästä	-10.4245
▁vuodet	-10.4245
▁toisiinsa	-10.4245
▁Kiovan	-10.4245
▁Press	-10.4245
▁ristey	-10.4245
▁Korppoo	-10.4245
▁tarpee	-10.4246
minuutti	-10.4246
▁kuole	-10.4246
▁sanotu	-10.4246
▁oranssi	-10.4246
▁käytety	-10.4246
▁koivu	-10.4246
▁Äänen	-10.4246
paikkoja	-10.4246
sisältö	-10.4246
▁tunnistaa	-10.4247
▁XII	-10.4247
▁tunnukse	-10.4248
▁Kahde	-10.4248
maksu	-10.4248
▁vedessä	-10.4248
▁islam	-10.4249
▁tyhj	-10.4249
▁1672	-10.425
henkilö	-10.425
täplä	-10.4251
▁Helena	-10.4251
▁itselleen	-10.4251
suomalainen	-10.4252
kierro	-10.4252
▁hallinnollis	-10.4253
▁Monet	-10.4254
Liettua	-10.4257
▁Francis	-10.4258
▁Englannissa	-10.4259
▁Heikki	-10.4259
▁Erkki	-10.4261
▁arvonimi	-10.4262
▁hankki	-10.4262
▁Talve	-10.4266
▁hoita	-10.4271
▁Jukka	-10.4277
▁tonni	-10.4284
▁etelään	-10.4286
▁Pieni	-10.4293
▁Eric	-10.4295
Afrikkaan	-10.4296
kehä	-10.4306
auto	-10.4307
▁Norjassa	-10.4312
▁kreikkalai	-10.4317
keskustelu	-10.432
▁pitkään	-10.4329
▁tuhosi	-10.433
yhdistys	-10.433
▁1660	-10.4331
▁Beat	-10.4348
▁välissä	-10.4372
▁King	-10.4377
▁1968	-10.4382
▁Kasvi	-10.44
▁Tom	-10.4406
ravintola	-10.442
Turkin	-10.4424
▁nykyi	-10.4429
tellen	-10.443
▁siksi	-10.443
eläinten	-10.4443
runko	-10.4443
▁luonno	-10.4453
▁Canterbury	-10.4465
pitoisuu	-10.4472
▁ui	-10.4477
▁Henri	-10.4537
hapo	-10.4541
▁ajoi	-10.4542
Afrika	-10.4557
öyh	-10.4564
part	-10.4567
mmäksi	-10.458
▁Suomalais	-10.4589
▁Viime	-10.459
aineet	-10.4592
▁Eteläise	-10.4594
suoj	-10.4597
tutkimukse	-10.4605
▁kuolle	-10.4605
▁kysy	-10.4612
▁rengas	-10.4614
vuotinen	-10.4614
▁hämähäk	-10.4616
е	-10.4616
о	-10.4616
palkinnon	-10.4616
▁ensimmäisi	-10.4616
▁ortodoksi	-10.4616
▁psykologi	-10.4616
▁vaihteessa	-10.4616
Calidris	-10.4616
untomerkit	-10.4616
▁Windows	-10.4616
▁ilmoitta	-10.4616
▁pienikokoinen	-10.4616
insinööri	-10.4616
▁Pääministeri	-10.4616
▁sähköposti	-10.4616
▁Keskusta	-10.4616
▁muslimi	-10.4616
▁jännitte	-10.4616
▁verrattuna	-10.4616
▁näkyy	-10.4616
▁muusikko	-10.4616
▁Finland	-10.4616
▁sodassa	-10.4616
▁León	-10.4616
▁Porvoo	-10.4616
▁Joukko	-10.4616
▁mukainen	-10.4616
▁moraali	-10.4616
Hongkong	-10.4616
▁Michel	-10.4617
▁poikki	-10.4617
▁taajuus	-10.4617
▁edellä	-10.4619
▁jazz	-10.4619
▁Oike	-10.462
▁selkäpuoli	-10.4621
▁hallituksen	-10.4621
▁omaksu	-10.4621
portaali	-10.4622
▁lukien	-10.4623
▁ruotsi	-10.4626
▁toimintansa	-10.4628
▁Abba	-10.4629
▁itsensä	-10.4631
▁Herman	-10.4633
▁kaupunginosa	-10.4633
tutkimus	-10.4634
▁neuvosto	-10.4634
Rooman	-10.4635
paikoi	-10.4635
hallitsija	-10.4636
▁yksiköt	-10.4636
▁tanssi	-10.4636
▁saaristo	-10.4639
▁veren	-10.4645
▁tekemi	-10.4645
0–10	-10.4647
käynti	-10.4648
▁valmii	-10.4648
▁käsittele	-10.4649
▁sellaise	-10.4652
yhtälö	-10.4661
NO	-10.4661
▁1666	-10.4664
laitteisto	-10.4664
▁Järvinen	-10.4665
kortti	-10.4666
▁päältä	-10.4666
▁levisi	-10.4673
▁Hong	-10.4674
▁Otava	-10.4683
▁lintujen	-10.4703
pohj	-10.4709
▁keskei	-10.4736
kymmentä	-10.4737
▁suunnitel	-10.474
kunnassa	-10.4743
kappalee	-10.4746
Savo	-10.475
▁maaliskuu	-10.476
▁Blo	-10.4772
koira	-10.4797
▁Marsi	-10.4819
selkärangattomia	-10.4846
kappale	-10.4866
▁Dr	-10.4884
▁poltt	-10.4887
▁jälke	-10.4904
▁tarkoittava	-10.4915
▁Gall	-10.4943
0–5	-10.4955
▁hyödy	-10.4966
idien	-10.4972
▁helmikuu	-10.4979
▁siemen	-10.498
artikkeli	-10.4995
▁Yhdisty	-10.4998
LA	-10.4999
▁Benedict	-10.5
▁Urban	-10.5
▁pallonpuolisko	-10.5
cephalus	-10.5
niityillä	-10.5
teoreetikko	-10.5
▁Abraham	-10.5
▁Kansainvälise	-10.5
▁Stanley	-10.5
▁Vladimir	-10.5
▁Wikipedia	-10.5
▁kellertävä	-10.5
▁maailmankaikkeu	-10.5
▁punertava	-10.5
▁Balduin	-10.5
▁Jackson	-10.5
▁Jämsä	-10.5
▁harvinainen	-10.5
▁vasemmisto	-10.5
▁Richter	-10.5
▁komentaja	-10.5
▁talveksi	-10.5
▁vandaali	-10.5
▁Kristof	-10.5
▁kohdistu	-10.5
▁Theodor	-10.5
▁dollari	-10.5
340	-10.5001
ROM	-10.5001
▁Suomea	-10.5001
▁hävisi	-10.5001
▁manner	-10.5001
▁johtava	-10.5001
resept	-10.5001
minaisuudet	-10.5001
▁pääasialli	-10.5001
▁vilja	-10.5001
▁soveltu	-10.5001
vaellus	-10.5002
▁huippu	-10.5003
▁laulaa	-10.5003
▁edistä	-10.5003
▁Intiassa	-10.5003
▁matkustaja	-10.5003
▁sanoma	-10.5004
▁Erityise	-10.5005
▁suurmestari	-10.5005
▁fyysi	-10.5005
demokraatti	-10.5005
▁Teema	-10.5006
▁sisar	-10.5006
▁suuntaan	-10.5006
vuotiai	-10.5007
▁tapahtumia	-10.501
▁suuruus	-10.5012
borg	-10.5015
▁teoksen	-10.5016
▁menetti	-10.5017
kurss	-10.5019
▁olleen	-10.502
▁vajaa	-10.5024
▁osavaltio	-10.5027
▁tutkimuksen	-10.5027
▁1971	-10.5032
toukokuussa	-10.5033
käyttöön	-10.5038
▁1975	-10.5039
▁vaaleampi	-10.504
kangas	-10.5045
▁maailmaa	-10.5049
ohjelmisto	-10.5052
▁posti	-10.5059
▁kaikille	-10.506
▁korvaa	-10.5062
▁seuraavasti	-10.5063
tähti	-10.5066
sumu	-10.5071
vyö	-10.5081
▁hinta	-10.5083
PS	-10.5085
harju	-10.5091
▁muotoon	-10.5092
▁aloit	-10.5093
käsitykse	-10.5095
ahti	-10.5096
köissä	-10.5133
▁luonnollis	-10.5136
uudet	-10.5152
–40	-10.5153
▁Tang	-10.516
▁neuvo	-10.5177
elämän	-10.5199
▁loh	-10.5213
lääkke	-10.522
tiikan	-10.5237
pyy	-10.5254
▁yle	-10.5255
voimien	-10.5257
▁välittä	-10.5272
▁Maakunna	-10.5276
▁Antipatro	-10.5292
laitteet	-10.5315
▁muni	-10.532
kosken	-10.5332
geeni	-10.5351
ektor	-10.5369
rekisteri	-10.5388
saarnaaja	-10.54
α	-10.54
▁Bulgaria	-10.54
▁Christoph	-10.54
▁Eleonoora	-10.54
▁Fleming	-10.54
▁International	-10.54
▁Palaiologos	-10.54
▁Ukraina	-10.54
▁kirjoitettu	-10.54
▁marttyyri	-10.54
▁resistanssi	-10.54
▁sulkasato	-10.54
▁tyypillinen	-10.54
▁yrityksen	-10.54
|	-10.54
▁Galilei	-10.54
▁Yhtye	-10.54
▁lähdekoodi	-10.54
▁unkarilai	-10.54
▁Aznar	-10.54
▁saavutti	-10.54
▁eversti	-10.54
▁maatalous	-10.54
▁kärje	-10.54
▁Claude	-10.54
▁SAE	-10.5401
▁ehkä	-10.5401
▁Vuosikymmen	-10.5401
▁ISA	-10.5401
▁käänteis	-10.5401
▁lauantai	-10.5401
▁luopui	-10.5401
▁Video	-10.5401
▁Hyvä	-10.5402
▁kreikan	-10.5402
häviö	-10.5402
▁Halley	-10.5403
▁Tše	-10.5403
▁1648	-10.5404
▁eteläosissa	-10.5405
▁Petter	-10.5405
▁alkupuolella	-10.5407
▁nousu	-10.5407
▁pesimäkanna	-10.5407
▁Romano	-10.5407
▁markka	-10.5408
▁Mises	-10.5408
vyöhykkeellä	-10.5409
▁ominaisuuksia	-10.541
▁biologi	-10.5411
▁mitataan	-10.5411
▁talvisin	-10.5411
▁seksuaali	-10.5411
▁talonpoik	-10.5412
▁Kerimä	-10.5413
▁toime	-10.5415
▁kupari	-10.5419
▁puolivälissä	-10.542
▁Niitä	-10.542
▁käyttäyty	-10.5423
hoido	-10.5423
kielet	-10.5426
▁suunniteltu	-10.5427
▁kehittäjä	-10.5428
▁1973	-10.5428
liikkee	-10.5433
madot	-10.5434
▁You	-10.5434
▁paranta	-10.5436
▁Pedr	-10.5442
▁tunnett	-10.5444
▁jäänyt	-10.5445
tutkija	-10.5449
Ranska	-10.5451
▁väär	-10.5454
ttävästi	-10.5456
valtakunnan	-10.5459
▁erilaist	-10.546
▁napa	-10.5461
kalojen	-10.5476
▁alkuun	-10.5476
▁joukkoon	-10.5485
▁syvä	-10.5486
▁heitä	-10.5487
▁puolustus	-10.5489
soitin	-10.5492
▁Pyy	-10.55
kriisi	-10.5509
▁ylläpitä	-10.5523
▁Halli	-10.5523
0–2	-10.5536
Kiinasta	-10.5549
▁Ming	-10.5557
▁väestöstä	-10.556
▁kive	-10.5578
kaisu	-10.5595
rutto	-10.5613
puhelin	-10.5619
▁kylmä	-10.5622
▁lopull	-10.5626
▁syntymä	-10.563
▁muodostama	-10.5666
▁tarkoitta	-10.569
mmaksi	-10.5693
▁reaali	-10.572
▁roomalais	-10.5731
▁Chris	-10.5736
▁päätty	-10.5738
▁tavoi	-10.5771
mestaruu	-10.5773
astui	-10.5783
▁tavata	-10.5795
▁määritellä	-10.5814
Kanada	-10.5816
algoritmi	-10.5817
yhteyden	-10.5817
ò	-10.5817
▁Alfred	-10.5817
▁Baijeri	-10.5817
▁Isabella	-10.5817
▁Jyväskylä	-10.5817
▁Michael	-10.5817
▁Ministeri	-10.5817
▁Sibelius	-10.5817
▁aikoihin	-10.5817
▁sekoittaa	-10.5817
▁sekunnissa	-10.5817
▁täydellinen	-10.5817
▁vallankumoukse	-10.5817
▁Heinäkuu	-10.5817
▁italialais	-10.5817
▁neutroni	-10.5817
▁DVD	-10.5817
▁Israel	-10.5817
▁korkeudella	-10.5817
▁Arthur	-10.5817
▁Jacob	-10.5817
▁luultava	-10.5817
▁klassis	-10.5817
▁näkyvi	-10.5817
▁tähden	-10.5817
▁Heinrich	-10.5817
▁Iivana	-10.5817
▁satunnais	-10.5817
▁Elokuu	-10.5817
▁hyöty	-10.5817
▁lienee	-10.5817
▁kykene	-10.5817
▁Axel	-10.5817
▁reagoi	-10.5817
▁tiedemies	-10.5817
▁vastuu	-10.5818
▁Sukupuol	-10.5818
▁prosenti	-10.5818
▁veturi	-10.5818
▁pakeni	-10.5818
▁Karpov	-10.5818
▁Julius	-10.5818
▁Oskar	-10.5819
▁Mikro	-10.5819
▁niillä	-10.5819
olosuhte	-10.5819
▁valitsi	-10.5819
▁johdet	-10.582
▁tilanne	-10.582
▁kirkonkylä	-10.5821
▁niska	-10.5822
▁syödä	-10.5822
▁kerrotaan	-10.5822
▁pohjoispuolella	-10.5823
koodaus	-10.5824
▁2021	-10.5825
yksiköitä	-10.5826
▁nokan	-10.5827
▁syysmuut	-10.5828
1644)	-10.5828
tuomio	-10.5828
▁osajoukko	-10.5829
▁North	-10.583
▁Elinta	-10.5831
gamba	-10.5831
▁katsotaan	-10.5831
▁herttuatar	-10.5831
▁järvien	-10.5832
▁Emot	-10.5835
▁pakkas	-10.5835
kannasta	-10.5836
▁ulos	-10.5837
▁sijoittuvat	-10.5837
▁kirkas	-10.584
▁henki	-10.5841
▁alkuperäinen	-10.5844
▁sopiva	-10.5844
▁pesivänä	-10.5844
ukselle	-10.5855
▁keisarinna	-10.5856
▁Irene	-10.586
▁Alkuperä	-10.5863
kuitu	-10.5869
holm	-10.5879
▁sito	-10.5881
kesäkuussa	-10.5884
▁1788	-10.5886
▁1675	-10.5886
pyrstö	-10.5886
kirkko	-10.5888
▁Useimmi	-10.5889
tuntomerkk	-10.5891
käyttö	-10.5891
▁pesään	-10.5897
▁Jaava	-10.5897
▁muutoksi	-10.5908
▁viihtyvä	-10.5911
▁MB	-10.5917
▁1986	-10.592
▁tiedetä	-10.5932
▁matki	-10.595
näyttö	-10.5963
▁ajatus	-10.5969
▁Char	-10.5969
aineisto	-10.597
▁maailmanmestar	-10.5981
▁perinteisest	-10.5986
oidu	-10.5998
▁sukulais	-10.6
▁naara	-10.6
pilli	-10.6036
▁levinneisyys	-10.6038
ssel	-10.6046
ensis	-10.6072
▁sukupuole	-10.6121
biini	-10.6125
▁tulevaisuu	-10.6137
▁Tähti	-10.6182
seudun	-10.6192
▁mielestä	-10.6217
tiheyde	-10.6234
▁kaiken	-10.6248
aupungit	-10.6252
н	-10.6252
▁Yhdysvaltoj	-10.6252
teloitettiin	-10.6252
′	-10.6252
▁Edward	-10.6252
▁Galileo	-10.6252
▁Lyngstad	-10.6252
▁Merkittävi	-10.6252
▁Ptolemaios	-10.6252
▁Rudolf	-10.6252
▁SUSE	-10.6252
▁Tokugawa	-10.6252
▁keskuudessa	-10.6252
▁lännessä	-10.6252
▁magnitudi	-10.6252
▁sukukyps	-10.6252
▁syrjäyttä	-10.6252
▁vähemmän	-10.6252
▁HTTP	-10.6252
▁Yhtiö	-10.6252
▁dynastioi	-10.6252
▁Ulriika	-10.6252
▁kiinnostu	-10.6252
▁puheenjohtaja	-10.6252
Burgundi	-10.6252
▁Jupiter	-10.6252
▁selkeä	-10.6252
▁Suomalainen	-10.6252
▁Äetsä	-10.6252
▁sekunnin	-10.6252
▁frankki	-10.6252
▁julistautu	-10.6252
▁edellyt	-10.6252
▁vähentä	-10.6252
terveys	-10.6252
operaatio	-10.6252
aikojen	-10.6252
▁Työväenpuolue	-10.6252
viranomais	-10.6252
▁vaakuna	-10.6252
▁Kuitenk	-10.6252
▁seurakunta	-10.6252
▁1200-	-10.6253
▁tuntematon	-10.6253
▁autonomi	-10.6253
▁Katoli	-10.6253
tehdas	-10.6253
▁kehitettiin	-10.6253
huolto	-10.6253
▁Sofia	-10.6253
▁Kalmari	-10.6254
▁sulki	-10.6254
juhla	-10.6254
▁siirtää	-10.6255
metsien	-10.6255
hevonen	-10.6255
▁vaihta	-10.6255
▁Pankki	-10.6255
▁typpi	-10.6255
▁tuhat	-10.6258
pelaaja	-10.6259
ttomasti	-10.626
▁Intel	-10.626
▁1602	-10.6261
▁kutsuttiin	-10.6263
tuomari	-10.6263
▁päälaki	-10.6264
▁verta	-10.6265
turvallisuus	-10.6267
▁Kivi	-10.6268
...”	-10.6271
▁kuulunut	-10.6271
▁mäti	-10.6274
▁samanaikai	-10.6274
▁rikko	-10.6276
▁mitään	-10.6277
▁väite	-10.628
▁oppinut	-10.628
▁satoja	-10.6283
▁liuot	-10.6287
feld	-10.6292
▁1945	-10.6301
▁luontee	-10.6309
▁kuuluisa	-10.6311
kerros	-10.6314
▁vaikutti	-10.6318
katolise	-10.6325
bittis	-10.633
tapahtuma	-10.6339
rakenne	-10.634
Uuden	-10.634
hermo	-10.6341
tietokone	-10.6344
versio	-10.6349
▁Laaj	-10.6394
maantiede	-10.6403
käsitys	-10.6403
salmi	-10.6403
▁Jokai	-10.6411
Preussi	-10.6431
MM	-10.6441
maisem	-10.6446
lander	-10.6458
GB	-10.6461
▁Alankoma	-10.6492
▁Termi	-10.6513
▁valtakunna	-10.6546
joihin	-10.6575
▁1984	-10.6603
seudulla	-10.6631
▁avatt	-10.6643
kunnaksi	-10.6646
▁luokitelt	-10.6665
▁matali	-10.6678
▁loput	-10.6682
▁ruotsalaise	-10.6692
akatemia	-10.6694
vyöhykkee	-10.6696
▁yksinkertaist	-10.6698
audio	-10.6699
▁kesken	-10.6702
▁Franc	-10.6703
▁rationaali	-10.6704
▁huhti	-10.6705
prosentti	-10.6705
omponent	-10.6706
▁alkoholi	-10.6706
▁astronomi	-10.6706
Baptiste	-10.6706
sijaishallitsija	-10.6706
todennäköisesti	-10.6706
▁Aragonian	-10.6706
▁Auringosta	-10.6706
▁Hiroshima	-10.6706
▁Montesquieu	-10.6706
▁Uppsala	-10.6706
▁Valloittaja	-10.6706
▁löydettiin	-10.6706
▁löytöretkeilijä	-10.6706
▁moolimassa	-10.6706
▁ristiretki	-10.6706
▁Asikainen	-10.6706
▁Lounais	-10.6706
▁Konrad	-10.6706
▁Stuart	-10.6706
▁hitaasti	-10.6706
▁Hollanti	-10.6706
▁Nylon	-10.6706
▁Vietnam	-10.6706
▁Tilasto	-10.6706
▁yhdeksi	-10.6706
▁elintavat	-10.6707
▁kahteen	-10.6707
iikingit	-10.6707
▁juure	-10.6707
puutarha	-10.6707
▁osittain	-10.6707
▁1560)	-10.6707
▁Mehme	-10.6707
radiopuhelin	-10.6707
▁lentää	-10.6707
▁tiheä	-10.6708
▁vähentynyt	-10.6708
▁Yhde	-10.6708
▁parhaa	-10.6709
▁keskilämpötila	-10.6709
▁puhujaa	-10.6709
▁oksa	-10.671
▁Intiaan	-10.671
▁ritarikunnan	-10.671
▁Maantiede	-10.671
asukkaat	-10.6711
▁ajanlasku	-10.6711
▁Hubei	-10.6711
▁vihollis	-10.6711
▁teoksia	-10.6711
▁eteläpuolella	-10.6712
▁sisävesi	-10.6713
▁Tonava	-10.6715
▁Paino	-10.6715
▁Tudor	-10.6716
▁määritellään	-10.6716
▁kävel	-10.6716
▁varhain	-10.6717
▁kuluessa	-10.6718
▁jatkoi	-10.6718
▁julistet	-10.6718
▁kalalaji	-10.672
▁nuorten	-10.6721
▁Afrikan	-10.6722
▁vettä	-10.6722
▁toteutet	-10.6723
▁kehittynyt	-10.6726
▁bitti	-10.6728
▁Saint	-10.6729
▁Chang	-10.6731
▁määrin	-10.6734
▁hauta	-10.6735
▁virallisesti	-10.6735
▁meteori	-10.6736
▁Korean	-10.6737
▁hyödyntä	-10.6745
olut	-10.675
yyteen	-10.6757
kreik	-10.6757
ttomaksi	-10.6763
▁keskinäi	-10.6764
▁kannaks	-10.6772
gramma	-10.6796
▁perinteise	-10.6815
energia	-10.6816
hymiö	-10.6816
myös	-10.682
▁aiheuttama	-10.6845
aitsi	-10.6874
suomentaja	-10.6887
kesäkuun	-10.69
▁kasvoi	-10.6921
maaliskuussa	-10.6929
▁vetä	-10.6929
▁viljel	-10.6958
▁tavallise	-10.6976
▁lokakuu	-10.7002
uskonto	-10.7021
▁omaisuu	-10.704
▁vatsapuole	-10.7061
aivan	-10.7066
▁syntyne	-10.708
lause	-10.7086
−1	-10.7111
havainno	-10.714
Atlanti	-10.717
▁kruuna	-10.718
yydestä	-10.7181
poliitik	-10.7182
luvulle	-10.7182
ا	-10.7183
*	-10.7183
html	-10.7183
myrsky	-10.7183
▁Anastasio	-10.7183
▁Henkilö	-10.7183
▁Houtskari	-10.7183
▁Kiihtelysvaara	-10.7183
▁Lähde	-10.7183
▁Standard	-10.7183
▁Sukukyps	-10.7183
▁Varoitusääni	-10.7183
▁oopiumi	-10.7183
▁syksyisin	-10.7183
rkkitehtuuri	-10.7183
т	-10.7183
▁geometri	-10.7183
▁keskikokoinen	-10.7183
▁potenssi	-10.7183
▁vihertävä	-10.7183
laajennus	-10.7183
▁RFC	-10.7183
▁fransiskaani	-10.7183
▁kilogramma	-10.7183
▁äärettöm	-10.7183
▁lounais	-10.7183
▁planeeta	-10.7183
▁Leopold	-10.7183
▁laajennet	-10.7183
▁magneetti	-10.7183
▁sukupolve	-10.7183
▁Isaac	-10.7183
▁Tieteelli	-10.7183
▁yrityksi	-10.7183
▁Esimerkki	-10.7183
▁paremmin	-10.7183
▁Armenia	-10.7183
▁Bernard	-10.7183
▁ihminen	-10.7183
▁suorittime	-10.7183
▁tulkit	-10.7183
▁Luther	-10.7183
▁Arvid	-10.7183
▁valkoista	-10.7183
▁kohteen	-10.7183
valtuusto	-10.7183
▁kaatui	-10.7183
▁jyrk	-10.7183
▁muodoltaan	-10.7183
▁yhteyksissä	-10.7183
relaatio	-10.7183
lähde	-10.7184
▁1948	-10.7184
▁opetus	-10.7184
▁Meteor	-10.7184
komponentti	-10.7184
▁Jilin	-10.7184
▁tekevä	-10.7185
▁maalis	-10.7186
▁Stalini	-10.7186
▁loppupuolella	-10.7187
▁kristilli	-10.7187
▁lainkaan	-10.7187
▁täyty	-10.7187
▁Kisko	-10.7188
▁yhdistetty	-10.7188
▁maakunnassa	-10.7189
▁suhteessa	-10.719
▁paksu	-10.719
▁kokoontu	-10.719
▁näyttää	-10.719
▁mediaani	-10.719
▁tarvitaan	-10.7193
▁kaiva	-10.7194
▁Macao	-10.7194
▁1632	-10.7195
keskuksen	-10.7195
▁yhdistettiin	-10.7196
▁luetaan	-10.7197
▁naama	-10.7197
▁1603	-10.7197
▁lippu	-10.7198
folk	-10.7202
▁Frank	-10.7205
▁monta	-10.7205
▁laati	-10.7208
▁pesintä	-10.721
▁Paikalli	-10.721
▁Muisti	-10.7214
▁1966	-10.7221
▁useampi	-10.7225
▁Brand	-10.7235
käyttöjärjestelm	-10.7235
▁kokeil	-10.7243
kamera	-10.7243
▁mono	-10.7258
▁Ruotsalaise	-10.7261
▁3,5	-10.7276
omini	-10.7304
keisari	-10.7319
valkea	-10.732
salme	-10.733
vaikuttaja	-10.7331
äriltään	-10.7348
▁Toimi	-10.7351
kiinalaiset	-10.7357
▁periaatte	-10.7371
▁vesistöj	-10.7377
aktiiv	-10.7378
portti	-10.7388
▁Klau	-10.7401
▁johtuva	-10.7408
▁kartano	-10.7444
saalis	-10.7446
▁läntise	-10.7463
periaattee	-10.7488
▁kaupalli	-10.7491
kirjoittaja	-10.7506
alueeseen	-10.7506
▁2–3	-10.7512
▁valkoise	-10.752
▁muutokse	-10.7549
maakunna	-10.7624
▁tummi	-10.7626
▁edust	-10.7627
jono	-10.7644
π	-10.7683
р	-10.7683
▁jyrsijöi	-10.7683
XMPP	-10.7683
ā	-10.7683
▁Elektroni	-10.7683
▁Fennoskandia	-10.7683
▁Nikeforos	-10.7683
▁Tunnetui	-10.7683
▁digitaalise	-10.7683
▁elinvoimainen	-10.7683
▁islantilai	-10.7683
▁jäljellä	-10.7683
▁konkistadori	-10.7683
▁kookkaampi	-10.7683
▁nilviäisiä	-10.7683
▁tähdistö	-10.7683
▁öljy	-10.7683
Script	-10.7683
ū	-10.7683
▁Aleksandr	-10.7683
▁Itämeressä	-10.7683
▁Shaanxi	-10.7683
▁Viihde	-10.7683
▁arvellaan	-10.7683
▁mytologia	-10.7683
▁yksinkertaise	-10.7683
▁keisarei	-10.7683
▁Yksikkö	-10.7683
Akatemia	-10.7683
▁väkiluvu	-10.7683
hakemisto	-10.7683
▁Brittiläi	-10.7683
▁Shanxi	-10.7683
▁Tampereella	-10.7683
▁Musiikki	-10.7683
tilanteissa	-10.7683
▁Koskimies	-10.7683
sosialismi	-10.7683
▁Aiemmi	-10.7683
▁Navarra	-10.7683
▁käyttäen	-10.7683
▁Daakia	-10.7683
grafiika	-10.7683
Antoine	-10.7683
ology	-10.7683
▁merkintä	-10.7683
▁paikalla	-10.7683
▁Scott	-10.7683
▁1654)	-10.7683
▁pakene	-10.7683
▁juristi	-10.7683
▁toimittaja	-10.7683
▁toisiaan	-10.7683
▁Euraasiassa	-10.7684
▁valtionhoitaja	-10.7684
niemen	-10.7684
ssandro	-10.7684
▁Ylämaa	-10.7684
▁hertsi	-10.7684
televisiokanavat	-10.7684
palkinto	-10.7684
▁ruumis	-10.7685
▁sammal	-10.7685
▁suomenkielinen	-10.7685
▁Nykyise	-10.7686
▁kiuru	-10.7686
▁maailmassa	-10.7687
▁Andersson	-10.7687
▁Oort	-10.7687
▁tilavuus	-10.7687
▁City	-10.7687
▁vangit	-10.7687
▁karkea	-10.7687
▁yläpuolella	-10.7688
▁3.198	-10.7688
▁metsästys	-10.7688
▁Sedna	-10.7688
▁valitse	-10.7691
▁muuttui	-10.7692
▁kymmeniä	-10.7692
▁lyhyempi	-10.7694
▁vieras	-10.7696
▁Atlantin	-10.7696
▁Usko	-10.7697
▁kuolemaan	-10.7697
▁yksilöitä	-10.7699
▁seutu	-10.7699
▁puolen	-10.77
▁nimitetään	-10.77
▁pyhä	-10.77
▁kirjoittama	-10.7701
▁harjoitta	-10.7702
▁yhdell	-10.7702
41)	-10.7704
▁mega	-10.7707
▁Maakunta	-10.7707
▁alfa	-10.7708
▁koiraat	-10.7708
▁lausu	-10.7708
laikku	-10.771
▁viestintä	-10.7711
▁lyhyi	-10.7711
▁heiko	-10.7718
vapaaehtoi	-10.7719
▁neljänne	-10.7741
▁kiintei	-10.7765
jakelu	-10.7773
▁teknologi	-10.7775
▁vakaa	-10.7776
kauteen	-10.7777
1999)	-10.7778
▁opti	-10.7783
▁mahtav	-10.7786
yhteis	-10.779
▁Luontoport	-10.7794
lajeista	-10.7799
uikku	-10.7813
formaati	-10.7819
▁Yhdistynee	-10.7827
°	-10.7842
▁kokee	-10.7856
▁Linnu	-10.7971
▁nuo	-10.7973
tieteessä	-10.8002
1120	-10.8047
valmistaja	-10.8059
esiintymis	-10.8059
▁Ranskalaise	-10.8063
▁toisaal	-10.8081
▁Ihmi	-10.8084
▁kuvaava	-10.8086
▁haast	-10.8091
ttomat	-10.8092
varuste	-10.8145
kielisiä	-10.8149
▁käpy	-10.8185
kompleksi	-10.8201
ruhtina	-10.8202
grafiikka	-10.8204
É	-10.8209
▁Liechtenstein	-10.8209
▁kuningattare	-10.8209
▁ympäröi	-10.8209
Britteinsaarilla	-10.8209
tyyppejä	-10.8209
ữ	-10.8209
▁Africa	-10.8209
▁Belgia	-10.8209
▁Emanuel	-10.8209
▁Esiintymi	-10.8209
▁Habsburg	-10.8209
▁Helmipöllö	-10.8209
▁Jiangxi	-10.8209
▁Kaupunki	-10.8209
▁Lovelace	-10.8209
▁MIME	-10.8209
▁Quaoar	-10.8209
▁fysiikan	-10.8209
▁gravitaatio	-10.8209
▁harmahtava	-10.8209
▁hyökkäykse	-10.8209
▁hyönteissyöjä	-10.8209
▁jälkimmäi	-10.8209
▁katedraali	-10.8209
▁kirkolliskokou	-10.8209
▁läheisyydessä	-10.8209
▁löydetty	-10.8209
▁samurai	-10.8209
▁yhteiskunnalli	-10.8209
▁Messier	-10.8209
▁Nokikana	-10.8209
▁System	-10.8209
▁löytö	-10.8209
▁uhanalainen	-10.8209
▁Avaruus	-10.8209
▁Tunnettuj	-10.8209
▁Group	-10.8209
▁tavallisimmi	-10.8209
tavoittelija	-10.8209
▁CHR	-10.8209
▁Kristiina	-10.8209
▁ensisijaise	-10.8209
kasvillisuuden	-10.8209
▁vaikuttanut	-10.8209
▁Kiuru	-10.8209
▁riippuva	-10.8209
▁väkival	-10.8209
▁manteree	-10.8209
▁tapuli	-10.8209
▁Paavali	-10.8209
eppälintu	-10.8209
varpunen	-10.8209
▁kreivitär	-10.8209
▁1609	-10.8209
▁Hyvin	-10.8209
▁Victor	-10.8209
▁pyöreä	-10.8209
▁1709	-10.8209
▁Neljä	-10.8209
▁Olof	-10.8209
▁luovutti	-10.8209
▁sanoen	-10.821
sammakko	-10.821
▁1530)	-10.821
▁puistoissa	-10.821
▁pilku	-10.821
▁melodi	-10.821
▁tulipalo	-10.821
▁kasvanut	-10.821
▁koiraalla	-10.8211
system	-10.8211
▁pelko	-10.8211
▁tutkimuksessa	-10.8211
▁Vapaa	-10.8211
▁luonnonsuojelu	-10.8211
lehden	-10.8213
▁vanhemmat	-10.8213
▁kaupan	-10.8213
▁itsemurha	-10.8213
▁lakkautettiin	-10.8213
maalari	-10.8213
▁1748	-10.8213
▁tapauksessa	-10.8214
▁pronssi	-10.8214
Marie	-10.8214
▁rikos	-10.8215
▁mänty	-10.8215
▁persialai	-10.8216
▁sisälty	-10.8216
▁kirjallisuus	-10.8216
▁4.198	-10.8217
▁Euraasian	-10.8217
kysymys	-10.8217
Hollanni	-10.8217
▁Steve	-10.8219
▁Mantšuria	-10.8219
▁täyte	-10.823
▁käydä	-10.8239
▁Lääni	-10.8242
▁kuivi	-10.8245
▁East	-10.8247
▁tukema	-10.8251
▁tukee	-10.8264
▁ohitt	-10.828
impana	-10.8283
tapauksissa	-10.8289
1977	-10.829
▁pohjoisimm	-10.8297
empana	-10.8312
▁äärimmäise	-10.8319
uudella	-10.8326
kielen	-10.8329
▁alapuolel	-10.8346
▁verkkosivu	-10.8373
televisio	-10.8385
haara	-10.839
▁suunnitteli	-10.8396
punainen	-10.8398
käytössä	-10.8399
▁Moskova	-10.8408
▁useamm	-10.8433
tieteellis	-10.8441
kalvo	-10.8442
yntymävuosi	-10.846
ahtava	-10.8461
▁ministeri	-10.8463
seurakunna	-10.8468
▁Kiel	-10.8478
▁paikallise	-10.8479
Turd	-10.8486
kertais	-10.8488
▁puhekiel	-10.85
asco	-10.8502
▁vär	-10.8512
puhelime	-10.8513
▁Oliv	-10.8527
liikenteessä	-10.8603
▁1661	-10.8614
▁valloit	-10.8625
▁yrittä	-10.8631
▁Luonto	-10.8644
▁Geo	-10.8663
onnettomuude	-10.8691
▁pesimäalue	-10.8713
▁tunneta	-10.8716
Emb	-10.8744
▁höyhen	-10.8749
ikaisemmin	-10.8757
uningatar	-10.8758
kkejä	-10.8761
▁matkust	-10.8762
▁Talvehti	-10.8764
hierarkia	-10.8764
räjähdys	-10.8764
siveltimet	-10.8764
▁Albrekt	-10.8764
▁Brandenburgi	-10.8764
▁Database	-10.8764
▁Irlannissa	-10.8764
▁Savonlinna	-10.8764
▁Sigurd	-10.8764
▁Sponsor	-10.8764
▁Tekniikka	-10.8764
▁Voyager	-10.8764
▁WSOY	-10.8764
▁höyry	-10.8764
▁jyrsijä	-10.8764
▁kenraalimajuri	-10.8764
▁kuoriutuvat	-10.8764
▁nilviäiset	-10.8764
▁pöllö	-10.8764
▁sulkasado	-10.8764
▁taksonomi	-10.8764
▁uskonpuhdistaja	-10.8764
▁ääretön	-10.8764
käärme	-10.8764
räjähtee	-10.8764
▁Mikkeli	-10.8764
▁MySQL	-10.8764
▁animaatio	-10.8764
▁juliaanise	-10.8764
▁kaksois	-10.8764
▁nisäkkäi	-10.8764
▁suljettu	-10.8764
▁Justinus	-10.8764
▁Matroska	-10.8764
▁Singapore	-10.8764
Nanjing	-10.8764
kapteeni	-10.8764
▁Kolmas	-10.8764
▁kansallislaulu	-10.8764
▁ulkosaaristo	-10.8764
▁viihde	-10.8764
▁Ulvaeu	-10.8764
temppeli	-10.8764
▁täyden	-10.8764
▁Balkan	-10.8764
▁viikinki	-10.8764
▁kerralla	-10.8765
▁Wreck	-10.8765
▁jalkapallo	-10.8765
▁ylös	-10.8765
▁aramea	-10.8765
▁Deimos	-10.8765
▁Leijon	-10.8765
▁Milanon	-10.8765
▁vaaleanharmaa	-10.8765
▁pidempi	-10.8765
▁tallenta	-10.8765
▁single	-10.8765
▁hotelli	-10.8765
intiaani	-10.8765
▁kalifi	-10.8765
▁kertova	-10.8765
hetkellä	-10.8765
ström	-10.8765
▁AAC	-10.8765
▁Tunnus	-10.8765
▁1540)	-10.8765
▁3–4	-10.8765
▁Center	-10.8765
▁1622)	-10.8765
informaatio	-10.8765
▁dynam	-10.8765
▁1635)	-10.8765
▁Anhui	-10.8765
▁perustetu	-10.8766
▁Vähä	-10.8766
▁johdosta	-10.8766
puhdist	-10.8766
▁lentävä	-10.8766
▁linnoit	-10.8766
▁1520)	-10.8766
▁Liikenne	-10.8766
▁ryhty	-10.8766
▁nunna	-10.8767
▁ilmakehä	-10.8767
▁punasolu	-10.8767
▁taajuuksi	-10.8767
▁vaelta	-10.8767
▁Liike	-10.8767
▁kuluttua	-10.8768
▁kommunistise	-10.8768
▁suomeksi	-10.8769
Mustela	-10.8769
merkistö	-10.877
Kuusamo	-10.8771
▁Lenno	-10.8771
▁Walesi	-10.8772
▁Ohmi	-10.8773
▁Korkeasaare	-10.8773
▁mainos	-10.8773
▁1772	-10.8773
▁Latina	-10.8774
▁1783	-10.8775
ovitš	-10.8775
▁Fuji	-10.8776
▁vallasta	-10.878
▁tukeva	-10.8782
elektroniikka	-10.879
▁Aleksio	-10.879
Viimeinen	-10.8806
▁runo	-10.8811
ohje	-10.8811
altailais	-10.8813
päätoim	-10.8823
▁Aurinkokunna	-10.8843
uutena	-10.8846
▁kuore	-10.8896
esitykse	-10.8912
1–1	-10.8919
▁pienemmä	-10.8932
tavoitte	-10.8935
kirje	-10.8949
lenius	-10.8961
▁Aleks	-10.8965
avaruus	-10.8987
taistelu	-10.899
▁kaupallise	-10.8997
video	-10.9005
▁esiintymisalue	-10.9008
▁länti	-10.9018
▁Teokse	-10.9019
Alankomaat	-10.9022
▁itsenäi	-10.9023
▁kertoi	-10.9057
arabialai	-10.9145
▁erilaise	-10.9146
▁tarkoitet	-10.9167
▁paikalli	-10.9169
▁hoitava	-10.9176
▁suuremma	-10.9185
tieteellinen	-10.9249
▁Ympäristö	-10.9322
▁Konstantin	-10.9329
▁muistutt	-10.9336
▁buddhalai	-10.9339
▁Mantšu	-10.9342
▁auringo	-10.9344
elektroniika	-10.9346
▁Korkea	-10.9347
västäräkki	-10.935
▁noudat	-10.9352
▁toimeenpan	-10.9353
▁Kruunu	-10.9353
л	-10.9353
▁pitäjäruo	-10.9353
▁shōgun	-10.9353
1⁄2	-10.9353
lentokyvyttöminä	-10.9353
positiivinen	-10.9353
́	-10.9353
Ω	-10.9353
†	-10.9353
▁Cromwell	-10.9353
▁Edmonton	-10.9353
▁GPRS	-10.9353
▁Handbook	-10.9353
▁Iskelmä	-10.9353
▁Kolumbus	-10.9353
▁Kortesjärve	-10.9353
▁Kristinusko	-10.9353
▁Kutsuääni	-10.9353
▁Lorenzo	-10.9353
▁Ramanujan	-10.9353
▁Stephen	-10.9353
▁Toscana	-10.9353
▁Zhejiang	-10.9353
▁halkaisija	-10.9353
▁hedelmiä	-10.9353
▁kääpiö	-10.9353
▁päätoimittaja	-10.9353
▁sponsoroi	-10.9353
▁ulkopuolelle	-10.9353
kriitikko	-10.9353
▁Kaupungi	-10.9353
▁Oscar	-10.9353
▁Phobos	-10.9353
▁näkökulmasta	-10.9353
▁ruskehtav	-10.9353
▁sunnuntai	-10.9353
▁(1998)	-10.9353
▁Adolf	-10.9353
▁vahingo	-10.9353
▁väestönlaskenna	-10.9353
▁ykkös	-10.9353
▁hämähäkkejä	-10.9353
▁selviyty	-10.9353
▁PNG	-10.9353
▁Syyskuu	-10.9353
▁Birds	-10.9353
▁ryösti	-10.9353
▁basso	-10.9353
piirtäjä	-10.9353
▁FTP	-10.9353
uscinia	-10.9353
▁GDP	-10.9353
▁Varsinaise	-10.9353
▁Eugen	-10.9353
planeettoj	-10.9353
▁Mozilla	-10.9353
▁Harding	-10.9353
▁särki	-10.9353
▁elimistö	-10.9353
▁Vincen	-10.9353
▁1676	-10.9353
▁luutisti	-10.9353
▁hiukan	-10.9353
▁vasemma	-10.9353
▁shakinpelaaja	-10.9353
▁Manuel	-10.9353
▁1637	-10.9353
kirjoissa	-10.9353
▁Caesar	-10.9353
▁vokaali	-10.9353
▁tienoilla	-10.9353
▁tamili	-10.9353
paikkojen	-10.9353
▁1952	-10.9353
▁sijainn	-10.9353
▁lääketietee	-10.9353
▁silloise	-10.9353
▁puolelle	-10.9354
▁kpl	-10.9354
▁Perintei	-10.9354
▁rauhansopimukse	-10.9354
▁Tammikuu	-10.9355
▁Vanhoi	-10.9355
▁1620)	-10.9355
▁Gerby	-10.9355
▁Kanadassa	-10.9355
▁rautaristi	-10.9355
työkalu	-10.9355
äytäntö	-10.9356
▁nykyaikais	-10.9356
▁Helsingissä	-10.9356
▁äänestä	-10.9357
▁liittyviä	-10.9357
▁Folk	-10.9357
▁lausutaan	-10.9358
▁järvissä	-10.9358
▁2.198	-10.9359
▁Kesäkuu	-10.9359
ööri	-10.936
▁opinto	-10.936
▁Hieta	-10.9361
▁Pooki	-10.9361
laitoksen	-10.9362
▁koriste	-10.9362
▁kasvatta	-10.9363
väritykseltään	-10.9364
▁korvasi	-10.9365
▁sinne	-10.9368
▁otsa	-10.9368
▁Anni	-10.9368
press	-10.9377
Lappia	-10.938
▁tihei	-10.9383
laakso	-10.9384
trix	-10.9394
▁Lauri	-10.9396
iipiväli	-10.94
nopeutta	-10.9402
▁Vantaa	-10.9406
▁havainnoi	-10.9406
▁sellaisi	-10.9407
icep	-10.9419
tuottaja	-10.9425
▁Antiik	-10.9439
johdo	-10.9441
▁menestykse	-10.9479
Frid	-10.9494
▁varmist	-10.9506
▁hajot	-10.9539
hoitaja	-10.9559
▁maailmanlaajui	-10.9578
Turku	-10.9579
▁huole	-10.9584
kymmen	-10.9594
julkaisu	-10.9609
heinäkuussa	-10.9609
luettelo	-10.9611
Italia	-10.9611
Suomi	-10.9611
Espanja	-10.9611
kehitys	-10.9614
▁saapuva	-10.9623
silmä	-10.9628
▁tehtävi	-10.9648
▁Tavallisest	-10.9654
vaimen	-10.9675
lahdella	-10.9682
valmiste	-10.9706
suunnitelma	-10.9727
Yhdistyn	-10.9802
alokärki	-10.9871
portugali	-10.9924
englanti	-10.9936
taloustieteilijä	-10.9941
päätös	-10.997
▁ranskan	-10.9977
▁Histor	-10.9977
▁dominikaani	-10.9977
в	-10.9978
▁Peukaloi	-10.9978
▁bysanttilai	-10.9978
festivaali	-10.9978
konferenssi	-10.9978
vähemmistö	-10.9978
ú	-10.9978
∈	-10.9978
≈	-10.9978
▁ARPANET	-10.9978
▁Alexander	-10.9978
▁Geagea	-10.9978
▁Google	-10.9978
▁Kilpailu	-10.9978
▁Luoteis	-10.9978
▁Lyypeki	-10.9978
▁Napoleon	-10.9978
▁Rupikonna	-10.9978
▁Software	-10.9978
▁Tervapääsky	-10.9978
▁Viirupöllö	-10.9978
▁antiikin	-10.9978
▁erikoistehoste	-10.9978
▁fysiologi	-10.9978
▁maanjäristys	-10.9978
▁morfeemi	-10.9978
▁mystikko	-10.9978
▁naimisissa	-10.9978
▁patriarkka	-10.9978
▁pašša	-10.9978
▁rekisteröi	-10.9978
▁suurvisiiri	-10.9978
▁sähkömagneetti	-10.9978
▁vaarantuneeksi	-10.9978
moduuli	-10.9978
▁Jacopo	-10.9978
▁Normandia	-10.9978
▁kustantaja	-10.9978
▁mahdoton	-10.9978
▁persoona	-10.9978
harrastus	-10.9978
▁Domenic	-10.9978
▁Formaldehyd	-10.9978
▁Gottfri	-10.9978
▁Kepler	-10.9978
▁Konstans	-10.9978
▁kruununperilli	-10.9978
▁pyydystä	-10.9978
torjunta	-10.9978
▁DIN	-10.9978
▁Gardie	-10.9978
▁Margaret	-10.9978
▁graafi	-10.9978
▁käytettävi	-10.9978
▁keskiviikko	-10.9978
▁niitty	-10.9978
vapauden	-10.9978
▁Guizhou	-10.9978
▁pankkikriisi	-10.9978
▁piirteitä	-10.9978
▁Itsenäi	-10.9978
▁Moottori	-10.9978
▁Topelius	-10.9978
▁Kreikkalai	-10.9978
▁Tallinna	-10.9978
▁Espoo	-10.9978
▁lopetti	-10.9978
▁karkotettiin	-10.9978
▁reviiri	-10.9978
Dmitri	-10.9978
▁Gyllen	-10.9978
▁yhdestä	-10.9978
▁sekametsissä	-10.9978
▁TCP	-10.9978
▁Komnenos	-10.9978
▁André	-10.9978
▁Pascal	-10.9978
▁ikkuna	-10.9978
▁purkautu	-10.9978
▁Joulukuu	-10.9978
▁satiiri	-10.9978
▁1–2	-10.9978
▁ruoviko	-10.9978
▁sisältävi	-10.9978
▁osmani	-10.9978
▁annettiin	-10.9978
▁selässä	-10.9978
▁Euler	-10.9978
▁Turkuun	-10.9979
▁Blue	-10.9979
▁Kreika	-10.9979
▁Kylät	-10.9979
▁välein	-10.9979
▁Vasili	-10.9979
kirjoja	-10.9979
▁kulku	-10.9979
▁kulki	-10.9979
▁pesue	-10.9979
▁Järviradio	-10.9979
▁avoin	-10.9979
Falco	-10.998
▁monenlaisi	-10.998
▁tavallinen	-10.998
▁Niilo	-10.998
▁Baltia	-10.998
▁lopetta	-10.998
▁senttiä	-10.998
1643)	-10.998
▁yhdistelmä	-10.9981
cture	-10.9981
▁käsitellään	-10.9981
▁siirrytt	-10.9981
▁pientä	-10.9981
▁kahvi	-10.9982
▁kaksinkertai	-10.9982
▁Angel	-10.9983
▁kuvaili	-10.9983
▁rinnast	-10.9983
▁osoittaa	-10.9983
▁kestävä	-10.9983
▁Haapa	-10.9984
▁Jouko	-10.9984
toukat	-10.9986
▁22–2	-10.9986
▁taakse	-10.9986
▁Muinais	-10.9986
▁Varsink	-10.9987
▁ohut	-10.9987
▁tiivis	-10.9987
▁Tammi	-10.9988
▁vastakkais	-10.999
lläpidettäväksi	-10.999
▁1743	-10.9991
objekti	-10.9992
Taivaa	-10.9995
▁hidas	-10.9996
▁myöntä	-10.9998
Arc	-11.0007
uotteita	-11.0009
lehdet	-11.0013
▁ennust	-11.0027
▁tuomitt	-11.0029
▁Kanahauk	-11.0033
1610)	-11.0034
▁1947	-11.006
▁keskimääräi	-11.0066
▁Wieni	-11.0067
matkailu	-11.0073
tietokanta	-11.0075
rummut	-11.0075
tehtäviä	-11.0082
▁tyttö	-11.0084
▁Koiv	-11.0085
rytmi	-11.0115
▁instituut	-11.0118
▁virolai	-11.012
▁ohjelmointikiel	-11.0122
Euro	-11.0152
kuono	-11.0154
▁Piene	-11.0167
▁kuudes	-11.0168
oirei	-11.0176
laitteita	-11.0222
panos	-11.0224
0–60	-11.0258
Lapissa	-11.0276
urheilu	-11.0276
laulaja	-11.0277
yliopisto	-11.0279
iltei	-11.0284
nomistaja	-11.0291
puhelimi	-11.0296
▁1789	-11.0296
▁1,0	-11.0303
nimise	-11.0318
▁Kiinalaise	-11.0336
▁Pyrrho	-11.0356
putki	-11.0358
harrastaja	-11.0425
6–5	-11.0429
▁ohjelmointi	-11.0492
kirjaimen	-11.0518
5–20	-11.0622
liikenteen	-11.063
▁Kylmä	-11.0637
asiakirja	-11.0637
▁vektori	-11.0638
▁kehit	-11.0643
ο	-11.0644
▁NKVD	-11.0644
▁ratsuväen	-11.0644
enemmistö	-11.0644
englanniksi	-11.0644
hävittäjä	-11.0644
vaihtovirra	-11.0644
ρ	-11.0644
י	-11.0644
€	-11.0644
▁Descartes	-11.0644
▁Edmund	-11.0644
▁Foundation	-11.0644
▁Fältskog	-11.0644
▁Grönlannissa	-11.0644
▁Kommunisti	-11.0644
▁Ludovic	-11.0644
▁Messerschmitt	-11.0644
▁SWAT	-11.0644
▁Sebastian	-11.0644
▁Society	-11.0644
▁Teoderik	-11.0644
▁alkemisti	-11.0644
▁kaupungeissa	-11.0644
▁keinotekois	-11.0644
▁kibbutsi	-11.0644
▁reaktanssi	-11.0644
▁riippumatta	-11.0644
▁samannäköisiä	-11.0644
▁ulkonäöltään	-11.0644
▁visigoot	-11.0644
▁vuosituhat	-11.0644
▁äyriäisiä	-11.0644
yhteydet	-11.0644
▁Dysprosium	-11.0644
▁Hallitsija	-11.0644
▁JPEG	-11.0644
▁alaisuudessa	-11.0644
▁binääri	-11.0644
▁hallussa	-11.0644
▁moderni	-11.0644
▁territorio	-11.0644
▁vuodeksi	-11.0644
neutraali	-11.0644
▁Hallitsijoi	-11.0644
▁gregoriaanise	-11.0644
▁sijainti	-11.0644
▁vaihtui	-11.0644
▁Sotkamo	-11.0644
▁kielletty	-11.0644
▁korkeudelle	-11.0644
orkesteri	-11.0644
▁Bartolom	-11.0644
▁amerikan	-11.0644
▁haudonta	-11.0644
tilanteessa	-11.0644
▁Flash	-11.0644
▁Islanti	-11.0644
▁etätyö	-11.0644
DIMM	-11.0644
▁keskellä	-11.0644
▁lineaari	-11.0644
▁Kodisjo	-11.0644
▁1961	-11.0644
▁tummanharmaa	-11.0644
▁Parimäärä	-11.0644
▁1776	-11.0645
Brasilia	-11.0645
▁ISO	-11.0645
▁laajenta	-11.0645
▁hävinnee	-11.0645
▁Liaoning	-11.0645
▁Smith	-11.0645
▁työntekijä	-11.0645
▁Krimin	-11.0645
▁Tapani	-11.0645
▁hajosi	-11.0645
▁verrannolli	-11.0645
▁Uhanalais	-11.0645
kirjojen	-11.0645
▁3–5	-11.0645
Pirkanmaa	-11.0645
▁Fokas	-11.0645
▁1578)	-11.0645
▁1941	-11.0645
▁sitoutu	-11.0645
▁alkavat	-11.0645
▁rahoitta	-11.0645
▁itsenäistyi	-11.0645
▁Punainen	-11.0645
▁Soidin	-11.0645
▁voimakkaan	-11.0645
▁suunnill	-11.0645
▁päähän	-11.0645
▁saarelle	-11.0645
▁Audio	-11.0646
▁Aalto	-11.0646
▁kamari	-11.0646
▁rehevä	-11.0646
▁nivel	-11.0646
1598)	-11.0646
Legend	-11.0646
▁1510)	-11.0646
▁shakin	-11.0646
▁sodat	-11.0646
▁kurku	-11.0646
▁tärkeimmät	-11.0646
▁rahoitus	-11.0647
▁Latvia	-11.0647
▁jälkeläis	-11.0647
▁Tikli	-11.0648
▁halki	-11.0648
tuotteiden	-11.0649
joutsen	-11.0649
▁niuk	-11.0649
ietojenkäsittely	-11.0649
▁Lahna	-11.065
▁vastine	-11.065
▁joudut	-11.065
▁kurki	-11.0651
▁muodostui	-11.0651
▁Jänis	-11.0651
taloustiede	-11.0652
▁korvaus	-11.0652
▁mekaanis	-11.0653
▁toteutu	-11.0655
▁Valkea	-11.0656
▁1533	-11.0661
▁eräs	-11.0666
▁Usea	-11.0674
▁Clar	-11.0675
▁karkott	-11.0677
▁1–10	-11.068
▁suuntautu	-11.0687
ohjaus	-11.069
▁puolustusvoimi	-11.0692
▁naaraall	-11.0708
Acro	-11.0718
televisiosarja	-11.0723
▁nimitykse	-11.0728
▁pakott	-11.0772
▁sammu	-11.0782
▁tutkijoi	-11.0802
Sahara	-11.0811
rahoi	-11.0814
ryhmien	-11.0898
▁Suomenlahde	-11.0908
Anth	-11.0929
5–12	-11.0941
suhtei	-11.095
armeija	-11.0991
historioitsija	-11.0993
▁piirityks	-11.0995
jaarli	-11.0995
ilmiö	-11.1004
kunink	-11.1021
▁metal	-11.1063
▁valmistukse	-11.1071
1641)	-11.1082
laajuisesti	-11.109
▁1595	-11.1091
▁todellisuude	-11.1136
yksestä	-11.115
kaudeksi	-11.1176
tapahtumi	-11.122
miehet	-11.1228
▁Helsing	-11.1279
osoitte	-11.1315
käyttäytymise	-11.1324
▁opetta	-11.1333
▁standard	-11.1355
onikos	-11.1355
▁Metsäkirvi	-11.1359
▁Niittykirvi	-11.1359
▁Vesipäästäi	-11.1359
räjähde	-11.1359
viiksisiippa	-11.1359
▁Airbus	-11.1359
▁Savoiji	-11.1359
▁Tyynenmeren	-11.1359
▁logaritmi	-11.1359
▁merenkulkij	-11.1359
▁töyhtö	-11.1359
▁ymmärr	-11.1359
Leningrad	-11.1359
mogulihallitsija	-11.1359
ohdannaisyksiköt	-11.1359
selkärangattomat	-11.1359
ë	-11.1359
к	-11.1359
▁BirdLife	-11.1359
▁Honshū	-11.1359
▁Koskikara	-11.1359
▁Michelangelo	-11.1359
▁Northumbria	-11.1359
▁Psilosybiini	-11.1359
▁Raamatun	-11.1359
▁Shanghai	-11.1359
▁Suleiman	-11.1359
▁Tiberius	-11.1359
▁Vandaali	-11.1359
▁Venäläise	-11.1359
▁Virginia	-11.1359
▁Washington	-11.1359
▁Zamenhof	-11.1359
▁alaspäin	-11.1359
▁eteenpäin	-11.1359
▁harvalukuisena	-11.1359
▁havumetsä	-11.1359
▁kansainvälisi	-11.1359
▁kauppakomppania	-11.1359
▁kaupungista	-11.1359
▁markiisi	-11.1359
▁palkkasoturi	-11.1359
▁positiivise	-11.1359
▁purjehti	-11.1359
▁trooppise	-11.1359
▁tyypillistä	-11.1359
▁vetäytyi	-11.1359
▁Atkinson	-11.1359
▁GNU	-11.1359
▁Hallinnolli	-11.1359
▁Howard	-11.1359
▁Marraskuu	-11.1359
▁lyijy	-11.1359
▁oomega	-11.1359
▁törmä	-11.1359
▁äidinkiel	-11.1359
▁Syyrian	-11.1359
▁yksinkertaisi	-11.1359
▁isotooppi	-11.1359
▁lahjoit	-11.1359
arduelis	-11.1359
▁Tuulihauk	-11.1359
▁kyljissä	-11.1359
▁sisällissoda	-11.1359
▁Taistelu	-11.1359
▁Unix	-11.1359
▁muuttomatka	-11.1359
▁intialainen	-11.1359
▁kotiloita	-11.1359
▁Edner	-11.1359
▁Viiriäi	-11.1359
▁synonyymi	-11.1359
▁valtioneuvosto	-11.1359
▁Murmansk	-11.1359
▁Vuokatin	-11.1359
▁länsigoot	-11.1359
▁läpimitta	-11.1359
▁tallennet	-11.1359
▁määrittely	-11.1359
▁pöly	-11.1359
▁tummempi	-11.1359
▁Pekingi	-11.1359
▁toteuttaa	-11.1359
▁Närh	-11.1359
▁epäselv	-11.1359
▁radioasemat	-11.1359
▁kirosana	-11.1359
▁MCA	-11.1359
▁manterei	-11.1359
▁Suomipop	-11.1359
▁nimityksiä	-11.1359
▁sukelta	-11.1359
▁asukasluku	-11.1359
▁1769	-11.1359
▁ravuri	-11.1359
▁vuosisada	-11.1359
Motacill	-11.1359
kustannus	-11.1359
▁Benny	-11.1359
stedt	-11.1359
▁1554)	-11.1359
periaate	-11.1359
▁Franz	-11.1359
▁0,00	-11.1359
▁3–6	-11.136
▁kirkossa	-11.136
▁Yksinkertai	-11.136
▁käyttänee	-11.136
▁pyhi	-11.136
Donald	-11.136
▁noudattaa	-11.136
▁kantaisä	-11.136
▁pakonopeu	-11.136
▁Maksimi	-11.1361
▁1500-	-11.1361
▁ajatella	-11.1361
sankari	-11.1362
▁Arriano	-11.1362
luotaime	-11.1363
vaurioi	-11.1363
▁radalla	-11.1363
▁alueelta	-11.1363
▁Kuore	-11.1364
▁Perämere	-11.1364
evätmuutto	-11.1364
juoksu	-11.1365
▁protoni	-11.1365
▁kaikenlaisi	-11.1365
▁Asema	-11.1366
▁agent	-11.1368
▁1572	-11.1368
▁1683	-11.1368
▁1552	-11.1369
▁palkka	-11.137
▁erottuva	-11.1371
▁valittu	-11.1372
eeding	-11.1372
▁Satakiel	-11.1373
▁avust	-11.1376
▁Varenne	-11.1377
1787)	-11.138
▁Kaikill	-11.1384
▁tieteis	-11.1385
▁joule	-11.1389
▁muuttuva	-11.1393
▁korkeimma	-11.1395
▁reiti	-11.1407
▁Entise	-11.1409
pakkaukse	-11.1409
▁kotimais	-11.1425
▁Suurimma	-11.1437
▁aurinkokunna	-11.1462
▁Väestötihey	-11.1471
vastukse	-11.1482
▁Guill	-11.1483
–120	-11.1514
tärkeitä	-11.1527
▁nuoremma	-11.1535
▁tieteell	-11.1538
▁suuruis	-11.1548
käymis	-11.1588
▁herättä	-11.16
▁harrasta	-11.16
tyypit	-11.1602
▁pyör	-11.1616
▁kasvatet	-11.1656
kerroks	-11.1681
linnuista	-11.1709
▁kumma	-11.1728
kertoime	-11.1748
▁määritelt	-11.1756
upseeri	-11.1759
rakennus	-11.176
vaikutus	-11.1761
valkoinen	-11.1762
▁kohtei	-11.1766
elämässä	-11.1804
▁käyttötarkoitu	-11.1863
uokakulttuuri	-11.1876
▁keisarillise	-11.1966
▁luokittel	-11.1969
▁kaikill	-11.1975
▁1647	-11.2025
▁elektro	-11.2052
edustaji	-11.2055
▁Ohj	-11.2078
luokitus	-11.2107
▁infrapuna	-11.2118
yseessä	-11.2122
lainsäädäntö	-11.2128
tekniikoi	-11.2128
tunguusikiel	-11.2128
μ	-11.2128
▁Pfalz	-11.2128
▁ikäluokki	-11.2128
SDRAM	-11.2128
filippiiniläi	-11.2128
millimetri	-11.2128
à	-11.2128
̄	-11.2128
ω	-11.2128
▁Ahvenanmaalla	-11.2128
▁Antigono	-11.2128
▁Astronom	-11.2128
▁Benjamin	-11.2128
▁Duchovny	-11.2128
▁Encyclopedia	-11.2128
▁Euroviisu	-11.2128
▁Heilongjiang	-11.2128
▁Hiiripöllö	-11.2128
▁Information	-11.2128
▁Islannissa	-11.2128
▁Kiljuhanh	-11.2128
▁Kuhankeittäjä	-11.2128
▁Kuivanieme	-11.2128
▁Liivinmaan	-11.2128
▁Maurikio	-11.2128
▁Moodysson	-11.2128
▁Museovirasto	-11.2128
▁Network	-11.2128
▁Nicholas	-11.2128
▁Piikkikampela	-11.2128
▁Pulliainen	-11.2128
▁Punakylkirasta	-11.2128
▁Päiväntasaaja	-11.2128
▁Ristisorsa	-11.2128
▁Suetonius	-11.2128
▁Vaivaishiir	-11.2128
▁eteläranniko	-11.2128
▁höyhenpeite	-11.2128
▁instrument	-11.2128
▁kirjanpainaja	-11.2128
▁kronikoitsija	-11.2128
▁matemaatti	-11.2128
▁modeemi	-11.2128
▁nisäkäs	-11.2128
▁pelkkä	-11.2128
▁populaarimusiik	-11.2128
▁potentiaali	-11.2128
▁potentiometri	-11.2128
▁puutarhoissa	-11.2128
▁pyöveli	-11.2128
▁siipijuova	-11.2128
▁sisällissota	-11.2128
▁suurherttua	-11.2128
语	-11.2128
bruttokansantuot	-11.2128
▁Benelux	-11.2128
▁Elitloppet	-11.2128
▁Seksuaali	-11.2128
▁hyökkää	-11.2128
▁höyhenpuku	-11.2128
▁kahdessa	-11.2128
▁kampela	-11.2128
▁koordinaat	-11.2128
▁liikennöi	-11.2128
▁perjantai	-11.2128
▁punakylkirasta	-11.2128
▁puunkolo	-11.2128
▁tinnitus	-11.2128
▁Corsair	-11.2128
▁Irlanti	-11.2128
▁Kolehmai	-11.2128
▁eduskunta	-11.2128
▁Matthia	-11.2128
▁perustuslain	-11.2128
▁vahvistettiin	-11.2128
kirjastonhoitaja	-11.2128
▁Girolam	-11.2128
▁Malaiji	-11.2128
▁Muuttolintu	-11.2128
▁Stefan	-11.2128
▁seikkailu	-11.2128
▁Laurenti	-11.2128
▁Punasolu	-11.2128
▁XML	-11.2128
▁hallinnollinen	-11.2128
▁pöntö	-11.2128
▁vuokra	-11.2128
▁huomaama	-11.2128
▁jälki	-11.2128
▁newton	-11.2128
▁ruutana	-11.2128
▁venäjä	-11.2128
egatiivinen	-11.2128
▁sopeutun	-11.2128
▁Hippiäi	-11.2128
▁myöhäis	-11.2128
▁Bielke	-11.2128
▁Kymmen	-11.2128
▁tauluko	-11.2128
▁avioliitto	-11.2128
politiikan	-11.2128
▁POP	-11.2128
▁kuuluvuusalue	-11.2128
▁polttoaine	-11.2128
▁aatelismies	-11.2128
▁korkeuteen	-11.2128
▁pohjautuu	-11.2128
▁liukene	-11.2128
▁tavoitteena	-11.2128
▁sekoittu	-11.2128
▁vangiksi	-11.2128
▁tummanruskea	-11.2128
▁alkukesä	-11.2128
▁Seinäjoe	-11.2128
▁Aamuleh	-11.2128
▁Malesia	-11.2128
▁CNN	-11.2128
▁1569	-11.2128
intytär	-11.2128
▁1669	-11.2128
yhteyttä	-11.2128
▁satelliitti	-11.2128
▁hiihto	-11.2128
▁{1,	-11.2128
▁kanahaukka	-11.2128
▁modul	-11.2128
▁Opetus	-11.2128
▁Lynx	-11.2129
▁maastossa	-11.2129
▁osoittautu	-11.2129
▁1636)	-11.2129
▁kasvaessa	-11.2129
▁romaht	-11.2129
mekanism	-11.2129
symmetri	-11.2129
▁Mustapääkert	-11.2129
▁englanninkielis	-11.2129
viiriäi	-11.2129
▁paikalle	-11.2129
▁muttei	-11.2129
▁askel	-11.2129
▁murre	-11.2129
▁1933	-11.2129
▁luottamu	-11.213
▁Saaren	-11.213
Hingis	-11.213
kuljettaja	-11.213
▁vuosisatoj	-11.213
pdf	-11.2131
▁Hawk	-11.2132
▁kätkö	-11.2132
▁pesye	-11.2133
▁ehdokka	-11.2133
vaatimuksi	-11.2133
▁Suosiki	-11.2133
yhteinen	-11.2134
säätiö	-11.2135
arvostelu	-11.2135
▁paluu	-11.2136
▁verrat	-11.214
puoleise	-11.214
▁irrot	-11.2142
yhdistykse	-11.2146
kelpois	-11.2146
muusiko	-11.2147
▁Konstantinokse	-11.2148
5–10	-11.2149
luoteis	-11.215
Mongolia	-11.2151
▁saavutet	-11.2151
uorovaikutukse	-11.2152
pyörä	-11.2153
1649)	-11.2154
1566)	-11.2154
▁ravirada	-11.2156
▁tunnistami	-11.2163
▁käännett	-11.2164
hylje	-11.2167
▁sukunime	-11.2175
1790)	-11.2179
Circ	-11.2179
▁aikakaude	-11.2194
▁tunnetuimpi	-11.2197
ktiivinen	-11.2203
▁Azerbaidžan	-11.2214
oscop	-11.2221
▁000–2	-11.2241
tasapaino	-11.2254
seksuaalisuu	-11.2276
▁Edell	-11.2309
▁erottami	-11.231
1808)	-11.2334
1983)	-11.2368
▁reaalilukuj	-11.2374
kauhu	-11.2393
käytävä	-11.2405
▁perustee	-11.2405
▁velvollisuu	-11.2443
ukkula	-11.2516
Norja	-11.2593
Japani	-11.2594
väestö	-11.2595
yhdiste	-11.26
suomalais	-11.2613
lähetyks	-11.2624
▁paremp	-11.2729
▁tietoisuu	-11.273
apahtumahorisont	-11.2759
lintulajei	-11.2769
Euraasia	-11.2947
▁seokse	-11.2947
▁kiihty	-11.2955
▁Työväen	-11.296
Akvitania	-11.2961
Vasemmisto	-11.2961
β	-11.2961
ת	-11.2961
▁Björn	-11.2961
▁Juhlapukui	-11.2961
▁Temppeliherr	-11.2961
▁Venetsian	-11.2961
▁fysikaalis	-11.2961
▁myrkyllis	-11.2961
▁ratkaise	-11.2961
▁sorsalintu	-11.2961
iherpeippo	-11.2961
kumppani	-11.2961
pedagogi	-11.2961
æ	-11.2961
φ	-11.2961
▁Corporation	-11.2961
▁Creutz	-11.2961
▁FIDE	-11.2961
▁Harmaapäätik	-11.2961
▁Isolepinkäi	-11.2961
▁Joosef	-11.2961
▁Koivuhiir	-11.2961
▁Lapinpöllö	-11.2961
▁Luokittelu	-11.2961
▁Muhammad	-11.2961
▁Project	-11.2961
▁Research	-11.2961
▁Räkättirasta	-11.2961
▁Saturnuksen	-11.2961
▁Serotoniini	-11.2961
▁Silverstein	-11.2961
▁Suopöllö	-11.2961
▁Torricelli	-11.2961
▁Vastaavasti	-11.2961
▁caesar	-11.2961
▁indonesia	-11.2961
▁kapellimestari	-11.2961
▁lintulaudoilla	-11.2961
▁lääninrovasti	-11.2961
▁makedonialai	-11.2961
▁matemaatiko	-11.2961
▁natrium	-11.2961
▁neuvostotasaval	-11.2961
▁renessanssi	-11.2961
▁suunnittelema	-11.2961
▁syrjäytettiin	-11.2961
▁ymmärtä	-11.2961
▁äyriäiset	-11.2961
diktaattori	-11.2961
uskonpuhdistukse	-11.2961
▁Athlon	-11.2961
▁DivX	-11.2961
▁Dynastia	-11.2961
▁Maaliskuu	-11.2961
▁Microsoft	-11.2961
▁Peipot	-11.2961
▁normanni	-11.2961
▁ostrogoot	-11.2961
▁polveutu	-11.2961
▁seitsemäs	-11.2961
▁sotaretke	-11.2961
seuduilla	-11.2961
▁Varpushauk	-11.2961
▁pehmeä	-11.2961
▁poiketen	-11.2961
▁ylöspäin	-11.2961
teollisuutta	-11.2961
▁Anatoli	-11.2961
▁latvassa	-11.2961
▁sfnet	-11.2961
▁siivellä	-11.2961
▁Stenkil	-11.2961
▁petolintu	-11.2961
▁voimakkuus	-11.2961
▁Taylor	-11.2961
▁Diesel	-11.2961
▁Iberian	-11.2961
▁kiellettiin	-11.2961
kloridi	-11.2961
laskutoimitukse	-11.2961
▁(2001)	-11.2961
▁komeeta	-11.2961
▁määritelly	-11.2961
▁vähälukuinen	-11.2961
▁ravinnon	-11.2961
▁julkaista	-11.2961
komissio	-11.2961
yhtymä	-11.2961
▁pätee	-11.2961
▁luodoilla	-11.2961
ruununprinssi	-11.2961
▁toiminnassa	-11.2961
▁Lopulta	-11.2961
▁Serbia	-11.2961
▁ahdist	-11.2961
▁Yoshi	-11.2961
▁Diego	-11.2961
▁Irssi	-11.2961
▁Ethel	-11.2961
▁sydän	-11.2961
▁(2000)	-11.2961
▁maanpinna	-11.2961
▁himmeä	-11.2961
▁voltti	-11.2961
▁marssi	-11.2962
▁murhattiin	-11.2962
▁teollisuusmies	-11.2962
▁fuusio	-11.2962
▁keräänty	-11.2962
▁Aikuise	-11.2962
kvartett	-11.2962
▁luovutta	-11.2962
▁piirros	-11.2962
▁Leonard	-11.2962
▁hengelli	-11.2962
proteiini	-11.2962
▁lordi	-11.2962
äänestys	-11.2962
▁topologi	-11.2962
▁loogi	-11.2962
positio	-11.2962
▁ankara	-11.2962
▁Forbes	-11.2962
ekkiläinen	-11.2962
▁väittä	-11.2963
▁sovelta	-11.2963
trilogia	-11.2963
ongelmia	-11.2964
▁alaperä	-11.2965
tutkinnon	-11.2965
▁periyty	-11.2965
offee	-11.2966
▁säyne	-11.2966
▁Julma	-11.2967
▁muodostunee	-11.2967
▁vanhimma	-11.2967
▁torstai	-11.2969
▁Mataram	-11.297
▁1698	-11.297
uolisävel	-11.2972
vanhemma	-11.2972
▁kurpp	-11.2973
▁lukio	-11.2974
▁Teknis	-11.2981
tuotteen	-11.2987
ehdessä	-11.2987
onyymi	-11.2991
▁saamelai	-11.2991
vertailu	-11.3006
▁tunnetuimm	-11.302
uualla	-11.3035
▁muodostumi	-11.3037
▁Kesälahde	-11.3038
▁vartioi	-11.3041
vaikutuksia	-11.3056
▁onnettomuu	-11.3073
eläviä	-11.3115
uolikuun	-11.3145
▁tietokoneohjelm	-11.3239
▁tapahtunee	-11.3319
▁tiettyj	-11.3344
▁avoimi	-11.3368
▁kirjoittamise	-11.3424
kirjaimella	-11.3483
kenraali	-11.3505
ranskalai	-11.3514
sairaala	-11.3578
▁1689	-11.3673
kirkos	-11.3682
uudistus	-11.3694
musiikissa	-11.3781
▁järje	-11.3788
▁kehittämise	-11.3806
peräise	-11.3815
▁kokonaisluvu	-11.3827
▁valtaistuime	-11.3849
▁Hämeen	-11.3859
ו	-11.387
ل	-11.387
ν	-11.387
▁Töyhtötiai	-11.387
▁böömiläi	-11.387
subjunktiivi	-11.387
▁Digitaali	-11.387
▁Kangaskiuru	-11.387
▁Kesykyyhky	-11.387
▁Metsäpäästäi	-11.387
▁Mäkikuisma	-11.387
▁Ohjelmisto	-11.387
▁Ptolemaiokse	-11.387
▁hollantilais	-11.387
▁kapitalisti	-11.387
▁kolmiulottei	-11.387
▁korpraali	-11.387
▁kovakuoriais	-11.387
▁laboratorio	-11.387
▁maanviljelijä	-11.387
▁monimutkais	-11.387
▁polttopullo	-11.387
▁pysähty	-11.387
▁säiliö	-11.387
▁välityspalvelim	-11.387
Kalifornia	-11.387
ansankongressi	-11.387
asiantuntija	-11.387
hyökkäys	-11.387
lähdön	-11.387
oidinlennossa	-11.387
roglodytes	-11.387
silmäkulmanjuova	-11.387
strategi	-11.387
tiedotusväline	-11.387
ø	-11.387
ł	-11.387
σ	-11.387
▁Albrecht	-11.387
▁Córdoba	-11.387
▁Festivaali	-11.387
▁Godwininpoika	-11.387
▁Kehrääjä	-11.387
▁Lapasorsa	-11.387
▁NTSC	-11.387
▁Nikeforoksen	-11.387
▁Oranialainen	-11.387
▁Oxenstierna	-11.387
▁Peltopyy	-11.387
▁Pieksänmaa	-11.387
▁Postfix	-11.387
▁Sarvipöllö	-11.387
▁Särjet	-11.387
▁Transilvania	-11.387
▁Zachar	-11.387
▁aatelisnainen	-11.387
▁coulombi	-11.387
▁hakkuuauk	-11.387
▁haupitsi	-11.387
▁kertolasku	-11.387
▁kieltäytyi	-11.387
▁kirjoitettiin	-11.387
▁kondensaattori	-11.387
▁mahdollinen	-11.387
▁muinaisjäännöks	-11.387
▁murtovedessä	-11.387
▁pikkukaloja	-11.387
▁positron	-11.387
▁puunilaissota	-11.387
▁pörssi	-11.387
▁yleisimpiä	-11.387
▁äärellinen	-11.387
▁Əliyev	-11.387
Leucisc	-11.387
kuningaskunnasta	-11.387
ustesuihkutulost	-11.387
vyöhyke	-11.387
▁Julkaisu	-11.387
▁Kortšnoi	-11.387
▁Kroatia	-11.387
▁Lorentz	-11.387
▁Matematiika	-11.387
▁Science	-11.387
▁Sosialisti	-11.387
▁Sudenmarja	-11.387
▁avaruuteen	-11.387
▁huvipuisto	-11.387
▁peräkkäis	-11.387
▁pohjoinen	-11.387
▁sotaretki	-11.387
hampurilai	-11.387
kolmikymmenvuoti	-11.387
tyristori	-11.387
▁Fobia	-11.387
▁Kasimir	-11.387
▁Pakistani	-11.387
▁Pilkkasii	-11.387
▁kaappasi	-11.387
▁molempi	-11.387
▁siviili	-11.387
kampanja	-11.387
yhteensopiva	-11.387
▁rakennustyöt	-11.387
▁tarkemmin	-11.387
Delphi	-11.387
▁Direct	-11.387
▁Kruununhaa	-11.387
▁Jangtse	-11.387
▁Valakian	-11.387
▁diesel	-11.387
▁käheä	-11.387
▁monarki	-11.387
▁taivaanvuoh	-11.387
▁Albumi	-11.387
▁Etätyö	-11.387
▁henkeä	-11.387
▁Traakia	-11.387
▁ehkäisy	-11.387
▁juhli	-11.387
▁laajeni	-11.3871
▁rinnassa	-11.3871
▁länteen	-11.3871
eksintöjä	-11.3871
▁Erasmu	-11.3871
▁litteä	-11.3871
urturikyyhky	-11.3871
▁harvinaisi	-11.3871
▁Lääke	-11.3871
▁Äänte	-11.3871
ilkkiuikku	-11.3871
▁Kaksos	-11.3871
▁kreml	-11.3871
kulkuneuvo	-11.3871
merkeillä	-11.3871
▁1872	-11.3871
▁vanhemmi	-11.3871
▁levittäyty	-11.3872
valvonta	-11.3872
figur	-11.3872
ravurei	-11.3872
▁jaksollise	-11.3873
▁logiika	-11.3873
▁Säyne	-11.3873
▁Lapintiai	-11.3874
▁elinikä	-11.3874
▁hautomis	-11.3874
▁hyödynnet	-11.3874
▁harmoni	-11.3874
▁rationaalilukuj	-11.3874
▁toistuva	-11.3877
▁Kultasirk	-11.3879
▁laaditt	-11.3879
▁Kylmäkoske	-11.388
▁tuhanne	-11.3881
▁johtami	-11.3883
▁kokonaislukuj	-11.3883
suorittimi	-11.3885
▁käyttämi	-11.3885
▁työläis	-11.3892
▁1.198	-11.3893
selaime	-11.3894
1659)	-11.3907
▁lopetett	-11.3909
▁Protoc	-11.391
alalokki	-11.3924
1564)	-11.3927
▁itsenäistym	-11.3927
oikeuksia	-11.3928
Melani	-11.3944
ikkulokki	-11.3951
▁päiväntasaaja	-11.4065
▁1741	-11.4087
▁Antipatrokse	-11.4127
koulutukse	-11.4152
ansalliskirjasto	-11.4155
▁erotukse	-11.4179
velvollisuus	-11.4204
▁selkärangattomi	-11.4256
III	-11.4381
▁1561	-11.4431
▁jäänee	-11.4457
marsalkka	-11.45
Siperia	-11.4503
Louis	-11.4504
populaatio	-11.4504
▁matkapuhel	-11.4515
arkkinointi	-11.4516
myynni	-11.4586
arvioinni	-11.4607
▁1695	-11.4667
tarjonta	-11.4744
▁taloustietee	-11.4762
▁valtamere	-11.4768
▁valmistamise	-11.486
täytyminen	-11.486
iljoona	-11.4865
▁Jäämere	-11.487
▁belgialai	-11.487
▁brittiläis	-11.487
▁häiritse	-11.487
SSRI	-11.487
asiainministeriö	-11.487
choeniclus	-11.487
fganistani	-11.487
hymallus	-11.487
iittysuohauk	-11.487
imperiumi	-11.487
kaupunkeihin	-11.487
konduktanssi	-11.487
orbitaali	-11.487
yhdyskunnissa	-11.487
yritykset	-11.487
±	-11.487
▁Augsburg	-11.487
▁Brickell	-11.487
▁Cambridge	-11.487
▁Enterprise	-11.487
▁Friisiläishevo	-11.487
▁Gezelius	-11.487
▁Haartman	-11.487
▁Harmaasieppo	-11.487
▁Hemoglobiini	-11.487
▁Hitchcock	-11.487
▁Iridium	-11.487
▁Justinianukse	-11.487
▁Kangaslammi	-11.487
▁Kreationismi	-11.487
▁Käsittee	-11.487
▁Mandelbrot	-11.487
▁Neptunuksen	-11.487
▁Netscape	-11.487
▁Polyperkhon	-11.487
▁Pursuit	-11.487
▁Rakennus	-11.487
▁Rasvakala	-11.487
▁Reinhold	-11.487
▁Sodankylä	-11.487
▁Säteily	-11.487
▁Tyristori	-11.487
▁Törmäpääsky	-11.487
▁Uusklassi	-11.487
▁Vaaleanpunai	-11.487
▁Varpuspöllö	-11.487
▁Velvollisuuse	-11.487
▁Wessexin	-11.487
▁cembalist	-11.487
▁egyptiläi	-11.487
▁harvalukuinen	-11.487
▁internationaali	-11.487
▁juhannukse	-11.487
▁kansainvälistä	-11.487
▁kokoonpano	-11.487
▁konservatiivi	-11.487
▁käytettäessä	-11.487
▁loppukesällä	-11.487
▁meteoriparvi	-11.487
▁miljoonia	-11.487
▁negatiivise	-11.487
▁neuvonantaja	-11.487
▁opiskelu	-11.487
▁punasiirtymä	-11.487
▁rinnakkais	-11.487
▁sendmail	-11.487
▁simpukoita	-11.487
▁suopöllö	-11.487
▁supernova	-11.487
▁vallankaappauks	-11.487
▁vesisiippa	-11.487
▁yksinkertainen	-11.487
Götanmaa	-11.487
uisrääkkä	-11.487
ə	-11.487
▁Avignoni	-11.487
▁CUNA	-11.487
▁Centrino	-11.487
▁Firefox	-11.487
▁Guinness	-11.487
▁Jaroslav	-11.487
▁Jonathan	-11.487
▁Meksikossa	-11.487
▁Peltomyyrä	-11.487
▁Service	-11.487
▁Statistic	-11.487
▁Tutkimus	-11.487
▁Vokaali	-11.487
▁WWW	-11.487
▁algebra	-11.487
▁astrologi	-11.487
▁epävirallis	-11.487
▁pysyttelevä	-11.487
▁tuomiokirko	-11.487
▁Anselm	-11.487
▁Haarapar	-11.487
▁Heinätavi	-11.487
▁Kajaanin	-11.487
▁Kulorasta	-11.487
▁Teknologia	-11.487
▁Unesco	-11.487
▁kastraatio	-11.487
▁lyhennys	-11.487
▁ravinnosta	-11.487
▁tietoturva	-11.487
▁tuomiokirkko	-11.487
▁vastapaavi	-11.487
▁vieraile	-11.487
▁värähtel	-11.487
▁Gutenberg	-11.487
▁kiipeile	-11.487
▁toimitusjohtaja	-11.487
▁tunkeutu	-11.487
▁Merikihu	-11.487
▁mineraali	-11.487
▁Number	-11.487
▁kaivos	-11.487
Saaristomere	-11.487
▁Geneve	-11.487
▁Kolmanne	-11.487
▁Vatikaani	-11.487
▁eläintarha	-11.487
▁heikentä	-11.487
▁ikäisenä	-11.487
▁Kassandros	-11.487
▁Kreml	-11.487
etymologi	-11.487
▁Imukala	-11.487
▁Zheng	-11.487
▁epäilty	-11.487
▁johtanut	-11.487
▁taajami	-11.487
▁Lassila	-11.487
▁korostaa	-11.487
Kouvola	-11.487
▁noitavaino	-11.487
▁opiskell	-11.487
uokavalioon	-11.487
▁täsmäll	-11.487
▁Haapavede	-11.487
mekaniik	-11.487
▁artiste	-11.487
▁Estonia	-11.487
▁Deimokse	-11.487
▁Parikkala	-11.487
▁maakunni	-11.487
▁uivelo	-11.487
▁Enestam	-11.4871
▁Bosnia	-11.4871
▁harraste	-11.4871
kyhmy	-11.4871
▁arktisi	-11.4871
▁syöksy	-11.4871
▁ilmanpaine	-11.4871
▁haudonna	-11.4871
▁eteläpuolise	-11.4871
▁teloitt	-11.4871
▁laajuu	-11.4871
▁ulkopuolise	-11.4871
▁rakennutt	-11.4872
vaatteita	-11.4872
▁avioliito	-11.4872
PDF	-11.4872
kirjoista	-11.4872
▁Kontiai	-11.4872
▁Vanhoj	-11.4872
▁haudat	-11.4872
▁kymmenpiik	-11.4872
▁epävarm	-11.4873
ennätykse	-11.4873
sopimuksell	-11.4874
▁esitelt	-11.4876
eläimen	-11.4876
▁Päivä	-11.4876
syvyyde	-11.4879
Nauvo	-11.4881
▁23–2	-11.4881
▁Kristilli	-11.4883
▁ruotsinkielis	-11.4889
▁suuntaukse	-11.49
lyhentee	-11.4905
▁väritykse	-11.4922
▁Luonnontietee	-11.4931
▁pajulinnu	-11.4932
▁pelast	-11.4947
vaikutukset	-11.4989
uudistukse	-11.5004
muunnos	-11.5021
luonnollinen	-11.5026
▁35–4	-11.5038
#112	-11.504
▁Tähtitietee	-11.5042
valtakunnallinen	-11.5061
Liisa	-11.5073
▁1541	-11.5112
▁kansakunt	-11.5214
tarkoituksiin	-11.5229
▁supist	-11.5239
tehtävissä	-11.5256
Pyrrhokse	-11.5327
radiopuhelim	-11.5359
kohteita	-11.5431
jalkoj	-11.5453
suunnittelija	-11.5587
pyhimys	-11.5614
Helsinki	-11.5615
lääkäri	-11.5616
▁ruumii	-11.5625
avoimilla	-11.5695
nstituutti	-11.5731
▁kirjakiele	-11.5774
▁lisenssi	-11.5831
▁tunnettuj	-11.5861
Program	-11.5871
žurtšeni	-11.5962
▁vähenty	-11.5978
satelliit	-11.5981
ι	-11.5981
ל	-11.5981
Kolmikymmenvuoti	-11.5981
ر	-11.5981
▁Aragonialai	-11.5981
▁Lapinkirvi	-11.5981
▁Rytikerttu	-11.5981
Δ	-11.5981
ε	-11.5981
▁Andrew	-11.5981
▁Kaisaniemenka	-11.5981
▁Kivinilkka	-11.5981
▁Konsonant	-11.5981
▁Luhtahuit	-11.5981
▁Polyamidi	-11.5981
▁Suetoniukse	-11.5981
▁akateemi	-11.5981
▁analyytti	-11.5981
▁benediktiini	-11.5981
▁foinikialais	-11.5981
▁järvilohi	-11.5981
▁mikrokontroller	-11.5981
▁televisiosarjo	-11.5981
▁vaaleanpunaise	-11.5981
▁vaihtelevi	-11.5981
▁vaihtokurssi	-11.5981
▁vaivaishiir	-11.5981
BASIC	-11.5981
RKTL	-11.5981
Seelanti	-11.5981
eitsenruototokko	-11.5981
isäkkäät	-11.5981
kaupungeista	-11.5981
oodausmenetelmät	-11.5981
politiikassa	-11.5981
prosessor	-11.5981
uotokirvinen	-11.5981
yhteydestä	-11.5981
ähtävyyksiä	-11.5981
č	-11.5981
▁Bernadotte	-11.5981
▁Bourbon	-11.5981
▁Brueghel	-11.5981
▁Calixtus	-11.5981
▁Ellipsi	-11.5981
▁Energia	-11.5981
▁Falkenberg	-11.5981
▁Fluoksetiini	-11.5981
▁Global	-11.5981
▁Harmaasorsa	-11.5981
▁Heraklonas	-11.5981
▁Hieronym	-11.5981
▁Hyönteiset	-11.5981
▁Isosimppu	-11.5981
▁Järripeippo	-11.5981
▁Jätkäsaare	-11.5981
▁Kenraalibasso	-11.5981
▁Kivisimppu	-11.5981
▁Kivitasku	-11.5981
▁Kurnikova	-11.5981
▁Kyūshū	-11.5981
▁Käkisalm	-11.5981
▁Lauantai	-11.5981
▁Lewenhaupt	-11.5981
▁Magalhães	-11.5981
▁Mehiläishauk	-11.5981
▁Määritelmä	-11.5981
▁Neutroni	-11.5981
▁Niveljalkais	-11.5981
▁Nuolihaukka	-11.5981
▁Orléans	-11.5981
▁Peltohiir	-11.5981
▁Potentiometri	-11.5981
▁Punasotka	-11.5981
▁Räjähdys	-11.5981
▁Räystäspääsky	-11.5981
▁SMTP	-11.5981
▁Sepelkyyhky	-11.5981
▁Skotlanti	-11.5981
▁Sputnik	-11.5981
▁Tammihiiri	-11.5981
▁Toppelius	-11.5981
▁Tyynellemerelle	-11.5981
▁Wormsi	-11.5981
▁Yhdysvaltoihin	-11.5981
▁Yksityiselämä	-11.5981
▁aallonpituus	-11.5981
▁allekirjoitti	-11.5981
▁baltiansaksalai	-11.5981
▁cristatus	-11.5981
▁esperanto	-11.5981
▁etsaaja	-11.5981
▁globaali	-11.5981
▁heikkenee	-11.5981
▁hiirihauka	-11.5981
▁hispida	-11.5981
▁holhooja	-11.5981
▁julkaiss	-11.5981
▁kapasitanssi	-11.5981
▁kartografi	-11.5981
▁kastematoja	-11.5981
▁komeettoj	-11.5981
▁kongressi	-11.5981
▁lainsäädännö	-11.5981
▁lähettyvillä	-11.5981
▁maanjäristykse	-11.5981
▁maksuerä	-11.5981
▁merenlahdilla	-11.5981
▁meteoroidi	-11.5981
▁mieluummin	-11.5981
▁multimedia	-11.5981
▁ooppera	-11.5981
▁perimyssota	-11.5981
▁sekametsä	-11.5981
▁sähkövirra	-11.5981
▁tarpeisiin	-11.5981
▁tyypillisiä	-11.5981
▁työskennell	-11.5981
▁työskenteli	-11.5981
▁vesipääsky	-11.5981
▁välityksellä	-11.5981
▁walesilai	-11.5981
朝	-11.5981
avaruusteleskoop	-11.5981
profiili	-11.5981
propaganda	-11.5981
ī	-11.5981
г	-11.7231
λ	-11.7231
δ	-11.7231
η	-11.7231
у	-11.7231
^	-11.7231
ì	-11.7231
ē	-11.7231
ě	-11.7231
ń	-11.7231
ş	-11.7231
б	-11.7231
я	-11.7231
“	-11.7231
日	-11.7231
מ	-11.866
د	-11.866
м	-11.866
ب	-11.866
ن	-11.866
̃	-11.866
&	-11.9962
Р	-12.0327
南	-12.0327
Î	-12.0327
А	-12.0327
й	-12.0327
п	-12.0327
ь	-12.0327
北	-12.0327
\	-12.0327
ı	-12.0327
ב	-12.0327
ה	-12.0327
ف	-12.0327
ố	-12.0327
≥	-12.0327
后	-12.0327
星	-12.0327
γ	-12.0327
า	-12.0327
{	-12.1958
[	-12.196
κ	-12.2327
闽	-12.2327
τ	-12.2327
נ	-12.2327
ع	-12.2327
$	-12.2327
̆	-12.2327
̈	-12.2327
ά	-12.2327
ξ	-12.2327
М	-12.2327
Э	-12.2327
х	-12.2327
م	-12.2327
⇒	-12.2327
∞	-12.2327
â	-12.2327
ê	-12.2327
ч	-12.2327
ש	-12.4827
ח	-12.4827
و	-12.4827
汉	-12.4827
‐	-12.4827
Φ	-12.4827
ς	-12.4827
ט	-12.4827
ר	-12.4827
ت	-12.4827
ح	-12.4827
ي	-12.4827
ა	-12.4827
≤	-12.4827
宋	-12.4827
晉	-12.4827
魏	-12.4827
ę	-12.4827
У	-12.4827
פ	-12.4827
Е	-12.4827
ό	-12.816
ش	-12.816
和	-12.816
字	-12.816
ð	-12.816
õ	-12.816
כ	-12.816
ע	-12.816
东	-12.816
中	-12.816
ß	-12.816
û	-12.816
ý	-12.816
ǎ	-12.816
̊	-12.816
Ε	-12.816
Ψ	-12.816
ί	-12.816
ζ	-12.816
υ	-12.816
И	-12.816
П	-12.816
ц	-12.816
ы	-12.816
Ӧ	-12.816
ג	-12.816
ج	-12.816
ز	-12.816
ه	-12.816
ი	-12.816
ლ	-12.816
元	-12.816
晋	-12.816
的	-12.816
西	-12.816
金	-12.816
і	-12.816
Σ	-12.816
ذ	-12.816
Д	-12.816
რ	-12.816
ფ	-12.816
Ö	-13.2798
Ä	-13.28
民	-13.316
έ	-13.316
θ	-13.316
国	-13.316
پ	-13.316
ు	-13.316
体	-13.316
分	-13.316
方	-13.316
齊	-13.316
@	-13.316
ř	-13.316
家	-13.316
À	-13.316
Õ	-13.316
Č	-13.316
Ő	-13.316
̑	-13.316
̲	-13.316
Μ	-13.316
В	-13.316
ד	-13.316
ז	-13.316
ئ	-13.316
ث	-13.316
س	-13.316
ى	-13.316
ی	-13.316
ბ	-13.316
გ	-13.316
ე	-13.316
ვ	-13.316
მ	-13.316
ế	-13.316
劉	-13.316
吴	-13.316
周	-13.316
土	-13.316
恩	-13.316
月	-13.316
木	-13.316
東	-13.316
梁	-13.316
水	-13.316
漢	-13.316
火	-13.316
田	-13.316
語	-13.316
黑	-13.316
ḻ	-13.316
吳	-13.316
承	-13.316
ნ	-13.316
้	-13.316
ง	-13.316
ต	-13.316
耶	-14.308
繁	-14.3081
楊	-14.3082
律	-14.3083
年	-14.3084
安	-14.3085
天	-14.3086
堅	-14.3087
史	-14.3088
今	-14.3089
上	-14.309
ー	-14.3091
タ	-14.3092
ํ	-14.3093
ค	-14.3094
چ	-14.3095
Ԑ	-14.3096
Ӱ	-14.3097
Ө	-14.3098
Ү	-14.3099
Х	-14.31
Л	-14.3101
З	-14.3102
Є	-14.3103
Ё	-14.3104
Π	-14.3105
ț	-14.3106
ǜ	-14.3107
Ʊ	-14.3108
ż	-14.3109
Ş	-14.311
Œ	-14.3111
Ł	-14.3112
Ė	-14.3113
Ą	-14.3114
Ú	-14.3115
Ó	-14.3116
¡	-14.3117
ک	-14.3118
Ӭ	-14.3119
Ә	-14.312
Ӓ	-14.3121
Ы	-14.3122
К	-14.3123
ś	-14.3124
Í	-14.3125
Ç	-14.3126
ס	-14.3127
Я	-14.3128
Т	-14.3129
Г	-14.313
ș	-14.3131
Ž	-14.3132
Ю	-14.3133
О	-14.3134
Κ	-14.3135
İ	-14.3136
ğ	-14.3137
Ā	-14.3138
Þ	-14.3139
Α	-14.314
î	-14.3141
§	-14.3142
曜	-14.3143
Æ	-14.3144
ć	-14.3145
א	-14.3146
С	-14.3147
Ō	-14.3148
Ø	-14.3149
д	-14.315
~	-14.3151
Ə	-14.3152
Á	-14.3153
ñ	-14.3154
⁄	-14.3155
ô	-14.3156
Š	-14.3157
ã	-14.3158
Å	-14.3159
主	-14.316
共	-14.316
ή	-14.316
ж	-14.316
ф	-14.316
గ	-14.316
త	-14.316
ల	-14.316
ె	-14.316
さ	-14.316
制	-14.316
化	-14.316
客	-14.316
幕	-14.316
志	-14.316
昧	-14.316
普	-14.316
曖	-14.316
案	-14.316
略	-14.316
直	-14.316
简	-14.316
線	-14.316
莆	-14.316
藩	-14.316
賈	-14.316
趙	-14.316
ù	-14.316
ħ	-14.316
ǐ	-14.316
‘	-14.316
仙	-14.316
匡	-14.316
司	-14.316
思	-14.316
曾	-14.316
筑	-14.316
紫	-14.316
联	-14.316
通	-14.316
隋	-14.316
鮮	-14.316
黎	-14.316
`	-14.316
®	-14.316
Â	-14.316
Ã	-14.316
È	-14.316
Ê	-14.316
Ë	-14.316
Ì	-14.316
Ï	-14.316
Ð	-14.316
Ñ	-14.316
Ò	-14.316
Ô	-14.316
Ù	-14.316
Û	-14.316
Ü	-14.316
Ý	-14.316
ï	-14.316
þ	-14.316
Ă	-14.316
ă	-14.316
Ć	-14.316
Ċ	-14.316
Ď	-14.316
Đ	-14.316
Ē	-14.316
Ę	-14.316
Ě	-14.316
Ĝ	-14.316
Ğ	-14.316
Ġ	-14.316
Ģ	-14.316
Ħ	-14.316
Ĩ	-14.316
Ī	-14.316
Į	-14.316
Ķ	-14.316
Ĺ	-14.316
Ļ	-14.316
Ľ	-14.316
Ń	-14.316
Ņ	-14.316
ņ	-14.316
Ň	-14.316
Ŋ	-14.316
Ŕ	-14.316
Ŗ	-14.316
Ř	-14.316
Ś	-14.316
Ţ	-14.316
Ť	-14.316
Ŧ	-14.316
Ũ	-14.316
Ū	-14.316
ŭ	-14.316
Ů	-14.316
Ű	-14.316
Ų	-14.316
ų	-14.316
Ŵ	-14.316
Ÿ	-14.316
Ź	-14.316
Ż	-14.316
Ɓ	-14.316
Ɔ	-14.316
Ƈ	-14.316
Ɖ	-14.316
Ɗ	-14.316
Ɛ	-14.316
Ƒ	-14.316
Ɠ	-14.316
Ɣ	-14.316
Ɩ	-14.316
Ƙ	-14.316
Ɲ	-14.316
Ɵ	-14.316
Ơ	-14.316
Ƭ	-14.316
Ư	-14.316
ư	-14.316
Ʋ	-14.316
Ƴ	-14.316
Ʒ	-14.316
Ǎ	-14.316
ǔ	-14.316
Ǟ	-14.316
Ǥ	-14.316
Ǧ	-14.316
Ǩ	-14.316
Ǫ	-14.316
Ǯ	-14.316
Ƿ	-14.316
Ș	-14.316
Ț	-14.316
Ȭ	-14.316
Ȯ	-14.316
Ȱ	-14.316
Ⱥ	-14.316
Ȼ	-14.316
Ƚ	-14.316
Ⱦ	-14.316
Ʌ	-14.316
Ɍ	-14.316
ɑ	-14.316
ɒ	-14.316
ɷ	-14.316
ʊ	-14.316
ʔ	-14.316
ʻ	-14.316
̂	-14.316
̇	-14.316
̌	-14.316
̧	-14.316
̨	-14.316
Ͱ	-14.316
Β	-14.316
Γ	-14.316
Ζ	-14.316
Η	-14.316
Θ	-14.316
Ι	-14.316
Λ	-14.316
Ν	-14.316
Ξ	-14.316
Ο	-14.316
Ρ	-14.316
Τ	-14.316
Υ	-14.316
Χ	-14.316
ύ	-14.316
ώ	-14.316
Ϙ	-14.316
Ϛ	-14.316
Ϝ	-14.316
Ϡ	-14.316
Ϣ	-14.316
Ϥ	-14.316
Ϧ	-14.316
Ϩ	-14.316
Ϫ	-14.316
Ϭ	-14.316
Ϯ	-14.316
Ϸ	-14.316
Ϻ	-14.316
Ђ	-14.316
Ѓ	-14.316
Ѕ	-14.316
І	-14.316
Ї	-14.316
Ј	-14.316
Љ	-14.316
Њ	-14.316
Ћ	-14.316
Ќ	-14.316
Ў	-14.316
Џ	-14.316
Б	-14.316
Ж	-14.316
Й	-14.316
Н	-14.316
Ф	-14.316
Ц	-14.316
Ч	-14.316
Ш	-14.316
Щ	-14.316
Ъ	-14.316
Ь	-14.316
з	-14.316
ш	-14.316
э	-14.316
ю	-14.316
Ѡ	-14.316
Ѣ	-14.316
Ѥ	-14.316
Ѧ	-14.316
Ѩ	-14.316
Ѫ	-14.316
Ѭ	-14.316
Ѯ	-14.316
Ѱ	-14.316
Ѳ	-14.316
Ѵ	-14.316
Ѷ	-14.316
Ѻ	-14.316
Ѽ	-14.316
Ѿ	-14.316
Ҁ	-14.316
Ҋ	-14.316
Ҍ	-14.316
Ҏ	-14.316
Ґ	-14.316
Ғ	-14.316
Ҕ	-14.316
Җ	-14.316
Ҙ	-14.316
Қ	-14.316
Ҝ	-14.316
Ҟ	-14.316
Ҡ	-14.316
Ң	-14.316
Ҥ	-14.316
Ҧ	-14.316
Ҩ	-14.316
Ҫ	-14.316
Ҭ	-14.316
Ұ	-14.316
Ҳ	-14.316
Ҵ	-14.316
Ҷ	-14.316
Ҹ	-14.316
Һ	-14.316
Ҽ	-14.316
Ҿ	-14.316
Ӏ	-14.316
Ӂ	-14.316
Ӄ	-14.316
Ӆ	-14.316
Ӈ	-14.316
Ӊ	-14.316
Ӌ	-14.316
Ӎ	-14.316
Ӑ	-14.316
ӓ	-14.316
Ӕ	-14.316
Ӗ	-14.316
Ӛ	-14.316
Ӝ	-14.316
Ӟ	-14.316
Ӡ	-14.316
Ӣ	-14.316
Ӥ	-14.316
ӧ	-14.316
Ӫ	-14.316
Ӯ	-14.316
Ӳ	-14.316
Ӵ	-14.316
Ӷ	-14.316
Ӹ	-14.316
Ӻ	-14.316
Ӽ	-14.316
Ӿ	-14.316
Ԁ	-14.316
Ԃ	-14.316
Ԅ	-14.316
Ԇ	-14.316
Ԉ	-14.316
Ԋ	-14.316
Ԍ	-14.316
Ԏ	-14.316
Ԓ	-14.316
Ԕ	-14.316
Ԗ	-14.316
Ԙ	-14.316
Ԛ	-14.316
Ԝ	-14.316
Ԟ	-14.316
Ԡ	-14.316
Ԣ	-14.316
Ԥ	-14.316
Ԧ	-14.316
Ԩ	-14.316
Ԫ	-14.316
Ԭ	-14.316
Ԯ	-14.316
ם	-14.316
צ	-14.316
ק	-14.316
آ	-14.316
أ	-14.316
إ	-14.316
ة	-14.316
خ	-14.316
ص	-14.316
ض	-14.316
ط	-14.316
ظ	-14.316
غ	-14.316
ك	-14.316
ٹ	-14.316
ٺ	-14.316
ټ	-14.316
ٽ	-14.316
ٿ	-14.316
ڀ	-14.316
ځ	-14.316
ڃ	-14.316
ڄ	-14.316
څ	-14.316
ڇ	-14.316
ڈ	-14.316
ډ	-14.316
ڊ	-14.316
ڌ	-14.316
ڍ	-14.316
ڏ	-14.316
ڑ	-14.316
ړ	-14.316
ږ	-14.316
ژ	-14.316
ڙ	-14.316
ښ	-14.316
ڦ	-14.316
ڪ	-14.316
ګ	-14.316
گ	-14.316
ڱ	-14.316
ڳ	-14.316
ڻ	-14.316
ڼ	-14.316
ہ	-14.316
ۍ	-14.316
ې	-14.316
ณ	-14.316
น	-14.316
ภ	-14.316
ม	-14.316
ว	-14.316
ศ	-14.316
ษ	-14.316
დ	-14.316
ზ	-14.316
თ	-14.316
კ	-14.316
ო	-14.316
პ	-14.316
ჟ	-14.316
ს	-14.316
ტ	-14.316
უ	-14.316
ქ	-14.316
ღ	-14.316
ყ	-14.316
შ	-14.316
ჩ	-14.316
ც	-14.316
ძ	-14.316
წ	-14.316
ჭ	-14.316
ხ	-14.316
ჯ	-14.316
ჰ	-14.316
ჱ	-14.316
ჲ	-14.316
ჳ	-14.316
ჴ	-14.316
ჵ	-14.316
ჶ	-14.316
ჷ	-14.316
ჸ	-14.316
ჹ	-14.316
ჺ	-14.316
Ḍ	-14.316
Ḑ	-14.316
Ḓ	-14.316
Ḥ	-14.316
Ḱ	-14.316
Ḷ	-14.316
Ḻ	-14.316
Ḽ	-14.316
Ṅ	-14.316
Ṉ	-14.316
Ṋ	-14.316
Ṟ	-14.316
Ṣ	-14.316
Ṯ	-14.316
Ṱ	-14.316
Ẅ	-14.316
ắ	-14.316
Ẹ	-14.316
Ẽ	-14.316
Ị	-14.316
Ọ	-14.316
ộ	-14.316
ợ	-14.316
Ụ	-14.316
Ứ	-14.316
Ỳ	-14.316
Ỵ	-14.316
Ỹ	-14.316
←	-14.316
≠	-14.316
⎓	-14.316
Ɑ	-14.316
Ⱳ	-14.316
Ⲁ	-14.316
Ⲃ	-14.316
Ⲅ	-14.316
Ⲇ	-14.316
Ⲉ	-14.316
Ⲋ	-14.316
Ⲍ	-14.316
Ⲏ	-14.316
Ⲑ	-14.316
Ⲓ	-14.316
Ⲕ	-14.316
Ⲗ	-14.316
Ⲙ	-14.316
Ⲛ	-14.316
Ⲝ	-14.316
Ⲟ	-14.316
Ⲡ	-14.316
Ⲣ	-14.316
Ⲥ	-14.316
Ⲧ	-14.316
Ⲩ	-14.316
Ⲫ	-14.316
Ⲭ	-14.316
Ⲯ	-14.316
Ⲱ	-14.316
Ⳁ	-14.316
Ⳉ	-14.316
《	-14.316
》	-14.316
は	-14.316
へ	-14.316
を	-14.316
゙	-14.316
゚	-14.316
デ	-14.316
ワ	-14.316
世	-14.316
九	-14.316
五	-14.316
人	-14.316
兵	-14.316
処	-14.316
力	-14.316
動	-14.316
勰	-14.316
华	-14.316
卑	-14.316
历	-14.316
号	-14.316
員	-14.316
唐	-14.316
回	-14.316
园	-14.316
圆	-14.316
園	-14.316
圓	-14.316
圻	-14.316
均	-14.316
块	-14.316
士	-14.316
大	-14.316
学	-14.316
宗	-14.316
島	-14.316
崔	-14.316
崱	-14.316
席	-14.316
座	-14.316
式	-14.316
後	-14.316
徽	-14.316
戶	-14.316
拓	-14.316
收	-14.316
散	-14.316
旗	-14.316
書	-14.316
松	-14.316
標	-14.316
歷	-14.316
毛	-14.316
汗	-14.316
汴	-14.316
浩	-14.316
湘	-14.316
理	-14.316
界	-14.316
石	-14.316
科	-14.316
空	-14.316
粤	-14.316
红	-14.316
耳	-14.316
聂	-14.316
胤	-14.316
航	-14.316
苏	-14.316
號	-14.316
術	-14.316
裕	-14.316
要	-14.316
角	-14.316
话	-14.316
赣	-14.316
跋	-14.316
遼	-14.316
避	-14.316
鎮	-14.316
陈	-14.316
陳	-14.316
馬	-14.316
體	-14.316
魚	-14.316
鰭	-14.316
齐	-14.316
Ꙁ	-14.316
Ꙃ	-14.316
Ꙅ	-14.316
Ꙇ	-14.316
Ꙉ	-14.316
Ꙋ	-14.316
Ꙍ	-14.316
Ꙏ	-14.316
Ꙑ	-14.316
Ꙓ	-14.316
Ꙕ	-14.316
Ꙗ	-14.316
Ꙙ	-14.316
Ꙛ	-14.316
Ꙝ	-14.316
Ꙟ	-14.316
Ꙡ	-14.316
Ꙣ	-14.316
Ꙥ	-14.316
Ꙧ	-14.316
Ꙩ	-14.316
Ꙫ	-14.316
Ꙭ	-14.316
ꙮ	-14.316
Ꚁ	-14.316
Ꚃ	-14.316
Ꚅ	-14.316
Ꚇ	-14.316
Ꚉ	-14.316
Ꚋ	-14.316
Ꚍ	-14.316
Ꚏ	-14.316
Ꚑ	-14.316
Ꚓ	-14.316
Ꚕ	-14.316
Ꚗ	-14.316
Ꚙ	-14.316
Ꚛ	-14.316
간	-14.316
공	-14.316
데	-14.316
리	-14.316
사	-14.316
수	-14.316
역	-14.316
의	-14.316
이	-14.316
일	-14.316
쟁	-14.316
전	-14.316
처	-14.316
터	-14.316
학	-14.316
ė	-14.316
ő	-14.316
ʾ	-14.316
ː	-14.316
√	-14.316
國	-14.316
太	-14.316
宇	-14.316
真	-14.316
頤	-14.316
颐	-14.316
𡨸	-14.316
ḥ	-14.316
ъ	-14.316
ห	-14.316
อ	-14.316
ュ	-14.316
言	-14.316
ç	-14.316
ช	-14.316
ร	-14.316
ส	-14.316
ิ	-14.316
เ	-14.316
์	-14.316
コ	-14.316
ピ	-14.316
ン	-14.316
