<unk>	0
<s>	0
</s>	0
in	-0
en	-1
ta	-2
is	-3
an	-4
▁k	-5
al	-6
on	-7
▁j	-8
si	-9
ti	-10
el	-11
et	-12
sa	-13
▁m	-14
it	-15
▁v	-16
uu	-17
▁p	-18
la	-19
er	-20
es	-21
uo	-22
▁s	-23
as	-24
ik	-25
▁ja	-26
ar	-27
at	-28
▁1	-29
tu	-30
il	-31
tä	-32
to	-33
un	-34
us	-35
▁S	-36
inen	-37
ka	-38
ol	-39
▁(	-40
▁h	-41
te	-42
▁K	-43
▁on	-44
än	-45
▁l	-46
ko	-47
im	-48
ja	-49
le	-50
os	-51
ty	-52
ia	-53
▁ta	-54
uk	-55
▁n	-56
ir	-57
▁r	-58
aa	-59
▁T	-60
▁L	-61
▁P	-62
ala	-63
ut	-64
ul	-65
▁A	-66
▁M	-67
or	-68
em	-69
ur	-70
iv	-71
▁jo	-72
ää	-73
uuta	-74
ksi	-75
▁o	-76
▁–	-77
▁V	-78
▁y	-79
sä	-80
▁E	-81
id	-82
00	-83
▁a	-84
ita	-85
▁I	-86
ks	-87
▁2	-88
ke	-89
▁H	-90
ma	-91
▁ol	-92
lä	-93
ista	-94
ki	-95
▁e	-96
▁R	-97
vat	-98
ih	-99
all	-100
yö	-101
ys	-102
yt	-103
pa	-104
uom	-105
ri	-106
▁J	-107
op	-108
äh	-109
kuuta	-110
alainen	-111
ään	-112
yn	-113
▁sa	-114
va	-115
▁si	-116
assa	-117
issa	-118
uol	-119
tel	-120
jo	-121
isen	-122
mm	-123
een	-124
äl	-125
▁al	-126
▁tu	-127
▁ka	-128
▁N	-129
iin	-130
▁se	-131
ne	-132
oh	-133
ist	-134
jä	-135
essa	-136
aan	-137
▁kä	-138
▁B	-139
na	-140
▁la	-141
ot	-142
ans	-143
iset	-144
▁to	-145
ra	-146
taa	-147
tiin	-148
ing	-149
▁va	-150
uh	-151
▁19	-152
taan	-153
vi	-154
den	-155
alla	-156
kin	-157
li	-158
▁kun	-159
▁myö	-160
▁val	-161
itä	-162
vä	-163
▁el	-164
kä	-165
om	-166
uon	-167
esta	-168
▁C	-169
uv	-170
▁muu	-171
pp	-172
ien	-173
lan	-174
▁vuo	-175
hd	-176
ina	-177
▁16	-178
ok	-179
▁myös	-180
▁kes	-181
re	-182
ak	-183
▁F	-184
▁Suom	-185
ana	-186
▁mu	-187
uku	-188
mä	-189
▁G	-190
uus	-191
▁en	-192
illa	-193
iden	-194
man	-195
oit	-196
utta	-197
oin	-198
asta	-199
eh	-200
ev	-201
ili	-202
▁oli	-203
nan	-204
▁ar	-205
kk	-206
ro	-207
▁ma	-208
uot	-209
▁ovat	-210
▁Ta	-211
▁käyt	-212
▁per	-213
▁17	-214
istä	-215
teet	-216
▁kir	-217
▁d	-218
erk	-219
ella	-220
up	-221
ky	-222
▁ko	-223
▁vo	-224
mp	-225
usta	-226
uks	-227
▁tai	-228
ises	-229
tö	-230
▁O	-231
ari	-232
kun	-233
ell	-234
▁te	-235
uonna	-236
tum	-237
▁15	-238
▁et	-239
isto	-240
▁er	-241
är	-242
yh	-243
esi	-244
ed	-245
▁D	-246
uun	-247
isi	-248
ynty	-249
▁ku	-250
jen	-251
pah	-252
tin	-253
um	-254
tti	-255
asti	-256
▁3	-257
▁vi	-258
▁pää	-259
uur	-260
▁ti	-261
jan	-262
ettiin	-263
ten	-264
iksi	-265
ika	-266
▁Se	-267
▁joka	-268
19	-269
sin	-270
▁kuning	-271
▁kuu	-272
ein	-273
▁Y	-274
ue	-275
inn	-276
▁ra	-277
ha	-278
▁t	-279
od	-280
eis	-281
▁Läh	-282
ihe	-283
ud	-284
lainen	-285
iel	-286
▁esi	-287
pi	-288
tta	-289
isesti	-290
ann	-291
ch	-292
ian	-293
kaan	-294
lo	-295
iit	-296
yys	-297
issä	-298
luku	-299
▁W	-300
▁kuningas	-301
▁läh	-302
elm	-303
uro	-304
▁Lähteet	-305
▁Tapah	-306
ön	-307
kan	-308
am	-309
rit	-310
▁pa	-311
aal	-312
min	-313
kko	-314
yntyne	-315
▁tä	-316
ettu	-317
oll	-318
ip	-319
vät	-320
nn	-321
▁U	-322
▁-	-323
io	-324
▁f	-325
uolle	-326
ter	-327
vin	-328
og	-329
isti	-330
teen	-331
vel	-332
▁vuonna	-333
its	-334
istu	-335
ille	-336
ikk	-337
ap	-338
▁suom	-339
enn	-340
äk	-341
tan	-342
▁ei	-343
000	-344
tumia	-345
▁sen	-346
▁us	-347
00-	-348
ivat	-349
tää	-350
eksi	-351
ssä	-352
elle	-353
▁muualla	-354
▁yh	-355
▁as	-356
▁Tapahtumia	-357
▁suur	-358
maan	-359
so	-360
▁tar	-361
utu	-362
▁nim	-363
uolleita	-364
▁Aihe	-365
uroop	-366
▁Kuolleita	-367
▁Aiheesta	-368
yy	-369
yntyneitä	-370
isia	-371
▁Syntyneitä	-372
ll	-373
▁20	-374
ohjo	-375
ossa	-376
▁mutta	-377
kon	-378
ilija	-379
▁maa	-380
he	-381
–1	-382
ellä	-383
▁18	-384
▁so	-385
ran	-386
aar	-387
uko	-388
essä	-389
stä	-390
isin	-391
isten	-392
▁yksi	-393
ad	-394
mi	-395
mat	-396
anh	-397
glan	-398
▁ha	-399
▁sekä	-400
merk	-401
vo	-402
▁keis	-403
▁Suomessa	-404
▁5	-405
sk	-406
ek	-407
▁II	-408
▁4	-409
tyy	-410
▁po	-411
illä	-412
ikuuta	-413
▁perus	-414
rik	-415
val	-416
kaa	-417
▁eli	-418
),	-419
▁noin	-420
intu	-421
llä	-422
iik	-423
mmä	-424
▁Suomen	-425
ill	-426
▁mar	-427
enä	-428
äiv	-429
isuu	-430
simmä	-431
▁b	-432
▁var	-433
ee	-434
▁sä	-435
▁14	-436
ic	-437
0-	-438
ät	-439
mis	-440
▁aik	-441
luv	-442
ksen	-443
▁kiel	-444
rin	-445
van	-446
▁puol	-447
▁toim	-448
▁pesi	-449
usi	-450
ohjois	-451
).	-452
▁pit	-453
uksen	-454
▁An	-455
jes	-456
etta	-457
▁par	-458
▁kans	-459
▁että	-460
▁yle	-461
äkuuta	-462
▁12	-463
eri	-464
▁000	-465
pan	-466
tuu	-467
elä	-468
▁La	-469
▁kor	-470
upun	-471
puol	-472
▁suomalainen	-473
nin	-474
tion	-475
ard	-476
ulla	-477
män	-478
ua	-479
▁il	-480
▁hän	-481
joit	-482
yr	-483
▁kut	-484
uussa	-485
etty	-486
▁valta	-487
▁Euroop	-488
▁200	-489
etään	-490
isä	-491
alais	-492
▁voi	-493
▁En	-494
ihin	-495
asi	-496
osta	-497
▁c	-498
ttu	-499
ton	-500
▁väl	-501
jär	-502
ete	-503
▁Ruot	-504
ansk	-505
▁hall	-506
0)	-507
sta	-508
iä	-509
minen	-510
ynasti	-511
ino	-512
▁8	-513
ea	-514
itsi	-515
▁lo	-516
▁ul	-517
▁hy	-518
▁pien	-519
▁kuul	-520
▁6	-521
koit	-522
▁ensimmä	-523
▁Kiin	-524
1.	-525
▁jäl	-526
▁9	-527
▁suo	-528
▁13	-529
▁nä	-530
▁g	-531
elit	-532
and	-533
olog	-534
▁vas	-535
ho	-536
ii	-537
uod	-538
ras	-539
▁10	-540
täjä	-541
▁kesk	-542
merkiksi	-543
keen	-544
▁Joh	-545
▁Al	-546
jat	-547
alis	-548
tio	-549
ula	-550
ali	-551
yky	-552
kka	-553
olla	-554
äär	-555
inta	-556
▁kuin	-557
mer	-558
tikk	-559
iten	-560
▁joh	-561
ata	-562
ssa	-563
istö	-564
▁kirja	-565
▁In	-566
eli	-567
▁keske	-568
▁seur	-569
anta	-570
▁jon	-571
iko	-572
▁saks	-573
idaan	-574
▁touko	-575
isiä	-576
sia	-577
▁ole	-578
▁osa	-579
▁pal	-580
5)	-581
tr	-582
▁7	-583
▁os	-584
▁oll	-585
▁syys	-586
▁kul	-587
2)	-588
uluk	-589
▁Mar	-590
me	-591
kir	-592
itali	-593
▁vir	-594
▁yhd	-595
ikko	-596
onnan	-597
▁ruot	-598
▁artikk	-599
men	-600
var	-601
▁har	-602
atso	-603
▁ker	-604
ila	-605
▁mukaan	-606
▁tarkoit	-607
yl	-608
▁de	-609
po	-610
tila	-611
3)	-612
▁ni	-613
uhti	-614
ikä	-615
uden	-616
▁ty	-617
▁itali	-618
ussa	-619
▁Ma	-620
▁keskeiset	-621
▁artikkelit	-622
8)	-623
mmen	-624
▁Seul	-625
kki	-626
▁Ko	-627
▁Seulonnan	-628
vall	-629
ittä	-630
▁Vuonna	-631
▁san	-632
ine	-633
4)	-634
▁hein	-635
▁ransk	-636
▁oh	-637
alle	-638
▁alue	-639
1)	-640
ike	-641
▁jul	-642
▁ruots	-643
kea	-644
▁pi	-645
7)	-646
uto	-647
ang	-648
tus	-649
▁huhti	-650
▁tamm	-651
▁X	-652
ehti	-653
tilainen	-654
▁italialainen	-655
▁”	-656
▁koko	-657
ji	-658
▁ed	-659
▁mon	-660
▁201	-661
▁ne	-662
▁ollut	-663
▁Ra	-664
maa	-665
▁Ruotsin	-666
▁jälkeen	-667
ity	-668
▁kol	-669
▁jouluk	-670
▁198	-671
ber	-672
tettiin	-673
una	-674
▁kas	-675
▁mat	-676
▁päiv	-677
6)	-678
▁tiet	-679
anskan	-680
▁tal	-681
▁keisari	-682
ies	-683
ensä	-684
▁rak	-685
▁Pohjois	-686
▁jonka	-687
▁sävel	-688
▁marras	-689
▁loka	-690
mpär	-691
lin	-692
▁Ro	-693
▁ranskalainen	-694
9)	-695
of	-696
▁(19	-697
▁merk	-698
kunnan	-699
ikka	-700
emmin	-701
▁Ka	-702
empi	-703
uor	-704
▁kaupun	-705
se	-706
▁Katso	-707
kö	-708
taja	-709
▁Itä	-710
yd	-711
dynasti	-712
▁uu	-713
▁englan	-714
▁tammikuuta	-715
▁199	-716
pää	-717
uva	-718
ällä	-719
▁aikana	-720
▁vanh	-721
▁jär	-722
▁Sa	-723
ansa	-724
▁keh	-725
▁11	-726
▁voidaan	-727
estä	-728
▁luo	-729
iseen	-730
ui	-731
▁ruotsalainen	-732
kim	-733
jän	-734
ikki	-735
per	-736
▁maalis	-737
ros	-738
ons	-739
▁lop	-740
▁vain	-741
ale	-742
▁alk	-743
▁pes	-744
▁run	-745
isyys	-746
▁liit	-747
▁he	-748
▁joulukuuta	-749
▁pol	-750
▁esimerkiksi	-751
alaiset	-752
▁tunn	-753
one	-754
tto	-755
tyi	-756
▁marraskuuta	-757
ker	-758
ven	-759
teis	-760
hti	-761
▁usein	-762
▁hi	-763
her	-764
▁met	-765
▁helm	-766
▁huhtikuuta	-767
▁muod	-768
▁ään	-769
▁nyky	-770
alue	-771
▁elo	-772
▁sel	-773
▁vuosi	-774
▁toukokuuta	-775
atti	-776
▁syyskuuta	-777
▁tut	-778
ig	-779
oja	-780
▁Ar	-781
▁lokakuuta	-782
lö	-783
kil	-784
nyt	-785
itta	-786
▁Kiinan	-787
elta	-788
että	-789
▁yli	-790
istel	-791
isuus	-792
tiete	-793
▁Etel	-794
alta	-795
jestel	-796
ong	-797
itys	-798
▁saksalainen	-799
▁(1	-800
▁säveltäjä	-801
ivät	-802
valta	-803
▁kuiten	-804
oitti	-805
ssi	-806
▁mun	-807
inne	-808
▁Etelä	-809
▁in	-810
▁sis	-811
▁kuten	-812
▁vuoden	-813
▁Ch	-814
▁tuli	-815
▁kanssa	-816
–2	-817
ve	-818
ess	-819
▁is	-820
ope	-821
de	-822
▁tun	-823
▁jot	-824
tikko	-825
▁keisar	-826
son	-827
tia	-828
kiel	-829
▁pesii	-830
▁vaih	-831
▁jossa	-832
▁elokuuta	-833
▁kos	-834
2.	-835
▁Hän	-836
▁sija	-837
▁"	-838
▁muun	-839
▁Englan	-840
tään	-841
▁puh	-842
▁maaliskuuta	-843
▁no	-844
▁kesäkuuta	-845
vinto	-846
▁helmikuuta	-847
–19	-848
idem	-849
5.	-850
▁Venä	-851
sen	-852
▁Euroopan	-853
nen	-854
▁lev	-855
▁väh	-856
mista	-857
▁seuraa	-858
vuo	-859
äkö	-860
▁1.	-861
mpäristö	-862
▁hyö	-863
aj	-864
ie	-865
met	-866
▁Kir	-867
kunta	-868
iste	-869
▁ruo	-870
▁talv	-871
▁maail	-872
atta	-873
▁its	-874
▁Kes	-875
▁esiin	-876
ius	-877
▁kr	-878
▁koh	-879
▁ver	-880
ria	-881
via	-882
▁mil	-883
▁siir	-884
▁englantilainen	-885
nit	-886
▁Tä	-887
▁197	-888
kseen	-889
▁heinäkuuta	-890
lle	-891
ona	-892
▁ki	-893
▁jotka	-894
ck	-895
kuussa	-896
▁käytetään	-897
▁Hen	-898
▁eri	-899
ab	-900
lla	-901
iseksi	-902
pä	-903
eng	-904
sina	-905
▁vall	-906
▁Jo	-907
▁Ne	-908
▁an	-909
▁ih	-910
7.	-911
▁Nor	-912
▁Tur	-913
▁use	-914
▁van	-915
▁kuuka	-916
▁kat	-917
ttä	-918
8.	-919
ppi	-920
uoto	-921
▁To	-922
kus	-923
▁sota	-924
▁muassa	-925
▁vä	-926
▁her	-927
9.	-928
oilija	-929
▁kuitenkin	-930
nut	-931
tui	-932
▁Le	-933
▁mer	-934
▁cm	-935
jelm	-936
▁teh	-937
erin	-938
kais	-939
▁mää	-940
istori	-941
▁kunin	-942
aavi	-943
yksi	-944
▁li	-945
▁jos	-946
ilijä	-947
gin	-948
▁maan	-949
isäksi	-950
kymmen	-951
▁lintu	-952
▁lä	-953
▁Sen	-954
eet	-955
tien	-956
vaa	-957
isty	-958
din	-959
inneisyys	-960
ilos	-961
II	-962
▁kirjoit	-963
jel	-964
▁Yhd	-965
äänty	-966
▁Ranskan	-967
▁kirjailija	-968
riä	-969
vän	-970
uvos	-971
▁lyh	-972
▁Z	-973
ikan	-974
tom	-975
4.	-976
yks	-977
▁taidem	-978
tettu	-979
isiin	-980
uuri	-981
▁elä	-982
▁olla	-983
ilosof	-984
alaisen	-985
asto	-986
mään	-987
▁III	-988
ukka	-989
neet	-990
▁kil	-991
▁sitä	-992
0.	-993
3.	-994
su	-995
tiiv	-996
▁käsi	-997
järjestel	-998
vir	-999
▁lö	-1000
▁na	-1001
ukko	-1002
▁poik	-1003
▁synty	-1004
▁hallitsi	-1005
vio	-1006
▁hyvin	-1007
▁Kun	-1008
▁sam	-1009
sti	-1010
ikun	-1011
jall	-1012
vien	-1013
ei	-1014
▁Po	-1015
▁kiin	-1016
▁vuotta	-1017
aalari	-1018
kit	-1019
viä	-1020
▁alko	-1021
osa	-1022
han	-1023
ori	-1024
ento	-1025
▁pro	-1026
tinen	-1027
▁määrit	-1028
▁taistel	-1029
▁Lin	-1030
▁taidemaalari	-1031
poika	-1032
▁yleensä	-1033
▁tarkoittaa	-1034
6.	-1035
voim	-1036
▁tule	-1037
▁Englannin	-1038
ken	-1039
kot	-1040
▁kar	-1041
▁pel	-1042
▁luon	-1043
oa	-1044
ug	-1045
for	-1046
▁es	-1047
▁miljo	-1048
▁sisäl	-1049
luvulla	-1050
co	-1051
org	-1052
kat	-1053
uta	-1054
omet	-1055
net	-1056
▁vaik	-1057
itti	-1058
ime	-1059
akka	-1060
ysan	-1061
änsi	-1062
▁Lev	-1063
▁syö	-1064
▁kaksi	-1065
di	-1066
väl	-1067
äärä	-1068
▁Per	-1069
▁käyttö	-1070
ite	-1071
misen	-1072
▁suun	-1073
▁Kaar	-1074
isäänty	-1075
▁käyttä	-1076
ub	-1077
▁filosof	-1078
▁pohjois	-1079
öll	-1080
ympäristö	-1081
kia	-1082
uet	-1083
tieteilijä	-1084
yty	-1085
▁saa	-1086
▁tapah	-1087
imm	-1088
aaras	-1089
inä	-1090
las	-1091
▁196	-1092
▁hen	-1093
isessa	-1094
▁miljoon	-1095
▁Kar	-1096
▁sil	-1097
▁ensimmäinen	-1098
ulu	-1099
anin	-1100
▁voim	-1101
▁olivat	-1102
▁perustettiin	-1103
ema	-1104
▁ky	-1105
luvun	-1106
▁paria	-1107
ep	-1108
▁etelä	-1109
paa	-1110
je	-1111
ispa	-1112
ojen	-1113
▁Hel	-1114
▁Johann	-1115
▁Vi	-1116
koma	-1117
▁jä	-1118
ikin	-1119
oilla	-1120
▁Val	-1121
▁kuv	-1122
läinen	-1123
ion	-1124
mät	-1125
uis	-1126
yttä	-1127
▁Kor	-1128
▁Bysan	-1129
▁ro	-1130
eman	-1131
▁sillä	-1132
▁runoilija	-1133
▁Va	-1134
▁min	-1135
▁yksilö	-1136
dynastia	-1137
th	-1138
into	-1139
ac	-1140
▁om	-1141
▁kal	-1142
▁sai	-1143
ku	-1144
ide	-1145
tal	-1146
▁sul	-1147
entti	-1148
▁Es	-1149
teli	-1150
erä	-1151
▁elok	-1152
▁hä	-1153
Suom	-1154
kilö	-1155
kunn	-1156
▁joll	-1157
▁jolloin	-1158
kas	-1159
pal	-1160
ver	-1161
össä	-1162
20	-1163
kkö	-1164
sio	-1165
elin	-1166
▁vasta	-1167
ira	-1168
▁Jap	-1169
▁kre	-1170
mar	-1171
▁vuod	-1172
▁Yhdys	-1173
▁tutkim	-1174
ueen	-1175
▁men	-1176
etaan	-1177
ksan	-1178
▁ilm	-1179
▁musta	-1180
▁Levinneisyys	-1181
▁Maa	-1182
▁aika	-1183
▁tied	-1184
▁histori	-1185
istoria	-1186
uksi	-1187
allis	-1188
▁valti	-1189
▁maailman	-1190
iva	-1191
tit	-1192
▁alkoi	-1193
hi	-1194
▁Q	-1195
▁Ha	-1196
▁Fran	-1197
▁liik	-1198
jaa	-1199
uut	-1200
▁of	-1201
imen	-1202
ähkö	-1203
▁hänen	-1204
uri	-1205
oman	-1206
▁mahd	-1207
▁korke	-1208
oon	-1209
▁El	-1210
▁ho	-1211
▁miljoonaa	-1212
uud	-1213
emen	-1214
ksin	-1215
▁pys	-1216
asiassa	-1217
▁Kaarle	-1218
iaan	-1219
▁Vanh	-1220
▁jota	-1221
▁vuosikymmen	-1222
▁Kr	-1223
▁Myö	-1224
ern	-1225
▁IV	-1226
▁Henrik	-1227
▁rakenn	-1228
▁Venäjän	-1229
hta	-1230
etti	-1231
konäkö	-1232
▁vanha	-1233
isuutta	-1234
▁filosofi	-1235
▁re	-1236
oitta	-1237
ellinen	-1238
kar	-1239
frik	-1240
itse	-1241
ksia	-1242
do	-1243
mo	-1244
pe	-1245
jon	-1246
▁tava	-1247
▁perusta	-1248
iso	-1249
ritti	-1250
▁näyt	-1251
kn	-1252
sal	-1253
▁Pyh	-1254
▁Var	-1255
panj	-1256
▁Koko	-1257
isista	-1258
kes	-1259
▁Ravinto	-1260
▁le	-1261
▁ulko	-1262
▁talvehti	-1263
▁Ä	-1264
non	-1265
ysi	-1266
▁op	-1267
alin	-1268
▁lähes	-1269
▁3.	-1270
ttaa	-1271
▁ken	-1272
herra	-1273
▁vastaa	-1274
▁.	-1275
emp	-1276
▁yhte	-1277
▁av	-1278
▁ur	-1279
▁Por	-1280
ilainen	-1281
ym	-1282
stö	-1283
▁Luon	-1284
▁niin	-1285
▁paavi	-1286
▁Euroopassa	-1287
kee	-1288
kul	-1289
▁Ed	-1290
uvat	-1291
▁Esi	-1292
▁Vuo	-1293
ologi	-1294
▁järjes	-1295
emm	-1296
▁musi	-1297
▁paik	-1298
▁Bysantin	-1299
ge	-1300
ste	-1301
▁luku	-1302
▁muodos	-1303
isääntyminen	-1304
ikon	-1305
imet	-1306
tied	-1307
▁työ	-1308
▁aina	-1309
▁ensimmäisen	-1310
uja	-1311
▁Rad	-1312
▁olev	-1313
▁päät	-1314
aset	-1315
▁piir	-1316
▁raken	-1317
▁mahdoll	-1318
ni	-1319
imp	-1320
tug	-1321
uhtin	-1322
vasti	-1323
▁myöh	-1324
isessä	-1325
ilta	-1326
tori	-1327
ukset	-1328
▁suku	-1329
▁ennen	-1330
tar	-1331
▁The	-1332
▁pitkä	-1333
▁henkilö	-1334
ppo	-1335
hden	-1336
▁laa	-1337
kirja	-1338
▁Elin	-1339
▁vesi	-1340
50	-1341
don	-1342
mies	-1343
▁kap	-1344
▁kom	-1345
▁tul	-1346
kaupun	-1347
▁joita	-1348
yk	-1349
ivi	-1350
▁2.	-1351
▁Pa	-1352
▁Ale	-1353
▁kär	-1354
▁las	-1355
▁pid	-1356
▁linn	-1357
▁Lisääntyminen	-1358
▁Ge	-1359
▁Lo	-1360
ttua	-1361
▁164	-1362
▁nuor	-1363
isteri	-1364
uhtinas	-1365
ito	-1366
jin	-1367
▁Ti	-1368
kset	-1369
▁vaal	-1370
▁niiden	-1371
saar	-1372
▁25.	-1373
▁kok	-1374
engas	-1375
uttaa	-1376
▁eivät	-1377
▁päivää	-1378
▁vuosina	-1379
▁tavataan	-1380
go	-1381
▁=	-1382
urin	-1383
▁kapp	-1384
▁perin	-1385
▁kirkko	-1386
▁käyttää	-1387
fi	-1388
▁Br	-1389
▁Te	-1390
lintu	-1391
▁hava	-1392
uettel	-1393
iitteet	-1394
▁vastaan	-1395
resi	-1396
▁suh	-1397
▁Kirjall	-1398
ytä	-1399
▁8.	-1400
▁165	-1401
mistä	-1402
▁ilma	-1403
▁kuol	-1404
▁pesä	-1405
Euroop	-1406
laiset	-1407
allinen	-1408
residen	-1409
▁Viitteet	-1410
da	-1411
tua	-1412
▁4.	-1413
▁Nä	-1414
▁Pi	-1415
alan	-1416
▁167	-1417
▁Har	-1418
▁Mon	-1419
▁lisäksi	-1420
ean	-1421
▁eaa	-1422
▁tavall	-1423
iha	-1424
▁Li	-1425
▁Yle	-1426
▁uud	-1427
isuud	-1428
▁talo	-1429
elleen	-1430
emaa	-1431
▁hal	-1432
innan	-1433
valla	-1434
▁poika	-1435
▁suosi	-1436
tt	-1437
▁yhteis	-1438
▁kehit	-1439
▁ulkonäkö	-1440
yp	-1441
liit	-1442
▁por	-1443
▁oike	-1444
ansain	-1445
miseen	-1446
tor	-1447
von	-1448
▁Si	-1449
▁erity	-1450
▁sotila	-1451
▁välillä	-1452
▁Elinympäristö	-1453
kiv	-1454
▁epä	-1455
▁jopa	-1456
imi	-1457
osi	-1458
▁luk	-1459
▁tur	-1460
isesta	-1461
▁paino	-1462
▁rengas	-1463
▁6.	-1464
atar	-1465
▁Jos	-1466
oissa	-1467
▁Kons	-1468
▁erot	-1469
▁muistu	-1470
ela	-1471
uole	-1472
▁rann	-1473
▁tasa	-1474
ansainväl	-1475
IS	-1476
len	-1477
sar	-1478
estö	-1479
▁nel	-1480
▁tyy	-1481
ingin	-1482
▁saar	-1483
▁alkup	-1484
▁valko	-1485
▁12.	-1486
▁poh	-1487
▁rauh	-1488
▁valm	-1489
▁tulee	-1490
▁valtakunnan	-1491
0,	-1492
ob	-1493
red	-1494
rke	-1495
esti	-1496
▁10.	-1497
eseen	-1498
uksia	-1499
uksessa	-1500
▁kuuluu	-1501
ce	-1502
kuu	-1503
mpi	-1504
nte	-1505
ron	-1506
kien	-1507
talo	-1508
aakko	-1509
▁John	-1510
▁elin	-1511
▁nope	-1512
ittiin	-1513
▁tähti	-1514
arl	-1515
jia	-1516
okka	-1517
▁Poik	-1518
▁kutsu	-1519
▁Naaras	-1520
odan	-1521
▁162	-1522
▁von	-1523
isena	-1524
▁aihe	-1525
isissa	-1526
▁Radio	-1527
▁dynasti	-1528
ts	-1529
öö	-1530
isk	-1531
▁Is	-1532
▁15.	-1533
▁166	-1534
▁Par	-1535
▁rus	-1536
kotlan	-1537
▁Un	-1538
▁159	-1539
▁lää	-1540
▁ajan	-1541
▁kenra	-1542
isuuden	-1543
▁kaikki	-1544
iti	-1545
▁kan	-1546
telee	-1547
iri	-1548
sir	-1549
▁24.	-1550
▁Tun	-1551
▁erila	-1552
puolella	-1553
▁Th	-1554
▁hauto	-1555
▁27.	-1556
▁kon	-1557
▁vär	-1558
▁pros	-1559
▁selkä	-1560
emi	-1561
ren	-1562
tun	-1563
paan	-1564
▁lopp	-1565
▁kruun	-1566
eg	-1567
bur	-1568
▁5.	-1569
▁ikä	-1570
▁jat	-1571
▁pyr	-1572
▁ryh	-1573
oista	-1574
▁kaik	-1575
ich	-1576
elmä	-1577
▁tel	-1578
▁Suur	-1579
▁saat	-1580
▁tuot	-1581
▁sähkö	-1582
▁espanj	-1583
▁tietok	-1584
dynastian	-1585
▁Kos	-1586
▁arvio	-1587
▁joskus	-1588
eta	-1589
▁IT	-1590
▁Os	-1591
▁Sh	-1592
isim	-1593
▁muuta	-1594
ers	-1595
mpö	-1596
enne	-1597
▁163	-1598
▁the	-1599
itsee	-1600
▁nousi	-1601
▁Konstan	-1602
▁kuukautta	-1603
mia	-1604
ret	-1605
tys	-1606
tron	-1607
▁ala	-1608
▁kaa	-1609
▁vih	-1610
▁kann	-1611
▁avulla	-1612
▁pituus	-1613
▁julkais	-1614
äli	-1615
kuun	-1616
tiet	-1617
utui	-1618
▁177	-1619
▁194	-1620
▁Sam	-1621
▁ohjelm	-1622
▁esiintyy	-1623
ca	-1624
ov	-1625
oma	-1626
▁Mu	-1627
unta	-1628
ässä	-1629
▁178	-1630
▁ITIS	-1631
▁Turun	-1632
▁yliop	-1633
jö	-1634
–3	-1635
▁Ja	-1636
kkit	-1637
toja	-1638
▁22.	-1639
▁And	-1640
▁Lap	-1641
▁vielä	-1642
ff	-1643
▁11.	-1644
▁14.	-1645
▁160	-1646
▁Tal	-1647
▁jää	-1648
▁alan	-1649
▁huom	-1650
▁muut	-1651
▁saman	-1652
▁viime	-1653
▁Luonto	-1654
▁esiinty	-1655
▁vuosikymmenen	-1656
ida	-1657
tte	-1658
▁Kä	-1659
▁179	-1660
▁195	-1661
▁20.	-1662
▁Eer	-1663
▁rad	-1664
▁Inter	-1665
▁jäsen	-1666
▁kanta	-1667
▁koska	-1668
▁pappi	-1669
▁luokit	-1670
▁matemaa	-1671
ilä	-1672
▁He	-1673
▁Ul	-1674
▁13.	-1675
▁21.	-1676
▁Juh	-1677
ortti	-1678
kaaksi	-1679
▁alkaa	-1680
▁rengastettu	-1681
ani	-1682
erg	-1683
gor	-1684
pol	-1685
rus	-1686
use	-1687
yyn	-1688
▁IS	-1689
eltä	-1690
▁18.	-1691
▁19.	-1692
▁23.	-1693
▁Lud	-1694
▁itä	-1695
▁joissa	-1696
,5	-1697
”.	-1698
yyd	-1699
itte	-1700
▁28.	-1701
ineen	-1702
▁Myös	-1703
▁Tapahtui	-1704
▁(2	-1705
ulta	-1706
yttö	-1707
▁168	-1708
▁siv	-1709
emmat	-1710
▁Länsi	-1711
▁siitä	-1712
▁tutkimus	-1713
ima	-1714
ensa	-1715
iras	-1716
ujen	-1717
▁16.	-1718
▁17.	-1719
iston	-1720
uutto	-1721
▁tumm	-1722
isestä	-1723
▁Keski	-1724
ald	-1725
kal	-1726
000-	-1727
bert	-1728
enti	-1729
teri	-1730
▁mel	-1731
▁miel	-1732
▁Vanhin	-1733
▁voivat	-1734
▁valtion	-1735
▁em	-1736
uilla	-1737
uista	-1738
uuden	-1739
▁kuva	-1740
▁nimi	-1741
..	-1742
ij	-1743
▁156	-1744
▁pesimä	-1745
▁piispa	-1746
alaisten	-1747
▁kaupunki	-1748
atsa	-1749
mesta	-1750
oksen	-1751
tojen	-1752
äkuussa	-1753
▁Norjan	-1754
mma	-1755
sis	-1756
▁7.	-1757
jana	-1758
olle	-1759
äänn	-1760
▁Poh	-1761
▁Pää	-1762
▁myöhemmin	-1763
▁kuninkaaksi	-1764
ola	-1765
▁Ba	-1766
▁174	-1767
tumies	-1768
▁lähte	-1769
▁muita	-1770
▁muoto	-1771
uettelo	-1772
▁Ensimmä	-1773
▁Japanin	-1774
▁Konstantin	-1775
▁espanjalainen	-1776
ant	-1777
rad	-1778
toa	-1779
▁9.	-1780
▁un	-1781
päiv	-1782
▁Pet	-1783
▁pun	-1784
▁ter	-1785
▁tuo	-1786
▁joista	-1787
▁matemaatikko	-1788
ba	-1789
▁%	-1790
mmin	-1791
utti	-1792
▁and	-1793
▁Musta	-1794
iitikko	-1795
▁mm	-1796
fess	-1797
hall	-1798
utus	-1799
▁Vir	-1800
▁asi	-1801
▁vah	-1802
▁määrä	-1803
▁vuoro	-1804
–4	-1805
pel	-1806
aali	-1807
opim	-1808
ointi	-1809
▁esit	-1810
▁japan	-1811
▁hyönte	-1812
▁herttua	-1813
▁käytetty	-1814
▁Lintumies	-1815
ry	-1816
uan	-1817
pail	-1818
▁175	-1819
▁oma	-1820
istaa	-1821
tuuri	-1822
ologia	-1823
▁hieman	-1824
▁Poikaset	-1825
▁keisarikun	-1826
–5	-1827
mon	-1828
rot	-1829
–18	-1830
▁161	-1831
▁mur	-1832
▁Hels	-1833
▁lento	-1834
▁metsä	-1835
▁vaale	-1836
▁joukko	-1837
▁keskus	-1838
▁suurin	-1839
▁hel	-1840
kerta	-1841
▁vaan	-1842
▁Georg	-1843
▁kutsutaan	-1844
olm	-1845
oot	-1846
ura	-1847
▁155	-1848
▁158	-1849
▁176	-1850
itsem	-1851
kniik	-1852
▁Tämä	-1853
▁kahd	-1854
▁kunn	-1855
▁lask	-1856
▁lään	-1857
uvosto	-1858
▁Johan	-1859
▁munaa	-1860
▁paljon	-1861
eb	-1862
ero	-1863
tim	-1864
uin	-1865
und	-1866
▁()	-1867
▁yl	-1868
▁tav	-1869
oitsi	-1870
▁julka	-1871
▁katol	-1872
▁kautta	-1873
▁useita	-1874
▁kuuluva	-1875
▁profess	-1876
▁alueella	-1877
öt	-1878
gen	-1879
har	-1880
ole	-1881
dard	-1882
edia	-1883
▁169	-1884
▁pikk	-1885
▁liitty	-1886
▁alankoma	-1887
oni	-1888
ris	-1889
tis	-1890
jien	-1891
maat	-1892
pill	-1893
▁26.	-1894
▁29.	-1895
aatio	-1896
llikk	-1897
nissa	-1898
▁josta	-1899
▁poliitikko	-1900
opp	-1901
▁len	-1902
▁vet	-1903
emmän	-1904
▁Nyky	-1905
▁saad	-1906
▁Espan	-1907
▁johta	-1908
▁arkkit	-1909
▁vanhin	-1910
▁kuningatar	-1911
ec	-1912
ulaa	-1913
▁opp	-1914
▁Ään	-1915
meren	-1916
▁avar	-1917
▁tärke	-1918
▁Tanskan	-1919
▁Historia	-1920
▁saksalais	-1921
-1	-1922
▁Ab	-1923
▁As	-1924
▁Er	-1925
▁tod	-1926
▁ylä	-1927
erkko	-1928
istin	-1929
▁hyvä	-1930
vallan	-1931
▁syntyne	-1932
▁,	-1933
▁Na	-1934
elok	-1935
tävä	-1936
▁171	-1937
▁Mat	-1938
stein	-1939
▁kier	-1940
▁kymmen	-1941
ministeri	-1942
vig	-1943
miin	-1944
▁31.	-1945
ustaa	-1946
▁yrit	-1947
▁yleis	-1948
tandard	-1949
qu	-1950
ull	-1951
▁or	-1952
▁uh	-1953
lask	-1954
yksy	-1955
▁sää	-1956
evisi	-1957
ikkoa	-1958
itaan	-1959
vuosi	-1960
▁asti	-1961
▁main	-1962
▁siip	-1963
▁munii	-1964
▁omina	-1965
▁yhteen	-1966
ux	-1967
kku	-1968
ois	-1969
piir	-1970
▁157	-1971
▁Met	-1972
▁tan	-1973
▁eikä	-1974
▁laiv	-1975
▁sisä	-1976
▁jolla	-1977
▁pieni	-1978
Suomessa	-1979
valtalainen	-1980
nä	-1981
onen	-1982
osti	-1983
▁nor	-1984
malla	-1985
▁arvo	-1986
▁laji	-1987
▁olem	-1988
▁pain	-1989
tetaan	-1990
▁runsa	-1991
▁vuoksi	-1992
residentti	-1993
▁professori	-1994
aav	-1995
ilh	-1996
▁30.	-1997
▁aino	-1998
▁Pyhän	-1999
▁kieli	-2000
▁britti	-2001
▁Johannes	-2002
▁käyttöön	-2003
▁hallitsija	-2004
san	-2005
▁So	-2006
ehto	-2007
▁154	-2008
▁kys	-2009
▁kaup	-2010
▁lyhy	-2011
▁prin	-2012
▁teki	-2013
llikkö	-2014
▁palvel	-2015
▁alkuperä	-2016
▁alankomaalainen	-2017
mei	-2018
pro	-2019
ihen	-2020
▁vaa	-2021
tisen	-2022
▁taas	-2023
▁alussa	-2024
▁vallan	-2025
▁väestö	-2026
▁Lisäksi	-2027
▁Esimerkiksi	-2028
ga	-2029
sky	-2030
▁180	-2031
▁VII	-2032
▁syn	-2033
▁Fili	-2034
▁Puol	-2035
▁otta	-2036
neuvos	-2037
▁Franc	-2038
▁suuri	-2039
▁toinen	-2040
▁Kirjallisuutta	-2041
▁&	-2042
▁w	-2043
ily	-2044
ppu	-2045
▁sy	-2046
käri	-2047
tele	-2048
telu	-2049
uori	-2050
▁170	-2051
istui	-2052
uutta	-2053
▁Maan	-2054
▁tehd	-2055
▁sentti	-2056
▁toimin	-2057
▁syntyneet	-2058
▁arkkitehti	-2059
mit	-2060
nim	-2061
▁Ni	-2062
▁km	-2063
alti	-2064
innä	-2065
▁193	-2066
▁Mun	-2067
▁sin	-2068
mällä	-2069
ollan	-2070
puoli	-2071
▁kolm	-2072
Portti	-2073
▁suhte	-2074
▁muiden	-2075
▁Skotlan	-2076
▁LuontoPortti	-2077
kor	-2078
pus	-2079
uel	-2080
▁da	-2081
kejä	-2082
▁Fred	-2083
▁Jean	-2084
▁lain	-2085
▁kansan	-2086
frikassa	-2087
▁perusti	-2088
kkin	-2089
▁johd	-2090
▁siiv	-2091
ellisen	-2092
▁pääkaupun	-2093
ara	-2094
kkä	-2095
laa	-2096
▁Or	-2097
tely	-2098
▁(18	-2099
▁100	-2100
▁gra	-2101
▁jal	-2102
▁pak	-2103
▁pop	-2104
▁suk	-2105
▁ves	-2106
ingas	-2107
istus	-2108
matka	-2109
▁alka	-2110
▁uskon	-2111
▁Pohjan	-2112
▁Portug	-2113
▁muutto	-2114
▁olevan	-2115
▁30	-2116
aksa	-2117
▁Pal	-2118
allon	-2119
tynyt	-2120
▁Laji	-2121
▁harv	-2122
▁kana	-2123
▁koos	-2124
▁saap	-2125
▁venä	-2126
itystä	-2127
netaan	-2128
▁suomen	-2129
▁kaupungin	-2130
▁yliopisto	-2131
–6	-2132
vää	-2133
Amer	-2134
itus	-2135
neen	-2136
tunn	-2137
▁Pro	-2138
▁etä	-2139
▁900-	-2140
▁Pohjo	-2141
▁joiden	-2142
▁merkittä	-2143
▁kansainväl	-2144
uc	-2145
ens	-2146
kem	-2147
tes	-2148
▁Ad	-2149
assi	-2150
toim	-2151
uvun	-2152
▁173	-2153
▁rav	-2154
▁sar	-2155
itann	-2156
mässä	-2157
▁elää	-2158
▁mikä	-2159
astaan	-2160
ikassa	-2161
▁yhdys	-2162
▁päättyi	-2163
▁suunnit	-2164
▁vuoroka	-2165
10	-2166
▁Ir	-2167
▁ir	-2168
mmun	-2169
oton	-2170
▁Her	-2171
▁Pes	-2172
tiaan	-2173
▁(199	-2174
▁puna	-2175
ilhelm	-2176
▁länsi	-2177
▁vatsa	-2178
2,	-2179
iam	-2180
otu	-2181
–16	-2182
▁Ag	-2183
ittu	-2184
oksi	-2185
opol	-2186
toon	-2187
▁153	-2188
▁San	-2189
▁kyl	-2190
▁Kana	-2191
salkka	-2192
▁käsit	-2193
▁mitta	-2194
▁toimi	-2195
▁Rooman	-2196
▁lähinnä	-2197
▁Yhdysvalta	-2198
▁muistuttaa	-2199
▁erityisesti	-2200
▁keisarikunnan	-2201
ib	-2202
ksu	-2203
rat	-2204
▁Hi	-2205
kään	-2206
ukan	-2207
▁For	-2208
▁Pol	-2209
▁ruu	-2210
sissa	-2211
▁itse	-2212
intään	-2213
ohjelm	-2214
▁yhden	-2215
▁valtio	-2216
ger	-2217
ise	-2218
joh	-2219
ilman	-2220
immat	-2221
isinä	-2222
teita	-2223
isella	-2224
▁johon	-2225
▁yksin	-2226
▁kielen	-2227
▁kirkon	-2228
▁brittiläinen	-2229
hen	-2230
▁LY	-2231
▁Oh	-2232
aika	-2233
iver	-2234
joen	-2235
ystä	-2236
öllö	-2237
▁Pie	-2238
▁rii	-2239
tanut	-2240
▁kuts	-2241
▁1000-	-2242
▁kunta	-2243
▁vapaa	-2244
oitsija	-2245
▁Fredrik	-2246
▁teologi	-2247
▁yksilöä	-2248
par	-2249
toi	-2250
arvo	-2251
room	-2252
▁LYL	-2253
▁kiv	-2254
▁kur	-2255
ittäin	-2256
osissa	-2257
palvel	-2258
▁1300-	-2259
▁kolme	-2260
▁tunnus	-2261
▁puoliso	-2262
▁käytössä	-2263
▁Helsingin	-2264
▁prosentti	-2265
.)	-2266
jal	-2267
miä	-2268
öyh	-2269
▁Da	-2270
utuu	-2271
▁Elä	-2272
▁näh	-2273
aston	-2274
katem	-2275
uring	-2276
▁Will	-2277
▁näky	-2278
uksena	-2279
▁kuoli	-2280
▁päivä	-2281
ollinen	-2282
▁siemen	-2283
▁kuukauden	-2284
▁ä	-2285
ini	-2286
eita	-2287
oitu	-2288
ttaan	-2289
vissa	-2290
▁tarv	-2291
▁Osman	-2292
▁missä	-2293
▁itsenä	-2294
▁kerran	-2295
▁kielet	-2296
▁Aleksan	-2297
▁kaupung	-2298
bi	-2299
dan	-2300
ica	-2301
jäh	-2302
rian	-2303
▁mik	-2304
▁viih	-2305
iemmin	-2306
▁Ludvig	-2307
▁kokona	-2308
▁Espanjan	-2309
▁kenraali	-2310
▁perustaja	-2311
▁senttimet	-2312
ile	-2313
ottu	-2314
▁Mer	-2315
▁arv	-2316
ikaan	-2317
sivat	-2318
kerttu	-2319
oittaa	-2320
urinko	-2321
▁armei	-2322
▁niitä	-2323
▁saakka	-2324
▁syntyi	-2325
▁kuninka	-2326
▁sotilas	-2327
▁sijaitsee	-2328
▁taistelussa	-2329
21	-2330
öl	-2331
iss	-2332
oim	-2333
res	-2334
uul	-2335
▁Ca	-2336
▁rä	-2337
▁Jär	-2338
▁reh	-2339
jelma	-2340
ukana	-2341
▁Yksi	-2342
▁1600-	-2343
▁pinta	-2344
▁toisen	-2345
▁vaikka	-2346
▁lääkäri	-2347
▁muodosta	-2348
ous	-2349
pin	-2350
uka	-2351
vid	-2352
änn	-2353
rans	-2354
▁Jin	-2355
ksesta	-2356
▁joten	-2357
▁maassa	-2358
▁yksikkö	-2359
▁Kiinassa	-2360
▁tavallisesti	-2361
kel	-2362
vit	-2363
änä	-2364
evää	-2365
▁Eur	-2366
jasta	-2367
ytänn	-2368
▁800-	-2369
▁kään	-2370
teiden	-2371
▁arkki	-2372
▁neljä	-2373
▁pyrstö	-2374
▁vaalea	-2375
▁voimak	-2376
▁prosenttia	-2377
–7	-2378
▁+	-2379
ieh	-2380
mir	-2381
–17	-2382
iini	-2383
▁172	-2384
kusta	-2385
omies	-2386
sikko	-2387
tiede	-2388
▁Tiet	-2389
▁yhtä	-2390
ttuuri	-2391
▁1400-	-2392
▁hautoo	-2393
▁viikon	-2394
▁nykyään	-2395
▁ravinto	-2396
▁siipien	-2397
▁taistelu	-2398
gar	-2399
kos	-2400
tiö	-2401
▁De	-2402
änsä	-2403
▁pur	-2404
istit	-2405
oitus	-2406
opäiv	-2407
terin	-2408
▁olle	-2409
isilla	-2410
▁eriko	-2411
▁tutki	-2412
▁talous	-2413
▁luonnon	-2414
iruhtinas	-2415
▁vuodesta	-2416
▁valittiin	-2417
▁japanilainen	-2418
8,	-2419
eja	-2420
gra	-2421
lav	-2422
umm	-2423
–15	-2424
▁Ah	-2425
▁Ki	-2426
▁ke	-2427
iang	-2428
utum	-2429
▁Tor	-2430
ittaa	-2431
jassa	-2432
massa	-2433
▁muka	-2434
▁keski	-2435
olemmat	-2436
▁kärkiv	-2437
▁siihen	-2438
▁kappale	-2439
päällikkö	-2440
▁Luettelo	-2441
▁sulttaan	-2442
▁pääasiassa	-2443
BN	-2444
nus	-2445
ric	-2446
▁Bo	-2447
aaja	-2448
mien	-2449
omas	-2450
▁pyh	-2451
▁laaj	-2452
▁naar	-2453
▁jouko	-2454
▁Vuoden	-2455
▁olemassa	-2456
▁katolinen	-2457
roomalaisen	-2458
▁tähtitieteilijä	-2459
11	-2460
iks	-2461
kut	-2462
onn	-2463
tok	-2464
laji	-2465
▁Bar	-2466
▁kau	-2467
▁eten	-2468
▁pala	-2469
▁tuho	-2470
essaan	-2471
▁lähet	-2472
tekniik	-2473
▁laajen	-2474
▁hallinn	-2475
▁valtaneuvos	-2476
▁tutkimusmatka	-2477
luo	-2478
unk	-2479
vis	-2480
▁Vä	-2481
idin	-2482
ukon	-2483
▁152	-2484
▁ISBN	-2485
▁alle	-2486
▁Suuri	-2487
▁keksi	-2488
mpötila	-2489
▁kahden	-2490
▁kuolle	-2491
▁kilomet	-2492
▁tyypill	-2493
Euroopassa	-2494
▁talvehtii	-2495
enz	-2496
immä	-2497
joja	-2498
uvan	-2499
▁Gre	-2500
▁Kol	-2501
▁äär	-2502
saari	-2503
▁olisi	-2504
▁sisältää	-2505
▁kärkiväli	-2506
vy	-2507
▁SI	-2508
▁pu	-2509
atin	-2510
berg	-2511
tava	-2512
umen	-2513
▁Täl	-2514
elius	-2515
tetta	-2516
▁kell	-2517
▁koti	-2518
▁määr	-2519
▁taka	-2520
▁teks	-2521
▁varsin	-2522
▁lähtien	-2523
▁viikkoa	-2524
▁erittäin	-2525
▁järjestel	-2526
▁Skotlannin	-2527
4,	-2528
80	-2529
oli	-2530
▁Co	-2531
▁Mo	-2532
▁VI	-2533
alli	-2534
mper	-2535
rich	-2536
sian	-2537
▁Kas	-2538
▁vel	-2539
▁ymp	-2540
iluku	-2541
kausi	-2542
▁Sitä	-2543
▁saan	-2544
ksessa	-2545
ukseen	-2546
▁Paavi	-2547
▁melko	-2548
▁aikaan	-2549
▁William	-2550
▁Maailman	-2551
▁vähintään	-2552
▁valtiopäiv	-2553
1,	-2554
30	-2555
bo	-2556
hu	-2557
hou	-2558
jek	-2559
kum	-2560
ore	-2561
orf	-2562
puh	-2563
tut	-2564
–20	-2565
eliö	-2566
isko	-2567
ulle	-2568
yden	-2569
▁Jan	-2570
▁Pit	-2571
▁kuk	-2572
maksi	-2573
oihin	-2574
vasta	-2575
▁Kans	-2576
▁Maun	-2577
piispa	-2578
▁Eerik	-2579
▁Maria	-2580
▁Robert	-2581
▁sijoit	-2582
▁aloitti	-2583
▁musiikk	-2584
▁televisi	-2585
▁dynastiat	-2586
▁arvioidaan	-2587
ML	-2588
ora	-2589
sil	-2590
▁pe	-2591
eria	-2592
sien	-2593
ulun	-2594
uttu	-2595
ääni	-2596
▁Chr	-2597
▁Ter	-2598
▁pan	-2599
tävät	-2600
▁heim	-2601
▁vapa	-2602
koinen	-2603
▁kerto	-2604
▁siten	-2605
▁Thomas	-2606
▁lähellä	-2607
istettiin	-2608
▁edelleen	-2609
▁ruhtinas	-2610
▁vaikutta	-2611
▁valtiomies	-2612
järjestelmän	-2613
eä	-2614
hol	-2615
mää	-2616
unn	-2617
▁hu	-2618
eden	-2619
evos	-2620
onta	-2621
osin	-2622
▁amm	-2623
▁juo	-2624
järvi	-2625
naksi	-2626
ttuur	-2627
▁Hein	-2628
▁sosi	-2629
merkki	-2630
eväällä	-2631
yksyllä	-2632
▁korkea	-2633
▁kreivi	-2634
▁toisin	-2635
▁enemmän	-2636
▁nimellä	-2637
▁tietokone	-2638
EG	-2639
oc	-2640
zz	-2641
jet	-2642
raa	-2643
tet	-2644
tyä	-2645
usa	-2646
▁Hy	-2647
kood	-2648
▁Bir	-2649
▁Jul	-2650
▁Pel	-2651
▁mus	-2652
▁pyö	-2653
▁vil	-2654
sissä	-2655
▁Pikk	-2656
▁siis	-2657
▁taaj	-2658
▁tapa	-2659
iselle	-2660
▁ilman	-2661
▁oleva	-2662
▁Juhana	-2663
▁markkin	-2664
▁huomatta	-2665
uvostoliit	-2666
▁hyönteisiä	-2667
5,	-2668
olf	-2669
tra	-2670
▁Ur	-2671
atom	-2672
mans	-2673
tali	-2674
viin	-2675
▁150	-2676
▁192	-2677
▁Han	-2678
▁Jus	-2679
▁pil	-2680
▁rat	-2681
ityks	-2682
▁Alan	-2683
▁kohd	-2684
maatti	-2685
▁akatem	-2686
▁naaras	-2687
▁vuoteen	-2688
allisesti	-2689
kirjailija	-2690
▁tunnetaan	-2691
▁arkkipiispa	-2692
-,	-2693
”,	-2694
hat	-2695
hun	-2696
▁50	-2697
▁ap	-2698
tian	-2699
anska	-2700
itään	-2701
itseva	-2702
▁tansk	-2703
johtaja	-2704
▁ikäisinä	-2705
▁valmista	-2706
ci	-2707
oi	-2708
ekn	-2709
era	-2710
ilu	-2711
ylä	-2712
▁Pr	-2713
arin	-2714
land	-2715
laus	-2716
siin	-2717
älle	-2718
▁191	-2719
innut	-2720
▁Keis	-2721
▁pitä	-2722
järjes	-2723
teella	-2724
udella	-2725
▁ihmis	-2726
▁meren	-2727
▁ruske	-2728
kirjoit	-2729
▁mukana	-2730
▁saadaan	-2731
▁Osmanien	-2732
gon	-2733
ham	-2734
▁Gu	-2735
imys	-2736
sson	-2737
▁kah	-2738
innun	-2739
tunut	-2740
tuvat	-2741
usten	-2742
äärin	-2743
▁jaka	-2744
▁tämä	-2745
estaan	-2746
▁kuole	-2747
▁laske	-2748
▁lyhyt	-2749
hos	-2750
pit	-2751
▁1,	-2752
▁Ku	-2753
Kiin	-2754
jaan	-2755
onin	-2756
▁Ben	-2757
▁Kal	-2758
▁Kur	-2759
kanta	-2760
matta	-2761
voima	-2762
yyden	-2763
▁Carl	-2764
▁pitk	-2765
▁vaki	-2766
▁samalla	-2767
▁Internet	-2768
▁nykyisin	-2769
86	-2770
ban	-2771
ism	-2772
työ	-2773
▁Go	-2774
ikke	-2775
▁han	-2776
▁lap	-2777
istön	-2778
▁Aasi	-2779
▁Pesä	-2780
▁sata	-2781
▁Hänen	-2782
▁Lajin	-2783
ologian	-2784
▁muutta	-2785
▁poliit	-2786
▁käytettiin	-2787
▁Neuvostoliit	-2788
57	-2789
imo	-2790
sit	-2791
▁Sp	-2792
asan	-2793
aste	-2794
oita	-2795
▁Cor	-2796
▁puu	-2797
istys	-2798
västi	-2799
▁Pyhä	-2800
▁ajat	-2801
▁huol	-2802
▁saav	-2803
▁tuom	-2804
▁yllä	-2805
Suomen	-2806
uroopp	-2807
▁1980-	-2808
▁Metsä	-2809
▁Venäj	-2810
▁gramm	-2811
▁muuto	-2812
▁siinä	-2813
▁vähen	-2814
▁saattaa	-2815
▁kuolleet	-2816
▁valloitti	-2817
▁historioitsija	-2818
".	-2819
):	-2820
ket	-2821
▁21	-2822
▁25	-2823
▁Oy	-2824
▁sp	-2825
koon	-2826
vell	-2827
▁Fer	-2828
▁Jac	-2829
▁Kon	-2830
▁Use	-2831
▁lis	-2832
öyhen	-2833
▁joko	-2834
▁Pieta	-2835
▁latin	-2836
▁tämän	-2837
▁linnut	-2838
▁yhteyd	-2839
ollisuus	-2840
isuudessa	-2841
▁tapahtuu	-2842
rom	-2843
▁Kn	-2844
▁MP	-2845
kana	-2846
usto	-2847
▁väk	-2848
eiden	-2849
ettua	-2850
iikka	-2851
isenä	-2852
muoto	-2853
▁Erik	-2854
▁euro	-2855
▁julk	-2856
▁kone	-2857
▁kelta	-2858
▁pitää	-2859
▁radio	-2860
▁äänen	-2861
taminen	-2862
yksikkö	-2863
▁kertaa	-2864
▁siirto	-2865
▁verkko	-2866
▁maaherra	-2867
järjestelmä	-2868
▁Ensimmäinen	-2869
▁kirkkoherra	-2870
40	-2871
rä	-2872
att	-2873
vet	-2874
▁Sc	-2875
▁XI	-2876
kiin	-2877
kuri	-2878
olan	-2879
▁jän	-2880
attom	-2881
rasta	-2882
vissä	-2883
▁alun	-2884
▁asio	-2885
▁sano	-2886
▁tote	-2887
teessa	-2888
▁Anton	-2889
▁ympär	-2890
▁alkaen	-2891
▁keskim	-2892
▁kommun	-2893
▁Vilhelm	-2894
ellisesti	-2895
▁näytelmä	-2896
▁Portugalin	-2897
▁Aleksanteri	-2898
wa	-2899
▁Ph	-2900
▁sh	-2901
esty	-2902
ksiä	-2903
yrit	-2904
▁Kil	-2905
▁Sil	-2906
▁Ver	-2907
tävän	-2908
utaan	-2909
vinen	-2910
▁auto	-2911
eltään	-2912
tämään	-2913
▁luonn	-2914
▁riipp	-2915
▁union	-2916
uksissa	-2917
▁tunnet	-2918
▁vaihto	-2919
▁aiemmin	-2920
▁etenkin	-2921
▁lopulla	-2922
▁historia	-2923
▁sulttaani	-2924
▁julkaistiin	-2925
▁Yhdysvaltain	-2926
3,	-2927
▁u	-2928
ate	-2929
iaa	-2930
tär	-2931
–12	-2932
▁Re	-2933
eltu	-2934
ööri	-2935
▁186	-2936
▁Ara	-2937
▁Car	-2938
▁Ele	-2939
▁Iso	-2940
▁Sch	-2941
▁lin	-2942
estin	-2943
jalla	-2944
▁Amer	-2945
▁aine	-2946
▁nous	-2947
▁vide	-2948
▁voit	-2949
▁johti	-2950
▁liikk	-2951
▁nimen	-2952
▁rauta	-2953
alaisia	-2954
▁pieniä	-2955
▁julkaisi	-2956
▁pienempi	-2957
▁senttimetriä	-2958
fa	-2959
bum	-2960
ire	-2961
isa	-2962
ota	-2963
siv	-2964
atto	-2965
ogra	-2966
ssin	-2967
▁Sin	-2968
▁Sta	-2969
▁suu	-2970
emaan	-2971
uinen	-2972
▁lisä	-2973
▁mieh	-2974
▁pois	-2975
▁rita	-2976
haukka	-2977
ikolla	-2978
▁Tämän	-2979
▁kausi	-2980
▁neliö	-2981
allista	-2982
uringon	-2983
▁joilla	-2984
▁käytti	-2985
▁päivän	-2986
▁aiheutta	-2987
▁maakunta	-2988
▁akatemian	-2989
ph	-2990
ww	-2991
ya	-2992
–10	-2993
iltä	-2994
osan	-2995
osko	-2996
vard	-2997
▁181	-2998
▁Kuu	-2999
▁New	-3000
▁Nic	-3001
▁ehd	-3002
▁iso	-3003
▁syr	-3004
tikka	-3005
▁asuk	-3006
▁emot	-3007
▁plan	-3008
▁ääni	-3009
ellaan	-3010
eltaan	-3011
ettävä	-3012
päästä	-3013
tugali	-3014
▁takia	-3015
▁veden	-3016
▁maissa	-3017
▁kruunun	-3018
▁populaa	-3019
▁pidetään	-3020
▁ottamatta	-3021
▁levinneisyys	-3022
9,	-3023
201	-3024
est	-3025
lis	-3026
▁Ho	-3027
kinä	-3028
vann	-3029
▁Haa	-3030
▁Suo	-3031
karin	-3032
▁Anti	-3033
▁Fenn	-3034
▁aset	-3035
▁help	-3036
▁koir	-3037
▁tulo	-3038
▁Koska	-3039
▁kuvaa	-3040
▁osall	-3041
▁pohjo	-3042
mestari	-3043
▁hyökkä	-3044
▁jonkin	-3045
▁koiras	-3046
▁suorit	-3047
▁toimii	-3048
▁viimeinen	-3049
▁perusteella	-3050
▁presidentti	-3051
2-	-3052
7,	-3053
pu	-3054
eph	-3055
köt	-3056
yöh	-3057
▁40	-3058
▁60	-3059
kkaa	-3060
mail	-3061
yssä	-3062
▁149	-3063
eteor	-3064
iitti	-3065
impia	-3066
ustus	-3067
alueen	-3068
▁Ahven	-3069
▁Itali	-3070
▁Lapin	-3071
▁avoim	-3072
▁myötä	-3073
▁pysty	-3074
▁tekee	-3075
allisen	-3076
alliset	-3077
instein	-3078
uksesta	-3079
▁Saksan	-3080
▁harmaa	-3081
▁lukuun	-3082
▁urkuri	-3083
▁kehittä	-3084
▁vesistö	-3085
▁lähtevät	-3086
▁seuraavia	-3087
▁valkoinen	-3088
sh	-3089
TML	-3090
imä	-3091
tye	-3092
emin	-3093
kala	-3094
kosk	-3095
onom	-3096
▁käy	-3097
▁sur	-3098
astus	-3099
▁(200	-3100
▁kesä	-3101
puolue	-3102
▁arvon	-3103
▁kuvan	-3104
▁pensa	-3105
▁pohja	-3106
▁risti	-3107
▁kappal	-3108
▁kunnan	-3109
▁avaruus	-3110
▁yhdessä	-3111
▁Yhdysvall	-3112
▁ympäristö	-3113
st	-3114
ena	-3115
ipi	-3116
jit	-3117
kap	-3118
keä	-3119
lob	-3120
vil	-3121
▁0,	-3122
▁Ol	-3123
▁Pl	-3124
▁ak	-3125
ames	-3126
teki	-3127
vana	-3128
visi	-3129
vuot	-3130
▁190	-3131
▁Sel	-3132
imaan	-3133
▁2010	-3134
▁Puna	-3135
▁amir	-3136
▁saal	-3137
ettuja	-3138
illaan	-3139
isistä	-3140
▁Japan	-3141
▁Ransk	-3142
▁katso	-3143
▁sella	-3144
▁kuuluv	-3145
▁rajoit	-3146
▁Suomeen	-3147
▁euroopp	-3148
▁grammaa	-3149
▁perinte	-3150
▁kuuluvat	-3151
▁vuorokautta	-3152
85	-3153
gi	-3154
ms	-3155
ör	-3156
▁i	-3157
dem	-3158
elo	-3159
eus	-3160
kur	-3161
kön	-3162
pun	-3163
yhd	-3164
▁Hu	-3165
▁Hä	-3166
alia	-3167
burg	-3168
itos	-3169
näkö	-3170
osto	-3171
puna	-3172
yhte	-3173
▁Bra	-3174
▁Kul	-3175
▁aat	-3176
arles	-3177
vassa	-3178
▁Hall	-3179
▁Pesi	-3180
▁Song	-3181
▁enää	-3182
▁laul	-3183
▁uhan	-3184
ellään	-3185
ruskea	-3186
▁syrjä	-3187
tiivinen	-3188
▁Alankoma	-3189
▁venäläinen	-3190
▁Suomalaiset	-3191
ast	-3192
bol	-3193
gna	-3194
hte	-3195
idi	-3196
ios	-3197
pat	-3198
tön	-3199
▁Il	-3200
▁On	-3201
idän	-3202
umer	-3203
▁Pyr	-3204
▁Sig	-3205
▁Ste	-3206
isiip	-3207
ivaan	-3208
▁Rich	-3209
▁Talv	-3210
▁suor	-3211
ektron	-3212
isille	-3213
▁sodan	-3214
▁Muutto	-3215
ytännössä	-3216
▁suurempi	-3217
▁yksinkerta	-3218
77	-3219
▁:	-3220
dot	-3221
hän	-3222
ler	-3223
ord	-3224
vik	-3225
äri	-3226
antš	-3227
musi	-3228
tala	-3229
udet	-3230
ustr	-3231
väen	-3232
▁for	-3233
▁naa	-3234
anter	-3235
▁Myöh	-3236
▁pysy	-3237
▁tihe	-3238
istian	-3239
ksuaal	-3240
laisia	-3241
oltaan	-3242
raatti	-3243
▁Filip	-3244
▁Irlan	-3245
▁Suomi	-3246
▁eläin	-3247
▁energ	-3248
▁minkä	-3249
▁siirr	-3250
▁tilan	-3251
illinen	-3252
isemmin	-3253
istossa	-3254
▁Puolan	-3255
▁hyväks	-3256
Aasiassa	-3257
▁Ahvenan	-3258
▁Keisari	-3259
▁valtaistu	-3260
▁Yhdysvalloissa	-3261
alo	-3262
ase	-3263
▁pä	-3264
irja	-3265
ohja	-3266
ried	-3267
verk	-3268
çois	-3269
–199	-3270
–200	-3271
▁Gio	-3272
▁Pun	-3273
▁dip	-3274
▁hak	-3275
▁ihm	-3276
istan	-3277
ister	-3278
tansa	-3279
tiset	-3280
uteen	-3281
yksen	-3282
▁2003	-3283
▁kood	-3284
▁mita	-3285
▁säte	-3286
▁tall	-3287
▁tark	-3288
imelle	-3289
▁nokka	-3290
▁piste	-3291
▁edusta	-3292
▁puolue	-3293
▁saanut	-3294
▁useimm	-3295
yntyinen	-3296
▁johtaja	-3297
▁kirjall	-3298
▁varsina	-3299
oitettiin	-3300
▁keisarin	-3301
▁kuitenkaan	-3302
▁yhteydessä	-3303
sy	-3304
etä	-3305
ott	-3306
pur	-3307
▁IX	-3308
▁Me	-3309
aton	-3310
opea	-3311
orsa	-3312
vaan	-3313
ytti	-3314
▁Isa	-3315
emati	-3316
sessa	-3317
ttain	-3318
▁Pari	-3319
▁arvi	-3320
▁aste	-3321
▁hajo	-3322
▁meta	-3323
▁moot	-3324
▁uusi	-3325
istinen	-3326
▁elokuv	-3327
▁keskit	-3328
▁suuren	-3329
kielinen	-3330
▁Francis	-3331
▁ainakin	-3332
▁erottaa	-3333
▁viittaa	-3334
▁Einstein	-3335
▁Kuningas	-3336
▁armeijan	-3337
▁Afrikassa	-3338
▁portugali	-3339
mu	-3340
za	-3341
kik	-3342
kuv	-3343
ley	-3344
nis	-3345
ose	-3346
ytö	-3347
▁Gr	-3348
▁Ke	-3349
▁Tr	-3350
▁di	-3351
▁148	-3352
▁fyy	-3353
▁lah	-3354
jaksi	-3355
kossa	-3356
sivät	-3357
uetta	-3358
▁Elok	-3359
▁arab	-3360
▁ulot	-3361
utuvat	-3362
▁Louis	-3363
▁Muita	-3364
▁lehti	-3365
▁sekun	-3366
▁tumma	-3367
▁alueen	-3368
▁kreikk	-3369
▁metrin	-3370
▁voitti	-3371
▁Britann	-3372
▁Giovann	-3373
▁lentoky	-3374
▁seitsem	-3375
▁kuninkaan	-3376
22	-3377
34	-3378
▁/	-3379
200	-3380
end	-3381
ent	-3382
hin	-3383
jas	-3384
jät	-3385
kiä	-3386
ryh	-3387
tei	-3388
▁ik	-3389
ajan	-3390
erus	-3391
itin	-3392
kian	-3393
mann	-3394
sity	-3395
skyn	-3396
teor	-3397
▁151	-3398
▁Gal	-3399
▁Ker	-3400
▁Mag	-3401
▁Mik	-3402
▁mas	-3403
▁myy	-3404
▁ved	-3405
enter	-3406
sinki	-3407
▁(198	-3408
▁komp	-3409
▁osan	-3410
isiksi	-3411
▁ainoa	-3412
▁diplo	-3413
▁inter	-3414
▁koira	-3415
▁kuusi	-3416
▁ranta	-3417
▁kasvaa	-3418
▁muuttu	-3419
▁niistä	-3420
▁varpus	-3421
▁varten	-3422
▁Charles	-3423
▁Pietari	-3424
▁heimoon	-3425
▁kirjaim	-3426
▁Giovanni	-3427
▁nykyisen	-3428
▁maailmans	-3429
▁valtiopäivä	-3430
",	-3431
70	-3432
▁0	-3433
ene	-3434
fek	-3435
juo	-3436
miö	-3437
suo	-3438
uti	-3439
asem	-3440
attu	-3441
ente	-3442
mman	-3443
oike	-3444
rann	-3445
uuto	-3446
ykke	-3447
▁Cla	-3448
▁Kle	-3449
▁Min	-3450
▁Ser	-3451
▁Työ	-3452
▁fla	-3453
▁jät	-3454
eissä	-3455
iikan	-3456
joita	-3457
ongol	-3458
▁VIII	-3459
▁hyöd	-3460
▁kala	-3461
▁kuun	-3462
▁säil	-3463
▁teor	-3464
istaan	-3465
▁kasvi	-3466
▁menet	-3467
miseksi	-3468
tuminen	-3469
▁Kustaa	-3470
▁Tamper	-3471
▁omista	-3472
▁ravinn	-3473
▁astetta	-3474
▁elokuva	-3475
▁suomalais	-3476
Al	-3477
ht	-3478
ele	-3479
ltä	-3480
–14	-3481
▁At	-3482
alai	-3483
imiä	-3484
isem	-3485
ismi	-3486
päin	-3487
▁Kat	-3488
▁Kuo	-3489
▁Wei	-3490
▁Wor	-3491
▁ero	-3492
▁res	-3493
▁til	-3494
telem	-3495
äkuun	-3496
äännö	-3497
▁MPEG	-3498
▁Mika	-3499
▁jään	-3500
▁naim	-3501
▁vahv	-3502
isellä	-3503
keskus	-3504
tunnus	-3505
▁1100-	-3506
▁1800-	-3507
▁hänet	-3508
▁kokon	-3509
▁lakka	-3510
▁opisk	-3511
▁tuntu	-3512
▁virta	-3513
▁Koiras	-3514
isistaan	-3515
▁harmaan	-3516
▁koostuu	-3517
marsalkka	-3518
▁François	-3519
▁erilaisia	-3520
▁muuttolintu	-3521
An	-3522
Ma	-3523
rk	-3524
vu	-3525
00)	-3526
19)	-3527
bus	-3528
mus	-3529
ode	-3530
ome	-3531
rip	-3532
▁Be	-3533
▁Us	-3534
ivan	-3535
rang	-3536
▁500	-3537
▁Alf	-3538
▁Bur	-3539
▁Dan	-3540
▁Ola	-3541
▁Vaa	-3542
▁pre	-3543
▁tor	-3544
empia	-3545
virta	-3546
▁Nuor	-3547
▁tekn	-3548
attiin	-3549
ettava	-3550
odassa	-3551
▁1900-	-3552
▁Andre	-3553
▁Linux	-3554
▁Saksa	-3555
▁alala	-3556
▁nimit	-3557
▁pakka	-3558
▁räjäh	-3559
▁tarjo	-3560
▁tehty	-3561
▁uuden	-3562
ityksen	-3563
tionaal	-3564
▁Jaakko	-3565
▁Justin	-3566
▁kulkee	-3567
▁kilpail	-3568
▁syksyllä	-3569
▁kansallis	-3570
▁muistutta	-3571
▁Kansainväl	-3572
▁keskimäärin	-3573
1-	-3574
gyp	-3575
tie	-3576
ule	-3577
xin	-3578
▁me	-3579
alus	-3580
iros	-3581
kaus	-3582
orin	-3583
otti	-3584
pako	-3585
vaih	-3586
▁Ori	-3587
▁jyr	-3588
▁kel	-3589
▁rah	-3590
masta	-3591
perin	-3592
▁Anna	-3593
▁huon	-3594
▁laus	-3595
▁osaa	-3596
▁otti	-3597
iltään	-3598
järven	-3599
käyttö	-3600
▁James	-3601
▁sopim	-3602
▁Edvard	-3603
▁kiinte	-3604
▁siirty	-3605
unoilija	-3606
vuotiaan	-3607
▁harvina	-3608
▁hallinto	-3609
▁Ruotsissa	-3610
▁uudelleen	-3611
▁sotapäällikkö	-3612
13	-3613
78	-3614
8:	-3615
NA	-3616
iw	-3617
én	-3618
aja	-3619
rav	-3620
▁95	-3621
▁Pe	-3622
anis	-3623
aran	-3624
edic	-3625
iina	-3626
itaa	-3627
laaj	-3628
oppi	-3629
oris	-3630
sten	-3631
suku	-3632
tenä	-3633
yste	-3634
▁ras	-3635
▁sit	-3636
aalta	-3637
imman	-3638
▁2009	-3639
▁anta	-3640
▁läpi	-3641
▁oman	-3642
▁paav	-3643
▁sana	-3644
muutto	-3645
teissa	-3646
▁Mosko	-3647
▁korva	-3648
▁tekem	-3649
▁tieto	-3650
▁joutui	-3651
▁olleet	-3652
▁provin	-3653
▁puoliv	-3654
▁vuosis	-3655
▁Unkarin	-3656
▁ihmistä	-3657
▁kenraal	-3658
▁pesästä	-3659
▁tapahtu	-3660
▁kulttuur	-3661
▁standard	-3662
▁prinsessa	-3663
▁toisistaan	-3664
15	-3665
60	-3666
90	-3667
TP	-3668
198	-3669
con	-3670
ild	-3671
jun	-3672
kse	-3673
eeta	-3674
esin	-3675
essi	-3676
lais	-3677
▁(12	-3678
▁Con	-3679
▁Ger	-3680
▁Hub	-3681
▁ark	-3682
ennus	-3683
jalle	-3684
kkien	-3685
raken	-3686
villa	-3687
▁2000	-3688
▁ohja	-3689
kainen	-3690
älintu	-3691
▁aatel	-3692
▁aikaa	-3693
▁ruoka	-3694
itsevat	-3695
uksella	-3696
▁Ruotsi	-3697
▁liitto	-3698
merkkejä	-3699
▁valtaan	-3700
ikokoinen	-3701
▁amiraali	-3702
▁fyysikko	-3703
▁vaihtelee	-3704
▁toukokuussa	-3705
▁Kirjallisuus	-3706
▁portugalilainen	-3707
▁valtiopäivämies	-3708
be	-3709
by	-3710
▁[	-3711
bin	-3712
cal	-3713
cus	-3714
ija	-3715
ppa	-3716
–13	-3717
▁Ih	-3718
▁Ky	-3719
▁Vo	-3720
▁tr	-3721
imon	-3722
kari	-3723
kein	-3724
löin	-3725
rain	-3726
▁Hor	-3727
▁Kan	-3728
▁Sir	-3729
▁XII	-3730
▁ann	-3731
▁pot	-3732
aseen	-3733
dmail	-3734
ellus	-3735
tilan	-3736
yksiä	-3737
▁Jako	-3738
▁Syys	-3739
▁mitä	-3740
▁näkö	-3741
laisen	-3742
veitsi	-3743
▁euroa	-3744
▁seura	-3745
oitettu	-3746
▁Tällöin	-3747
▁sanasta	-3748
▁määritel	-3749
▁nopeasti	-3750
▁historian	-3751
▁valmistui	-3752
▁Konstantinos	-3753
▁tanskalainen	-3754
▁kuningaskunta	-3755
▁Konstantinopol	-3756
79	-3757
▁’	-3758
art	-3759
kol	-3760
mpp	-3761
ppe	-3762
uha	-3763
abri	-3764
elma	-3765
erre	-3766
ilin	-3767
otta	-3768
tiot	-3769
unut	-3770
vesi	-3771
▁300	-3772
▁Jum	-3773
▁Kre	-3774
▁Mic	-3775
▁Vas	-3776
▁Yor	-3777
▁län	-3778
▁löy	-3779
ellen	-3780
stään	-3781
▁Paul	-3782
▁fysi	-3783
inaali	-3784
paikka	-3785
tuksen	-3786
▁1990-	-3787
▁Laulu	-3788
▁silmä	-3789
▁tavat	-3790
▁virka	-3791
tiainen	-3792
tieteen	-3793
▁kirjan	-3794
▁ruskea	-3795
▁sitten	-3796
alueilla	-3797
▁ihmisen	-3798
▁pyhimys	-3799
▁vaalean	-3800
▁alueelle	-3801
▁kokonaan	-3802
▁näytteli	-3803
▁ravintoa	-3804
▁takaisin	-3805
▁puolestaan	-3806
▁sotamarsalkka	-3807
▁valtaistuimelle	-3808
6,	-3809
fer	-3810
kke	-3811
mäh	-3812
yll	-3813
önä	-3814
▁eh	-3815
elan	-3816
eter	-3817
iher	-3818
ling	-3819
odin	-3820
suun	-3821
▁Enn	-3822
▁Kiv	-3823
▁Sal	-3824
▁Väl	-3825
▁sop	-3826
▁tah	-3827
Afrik	-3828
iitto	-3829
ikkaa	-3830
ineet	-3831
ksien	-3832
teitä	-3833
uivat	-3834
umero	-3835
yhtiö	-3836
▁Hans	-3837
▁etel	-3838
▁kons	-3839
▁pinn	-3840
donesi	-3841
joukko	-3842
talous	-3843
▁Roman	-3844
▁Vaasa	-3845
▁monia	-3846
▁muina	-3847
▁tiete	-3848
▁Gregor	-3849
▁jännit	-3850
▁poikke	-3851
▁tsaari	-3852
▁ympäri	-3853
▁Eerikin	-3854
▁ikäinen	-3855
▁muuttaa	-3856
▁ritarik	-3857
▁ulottuu	-3858
▁lisäänty	-3859
▁perustuu	-3860
▁voimakka	-3861
▁kulttuuri	-3862
▁toisinaan	-3863
▁yleisesti	-3864
▁pääkaupunki	-3865
dä	-3866
fo	-3867
ow	-3868
äs	-3869
bit	-3870
ety	-3871
ppä	-3872
▁24	-3873
ekka	-3874
etus	-3875
joki	-3876
okan	-3877
tasa	-3878
uola	-3879
upse	-3880
vara	-3881
▁Aug	-3882
▁Man	-3883
▁Mus	-3884
▁Sar	-3885
▁Sip	-3886
▁amp	-3887
▁mag	-3888
▁med	-3889
määrä	-3890
oiden	-3891
tusta	-3892
▁Kiel	-3893
▁työn	-3894
mainen	-3895
udessa	-3896
uttiin	-3897
▁Jakob	-3898
▁kapin	-3899
▁löysi	-3900
aakkois	-3901
▁Mikael	-3902
▁asukka	-3903
▁linnun	-3904
▁sekoit	-3905
▁sijaan	-3906
istuksen	-3907
▁prinssi	-3908
▁yleinen	-3909
▁ristiret	-3910
▁tunnettu	-3911
▁elinvoima	-3912
esimerkiksi	-3913
▁diplomaatti	-3914
▁ulkopuolella	-3915
Br	-3916
In	-3917
án	-3918
▁°	-3919
hyd	-3920
kis	-3921
lon	-3922
nat	-3923
ser	-3924
sto	-3925
tai	-3926
▁23	-3927
▁Qu	-3928
▁Yh	-3929
▁ri	-3930
▁tö	-3931
aasi	-3932
aiko	-3933
evan	-3934
graf	-3935
iaat	-3936
maal	-3937
▁Kom	-3938
▁Mur	-3939
▁Täh	-3940
▁kup	-3941
▁teo	-3942
eetta	-3943
johta	-3944
telua	-3945
▁Merk	-3946
▁Pien	-3947
▁Vesi	-3948
▁Viik	-3949
▁puun	-3950
▁täys	-3951
dinand	-3952
joiden	-3953
uksiin	-3954
▁kulke	-3955
▁tunte	-3956
▁valla	-3957
alaista	-3958
allisia	-3959
inpoika	-3960
uudessa	-3961
▁Pituus	-3962
▁joukot	-3963
▁virsir	-3964
▁yhtenä	-3965
▁yhdisty	-3966
Afrikassa	-3967
vuotiaana	-3968
▁Aasiassa	-3969
▁kokonais	-3970
▁musiikki	-3971
▁puoliväl	-3972
▁vuodelta	-3973
▁Ferdinand	-3974
▁Venäjällä	-3975
▁tarkoitetaan	-3976
▁elinympäristö	-3977
▁huomattavasti	-3978
▁virsirunoilija	-3979
12	-3980
75	-3981
dt	-3982
lat	-3983
odi	-3984
olo	-3985
tro	-3986
ynn	-3987
▁35	-3988
▁80	-3989
▁Op	-3990
Aasi	-3991
imin	-3992
isiv	-3993
kasa	-3994
kuva	-3995
kylä	-3996
rien	-3997
▁Ber	-3998
▁Com	-3999
▁Leo	-4000
▁Van	-4001
▁sor	-4002
▁yhä	-4003
isina	-4004
kohta	-4005
oleky	-4006
tivat	-4007
västä	-4008
▁Mich	-4009
▁kard	-4010
▁koul	-4011
▁kyse	-4012
▁Ääni	-4013
allaan	-4014
ksista	-4015
tiikka	-4016
▁Gabri	-4017
▁juuri	-4018
▁laulu	-4019
▁puuta	-4020
ituksen	-4021
▁höyhen	-4022
▁kuului	-4023
▁tavoin	-4024
▁uskonn	-4025
▁pääosin	-4026
▁yhdistä	-4027
▁Helsinki	-4028
▁alueilla	-4029
▁keväällä	-4030
▁molemmat	-4031
▁aiheuttaa	-4032
▁varsinkin	-4033
23	-4034
DR	-4035
py	-4036
-19	-4037
pul	-4038
ump	-4039
▁2,	-4040
arus	-4041
liik	-4042
mäki	-4043
otto	-4044
ttia	-4045
yhky	-4046
ästä	-4047
▁Mad	-4048
▁Sat	-4049
▁Tar	-4050
istuu	-4051
kieli	-4052
▁(194	-4053
▁2004	-4054
▁500-	-4055
▁kasv	-4056
▁lait	-4057
▁löyd	-4058
▁maap	-4059
▁näin	-4060
alueet	-4061
essään	-4062
ivalta	-4063
▁alkua	-4064
▁antoi	-4065
▁ilmes	-4066
▁tehdä	-4067
▁vaike	-4068
elokuva	-4069
ennossa	-4070
▁Anders	-4071
▁Mongol	-4072
▁Pierre	-4073
▁läänin	-4074
▁suuria	-4075
▁maakunn	-4076
▁rehtori	-4077
▁välinen	-4078
amilainen	-4079
▁kuukausi	-4080
▁seuraava	-4081
▁toiminta	-4082
▁ohjelmisto	-4083
▁useimmiten	-4084
▁muodostavat	-4085
99	-4086
AM	-4087
br	-4088
–8	-4089
50-	-4090
are	-4091
koa	-4092
piä	-4093
rah	-4094
sää	-4095
tur	-4096
▁No	-4097
▁kg	-4098
olta	-4099
ques	-4100
reus	-4101
tiön	-4102
voit	-4103
▁Col	-4104
▁Lia	-4105
▁Osa	-4106
▁Wal	-4107
▁avi	-4108
▁ran	-4109
▁set	-4110
asema	-4111
iitta	-4112
ikana	-4113
kedon	-4114
mitta	-4115
naaja	-4116
oille	-4117
ppias	-4118
päivä	-4119
sista	-4120
tavat	-4121
uteri	-4122
vista	-4123
▁2013	-4124
▁Bern	-4125
▁Hong	-4126
▁Tekn	-4127
▁room	-4128
▁täyd	-4129
jelman	-4130
utusta	-4131
▁Maunu	-4132
▁etäis	-4133
▁heinä	-4134
▁huole	-4135
▁kohti	-4136
▁nopea	-4137
▁varha	-4138
▁viher	-4139
eläimet	-4140
istettu	-4141
luvulta	-4142
uolella	-4143
▁Aasian	-4144
▁linnan	-4145
puolelta	-4146
▁Aurinko	-4147
▁asioita	-4148
▁nimensä	-4149
▁perustu	-4150
▁skotlan	-4151
▁sosiaal	-4152
▁suoraan	-4153
▁kielissä	-4154
▁sukupuol	-4155
▁selkärang	-4156
▁kilometriä	-4157
▁ensimmäisenä	-4158
▁suuriruhtinas	-4159
▁kuningaskunnan	-4160
.,	-4161
74	-4162
xi	-4163
▁'	-4164
▁Ö	-4165
gol	-4166
kär	-4167
sel	-4168
siä	-4169
▁Am	-4170
atri	-4171
enin	-4172
enta	-4173
etun	-4174
ikos	-4175
imer	-4176
kand	-4177
mieh	-4178
muod	-4179
uhan	-4180
ukes	-4181
umin	-4182
äkuu	-4183
▁sol	-4184
iinin	-4185
lloin	-4186
raali	-4187
tanto	-4188
▁Egyp	-4189
▁Kata	-4190
▁Tamm	-4191
▁pian	-4192
▁terä	-4193
eminen	-4194
okumen	-4195
▁Pluto	-4196
▁Sverk	-4197
▁Sähkö	-4198
▁Uuden	-4199
▁laula	-4200
▁murto	-4201
▁palaa	-4202
▁päätö	-4203
▁saata	-4204
▁säänn	-4205
utuksen	-4206
▁kesken	-4207
▁kestää	-4208
▁maahan	-4209
▁oikeus	-4210
▁poikas	-4211
▁samaan	-4212
▁tietty	-4213
ellisuus	-4214
▁Fennica	-4215
▁aurinko	-4216
▁elektron	-4217
▁selvästi	-4218
▁ominaisuu	-4219
▁kardinaali	-4220
▁vaaliruhtinas	-4221
Si	-4222
cc	-4223
ju	-4224
tš	-4225
▁{	-4226
▁•	-4227
ish	-4228
jää	-4229
▁26	-4230
▁Az	-4231
▁Em	-4232
▁aj	-4233
ikaa	-4234
imaa	-4235
ivel	-4236
kija	-4237
kone	-4238
laki	-4239
omin	-4240
perä	-4241
tann	-4242
tuun	-4243
ukat	-4244
▁188	-4245
▁Jon	-4246
▁Län	-4247
▁Sis	-4248
▁Tra	-4249
▁hil	-4250
▁kem	-4251
▁tas	-4252
ander	-4253
anner	-4254
ikkia	-4255
telun	-4256
▁(196	-4257
▁Nimi	-4258
▁Saar	-4259
▁asem	-4260
▁atom	-4261
▁haud	-4262
▁perä	-4263
▁posi	-4264
▁pääs	-4265
▁sama	-4266
▁viul	-4267
idässä	-4268
itsija	-4269
kauden	-4270
utunut	-4271
▁Austr	-4272
▁Nokka	-4273
▁kasva	-4274
▁massa	-4275
▁parha	-4276
▁tytär	-4277
Britann	-4278
ikoilla	-4279
kuntaan	-4280
misestä	-4281
▁George	-4282
▁Linnun	-4283
▁Margar	-4284
▁esittä	-4285
▁meteor	-4286
▁päästä	-4287
▁syntyy	-4288
▁vastus	-4289
standard	-4290
utettiin	-4291
▁kuoltua	-4292
▁siirtyi	-4293
▁viihtyy	-4294
hydraatti	-4295
▁poikasia	-4296
▁valtakunta	-4297
▁pesimäkanta	-4298
ly	-4299
▁x	-4300
yvä	-4301
▁3,	-4302
▁Ox	-4303
▁ge	-4304
ikot	-4305
ital	-4306
koko	-4307
teja	-4308
vaik	-4309
vänä	-4310
östä	-4311
▁Mal	-4312
▁kot	-4313
▁pet	-4314
anhar	-4315
okana	-4316
tyeen	-4317
ustan	-4318
▁1980	-4319
▁2006	-4320
▁raha	-4321
▁raja	-4322
▁usea	-4323
▁valo	-4324
altija	-4325
imatta	-4326
isissä	-4327
ustaja	-4328
▁1960-	-4329
▁Fried	-4330
▁Peter	-4331
▁erill	-4332
▁lajin	-4333
▁liike	-4334
▁lämpö	-4335
▁pesän	-4336
▁samma	-4337
▁taite	-4338
ikeuden	-4339
ikoissa	-4340
uksista	-4341
▁kasvat	-4342
▁täysin	-4343
▁Antonio	-4344
▁esittää	-4345
▁harvoin	-4346
▁jaetaan	-4347
▁kehitti	-4348
▁Sendmail	-4349
▁hautovat	-4350
▁huolehti	-4351
▁paaviksi	-4352
▁presiden	-4353
▁toiminut	-4354
▁kirjoitta	-4355
▁ainoastaan	-4356
▁keisariksi	-4357
▁Neuvostoliiton	-4358
76	-4359
if	-4360
gel	-4361
lad	-4362
mag	-4363
mme	-4364
reä	-4365
ski	-4366
uma	-4367
upp	-4368
▁22	-4369
▁4,	-4370
▁Sä	-4371
eena	-4372
hard	-4373
kkik	-4374
onso	-4375
siir	-4376
tole	-4377
▁Luo	-4378
▁Mil	-4379
▁Tär	-4380
▁laj	-4381
▁läp	-4382
emies	-4383
hakin	-4384
jasto	-4385
menet	-4386
pöllö	-4387
villä	-4388
▁Karl	-4389
▁Otto	-4390
▁alki	-4391
▁pään	-4392
▁tila	-4393
▁usko	-4394
▁vier	-4395
illeen	-4396
istäjä	-4397
pääsky	-4398
vallat	-4399
valtio	-4400
yhteis	-4401
▁David	-4402
▁Ennen	-4403
▁Olavi	-4404
▁Puola	-4405
▁edell	-4406
▁matka	-4407
▁viisi	-4408
attomia	-4409
iläinen	-4410
ineiden	-4411
istinus	-4412
misesta	-4413
▁Toinen	-4414
▁alusta	-4415
▁johtaa	-4416
▁saivat	-4417
▁valkea	-4418
iversity	-4419
▁Gabriel	-4420
▁ammatti	-4421
▁lähetys	-4422
▁nimetty	-4423
▁seurasi	-4424
▁Itämeren	-4425
▁Kaakkois	-4426
▁Molemmat	-4427
▁henkilöt	-4428
▁kannatta	-4429
▁kielessä	-4430
▁englannin	-4431
▁laivaston	-4432
▁nimitystä	-4433
▁varpuslintu	-4434
AS	-4435
Ca	-4436
Na	-4437
bb	-4438
hm	-4439
pl	-4440
ind	-4441
iro	-4442
lim	-4443
lön	-4444
med	-4445
rak	-4446
ulg	-4447
ves	-4448
▁(,	-4449
▁SL	-4450
▁St	-4451
▁Tš	-4452
▁yö	-4453
akir	-4454
alat	-4455
alit	-4456
idae	-4457
irin	-4458
isan	-4459
lahd	-4460
opus	-4461
tihe	-4462
tyks	-4463
äkkä	-4464
▁Fin	-4465
▁Stu	-4466
▁Tyy	-4467
▁hap	-4468
iassa	-4469
kaani	-4470
risto	-4471
teena	-4472
tista	-4473
unnan	-4474
▁Näin	-4475
▁Taiw	-4476
▁alla	-4477
▁istu	-4478
▁menn	-4479
▁rinn	-4480
▁sala	-4481
▁solm	-4482
▁spek	-4483
▁urhe	-4484
eisiin	-4485
entius	-4486
osassa	-4487
▁Afrik	-4488
▁Gusta	-4489
▁Lintu	-4490
▁hevos	-4491
▁vaati	-4492
▁vaihe	-4493
aikoina	-4494
ernööri	-4495
isaalta	-4496
oittaja	-4497
▁Espanj	-4498
▁Suuren	-4499
▁käskyn	-4500
▁matala	-4501
▁pienen	-4502
▁seurak	-4503
▁tiedon	-4504
▁Frances	-4505
▁keksijä	-4506
▁asukasta	-4507
▁helposti	-4508
▁laivasto	-4509
▁punainen	-4510
▁rakennus	-4511
▁siemeniä	-4512
▁tapahtum	-4513
▁julkaistu	-4514
▁lämpötila	-4515
▁marsalkka	-4516
▁toukokuun	-4517
▁vallankum	-4518
▁henkilöitä	-4519
▁huolimatta	-4520
64	-4521
95	-4522
Hz	-4523
IM	-4524
ets	-4525
juh	-4526
tsi	-4527
vär	-4528
ysa	-4529
öin	-4530
▁Fa	-4531
▁My	-4532
▁Ri	-4533
▁We	-4534
▁Yr	-4535
▁ry	-4536
HTML	-4537
abet	-4538
asol	-4539
jaks	-4540
okas	-4541
okra	-4542
ppiä	-4543
radi	-4544
tero	-4545
tias	-4546
▁120	-4547
▁146	-4548
▁Aik	-4549
▁Alk	-4550
▁Las	-4551
▁Lon	-4552
▁Nov	-4553
▁jäi	-4554
▁mod	-4555
▁oik	-4556
▁org	-4557
▁ryö	-4558
▁ser	-4559
eista	-4560
imeis	-4561
innyt	-4562
jalka	-4563
oglob	-4564
ttiin	-4565
uissa	-4566
ville	-4567
yttää	-4568
▁2012	-4569
▁Hann	-4570
▁Sten	-4571
▁Viip	-4572
▁ensi	-4573
▁juur	-4574
▁kuiv	-4575
▁prot	-4576
estään	-4577
istaja	-4578
tional	-4579
▁sovel	-4580
ihaukka	-4581
ikuussa	-4582
intavat	-4583
▁Kaikki	-4584
▁Tavall	-4585
▁Vaasan	-4586
▁heidän	-4587
▁herttu	-4588
▁hollan	-4589
▁liikke	-4590
▁ohella	-4591
▁siivet	-4592
▁suunta	-4593
▁tumman	-4594
▁versio	-4595
▁välttä	-4596
▁tavalla	-4597
▁Auringon	-4598
▁valmistu	-4599
Amerikassa	-4600
▁muodostaa	-4601
▁naimisiin	-4602
▁seitsemän	-4603
lantilainen	-4604
▁kesäkuussa	-4605
▁Presidentti	-4606
▁mahdollista	-4607
▁sijaitsevat	-4608
▁flaamilainen	-4609
7:	-4610
Ro	-4611
TV	-4612
VD	-4613
ld	-4614
30-	-4615
bas	-4616
fel	-4617
het	-4618
keh	-4619
ost	-4620
set	-4621
syk	-4622
til	-4623
vih	-4624
▁Af	-4625
▁CD	-4626
▁IB	-4627
▁ch	-4628
▁my	-4629
▁pr	-4630
aara	-4631
ator	-4632
intä	-4633
kinn	-4634
noin	-4635
okon	-4636
opuh	-4637
tolo	-4638
ukyp	-4639
ward	-4640
▁Mor	-4641
▁Ruo	-4642
▁kyt	-4643
▁syy	-4644
itiin	-4645
ittää	-4646
uusta	-4647
ymbol	-4648
▁2008	-4649
▁Elis	-4650
▁Nämä	-4651
▁ansi	-4652
▁hiir	-4653
▁levy	-4654
▁luov	-4655
▁mall	-4656
▁meri	-4657
▁niem	-4658
▁radi	-4659
▁riit	-4660
▁seka	-4661
▁tull	-4662
andaal	-4663
joista	-4664
▁XHTML	-4665
▁hämäh	-4666
▁häntä	-4667
▁jakaa	-4668
▁matal	-4669
▁mesta	-4670
▁mikro	-4671
▁pikku	-4672
▁vähän	-4673
emoglob	-4674
televat	-4675
▁Intian	-4676
▁Samuel	-4677
▁Väestö	-4678
▁kertoo	-4679
▁luosta	-4680
▁mongol	-4681
▁teksti	-4682
▁tietoa	-4683
järjestö	-4684
▁kehitys	-4685
▁käskynh	-4686
▁lähetti	-4687
immillaan	-4688
▁etäisyys	-4689
▁luettelo	-4690
▁otettiin	-4691
▁rakentaa	-4692
▁suosittu	-4693
▁vuodessa	-4694
päästäinen	-4695
▁osallistu	-4696
▁käytännössä	-4697
//	-4698
26	-4699
56	-4700
9:	-4701
ark	-4702
aus	-4703
eem	-4704
ekk	-4705
eks	-4706
iki	-4707
ttö	-4708
udd	-4709
▁(”	-4710
▁Fo	-4711
elli	-4712
inut	-4713
lass	-4714
oina	-4715
pitä	-4716
suom	-4717
tapa	-4718
▁Ala	-4719
▁Pir	-4720
▁Ven	-4721
▁hav	-4722
▁luv	-4723
▁mak	-4724
▁myr	-4725
▁nil	-4726
▁raa	-4727
anssi	-4728
maton	-4729
täviä	-4730
uutin	-4731
▁2001	-4732
▁Bran	-4733
▁Erit	-4734
▁Kesä	-4735
▁Tätä	-4736
▁Zhou	-4737
▁amer	-4738
▁kein	-4739
▁kirk	-4740
▁milj	-4741
▁neut	-4742
▁pari	-4743
▁pell	-4744
▁reak	-4745
▁upse	-4746
altaan	-4747
burgin	-4748
empien	-4749
ikkaan	-4750
ikkoja	-4751
intoja	-4752
teista	-4753
telija	-4754
varuus	-4755
▁Lassi	-4756
▁Theod	-4757
▁lisää	-4758
▁saada	-4759
▁sarja	-4760
isimmin	-4761
misalue	-4762
▁ilmais	-4763
▁kauppa	-4764
▁kieltä	-4765
▁kolmen	-4766
▁kunnes	-4767
▁muissa	-4768
▁naapur	-4769
▁opetta	-4770
▁pallon	-4771
▁taloud	-4772
▁tausta	-4773
▁verran	-4774
▁yksity	-4775
▁kuvanve	-4776
▁osoitta	-4777
▁silloin	-4778
▁sulkasa	-4779
▁tehtiin	-4780
▁Indonesi	-4781
▁hallitus	-4782
▁kansanta	-4783
▁yhteensä	-4784
▁Gregorius	-4785
▁maakunnan	-4786
▁muuttavat	-4787
▁luokiteltu	-4788
▁määritelty	-4789
▁heinäkuussa	-4790
▁kiinalainen	-4791
▁pohjoisessa	-4792
▁maailmansodan	-4793
18	-4794
3-	-4795
OM	-4796
SE	-4797
cy	-4798
no	-4799
uz	-4800
car	-4801
dus	-4802
ico	-4803
int	-4804
ool	-4805
por	-4806
pyl	-4807
syö	-4808
tha	-4809
yli	-4810
▁Jä	-4811
ennä	-4812
ford	-4813
isar	-4814
jeja	-4815
minä	-4816
otit	-4817
tuur	-4818
udio	-4819
uhta	-4820
ulus	-4821
▁Eri	-4822
▁Lar	-4823
▁hui	-4824
▁muo	-4825
▁nis	-4826
▁paj	-4827
▁sal	-4828
hoita	-4829
ianus	-4830
igita	-4831
innon	-4832
ksiin	-4833
radio	-4834
ruske	-4835
tteja	-4836
▁Kolm	-4837
▁Liik	-4838
▁Room	-4839
▁jako	-4840
▁kylä	-4841
▁leve	-4842
aminen	-4843
ettuan	-4844
ishall	-4845
läiset	-4846
maalla	-4847
merkit	-4848
▁Jiang	-4849
▁Selkä	-4850
▁arvos	-4851
▁kreiv	-4852
▁rinta	-4853
▁ryhmä	-4854
dennäkö	-4855
isyyden	-4856
kilomet	-4857
ohjelma	-4858
uudesta	-4859
▁joukon	-4860
▁kierto	-4861
▁runsas	-4862
Euroopan	-4863
kirvinen	-4864
puolelle	-4865
▁Lapissa	-4866
▁Persian	-4867
▁harjoit	-4868
▁lopulta	-4869
▁rakenta	-4870
syntyinen	-4871
▁Moskovan	-4872
▁kymmenen	-4873
▁poikaset	-4874
▁kirjoitus	-4875
▁käyttävät	-4876
▁lasketaan	-4877
▁muodostuu	-4878
▁musiikkia	-4879
▁kappaletta	-4880
▁valtasivat	-4881
▁vuosittain	-4882
▁populaation	-4883
▁kuvanveistäjä	-4884
▁käskynhaltija	-4885
CA	-4886
NT	-4887
hr	-4888
...	-4889
ble	-4890
esu	-4891
gan	-4892
lus	-4893
rek	-4894
tri	-4895
ude	-4896
ung	-4897
urn	-4898
▁1/	-4899
▁Rä	-4900
erik	-4901
evät	-4902
leen	-4903
uoll	-4904
uraa	-4905
▁147	-4906
▁IBM	-4907
▁Nok	-4908
▁Sof	-4909
▁Tuk	-4910
▁aut	-4911
▁lau	-4912
angas	-4913
astas	-4914
kansa	-4915
koulu	-4916
missa	-4917
oitin	-4918
okone	-4919
opeus	-4920
paino	-4921
ähkin	-4922
▁2002	-4923
▁2005	-4924
▁2011	-4925
▁morf	-4926
▁reun	-4927
▁seud	-4928
▁sääd	-4929
▁teho	-4930
▁viet	-4931
alintu	-4932
erusal	-4933
▁Henry	-4934
▁Orion	-4935
▁Phili	-4936
▁alkun	-4937
▁harma	-4938
▁hovio	-4939
▁jotta	-4940
▁löytö	-4941
▁monet	-4942
▁pesim	-4943
▁taaja	-4944
▁valke	-4945
▁ääret	-4946
istisen	-4947
isuudet	-4948
laisten	-4949
tokolla	-4950
yöhykke	-4951
▁Gustaf	-4952
▁Haakon	-4953
▁Itämer	-4954
▁kolmas	-4955
▁metriä	-4956
▁muisti	-4957
▁puisto	-4958
▁puutar	-4959
▁tiedos	-4960
▁virtaa	-4961
ialainen	-4962
isuuteen	-4963
kunnissa	-4964
▁Jerusal	-4965
▁Muninta	-4966
▁entinen	-4967
▁hämähäk	-4968
▁järjest	-4969
▁viestin	-4970
▁Elisabet	-4971
▁järjestö	-4972
▁käytettä	-4973
▁Francesco	-4974
▁Pohjoinen	-4975
▁kirjoitti	-4976
▁lentokyky	-4977
▁runsaasti	-4978
▁näyttelijä	-4979
▁sijaitseva	-4980
▁Ahvenanmaan	-4981
▁ensimmäiset	-4982
16	-4983
25	-4984
gl	-4985
hon	-4986
lyh	-4987
län	-4988
mur	-4989
une	-4990
▁Ga	-4991
▁XV	-4992
ikku	-4993
ival	-4994
koja	-4995
leri	-4996
meen	-4997
mpaa	-4998
tune	-4999
ukot	-5000
▁187	-5001
▁Gen	-5002
▁MHz	-5003
▁Pan	-5004
▁jum	-5005
▁log	-5006
▁tro	-5007
▁vrk	-5008
irenz	-5009
kista	-5010
mättä	-5011
mättö	-5012
nteis	-5013
onsor	-5014
rattu	-5015
▁Alue	-5016
▁Auto	-5017
▁Lähi	-5018
▁Niko	-5019
▁Qing	-5020
▁Star	-5021
▁Uusi	-5022
▁jaks	-5023
▁kaar	-5024
▁puut	-5025
▁viir	-5026
attori	-5027
okseen	-5028
▁1970-	-5029
▁Erity	-5030
▁Islan	-5031
▁Kirja	-5032
▁Munia	-5033
▁Ornis	-5034
▁Vuosi	-5035
▁antaa	-5036
▁kansa	-5037
▁numer	-5038
▁onkin	-5039
▁paken	-5040
▁tilas	-5041
▁tilav	-5042
▁vaihd	-5043
ilaiset	-5044
unpoika	-5045
▁Harald	-5046
▁Klemen	-5047
▁Pertti	-5048
▁laitte	-5049
▁määrää	-5050
▁nilviä	-5051
▁palasi	-5052
▁syövät	-5053
▁yhdist	-5054
▁kesällä	-5055
▁länsima	-5056
▁marjoja	-5057
▁ohjelma	-5058
▁oppivat	-5059
▁pidetty	-5060
▁taivaan	-5061
▁valtasi	-5062
▁Nykyisin	-5063
▁etelässä	-5064
▁matemati	-5065
▁matkusta	-5066
▁tietokon	-5067
▁vanhempi	-5068
▁kruunattiin	-5069
▁kirjoitetaan	-5070
▁)	-5071
▁Å	-5072
Yhd	-5073
der	-5074
dor	-5075
ote	-5076
pil	-5077
ree	-5078
umb	-5079
ure	-5080
ved	-5081
zin	-5082
▁28	-5083
Venä	-5084
anna	-5085
arli	-5086
elim	-5087
ihar	-5088
ikar	-5089
iman	-5090
inty	-5091
olin	-5092
puku	-5093
tena	-5094
utua	-5095
▁145	-5096
▁Kio	-5097
▁Lyn	-5098
▁Nil	-5099
▁Pas	-5100
▁Ros	-5101
▁Tel	-5102
▁ent	-5103
▁ong	-5104
enssi	-5105
ppale	-5106
vistä	-5107
öllön	-5108
▁1981	-5109
▁Inti	-5110
▁Vall	-5111
▁kron	-5112
▁kuor	-5113
▁kuus	-5114
▁ohje	-5115
▁poli	-5116
▁pyyd	-5117
▁tund	-5118
eltiin	-5119
ikunta	-5120
isillä	-5121
kielen	-5122
kinnon	-5123
tronom	-5124
▁Tiina	-5125
▁jyrsi	-5126
▁lajia	-5127
▁pyrit	-5128
▁ruokk	-5129
▁suunn	-5130
▁viita	-5131
reussin	-5132
yksiköt	-5133
▁Ranska	-5134
▁isänsä	-5135
▁kapina	-5136
▁läheis	-5137
▁puheen	-5138
▁samana	-5139
▁vasemm	-5140
Kiinassa	-5141
esuiitta	-5142
kakuussa	-5143
▁Klemens	-5144
▁Yleensä	-5145
▁korkein	-5146
▁liittyy	-5147
▁sveitsi	-5148
▁tekniik	-5149
▁ansiosta	-5150
▁kuoleman	-5151
▁opiskeli	-5152
▁syntynyt	-5153
▁viulisti	-5154
▁Myöhemmin	-5155
▁kuninkaat	-5156
▁paikallis	-5157
▁vaikuttaa	-5158
▁hyönteiset	-5159
▁kaupunkiin	-5160
▁rannikolla	-5161
▁vallitseva	-5162
▁rakennettiin	-5163
-4	-5164
17	-5165
36	-5166
46	-5167
gun	-5168
opi	-5169
str	-5170
tee	-5171
uli	-5172
ulo	-5173
uss	-5174
▁45	-5175
▁Di	-5176
▁su	-5177
allo	-5178
etut	-5179
ihto	-5180
ilee	-5181
keja	-5182
kesk	-5183
mina	-5184
tein	-5185
vani	-5186
vyys	-5187
▁131	-5188
▁Bro	-5189
▁Böö	-5190
▁Jot	-5191
▁Kyl	-5192
▁Lor	-5193
▁Mel	-5194
▁Puh	-5195
▁XIV	-5196
▁onn	-5197
emman	-5198
htava	-5199
iitty	-5200
juova	-5201
keitä	-5202
ppiin	-5203
torin	-5204
▁(195	-5205
▁Data	-5206
▁Hard	-5207
▁Stan	-5208
▁Yrjö	-5209
▁gala	-5210
▁lehd	-5211
▁luod	-5212
▁maat	-5213
▁meni	-5214
▁piil	-5215
▁puhe	-5216
▁tien	-5217
▁vähä	-5218
▁väit	-5219
isteen	-5220
nettom	-5221
sirkku	-5222
tanssi	-5223
virran	-5224
▁2000-	-5225
▁kulta	-5226
▁lähtö	-5227
▁sille	-5228
▁tulos	-5229
▁ympyr	-5230
isiippa	-5231
tisesti	-5232
▁Kaupun	-5233
▁Martin	-5234
▁Toisin	-5235
▁Venäjä	-5236
▁aluksi	-5237
▁lähtee	-5238
▁muutti	-5239
▁painaa	-5240
▁prefek	-5241
▁romaan	-5242
▁synnyt	-5243
▁tapaan	-5244
▁tavoit	-5245
▁turkki	-5246
▁valmis	-5247
▁viljel	-5248
▁Richard	-5249
▁Välimer	-5250
▁Yhdisty	-5251
▁ruumiin	-5252
▁tavattu	-5253
▁väestön	-5254
alaisessa	-5255
▁Ulkonäkö	-5256
▁merkitys	-5257
▁säännöll	-5258
▁Francisco	-5259
▁jesuiitta	-5260
▁lentämään	-5261
▁määritelm	-5262
▁todennäkö	-5263
uterilainen	-5264
▁mukaisesti	-5265
▁vapaaherra	-5266
▁aikaisemmin	-5267
▁huhtikuussa	-5268
▁talvehtivat	-5269
▁hovioikeuden	-5270
▁kansainvälinen	-5271
-2	-5272
IF	-5273
▁Š	-5274
▁š	-5275
▁−	-5276
://	-5277
Tur	-5278
ach	-5279
bul	-5280
lop	-5281
lor	-5282
räk	-5283
ttp	-5284
wig	-5285
▁70	-5286
▁mä	-5287
akas	-5288
anhi	-5289
ebab	-5290
imio	-5291
ipar	-5292
itar	-5293
ivin	-5294
lian	-5295
mpia	-5296
okki	-5297
okum	-5298
olas	-5299
pain	-5300
todo	-5301
tona	-5302
useo	-5303
usir	-5304
uusi	-5305
▁122	-5306
▁139	-5307
▁CMa	-5308
▁Gro	-5309
▁Inn	-5310
▁Jän	-5311
▁Lie	-5312
▁Nim	-5313
▁Nob	-5314
▁Red	-5315
▁Web	-5316
▁Ylä	-5317
▁isä	-5318
ipuol	-5319
lahti	-5320
mästä	-5321
piste	-5322
tella	-5323
tissa	-5324
tonin	-5325
täjät	-5326
uttua	-5327
vaksi	-5328
ykset	-5329
▁Euro	-5330
▁Nike	-5331
▁Sing	-5332
▁Tyyn	-5333
▁kemi	-5334
▁omaa	-5335
▁sula	-5336
▁tuki	-5337
▁tätä	-5338
▁vaat	-5339
▁väri	-5340
alismi	-5341
isempi	-5342
ittaja	-5343
kimies	-5344
ksissa	-5345
saaren	-5346
▁North	-5347
▁Tästä	-5348
▁album	-5349
▁human	-5350
▁koste	-5351
▁munia	-5352
▁riste	-5353
▁sukua	-5354
▁yhtye	-5355
kuntien	-5356
ravinto	-5357
teisiin	-5358
▁Elävät	-5359
▁Ohjelm	-5360
▁daimio	-5361
▁elämän	-5362
▁kaiken	-5363
▁keskia	-5364
▁merkin	-5365
▁neljän	-5366
▁niissä	-5367
▁pienin	-5368
▁ulottu	-5369
alaiseen	-5370
allisten	-5371
kuningas	-5372
▁Jacques	-5373
▁Varsina	-5374
▁julisti	-5375
▁kehitty	-5376
▁lopussa	-5377
▁pesänsä	-5378
isuudesta	-5379
kerttunen	-5380
tekniikka	-5381
▁kauppias	-5382
▁keisarit	-5383
▁levinnyt	-5384
▁nuorempi	-5385
▁talvella	-5386
▁perustivat	-5387
▁neliökilomet	-5388
▁Muuttoaikoina	-5389
▁mahdollisesti	-5390
▁tyypillisesti	-5391
ct	-5392
▁—	-5393
ass	-5394
bor	-5395
can	-5396
che	-5397
com	-5398
les	-5399
oph	-5400
ova	-5401
que	-5402
uke	-5403
▁Sm	-5404
▁bi	-5405
▁co	-5406
▁py	-5407
arit	-5408
erit	-5409
kans	-5410
lait	-5411
puhd	-5412
rata	-5413
sisi	-5414
taus	-5415
työn	-5416
yriä	-5417
–198	-5418
▁Ann	-5419
▁Cal	-5420
▁Hal	-5421
▁Kap	-5422
▁Muu	-5423
▁SLY	-5424
▁Sor	-5425
▁Top	-5426
▁War	-5427
▁Win	-5428
▁juh	-5429
alaji	-5430
eläin	-5431
immin	-5432
jista	-5433
kissa	-5434
lasku	-5435
mansa	-5436
missä	-5437
tonsa	-5438
tyypp	-5439
ukkas	-5440
uotta	-5441
utoim	-5442
▁(197	-5443
▁1985	-5444
▁Helm	-5445
▁Mand	-5446
▁Mona	-5447
▁Muut	-5448
▁Tunn	-5449
▁Tuom	-5450
▁ehkä	-5451
▁koiv	-5452
▁koke	-5453
▁laki	-5454
▁mies	-5455
▁pohj	-5456
▁puhu	-5457
▁sito	-5458
iainen	-5459
illään	-5460
imuoto	-5461
▁1700-	-5462
▁Antti	-5463
▁Innoc	-5464
▁Kasti	-5465
▁Knuut	-5466
▁Mantš	-5467
▁Matti	-5468
▁World	-5469
▁ettei	-5470
▁johtu	-5471
▁kaula	-5472
▁lista	-5473
▁lähti	-5474
▁media	-5475
▁naara	-5476
▁osana	-5477
▁reaal	-5478
▁talon	-5479
▁tosin	-5480
ellista	-5481
immista	-5482
olliset	-5483
ttemmin	-5484
▁Pesimä	-5485
▁Vaikka	-5486
▁Valdem	-5487
▁aineen	-5488
▁aktiiv	-5489
▁enimmä	-5490
▁kannan	-5491
▁kokoon	-5492
▁kolman	-5493
▁näyttä	-5494
▁rauhan	-5495
▁ulkoma	-5496
alaisuus	-5497
metsissä	-5498
▁Antipat	-5499
▁Nykyään	-5500
▁latinan	-5501
▁sisällä	-5502
▁yksittä	-5503
▁Keväällä	-5504
▁Viipurin	-5505
▁alettiin	-5506
▁johdolla	-5507
▁muodossa	-5508
▁sanotaan	-5509
▁voimakas	-5510
▁Friedrich	-5511
▁aikakausi	-5512
▁keltainen	-5513
▁puolustus	-5514
▁University	-5515
▁Innocentius	-5516
▁ensimmäistä	-5517
▁valloittivat	-5518
AC	-5519
DP	-5520
ET	-5521
RC	-5522
ag	-5523
yb	-5524
ón	-5525
emb	-5526
hde	-5527
jiä	-5528
lip	-5529
oha	-5530
ono	-5531
pid	-5532
umi	-5533
ölj	-5534
▁Bl	-5535
▁SA	-5536
aksi	-5537
beri	-5538
etin	-5539
hiir	-5540
idit	-5541
kong	-5542
lain	-5543
sota	-5544
teks	-5545
ukas	-5546
uuna	-5547
vian	-5548
vina	-5549
▁Bel	-5550
▁Ini	-5551
▁Väh	-5552
▁eks	-5553
▁häv	-5554
▁kuo	-5555
▁mor	-5556
arian	-5557
eetan	-5558
entin	-5559
immät	-5560
kimus	-5561
käsit	-5562
silla	-5563
teily	-5564
yillä	-5565
▁Leon	-5566
▁alta	-5567
▁ilme	-5568
▁juon	-5569
▁neuv	-5570
▁rock	-5571
gootit	-5572
ilpail	-5573
imassa	-5574
ottien	-5575
teesta	-5576
tolema	-5577
yksikö	-5578
▁kerro	-5579
▁kiinn	-5580
▁kuori	-5581
▁monen	-5582
▁sanan	-5583
elliset	-5584
teeseen	-5585
uolloin	-5586
vattiin	-5587
▁Hollan	-5588
▁Michel	-5589
▁Novgor	-5590
▁harras	-5591
▁jaettu	-5592
▁moleky	-5593
▁muihin	-5594
▁muista	-5595
▁nuoret	-5596
▁näiden	-5597
▁päällä	-5598
▁päässä	-5599
▁saavat	-5600
▁siellä	-5601
jalainen	-5602
oitetaan	-5603
▁Itäinen	-5604
▁Kanadan	-5605
▁Makedon	-5606
▁Ptolema	-5607
▁Työväen	-5608
▁kukisti	-5609
▁tuottaa	-5610
▁viimeis	-5611
▁alkoivat	-5612
▁musiikin	-5613
▁pelastus	-5614
▁sijaitsi	-5615
▁Christian	-5616
▁nimeltään	-5617
▁sittemmin	-5618
▁virallinen	-5619
▁Ensimmäiset	-5620
▁enimmäkseen	-5621
▁seurauksena	-5622
▁pohjoisosissa	-5623
▁skotlantilainen	-5624
54	-5625
gg	-5626
hä	-5627
lit	-5628
ner	-5629
uch	-5630
▁(3	-5631
▁29	-5632
▁37	-5633
▁Ex	-5634
▁ca	-5635
▁lu	-5636
▁ns	-5637
ilyn	-5638
iter	-5639
kaup	-5640
käyn	-5641
osia	-5642
siiv	-5643
umet	-5644
unsa	-5645
vuus	-5646
vään	-5647
▁().	-5648
▁Alb	-5649
▁Raa	-5650
▁erä	-5651
▁kri	-5652
▁mol	-5653
▁nyt	-5654
▁sub	-5655
▁sum	-5656
▁sär	-5657
eistä	-5658
jekti	-5659
kkönä	-5660
koski	-5661
llöin	-5662
pakka	-5663
tellä	-5664
tiste	-5665
uudet	-5666
▁000.	-5667
▁1999	-5668
▁Juan	-5669
▁Suku	-5670
▁anal	-5671
▁funk	-5672
▁hope	-5673
▁joul	-5674
▁jälj	-5675
▁kaas	-5676
▁kaat	-5677
▁kata	-5678
▁lämm	-5679
▁samm	-5680
▁vetä	-5681
alista	-5682
ikseen	-5683
imäärä	-5684
istiin	-5685
istill	-5686
joissa	-5687
oinnin	-5688
soitti	-5689
uvussa	-5690
vuotia	-5691
▁Aleks	-5692
▁Kiina	-5693
▁Nuori	-5694
▁Sillä	-5695
▁Viime	-5696
▁kilpa	-5697
▁kysym	-5698
▁palat	-5699
▁signa	-5700
▁tähän	-5701
▁ääntä	-5702
kandina	-5703
ukselle	-5704
usiikki	-5705
▁Firenz	-5706
▁Joseph	-5707
▁Pyrstö	-5708
▁kirkka	-5709
▁muuten	-5710
▁puolet	-5711
▁päätti	-5712
▁sovell	-5713
▁toista	-5714
anharmaa	-5715
kielessä	-5716
▁Alfonso	-5717
▁Tampere	-5718
▁erikois	-5719
▁kielten	-5720
▁koskaan	-5721
▁unionin	-5722
▁Punaisen	-5723
▁hyönteis	-5724
▁kalenter	-5725
▁mennessä	-5726
▁puhutaan	-5727
▁puolella	-5728
▁puolueen	-5729
▁sanoista	-5730
▁toimivat	-5731
▁vaikutus	-5732
▁pidettiin	-5733
▁ruokkivat	-5734
▁valkoiset	-5735
▁liitettiin	-5736
▁merkittävä	-5737
▁perustettu	-5738
▁pormestari	-5739
▁rakennettu	-5740
▁tasavallan	-5741
▁teollisuus	-5742
▁yliopiston	-5743
▁Alankomaiden	-5744
▁ravinnokseen	-5745
▁voimakkaasti	-5746
▁suhteellisuus	-5747
-8	-5748
3:	-5749
48	-5750
6:	-5751
82	-5752
MS	-5753
ds	-5754
ws	-5755
esa	-5756
ihi	-5757
inc	-5758
kii	-5759
oto	-5760
put	-5761
sch	-5762
▁%)	-5763
▁5,	-5764
▁af	-5765
ehyd	-5766
ical	-5767
iriö	-5768
kelä	-5769
kkää	-5770
lien	-5771
läis	-5772
opin	-5773
uddh	-5774
unan	-5775
voja	-5776
ylän	-5777
ynam	-5778
ynyt	-5779
▁127	-5780
▁400	-5781
▁Gra	-5782
▁Men	-5783
▁Nap	-5784
▁Paa	-5785
▁Ren	-5786
▁Wes	-5787
▁lyö	-5788
▁pih	-5789
▁sup	-5790
alvel	-5791
empää	-5792
ilian	-5793
iraan	-5794
jojen	-5795
neksi	-5796
sarja	-5797
tason	-5798
telev	-5799
virad	-5800
▁2019	-5801
▁Haud	-5802
▁Saks	-5803
▁Sata	-5804
▁fran	-5805
▁heik	-5806
▁http	-5807
▁kats	-5808
▁piti	-5809
▁touk	-5810
▁vang	-5811
▁ydin	-5812
entaja	-5813
estiva	-5814
maiden	-5815
tamaan	-5816
viikko	-5817
yttiin	-5818
▁Augus	-5819
▁Medic	-5820
▁Pekka	-5821
▁Pelto	-5822
▁Rauta	-5823
▁Tansk	-5824
▁aakko	-5825
▁ensin	-5826
▁hoita	-5827
▁laaja	-5828
▁mantš	-5829
▁metri	-5830
▁teoll	-5831
▁yhtiö	-5832
attavat	-5833
eläimiä	-5834
hoitaja	-5835
▁Böömin	-5836
▁Rovani	-5837
▁edeltä	-5838
▁huomio	-5839
▁manter	-5840
▁merkit	-5841
▁metsäs	-5842
▁olevat	-5843
▁pienet	-5844
▁saapuu	-5845
▁talven	-5846
▁tullut	-5847
▁urheil	-5848
▁yritys	-5849
Amerikan	-5850
alueella	-5851
entiomet	-5852
▁Tyypill	-5853
▁Valtion	-5854
▁jälleen	-5855
▁miljard	-5856
▁organis	-5857
▁punarus	-5858
▁ratkais	-5859
▁suositu	-5860
▁tahansa	-5861
▁tilasto	-5862
▁toisiin	-5863
▁tällöin	-5864
▁yksilöt	-5865
▁yleisty	-5866
▁Irlannin	-5867
▁arvioitu	-5868
▁elokuvat	-5869
▁ilmestyi	-5870
▁ilmoitti	-5871
▁kutsuttu	-5872
▁käytöstä	-5873
▁oikeuden	-5874
▁peräisin	-5875
▁siemenet	-5876
▁tapahtui	-5877
▁vakiintu	-5878
lokakuussa	-5879
▁Japanissa	-5880
▁Kansallis	-5881
▁merkitään	-5882
▁suurimman	-5883
▁tasavalta	-5884
▁kansantasa	-5885
▁Jerusalemin	-5886
▁Maununpoika	-5887
▁rauhoitettu	-5888
▁luterilainen	-5889
▁suhteellisen	-5890
Li	-5891
The	-5892
dia	-5893
duk	-5894
evy	-5895
evä	-5896
hal	-5897
hko	-5898
itu	-5899
kad	-5900
lem	-5901
lta	-5902
mah	-5903
off	-5904
piö	-5905
tol	-5906
uru	-5907
voi	-5908
▁90	-5909
▁ot	-5910
este	-5911
ikul	-5912
ikuu	-5913
irty	-5914
jala	-5915
ppaa	-5916
tina	-5917
töjä	-5918
ugen	-5919
usti	-5920
ytyy	-5921
–196	-5922
▁116	-5923
▁130	-5924
▁Art	-5925
▁Asi	-5926
▁Bal	-5927
▁Jor	-5928
▁Len	-5929
▁Meh	-5930
▁Pho	-5931
▁Pop	-5932
▁Vik	-5933
▁Vol	-5934
▁aiv	-5935
▁etn	-5936
▁het	-5937
▁jne	-5938
▁lit	-5939
▁loh	-5940
▁tuh	-5941
arius	-5942
eksän	-5943
ennys	-5944
erian	-5945
itsev	-5946
jansa	-5947
kalta	-5948
korke	-5949
lamen	-5950
muuto	-5951
ostaa	-5952
ostin	-5953
sonin	-5954
teenä	-5955
tyvät	-5956
tänyt	-5957
uessa	-5958
unais	-5959
uulta	-5960
yyttä	-5961
ääpiö	-5962
▁(201	-5963
▁2015	-5964
▁Alex	-5965
▁Brit	-5966
▁Lapp	-5967
▁Liao	-5968
▁Sosi	-5969
▁Sven	-5970
▁Tila	-5971
▁Vaal	-5972
▁Vlad	-5973
▁heng	-5974
▁hita	-5975
▁kali	-5976
▁käyd	-5977
▁luop	-5978
▁pyör	-5979
▁saam	-5980
▁teos	-5981
▁tähd	-5982
alleen	-5983
ipöllö	-5984
kielet	-5985
kosken	-5986
tekijä	-5987
▁Karhu	-5988
▁Kruun	-5989
▁Oulun	-5990
▁Usein	-5991
▁jatko	-5992
▁kaava	-5993
▁karko	-5994
▁liian	-5995
▁nimet	-5996
▁osuus	-5997
▁pelkä	-5998
▁siipi	-5999
▁viera	-6000
ekister	-6001
igitaal	-6002
itellen	-6003
ityksiä	-6004
lukujen	-6005
utuivat	-6006
▁Birger	-6007
▁Canter	-6008
▁Korkea	-6009
▁Magnus	-6010
▁Martti	-6011
▁Suurin	-6012
▁laskea	-6013
▁luonto	-6014
▁mustan	-6015
▁mustat	-6016
▁osassa	-6017
▁pitkin	-6018
▁poltto	-6019
▁puolis	-6020
▁shakin	-6021
▁siiven	-6022
▁soitti	-6023
▁Luonnon	-6024
▁Wilhelm	-6025
▁entisen	-6026
▁kotisiv	-6027
▁liittyi	-6028
▁muuttuu	-6029
▁päättyy	-6030
▁toiminn	-6031
▁Kristian	-6032
▁Valdemar	-6033
▁Yhdysval	-6034
▁auringon	-6035
▁keskusta	-6036
▁metsissä	-6037
▁Canterbur	-6038
▁Itävallan	-6039
▁Pohjoiset	-6040
▁lintulaji	-6041
▁toimintaa	-6042
▁virkamies	-6043
▁syyskuussa	-6044
▁aloitettiin	-6045
31	-6046
35	-6047
94	-6048
AN	-6049
Ta	-6050
ou	-6051
▁z	-6052
arv	-6053
ary	-6054
ash	-6055
col	-6056
err	-6057
ick	-6058
ive	-6059
let	-6060
win	-6061
▁AR	-6062
▁EU	-6063
▁im	-6064
ello	-6065
ikuv	-6066
iluv	-6067
kson	-6068
mmat	-6069
otka	-6070
plan	-6071
tain	-6072
unna	-6073
▁185	-6074
▁700	-6075
▁Aad	-6076
▁Can	-6077
▁Kok	-6078
▁Nel	-6079
▁Ped	-6080
▁Pur	-6081
▁Ras	-6082
▁Res	-6083
▁Rus	-6084
▁Syy	-6085
▁Ves	-6086
▁Wik	-6087
▁ajo	-6088
▁hor	-6089
▁huu	-6090
▁sta	-6091
▁yks	-6092
ehall	-6093
gorit	-6094
iikko	-6095
inosa	-6096
intar	-6097
ivana	-6098
kojen	-6099
nassa	-6100
ostus	-6101
ralla	-6102
ulaar	-6103
▁Adam	-6104
▁Bald	-6105
▁Horn	-6106
▁Plan	-6107
▁alas	-6108
▁kiih	-6109
▁noud	-6110
▁osia	-6111
▁päin	-6112
▁silm	-6113
▁vaka	-6114
ittain	-6115
kuntaa	-6116
lantin	-6117
tyksen	-6118
utettu	-6119
uuteen	-6120
▁Frans	-6121
▁Koira	-6122
▁Vanha	-6123
▁alkan	-6124
▁alkul	-6125
▁jokin	-6126
▁kebab	-6127
▁kello	-6128
▁kiell	-6129
▁maksa	-6130
▁mistä	-6131
▁nuori	-6132
▁rehev	-6133
▁suora	-6134
▁suure	-6135
▁tälla	-6136
ikkojen	-6137
▁Aadolf	-6138
▁Anasta	-6139
▁Käyttö	-6140
▁Talous	-6141
▁esitti	-6142
▁lasten	-6143
▁maiden	-6144
▁nähden	-6145
▁ongelm	-6146
▁riippu	-6147
▁symbol	-6148
▁valtaa	-6149
tilaiset	-6150
utuminen	-6151
vuotinen	-6152
▁Helsing	-6153
▁Nikefor	-6154
▁alkunsa	-6155
▁käytiin	-6156
▁meriros	-6157
▁monissa	-6158
▁tulevat	-6159
▁upseeri	-6160
▁vaikutu	-6161
▁Amerikan	-6162
▁Haudonta	-6163
▁kyseessä	-6164
▁naarasta	-6165
▁poikansa	-6166
▁suoritti	-6167
▁vastaava	-6168
▁vuoristo	-6169
▁Italiassa	-6170
▁Ranskassa	-6171
▁käyttäyty	-6172
▁liittyvät	-6173
▁rationaal	-6174
▁seuraavat	-6175
▁valtakunn	-6176
▁Britannian	-6177
▁merkitystä	-6178
järjestelmässä	-6179
▁lentokykyisiä	-6180
▁Kansainvälinen	-6181
▁kasvitieteilijä	-6182
0%	-6183
33	-6184
MP	-6185
])	-6186
hl	-6187
mö	-6188
ade	-6189
ame	-6190
ato	-6191
dam	-6192
ias	-6193
ilm	-6194
kän	-6195
nar	-6196
nor	-6197
pek	-6198
plä	-6199
rää	-6200
tic	-6201
tiä	-6202
uga	-6203
▁Ac	-6204
▁Qi	-6205
▁at	-6206
itto	-6207
ivia	-6208
jään	-6209
käyt	-6210
lopp	-6211
otus	-6212
paik	-6213
poja	-6214
raja	-6215
riin	-6216
uoma	-6217
▁124	-6218
▁202	-6219
▁Air	-6220
▁Des	-6221
▁Mac	-6222
▁Pak	-6223
▁Rud	-6224
▁Suk	-6225
▁Tul	-6226
▁dem	-6227
▁enn	-6228
▁inf	-6229
▁näk	-6230
▁syv	-6231
▁tyh	-6232
▁ylö	-6233
alien	-6234
anoma	-6235
estan	-6236
ikuun	-6237
istot	-6238
ivais	-6239
jiang	-6240
jöitä	-6241
oinut	-6242
oliit	-6243
timet	-6244
▁Juha	-6245
▁Maca	-6246
▁Päiv	-6247
▁Viir	-6248
▁XIII	-6249
▁Yuan	-6250
▁ampe	-6251
▁jatk	-6252
▁kaks	-6253
▁lien	-6254
▁maks	-6255
▁vaar	-6256
ilijat	-6257
isorsa	-6258
korkea	-6259
orison	-6260
portti	-6261
rastas	-6262
teinen	-6263
tiedos	-6264
tiheys	-6265
uutnan	-6266
▁Kaksi	-6267
▁Kunta	-6268
▁Kuopi	-6269
▁Media	-6270
▁Pikku	-6271
▁Tässä	-6272
▁eteen	-6273
▁kolmi	-6274
▁koske	-6275
▁käytä	-6276
▁liber	-6277
▁lähde	-6278
▁lääke	-6279
▁maata	-6280
▁myönn	-6281
▁ollen	-6282
▁pelto	-6283
▁valok	-6284
etetaan	-6285
filosof	-6286
▁Daniel	-6287
▁Harmaa	-6288
▁Kangas	-6289
▁Kansan	-6290
▁Kartha	-6291
▁Nuoret	-6292
▁Saksin	-6293
▁epäonn	-6294
▁kartan	-6295
▁matoja	-6296
▁muilla	-6297
▁nimesi	-6298
▁suosii	-6299
▁suuret	-6300
▁tuleva	-6301
▁tuotta	-6302
▁viiden	-6303
kannaksi	-6304
punainen	-6305
talouden	-6306
▁Italian	-6307
▁aatelis	-6308
▁kemisti	-6309
▁kiinnit	-6310
▁koiraan	-6311
▁materia	-6312
▁periaat	-6313
▁pyrstön	-6314
▁riippuu	-6315
▁ruskean	-6316
▁sisältä	-6317
▁turvall	-6318
▁vandaal	-6319
alaisissa	-6320
ksinkerta	-6321
opimuksen	-6322
tieteessä	-6323
ukokuussa	-6324
▁Eurooppa	-6325
▁Liettuan	-6326
▁Suomesta	-6327
▁esitetty	-6328
▁hemoglob	-6329
▁ihmisten	-6330
▁kahdesta	-6331
▁muutamia	-6332
▁riippuen	-6333
▁seksuaal	-6334
▁verrattu	-6335
▁väkiluku	-6336
▁kehitetty	-6337
▁keskenään	-6338
▁kristinus	-6339
▁viimeisen	-6340
▁Einsteinin	-6341
▁Margareeta	-6342
▁kilometrin	-6343
▁lokakuussa	-6344
▁saatavilla	-6345
▁vaihtoehto	-6346
▁ritarikunta	-6347
▁tarkoitettu	-6348
▁harmaanruskea	-6349
2:	-6350
MD	-6351
RS	-6352
TA	-6353
yä	-6354
▁<	-6355
ain	-6356
amb	-6357
chi	-6358
ogi	-6359
ska	-6360
tse	-6361
tul	-6362
vas	-6363
wer	-6364
▁AU	-6365
▁Bu	-6366
▁GP	-6367
▁Id	-6368
▁PC	-6369
DRAM	-6370
Ruot	-6371
cola	-6372
emia	-6373
eron	-6374
erva	-6375
haan	-6376
hein	-6377
ikas	-6378
kita	-6379
onsa	-6380
osuh	-6381
pasi	-6382
rejä	-6383
riis	-6384
syys	-6385
ture	-6386
udun	-6387
ussi	-6388
veys	-6389
ylon	-6390
zhou	-6391
–197	-6392
▁115	-6393
▁Del	-6394
▁Dem	-6395
▁GIF	-6396
▁Hit	-6397
▁Laa	-6398
▁Sve	-6399
▁Syl	-6400
▁TNT	-6401
▁Vär	-6402
▁sak	-6403
▁tin	-6404
album	-6405
aleja	-6406
eksan	-6407
ellin	-6408
elmiä	-6409
iksen	-6410
impiä	-6411
intaa	-6412
ismin	-6413
kaisi	-6414
kalla	-6415
kivät	-6416
koita	-6417
nista	-6418
nitud	-6419
oliik	-6420
oneuv	-6421
riisi	-6422
taali	-6423
tisti	-6424
yrstö	-6425
▁1998	-6426
▁300-	-6427
▁Abra	-6428
▁Kaik	-6429
▁Koti	-6430
▁Sala	-6431
▁Sana	-6432
▁aiku	-6433
▁anti	-6434
▁asuu	-6435
▁ruos	-6436
▁taan	-6437
▁ylös	-6438
alisti	-6439
evonen	-6440
kselin	-6441
ksella	-6442
laista	-6443
laitos	-6444
laitte	-6445
menion	-6446
stituu	-6447
tiossa	-6448
valuku	-6449
▁Lento	-6450
▁Savon	-6451
▁ilmiö	-6452
▁jätti	-6453
▁kalli	-6454
▁miten	-6455
▁nimeä	-6456
▁tyttä	-6457
▁valon	-6458
▁varus	-6459
▁äyriä	-6460
aldehyd	-6461
attomat	-6462
ittivät	-6463
ollisen	-6464
vuotias	-6465
yydessä	-6466
ännessä	-6467
▁Europe	-6468
▁Joskus	-6469
▁astero	-6470
▁kapino	-6471
▁kasvan	-6472
▁kooksi	-6473
▁merkki	-6474
▁metall	-6475
▁samoin	-6476
▁tutkii	-6477
▁veljen	-6478
▁yksikö	-6479
▁yritti	-6480
▁Christo	-6481
▁havainn	-6482
▁kirjain	-6483
▁laulaja	-6484
▁loppuun	-6485
▁maanjär	-6486
▁naaraan	-6487
▁nimitys	-6488
▁poliitt	-6489
▁seroton	-6490
▁sivusto	-6491
▁suhteen	-6492
▁säteily	-6493
▁tehdään	-6494
▁vuosien	-6495
▁yhteisö	-6496
elokuussa	-6497
ettäväksi	-6498
ominikaan	-6499
▁Bysantti	-6500
▁Preussin	-6501
▁Saksassa	-6502
▁Skandina	-6503
▁Tärkeitä	-6504
▁heinäkuu	-6505
▁joitakin	-6506
▁kahdesti	-6507
▁kannalta	-6508
▁muutaman	-6509
▁rannikko	-6510
▁toiseksi	-6511
▁tuolloin	-6512
ikkalainen	-6513
▁Parmenion	-6514
▁Tampereen	-6515
▁dynastian	-6516
▁esiintyvä	-6517
▁kahdeksan	-6518
▁kappaleen	-6519
▁nimettiin	-6520
▁syrjäytti	-6521
▁vuosisata	-6522
▁yhteistyö	-6523
vuosikymmen	-6524
▁ruotsalais	-6525
▁vallankumo	-6526
▁vatsapuoli	-6527
▁kaupungissa	-6528
▁pesimälintu	-6529
▁tarkoituksena	-6530
29	-6531
65	-6532
Es	-6533
Sa	-6534
uf	-6535
”)	-6536
ath	-6537
cin	-6538
ega	-6539
eva	-6540
hak	-6541
iky	-6542
lää	-6543
old	-6544
pes	-6545
roc	-6546
teh	-6547
yle	-6548
–30	-6549
▁0-	-6550
▁74	-6551
▁ym	-6552
Pasi	-6553
alto	-6554
amma	-6555
asin	-6556
eksa	-6557
enny	-6558
erar	-6559
etyn	-6560
imeä	-6561
isas	-6562
issi	-6563
itan	-6564
jeli	-6565
määr	-6566
omat	-6567
osar	-6568
pros	-6569
skar	-6570
tela	-6571
tius	-6572
turi	-6573
tuus	-6574
utto	-6575
ytty	-6576
ytyi	-6577
▁(10	-6578
▁143	-6579
▁4–6	-6580
▁800	-6581
▁Bon	-6582
▁Bor	-6583
▁Don	-6584
▁God	-6585
▁Jaa	-6586
▁Sed	-6587
▁Sib	-6588
▁Tim	-6589
▁luu	-6590
▁str	-6591
aalto	-6592
ansin	-6593
idris	-6594
iinit	-6595
ioita	-6596
iteen	-6597
laaju	-6598
lassa	-6599
metsä	-6600
nasta	-6601
ohjan	-6602
omaan	-6603
pakko	-6604
tille	-6605
uulen	-6606
▁1990	-6607
▁2007	-6608
▁2014	-6609
▁2017	-6610
▁400-	-6611
▁HTML	-6612
▁Hiir	-6613
▁Hild	-6614
▁Inge	-6615
▁Isab	-6616
▁Ison	-6617
▁Koiv	-6618
▁Niin	-6619
▁Nils	-6620
▁Rein	-6621
▁Tied	-6622
▁isla	-6623
▁kaiv	-6624
▁kamp	-6625
▁kova	-6626
▁kylj	-6627
▁lämp	-6628
▁mikr	-6629
▁osin	-6630
▁sall	-6631
▁äiti	-6632
anssin	-6633
aseman	-6634
iltaan	-6635
istoon	-6636
järvel	-6637
kaikke	-6638
lahden	-6639
linnut	-6640
ointia	-6641
pankki	-6642
ricola	-6643
tannon	-6644
ukypsä	-6645
ustann	-6646
▁Brahe	-6647
▁Erkki	-6648
▁Jukka	-6649
▁Kelta	-6650
▁Micha	-6651
▁Monet	-6652
▁Palai	-6653
▁Poika	-6654
▁Press	-6655
▁asema	-6656
▁bitti	-6657
▁dolla	-6658
▁jalat	-6659
▁lisen	-6660
▁läpim	-6661
▁puner	-6662
▁rauha	-6663
▁siksi	-6664
▁syksy	-6665
▁tehtä	-6666
aniemen	-6667
isimman	-6668
istitty	-6669
magneet	-6670
merellä	-6671
onentti	-6672
uodesta	-6673
yksissä	-6674
▁Albert	-6675
▁Kiovan	-6676
▁Komnen	-6677
▁Sigism	-6678
▁Tukhol	-6679
▁jaarli	-6680
▁kannat	-6681
▁munkki	-6682
▁nopeus	-6683
▁ortodo	-6684
▁osissa	-6685
▁pohjan	-6686
▁soidin	-6687
▁suojel	-6688
▁unioni	-6689
▁vuodet	-6690
goottien	-6691
istetaan	-6692
pakoisia	-6693
▁etelään	-6694
▁lintula	-6695
▁menesty	-6696
▁normaal	-6697
▁ollessa	-6698
▁pesivät	-6699
▁pitkään	-6700
▁toimeen	-6701
▁tunnetu	-6702
▁vedessä	-6703
▁vuositu	-6704
▁välissä	-6705
saarnaaja	-6706
uutnantti	-6707
▁Hallitsi	-6708
▁Norjassa	-6709
▁havainto	-6710
▁kaikkien	-6711
▁valuutta	-6712
ministeriö	-6713
syyskuussa	-6714
▁Palaiolog	-6715
▁Portugali	-6716
▁erityisen	-6717
▁harvaluku	-6718
▁humanisti	-6719
▁itselleen	-6720
▁kuuluivat	-6721
▁provinssi	-6722
▁tarkoitus	-6723
▁toisiinsa	-6724
▁tunnistaa	-6725
▁Syysmuutto	-6726
▁ilmeisesti	-6727
▁vähitellen	-6728
▁Englannissa	-6729
▁Esimerkkejä	-6730
▁vuorokauden	-6731
▁Aleksanterin	-6732
▁pesäpakoisia	-6733
▁senttimetrin	-6734
▁sveitsiläinen	-6735
▁televisiokana	-6736
▁hollantilainen	-6737
▁elinvoimaiseksi	-6738
14	-6739
24	-6740
CP	-6741
ss	-6742
yi	-6743
ão	-6744
▁ö	-6745
20)	-6746
USE	-6747
ace	-6748
anj	-6749
ehd	-6750
gia	-6751
hah	-6752
liä	-6753
olk	-6754
omp	-6755
sän	-6756
tre	-6757
tyt	-6758
uno	-6759
wor	-6760
www	-6761
▁55	-6762
▁Ak	-6763
▁Fu	-6764
aine	-6765
eksä	-6766
heen	-6767
ikta	-6768
kina	-6769
kkas	-6770
koul	-6771
mmas	-6772
onan	-6773
tilo	-6774
ttyy	-6775
ulan	-6776
uvia	-6777
▁119	-6778
▁128	-6779
▁129	-6780
▁141	-6781
▁189	-6782
▁250	-6783
▁Dom	-6784
▁Fra	-6785
▁Hyö	-6786
▁Kut	-6787
▁Luc	-6788
▁alu	-6789
▁auk	-6790
▁ava	-6791
▁hed	-6792
▁paa	-6793
antai	-6794
edian	-6795
hiiri	-6796
ikoko	-6797
jalan	-6798
okkaa	-6799
ramen	-6800
riina	-6801
risti	-6802
telli	-6803
tissä	-6804
uojel	-6805
uoren	-6806
▁Aika	-6807
▁Eric	-6808
▁Linn	-6809
▁Mess	-6810
▁Viih	-6811
▁alus	-6812
▁asui	-6813
▁eroa	-6814
▁etsi	-6815
▁heti	-6816
▁jazz	-6817
▁kall	-6818
▁kaun	-6819
▁myön	-6820
▁osti	-6821
▁psyk	-6822
▁taid	-6823
▁viik	-6824
aation	-6825
identi	-6826
iikkaa	-6827
isivat	-6828
ittava	-6829
koissa	-6830
ksonom	-6831
kunnat	-6832
muisti	-6833
roksen	-6834
udelle	-6835
uunnit	-6836
yväsky	-6837
▁Galil	-6838
▁Herak	-6839
▁Kulta	-6840
▁Persi	-6841
▁Porvo	-6842
▁Ruots	-6843
▁Suosi	-6844
▁Windo	-6845
▁Yleis	-6846
▁johto	-6847
▁kuulu	-6848
▁kyken	-6849
▁luvun	-6850
▁näkyy	-6851
▁perhe	-6852
▁sanat	-6853
▁suoja	-6854
▁säily	-6855
▁tuomi	-6856
▁työsk	-6857
▁uusia	-6858
▁veren	-6859
attinen	-6860
eetikko	-6861
histori	-6862
ikainen	-6863
isterin	-6864
telussa	-6865
▁Stalin	-6866
▁Toisen	-6867
▁Varpus	-6868
▁aikuis	-6869
▁joskin	-6870
▁keller	-6871
▁loppup	-6872
▁lukien	-6873
▁osaksi	-6874
▁pääasi	-6875
▁päältä	-6876
▁seikka	-6877
▁suurta	-6878
▁sähköp	-6879
tomerkit	-6880
▁Branden	-6881
▁Interna	-6882
▁Kaarlen	-6883
▁alueita	-6884
▁itsensä	-6885
▁kuuluis	-6886
▁käsitte	-6887
▁liikkuu	-6888
▁nimeltä	-6889
▁rauhans	-6890
▁sodassa	-6891
▁taajuus	-6892
▁välille	-6893
▁yksiköt	-6894
▁yleisin	-6895
▁Agricola	-6896
▁Järvinen	-6897
▁Keskusta	-6898
▁Talvehti	-6899
▁lintujen	-6900
▁löytöret	-6901
▁mukainen	-6902
▁muusikko	-6903
▁perustus	-6904
▁puolesta	-6905
▁tuotanto	-6906
▁Eurooppaa	-6907
▁Katariina	-6908
▁Sverkerin	-6909
▁Toisaalta	-6910
▁elokuussa	-6911
▁käyttivät	-6912
▁pohjoisen	-6913
▁toiminnan	-6914
▁uskonpuhd	-6915
▁valloitta	-6916
▁arvioitiin	-6917
▁englantila	-6918
▁selkäpuoli	-6919
▁vaihteessa	-6920
▁verrattuna	-6921
▁Justinianus	-6922
▁hallituksen	-6923
▁järjestelmä	-6924
▁toimintansa	-6925
▁yhteiskunta	-6926
▁pääministeri	-6927
▁yliopistossa	-6928
▁pienikokoinen	-6929
▁eurooppalainen	-6930
▁mahdollisimman	-6931
▁kielitieteilijä	-6932
49	-6933
4:	-6934
IN	-6935
La	-6936
SO	-6937
ng	-6938
rr	-6939
ré	-6940
tz	-6941
▁→	-6942
cha	-6943
ett	-6944
fan	-6945
▁	-6946
a	-6947
i	-6948
n	-6949
t	-6950
e	-6951
s	-6952
l	-6953
o	-6954
u	-6955
k	-6956
ä	-6957
r	-6958
m	-6959
v	-6960
j	-6961
p	-6962
h	-6963
y	-6964
.	-6965
,	-6966
d	-6967
1	-6968
0	-6969
ö	-6970
S	-6971
g	-6972
-	-6973
(	-6974
)	-6975
K	-6976
2	-6977
9	-6978
–	-6979
A	-6980
T	-6981
P	-6982
L	-6983
I	-6984
M	-6985
5	-6986
c	-6987
6	-6988
7	-6989
E	-6990
8	-6991
V	-6992
3	-6993
b	-6994
4	-6995
H	-6996
f	-6997
R	-6998
:	-6999
J	-7000
N	-7001
B	-7002
C	-7003
F	-7004
G	-7005
D	-7006
O	-7007
Y	-7008
U	-7009
W	-7010
z	-7011
w	-7012
”	-7013
x	-7014
"	-7015
/	-7016
X	-7017
š	-7018
;	-7019
Z	-7020
%	-7021
é	-7022
'	-7023
q	-7024
’	-7025
Q	-7026
=	-7027
Ä	-7028
+	-7029
á	-7030
ü	-7031
&	-7032
ō	-7033
ó	-7034
å	-7035
­	-7036
ž	-7037
ç	-7038
°	-7039
−	-7040
]	-7041
[	-7042
!	-7043
ū	-7044
#	-7045
}	-7046
{	-7047
?	-7048
Ö	-7049
í	-7050
•	-7051
è	-7052
·	-7053
<	-7054
Å	-7055
и	-7056
×	-7057
—	-7058
ã	-7059
Š	-7060
о	-7061
с	-7062
→	-7063
_	-7064
е	-7065
>	-7066
а	-7067
т	-7068
р	-7069
|	-7070
α	-7071
н	-7072
ò	-7073
′	-7074
*	-7075
ا	-7076
ô	-7077
ā	-7078
π	-7079
в	-7080
к	-7081
É	-7082
ữ	-7083
⁄	-7084
ñ	-7085
́	-7086
Ω	-7087
л	-7088
†	-7089
ú	-7090
ł	-7091
∈	-7092
≈	-7093
ο	-7094
ρ	-7095
י	-7096
€	-7097
Á	-7098
ë	-7099
à	-7100
Ə	-7101
̄	-7102
μ	-7103
ω	-7104
语	-7105
~	-7106
æ	-7107
β	-7108
φ	-7109
ת	-7110
ø	-7111
ν	-7112
σ	-7113
д	-7114
ו	-7115
ل	-7116
±	-7117
Ø	-7118
ə	-7119
п	-7120
ь	-7121
č	-7122
ī	-7123
Ō	-7124
Δ	-7125
ε	-7126
ι	-7127
С	-7128
м	-7129
ч	-7130
א	-7131
ל	-7132
ر	-7133
朝	-7134
^	-7135
ì	-7136
ć	-7137
ē	-7138
ě	-7139
ń	-7140
ş	-7141
δ	-7142
η	-7143
λ	-7144
б	-7145
г	-7146
у	-7147
я	-7148
“	-7149
日	-7150
Æ	-7151
̃	-7152
і	-7153
מ	-7154
ب	-7155
د	-7156
ن	-7157
曜	-7158
\	-7159
§	-7160
Î	-7161
î	-7162
ı	-7163
Α	-7164
γ	-7165
А	-7166
Р	-7167
й	-7168
ב	-7169
ה	-7170
ف	-7171
า	-7172
ố	-7173
≥	-7174
北	-7175
南	-7176
后	-7177
星	-7178
$	-7179
Þ	-7180
â	-7181
ê	-7182
Ā	-7183
ğ	-7184
İ	-7185
̆	-7186
̈	-7187
Κ	-7188
ά	-7189
κ	-7190
ξ	-7191
τ	-7192
М	-7193
О	-7194
Э	-7195
Ю	-7196
х	-7197
נ	-7198
ع	-7199
م	-7200
⇒	-7201
∞	-7202
闽	-7203
ę	-7204
Ž	-7205
ș	-7206
Φ	-7207
ς	-7208
Г	-7209
Е	-7210
Т	-7211
У	-7212
Я	-7213
ח	-7214
ט	-7215
ס	-7216
פ	-7217
ר	-7218
ש	-7219
ت	-7220
ح	-7221
و	-7222
ي	-7223
ა	-7224
‐	-7225
≤	-7226
宋	-7227
晉	-7228
汉	-7229
魏	-7230
Ç	-7231
Í	-7232
ß	-7233
ð	-7234
õ	-7235
û	-7236
ý	-7237
ś	-7238
ǎ	-7239
̊	-7240
Ε	-7241
Σ	-7242
Ψ	-7243
ί	-7244
ζ	-7245
υ	-7246
ό	-7247
Д	-7248
И	-7249
К	-7250
П	-7251
Ы	-7252
ц	-7253
ы	-7254
Ӓ	-7255
Ә	-7256
Ӧ	-7257
Ӭ	-7258
ג	-7259
כ	-7260
ע	-7261
ج	-7262
ذ	-7263
ز	-7264
ش	-7265
ه	-7266
ک	-7267
ი	-7268
ლ	-7269
რ	-7270
ფ	-7271
东	-7272
中	-7273
元	-7274
和	-7275
字	-7276
晋	-7277
的	-7278
西	-7279
金	-7280
@	-7281
¡	-7282
À	-7283
Ó	-7284
Õ	-7285
Ú	-7286
Ą	-7287
Č	-7288
Ė	-7289
Ł	-7290
Ő	-7291
Œ	-7292
ř	-7293
Ş	-7294
ż	-7295
Ʊ	-7296
ǜ	-7297
ț	-7298
̑	-7299
̲	-7300
Μ	-7301
Π	-7302
έ	-7303
θ	-7304
Ё	-7305
Є	-7306
В	-7307
З	-7308
Л	-7309
Х	-7310
Ү	-7311
Ө	-7312
Ӱ	-7313
Ԑ	-7314
ד	-7315
ז	-7316
ئ	-7317
ث	-7318
س	-7319
ى	-7320
پ	-7321
چ	-7322
ی	-7323
ు	-7324
ค	-7325
ง	-7326
ต	-7327
้	-7328
ํ	-7329
ბ	-7330
გ	-7331
ე	-7332
ვ	-7333
მ	-7334
ნ	-7335
ḻ	-7336
ế	-7337
タ	-7338
ー	-7339
上	-7340
今	-7341
体	-7342
分	-7343
劉	-7344
史	-7345
吳	-7346
吴	-7347
周	-7348
国	-7349
土	-7350
堅	-7351
天	-7352
安	-7353
家	-7354
年	-7355
律	-7356
恩	-7357
承	-7358
方	-7359
月	-7360
木	-7361
東	-7362
梁	-7363
楊	-7364
民	-7365
水	-7366
漢	-7367
火	-7368
田	-7369
繁	-7370
耶	-7371
語	-7372
黑	-7373
齊	-7374
`	-7375
®	-7376
Â	-7377
Ã	-7378
È	-7379
Ê	-7380
Ë	-7381
Ì	-7382
Ï	-7383
Ð	-7384
Ñ	-7385
Ò	-7386
Ô	-7387
Ù	-7388
Û	-7389
Ü	-7390
Ý	-7391
ï	-7392
ù	-7393
þ	-7394
Ă	-7395
ă	-7396
Ć	-7397
Ċ	-7398
Ď	-7399
Đ	-7400
Ē	-7401
ė	-7402
Ę	-7403
Ě	-7404
Ĝ	-7405
Ğ	-7406
Ġ	-7407
Ģ	-7408
Ħ	-7409
ħ	-7410
Ĩ	-7411
Ī	-7412
Į	-7413
Ķ	-7414
Ĺ	-7415
Ļ	-7416
Ľ	-7417
Ń	-7418
Ņ	-7419
ņ	-7420
Ň	-7421
Ŋ	-7422
ő	-7423
Ŕ	-7424
Ŗ	-7425
Ř	-7426
Ś	-7427
Ţ	-7428
Ť	-7429
Ŧ	-7430
Ũ	-7431
Ū	-7432
ŭ	-7433
Ů	-7434
Ű	-7435
Ų	-7436
ų	-7437
Ŵ	-7438
Ÿ	-7439
Ź	-7440
Ż	-7441
Ɓ	-7442
Ɔ	-7443
Ƈ	-7444
Ɖ	-7445
Ɗ	-7446
Ɛ	-7447
Ƒ	-7448
Ɠ	-7449
Ɣ	-7450
Ɩ	-7451
Ƙ	-7452
Ɲ	-7453
Ɵ	-7454
Ơ	-7455
Ƭ	-7456
Ư	-7457
ư	-7458
Ʋ	-7459
Ƴ	-7460
Ʒ	-7461
Ǎ	-7462
ǐ	-7463
ǔ	-7464
Ǟ	-7465
Ǥ	-7466
Ǧ	-7467
Ǩ	-7468
Ǫ	-7469
Ǯ	-7470
Ƿ	-7471
Ș	-7472
Ț	-7473
Ȭ	-7474
Ȯ	-7475
Ȱ	-7476
Ⱥ	-7477
Ȼ	-7478
Ƚ	-7479
Ⱦ	-7480
Ʌ	-7481
Ɍ	-7482
ɑ	-7483
ɒ	-7484
ɷ	-7485
ʊ	-7486
ʔ	-7487
ʻ	-7488
ʾ	-7489
ː	-7490
̂	-7491
̇	-7492
̌	-7493
̧	-7494
̨	-7495
Ͱ	-7496
Β	-7497
Γ	-7498
Ζ	-7499
Η	-7500
Θ	-7501
Ι	-7502
Λ	-7503
Ν	-7504
Ξ	-7505
Ο	-7506
Ρ	-7507
Τ	-7508
Υ	-7509
Χ	-7510
ή	-7511
ύ	-7512
ώ	-7513
Ϙ	-7514
Ϛ	-7515
Ϝ	-7516
Ϡ	-7517
Ϣ	-7518
Ϥ	-7519
Ϧ	-7520
Ϩ	-7521
Ϫ	-7522
Ϭ	-7523
Ϯ	-7524
Ϸ	-7525
Ϻ	-7526
Ђ	-7527
Ѓ	-7528
Ѕ	-7529
І	-7530
Ї	-7531
Ј	-7532
Љ	-7533
Њ	-7534
Ћ	-7535
Ќ	-7536
Ў	-7537
Џ	-7538
Б	-7539
Ж	-7540
Й	-7541
Н	-7542
Ф	-7543
Ц	-7544
Ч	-7545
Ш	-7546
Щ	-7547
Ъ	-7548
Ь	-7549
ж	-7550
з	-7551
ф	-7552
ш	-7553
ъ	-7554
э	-7555
ю	-7556
Ѡ	-7557
Ѣ	-7558
Ѥ	-7559
Ѧ	-7560
Ѩ	-7561
Ѫ	-7562
Ѭ	-7563
Ѯ	-7564
Ѱ	-7565
Ѳ	-7566
Ѵ	-7567
Ѷ	-7568
Ѻ	-7569
Ѽ	-7570
Ѿ	-7571
Ҁ	-7572
Ҋ	-7573
Ҍ	-7574
Ҏ	-7575
Ґ	-7576
Ғ	-7577
Ҕ	-7578
Җ	-7579
Ҙ	-7580
Қ	-7581
Ҝ	-7582
Ҟ	-7583
Ҡ	-7584
Ң	-7585
Ҥ	-7586
Ҧ	-7587
Ҩ	-7588
Ҫ	-7589
Ҭ	-7590
Ұ	-7591
Ҳ	-7592
Ҵ	-7593
Ҷ	-7594
Ҹ	-7595
Һ	-7596
Ҽ	-7597
Ҿ	-7598
Ӏ	-7599
Ӂ	-7600
Ӄ	-7601
Ӆ	-7602
Ӈ	-7603
Ӊ	-7604
Ӌ	-7605
Ӎ	-7606
Ӑ	-7607
ӓ	-7608
Ӕ	-7609
Ӗ	-7610
Ӛ	-7611
Ӝ	-7612
Ӟ	-7613
Ӡ	-7614
Ӣ	-7615
Ӥ	-7616
ӧ	-7617
Ӫ	-7618
Ӯ	-7619
Ӳ	-7620
Ӵ	-7621
Ӷ	-7622
Ӹ	-7623
Ӻ	-7624
Ӽ	-7625
Ӿ	-7626
Ԁ	-7627
Ԃ	-7628
Ԅ	-7629
Ԇ	-7630
Ԉ	-7631
Ԋ	-7632
Ԍ	-7633
Ԏ	-7634
Ԓ	-7635
Ԕ	-7636
Ԗ	-7637
Ԙ	-7638
Ԛ	-7639
Ԝ	-7640
Ԟ	-7641
Ԡ	-7642
Ԣ	-7643
Ԥ	-7644
Ԧ	-7645
Ԩ	-7646
Ԫ	-7647
Ԭ	-7648
Ԯ	-7649
ם	-7650
צ	-7651
ק	-7652
آ	-7653
أ	-7654
إ	-7655
ة	-7656
خ	-7657
ص	-7658
ض	-7659
ط	-7660
ظ	-7661
غ	-7662
ك	-7663
ٹ	-7664
ٺ	-7665
ټ	-7666
ٽ	-7667
ٿ	-7668
ڀ	-7669
ځ	-7670
ڃ	-7671
ڄ	-7672
څ	-7673
ڇ	-7674
ڈ	-7675
ډ	-7676
ڊ	-7677
ڌ	-7678
ڍ	-7679
ڏ	-7680
ڑ	-7681
ړ	-7682
ږ	-7683
ژ	-7684
ڙ	-7685
ښ	-7686
ڦ	-7687
ڪ	-7688
ګ	-7689
گ	-7690
ڱ	-7691
ڳ	-7692
ڻ	-7693
ڼ	-7694
ہ	-7695
ۍ	-7696
ې	-7697
గ	-7698
త	-7699
ల	-7700
ె	-7701
ช	-7702
ณ	-7703
น	-7704
ภ	-7705
ม	-7706
ร	-7707
ว	-7708
ศ	-7709
ษ	-7710
ส	-7711
ห	-7712
อ	-7713
ิ	-7714
เ	-7715
์	-7716
დ	-7717
ზ	-7718
თ	-7719
კ	-7720
ო	-7721
პ	-7722
ჟ	-7723
ს	-7724
ტ	-7725
უ	-7726
ქ	-7727
ღ	-7728
ყ	-7729
შ	-7730
ჩ	-7731
ც	-7732
ძ	-7733
წ	-7734
ჭ	-7735
ხ	-7736
ჯ	-7737
ჰ	-7738
ჱ	-7739
ჲ	-7740
ჳ	-7741
ჴ	-7742
ჵ	-7743
ჶ	-7744
ჷ	-7745
ჸ	-7746
ჹ	-7747
ჺ	-7748
Ḍ	-7749
Ḑ	-7750
Ḓ	-7751
Ḥ	-7752
ḥ	-7753
Ḱ	-7754
Ḷ	-7755
Ḻ	-7756
Ḽ	-7757
Ṅ	-7758
Ṉ	-7759
Ṋ	-7760
Ṟ	-7761
Ṣ	-7762
Ṯ	-7763
Ṱ	-7764
Ẅ	-7765
ắ	-7766
Ẹ	-7767
Ẽ	-7768
Ị	-7769
Ọ	-7770
ộ	-7771
ợ	-7772
Ụ	-7773
Ứ	-7774
Ỳ	-7775
Ỵ	-7776
Ỹ	-7777
‘	-7778
←	-7779
√	-7780
≠	-7781
⎓	-7782
Ɑ	-7783
Ⱳ	-7784
Ⲁ	-7785
Ⲃ	-7786
Ⲅ	-7787
Ⲇ	-7788
Ⲉ	-7789
Ⲋ	-7790
Ⲍ	-7791
Ⲏ	-7792
Ⲑ	-7793
Ⲓ	-7794
Ⲕ	-7795
Ⲗ	-7796
Ⲙ	-7797
Ⲛ	-7798
Ⲝ	-7799
Ⲟ	-7800
Ⲡ	-7801
Ⲣ	-7802
Ⲥ	-7803
Ⲧ	-7804
Ⲩ	-7805
Ⲫ	-7806
Ⲭ	-7807
Ⲯ	-7808
Ⲱ	-7809
Ⳁ	-7810
Ⳉ	-7811
《	-7812
》	-7813
さ	-7814
は	-7815
へ	-7816
を	-7817
゙	-7818
゚	-7819
コ	-7820
デ	-7821
ピ	-7822
ュ	-7823
ワ	-7824
ン	-7825
世	-7826
主	-7827
九	-7828
五	-7829
人	-7830
仙	-7831
共	-7832
兵	-7833
処	-7834
制	-7835
力	-7836
動	-7837
勰	-7838
化	-7839
匡	-7840
华	-7841
卑	-7842
历	-7843
号	-7844
司	-7845
員	-7846
唐	-7847
回	-7848
园	-7849
圆	-7850
國	-7851
園	-7852
圓	-7853
圻	-7854
均	-7855
块	-7856
士	-7857
大	-7858
太	-7859
学	-7860
宇	-7861
宗	-7862
客	-7863
島	-7864
崔	-7865
崱	-7866
席	-7867
幕	-7868
座	-7869
式	-7870
後	-7871
徽	-7872
志	-7873
思	-7874
戶	-7875
拓	-7876
收	-7877
散	-7878
旗	-7879
昧	-7880
普	-7881
曖	-7882
書	-7883
曾	-7884
松	-7885
案	-7886
標	-7887
歷	-7888
毛	-7889
汗	-7890
汴	-7891
浩	-7892
湘	-7893
理	-7894
界	-7895
略	-7896
直	-7897
真	-7898
石	-7899
科	-7900
空	-7901
筑	-7902
简	-7903
粤	-7904
紫	-7905
線	-7906
红	-7907
耳	-7908
聂	-7909
联	-7910
胤	-7911
航	-7912
苏	-7913
莆	-7914
藩	-7915
號	-7916
術	-7917
裕	-7918
要	-7919
角	-7920
言	-7921
话	-7922
賈	-7923
赣	-7924
趙	-7925
跋	-7926
通	-7927
遼	-7928
避	-7929
鎮	-7930
陈	-7931
陳	-7932
隋	-7933
頤	-7934
颐	-7935
馬	-7936
體	-7937
魚	-7938
鮮	-7939
鰭	-7940
黎	-7941
齐	-7942
Ꙁ	-7943
Ꙃ	-7944
Ꙅ	-7945
Ꙇ	-7946
Ꙉ	-7947
Ꙋ	-7948
Ꙍ	-7949
Ꙏ	-7950
Ꙑ	-7951
Ꙓ	-7952
Ꙕ	-7953
Ꙗ	-7954
Ꙙ	-7955
Ꙛ	-7956
Ꙝ	-7957
Ꙟ	-7958
Ꙡ	-7959
Ꙣ	-7960
Ꙥ	-7961
Ꙧ	-7962
Ꙩ	-7963
Ꙫ	-7964
Ꙭ	-7965
ꙮ	-7966
Ꚁ	-7967
Ꚃ	-7968
Ꚅ	-7969
Ꚇ	-7970
Ꚉ	-7971
Ꚋ	-7972
Ꚍ	-7973
Ꚏ	-7974
Ꚑ	-7975
Ꚓ	-7976
Ꚕ	-7977
Ꚗ	-7978
Ꚙ	-7979
Ꚛ	-7980
간	-7981
공	-7982
데	-7983
리	-7984
사	-7985
수	-7986
역	-7987
의	-7988
이	-7989
일	-7990
쟁	-7991
전	-7992
처	-7993
터	-7994
학	-7995
𡨸	-7996
