<unk>	0
<s>	0
</s>	0
,	-3.32784
.	-3.501
▁ve	-4.0725
n	-4.48949
▁	-4.49231
k	-4.54858
▁bir	-4.56821
i	-4.7797
▁için	-4.8401
e	-4.90738
a	-4.92483
:	-5.36967
s	-5.39783
lar	-5.45441
li	-5.46655
ı	-5.4693
ler	-5.54561
lı	-5.62842
▁ile	-5.63291
)	-5.6422
'	-5.64417
da	-5.64679
de	-5.66722
m	-5.69811
r	-5.69871
-	-5.71354
ları	-5.71516
▁S	-5.72161
in	-5.78689
▁(	-5.80998
▁-	-5.81397
t	-5.81912
u	-5.8447
leri	-5.86508
▁bu	-5.9256
▁A	-5.96132
si	-5.97794
▁Bu	-5.98849
z	-6.01244
en	-6.01841
o	-6.02755
▁olarak	-6.04935
ma	-6.06564
ya	-6.07367
p	-6.07813
an	-6.07878
▁K	-6.09637
er	-6.10118
▁veya	-6.14544
den	-6.21992
▁da	-6.22994
▁P	-6.25158
l	-6.26673
sı	-6.28443
y	-6.2962
ki	-6.29673
▁,	-6.29835
ye	-6.30233
me	-6.30425
▁daha	-6.32557
▁D	-6.33154
▁G	-6.35829
▁T	-6.37493
la	-6.383
ne	-6.38405
▁de	-6.40145
na	-6.402
dir	-6.40487
▁M	-6.40815
▁her	-6.41225
▁B	-6.43282
le	-6.43838
▁en	-6.49681
nın	-6.52055
nin	-6.52146
▁3	-6.5576
f	-6.55929
▁gibi	-6.57981
▁olan	-6.60093
al	-6.60568
ü	-6.60612
ın	-6.61595
▁çok	-6.61879
dan	-6.63625
ta	-6.63639
d	-6.64244
ir	-6.68598
lik	-6.69461
▁E	-6.71047
lu	-6.73716
dır	-6.73784
te	-6.74033
▁iyi	-6.75221
▁C	-6.75845
S	-6.76954
▁H	-6.77675
on	-6.80426
▁zaman	-6.80628
ar	-6.82189
▁ya	-6.82895
ni	-6.84477
▁O	-6.85742
;	-6.9022
g	-6.90933
lık	-6.91006
▁yüksek	-6.91218
▁2	-6.91514
el	-6.92517
▁tüm	-6.93036
T	-6.95323
D	-6.96469
A	-6.97898
c	-6.98137
P	-6.98259
▁5	-6.99136
ik	-6.9917
▁g	-6.99832
▁1	-7.00098
▁Bir	-7.01083
iz	-7.01414
▁vardır	-7.0166
▁F	-7.02046
un	-7.02213
▁Hotel	-7.03305
ca	-7.03784
B	-7.0441
?	-7.0482
di	-7.05438
▁fazla	-7.06202
lama	-7.06489
2	-7.07504
▁4	-7.07711
ş	-7.07804
M	-7.08031
il	-7.08249
▁Çin	-7.09283
▁a	-7.09451
sel	-7.124
▁su	-7.13782
▁tarafından	-7.14386
ç	-7.1471
▁_	-7.1571
h	-7.16029
▁b	-7.16505
▁sonra	-7.1669
C	-7.17374
▁özel	-7.17664
L	-7.17862
b	-7.18491
▁s	-7.19021
▁"	-7.19296
"	-7.19559
▁büyük	-7.19589
um	-7.21293
im	-7.23218
re	-7.23486
▁Y	-7.24644
▁k	-7.24991
ur	-7.25515
yı	-7.26089
▁Yüksek	-7.26245
▁iş	-7.26593
w	-7.26664
▁sahip	-7.26756
▁kadar	-7.27646
ce	-7.27744
▁o	-7.28837
▁I	-7.29302
▁10	-7.30028
sa	-7.31004
or	-7.32395
tan	-7.32758
▁önce	-7.34733
▁diğer	-7.35002
lerin	-7.35033
R	-7.35411
yla	-7.3566
4	-7.36115
maktadır	-7.37054
nda	-7.37512
yi	-7.37727
▁U	-7.37766
v	-7.38606
mm	-7.39026
▁şekilde	-7.39769
▁içinde	-7.40836
...	-7.4096
ini	-7.40968
K	-7.41371
▁yıldızlı	-7.42941
V	-7.43057
G	-7.43197
hangi	-7.43446
ol	-7.43639
▁var	-7.44244
1	-7.44353
O	-7.45217
lara	-7.46115
▁bulunmaktadır	-7.46318
▁yılında	-7.46459
H	-7.46862
▁Otel	-7.47062
▁otel	-7.4774
▁sadece	-7.48035
▁p	-7.4846
▁Her	-7.48498
larını	-7.48517
E	-7.48831
▁f	-7.49539
6	-7.49734
▁e	-7.4983
3	-7.50105
▁makinesi	-7.50231
▁W	-7.51032
U	-7.51111
▁yeni	-7.51216
et	-7.518
▁Co	-7.53248
!	-7.53385
▁ilgili	-7.53483
at	-7.5381
▁kendi	-7.54443
ların	-7.55374
daki	-7.55726
▁göre	-7.56514
▁V	-7.57647
▁ürün	-7.58056
ay	-7.58105
siz	-7.58234
mek	-7.58564
ti	-7.58621
▁doğru	-7.59257
lere	-7.59308
ken	-7.59657
▁L	-7.60158
▁çalışma	-7.60499
us	-7.61012
▁açık	-7.61511
▁olmak	-7.61535
▁olduğu	-7.62247
lü	-7.62253
tik	-7.62613
▁sistemi	-7.62848
▁uzaklıkta	-7.63009
▁t	-7.63069
▁sağlar	-7.63105
▁:	-7.63751
▁6	-7.64014
ra	-7.64793
▁yer	-7.65185
▁iki	-7.65335
▁hizmet	-7.65757
lerini	-7.66371
▁nasıl	-7.67133
▁yardımcı	-7.67141
▁Ayrıca	-7.67146
▁arasında	-7.67171
ır	-7.67457
▁üzerinde	-7.68091
liği	-7.68129
ebilir	-7.69138
▁farklı	-7.69251
▁hakkında	-7.6928
▁Makinesi	-7.69319
ing	-7.69403
▁İ	-7.69965
se	-7.70267
▁Eğ	-7.70677
dur	-7.71167
▁LED	-7.71434
▁d	-7.71662
5	-7.71788
bi	-7.71963
▁km	-7.72062
leme	-7.72106
8	-7.72278
com	-7.72294
▁alanı	-7.73445
▁Yeni	-7.737
▁Çelik	-7.73721
▁oteller	-7.73737
x	-7.73788
miş	-7.73856
mak	-7.73991
▁biz	-7.73997
niz	-7.74009
▁X	-7.74053
ması	-7.74399
ri	-7.74557
7	-7.74583
ci	-7.7517
▁En	-7.75331
▁c	-7.75436
▁kontrol	-7.75749
▁olabilir	-7.75975
I	-7.76431
it	-7.76434
▁20	-7.76772
9	-7.77165
▁8	-7.7726
nı	-7.7731
abilir	-7.77428
▁orta	-7.77865
yle	-7.7813
▁önemli	-7.78214
▁Su	-7.78433
nde	-7.79187
es	-7.79429
▁son	-7.79743
▁N	-7.8061
▁hızlı	-7.80745
tır	-7.80988
▁ev	-7.81254
uz	-7.81426
ro	-7.81778
▁R	-7.82254
inde	-7.8287
ak	-7.82921
▁aynı	-7.83106
▁geri	-7.8315
F	-7.83481
mektedir	-7.83513
▁üretim	-7.83725
lan	-7.84781
▁gün	-7.85257
len	-7.85263
nız	-7.85359
▁olur	-7.85578
▁uygun	-7.85635
▁şey	-7.85745
▁para	-7.85782
00	-7.86031
▁ne	-7.86203
larda	-7.878
▁al	-7.87942
ad	-7.87951
▁çelik	-7.88156
▁alan	-7.89491
sini	-7.89627
▁ön	-7.90057
ine	-7.90164
▁kolay	-7.90663
▁gelen	-7.90874
ten	-7.90887
va	-7.91199
▁ama	-7.9144
deki	-7.92042
çok	-7.92348
nizi	-7.9247
▁bilgi	-7.92604
larının	-7.92661
arak	-7.92792
▁...	-7.92811
▁olduğunu	-7.93071
▁bağlı	-7.93453
▁Özel	-7.93456
▁küçük	-7.93473
▁kullanılır	-7.93496
▁bulunan	-7.93539
▁almak	-7.94077
▁i	-7.94293
▁karşı	-7.94354
▁oda	-7.953
bo	-7.95912
▁tamam	-7.96158
▁Ma	-7.96212
▁birlikte	-7.96255
▁kişisel	-7.96451
▁teknoloji	-7.96462
▁kaliteli	-7.9662
▁tür	-7.96993
ge	-7.97189
▁dünya	-7.97208
ını	-7.97545
İ	-7.98072
tal	-7.98191
sal	-7.98752
▁değil	-7.9879
▁geniş	-7.98874
▁video	-7.98973
▁sıra	-7.99079
▁üzere	-7.99108
▁hava	-7.99176
▁m	-7.99231
▁etmek	-7.9985
▁Ve	-8.00012
is	-8.00036
Y	-8.00254
▁ilk	-8.01288
▁ürünler	-8.01751
▁merkezi	-8.0181
to	-8.01908
erek	-8.01998
▁iç	-8.02926
▁7	-8.03668
▁dakika	-8.04332
▁yol	-8.04383
ça	-8.04794
acak	-8.04984
▁yapı	-8.05021
▁Re	-8.05052
▁derece	-8.05079
▁devam	-8.05084
▁ücretsiz	-8.05096
▁araba	-8.05106
▁vb	-8.05107
▁sahiptir	-8.05139
▁Web	-8.05188
▁ana	-8.05396
içi	-8.06435
▁Ürün	-8.06497
lerine	-8.066
ve	-8.06955
sını	-8.07615
▁olması	-8.07652
▁h	-8.0812
▁birkaç	-8.08216
ün	-8.0865
▁fiyat	-8.08746
ba	-8.08875
▁yağ	-8.09095
▁Z	-8.09218
▁sunar	-8.09675
N	-8.10358
dı	-8.1053
▁üç	-8.10751
lerinin	-8.10901
▁banyo	-8.10943
▁an	-8.11011
▁kalite	-8.11109
▁göz	-8.11248
▁ancak	-8.11442
▁saç	-8.11497
▁kullanılan	-8.11533
ğı	-8.11551
▁size	-8.11646
▁olacak	-8.11681
▁kasa	-8.11735
▁koruma	-8.1201
▁yıl	-8.1232
▁in	-8.12547
▁15	-8.12779
▁24	-8.12798
▁Bar	-8.12928
ch	-8.13487
▁az	-8.13901
▁saat	-8.13916
ed	-8.14544
▁oyun	-8.14697
▁web	-8.1474
▁mükemmel	-8.14774
lığı	-8.14795
cı	-8.14805
0	-8.1482
▁Türkiye	-8.14823
▁edilen	-8.14835
▁mesafede	-8.1501
os	-8.15483
▁yanı	-8.15582
asyon	-8.15991
az	-8.16015
ter	-8.16028
▁Ne	-8.16142
▁çeşitli	-8.16219
ah	-8.16346
▁Al	-8.16467
ndan	-8.16668
ip	-8.16881
Z	-8.16996
▁altında	-8.17556
▁göster	-8.17664
yan	-8.18017
▁2019	-8.18126
▁profesyonel	-8.18223
▁Ekran	-8.18225
▁ekran	-8.18263
▁Metal	-8.18276
▁hem	-8.18321
▁Pas	-8.18497
▁ara	-8.18796
yor	-8.19188
ze	-8.19553
▁zamanda	-8.19645
▁bile	-8.19888
▁kullanıcı	-8.20198
▁Ç	-8.20477
▁adı	-8.20885
▁hareket	-8.21298
▁30	-8.21373
▁el	-8.21748
▁bazı	-8.21785
▁dahil	-8.2179
▁satış	-8.21801
▁sunul	-8.21804
mış	-8.21804
▁Kalite	-8.21807
bir	-8.22167
ot	-8.22441
eri	-8.22501
▁gerekir	-8.22624
pa	-8.22852
man	-8.22913
▁ko	-8.23399
▁sitesi	-8.23491
nden	-8.23596
tir	-8.23855
▁araç	-8.23987
st	-8.24106
▁süre	-8.24268
▁l	-8.24408
▁gerçek	-8.24497
nun	-8.2452
▁benzer	-8.24583
▁tedavi	-8.24648
AN	-8.24888
▁0	-8.2516
▁ha	-8.25165
lerde	-8.25273
▁mümkün	-8.25474
▁konaklama	-8.2557
▁metre	-8.25731
ul	-8.25737
▁Pe	-8.25766
th	-8.25932
▁kişi	-8.2606
▁tek	-8.26148
▁eder	-8.26442
▁malzeme	-8.26715
vi	-8.26906
▁ay	-8.27665
sinde	-8.28043
▁yapma	-8.28148
co	-8.28164
▁Ben	-8.28241
am	-8.28413
if	-8.28754
▁mm	-8.28757
▁ek	-8.28837
net	-8.28898
▁destek	-8.28899
▁suna	-8.29006
▁yok	-8.29271
▁yan	-8.29294
▁Hava	-8.29336
ic	-8.29414
▁ürünleri	-8.30007
lerinde	-8.30088
▁at	-8.3021
ği	-8.30237
▁yapmak	-8.30422
▁biri	-8.30494
▁Ka	-8.30853
▁12	-8.31179
▁kaynak	-8.31247
▁servis	-8.31828
luk	-8.31906
W	-8.31986
▁geliştirme	-8.32273
▁renk	-8.32275
▁belir	-8.33291
▁uzun	-8.33296
▁mevcut	-8.33329
▁PVC	-8.33333
▁otomatik	-8.33334
▁Gizli	-8.33335
▁internet	-8.33335
▁sırasında	-8.33339
▁kabul	-8.3334
▁Ltd	-8.33452
▁bilgileri	-8.33464
▁olmayan	-8.33527
▁diş	-8.3364
▁Daha	-8.3369
ış	-8.33849
▁Biz	-8.33878
▁top	-8.33909
▁uygulama	-8.33931
tı	-8.33985
siniz	-8.34002
ğu	-8.34309
ında	-8.34472
▁hasta	-8.34622
▁ağ	-8.34647
▁Üreticiler	-8.34992
▁edin	-8.35323
▁genel	-8.3574
ğ	-8.36248
▁sa	-8.36532
▁cam	-8.36595
id	-8.36606
▁güç	-8.36826
▁No	-8.36846
▁odaları	-8.37368
▁tam	-8.37435
▁temel	-8.37519
▁Android	-8.37528
▁sağlık	-8.37555
▁güçlü	-8.37661
▁varsa	-8.37684
▁düşük	-8.37843
su	-8.38479
▁Ş	-8.39137
▁La	-8.39532
yum	-8.39637
▁25	-8.39837
▁başka	-8.40021
▁yüzey	-8.40218
▁müşteri	-8.40501
▁te	-8.40544
▁Ar	-8.40683
du	-8.40996
▁hizmeti	-8.41387
▁dosya	-8.41447
sınız	-8.41594
▁fotoğraf	-8.41604
▁sık	-8.41844
▁Müşteri	-8.41847
▁çevrim	-8.41853
▁boyunca	-8.41872
ha	-8.41912
▁satın	-8.42078
sına	-8.42232
▁veri	-8.42423
▁konu	-8.4252
larına	-8.42906
▁Ko	-8.42984
▁ise	-8.43604
mız	-8.43668
▁tel	-8.43903
▁tasarım	-8.43924
hi	-8.44025
iş	-8.44282
▁El	-8.44305
▁toplam	-8.44675
lerimiz	-8.44985
▁test	-8.45022
▁Ro	-8.4596
▁ışık	-8.46101
elde	-8.46261
▁Avrupa	-8.46393
▁hafif	-8.46393
▁Ancak	-8.46395
▁Hidrolik	-8.46402
▁Satış	-8.46415
▁Plastik	-8.46416
▁Live	-8.46422
▁kullanılabilir	-8.46424
▁yakın	-8.46497
▁Tüm	-8.46535
▁ödeme	-8.46536
▁araştırma	-8.46638
▁toz	-8.46644
ke	-8.46856
▁kan	-8.46885
▁sağlamak	-8.46963
▁Wi	-8.47028
▁alma	-8.4709
▁gerekli	-8.47178
larında	-8.47424
çı	-8.47749
lanmaz	-8.47982
▁etki	-8.47993
ran	-8.4825
rası	-8.48403
▁hazır	-8.48689
▁parça	-8.487
ilmiş	-8.49684
▁kat	-8.49769
▁olma	-8.49786
▁sistem	-8.4979
ug	-8.49882
▁işlem	-8.50558
▁özellikle	-8.50774
▁televizyon	-8.51012
▁nedenle	-8.51034
▁donatılmış	-8.51111
ım	-8.51128
▁modern	-8.51145
▁çift	-8.51155
▁olup	-8.51156
▁Konuklar	-8.51159
▁gıda	-8.51161
▁üzerine	-8.51168
▁Ekipmanları	-8.51196
▁program	-8.51207
▁çevre	-8.51217
▁ayrı	-8.51228
▁Gıda	-8.51254
▁doğal	-8.51286
cil	-8.51322
▁ediyor	-8.51468
▁Işık	-8.51522
let	-8.51841
▁Me	-8.51914
▁eğitim	-8.51953
J	-8.52138
▁200	-8.52174
çi	-8.52272
▁yolu	-8.52293
▁yapılan	-8.52456
▁Motor	-8.52465
üz	-8.52757
bu	-8.52793
▁9	-8.52905
▁özellikleri	-8.53141
diği	-8.53171
▁şirket	-8.53189
▁Ça	-8.53252
▁makine	-8.53315
maya	-8.53631
ö	-8.53902
▁konum	-8.54086
▁performans	-8.54192
ex	-8.54591
▁ad	-8.54648
▁insan	-8.55087
▁deneyim	-8.5521
▁Güç	-8.55249
sine	-8.55321
▁süresi	-8.55371
▁sol	-8.55644
▁yap	-8.55863
▁Tek	-8.56004
▁duş	-8.56056
▁çoğu	-8.56154
▁Büyük	-8.56155
▁motor	-8.56155
▁Otomatik	-8.56157
▁CNC	-8.56183
▁edilir	-8.56204
▁hiç	-8.56211
▁metal	-8.56223
▁konusunda	-8.56223
▁kaplama	-8.56282
▁Çok	-8.56297
yoruz	-8.56321
▁Sistemi	-8.56332
▁Cam	-8.56336
▁izin	-8.56384
▁değildir	-8.56457
▁karar	-8.56888
▁Bunun	-8.56975
20	-8.57002
▁kar	-8.57109
ebilirsiniz	-8.57287
▁kullan	-8.57436
▁bak	-8.57541
▁hizmetleri	-8.57801
▁Ev	-8.58448
▁eş	-8.58562
MA	-8.5912
sız	-8.59242
▁İş	-8.59302
▁boyut	-8.5932
▁Tedarikçiler	-8.59442
▁plan	-8.59477
posta	-8.59762
mıştır	-8.59855
mo	-8.601
tu	-8.60166
met	-8.60337
nızı	-8.6054
▁alt	-8.60784
▁Ho	-8.61075
▁elektrik	-8.61078
▁Kar	-8.61086
▁fabrika	-8.61171
▁ütü	-8.61417
▁İstanbul	-8.61418
▁anahtar	-8.61418
▁giriş	-8.61418
▁enerji	-8.61418
▁yapar	-8.61428
▁akıl	-8.61432
▁mevcuttur	-8.61432
▁sürekli	-8.61432
▁kristal	-8.61438
▁Beyaz	-8.61454
▁kullanarak	-8.61456
▁ucuz	-8.61468
▁şehir	-8.61514
▁plastik	-8.61517
▁Yapı	-8.61601
▁etme	-8.61662
nkü	-8.61733
▁ses	-8.61811
▁adım	-8.61959
▁Oda	-8.62003
▁İçin	-8.62181
▁'	-8.62212
▁üst	-8.62249
▁kullanım	-8.62257
iji	-8.62369
▁etkili	-8.62435
▁be	-8.62436
30	-8.62444
▁üret	-8.62756
ru	-8.62875
do	-8.63436
▁standart	-8.63518
▁ortak	-8.63814
ey	-8.63859
lardan	-8.63862
▁1.	-8.6392
▁bağlantı	-8.63932
▁yüz	-8.63932
inin	-8.64005
▁Ana	-8.6424
ley	-8.64257
▁ak	-8.64339
lerle	-8.64601
▁baş	-8.64896
AL	-8.64982
▁to	-8.64986
(	-8.65417
▁bunu	-8.65468
der	-8.65469
muz	-8.65517
▁verme	-8.65577
▁St	-8.65729
▁yerde	-8.65883
çe	-8.65962
ağı	-8.66086
▁geç	-8.66119
▁anti	-8.66225
▁Açık	-8.66883
X	-8.66899
▁Toz	-8.66901
▁boru	-8.66948
▁San	-8.66971
▁duvar	-8.66973
▁GPS	-8.66974
▁yaygın	-8.66977
▁olun	-8.66985
▁başarı	-8.66986
▁edilmiştir	-8.66988
▁Düşü	-8.67011
▁güneş	-8.67012
▁böylece	-8.67025
▁sosyal	-8.67042
▁üreticisi	-8.67044
▁kur	-8.67188
cuz	-8.672
▁kız	-8.67263
▁100	-8.67593
▁yanında	-8.67635
▁güvenlik	-8.67657
▁tedavisi	-8.67789
▁Merkezi	-8.67794
▁TV	-8.67815
▁19	-8.67868
▁The	-8.68108
▁11	-8.68576
▁18	-8.6879
▁Isı	-8.68817
mesi	-8.69288
mi	-8.69314
▁Pi	-8.69359
▁tipi	-8.69491
▁Ak	-8.69506
ktan	-8.69873
ür	-8.69912
ının	-8.69981
▁ş	-8.70294
65	-8.70436
iyor	-8.70579
suz	-8.71293
▁dil	-8.71491
▁Sa	-8.71669
yo	-8.7168
▁tanı	-8.71839
▁olduk	-8.71932
▁bölge	-8.72078
▁gerçekte	-8.72137
▁Tasarım	-8.72374
ong	-8.72632
▁güzel	-8.72709
▁ziyaret	-8.72831
▁ma	-8.7285
▁Amerika	-8.72856
▁Havaalanı	-8.72856
▁vücut	-8.72856
▁sorumlu	-8.72856
▁Eğitim	-8.72856
▁Uzun	-8.72857
▁kurutma	-8.72857
▁Çift	-8.72857
▁teknik	-8.72859
▁sayesinde	-8.72861
▁Kişisel	-8.72868
▁apartman	-8.72869
▁otur	-8.72874
▁Model	-8.72874
▁asit	-8.72895
▁Ulus	-8.729
▁medya	-8.72916
▁içerir	-8.72941
▁Elektrik	-8.72964
▁Antalya	-8.72964
▁adet	-8.72964
▁ki	-8.72989
▁İyi	-8.73041
san	-8.73131
▁odası	-8.73154
▁oluşturmak	-8.73236
▁r	-8.73237
▁elektrikli	-8.73346
▁De	-8.73387
▁Tam	-8.7345
van	-8.73525
▁sayısı	-8.73541
▁yeniden	-8.73565
ecek	-8.73617
▁can	-8.73818
▁Er	-8.73833
inç	-8.74007
▁Kızlar	-8.74034
abilirsiniz	-8.74345
▁Ta	-8.74622
est	-8.74627
▁Vi	-8.74771
▁et	-8.74879
syon	-8.74924
sh	-8.75066
enellikle	-8.75178
▁Do	-8.75309
▁proje	-8.75522
▁şehrinde	-8.75594
go	-8.75608
leyici	-8.75645
▁Son	-8.75934
▁Video	-8.76106
masını	-8.76159
▁kullanımı	-8.76294
▁ser	-8.76357
▁Pro	-8.7651
ucu	-8.76678
▁Ara	-8.76694
▁çocuk	-8.76947
▁Veri	-8.76975
ına	-8.77176
be	-8.77236
ER	-8.77262
▁onları	-8.773
fi	-8.77364
▁50	-8.7743
mez	-8.77612
miştir	-8.7764
▁Mar	-8.77745
▁CO	-8.77799
Ü	-8.77848
▁şu	-8.77848
10	-8.77858
▁Lo	-8.78053
yse	-8.78104
acaktır	-8.78434
mer	-8.78541
▁zor	-8.786
▁re	-8.78838
▁13	-8.78881
▁erişim	-8.7893
▁sıcak	-8.78958
▁teslim	-8.79036
▁Boru	-8.79092
▁Küçük	-8.79106
▁döşeme	-8.79106
▁minibar	-8.79106
▁sahibi	-8.79108
▁sunmaktadır	-8.79111
▁fren	-8.79112
▁gücü	-8.79117
▁hidroli	-8.79119
▁Kaynak	-8.79122
▁soğutma	-8.79135
ör	-8.7914
▁sürücü	-8.7914
▁çalışır	-8.79148
▁Parçaları	-8.79183
▁Açıklama	-8.79212
▁uluslara	-8.79241
▁yerine	-8.79289
▁bizim	-8.79328
▁küveti	-8.79336
▁New	-8.79357
lanan	-8.79399
▁biridir	-8.79486
▁Ku	-8.79684
tor	-8.79715
▁IP	-8.79725
▁kablo	-8.79977
likle	-8.7998
▁emin	-8.80029
lerden	-8.80148
▁Bel	-8.80211
ül	-8.80448
▁alanında	-8.80648
▁anda	-8.80689
▁pompa	-8.807
▁Na	-8.80745
▁bakım	-8.80758
▁parçaları	-8.80793
▁sayıda	-8.80934
▁ç	-8.80977
▁dakikada	-8.8119
lanır	-8.81191
▁mi	-8.81438
▁Tedarikçi	-8.81521
▁çıkar	-8.81822
▁neden	-8.81933
▁16	-8.81959
▁40	-8.82419
▁Ek	-8.8242
▁Ba	-8.82464
nıza	-8.82477
ko	-8.82727
oz	-8.82805
▁di	-8.83084
▁hangi	-8.83703
▁grubu	-8.8392
▁çek	-8.83979
▁değer	-8.83997
▁sayfa	-8.84
▁güncel	-8.84346
▁Li	-8.84467
leştirilmiş	-8.84525
larından	-8.84541
▁Orta	-8.84735
▁Ya	-8.84897
▁tasarlanmış	-8.84922
uş	-8.8497
▁dikkat	-8.85267
ard	-8.85359
▁alır	-8.8538
osyal	-8.85707
▁Kapı	-8.85711
▁kayıt	-8.85773
▁yürüyüş	-8.85773
▁CAS	-8.85774
▁ihracat	-8.85774
▁nerede	-8.85776
▁resmi	-8.85777
▁kaynağı	-8.85783
üncü	-8.85786
▁basit	-8.85795
res	-8.858
▁nedeniyle	-8.85807
▁Karbon	-8.85814
▁Standart	-8.85818
▁çü	-8.85957
▁sunuyor	-8.85975
▁ekonomi	-8.85991
▁şekil	-8.86037
▁Park	-8.86164
▁Kapa	-8.86257
ly	-8.86262
eot	-8.86452
oji	-8.86689
▁yatak	-8.86698
▁Ra	-8.86758
sinin	-8.86762
▁spor	-8.86935
▁yeterli	-8.86952
▁man	-8.86969
▁olmalı	-8.86986
▁masa	-8.86997
dığı	-8.8736
▁bunları	-8.87594
▁daire	-8.87625
lanmış	-8.87696
▁ihtiyaç	-8.87746
▁verileri	-8.87766
malıdır	-8.87794
▁geliş	-8.88002
yet	-8.88082
oloji	-8.88134
ğa	-8.89142
ton	-8.89184
ici	-8.89322
ec	-8.89373
▁üzerinden	-8.89626
35	-8.89683
ıl	-8.89884
▁art	-8.90497
om	-8.90592
ga	-8.90644
▁doku	-8.90667
tür	-8.90835
▁uy	-8.90881
ME	-8.91381
▁gerek	-8.91451
▁geliştir	-8.9157
▁Sıcak	-8.91743
po	-8.91874
best	-8.91946
▁Be	-8.92163
unu	-8.92273
jen	-8.92276
mizi	-8.92294
▁Geri	-8.92296
▁değiş	-8.92359
▁yardım	-8.92381
▁seç	-8.92411
▁Top	-8.92467
▁dakikalı	-8.92486
▁Uygulama	-8.92509
▁Araba	-8.92746
▁önem	-8.92786
▁verimli	-8.92787
▁dolayı	-8.92802
▁inşa	-8.9286
landırma	-8.92869
▁rahat	-8.92898
▁Mutfak	-8.92915
▁mutfak	-8.92915
▁kahve	-8.92915
▁şimdi	-8.92915
▁Dünya	-8.92916
▁fırın	-8.92917
▁Beach	-8.92921
▁cilt	-8.92921
▁gel	-8.92926
▁eski	-8.92927
▁telefon	-8.92929
▁İlk	-8.92933
▁girme	-8.92941
▁Alüminyum	-8.92964
▁Basınç	-8.92979
▁sıcaklık	-8.93038
▁gelir	-8.93052
▁Kol	-8.93073
▁ait	-8.93206
▁yapan	-8.9328
▁kaldırma	-8.93291
ömür	-8.93359
eği	-8.9347
▁hemen	-8.93477
▁14	-8.93517
▁sizin	-8.93688
▁olum	-8.93719
▁17	-8.93816
▁ekipman	-8.93879
kü	-8.93914
esi	-8.93944
▁görev	-8.94173
▁kullanmak	-8.94278
▁seks	-8.94526
za	-8.94804
ina	-8.94962
▁özelliği	-8.95044
▁of	-8.95083
▁kapı	-8.95209
11	-8.95308
▁site	-8.95326
▁insanlar	-8.95467
▁çocuklar	-8.95588
rken	-8.95852
▁va	-8.95904
▁Ö	-8.96153
ov	-8.96346
hir	-8.96494
▁kuru	-8.96558
▁kanal	-8.96586
ist	-8.96608
diğiniz	-8.97139
▁kas	-8.97151
▁ku	-8.97322
▁marka	-8.97561
▁içerik	-8.97642
▁Ama	-8.97834
▁paslanma	-8.97935
▁yat	-8.97968
ji	-8.98141
▁sağlan	-8.98441
ber	-8.98447
1)	-8.98715
yon	-8.9877
Fi	-8.98803
▁as	-8.9884
▁kullanıl	-8.98971
▁açıl	-8.9902
▁ilişki	-8.99409
▁iz	-8.9943
▁hayvan	-8.996
▁Üniversite	-8.99682
▁yazılım	-8.99835
▁baz	-9.00063
aj	-9.001
▁onay	-9.00139
▁takım	-9.00179
rak	-9.00236
ilmesi	-9.00242
vo	-9.00272
▁ölçü	-9.00299
▁kalitesi	-9.00344
▁çap	-9.00488
▁sert	-9.00508
ilikon	-9.00522
▁böyle	-9.00536
▁doğa	-9.00538
ris	-9.00547
▁dört	-9.00572
▁seçenek	-9.00594
▁balataları	-9.00607
▁dayanıklı	-9.00607
▁iletişim	-9.00607
▁rağmen	-9.00607
▁döküm	-9.00607
▁olsun	-9.00607
▁bebek	-9.00608
▁LCD	-9.00608
▁yalnız	-9.00608
▁çanta	-9.00608
▁lazer	-9.00609
▁kısa	-9.0061
▁harika	-9.00612
▁ısıtma	-9.00613
▁Tipi	-9.0062
▁PC	-9.00623
▁beyaz	-9.00623
▁mesafesinde	-9.00624
▁yükleme	-9.00637
▁Servis	-9.00638
▁Fiber	-9.00648
▁Ni	-9.00675
▁geçirmez	-9.00687
▁aşağıdaki	-9.0069
▁etmektedir	-9.00698
▁sözleşme	-9.00746
larıyla	-9.00747
▁Diğer	-9.00756
▁Alanya	-9.00831
atör	-9.00878
▁restoran	-9.00878
▁gereken	-9.00895
▁çay	-9.00907
azı	-9.00995
▁kontrolü	-9.01062
▁firma	-9.01142
▁bel	-9.01217
▁sap	-9.01256
▁gaz	-9.01265
▁Adı	-9.01306
▁sağlaya	-9.01415
EL	-9.01461
▁ürünlerin	-9.01479
▁bütün	-9.01616
▁Para	-9.01682
ab	-9.01789
▁oldu	-9.01817
▁onun	-9.01874
▁işlemi	-9.02086
zyon	-9.02144
▁testi	-9.02151
▁gönder	-9.02224
▁düzen	-9.02227
▁pil	-9.0259
üks	-9.02593
▁hale	-9.02722
▁üreticileri	-9.02763
bot	-9.02778
▁yaşam	-9.02948
▁kalma	-9.02983
rlak	-9.03035
▁İşlem	-9.03125
▁görüntü	-9.03341
▁serisi	-9.03457
lay	-9.03515
j	-9.03781
lenme	-9.03959
▁taraf	-9.03992
▁Le	-9.04035
ecektir	-9.04067
min	-9.04084
ck	-9.04085
▁kal	-9.04092
▁başladı	-9.04129
hal	-9.04175
▁kullanıcılar	-9.04184
▁dik	-9.04285
▁açı	-9.04464
imiz	-9.04543
tif	-9.04757
▁For	-9.04876
eb	-9.04947
▁Proje	-9.0497
▁ince	-9.05018
▁altın	-9.05123
luğu	-9.0529
▁sınıf	-9.0539
▁(4	-9.05442
▁durum	-9.05522
▁Dr	-9.05647
▁taş	-9.0612
▁22	-9.06289
▁güven	-9.06316
▁Kur	-9.06349
▁alerji	-9.06438
top	-9.06572
▁ilaç	-9.06692
▁do	-9.0675
▁boya	-9.06962
▁As	-9.07
▁aç	-9.07043
lük	-9.07145
▁oyna	-9.07222
ilen	-9.07349
▁model	-9.07461
▁genç	-9.07589
▁tesisi	-9.07881
▁yaklaşı	-9.07967
han	-9.07982
▁duy	-9.08245
▁is	-9.08289
kar	-9.0835
ast	-9.08674
▁oluş	-9.08696
▁zengin	-9.08819
▁pazar	-9.08823
▁onu	-9.08826
▁işaret	-9.08857
▁ticar	-9.08882
aşınabilir	-9.08893
ep	-9.089
▁çiçek	-9.08917
▁Genel	-9.08927
▁Bilgi	-9.08939
▁Ambalaj	-9.08941
▁garanti	-9.08941
▁Havalimanı	-9.08941
▁Malzeme	-9.08941
▁Bebek	-9.08941
▁Turkey	-9.08941
▁Erkek	-9.08941
▁yetenek	-9.08941
▁talep	-9.08942
▁oyuncu	-9.08943
▁kalın	-9.08945
▁Kendi	-9.08946
▁profil	-9.08948
▁yorum	-9.08949
▁meyve	-9.08953
▁2016	-9.08963
▁baskı	-9.08964
veriş	-9.08965
▁amacı	-9.08972
▁popüler	-9.08975
▁Daire	-9.0898
ans	-9.08985
▁opti	-9.08994
glas	-9.08995
▁Jeneratörü	-9.08996
▁yapılır	-9.09004
▁saniye	-9.09029
▁aracı	-9.09033
▁numarası	-9.09035
▁sahne	-9.09039
▁Ayak	-9.0904
▁Kes	-9.09065
▁Mobilya	-9.09078
▁ayak	-9.09093
▁çapında	-9.09142
EN	-9.09179
▁Seks	-9.09184
▁dal	-9.09191
▁olmadan	-9.09225
▁beri	-9.09229
▁Dış	-9.09343
▁Tekni	-9.09346
ver	-9.09424
▁Mo	-9.09484
▁kutusu	-9.09512
up	-9.09526
▁Alan	-9.09568
auçuk	-9.09606
una	-9.09611
dür	-9.09633
▁pek	-9.09633
▁ben	-9.09644
▁Alaşım	-9.0968
▁takı	-9.0969
NA	-9.09805
▁Car	-9.09909
▁çalışan	-9.09955
▁seçeneği	-9.1008
ng	-9.1014
▁In	-9.10155
▁uzman	-9.10244
▁Onlar	-9.10271
IL	-9.10512
ız	-9.10776
▁madde	-9.108
acağı	-9.10974
▁ö	-9.11162
▁uygulamaları	-9.1119
▁anlamın	-9.11215
▁eğitimi	-9.11469
▁Ad	-9.115
▁v	-9.11785
▁görün	-9.1179
şırı	-9.11892
▁sürü	-9.11909
▁ortam	-9.11941
32	-9.12015
▁Siz	-9.12059
ment	-9.12083
▁onlar	-9.12222
yü	-9.12312
▁ülke	-9.12323
▁temiz	-9.12369
▁Oyun	-9.12389
▁Poli	-9.12717
▁bilet	-9.12848
▁tasarımı	-9.12855
fe	-9.13008
▁ke	-9.13176
tur	-9.13194
atif	-9.13342
▁nokta	-9.13437
▁sağ	-9.13474
▁bin	-9.13689
▁bağ	-9.13746
000	-9.13894
fer	-9.13913
▁banyolar	-9.13928
▁çıkarma	-9.13996
▁listesi	-9.14243
til	-9.1432
ılır	-9.14474
▁müşteriler	-9.14729
nce	-9.14866
▁yapısı	-9.14922
▁mesaj	-9.15191
hu	-9.15223
cılık	-9.15494
arı	-9.15557
8)	-9.15585
▁tarih	-9.15891
▁etkileri	-9.16116
▁Bo	-9.16162
▁ka	-9.16205
▁çözüm	-9.16299
▁na	-9.1635
▁içer	-9.16528
▁dış	-9.16582
-1	-9.16702
landı	-9.16932
sunu	-9.17005
ince	-9.17118
▁yemek	-9.17137
leştir	-9.17146
▁Şa	-9.17163
▁SA	-9.1735
layan	-9.17351
▁Yazılım	-9.17564
▁HD	-9.17573
▁ilgi	-9.17578
▁AC	-9.17631
▁Ayakkabı	-9.17635
▁Renk	-9.17638
▁bitki	-9.17641
▁düz	-9.17658
▁hi	-9.17683
▁Çalışma	-9.17694
▁Makine	-9.17775
▁asansör	-9.17789
led	-9.17882
▁Destek	-9.17883
▁güvenilir	-9.17884
▁park	-9.17901
▁ücret	-9.17979
▁ağır	-9.18006
▁tercih	-9.18016
▁yayın	-9.18032
▁Duvar	-9.18032
▁alüminyum	-9.18032
▁buzdolabı	-9.18032
▁escort	-9.18032
▁lütfen	-9.18032
▁reklam	-9.18032
▁yukarı	-9.18032
▁örnek	-9.18032
▁şarj	-9.18032
▁Enerji	-9.18032
▁siyah	-9.18032
▁İlgi	-9.18032
▁iklim	-9.18032
▁Giriş	-9.18032
▁Kayıt	-9.18032
▁Yuva	-9.18033
▁Online	-9.18033
▁işbirliği	-9.18033
▁online	-9.18033
▁Endüstriyel	-9.18034
▁ideal	-9.18034
▁Verimli	-9.18034
▁yıkama	-9.18034
▁Kadın	-9.18034
▁Euro	-9.18035
▁Istanbul	-9.18036
▁açısından	-9.18039
▁arka	-9.1804
▁tutmak	-9.18042
▁işlev	-9.18042
▁Diş	-9.18055
▁Ağır	-9.18056
▁Makinası	-9.1806
▁üye	-9.18061
▁programı	-9.18068
▁dışında	-9.1807
▁tarım	-9.18071
▁hayal	-9.18081
▁temizleme	-9.18083
▁Kontrol	-9.18088
▁tıklayın	-9.18092
▁kurtarma	-9.18095
▁Siyah	-9.18095
▁durumunda	-9.18102
▁Güvenlik	-9.18104
▁inşaat	-9.18105
▁ticaret	-9.18117
▁yöntem	-9.18155
▁türü	-9.18156
ness	-9.18161
▁tren	-9.18163
▁öneril	-9.18164
▁Windows	-9.18204
▁İngilizce	-9.18208
▁tanım	-9.18216
▁Spor	-9.18219
▁alış	-9.18313
▁Burada	-9.18319
▁kez	-9.18323
▁2017	-9.18341
▁Üniversitesi	-9.18343
▁Free	-9.18357
▁fonksiyon	-9.18366
▁mikro	-9.18371
▁öğrenme	-9.18382
▁gösterir	-9.18397
▁özellikler	-9.18415
▁içi	-9.18443
▁durumda	-9.18453
▁Renkli	-9.18476
▁Genç	-9.18546
▁Gaz	-9.18572
▁tesis	-9.18665
▁Fit	-9.18741
▁j	-9.18807
▁bilgilerinizi	-9.18878
▁em	-9.18911
▁İn	-9.1896
▁getir	-9.18973
▁kıl	-9.19074
▁misafir	-9.19089
ere	-9.1912
gin	-9.19123
▁İki	-9.19195
lap	-9.19313
mize	-9.19358
▁eden	-9.19438
▁Ü	-9.19451
▁sen	-9.19459
99	-9.1947
▁ora	-9.196
▁birey	-9.19674
▁ağrı	-9.19751
▁durumu	-9.19803
▁işleme	-9.19877
▁kay	-9.1988
▁hortum	-9.19982
▁Or	-9.20077
▁Art	-9.20158
DR	-9.20261
nil	-9.20284
▁Oteller	-9.20321
▁istasyonu	-9.20369
gi	-9.20401
7)	-9.20578
▁ısı	-9.20589
dığınız	-9.20614
▁sür	-9.20637
▁ar	-9.20751
larla	-9.20853
ə	-9.20905
▁seri	-9.21221
rol	-9.2125
▁seçim	-9.21338
▁parçalar	-9.21362
▁bil	-9.21474
▁Yer	-9.21497
zon	-9.21613
▁mu	-9.2164
ent	-9.21724
tion	-9.21805
tra	-9.21908
▁Ol	-9.21941
▁Site	-9.22066
▁der	-9.22215
▁tak	-9.22386
sanız	-9.22453
▁Fi	-9.2246
▁değiştir	-9.22479
ktif	-9.22482
▁he	-9.22499
▁edilme	-9.22534
▁süreç	-9.22634
layın	-9.22661
larımız	-9.22683
Ş	-9.22825
ll	-9.23368
▁Gol	-9.23486
▁çeşit	-9.23495
cak	-9.2355
▁başın	-9.23761
▁Baz	-9.23793
meyen	-9.23871
▁ton	-9.23905
▁Test	-9.23931
▁Üretici	-9.23946
▁edi	-9.2395
▁Çocuklar	-9.2398
▁tekrar	-9.24093
▁ni	-9.24161
▁kullanma	-9.24187
▁Birleş	-9.24211
mı	-9.24231
fa	-9.24429
▁deniz	-9.24549
▁dizi	-9.24662
▁bulun	-9.24838
▁Tur	-9.2488
▁hakkı	-9.24904
▁şehrin	-9.25029
▁kapa	-9.25244
lenmiş	-9.25356
IN	-9.25402
▁Pet	-9.2555
▁yarı	-9.2594
▁kol	-9.25965
▁Ray	-9.26008
Harita	-9.26103
▁suyu	-9.26252
ngste	-9.26316
▁içeriği	-9.26342
▁Ri	-9.26379
ting	-9.265
men	-9.26525
EK	-9.26574
ıldı	-9.26588
▁maliyet	-9.26661
▁taşı	-9.26771
je	-9.26999
SS	-9.27025
▁am	-9.27048
▁kim	-9.27151
asyonu	-9.27238
▁başvuru	-9.2727
▁teknolojisi	-9.27313
▁Q	-9.27388
leyin	-9.27415
▁montaj	-9.27564
▁tarayıcı	-9.27569
PC	-9.27649
▁zarar	-9.27747
▁Pompa	-9.27807
gıç	-9.27855
▁amaç	-9.27904
ırmızı	-9.2799
▁güvenli	-9.27995
▁yapıl	-9.28004
а	-9.28027
▁www	-9.28032
▁Anahtar	-9.28032
▁Sandalye	-9.28032
▁tespit	-9.28032
▁şüphe	-9.28032
▁Doğal	-9.28032
▁öğreti	-9.28032
▁konfor	-9.28032
▁Şimdi	-9.28032
▁şerit	-9.28032
▁Lastik	-9.28032
▁PDF	-9.28032
▁zorunda	-9.28033
▁Grup	-9.28033
▁Sultan	-9.28033
▁tüp	-9.28033
▁kamu	-9.28034
▁kalıp	-9.28034
▁Kemer	-9.28035
▁köpek	-9.28035
igara	-9.28035
▁sağlamaktadır	-9.28036
▁hassasiyet	-9.28036
▁Serisi	-9.28036
▁potansiyel	-9.28038
▁tavsiye	-9.28041
▁uyum	-9.28043
▁Aşağıda	-9.28048
▁risk	-9.28052
▁çıkış	-9.28054
▁herkes	-9.28054
▁üretilen	-9.28056
▁plaka	-9.28057
▁anlaşma	-9.2806
▁yoktur	-9.28062
▁Oksi	-9.28065
▁toprak	-9.28067
▁yerleş	-9.28073
▁Bil	-9.28074
▁aile	-9.28078
▁mavi	-9.28088
▁yine	-9.2809
▁besleme	-9.2809
▁City	-9.28091
▁the	-9.28096
▁Çubuk	-9.28098
▁taşınabilir	-9.28099
▁Güneş	-9.28102
▁Hassas	-9.28121
▁artış	-9.28126
▁günlük	-9.28167
▁kimlik	-9.2817
▁Hızlı	-9.28172
▁dokunma	-9.28218
▁veren	-9.28353
▁mor	-9.28359
▁Dosya	-9.28359
▁burada	-9.28371
▁Led	-9.28375
▁alaşım	-9.28403
zmeti	-9.2841
▁kalan	-9.28418
▁doz	-9.28422
▁yapabilir	-9.2844
▁Raf	-9.28469
▁Har	-9.28487
▁filtre	-9.28548
▁kutu	-9.28571
▁Yor	-9.28572
▁ayar	-9.28642
▁yerinde	-9.28769
mızı	-9.28826
▁mü	-9.28836
▁yasa	-9.28877
lle	-9.28885
▁sorun	-9.28934
ılmış	-9.28974
2.5	-9.29002
▁inan	-9.29004
12	-9.29017
▁çalış	-9.2905
▁seçme	-9.29059
2)	-9.29171
▁odalar	-9.29327
▁sitemiz	-9.29327
▁Spa	-9.29413
▁hedef	-9.29452
▁düzey	-9.29476
arası	-9.29488
▁oluşturur	-9.29584
rada	-9.29587
▁so	-9.2963
▁yaz	-9.2969
▁halin	-9.29731
AT	-9.29772
19	-9.29883
▁miktarda	-9.29899
tasyon	-9.29966
▁erkek	-9.29996
18	-9.30069
▁Diz	-9.30156
▁Yük	-9.30165
▁ürünü	-9.30199
▁günü	-9.30242
olum	-9.30392
▁AB	-9.30485
sin	-9.30502
▁delik	-9.30562
▁sey	-9.30669
▁Yan	-9.30688
Ç	-9.30809
▁odada	-9.30841
▁mekan	-9.3096
▁po	-9.31025
▁malzemeler	-9.3106
▁Yağ	-9.31085
▁mı	-9.31137
▁terası	-9.31223
trik	-9.31287
▁makineleri	-9.31335
inizi	-9.3138
laş	-9.31813
▁Mil	-9.31986
vir	-9.32226
40	-9.32293
▁Ön	-9.32295
▁yöntemleri	-9.32341
▁görü	-9.32371
▁faaliyet	-9.32762
▁Bay	-9.32803
▁tip	-9.32993
▁verir	-9.33162
▁ila	-9.33201
▁kapsam	-9.33317
▁Yön	-9.33373
▁yönetim	-9.33445
ımız	-9.33506
▁kök	-9.33677
▁Pri	-9.33683
▁J	-9.34052
02	-9.34094
▁ta	-9.34123
▁etkin	-9.34182
▁film	-9.34266
istik	-9.34382
▁dönüş	-9.34502
lat	-9.34509
-100	-9.34513
▁yara	-9.34523
▁nedeni	-9.3467
OS	-9.34676
▁hastalar	-9.34688
IK	-9.34762
▁çalışmak	-9.34803
▁manzara	-9.34813
▁Di	-9.34866
▁verile	-9.35278
▁(2	-9.35279
ation	-9.35414
▁taban	-9.35456
▁Hizmetleri	-9.35719
▁şifre	-9.35759
▁Fer	-9.35841
ev	-9.3593
▁deri	-9.36026
▁noktası	-9.36156
OL	-9.36202
▁sat	-9.36214
ünü	-9.36332
▁gelme	-9.36394
▁hız	-9.36565
▁çeki	-9.36684
▁üretimi	-9.36691
▁alacak	-9.36914
▁malzemeleri	-9.36966
▁fiyatları	-9.37127
mesini	-9.37469
tin	-9.37612
▁bilgisayar	-9.37705
ago	-9.37901
▁Panel	-9.37919
Ö	-9.3794
▁gerektir	-9.3798
▁kart	-9.38007
▁büyüme	-9.3804
▁se	-9.38049
▁(5	-9.38111
alıcı	-9.3826
emin	-9.38333
erken	-9.38355
ından	-9.38396
▁Özellikler	-9.38473
per	-9.38551
bit	-9.38602
▁lisans	-9.38713
▁Fiyat	-9.38714
▁Çiçek	-9.38716
bilir	-9.38723
▁restor	-9.38754
▁metr	-9.38832
▁desen	-9.38907
▁ulus	-9.38909
larınızı	-9.38921
▁Görüntüle	-9.38922
▁tut	-9.38943
▁geçerli	-9.38984
▁kişili	-9.39011
▁esnek	-9.39013
▁yönet	-9.39044
▁Kira	-9.39088
▁yoğun	-9.39088
▁yedek	-9.39095
ükemmel	-9.39104
oks	-9.39112
▁edebilir	-9.39114
Ý	-9.39143
▁Aydınlatma	-9.39143
▁Hafif	-9.39143
▁Kirovograd	-9.39143
▁Standoff	-9.39143
▁Telefon	-9.39143
▁Türbin	-9.39143
▁gümüş	-9.39143
▁kahvaltı	-9.39143
▁karaciğer	-9.39143
▁levha	-9.39143
▁pantolon	-9.39143
▁Çerçeve	-9.39143
▁Ücret	-9.39143
▁bahçe	-9.39143
▁Çevrim	-9.39143
▁içerisinde	-9.39143
▁yetkisi	-9.39143
▁Tracker	-9.39143
▁Hattı	-9.39143
▁OEM	-9.39143
▁maruz	-9.39143
▁İlaç	-9.39144
▁zaten	-9.39144
▁Dedektörü	-9.39144
▁Yıka	-9.39144
▁DVD	-9.39144
▁Sınıf	-9.39145
▁Japon	-9.39145
▁pencere	-9.39146
▁iPhone	-9.39146
▁şeffaf	-9.39146
▁zemin	-9.39147
▁endüstriyel	-9.39147
▁Rulo	-9.39148
▁bağımsız	-9.39148
▁soğuk	-9.39148
▁tarama	-9.39148
▁istiyorsanız	-9.39149
▁koruyucu	-9.3915
▁şeker	-9.39152
▁Buhar	-9.39153
▁tüketici	-9.39159
▁İkinci	-9.39161
▁2013	-9.39162
▁kötü	-9.39169
▁yoğunluk	-9.39173
▁benim	-9.39176
▁sıvı	-9.39178
▁Pazar	-9.39179
▁edildi	-9.39184
▁Ankara	-9.39191
SL	-9.39201
▁sergi	-9.39209
▁Havuz	-9.3922
▁Hareket	-9.39222
▁Köpek	-9.39222
▁raf	-9.39227
▁istediğiniz	-9.3923
▁Asit	-9.39239
▁isteyen	-9.39253
▁bakır	-9.39257
▁Ay	-9.39269
▁aldı	-9.39279
▁esneklik	-9.39279
▁durumlarda	-9.39304
dll	-9.39308
▁hesap	-9.39347
▁Bilim	-9.39361
▁önleme	-9.39389
▁danışman	-9.39389
leyen	-9.39393
▁Anti	-9.39411
▁So	-9.39416
▁kullanın	-9.39476
▁sınır	-9.39493
▁grafik	-9.3951
▁vida	-9.39514
▁Val	-9.39529
▁Berry	-9.39529
teki	-9.39651
itap	-9.39653
▁gö	-9.39678
▁olduğundan	-9.39685
▁kurulum	-9.39695
ğe	-9.39837
▁yön	-9.39915
rmektedir	-9.39945
▁mal	-9.39957
▁arama	-9.39971
▁tu	-9.40001
▁görmek	-9.40013
▁önemlidir	-9.40037
▁PE	-9.40045
▁45	-9.40115
▁Şu	-9.40233
ıyor	-9.40323
▁alıcı	-9.40347
▁ulaş	-9.40386
▁renkli	-9.40449
▁bi	-9.40586
iciler	-9.40768
İK	-9.40823
▁izleme	-9.40856
▁ilişkin	-9.4093
▁olmadığını	-9.4105
sunuz	-9.41078
ınız	-9.41111
port	-9.41112
▁Ticar	-9.41164
istan	-9.41184
▁alanda	-9.41285
▁deneyimi	-9.41341
cal	-9.414
▁PP	-9.41445
▁Per	-9.41484
▁sonrası	-9.41508
3)	-9.41585
ahat	-9.41604
▁cihaz	-9.41631
70	-9.41724
agaj	-9.41798
▁araya	-9.41938
▁)	-9.42033
▁bilgiler	-9.42043
▁pi	-9.42076
▁çık	-9.42247
▁yıllar	-9.42314
dığını	-9.42441
▁etkisi	-9.42665
и	-9.42817
33	-9.42892
duğunuz	-9.4291
▁gösteril	-9.42926
▁dosyası	-9.42952
▁ekipmanı	-9.43048
▁ac	-9.43057
▁Otelde	-9.43084
art	-9.43294
▁PA	-9.43361
▁İste	-9.43407
ym	-9.43465
gu	-9.43514
ünlük	-9.43524
▁uygulamalar	-9.43531
▁sayı	-9.43742
▁yaşa	-9.43764
▁servisi	-9.43839
▁Çocuk	-9.43873
▁sinyal	-9.43925
larımızı	-9.4398
▁öğrenci	-9.44023
imi	-9.44069
lıdır	-9.44382
lanması	-9.44418
▁etti	-9.44524
yel	-9.44669
▁hayatı	-9.44913
▁pas	-9.44931
ho	-9.44937
iyet	-9.44992
▁co	-9.45255
▁yöntemi	-9.45324
▁kadın	-9.45505
▁x	-9.45575
▁siz	-9.45619
eks	-9.45793
eçici	-9.45968
54	-9.46103
▁malzemesi	-9.46204
▁uygulaması	-9.46357
▁kurul	-9.46367
ladı	-9.46462
yd	-9.46773
izasyon	-9.46813
makta	-9.46827
▁araçları	-9.46855
▁şeklin	-9.46886
her	-9.47069
▁söyle	-9.47249
▁Pa	-9.47378
▁kap	-9.47393
▁(1	-9.47432
▁tema	-9.47683
▁kapılar	-9.47705
lış	-9.47825
ary	-9.48001
▁değiştirme	-9.4808
▁dağ	-9.48165
▁Bra	-9.48283
▁hafta	-9.48402
▁manzarasın	-9.48436
▁büyü	-9.48514
üğün	-9.48599
▁vi	-9.48604
gr	-9.48642
io	-9.48775
▁Te	-9.48823
▁199	-9.48957
▁Kat	-9.49099
yabilir	-9.49111
▁Odalar	-9.49232
▁korumak	-9.49321
▁Üst	-9.49365
▁yeter	-9.49418
ja	-9.49455
▁dön	-9.49475
▁kablosu	-9.49663
▁fazlası	-9.49799
kal	-9.49837
▁cihazı	-9.50181
line	-9.50188
IM	-9.50264
abilecek	-9.50387
-5	-9.50412
▁olası	-9.50492
Daha	-9.505
nize	-9.50513
▁kesme	-9.50544
▁geçir	-9.50557
▁500	-9.5062
▁mesafe	-9.50653
▁işletme	-9.50704
▁sistemleri	-9.50724
ebileceğiniz	-9.50869
▁Bunu	-9.50917
tıcı	-9.51198
▁yatırım	-9.51231
▁Kurulu	-9.51246
land	-9.51264
▁Vana	-9.51287
▁rezervasyon	-9.5133
▁eriş	-9.51339
altı	-9.51395
▁kon	-9.51437
▁and	-9.51495
hşap	-9.51545
▁Taban	-9.51549
▁duru	-9.51563
▁Bölge	-9.51608
▁uç	-9.51624
▁Tekerlek	-9.51643
▁itibar	-9.51643
▁Baskı	-9.51643
▁Dayanıklı	-9.51643
▁Doğru	-9.51643
▁Geogrid	-9.51643
▁Google	-9.51643
▁bünyesinde	-9.51643
▁cevap	-9.51643
▁karmaşık	-9.51643
▁personel	-9.51643
▁pürüz	-9.51643
▁zincir	-9.51643
▁fırça	-9.51643
▁lamba	-9.51643
▁Şarj	-9.51643
▁cüzdan	-9.51643
▁Sayfa	-9.51643
▁hediye	-9.51643
▁kumaş	-9.51643
▁Sonuç	-9.51644
▁villa	-9.51644
▁ödül	-9.51644
▁yolcu	-9.51644
▁Zaman	-9.51644
▁Organi	-9.51645
▁yavaş	-9.51645
▁bisiklet	-9.51646
▁monte	-9.51646
▁panel	-9.51647
▁valf	-9.51648
▁karşılamak	-9.51648
▁Design	-9.51649
▁konuşma	-9.51649
▁önünde	-9.5165
▁Facebook	-9.5165
▁bonus	-9.51652
▁Levha	-9.51652
▁gece	-9.51655
▁rengi	-9.51655
▁katkı	-9.51656
▁maksimum	-9.51656
▁toplantı	-9.51657
▁fiziksel	-9.51657
▁Eski	-9.51658
▁lider	-9.51659
ESİ	-9.5166
▁beslenme	-9.51661
▁ulaşılabilir	-9.51661
▁operasyon	-9.51662
▁doğum	-9.51663
▁piyasa	-9.51663
▁kilo	-9.51665
▁görebilirsiniz	-9.51665
▁teklif	-9.51667
▁ister	-9.51671
▁havlu	-9.51673
▁elektronik	-9.51675
▁kağıdı	-9.51676
▁saygı	-9.51684
▁Tavan	-9.51686
▁büyüklüğü	-9.51689
roliz	-9.5169
▁eylem	-9.5169
▁eğer	-9.51691
▁azaltır	-9.51693
▁2012	-9.517
▁işlenmesi	-9.51702
▁dostu	-9.51706
▁Şö	-9.51707
▁donanım	-9.51721
▁gezi	-9.51738
▁bugün	-9.5174
▁ahşap	-9.51741
▁Off	-9.51743
▁geçmiş	-9.51753
▁pişirme	-9.51764
▁sonsuz	-9.51765
▁alabilirsiniz	-9.51772
▁Akıl	-9.51773
▁silindir	-9.51774
▁tatil	-9.51775
▁Perde	-9.51785
▁sanayi	-9.51793
▁Grou	-9.51796
▁imkanı	-9.51804
▁uyumlu	-9.51804
▁Ja	-9.51806
▁aktif	-9.51807
▁Cuma	-9.5183
▁değişik	-9.51834
▁ofis	-9.51843
▁Saç	-9.51856
▁engelleme	-9.51868
▁RF	-9.51877
ick	-9.51891
▁ayrıca	-9.519
▁İndir	-9.51904
lendir	-9.51908
▁çıkan	-9.51917
▁ABD	-9.51965
▁türleri	-9.51998
▁yumuşak	-9.52026
▁yeşil	-9.52052
-20	-9.5206
şek	-9.5218
▁normal	-9.52196
▁sunmak	-9.52231
yorum	-9.52242
▁ölçüm	-9.52244
▁işleri	-9.5225
▁kolaydır	-9.52277
▁for	-9.52287
▁aydınlatma	-9.52312
▁katı	-9.52314
▁Boyut	-9.52321
▁senin	-9.52328
▁tekne	-9.52362
anayi	-9.52371
STE	-9.5238
▁Yol	-9.52382
▁Boya	-9.52384
rici	-9.5245
▁tas	-9.52527
▁değerli	-9.52534
▁olanak	-9.52571
38	-9.52602
dar	-9.52633
▁kurum	-9.52651
ney	-9.52677
▁organi	-9.52711
▁Ji	-9.52718
▁Prof	-9.52804
▁27	-9.52974
bilmeniz	-9.53004
yız	-9.53035
▁sarı	-9.53067
▁Sch	-9.53107
▁düzenl	-9.53144
laşma	-9.53147
▁26	-9.53244
▁Bit	-9.53261
nizden	-9.53293
▁fa	-9.53398
matik	-9.53473
▁birimi	-9.53541
17	-9.53599
▁gerektiği	-9.53625
96	-9.53632
▁DC	-9.53651
▁otelleri	-9.53787
CL	-9.53826
zer	-9.53907
ox	-9.53932
lidir	-9.53942
55	-9.53999
▁gelecekte	-9.54108
▁rol	-9.5415
▁okul	-9.54174
ob	-9.54174
▁içere	-9.54204
ml	-9.54277
ang	-9.54291
yal	-9.54474
▁yük	-9.54521
nizin	-9.54536
▁y	-9.54571
▁güvenliği	-9.54656
▁sonun	-9.5477
▁tur	-9.54906
▁tar	-9.55036
▁ettiği	-9.55041
ds	-9.551
▁hala	-9.55106
lerimizi	-9.55215
▁Mac	-9.55222
▁ilaçlar	-9.55292
▁Benz	-9.55366
ps	-9.5537
vet	-9.55371
▁başla	-9.55459
udi	-9.55472
ezi	-9.55474
BC	-9.55484
▁don	-9.5557
▁HA	-9.55664
▁Çanta	-9.55706
ser	-9.55718
ASA	-9.55804
▁biçim	-9.55842
onya	-9.55969
▁oranı	-9.56016
-4	-9.56113
▁söyleme	-9.56266
31	-9.56316
▁Kara	-9.56488
▁nem	-9.56532
▁Alt	-9.56809
▁gerçekleştiril	-9.56873
DM	-9.56885
▁sana	-9.569
▁mimarisi	-9.56918
▁hattı	-9.57039
▁katlı	-9.57149
hoş	-9.57151
▁konuların	-9.57162
▁tane	-9.57218
90	-9.57222
NG	-9.57249
▁diz	-9.57311
▁yılı	-9.57344
▁Hotels	-9.57567
▁Hizmet	-9.57576
▁Kullanım	-9.57686
▁bas	-9.57704
▁kadınlar	-9.57707
▁bulunma	-9.57738
yalı	-9.57753
▁grup	-9.57845
uyor	-9.57889
▁etkinlikler	-9.57931
IA	-9.58092
ty	-9.58268
tain	-9.58487
IS	-9.58488
▁Can	-9.58534
▁To	-9.58552
embe	-9.58608
▁yönetimi	-9.58627
lenen	-9.58748
ınızın	-9.5877
▁gider	-9.58854
▁iddia	-9.58909
▁örneği	-9.59028
▁derin	-9.59118
▁bağlantısı	-9.59164
▁dosyaları	-9.59273
laştırılm	-9.59463
▁gereksinimleri	-9.59556
▁tarafı	-9.5969
▁bes	-9.59786
▁katman	-9.59812
▁Lit	-9.59892
unuzu	-9.60069
iyle	-9.60103
▁hata	-9.60134
▁Sto	-9.60279
▁hatt	-9.60462
▁hastalık	-9.60636
▁per	-9.60644
▁birinde	-9.60663
nca	-9.60686
▁müşterilerin	-9.60687
):	-9.60829
▁Etiket	-9.609
▁düşü	-9.61011
ılabilir	-9.61229
▁edilmesi	-9.61275
▁(3	-9.61623
rı	-9.61674
lanmıştır	-9.61911
▁hücre	-9.61949
▁Mat	-9.62103
onu	-9.62139
▁gönderil	-9.62186
▁tadını	-9.62312
▁aşağı	-9.62359
▁kağıt	-9.6249
▁VE	-9.62551
ls	-9.62611
▁oku	-9.6277
▁Silindir	-9.62795
▁sonuçlar	-9.63017
▁yükley	-9.63122
uzu	-9.63234
▁görüş	-9.63256
▁sorunu	-9.63309
▁edil	-9.6331
medi	-9.63446
▁oluştur	-9.63634
▁Yıl	-9.63711
▁Yap	-9.63797
▁bırak	-9.63803
yiz	-9.63821
▁Cr	-9.63837
▁Bet	-9.63843
▁çalışmaya	-9.63927
yın	-9.64
▁belirtile	-9.64002
▁sonucu	-9.64005
▁blog	-9.64097
▁min	-9.64102
▁sektörün	-9.64214
▁uzak	-9.64375
▁dola	-9.64399
▁yanlış	-9.64412
tel	-9.64506
▁Il	-9.64706
▁indirme	-9.64714
▁koyu	-9.6476
dalga	-9.64839
▁Işı	-9.64892
▁tah	-9.64897
▁Resimler	-9.64914
▁tedarikçi	-9.64982
▁21	-9.65049
▁Pol	-9.65057
▁parlak	-9.6507
▁Yönetim	-9.65111
▁fark	-9.65128
▁cihazlar	-9.65176
▁Ser	-9.6521
▁resim	-9.65224
▁bilgilerin	-9.65249
▁yarar	-9.65278
▁Mobil	-9.65432
ksel	-9.65435
▁Etki	-9.65436
▁kullanabilir	-9.65445
▁denge	-9.65491
att	-9.65623
▁Filtre	-9.65649
▁Terminal	-9.65682
▁KA	-9.6572
▁kafa	-9.65724
▁Lamba	-9.65724
▁Fabrika	-9.65738
▁Chi	-9.6574
▁söz	-9.65758
▁Tüp	-9.65792
opüler	-9.65867
▁görünüm	-9.6588
▁gerekiyor	-9.65883
asında	-9.65897
▁tedarik	-9.65907
▁çöz	-9.65909
eramik	-9.65916
▁Hasta	-9.65927
▁Arıtma	-9.65928
▁Bilgisayar	-9.65928
▁Brülörü	-9.65928
▁Eylül	-9.65928
▁Misafirler	-9.65928
▁aracılığıyla	-9.65928
▁dağıtım	-9.65928
▁kuvvet	-9.65928
▁mutfağı	-9.65928
▁yeteneği	-9.65928
▁Londra	-9.65929
▁pigment	-9.65929
▁rulman	-9.65929
▁Üretim	-9.65929
▁Excel	-9.65929
▁girişimci	-9.65929
▁klinik	-9.65929
▁sabah	-9.65929
▁verilmektedir	-9.65929
▁dönüştürme	-9.65929
▁makara	-9.65929
▁LTD	-9.65929
▁Uzman	-9.6593
▁fiber	-9.6593
▁bulabilirsiniz	-9.6593
▁Sepeti	-9.6593
▁kemik	-9.6593
▁hormon	-9.6593
▁Demir	-9.6593
qui	-9.65931
▁çarp	-9.65931
▁olmuştur	-9.65931
▁mono	-9.65932
▁onarım	-9.65932
▁Yatak	-9.65933
▁rekabet	-9.65933
▁Nokta	-9.65934
▁Kayışı	-9.65935
▁Masaj	-9.65936
▁sohbet	-9.65936
▁Akdeniz	-9.65937
▁Bildirimi	-9.65937
▁kesinlikle	-9.65938
▁uyku	-9.65938
▁Kamyon	-9.65939
▁direnci	-9.6594
▁demir	-9.65942
▁klima	-9.65942
▁Nasıl	-9.65946
▁Hint	-9.65946
▁bilezik	-9.65946
▁yürüy	-9.65947
▁hoparlör	-9.65947
▁dışarı	-9.65948
▁savaş	-9.6595
▁website	-9.6595
▁ardından	-9.65952
▁çaba	-9.65953
▁Fren	-9.65953
▁ruh	-9.65954
▁Ultrasonik	-9.65954
▁dekorasyon	-9.65954
▁sizi	-9.65956
▁sağladığı	-9.6597
▁orijinal	-9.65971
▁asker	-9.65973
volt	-9.65974
▁bana	-9.65977
▁düzel	-9.65978
▁kapsamında	-9.65978
▁görsel	-9.65982
▁haber	-9.65983
▁sivilce	-9.65986
▁120	-9.65986
▁sipariş	-9.65989
▁yönelik	-9.65989
▁endüstrisinde	-9.65992
▁gemisi	-9.65993
▁Asker	-9.65995
ştırıcı	-9.66002
▁Dekorasyon	-9.66003
▁tabi	-9.66011
ebilmek	-9.66013
▁seramik	-9.66015
▁Port	-9.66015
▁LIN	-9.66024
▁Tekstil	-9.66028
▁gizlilik	-9.66028
▁çekici	-9.6603
▁Microsoft	-9.66034
▁protein	-9.66034
▁İnternet	-9.66034
▁kimyasal	-9.66034
▁Casino	-9.66034
▁Tedavi	-9.66035
▁tahtası	-9.66038
▁oluşmaktadır	-9.66049
▁etmiş	-9.66052
▁geldiniz	-9.66052
▁hükümet	-9.66054
▁bilim	-9.66057
▁oluşur	-9.66065
▁donatılmıştır	-9.66067
▁ihtiyacınız	-9.6607
▁Tüpü	-9.66074
▁2008	-9.66077
▁Baş	-9.6608
▁Radyo	-9.66083
▁sürümü	-9.66093
▁özgü	-9.66103
▁150	-9.66109
▁bilinen	-9.6611
▁Film	-9.66113
APK	-9.66114
▁kanama	-9.66129
▁Satılık	-9.6613
▁Kodu	-9.6614
liğini	-9.66142
▁steroid	-9.66144
▁sürüm	-9.66148
▁ederken	-9.66158
UN	-9.6616
▁Yüz	-9.66176
▁üstün	-9.6621
▁kanepe	-9.66214
▁Bodrum	-9.66215
▁Gerçek	-9.66215
▁blok	-9.66215
▁Bitcoin	-9.6622
▁ulaşım	-9.66223
▁giyin	-9.6626
▁Benim	-9.66269
▁Atı	-9.66269
▁çıkarın	-9.66276
iddi	-9.663
▁Kartı	-9.66304
▁markası	-9.6633
▁Geliştir	-9.66357
▁bildirim	-9.66357
melisiniz	-9.66363
▁masası	-9.66376
▁kira	-9.66412
▁cas	-9.66415
lash	-9.66427
▁üretmek	-9.66442
▁öz	-9.66446
ff	-9.66446
▁esas	-9.66451
angın	-9.66453
slında	-9.66459
▁ilacı	-9.6646
▁esn	-9.66467
hou	-9.6647
28	-9.66473
sburg	-9.66476
oy	-9.6649
▁faydaları	-9.66508
▁İs	-9.66511
▁İç	-9.66525
▁artırmak	-9.66552
▁FI	-9.66566
▁Sarı	-9.66567
▁yapılması	-9.66623
▁fabrikası	-9.66632
iç	-9.66641
▁Dokun	-9.66666
▁Dişli	-9.66666
▁karakteri	-9.66686
▁Rus	-9.66714
▁Jun	-9.66734
▁geçen	-9.6674
▁öğrenciler	-9.66754
▁açıklama	-9.66756
▁dile	-9.66773
landırılması	-9.66778
▁Yönetimi	-9.66794
▁doğrulama	-9.66797
▁Gö	-9.66804
lgun	-9.66812
▁telefonu	-9.66826
▁işletim	-9.66894
▁havaalanın	-9.6692
▁Yaz	-9.66933
▁dayan	-9.66959
▁edecek	-9.66966
▁İtalyan	-9.6697
▁zorlu	-9.67012
sından	-9.67025
▁sırt	-9.67099
▁verilerinizi	-9.67173
▁tedavisinde	-9.67179
Plus	-9.67246
▁paylaşıl	-9.67305
ulmuş	-9.67342
hite	-9.67348
▁adresi	-9.67395
▁yüzden	-9.67497
▁özelliklere	-9.67508
▁BO	-9.67525
▁fonksiyonu	-9.67536
▁Yani	-9.67548
▁yana	-9.67613
▁yaklaşım	-9.67675
▁dosyalarını	-9.67764
▁CT	-9.67817
post	-9.67825
omi	-9.67857
▁hareketi	-9.679
▁görme	-9.67904
pek	-9.67929
ŞA	-9.67937
▁gelişme	-9.67958
▁çekim	-9.6808
▁wi	-9.68102
▁US	-9.68146
▁Inn	-9.68221
LE	-9.68262
▁mini	-9.68291
▁kartı	-9.68364
▁Ses	-9.68386
▁değiştirmek	-9.68398
dışı	-9.68412
▁cm	-9.68415
ute	-9.68417
pas	-9.68427
▁AH	-9.68436
▁başta	-9.68546
▁Net	-9.68569
▁siteniz	-9.68685
▁sektöründe	-9.68864
▁olduğunuz	-9.68936
▁vermek	-9.68988
▁Is	-9.69265
▁parkı	-9.69275
nmış	-9.69302
▁odaların	-9.69343
umu	-9.69433
▁şart	-9.69595
inizin	-9.69613
▁sürecinde	-9.69618
▁Arka	-9.69619
▁miktar	-9.69802
LA	-9.69836
İR	-9.69918
24	-9.69925
▁ortamı	-9.69945
gan	-9.69987
▁(6	-9.70048
▁av	-9.70065
▁Gün	-9.70099
▁kaplı	-9.70121
▁60	-9.70133
▁Ayn	-9.70161
yorsanız	-9.70191
▁merkezinde	-9.70197
0)	-9.70428
▁kullanımını	-9.70534
▁çıkma	-9.70572
▁kara	-9.70609
IF	-9.70646
▁Com	-9.70691
▁odakl	-9.70742
▁görüle	-9.70927
▁ele	-9.71178
kay	-9.712
▁tarzı	-9.71206
▁Kullanıcı	-9.71336
eng	-9.71383
▁gerçekleştir	-9.71534
vik	-9.71766
ON	-9.71939
▁yerel	-9.71949
6)	-9.71976
▁performansın	-9.72047
▁hizmetlerin	-9.72197
▁artı	-9.72222
▁kazan	-9.72357
mod	-9.72457
▁sah	-9.72495
▁sınıfı	-9.72544
▁Sabi	-9.72578
EO	-9.72656
,000	-9.72665
▁gereksinim	-9.72736
300	-9.72939
ster	-9.72956
▁Doğu	-9.72972
▁kurulu	-9.73028
ünün	-9.7324
▁Bunlar	-9.73283
▁Sel	-9.73322
old	-9.73424
▁maddeler	-9.73549
▁Tran	-9.73714
▁geçiş	-9.73901
▁misafirleri	-9.74355
▁Suyu	-9.74483
kça	-9.74504
▁dünyada	-9.7454
▁süreçlerin	-9.74743
▁yemeği	-9.74818
▁anlam	-9.74905
▁faaliyetleri	-9.7493
meyi	-9.75216
romo	-9.75342
47	-9.75515
▁sonuçları	-9.75563
▁Modern	-9.75609
▁oyunları	-9.75717
▁yazılımı	-9.75717
▁çerezler	-9.75868
▁manzarası	-9.75953
▁boyun	-9.75984
▁belirti	-9.76241
▁Saf	-9.7625
▁She	-9.76318
▁yüzeyin	-9.76369
şem	-9.76452
cü	-9.76454
▁Şirket	-9.7659
▁teş	-9.7677
▁liste	-9.76833
▁bey	-9.76903
▁Motorları	-9.76956
▁Dil	-9.76958
▁Ru	-9.76989
ack	-9.77018
▁Düz	-9.77092
▁üre	-9.77345
ngel	-9.77366
▁poli	-9.77434
▁Cl	-9.77451
▁dövme	-9.7757
Q	-9.776
▁yelpaze	-9.77623
16	-9.77674
ost	-9.77697
▁anne	-9.77827
DT	-9.77889
edi	-9.77981
▁misafirler	-9.77981
▁masaj	-9.77985
▁oy	-9.78005
lendirme	-9.78013
lığında	-9.7804
▁hali	-9.78058
ürlü	-9.78101
▁arkadaş	-9.7813
-2	-9.78231
▁Laz	-9.783
▁görüntüle	-9.78427
▁Pay	-9.78458
amaz	-9.78462
88	-9.78561
▁Apart	-9.78581
▁aşama	-9.78642
Mavi	-9.78778
▁Star	-9.78792
▁düğme	-9.78868
rik	-9.78994
▁tarihi	-9.79014
▁mimari	-9.79038
▁korku	-9.79056
ft	-9.79066
syonu	-9.79083
▁ot	-9.79192
▁Eki	-9.79348
lığını	-9.79414
nüz	-9.79486
▁araçlar	-9.79515
üstü	-9.7952
ral	-9.7978
CA	-9.79787
▁şehri	-9.79805
▁parçaların	-9.79972
▁şeyler	-9.80142
mail	-9.80143
▁siteleri	-9.80165
ill	-9.80259
▁kab	-9.80299
▁alın	-9.80383
15	-9.80422
▁hari	-9.80463
cer	-9.80468
▁soru	-9.80527
▁80	-9.80608
▁Cat	-9.80612
AD	-9.80639
duğu	-9.80853
25	-9.80915
▁bit	-9.80924
▁Şiş	-9.80939
▁kod	-9.80998
▁sağlama	-9.81082
60	-9.81118
▁olacağını	-9.81132
TP	-9.8114
▁akış	-9.81267
▁Ap	-9.81296
▁geliştirile	-9.81318
▁vücudu	-9.8132
App	-9.81355
▁İtalya	-9.81379
Star	-9.81396
▁fit	-9.81445
şık	-9.81457
_	-9.81463
▁değerlendirme	-9.81522
ılan	-9.81536
▁ihtiyacın	-9.81556
▁analiz	-9.81589
raya	-9.81621
ktadır	-9.81625
▁Bakı	-9.81694
AR	-9.81723
▁monitörü	-9.81734
muş	-9.8174
▁Sho	-9.81753
▁giy	-9.8188
▁İnc	-9.81894
LER	-9.8196
▁Cihaz	-9.82115
▁Kü	-9.82124
▁Kategori	-9.82149
▁kamera	-9.82324
▁numara	-9.82399
▁silin	-9.82439
▁Güzel	-9.82443
Ğ	-9.8249
▁döv	-9.82492
oğutma	-9.82512
işirme	-9.82534
rofesyonel	-9.82535
▁öğ	-9.82543
US	-9.82548
▁Villa	-9.82553
arıştırıcı	-9.82567
LARI	-9.82572
▁Türk	-9.8259
ulanık	-9.8259
▁etkileşim	-9.82595
▁karışım	-9.82595
▁şahıs	-9.82595
ppartementhotel	-9.82595
▁Italian	-9.82595
▁Maskesi	-9.82595
▁Otomotiv	-9.82595
▁Restoran	-9.82595
▁Yumuşa	-9.82595
▁otomobil	-9.82595
▁titreşim	-9.82595
▁xHamster	-9.82595
▁çamaşır	-9.82595
▁Derneği	-9.82595
▁Grubu	-9.82595
▁Laboratuvar	-9.82595
▁klasik	-9.82595
▁teşekkür	-9.82595
▁zevk	-9.82595
▁ışığın	-9.82595
▁Bahçe	-9.82595
▁Blender	-9.82595
▁sprey	-9.82595
▁süper	-9.82595
▁Atlanti	-9.82595
▁Tallin	-9.82595
▁kurşun	-9.82595
▁logo	-9.82595
▁pratik	-9.82595
▁Hediye	-9.82596
▁Talebi	-9.82596
▁beceri	-9.82596
▁Derece	-9.82596
▁ifade	-9.82596
▁keyif	-9.82596
▁parola	-9.82596
▁salonu	-9.82596
▁Restaurant	-9.82596
▁kapasitesi	-9.82596
▁sokak	-9.82597
▁Politikası	-9.82597
▁terminal	-9.82597
▁House	-9.82597
▁ISO	-9.82597
▁amino	-9.82597
▁Center	-9.82597
▁Club	-9.82598
▁Yamalar	-9.82598
▁kredi	-9.82599
▁makul	-9.82599
▁Machine	-9.826
▁bulmak	-9.826
▁Öğrenci	-9.826
▁ambalaj	-9.826
▁kilit	-9.82601
▁referans	-9.82601
▁futbol	-9.82601
▁foto	-9.82602
▁Koruma	-9.82603
▁ayarlanabilir	-9.82603
karışık	-9.82603
▁varsayılan	-9.82603
▁torna	-9.82604
▁yatırma	-9.82605
▁Hangi	-9.82605
▁olağanüstü	-9.82606
▁Apartment	-9.82608
▁Plaj	-9.82608
▁arıza	-9.82609
▁dekor	-9.82609
▁tutkal	-9.8261
▁süsle	-9.82613
▁ülkemiz	-9.82613
▁Galvanizli	-9.82614
▁imza	-9.82615
▁bahis	-9.82618
▁amatör	-9.8262
▁toplumu	-9.8262
▁küresel	-9.82622
▁Avustralya	-9.82624
▁Durum	-9.82625
gsm	-9.82626
▁duyula	-9.82626
▁edilmiş	-9.82627
▁yangın	-9.82631
ücü	-9.82633
ronik	-9.82633
▁sabit	-9.82637
▁tarif	-9.82638
▁entegre	-9.82639
▁arazi	-9.8264
▁eksiksiz	-9.82642
Tube	-9.82644
▁beklen	-9.8265
▁Room	-9.82657
▁takip	-9.82657
▁lezzetli	-9.82667
▁yedekleme	-9.82671
▁2018	-9.82674
▁düğün	-9.82678
iezo	-9.82685
▁Kaplama	-9.82688
▁edilebilir	-9.8269
▁Centr	-9.82696
▁isten	-9.82696
▁borusu	-9.82697
RIA	-9.82697
▁Anne	-9.82698
▁Tatil	-9.82711
▁diyet	-9.82716
LET	-9.82718
▁kullanır	-9.82719
▁Fethiye	-9.82721
▁Marmaris	-9.82721
▁2014	-9.82721
▁Ölü	-9.82723
▁2010	-9.82727
▁tasarımcı	-9.82731
▁hastalığı	-9.82735
▁yargı	-9.82746
▁cep	-9.82747
▁Takım	-9.82748
▁sıklıkl	-9.8275
▁çalışmaları	-9.8275
adece	-9.82756
akt	-9.82759
▁Deniz	-9.82759
▁bulunur	-9.82764
▁azalma	-9.82779
▁bölgesinde	-9.82784
▁yaparken	-9.82789
▁Kolay	-9.82792
▁genelinde	-9.82797
▁Saat	-9.82801
▁miktarı	-9.82802
▁imalatı	-9.82806
▁kesim	-9.82812
▁Satı	-9.82825
▁Kimyasalları	-9.82826
▁Met	-9.82827
▁Sanat	-9.82828
▁Lambası	-9.82838
▁Yaş	-9.82848
▁uygulanan	-9.82852
▁sarma	-9.82854
▁Post	-9.82858
▁Asyalı	-9.82864
▁uygulan	-9.82883
▁eksen	-9.82886
KW	-9.82891
▁Göz	-9.82892
FT	-9.82906
▁giyim	-9.82914
kayık	-9.82919
TX	-9.82925
▁Filtresi	-9.82926
▁düzenleme	-9.82931
▁304	-9.82945
▁yoksa	-9.82947
▁Bizim	-9.82959
▁defa	-9.8296
▁planlama	-9.82965
aria	-9.82969
eceğiniz	-9.82991
▁eğlenceli	-9.82999
▁kır	-9.83006
▁alabilir	-9.83009
▁hazırlık	-9.83025
▁rezervasyonu	-9.83026
▁tüketimi	-9.83026
▁pres	-9.83027
▁ürünlerimiz	-9.83085
▁Arabası	-9.831
▁jel	-9.83106
▁belirlemek	-9.8313
▁Bina	-9.8313
▁toplu	-9.8315
▁Genellikle	-9.83161
▁2015	-9.83197
▁Kal	-9.83204
YO	-9.83209
▁düzeyde	-9.8324
▁Çiçekler	-9.83257
▁lok	-9.83289
ikasyon	-9.833
▁maden	-9.83306
▁Oto	-9.83312
▁katma	-9.83337
▁okuma	-9.8335
arbe	-9.83383
▁tedarikçileri	-9.83391
▁kişinin	-9.83391
▁Spo	-9.83415
▁1000	-9.83418
▁Play	-9.83427
▁çekmek	-9.83444
▁gelin	-9.83447
▁manu	-9.83451
şet	-9.83461
▁bakımı	-9.83463
▁satır	-9.8347
▁bağlıdır	-9.83473
▁Est	-9.83492
kut	-9.835
▁veriyor	-9.83503
▁oluşturma	-9.83514
▁Med	-9.83531
▁enfeksiyonu	-9.83541
siyonu	-9.83585
▁olmaz	-9.836
▁kurslar	-9.83624
VB	-9.83636
▁tat	-9.83644
bet	-9.83654
Bir	-9.83686
▁seçin	-9.83704
▁hizmetini	-9.83727
▁resimleri	-9.83729
▁Sistemleri	-9.83748
ST	-9.83752
ibi	-9.83768
▁hom	-9.83776
▁birimleri	-9.83786
▁vücudun	-9.83792
▁avantajları	-9.83804
▁Pres	-9.8386
blue	-9.83865
▁And	-9.83953
▁nedir	-9.83957
▁Kap	-9.83964
▁boyutları	-9.83964
▁Tene	-9.83987
▁im	-9.83988
▁Başkan	-9.84035
▁tuz	-9.8406
▁TA	-9.84083
39	-9.84094
▁Üniversitel	-9.84123
▁belirtileri	-9.84145
▁varlıklarını	-9.84172
▁mil	-9.84192
▁Çeki	-9.84254
reze	-9.84334
▁Şişe	-9.84383
▁yararlı	-9.84423
▁Paneli	-9.84527
mekte	-9.84727
▁fitnes	-9.84727
star	-9.84759
▁(22	-9.84799
▁bal	-9.84808
▁güçlendir	-9.849
tti	-9.84907
▁tahrik	-9.84927
larımıza	-9.84974
diğimiz	-9.84988
▁Line	-9.85029
nger	-9.85068
▁Mum	-9.85126
▁saklı	-9.85199
▁Mini	-9.8521
▁yazılımın	-9.85244
▁İzle	-9.85275
▁Cil	-9.85377
▁Medi	-9.85406
sch	-9.85459
▁Up	-9.85544
▁TO	-9.85587
▁dönme	-9.85623
▁Ortak	-9.85707
▁suyunu	-9.85772
▁pen	-9.8578
▁Soru	-9.85826
▁neler	-9.8584
▁öncesi	-9.85873
azy	-9.85899
▁vak	-9.86191
ima	-9.86198
▁Bilya	-9.86322
zo	-9.86472
▁hızla	-9.86549
▁görüntüleme	-9.86551
▁iyidir	-9.86589
yıp	-9.86594
▁Are	-9.86733
ojen	-9.86822
▁kurma	-9.86879
BD	-9.86879
▁hastalıkları	-9.86883
▁bileşenler	-9.86886
▁dev	-9.86895
ech	-9.86932
TEL	-9.86947
▁dolu	-9.87059
▁tadın	-9.87118
▁benzeri	-9.87193
▁şirketin	-9.87193
▁Des	-9.8734
İŞ	-9.87387
▁oluşturu	-9.87611
▁yelpazesi	-9.87826
sas	-9.8804
▁geliştirmek	-9.88103
▁kaynakları	-9.88183
uydu	-9.88196
▁Tok	-9.88265
▁yapın	-9.88274
ras	-9.88283
out	-9.8832
İN	-9.88675
▁Etiketler	-9.88878
▁eks	-9.88907
emi	-9.88949
kol	-9.8903
▁Ate	-9.89114
▁kuruluşlar	-9.89133
26	-9.89136
▁Tel	-9.89167
müz	-9.8931
gua	-9.89322
▁kont	-9.89338
▁gelecek	-9.89359
▁şekli	-9.89493
▁taşıma	-9.89626
▁Fu	-9.89636
▁süreci	-9.89709
▁İnsanlar	-9.89721
▁projesi	-9.89727
üçlü	-9.89772
▁bölümü	-9.89837
▁yerlerde	-9.89857
masına	-9.89901
▁çıktı	-9.89922
▁koşulları	-9.89951
oth	-9.90016
▁maddesi	-9.90047
ülü	-9.90053
▁tuvalet	-9.90079
▁yüzde	-9.90146
NE	-9.90274
▁Serv	-9.90418
▁büyümesin	-9.90562
ğer	-9.90648
▁ona	-9.90666
YE	-9.90819
▁çe	-9.90845
▁RE	-9.90846
▁bölgede	-9.90897
▁Araç	-9.91059
gele	-9.91222
pal	-9.91289
▁problem	-9.91301
▁Projesi	-9.91478
▁çizgi	-9.91663
▁modeli	-9.91901
▁Ac	-9.91962
nim	-9.92025
▁Ze	-9.92026
▁Ekle	-9.92203
▁Win	-9.92261
▁örneğin	-9.92277
▁Cu	-9.92334
sil	-9.92485
▁kazanı	-9.92485
▁hayat	-9.92519
SE	-9.92528
▁öde	-9.92592
rap	-9.92717
▁basın	-9.92748
94	-9.92762
▁par	-9.92845
▁Ins	-9.92873
▁Sağ	-9.93185
▁odalarda	-9.93219
▁sak	-9.93281
▁no	-9.93284
▁bölüm	-9.93321
▁gerçekleş	-9.93381
▁Araçlar	-9.9342
leriyle	-9.93694
▁yerleri	-9.93713
▁Par	-9.93842
▁ihtiyaçların	-9.9401
▁pozisyon	-9.94021
list	-9.94043
▁yaş	-9.94121
▁ulaşabilir	-9.94223
abileceği	-9.94241
▁içeriğini	-9.94301
gas	-9.94307
▁Tak	-9.94331
AC	-9.94339
▁Sonra	-9.94402
▁Ürünler	-9.94447
EC	-9.94482
▁ant	-9.94536
DA	-9.9463
ayesi	-9.94739
▁belirlen	-9.94822
▁ho	-9.94843
▁bölgeler	-9.9488
ebilen	-9.9493
▁bakteri	-9.95239
▁(21	-9.95274
▁paket	-9.95274
ated	-9.95365
arma	-9.95378
68	-9.9541
ecekler	-9.95416
▁bar	-9.95438
▁tr	-9.95453
▁şirketleri	-9.95463
▁gelişim	-9.95476
▁1.0	-9.95556
▁genişlet	-9.95693
▁ulaşı	-9.95704
▁veriler	-9.95712
▁eğlence	-9.95725
▁detay	-9.95763
rseniz	-9.95774
▁ab	-9.9581
bl	-9.95813
▁görüntüleri	-9.95823
▁tarz	-9.95873
100	-9.95913
▁aktiviteler	-9.96011
▁testleri	-9.96087
▁istiyor	-9.96145
▁kendisi	-9.96301
▁net	-9.96405
▁aşı	-9.96418
05	-9.96576
▁kendini	-9.96601
▁yüzeyi	-9.96829
▁cildi	-9.96876
▁MP	-9.971
▁yarış	-9.97139
etler	-9.97153
EP	-9.97286
diğinde	-9.9739
lıyoruz	-9.97459
▁bakın	-9.97516
NC	-9.97519
▁bileşen	-9.97596
▁belirtil	-9.97637
kçe	-9.97658
▁halk	-9.97671
yabilirsiniz	-9.97683
▁adres	-9.97715
▁Fran	-9.97758
lmadan	-9.97813
sor	-9.97817
▁akımı	-9.97913
ilmeye	-9.97993
acağız	-9.98016
remium	-9.98051
▁kullanılması	-9.98052
▁güvenliğini	-9.98053
nut	-9.98162
▁özelliklerin	-9.98377
▁uza	-9.98399
tığı	-9.98462
▁ıs	-9.9852
▁Çap	-9.98521
▁üretici	-9.98523
▁RO	-9.98547
▁çubuk	-9.98563
anyo	-9.98694
▁Eş	-9.98724
tter	-9.98747
lendirici	-9.98749
80	-9.98772
▁kayna	-9.98796
▁gizli	-9.98801
▁ikinci	-9.98828
ester	-9.98975
▁akım	-9.99063
cc	-9.99136
▁sin	-9.99143
Bul	-9.99167
▁olmadığı	-9.99186
▁insanları	-9.99261
bilmek	-9.9933
▁havuz	-9.99392
▁bo	-9.99401
kâ	-9.99471
PA	-9.99758
▁faktör	-9.99774
ted	-9.99841
▁tıklay	-9.99909
şik	-10.0019
dim	-10.0033
▁yazılı	-10.0034
▁izle	-10.0038
kopi	-10.0044
yl	-10.0062
▁May	-10.0065
▁seviye	-10.007
▁zamanı	-10.0071
ilir	-10.0078
ham	-10.0081
▁Ürünleri	-10.0098
▁kitle	-10.0099
▁taşıya	-10.01
▁işlemleri	-10.0117
▁havaalanı	-10.0118
▁anlamı	-10.0121
▁sürecini	-10.0138
▁eşleş	-10.014
Genç	-10.0142
üfe	-10.0148
▁programını	-10.015
▁Ekstr	-10.0154
▁bunlar	-10.0158
▁Ofis	-10.0159
TT	-10.0166
▁ekibi	-10.0174
▁transfer	-10.0174
ğini	-10.018
kap	-10.0185
ünlü	-10.0186
▁dalga	-10.0187
▁rapor	-10.0188
▁alabil	-10.0192
▁ömrü	-10.0193
ood	-10.0199
▁Çö	-10.0204
ph	-10.0206
ux	-10.0206
▁Tra	-10.021
50	-10.0211
▁ölç	-10.0219
ý	-10.0221
▁altyapı	-10.0223
▁prosedür	-10.0224
work	-10.0225
Örneğin	-10.0225
▁endüstri	-10.0227
▁resimler	-10.023
▁tutar	-10.0231
▁mobil	-10.0233
▁sek	-10.0235
▁Rady	-10.0237
▁tüket	-10.0238
▁çözümü	-10.024
ktör	-10.0241
ading	-10.0241
▁Geniş	-10.0242
▁reaksiyon	-10.0243
▁koku	-10.0244
OKU	-10.0245
▁eşya	-10.0246
▁Jeneratör	-10.0246
qua	-10.0247
ASI	-10.0247
▁bebeğin	-10.0248
▁Kazan	-10.025
ipariş	-10.0251
ağlayıcı	-10.0251
nömatik	-10.0252
▁belge	-10.0252
q	-10.0254
epçe	-10.0255
▁Çeşitl	-10.0256
iyoloji	-10.0256
▁Geliş	-10.0258
▁kolaylaştır	-10.0258
▁(10	-10.0259
▁öldü	-10.0259
о	-10.0259
▁algıla	-10.0259
▁hassas	-10.0259
irkaç	-10.0259
▁Ultra	-10.0259
▁Tehlike	-10.026
▁kıyafet	-10.026
▁memnun	-10.026
▁tekerlek	-10.026
androlon	-10.026
я	-10.026
▁Aksesuar	-10.026
▁Arabistan	-10.026
▁Başvuru	-10.026
▁Christi	-10.026
▁Deneyim	-10.026
▁Emniyet	-10.026
▁Köpük	-10.026
▁Kıbrıs	-10.026
▁Lütfen	-10.026
▁Nakliye	-10.026
▁Oludeniz	-10.026
▁Reklam	-10.026
▁Seviye	-10.026
▁Sözleşme	-10.026
▁Technology	-10.026
▁Universit	-10.026
▁böcekler	-10.026
▁bıçağı	-10.026
▁coğraf	-10.026
▁drenaj	-10.026
▁festival	-10.026
▁heyecan	-10.026
▁kabartma	-10.026
▁karayolu	-10.026
▁laboratuvar	-10.026
▁otopark	-10.026
▁soruşturma	-10.026
▁strateji	-10.026
▁örgü	-10.026
▁Abdul	-10.026
▁Afrika	-10.026
▁Fatih	-10.026
▁Firmamız	-10.026
▁Internet	-10.026
▁Savaş	-10.026
▁boğaz	-10.026
▁görünüyor	-10.026
▁tüccar	-10.026
▁Çekme	-10.026
ко	-10.026
▁Blok	-10.026
▁kavram	-10.026
▁temsil	-10.026
▁VPN	-10.026
▁dedektörü	-10.026
▁şarap	-10.026
н	-10.026
▁Madencili	-10.026
▁banka	-10.026
▁iPad	-10.026
▁meydan	-10.026
▁Glob	-10.026
▁Soğuk	-10.026
▁Zengin	-10.026
▁Şehir	-10.026
▁Doktor	-10.026
▁plaj	-10.026
▁şişe	-10.026
▁Tablet	-10.026
▁Taşıma	-10.026
▁Kumaş	-10.026
▁Project	-10.026
▁dinami	-10.026
ürosu	-10.026
Performans	-10.026
▁arkasında	-10.026
▁bobin	-10.026
▁Office	-10.026
▁önlemler	-10.026
▁arttırmak	-10.026
▁bükme	-10.026
▁fikir	-10.026
▁oluyor	-10.026
▁torba	-10.026
▁Banka	-10.026
▁eksik	-10.026
▁Yöntem	-10.026
▁Amatör	-10.026
▁nikel	-10.026
▁nakit	-10.026
▁sınav	-10.026
▁Otomasyon	-10.026
▁Mayıs	-10.026
▁dayanımı	-10.026
▁duyarlı	-10.026
▁Tesis	-10.026
▁damga	-10.026
▁ateş	-10.026
üslü	-10.026
▁resepsiyon	-10.026
▁stok	-10.026
▁korur	-10.026
▁Cafe	-10.026
▁sensör	-10.026
▁müzik	-10.0261
▁kaşığı	-10.0261
▁Garden	-10.0261
▁araştırmacılar	-10.0261
▁Iron	-10.0261
▁uyarı	-10.0261
▁yenilikçi	-10.0261
▁stator	-10.0261
▁lenf	-10.0261
▁ısıtıcı	-10.0261
▁Güm	-10.0261
hrin	-10.0261
que	-10.0262
▁fosfat	-10.0262
▁boşluk	-10.0262
▁Kaydet	-10.0262
▁Torba	-10.0262
▁organizasyon	-10.0262
▁Mahmutlar	-10.0262
▁metin	-10.0262
▁çalıştığı	-10.0262
▁sanatçı	-10.0262
▁disk	-10.0262
ristal	-10.0262
▁vergi	-10.0262
▁Leno	-10.0262
▁örtü	-10.0262
▁High	-10.0262
▁çatı	-10.0263
▁Yüzey	-10.0263
▁kullanıyor	-10.0263
▁koşul	-10.0263
▁Takip	-10.0263
▁çağır	-10.0263
▁ajan	-10.0263
atırım	-10.0263
▁sefer	-10.0263
▁gitme	-10.0264
▁geliştirilmesi	-10.0264
▁tutku	-10.0264
▁kalbin	-10.0264
▁katılma	-10.0264
▁butonu	-10.0264
▁kullanıyoruz	-10.0264
▁Kamera	-10.0264
▁versiyonu	-10.0264
▁aygıt	-10.0264
▁Derin	-10.0265
▁Yapımı	-10.0265
▁bulaşı	-10.0265
▁eleman	-10.0265
▁Manu	-10.0265
▁muha	-10.0265
▁uygulanabilir	-10.0265
▁akşam	-10.0265
▁alkol	-10.0265
▁kanıt	-10.0266
▁haddele	-10.0266
▁kullandığı	-10.0266
▁Hem	-10.0267
▁kullanırken	-10.0267
▁Mega	-10.0267
kadem	-10.0267
▁yüklü	-10.0268
▁aittir	-10.0268
▁Orman	-10.0269
hotel	-10.0269
▁başlayan	-10.027
▁kullanılmak	-10.027
▁iletim	-10.027
▁bulanık	-10.027
▁yönlü	-10.027
▁kurallar	-10.027
▁arkadaşlar	-10.027
▁KES	-10.027
▁sütü	-10.0271
▁kaç	-10.0271
▁Plaz	-10.0271
▁Soka	-10.0271
▁bakış	-10.0271
▁görünür	-10.0272
▁mutlu	-10.0273
▁Kapağı	-10.0273
▁açmak	-10.0273
▁2011	-10.0273
▁sıcaklığı	-10.0274
▁ekimi	-10.0274
▁Tıbbi	-10.0274
▁uzunluk	-10.0275
akviye	-10.0275
▁Black	-10.0275
▁İşletme	-10.0275
▁1992	-10.0275
iyat	-10.0276
▁adam	-10.0276
▁düzeltil	-10.0276
▁Önceki	-10.0276
▁yakınında	-10.0276
▁yakınlarında	-10.0277
▁tasarrufu	-10.0277
▁amacıyla	-10.0278
▁Kiralama	-10.0278
▁müşterilerimiz	-10.0278
▁muslu	-10.0278
▁You	-10.0279
▁çalışanlarımız	-10.0279
▁360	-10.028
▁Üç	-10.028
▁ocak	-10.028
back	-10.028
▁kırmızı	-10.028
▁Toplum	-10.028
▁Kabu	-10.028
tit	-10.0281
▁350	-10.0281
▁işlemci	-10.0282
▁Tamam	-10.0282
▁benimser	-10.0282
▁isim	-10.0283
▁deneme	-10.0283
erfor	-10.0283
▁teslimat	-10.0283
▁Sağlık	-10.0285
▁KOKU	-10.0285
▁250	-10.0285
▁ölçek	-10.0286
▁ağırlık	-10.0286
rtesi	-10.0287
LAR	-10.0287
tive	-10.0288
▁göstermektedir	-10.0288
▁yapımı	-10.0288
▁özelleştirilmiş	-10.0289
▁kalınlık	-10.0289
▁oturum	-10.029
▁aşamasında	-10.0291
▁getirir	-10.0292
▁paketle	-10.0292
▁vermeyi	-10.0293
▁kamerası	-10.0293
▁çeşitliliği	-10.0294
▁alım	-10.0295
▁machine	-10.0296
▁Taksi	-10.0296
▁Paketi	-10.0298
▁Max	-10.0299
▁Teknoloji	-10.0299
▁TEK	-10.03
▁kırılma	-10.03
ilya	-10.03
▁Enter	-10.0302
ovası	-10.0302
▁yakıt	-10.0302
▁dinlenme	-10.0303
▁Konut	-10.0303
▁barda	-10.0303
▁hazırlama	-10.0305
▁Hosting	-10.0306
▁ihtiyacı	-10.0306
▁yürüt	-10.0307
hats	-10.0307
ach	-10.0307
▁Çı	-10.0308
anner	-10.0313
▁Metr	-10.0313
▁Sert	-10.0314
rük	-10.0314
▁nane	-10.0315
▁yazma	-10.0315
able	-10.0316
▁sanat	-10.0317
▁seviyesin	-10.0317
yıcı	-10.032
▁açar	-10.032
▁konukları	-10.0321
▁mut	-10.0321
▁Bazen	-10.0322
▁solun	-10.0322
pment	-10.0323
▁tutan	-10.0324
▁Bayan	-10.0325
tepe	-10.0328
▁lastik	-10.033
evcut	-10.0333
▁Kullanımı	-10.0333
41	-10.0333
▁(12	-10.0336
▁kabuk	-10.0337
▁Yarı	-10.0337
andy	-10.0339
▁oyunu	-10.0339
yfin	-10.034
oyma	-10.034
▁Beden	-10.0341
▁Haz	-10.0342
▁Tah	-10.0343
▁zararlı	-10.0344
rill	-10.0347
▁bölgesi	-10.0351
▁48	-10.0354
▁Casa	-10.0355
▁ça	-10.0357
ıyordu	-10.0358
▁Tang	-10.0358
▁istediği	-10.0358
▁montajı	-10.0359
▁beden	-10.0362
▁Adım	-10.0369
▁Yazılımı	-10.0369
▁fotoğraflar	-10.037
▁yasal	-10.037
▁Sür	-10.0373
ngxi	-10.0373
▁Raporu	-10.0375
▁yayıl	-10.0376
▁yükseltme	-10.0378
▁BA	-10.0378
▁Alanı	-10.0381
▁Şek	-10.0383
▁yazı	-10.0389
▁videoları	-10.0391
nstant	-10.0396
uder	-10.0397
▁Kış	-10.0398
▁fer	-10.0398
▁ışıkları	-10.04
▁kes	-10.0406
▁ayarlama	-10.0413
İZ	-10.0416
▁atıl	-10.0417
▁sözlük	-10.0423
▁Mah	-10.0423
▁hakları	-10.0424
▁binalar	-10.0424
▁ata	-10.0424
▁kalem	-10.0428
▁App	-10.043
▁Plan	-10.0436
▁By	-10.0437
▁sonuç	-10.0437
▁Özellikleri	-10.0441
▁Valf	-10.0443
▁yaratıcı	-10.045
▁400	-10.0461
ternati	-10.0461
▁Ağ	-10.0462
▁Had	-10.0462
▁Ters	-10.0463
83	-10.0464
▁SO	-10.0471
▁List	-10.0477
tirmek	-10.0485
▁dosyalar	-10.0488
iral	-10.0497
▁Kaya	-10.0498
▁tutulması	-10.0501
ity	-10.0501
▁adresin	-10.0502
▁dökme	-10.0504
▁pet	-10.0506
▁destekler	-10.0509
▁başlar	-10.0511
LERİ	-10.0513
▁almanı	-10.0516
▁pişiri	-10.052
▁Tar	-10.0521
▁noktalar	-10.0524
▁sektörde	-10.0527
▁kapak	-10.0527
▁platformlar	-10.0529
▁Je	-10.053
Ro	-10.0532
▁yeri	-10.0533
▁bilgisayarınız	-10.0536
yıklama	-10.0539
ergi	-10.0543
ağlığı	-10.0544
erilim	-10.0551
▁maliyetli	-10.0556
QL	-10.056
tid	-10.0569
▁kullanmanız	-10.0569
▁edildiği	-10.0571
27	-10.0573
▁Butik	-10.0577
iston	-10.059
▁yerleştirme	-10.059
▁Kız	-10.0596
▁iyileştirme	-10.0596
▁bildir	-10.0598
▁ind	-10.06
▁Tri	-10.0602
▁bulunama	-10.0602
▁Tat	-10.0608
xy	-10.0609
▁gençler	-10.0613
▁Mal	-10.0618
▁Sıcaklı	-10.0619
▁yemeklerini	-10.0621
▁by	-10.0625
▁Kablosu	-10.0625
bs	-10.0626
▁mağazalar	-10.0629
▁imkanları	-10.0644
try	-10.0652
▁sakin	-10.0653
▁Gri	-10.0654
▁Dev	-10.0661
lüğü	-10.0664
▁gerçeği	-10.0669
▁ilerleme	-10.0676
▁arası	-10.068
ID	-10.0686
▁arı	-10.0686
ağıt	-10.0689
shir	-10.0691
cht	-10.0695
▁kek	-10.0697
lut	-10.0704
▁izleri	-10.0708
220	-10.0708
▁biliyor	-10.071
▁getirmek	-10.0712
▁telefonunuz	-10.0722
-6	-10.0726
los	-10.073
▁Sou	-10.0733
▁seviyesi	-10.0737
arayıcınızın	-10.074
▁hatalarını	-10.0746
rou	-10.0749
leşmesi	-10.075
▁işlemin	-10.0752
şleme	-10.0755
▁has	-10.0758
Bu	-10.0759
kaya	-10.0762
▁kafe	-10.0764
▁bulunabilir	-10.0768
▁yüzün	-10.0777
▁Ant	-10.0777
sos	-10.078
▁boy	-10.0788
▁kazanma	-10.0789
▁antik	-10.0795
▁cihazınız	-10.0796
uvir	-10.0798
▁kelimeler	-10.0815
▁arkadaşları	-10.0822
▁korunması	-10.0825
ıç	-10.0828
▁ped	-10.0831
▁Mag	-10.0833
▁dair	-10.0835
▁şartlar	-10.086
▁hücreleri	-10.0862
lenmesi	-10.0867
ilmiştir	-10.0915
▁Kart	-10.0931
▁çözümleri	-10.0939
▁aldığı	-10.095
▁Cap	-10.0953
▁yaşamı	-10.096
▁Yayın	-10.0961
▁aktivite	-10.0964
▁Ton	-10.0969
▁tabanın	-10.097
TO	-10.0973
▁yerler	-10.0974
site	-10.0981
DEN	-10.0984
ydı	-10.0994
▁set	-10.0997
▁boyutu	-10.1019
▁ema	-10.1021
kas	-10.1021
▁Far	-10.1024
▁aktar	-10.1025
▁yaşı	-10.1039
▁Şirketi	-10.1045
▁içme	-10.1046
larımızda	-10.1058
▁verdi	-10.1065
▁hatası	-10.1068
cık	-10.1073
▁engel	-10.1074
▁ulaşma	-10.1082
şağı	-10.1091
ock	-10.1116
lmış	-10.1117
▁med	-10.1117
▁Madde	-10.1134
▁yaşın	-10.1139
▁cild	-10.1148
lenebilir	-10.115
▁mobilya	-10.1157
labildiğin	-10.1161
▁Jo	-10.1162
▁kurumlar	-10.1163
anır	-10.1166
▁Çi	-10.1172
▁Çinli	-10.1184
▁boyu	-10.1191
006	-10.1209
İS	-10.1211
▁Form	-10.1212
▁kaybı	-10.1212
latıcı	-10.1228
seri	-10.1228
▁kazandı	-10.1231
▁ST	-10.1237
hat	-10.1244
fly	-10.1257
▁mühendis	-10.1257
▁azalt	-10.1263
▁gelişimin	-10.1281
▁bulundu	-10.1283
▁devre	-10.1304
▁ülkeler	-10.1306
▁paketi	-10.1309
coin	-10.1311
▁Kam	-10.1312
▁yaşında	-10.132
andar	-10.1321
▁sürecin	-10.1321
PE	-10.133
ult	-10.1349
▁yem	-10.1366
UK	-10.1418
▁sebep	-10.1439
▁geçişi	-10.1445
▁23	-10.1458
RT	-10.1507
▁havalimanın	-10.1528
rog	-10.1528
Hz	-10.153
▁verebilir	-10.154
▁eğitimler	-10.1556
IC	-10.1569
93	-10.1571
lanabilir	-10.1573
lmas	-10.1579
▁yaratı	-10.1596
RS	-10.1608
▁Ab	-10.1609
▁değeri	-10.1613
▁Maca	-10.162
▁Not	-10.1626
▁oran	-10.1628
MI	-10.1636
▁gör	-10.1636
assi	-10.1652
36	-10.1654
ümüz	-10.1658
▁banyoda	-10.1666
58	-10.1669
▁tank	-10.167
raz	-10.1674
▁ayır	-10.1676
mis	-10.1679
▁Ed	-10.1683
▁parçası	-10.1695
tral	-10.1696
▁azal	-10.1704
▁yuva	-10.1706
▁tasarlan	-10.1708
▁ekle	-10.1713
▁İnsan	-10.1727
▁Bitki	-10.1728
▁Dia	-10.1731
emel	-10.1736
addesi	-10.1737
red	-10.1738
itt	-10.1749
▁değerler	-10.1757
400	-10.1757
▁Mr	-10.1762
bel	-10.1767
-12	-10.1782
resin	-10.179
▁hesabınız	-10.1795
▁düzenlen	-10.1823
▁çubuklar	-10.1831
wat	-10.1834
▁enf	-10.1843
▁42	-10.1849
▁oynat	-10.1866
▁sağlayıcı	-10.1871
▁Altın	-10.1875
▁getirdi	-10.1887
his	-10.1906
pire	-10.1918
▁biçimi	-10.192
▁Haber	-10.1939
▁efekti	-10.194
▁toplan	-10.1947
▁bakımın	-10.1949
▁arzu	-10.1954
▁seçimin	-10.1961
▁platform	-10.1963
▁Bou	-10.1964
▁160	-10.1964
▁teras	-10.1966
▁düş	-10.1967
▁kalınlığı	-10.1972
BA	-10.1978
▁cihazları	-10.1981
▁mekanı	-10.1986
yüzü	-10.1988
960	-10.1997
▁Sitesi	-10.2022
roduct	-10.2025
▁köp	-10.2057
▁Han	-10.2058
atch	-10.2072
▁korun	-10.2079
▁ülkede	-10.2082
▁pompası	-10.2086
▁kelime	-10.209
0.000	-10.2099
steri	-10.2106
▁saati	-10.2125
45	-10.2148
▁kafes	-10.2152
temin	-10.2165
▁sep	-10.2166
▁bol	-10.2166
▁etrafın	-10.2173
▁Opti	-10.2176
▁dilin	-10.2201
▁kü	-10.2202
▁Sitemiz	-10.2208
▁Kurut	-10.2209
▁bölümler	-10.2223
52	-10.2228
jet	-10.2231
AZ	-10.2238
▁uygulamalarını	-10.224
▁fir	-10.224
▁sürer	-10.2247
tom	-10.2254
▁evde	-10.226
▁Tarayıcı	-10.2263
▁işlemlerin	-10.2273
leştirilmesi	-10.2274
51	-10.2277
▁isteğ	-10.228
icaret	-10.2282
▁verim	-10.2284
zik	-10.2295
▁doğrul	-10.2302
▁mağaza	-10.2304
▁otobüs	-10.2349
ght	-10.2351
▁dokular	-10.2351
▁özellik	-10.2352
ızı	-10.2353
aritası	-10.2355
sör	-10.2373
▁Cas	-10.238
yorsunuz	-10.2383
▁hedefleri	-10.2386
RG	-10.2389
▁kayb	-10.2391
Lİ	-10.2392
▁temas	-10.2395
arım	-10.2398
TR	-10.2409
▁yatakları	-10.241
▁Videolar	-10.2416
▁fırsatlar	-10.2422
▁etkinliği	-10.2427
▁yerleştir	-10.2439
▁aşk	-10.2444
▁Fotoğraf	-10.2446
▁değerlendir	-10.2459
tırılabilir	-10.2468
▁Step	-10.248
tirme	-10.2491
▁Hazır	-10.2496
app	-10.2519
▁Ju	-10.2528
rim	-10.2535
▁MT	-10.2536
aşımı	-10.2539
▁Sid	-10.2551
abilmesi	-10.2551
▁düzeyin	-10.2552
▁içecekler	-10.2559
MS	-10.256
▁üreticiler	-10.2571
▁yemekleri	-10.2578
ılmıştır	-10.2588
43	-10.2591
▁Müdür	-10.2594
pet	-10.2605
▁sayfası	-10.2607
imini	-10.261
▁olmaya	-10.261
▁eti	-10.2611
▁Topla	-10.2617
vit	-10.2625
▁zehir	-10.2629
örneğin	-10.2637
▁altı	-10.2639
normal	-10.2641
▁Değer	-10.2642
▁artırma	-10.2645
▁fayda	-10.2648
▁ekleme	-10.2653
▁etiket	-10.2653
TE	-10.2655
örü	-10.2658
▁Tarih	-10.2659
▁Doku	-10.2662
ğınızı	-10.2667
▁hizmetler	-10.2695
▁hesabın	-10.2702
ocuğun	-10.2703
İM	-10.271
▁İz	-10.2711
köy	-10.2716
uştur	-10.2722
▁komut	-10.2725
▁sorunlar	-10.2726
SM	-10.2729
▁Parça	-10.2731
▁Resim	-10.2731
ripto	-10.2733
▁istey	-10.2733
▁modül	-10.2733
▁zar	-10.2734
rcu	-10.2735
eşil	-10.2739
▁konusu	-10.274
▁fırsat	-10.2741
ıbbi	-10.2742
▁Bölüm	-10.2742
▁Sensör	-10.2744
▁buldu	-10.2746
▁Kimyasal	-10.2747
▁zayıf	-10.2748
▁Dön	-10.2749
ağlantı	-10.2751
▁Böyle	-10.2752
▁sivil	-10.2752
ntegre	-10.2753
ilişim	-10.2753
ıvı	-10.2755
oparlör	-10.2756
▁tablo	-10.2756
rdek	-10.2757
▁yapıştır	-10.2757
▁Tedarik	-10.2757
р	-10.2758
▁muhte	-10.2758
arsayılan	-10.2758
л	-10.2758
▁kullanıldığı	-10.2759
POR	-10.2759
▁elektro	-10.2759
▁kut	-10.2759
ä	-10.2759
▁Bruns	-10.276
▁Chrome	-10.276
▁World	-10.276
▁hissed	-10.276
▁istikrar	-10.276
propilen	-10.276
é	-10.276
í	-10.276
с	-10.276
▁Cinsiyet	-10.276
▁Duyuru	-10.276
▁Fabric	-10.276
▁Fermuar	-10.276
▁Festival	-10.276
▁Frekans	-10.276
▁Garanti	-10.276
▁KALİTE	-10.276
▁Kahvaltı	-10.276
▁Kavrama	-10.276
▁Konferans	-10.276
▁Merdiven	-10.276
▁Power	-10.276
▁Twitter	-10.276
▁Uygun	-10.276
▁Venedik	-10.276
▁Victori	-10.276
▁Yargı	-10.276
▁Zımpara	-10.276
▁belediye	-10.276
▁bıçak	-10.276
▁eVET	-10.276
▁global	-10.276
▁ipuçları	-10.276
▁istanbul	-10.276
▁kariyer	-10.276
▁kompozisyon	-10.276
▁mülteci	-10.276
▁rehber	-10.276
▁sandalye	-10.276
▁segment	-10.276
▁sertifika	-10.276
▁soğutucu	-10.276
▁tehlike	-10.276
▁unutulma	-10.276
▁yalıtım	-10.276
▁yetkili	-10.276
▁Çözüm	-10.276
▁İletişim	-10.276
▁İlişki	-10.276
▁Şampiyon	-10.276
▁şantiye	-10.276
▁şırınga	-10.276
lezbiyen	-10.276
▁Katkısı	-10.276
▁Porsche	-10.276
▁Süpürge	-10.276
▁YENİ	-10.276
▁ayakkabı	-10.276
▁barındırma	-10.276
▁politikası	-10.276
▁söylüyor	-10.276
▁sıfır	-10.276
▁ultrason	-10.276
▁zımpara	-10.276
▁çorba	-10.276
▁şemsiye	-10.276
Deluxe	-10.276
м	-10.276
▁Aşınma	-10.276
▁Barselona	-10.276
▁Elbise	-10.276
▁Tipard	-10.276
▁eğilim	-10.276
▁komisyon	-10.276
▁tencere	-10.276
▁Çevre	-10.276
▁Bıçak	-10.276
▁Esnek	-10.276
▁Tablo	-10.276
▁doktorunuz	-10.276
▁eğitme	-10.276
▁patojen	-10.276
▁Yazıcı	-10.276
▁doktor	-10.276
▁mikrosko	-10.276
peptid	-10.276
в	-10.276
▁Gümüş	-10.276
▁Linux	-10.276
▁başardı	-10.276
▁talebi	-10.276
▁tırnak	-10.276
▁çeviri	-10.276
▁Ecza	-10.276
▁Kaldırma	-10.276
▁animasyon	-10.276
▁iğne	-10.276
▁işçilik	-10.276
▁zencefil	-10.276
▁İzolasyon	-10.276
▁Arkadaş	-10.276
▁Tayvan	-10.276
▁Mesaj	-10.276
▁Smartphone	-10.276
▁okuyun	-10.276
▁Bağış	-10.276
▁Dedektörler	-10.276
▁aktarımı	-10.276
▁dükkanı	-10.276
▁örtüsü	-10.276
▁hazine	-10.276
▁Bisiklet	-10.276
▁sunumun	-10.276
▁vakıf	-10.276
▁Süper	-10.276
▁uyandır	-10.276
▁Word	-10.276
▁slot	-10.276
sfalt	-10.276
▁unutmayın	-10.276
▁rakip	-10.276
▁Kongre	-10.276
▁RGB	-10.276
▁Protein	-10.276
▁kılıf	-10.276
▁Ceket	-10.276
▁balkon	-10.276
▁yerleşimin	-10.276
evimli	-10.276
▁nefes	-10.276
▁yapışma	-10.276
▁stres	-10.276
▁hizmetinizde	-10.276
▁staj	-10.276
▁ambar	-10.276
:04	-10.276
▁durağı	-10.276
▁elyaf	-10.276
ülfüri	-10.276
▁Ayarlanabilir	-10.276
▁Etkinlik	-10.276
▁Riyali	-10.276
▁Okuma	-10.276
▁oluşturulması	-10.276
▁Tekrar	-10.276
▁tepki	-10.276
▁hepsi	-10.276
▁görüntüsü	-10.276
▁özelleştirme	-10.276
▁ütüsü	-10.276
▁katılımcılar	-10.276
▁Foto	-10.276
▁kopya	-10.276
▁ağaç	-10.276
▁otomasyon	-10.276
▁Aletleri	-10.276
▁makyaj	-10.276
▁yığın	-10.276
▁Bugün	-10.276
▁çizim	-10.276
▁hotels	-10.276
▁şişme	-10.276
▁dâhi	-10.276
▁makam	-10.276
▁sarhoş	-10.276
▁düzgün	-10.276
▁kardiy	-10.276
▁denetim	-10.276
▁dantel	-10.276
▁direk	-10.276
▁Program	-10.2761
▁değişiklikleri	-10.2761
▁Lisans	-10.2761
▁teşhis	-10.2761
▁Nokia	-10.2761
▁modu	-10.2761
▁Oluştur	-10.2761
Devamı	-10.2761
▁Müzesi	-10.2761
▁çö	-10.2761
▁püre	-10.2761
▁Yardımcı	-10.2761
▁egzo	-10.2761
▁cnc	-10.2761
zhen	-10.2761
▁kullanışlı	-10.2761
▁Ödül	-10.2761
ışıklık	-10.2761
▁hasarı	-10.2761
▁yöntemlerin	-10.2761
▁düzeltme	-10.2761
▁Granül	-10.2761
▁kaydırma	-10.2761
▁bant	-10.2761
▁membran	-10.2761
▁muayene	-10.2761
▁yaptık	-10.2762
▁element	-10.2762
▁göğüsl	-10.2762
▁başlangıcı	-10.2762
▁muhtemel	-10.2762
▁Hassasiyet	-10.2762
▁kırışıklık	-10.2762
▁hakkınızda	-10.2762
▁nitelikleri	-10.2762
▁skor	-10.2762
▁tanıtım	-10.2762
▁dökün	-10.2762
▁Muse	-10.2762
▁bozulması	-10.2762
▁erişilebilirli	-10.2762
▁polimer	-10.2763
▁yoğunluğu	-10.2763
▁formatında	-10.2763
▁tıp	-10.2763
▁biber	-10.2763
▁Güney	-10.2763
▁Önce	-10.2763
▁dönüştürücü	-10.2764
▁kalsiyum	-10.2764
▁Isıtıcı	-10.2764
▁uyarıcı	-10.2764
▁yazıcı	-10.2764
▁öğeleri	-10.2764
▁damla	-10.2764
▁gömlek	-10.2764
▁ferah	-10.2764
▁aldığınızda	-10.2764
▁har	-10.2764
▁Bileşik	-10.2765
▁döneminde	-10.2765
▁tahmin	-10.2765
▁Süresi	-10.2765
▁tıklayınız	-10.2765
▁Hayır	-10.2765
▁Tıp	-10.2765
▁Halk	-10.2765
▁Listesi	-10.2765
▁jakar	-10.2765
▁Dolap	-10.2765
▁2.1	-10.2765
▁tram	-10.2765
▁kesinti	-10.2765
eraber	-10.2766
ileceğini	-10.2766
faza	-10.2766
▁2.4	-10.2766
▁Marka	-10.2766
▁Palet	-10.2766
▁kuzey	-10.2766
▁destekleyen	-10.2766
▁sağlayabilir	-10.2767
▁tahriş	-10.2767
▁Oldu	-10.2767
▁öncü	-10.2767
▁alındı	-10.2767
▁çiçekçi	-10.2767
▁damar	-10.2767
▁Master	-10.2767
▁nesil	-10.2767
▁Böylece	-10.2767
▁Moto	-10.2767
▁amacımız	-10.2768
▁tahta	-10.2768
kamet	-10.2768
▁darbe	-10.2768
▁parti	-10.2768
▁Poke	-10.2768
▁uygulanır	-10.2768
▁markanızı	-10.2768
▁terim	-10.2768
▁Parti	-10.2769
▁uzunluğu	-10.2769
▁Madalyası	-10.2769
▁yedi	-10.2769
▁yüklen	-10.2769
elona	-10.2769
▁mümkündür	-10.2769
▁depolama	-10.2769
▁ağırlığı	-10.2769
▁dayanak	-10.2769
▁Onay	-10.277
▁kaçınma	-10.277
-23	-10.277
▁etkileyici	-10.277
▁dondur	-10.277
setat	-10.277
▁boş	-10.2771
▁belirlenmesi	-10.2771
▁cinsel	-10.2771
üsü	-10.2771
▁paralel	-10.2771
▁olaylar	-10.2771
ACK	-10.2772
▁basınç	-10.2772
▁yapılmış	-10.2773
▁term	-10.2773
plak	-10.2773
▁550	-10.2773
▁pano	-10.2774
▁Royal	-10.2774
▁yapılandırma	-10.2774
▁Interna	-10.2774
▁vücudunuz	-10.2774
▁karıştırıcı	-10.2774
▁Dövme	-10.2775
▁MET	-10.2775
▁Hız	-10.2775
▁kazanç	-10.2775
▁makinası	-10.2775
▁Sensörü	-10.2775
▁artırır	-10.2776
izikler	-10.2776
▁kimse	-10.2777
▁yapabilirsiniz	-10.2777
▁burun	-10.2777
▁görebilir	-10.2777
ALARI	-10.2778
▁kiralama	-10.2778
NKO	-10.2778
▁temizliği	-10.2779
▁önleyici	-10.2779
▁Kanal	-10.2779
▁175	-10.2779
▁ölü	-10.2779
▁denir	-10.2779
▁Ekstrü	-10.278
▁tartışma	-10.278
▁Arşiv	-10.278
▁Samsun	-10.278
▁Ukrayna	-10.278
▁aerob	-10.278
▁İzmir	-10.278
▁sıkıcı	-10.278
▁düşünü	-10.278
▁Temizle	-10.278
▁sağlanması	-10.278
▁Steroid	-10.278
▁Kapasitesi	-10.278
▁Bayramı	-10.2781
▁Kullanıla	-10.2781
▁Suites	-10.2782
▁sürebilir	-10.2782
▁zordur	-10.2782
▁Host	-10.2782
gülü	-10.2782
▁kitap	-10.2782
udaklar	-10.2783
▁Yakın	-10.2783
▁fare	-10.2783
▁Devletleri	-10.2783
kelepçe	-10.2784
▁oksit	-10.2784
▁şablonu	-10.2784
▁cins	-10.2785
▁Gele	-10.2785
▁Carol	-10.2785
▁Almanya	-10.2786
▁yönel	-10.2786
Aakg	-10.2787
▁azot	-10.2787
▁Mess	-10.2787
▁birbirin	-10.2788
▁endüstrisi	-10.2789
▁aşınma	-10.2789
▁Katı	-10.2789
▁mekanik	-10.279
▁anlatma	-10.279
ÜK	-10.279
▁tanımlama	-10.279
nüs	-10.2791
▁Kurumu	-10.2791
view	-10.2792
▁Nitr	-10.2792
eyve	-10.2793
▁SCH	-10.2794
▁Corp	-10.2794
▁edebilme	-10.2795
▁Ulaş	-10.2795
▁ilha	-10.2796
ware	-10.2796
▁yapısal	-10.2796
▁yerleştirin	-10.2797
▁Kalem	-10.2797
▁yazdır	-10.2797
▁çalışıyor	-10.2797
▁Tech	-10.2798
▁Ekonomi	-10.2798
SET	-10.2801
▁Transferi	-10.2802
▁Otur	-10.2802
▁gösterebilir	-10.2802
▁1500	-10.2803
▁düğmesini	-10.2803
▁kesin	-10.2803
aygı	-10.2804
▁karton	-10.2804
▁köpük	-10.2805
▁geçerlidir	-10.2805
▁daldır	-10.2806
▁giysi	-10.2806
▁1200	-10.2806
▁stil	-10.2808
ým	-10.2809
▁göstermek	-10.2809
▁çıkarır	-10.2809
▁maç	-10.2809
▁aşağıya	-10.281
▁kedi	-10.281
▁kapan	-10.2813
▁silmek	-10.2813
▁Balık	-10.2814
▁tedarikçisi	-10.2814
▁Fabrikası	-10.2814
▁depo	-10.2816
▁Т	-10.2816
▁etmeyi	-10.2816
▁talimat	-10.2817
olayısıyla	-10.2817
ıyasla	-10.2817
▁Asya	-10.2818
▁not	-10.2819
▁Masa	-10.2819
zgar	-10.2819
▁ortaklık	-10.2821
▁Perdesi	-10.2822
▁ağrısı	-10.2823
▁Evet	-10.2823
▁gev	-10.2824
▁Üye	-10.2824
▁çam	-10.2824
▁GEN	-10.2824
nomları	-10.2827
▁305	-10.2827
▁Elmas	-10.2827
▁Zor	-10.2827
▁güzellik	-10.2828
▁kontrollü	-10.2829
▁turu	-10.2829
▁ettiğiniz	-10.2829
▁Kategoriler	-10.283
pul	-10.283
ultipleks	-10.2831
▁öncesinde	-10.2832
ekstil	-10.2834
▁formu	-10.2834
▁polis	-10.2834
poli	-10.2835
▁duşlu	-10.2835
▁Cihazı	-10.2835
▁atlama	-10.2835
▁Noel	-10.2835
▁boz	-10.2836
irinç	-10.2837
▁atmak	-10.2837
▁kesici	-10.2838
▁doy	-10.2838
▁Baba	-10.2839
▁desenleri	-10.2839
▁Vanaları	-10.2841
usunda	-10.2841
▁vana	-10.2843
▁alanlarda	-10.2843
dth	-10.2844
▁Diya	-10.2844
▁değilim	-10.2844
▁Kek	-10.2845
▁ömrünü	-10.2845
gnos	-10.2846
lektronik	-10.2847
▁madencilik	-10.2847
▁Gül	-10.2848
▁dengeli	-10.2849
3.0	-10.2851
▁Pala	-10.2852
▁Alman	-10.2852
▁indirin	-10.2853
▁Hard	-10.2854
▁sarım	-10.2854
▁kolon	-10.2854
bük	-10.2856
2.7	-10.2857
▁Targ	-10.2858
TV	-10.2859
▁vize	-10.286
▁bilin	-10.286
▁işit	-10.2864
phe	-10.2866
jur	-10.2866
▁bide	-10.2868
▁Konu	-10.2868
▁bölümünde	-10.2872
karbür	-10.2873
▁CAD	-10.2874
▁binası	-10.2874
▁kılavuzu	-10.2874
▁Fiyatı	-10.2877
▁yıldır	-10.2877
ılmaz	-10.2878
-10	-10.2878
▁Elma	-10.2878
▁birbirleri	-10.2879
▁70	-10.2879
▁odasına	-10.2879
▁karşılık	-10.2881
▁çim	-10.2882
▁Alanları	-10.2885
▁meta	-10.2886
▁kaya	-10.2886
▁gönderin	-10.2886
seniz	-10.2886
▁mg	-10.2887
oint	-10.289
▁kenarları	-10.2892
▁başlama	-10.2893
uklu	-10.2893
▁Cha	-10.2897
▁çapı	-10.2899
▁Fak	-10.2899
▁erişimini	-10.2901
UM	-10.2905
▁Uygulamaları	-10.2906
LC	-10.2908
lmüş	-10.2908
▁kaybol	-10.2908
▁Kapat	-10.2908
▁bitkiler	-10.291
Termokupl	-10.2911
▁46	-10.2916
▁etmez	-10.2916
▁evre	-10.2918
▁Tozu	-10.2925
▁Hak	-10.2926
▁aktarma	-10.2928
TF	-10.2928
▁edebileceği	-10.293
▁dilim	-10.293
▁TN	-10.2932
AO	-10.2934
▁Doları	-10.2936
laka	-10.2936
▁Karg	-10.2937
nayl	-10.2939
▁pul	-10.2939
▁(15	-10.2945
▁Sep	-10.2946
▁Gerek	-10.2949
▁(16	-10.2949
▁öğle	-10.2949
▁ismi	-10.295
▁Motoru	-10.2953
▁enter	-10.2954
laştırma	-10.2954
dos	-10.2955
▁rady	-10.2957
▁(2)	-10.2957
▁Dede	-10.296
▁Neden	-10.2965
▁Ema	-10.2966
▁yiyece	-10.2967
▁Ege	-10.2968
Porn	-10.2969
LM	-10.2971
▁içeceklerin	-10.2972
▁şeydir	-10.2974
▁Sey	-10.2974
▁saye	-10.2974
▁yöntemler	-10.2976
?"	-10.2977
â	-10.2979
▁Tasarımı	-10.2988
▁indirmek	-10.2988
▁yenilik	-10.2992
▁olacağı	-10.2993
▁odaklan	-10.2994
▁uzan	-10.2997
▁paten	-10.2999
▁etmeye	-10.2999
2500	-10.3002
fram	-10.3004
▁Mektup	-10.3005
▁kale	-10.3009
▁olasılıkla	-10.301
▁koyun	-10.301
▁Koyun	-10.3012
▁Gran	-10.3013
anmış	-10.3016
dha	-10.3027
▁Bakım	-10.3031
▁kesmek	-10.3032
▁Resimleri	-10.3038
-25	-10.3039
▁kullanmaya	-10.3043
▁tuşu	-10.3044
▁yanıt	-10.3045
▁Sıfır	-10.3049
efer	-10.305
▁koyma	-10.3055
▁geçirme	-10.306
▁bazıları	-10.306
iriz	-10.3062
▁yaratma	-10.3078
üvenliği	-10.3079
randa	-10.3084
vay	-10.3085
HDPE	-10.3087
▁YA	-10.3088
▁OP	-10.3098
▁ayırı	-10.3099
▁güncelley	-10.3099
▁kum	-10.3099
▁beklentilerin	-10.3101
▁ayarlarını	-10.3104
▁şablonların	-10.3105
iyim	-10.3106
▁BR	-10.3108
▁çerçevesi	-10.3114
▁seçil	-10.3117
▁Dis	-10.312
alip	-10.3121
▁fırsatı	-10.3127
▁kuruluş	-10.3138
▁Düzenl	-10.3141
▁etkinliğini	-10.3141
▁kodu	-10.3148
▁onaylanma	-10.3155
▁KE	-10.317
▁kir	-10.3188
▁organizma	-10.3193
▁satı	-10.3195
▁nö	-10.3196
resel	-10.3198
▁TL	-10.3199
▁İleri	-10.32
▁renkler	-10.3203
▁Hay	-10.3206
▁tümü	-10.3206
▁(17	-10.3207
▁trafi	-10.3214
▁etkileye	-10.322
▁Rig	-10.3235
59	-10.3252
▁değerlendirmek	-10.3252
▁Kale	-10.3253
ters	-10.3263
ınızda	-10.3266
▁psi	-10.3277
▁TC	-10.3277
▁Side	-10.3278
▁Giy	-10.3278
▁Ano	-10.3281
▁kare	-10.3284
▁projesin	-10.3288
▁İşte	-10.329
▁Mekani	-10.3305
▁etiketi	-10.3311
▁Pur	-10.3312
ju	-10.3324
▁İsti	-10.3328
▁firmaları	-10.3328
▁Eas	-10.3328
▁ucu	-10.333
▁düşme	-10.3338
▁Rel	-10.3347
▁oynamak	-10.3353
ence	-10.3361
acaksınız	-10.3363
arklı	-10.3366
▁yarışma	-10.3366
PM	-10.3371
▁kenti	-10.3373
▁mast	-10.3374
MQ	-10.3375
▁aşağıda	-10.3382
▁Parlat	-10.3383
▁etraf	-10.3384
▁çekme	-10.3385
▁Silindiri	-10.3386
▁öğren	-10.3392
▁sorunları	-10.3394
ishi	-10.3397
▁ayarlanma	-10.3401
▁adresinizi	-10.3419
01	-10.3419
sco	-10.3432
▁cami	-10.3437
▁kağıtları	-10.344
▁yel	-10.348
▁haftada	-10.3488
▁oto	-10.3488
▁rad	-10.3489
▁Cor	-10.3494
bas	-10.3506
▁kısmın	-10.3514
▁GM	-10.3525
Prefabrik	-10.3528
▁sız	-10.353
▁tabakası	-10.354
97	-10.3544
▁faydalanabilir	-10.3551
rey	-10.3551
▁alanlarında	-10.3568
▁1.7	-10.3575
▁oranda	-10.3581
▁Hel	-10.3589
▁sağlıyor	-10.3594
urt	-10.3594
▁Paketle	-10.3595
▁çalışanları	-10.36
44	-10.3607
▁Şekillendir	-10.3615
▁Vo	-10.3617
▁Fil	-10.3622
▁alerjisi	-10.3623
▁hakkını	-10.3625
dığınızda	-10.3634
▁detayların	-10.3637
▁Akı	-10.3639
▁implant	-10.364
▁eğlencesi	-10.3648
▁uzmanı	-10.3651
▁Haberler	-10.3653
▁noktaları	-10.3664
mızda	-10.3691
▁başlayabilirsin	-10.3703
icin	-10.3706
03	-10.3706
▁Yaka	-10.3709
▁Hil	-10.372
▁yerini	-10.3722
dge	-10.3727
▁noktada	-10.3741
▁sağlayıcıları	-10.3747
▁genişletme	-10.3749
▁tit	-10.3758
▁sed	-10.3758
▁Kitle	-10.3762
▁düşür	-10.3763
▁harita	-10.3772
▁sar	-10.3774
▁kompl	-10.3785
HAN	-10.3785
▁yaşaya	-10.3804
şkil	-10.3814
ico	-10.3822
▁Sub	-10.3839
▁Yeme	-10.3857
▁Mor	-10.3865
▁markaları	-10.3868
▁Çapı	-10.3876
ush	-10.3878
▁giderme	-10.388
CH	-10.3881
caklar	-10.3884
▁bakteriler	-10.3889
▁Vik	-10.3889
▁soğ	-10.389
76	-10.3911
▁çerez	-10.3912
▁içerikler	-10.3925
▁oyunun	-10.3929
▁dönüşü	-10.3936
▁ettik	-10.394
▁egzersizler	-10.394
ılmasını	-10.3947
▁bağlan	-10.3953
▁hesabınızı	-10.399
RM	-10.4002
▁kaplan	-10.4004
▁sc	-10.402
KO	-10.4027
▁Gra	-10.4029
gz	-10.403
▁işlemler	-10.4038
▁filmi	-10.4046
▁toplama	-10.4065
HT	-10.4072
▁Turist	-10.4081
-40	-10.4092
işmiş	-10.4102
▁ayrıntılar	-10.4106
▁Shor	-10.4112
▁yemeğin	-10.4114
▁parçasını	-10.4121
ZH	-10.4149
98	-10.4193
▁barınd	-10.4198
▁basınc	-10.4204
▁tav	-10.4221
CC	-10.4221
dum	-10.4239
▁etkinlik	-10.4248
▁programın	-10.4249
▁testler	-10.4256
▁kısmı	-10.4269
▁1.5	-10.427
▁Sertifika	-10.427
hine	-10.4276
ünüz	-10.4293
▁sonuçlan	-10.4305
vent	-10.4312
YA	-10.4318
▁zorunlu	-10.4327
▁sente	-10.4359
LG	-10.4363
▁saatte	-10.4377
PER	-10.4406
▁Ele	-10.4411
▁kayded	-10.4415
▁problemler	-10.4423
▁Lev	-10.4441
▁temizli	-10.4442
▁programlarını	-10.4447
aray	-10.4447
▁gruplar	-10.445
200	-10.4455
▁içeriğin	-10.4465
▁ayrıntı	-10.4476
▁devresi	-10.4478
▁anlatı	-10.4508
▁mühendisli	-10.4515
törü	-10.4537
▁koşu	-10.454
▁kurdu	-10.4566
▁Bot	-10.4601
▁dürüst	-10.4619
▁yarat	-10.463
▁tuvaletler	-10.4639
▁oluşturabilir	-10.4642
▁eg	-10.4646
▁sitesini	-10.4648
▁aktarıl	-10.4657
▁sahipliği	-10.4667
▁standartların	-10.4678
▁çalışanlar	-10.4681
ostero	-10.4699
mektir	-10.47
▁ilan	-10.4709
▁Nam	-10.4725
▁hüküm	-10.4735
lmesi	-10.4736
▁basıl	-10.4738
AÇ	-10.474
▁kültür	-10.4766
▁reçete	-10.4779
▁Tor	-10.4792
▁Kullanıcılar	-10.4822
▁tablet	-10.4823
▁Prim	-10.4824
▁KON	-10.4829
tetik	-10.4832
▁Yem	-10.4836
▁etkinleştir	-10.485
FR	-10.4874
▁şirketler	-10.4878
▁sektör	-10.4883
▁alması	-10.4887
▁kaldır	-10.4925
▁ebeveyn	-10.4926
▁res	-10.4931
▁modelleri	-10.4933
▁ayarla	-10.4947
▁(14	-10.4954
▁Çantalar	-10.4977
▁Mod	-10.4991
▁Şekil	-10.5028
▁organ	-10.5037
▁Stre	-10.5081
▁Hizmetler	-10.5084
▁listesini	-10.5091
▁kenar	-10.5109
▁telefonlar	-10.5123
▁iyileştir	-10.5145
rafik	-10.5151
▁Vis	-10.5156
▁gösterdiği	-10.5169
▁istasyonun	-10.5177
hip	-10.5199
TTE	-10.5209
unge	-10.5211
▁vermekte	-10.5212
▁yapmış	-10.5234
▁dairesi	-10.5253
79	-10.5258
ZE	-10.526
▁atık	-10.5261
е	-10.5285
yunda	-10.5289
ettiğimiz	-10.5311
▁merkez	-10.5312
▁kişileri	-10.5314
EX	-10.5319
▁hortumlar	-10.5322
▁kalır	-10.5324
▁adresiniz	-10.5343
▁kent	-10.5354
ırıcı	-10.5363
▁Önerile	-10.5369
▁projeleri	-10.5386
▁akışı	-10.5387
ılması	-10.5388
▁Oyunlar	-10.5393
▁imkan	-10.5398
▁Klini	-10.5399
▁Sites	-10.5407
▁başkalarını	-10.5412
▁alıyor	-10.5413
▁uygulamasın	-10.5438
▁parametre	-10.5461
▁Kablo	-10.5472
leştirdi	-10.5485
rım	-10.5487
▁anlayışı	-10.5502
▁Veriler	-10.551
▁seviyeleri	-10.5517
▁mimarisini	-10.5527
▁wo	-10.5534
▁Merkez	-10.5543
▁tasarla	-10.5551
▁fonksiyonları	-10.5559
▁hataları	-10.5565
Dİ	-10.5569
▁sö	-10.558
ovas	-10.5581
▁ilerle	-10.5591
▁şablon	-10.5599
imizi	-10.5617
▁tahri	-10.562
▁büt	-10.5624
▁paketler	-10.5626
▁Strateji	-10.5644
▁29	-10.565
▁seçeneğini	-10.5663
▁dök	-10.567
▁yakma	-10.567
▁semptom	-10.568
erapi	-10.5681
▁çözümler	-10.5688
row	-10.569
▁Kod	-10.571
▁işlerini	-10.5717
▁barı	-10.5721
▁Hot	-10.5721
rov	-10.5734
▁180	-10.5736
eceksiniz	-10.574
▁dersi	-10.5751
▁paylaşı	-10.5774
▁900	-10.5816
EA	-10.5834
▁avantaj	-10.5835
▁karbon	-10.5841
anımı	-10.5849
▁yiye	-10.5853
ceği	-10.5862
▁balık	-10.5875
▁Isla	-10.5876
▁konumun	-10.5889
▁enfeksiyon	-10.589
▁Rapor	-10.5891
gue	-10.5891
▁Boyutu	-10.5894
▁Rezervasyon	-10.5904
cut	-10.5904
▁filtr	-10.5913
▁kombinasyonu	-10.592
▁koy	-10.592
lga	-10.5925
rance	-10.5927
ünüzü	-10.593
bre	-10.5932
▁sır	-10.5934
▁bozukluğu	-10.5935
lastik	-10.5944
▁Ex	-10.5945
burg	-10.5946
shing	-10.5948
▁Ermeni	-10.5949
NIM	-10.5951
abileceğini	-10.5951
▁Mikro	-10.5955
market	-10.5959
▁macun	-10.5961
formu	-10.5964
ketleri	-10.5968
Teknoloji	-10.5969
bakteri	-10.597
▁olabil	-10.5971
indirim	-10.5973
lacın	-10.5974
Berry	-10.5974
Dosya	-10.5975
Free	-10.5977
mikro	-10.5977
Saf	-10.5977
organi	-10.5978
▁indiri	-10.5978
▁yumuşa	-10.5979
Ltd	-10.598
Çelik	-10.598
Tüm	-10.598
▁mukavemet	-10.5992
▁madencili	-10.5992
▁Ning	-10.5993
▁240	-10.5996
dığından	-10.5999
▁etiketler	-10.6
yeşil	-10.6004
bancı	-10.6007
▁yaptığı	-10.6008
Web	-10.6008
CAD	-10.6011
▁azaltma	-10.6011
▁konakla	-10.6013
▁sağlam	-10.6014
▁değişti	-10.602
düğü	-10.6029
▁tüketim	-10.6033
Pres	-10.6035
ebilmesi	-10.6041
▁dönem	-10.6046
▁düzenlemeler	-10.6048
▁kaplar	-10.6052
▁600	-10.6053
▁biyo	-10.6053
▁imalat	-10.6054
▁belirleme	-10.6058
▁Ekipman	-10.6059
▁Dönüş	-10.606
▁aydınl	-10.6061
▁tasarruf	-10.6061
ontrol	-10.6061
▁hukuk	-10.6061
▁süt	-10.6063
▁çağ	-10.6064
▁kartuş	-10.6065
fore	-10.6065
▁Devlet	-10.6065
▁Kapasite	-10.6067
▁Havu	-10.6067
ebeği	-10.6069
ndroid	-10.6069
▁Kişi	-10.6071
▁Döv	-10.6072
▁makina	-10.6072
▁Vücut	-10.6077
▁Dök	-10.6079
▁Bulg	-10.6079
▁sisteminiz	-10.6083
▁oksi	-10.6083
▁benimse	-10.6083
▁Görünü	-10.6084
ötü	-10.6084
eçeneği	-10.6084
▁seviyor	-10.6085
rijinal	-10.6085
erakende	-10.6086
üskürtme	-10.6086
▁Mev	-10.6086
üzüm	-10.6086
▁Basın	-10.6087
▁enjek	-10.6087
▁Değ	-10.6088
önüştürücü	-10.6088
▁farkında	-10.6088
dolu	-10.6088
ompozit	-10.6089
aksimum	-10.6089
▁Göster	-10.609
▁Kimya	-10.6091
▁Basit	-10.6091
öşe	-10.6091
▁Bildiri	-10.6091
kşam	-10.6092
▁Endüstri	-10.6092
▁olağan	-10.6092
amuk	-10.6092
▁meslek	-10.6093
▁sembol	-10.6093
▁Finans	-10.6093
ompresör	-10.6093
ografisi	-10.6093
▁dezavantaj	-10.6093
▁uygulayıcı	-10.6093
▁çatlak	-10.6093
Miroglio	-10.6093
abarcıklar	-10.6093
antastik	-10.6093
cyclin	-10.6093
eseptör	-10.6093
keşfetme	-10.6093
loud	-10.6093
sigorta	-10.6093
ömork	-10.6093
ıldönümü	-10.6093
α	-10.6093
ν	-10.6093
Р	-10.6093
д	-10.6093
у	-10.6093
ь	-10.6093
ر	-10.6093
▁0-0,	-10.6093
▁Akvaryum	-10.6093
▁Aquatec	-10.6093
▁Araştırma	-10.6093
▁Archive	-10.6093
▁Avrasya	-10.6093
▁Ayaydın	-10.6093
▁Bütün	-10.6093
▁Cerrahi	-10.6093
▁Cıvata	-10.6093
▁Electronic	-10.6093
▁Kilisesi	-10.6093
▁Kulübü	-10.6093
▁Kusadasi	-10.6093
▁Mercedes	-10.6093
▁Muğla	-10.6093
▁Normalde	-10.6093
▁Otomobil	-10.6093
▁Otopark	-10.6093
▁Packag	-10.6093
▁Photoshop	-10.6093
▁Potansiyel	-10.6093
▁Residence	-10.6093
▁Swift	-10.6093
▁Söndürücü	-10.6093
▁Sözlük	-10.6093
▁Temizleyici	-10.6093
▁YAZILIM	-10.6093
▁Yalıtım	-10.6093
▁Zayıf	-10.6093
▁adlandırılı	-10.6093
▁avukat	-10.6093
▁batarya	-10.6093
▁bloğu	-10.6093
▁bornozlar	-10.6093
▁bulunmuştur	-10.6093
▁ceketi	-10.6093
▁direksiyon	-10.6093
▁efektler	-10.6093
▁ekstrü	-10.6093
▁eldiven	-10.6093
▁fikstür	-10.6093
▁frekans	-10.6093
▁gürültü	-10.6093
▁intoleransı	-10.6093
▁kitabı	-10.6093
▁konfigürasyon	-10.6093
▁kurtulma	-10.6093
▁ligasyonu	-10.6093
▁metalürji	-10.6093
▁mülkiyet	-10.6093
▁olgunlaş	-10.6093
▁patates	-10.6093
▁peynir	-10.6093
▁peyzaj	-10.6093
▁salınım	-10.6093
▁sterilizasyon	-10.6093
▁tütü	-10.6093
▁uğrun	-10.6093
▁yetiştirme	-10.6093
▁Çeviri	-10.6093
▁Örnek	-10.6093
▁Öğret	-10.6093
▁ÜRETİCİLER	-10.6093
▁çatışmalar	-10.6093
▁çekinmeyin	-10.6093
▁östrojen	-10.6093
▁özerklik	-10.6093
▁öğretmen	-10.6093
▁üniform	-10.6093
▁İhtiyacınız	-10.6093
▁İsviçre	-10.6093
▁şikayet	-10.6093
▁şövalye	-10.6093
Arjantin	-10.6093
Orgazm	-10.6093
milimetre	-10.6093
script	-10.6093
▁Collection	-10.6093
▁Karşılaştırma	-10.6093
▁Mağaza	-10.6093
▁Sıkıştırma	-10.6093
▁Sınavı	-10.6093
▁albüm	-10.6093
▁büzülme	-10.6093
▁distribütör	-10.6093
▁geçirgenliği	-10.6093
▁kabiliyet	-10.6093
▁konsantrasyonl	-10.6093
▁kısım	-10.6093
▁metalurji	-10.6093
▁solüsyonu	-10.6093
▁sızıntı	-10.6093
▁tezahür	-10.6093
▁yumurta	-10.6093
▁şezlonglar	-10.6093
Merhaba	-10.6093
▁Aşama	-10.6093
▁Baharatı	-10.6093
▁Boyunlu	-10.6093
▁Dövüş	-10.6093
▁Gallery	-10.6093
▁HOTEL	-10.6093
▁Holding	-10.6093
▁Hücre	-10.6093
▁Kurtarma	-10.6093
▁Köyü	-10.6093
▁Turkish	-10.6093
▁folyo	-10.6093
▁karışabilir	-10.6093
▁klipleri	-10.6093
▁soyul	-10.6093
▁tabağı	-10.6093
▁taşıyıcılar	-10.6093
▁tecrübe	-10.6093
▁önleyebilir	-10.6093
▁üniversite	-10.6093
▁Kılıf	-10.6093
▁Resort	-10.6093
▁davranma	-10.6093
▁direnç	-10.6093
▁ekleyerek	-10.6093
▁gisele	-10.6093
▁greft	-10.6093
▁hazırladığı	-10.6093
▁proses	-10.6093
▁tutunuz	-10.6093
▁unsur	-10.6093
▁vitamin	-10.6093
▁Ülke	-10.6093
▁ızgara	-10.6093
cross	-10.6093
proof	-10.6093
▁Ethereum	-10.6093
▁Hasır	-10.6093
▁Industrial	-10.6093
▁Mustafa	-10.6093
▁akıntı	-10.6093
▁hamileli	-10.6093
▁ilçesi	-10.6093
▁standardı	-10.6093
▁trombo	-10.6093
▁Çerez	-10.6093
▁şaft	-10.6093
▁Benzersiz	-10.6093
▁Bülten	-10.6093
▁Singap	-10.6093
▁gidebilir	-10.6093
▁lokantalar	-10.6093
▁mukoza	-10.6093
▁yakalama	-10.6093
ehabilita	-10.6093
ontinental	-10.6093
▁Klasik	-10.6093
▁boşalma	-10.6093
▁hacmi	-10.6093
▁kimliğinizi	-10.6093
▁koleksiyon	-10.6093
▁kızarıklı	-10.6093
▁olmaksızın	-10.6093
▁Emlak	-10.6093
▁macera	-10.6093
▁peşin	-10.6093
▁İşaret	-10.6093
ntioksidan	-10.6093
▁Jammer	-10.6093
▁Ubud	-10.6093
▁kriter	-10.6093
▁rulo	-10.6093
▁Bobini	-10.6093
▁ünite	-10.6093
▁Dergisi	-10.6093
▁Kahve	-10.6093
▁Vakum	-10.6093
▁emülsiyon	-10.6093
▁kadro	-10.6093
▁olabileceğini	-10.6093
▁çalıştırmak	-10.6093
▁Konuşma	-10.6093
▁samimi	-10.6093
ilisyum	-10.6093
▁Hedef	-10.6093
▁Koltuk	-10.6093
▁difüz	-10.6093
▁Sayısı	-10.6093
▁Silver	-10.6093
▁Torino	-10.6093
▁girdi	-10.6093
▁patlama	-10.6093
▁yetmez	-10.6093
flexi	-10.6093
▁arabirim	-10.6093
▁göstergeleri	-10.6093
Download	-10.6093
▁Datça	-10.6093
▁Giyinik	-10.6093
▁fatura	-10.6093
▁kullanacağınız	-10.6093
▁yöneticileri	-10.6093
▁Asansör	-10.6093
▁Difüz	-10.6093
▁dönüm	-10.6093
▁Limanı	-10.6093
▁ecza	-10.6093
▁gerginli	-10.6093
ULT	-10.6093
field	-10.6093
▁Prens	-10.6093
▁kilise	-10.6093
▁lobun	-10.6093
▁Pipedrive	-10.6093
▁fason	-10.6093
▁hileleri	-10.6093
▁EUR	-10.6093
▁antalya	-10.6093
▁Cisco	-10.6093
▁Cumhuriyet	-10.6093
▁Kumanda	-10.6093
▁Arabia	-10.6093
WARE	-10.6093
▁Hamile	-10.6093
▁Manyeti	-10.6093
▁kapsar	-10.6093
▁takdirde	-10.6093
▁çoğunluk	-10.6093
▁Mersin	-10.6093
▁TBF	-10.6093
▁Town	-10.6093
▁Hamburg	-10.6093
▁anlaşıl	-10.6093
▁kiosk	-10.6093
▁Psikoloji	-10.6093
XXX	-10.6093
▁kamplar	-10.6093
▁formları	-10.6093
işasta	-10.6093
▁Belirli	-10.6093
▁hatıra	-10.6093
▁kaybetme	-10.6093
▁MOD	-10.6093
▁takvim	-10.6093
▁kaldırılması	-10.6093
▁şekillendire	-10.6093
▁kilidi	-10.6093
▁çivi	-10.6093
▁laminasyon	-10.6093
landırıcı	-10.6093
▁Market	-10.6093
▁ayrılması	-10.6093
▁Tepsi	-10.6093
▁ışının	-10.6093
▁Monitör	-10.6093
▁mantar	-10.6093
▁Eyalet	-10.6093
▁Doküman	-10.6093
▁Isıtma	-10.6093
▁Slayt	-10.6093
▁Detay	-10.6093
▁toplayıp	-10.6093
▁esmer	-10.6093
▁gitti	-10.6093
SHI	-10.6093
▁Tarifler	-10.6094
▁sevk	-10.6094
▁bileşikler	-10.6094
▁gidiyor	-10.6094
▁karakteristik	-10.6094
▁durdur	-10.6094
▁Hesabınız	-10.6094
▁Nakit	-10.6094
berry	-10.6094
▁Yaratıcı	-10.6094
▁Dondur	-10.6094
▁yeryüzün	-10.6094
▁Bandı	-10.6094
▁Slot	-10.6094
mpany	-10.6094
▁şef	-10.6094
▁Küresel	-10.6094
▁maske	-10.6094
▁olamaz	-10.6094
▁Memor	-10.6094
▁müdahale	-10.6094
▁folik	-10.6094
▁düşünüyorsanız	-10.6094
uerto	-10.6094
▁kesilir	-10.6094
▁keskin	-10.6094
▁çikolata	-10.6094
▁Vintage	-10.6094
▁Kurum	-10.6094
▁Flexi	-10.6094
▁yitir	-10.6094
▁Yunan	-10.6094
▁Yeter	-10.6094
▁danışı	-10.6094
▁Alkali	-10.6094
eneratör	-10.6094
▁Kalıp	-10.6094
▁Kredi	-10.6094
▁birleştiren	-10.6094
▁Kabin	-10.6094
▁etkileyebilir	-10.6094
▁turnuva	-10.6094
▁Alıcı	-10.6094
▁anket	-10.6094
▁flibanserin	-10.6094
▁Dönemi	-10.6094
▁duman	-10.6094
:22	-10.6094
▁çözücü	-10.6095
▁9.1	-10.6095
▁Sihir	-10.6095
▁arıtma	-10.6095
▁hakim	-10.6095
▁puan	-10.6095
blox	-10.6095
▁olmayacak	-10.6095
▁krem	-10.6095
▁buhar	-10.6095
▁Ailesi	-10.6095
laştırıldığında	-10.6095
▁RESO	-10.6095
▁spektrum	-10.6095
▁kuaför	-10.6095
olution	-10.6095
▁Polonya	-10.6095
▁kademe	-10.6095
▁atmosfer	-10.6095
▁Hamma	-10.6095
▁rahatlatıcı	-10.6095
▁balıkçı	-10.6095
▁Full	-10.6096
▁bayan	-10.6096
▁Hayvan	-10.6096
siklet	-10.6096
▁you	-10.6096
RUP	-10.6096
▁Ortakent	-10.6096
avori	-10.6096
vars	-10.6096
▁Formül	-10.6096
Square	-10.6096
▁Standard	-10.6096
▁köşeleri	-10.6096
▁alkali	-10.6096
▁piksel	-10.6096
▁yüzük	-10.6096
▁parçacıklar	-10.6096
▁konektörü	-10.6096
▁duygusal	-10.6096
▁yoğunlaş	-10.6096
▁PORT	-10.6097
▁adayı	-10.6097
▁doğruluğun	-10.6097
▁Temp	-10.6097
▁Share	-10.6097
▁Limit	-10.6097
▁üretilir	-10.6097
▁oynatıcı	-10.6097
▁deposu	-10.6097
▁oynayın	-10.6097
▁2.0	-10.6097
▁Fransız	-10.6097
▁Edilebil	-10.6097
▁sığ	-10.6097
▁Genişlet	-10.6097
▁Gösterge	-10.6097
▁Makaleler	-10.6097
ndrojen	-10.6097
▁Fortun	-10.6097
▁oluşumu	-10.6097
▁yararlanabilir	-10.6097
▁Türkçe	-10.6097
▁Okul	-10.6098
▁engellenmesi	-10.6098
▁Örgü	-10.6098
▁çıkarılabilir	-10.6098
▁Fırın	-10.6098
▁Teslimat	-10.6098
▁deneyler	-10.6098
▁Bilgileriniz	-10.6098
▁trafiği	-10.6098
enzil	-10.6098
▁eklenmesi	-10.6098
▁Magic	-10.6098
▁Marie	-10.6098
EFL	-10.6098
morti	-10.6098
▁götür	-10.6098
▁Parlak	-10.6099
dogan	-10.6099
▁kurulmuş	-10.6099
375	-10.6099
▁konnektör	-10.6099
▁buluştu	-10.6099
▁mürekkep	-10.6099
▁yaşlarında	-10.6099
job	-10.6099
▁VIP	-10.6099
▁tercihleriniz	-10.6099
▁nüfuz	-10.6099
▁abonelik	-10.6099
▁verilmesi	-10.6099
▁seçenekleriniz	-10.6099
▁bulundurma	-10.61
▁Studi	-10.61
▁Belek	-10.61
▁püskürtme	-10.61
▁Muha	-10.61
▁rahatsızlık	-10.61
adılar	-10.61
▁Winter	-10.61
▁sağlayarak	-10.61
▁Kilitl	-10.61
▁elastik	-10.6101
▁Bant	-10.6101
▁kapasitel	-10.6101
▁tehdit	-10.6101
▁günlüğü	-10.6101
▁şok	-10.6101
▁getiriyor	-10.6101
▁dikkatlice	-10.6101
▁bekleyin	-10.6101
▁BIO	-10.6101
▁Enjeksiyon	-10.6102
▁Avantajları	-10.6102
▁aksesuarları	-10.6102
▁olmayabilir	-10.6102
▁Başlığı	-10.6102
▁kumar	-10.6102
▁hipote	-10.6102
▁kütüphanesi	-10.6102
▁durumunu	-10.6102
▁Modülü	-10.6102
Görünümler	-10.6102
▁meş	-10.6102
▁vinç	-10.6102
▁katıldı	-10.6102
▁alınarak	-10.6103
▁katlayın	-10.6103
▁pirinç	-10.6103
▁kompozit	-10.6103
ezgi	-10.6103
yırma	-10.6103
▁gerekmez	-10.6103
▁geliyor	-10.6104
▁yatağı	-10.6104
▁şov	-10.6104
▁galeri	-10.6104
▁Katman	-10.6104
▁Sigortalar	-10.6104
üverte	-10.6104
▁kazanarak	-10.6104
STAN	-10.6104
▁kullanıldığında	-10.6105
▁3.1	-10.6105
▁farkındalık	-10.6105
▁yaprak	-10.6105
▁rast	-10.6105
▁USI	-10.6106
▁alınır	-10.6106
▁bilişim	-10.6106
▁tamamladı	-10.6106
▁değişimi	-10.6106
▁Steel	-10.6106
▁geldi	-10.6106
▁satıcı	-10.6106
▁Loj	-10.6107
▁bastır	-10.6107
▁zayıflama	-10.6107
▁Guan	-10.6107
PEG	-10.6107
▁uzatabilir	-10.6107
▁Auto	-10.6108
504	-10.6108
▁Dağıtıcı	-10.6108
▁görünümlü	-10.6108
safir	-10.6108
▁yapılacak	-10.6108
▁Kişilik	-10.6108
rüt	-10.6108
▁Dökü	-10.6109
▁Tezgahı	-10.6109
▁Vücutta	-10.6109
▁Xia	-10.6109
▁ziyaretçi	-10.6109
▁barış	-10.6109
▁Hostel	-10.6109
ecker	-10.6109
▁grafi	-10.6109
osiya	-10.6109
▁uçak	-10.611
▁dizinler	-10.611
▁liman	-10.611
▁deneyebilir	-10.611
▁alev	-10.611
LOG	-10.611
▁Borusu	-10.6111
▁bulgular	-10.6111
▁Show	-10.6111
▁kökün	-10.6111
▁kayalık	-10.6111
▁Robot	-10.6111
şdeğer	-10.6111
▁gövdesi	-10.6111
▁Gala	-10.6111
▁kavi	-10.6112
▁Kutu	-10.6112
▁Aero	-10.6112
▁kullanılacak	-10.6112
ahalı	-10.6112
▁madalya	-10.6112
▁İçeri	-10.6113
shop	-10.6113
▁alındığında	-10.6113
▁mev	-10.6113
LUS	-10.6113
▁seçilmiş	-10.6113
▁Turizm	-10.6113
▁mekanizması	-10.6113
▁İspanya	-10.6114
▁koşullarında	-10.6114
▁Flo	-10.6114
▁Adana	-10.6114
▁gerekiyorsa	-10.6114
▁seans	-10.6115
rbasyon	-10.6115
dörtgen	-10.6115
▁saklama	-10.6115
▁ihlali	-10.6115
▁biti	-10.6116
izesi	-10.6116
▁ılık	-10.6116
ambu	-10.6117
▁özenl	-10.6117
▁tutarak	-10.6117
▁kıtada	-10.6118
▁Equa	-10.6119
▁Teras	-10.6119
▁aylarında	-10.612
▁Direk	-10.612
abad	-10.612
▁tıklama	-10.612
▁Hepsi	-10.612
▁Flore	-10.612
▁formunda	-10.6121
▁gerilim	-10.6121
▁matematik	-10.6121
▁sunma	-10.6121
▁sunucularımız	-10.6121
▁Cildi	-10.6121
▁Taş	-10.6122
▁tedarikçiler	-10.6122
▁yapıyoruz	-10.6122
▁perdeler	-10.6122
▁projelerinde	-10.6122
▁450	-10.6123
▁Coast	-10.6123
▁Hindistan	-10.6123
▁Shanghai	-10.6123
▁sarışın	-10.6123
▁keşfedin	-10.6123
▁Resmi	-10.6123
▁katılımı	-10.6123
▁Donanımı	-10.6123
▁şiddetli	-10.6123
▁lez	-10.6123
▁Roman	-10.6124
cund	-10.6124
▁Masası	-10.6124
▁hayatta	-10.6124
▁kokulu	-10.6124
▁izler	-10.6124
▁Plaka	-10.6125
▁karşılayan	-10.6125
▁Lamin	-10.6125
▁Güzellik	-10.6126
▁belgelerin	-10.6126
▁aletleri	-10.6127
▁hizmetinden	-10.6127
▁Apple	-10.6127
▁kartuşu	-10.6127
▁super	-10.6128
▁ekip	-10.6128
kant	-10.6128
▁Sky	-10.6128
▁Karton	-10.6129
avşan	-10.6129
▁imal	-10.6129
▁Kripto	-10.613
▁PET	-10.6131
▁Ço	-10.6132
▁Toplu	-10.6132
eçerli	-10.6132
▁terk	-10.6133
▁inhal	-10.6133
▁Joy	-10.6133
▁Rezervasyonları	-10.6133
▁eşit	-10.6133
▁gerektiğini	-10.6133
▁yık	-10.6134
▁dönemde	-10.6134
▁ışıl	-10.6134
▁giderir	-10.6135
▁Fire	-10.6135
▁Katar	-10.6136
▁derinlik	-10.6136
▁1.8	-10.6136
ıkıntı	-10.6136
▁olduğunda	-10.6137
▁anlamak	-10.6138
▁yayınlama	-10.6138
▁üretme	-10.6138
▁ısınma	-10.6138
▁sessiz	-10.6138
çiliği	-10.6139
▁çene	-10.6139
sign	-10.6139
ospir	-10.614
▁silikon	-10.614
▁komutu	-10.6141
▁seçilen	-10.6141
▁Nico	-10.6141
▁Planer	-10.6141
64)	-10.6142
▁yürüme	-10.6142
arbon	-10.6143
▁kasaba	-10.6143
▁Sertifikalı	-10.6144
tirici	-10.6145
▁pasta	-10.6145
ENT	-10.6145
▁araçtır	-10.6145
▁kirli	-10.6146
▁yapabil	-10.6146
▁inter	-10.6146
Kasım	-10.6146
▁vardı	-10.6147
064	-10.6147
▁YER	-10.6147
▁dönüşüm	-10.6147
▁China	-10.6147
▁pazarlama	-10.6147
MAK	-10.6147
▁merkezli	-10.6147
skele	-10.6147
▁Teknolojisi	-10.6148
▁08	-10.6149
▁Ayar	-10.615
▁link	-10.615
▁Genişlik	-10.615
▁kafası	-10.6151
PSA	-10.6152
▁sürümünü	-10.6153
21	-10.6153
uzey	-10.6154
▁ray	-10.6155
layabilme	-10.6155
▁kablolama	-10.6155
pozit	-10.6156
▁taşınma	-10.6156
▁Anten	-10.6156
▁özü	-10.6156
yseniz	-10.6156
IP	-10.6156
▁güvenilirlik	-10.6157
▁Terminalleri	-10.6157
▁Marş	-10.6157
▁Astar	-10.616
saat	-10.6161
lmıyor	-10.6161
INE	-10.6161
▁sağlığını	-10.6162
▁XY	-10.6163
▁inci	-10.6163
▁sistemlerinde	-10.6164
▁simi	-10.6165
▁koro	-10.6165
2015	-10.6166
▁genişleme	-10.6166
▁değilse	-10.6166
▁End	-10.6167
▁oluşturan	-10.6167
▁Görüntüleme	-10.6167
▁yaparak	-10.6168
▁sertlik	-10.6169
▁ÇO	-10.617
▁tutarlı	-10.617
stos	-10.617
▁yetişkinler	-10.6171
▁Box	-10.6171
▁destekliyor	-10.6171
▁çocuğu	-10.6172
works	-10.6173
▁eco	-10.6173
▁53	-10.6173
▁04	-10.6174
▁yönü	-10.6175
▁yatma	-10.6175
▁yapışkan	-10.6175
▁Leh	-10.6176
▁priz	-10.6176
▁Tag	-10.6177
▁uygundur	-10.6177
▁Pompası	-10.6178
alıncak	-10.6178
▁porn	-10.6178
perti	-10.6179
Pod	-10.6179
▁çalı	-10.618
▁Term	-10.618
değiştirilebilir	-10.6183
▁kere	-10.6183
▁Hızı	-10.6183
tansiyon	-10.6184
▁dalış	-10.6184
▁yaptığımız	-10.6184
▁85	-10.6184
▁78	-10.6186
Green	-10.6186
▁kazanır	-10.6186
▁parmak	-10.6186
▁okumalı	-10.6186
105	-10.6187
▁değiştirir	-10.6187
▁gran	-10.6187
▁çerçeveler	-10.6188
▁ihtiyacını	-10.6188
zlıkları	-10.6188
▁ittifak	-10.6188
▁detayı	-10.619
▁kış	-10.619
apılacak	-10.619
▁kazı	-10.619
chae	-10.6191
▁Cev	-10.6192
RY	-10.6192
avat	-10.6193
▁asansörden	-10.6194
▁Tema	-10.6195
▁Hong	-10.6195
▁mukavemeti	-10.6195
drive	-10.6196
▁Send	-10.6197
▁Onu	-10.6198
tify	-10.6199
▁endişelerin	-10.62
▁çalışmasını	-10.6201
▁Dav	-10.6201
▁dans	-10.6202
▁Tung	-10.6202
▁kuş	-10.6203
Pay	-10.6204
TW	-10.6205
▁Delik	-10.6205
▁NO	-10.6209
▁televizyonlu	-10.6209
▁Ham	-10.6209
▁kapısı	-10.6211
▁değişme	-10.6212
▁katmanlı	-10.6212
▁Kurulum	-10.6212
▁Erken	-10.6213
▁bez	-10.6213
▁Sanal	-10.6214
▁316	-10.6214
bour	-10.6215
▁koşullarda	-10.6215
▁büyür	-10.6216
digi	-10.6216
▁oluk	-10.6217
yatırımcılar	-10.6218
212	-10.6219
▁Sonraki	-10.622
▁bezi	-10.6221
▁raporu	-10.6222
▁Kapısı	-10.6223
▁Etkili	-10.6224
▁Bill	-10.6224
dmi	-10.6225
▁Faz	-10.6225
▁gözlen	-10.6226
▁kadınlarda	-10.6226
▁benz	-10.6228
▁macunlarını	-10.6228
SYA	-10.6231
2017	-10.6232
▁azaltmak	-10.6232
▁sağlayacak	-10.6232
▁epi	-10.6233
▁Çalışması	-10.6234
HD	-10.6234
stati	-10.6234
▁Tarihi	-10.6235
omun	-10.6237
▁lisanslı	-10.6239
▁tarihleri	-10.6239
hiller	-10.624
edol	-10.6243
▁tamamlama	-10.6246
▁Fare	-10.6247
▁tetik	-10.6248
▁Ekstra	-10.6251
▁tamir	-10.6252
▁gliko	-10.6255
▁alet	-10.6255
▁sıralama	-10.6255
▁molekülleri	-10.6255
IG	-10.6256
▁Kord	-10.6257
▁Ayakkabıları	-10.6259
▁Home	-10.6259
▁Kör	-10.626
eider	-10.6261
▁Eco	-10.6261
▁market	-10.6263
esleme	-10.6265
▁amaçlı	-10.6265
▁Öz	-10.6265
eğen	-10.6266
▁aktiv	-10.6268
07-	-10.6269
▁ulaşabil	-10.6269
▁indirim	-10.627
▁krom	-10.6273
▁hor	-10.6275
▁transferi	-10.6276
▁Ofisi	-10.6276
▁Tekne	-10.6276
urizm	-10.6277
▁zehirlenme	-10.6277
▁etmekte	-10.6279
▁şans	-10.628
▁Ova	-10.628
▁aşar	-10.6285
▁Chem	-10.6286
▁57	-10.6287
▁hastalarda	-10.6288
▁Birleştir	-10.6289
▁Cho	-10.629
istor	-10.629
▁kombinasyonunu	-10.6291
▁Müz	-10.6291
▁minim	-10.6291
Güncelleme	-10.6292
▁Alma	-10.6293
▁mesh	-10.6294
▁Birliği	-10.6297
▁(4)	-10.6297
▁armat	-10.6298
peratörü	-10.6299
▁temizler	-10.63
▁dc	-10.63
ört	-10.6302
mayacak	-10.6304
▁genişlik	-10.6305
▁IR	-10.6306
ERME	-10.6308
8.1	-10.631
▁Kana	-10.6312
▁KAL	-10.6312
▁yarışmalar	-10.6313
▁pre	-10.6314
rpo	-10.6315
▁Kuş	-10.6315
▁More	-10.6316
▁analizi	-10.6317
▁Sole	-10.6318
▁eşyalar	-10.6319
▁Sunu	-10.6319
▁balıkları	-10.6319
▁tesisleri	-10.6321
▁Mİ	-10.6322
▁farklılık	-10.6323
▁dini	-10.6325
düğünü	-10.6327
rias	-10.6331
▁tanıt	-10.6337
▁Marti	-10.6338
▁Rayı	-10.6339
▁değiştirile	-10.634
DU	-10.6345
▁nedenleri	-10.6346
▁ekipmanları	-10.6346
▁Lap	-10.6347
NS	-10.6349
▁kano	-10.6349
▁mide	-10.6351
grafi	-10.6352
▁Azo	-10.6354
▁kullanılabilme	-10.6357
▁yardımı	-10.6358
iyordu	-10.636
▁Yukarıda	-10.636
karbonat	-10.6362
▁Satıl	-10.637
▁Vida	-10.6373
▁kaynat	-10.6376
▁LS	-10.6379
▁dikkatli	-10.6379
▁serv	-10.6384
▁botlar	-10.6391
▁mit	-10.6392
)(	-10.6395
▁Geçi	-10.6396
▁suç	-10.6401
üret	-10.6407
ramı	-10.6409
▁satım	-10.6409
▁05	-10.6409
hiper	-10.6409
▁dokunuş	-10.6416
▁reaktivitesi	-10.6416
org	-10.6417
▁ZE	-10.6418
▁Meri	-10.642
▁organiz	-10.6422
▁sürece	-10.6423
▁OR	-10.6424
▁teen	-10.6424
▁mol	-10.6425
▁Sof	-10.6429
▁Sera	-10.643
▁yüzler	-10.6432
▁(23	-10.6434
▁Dent	-10.644
yuk	-10.6452
▁Şartları	-10.6454
▁konumunu	-10.6454
eklif	-10.6457
▁mat	-10.6464
▁Wal	-10.6465
ağlam	-10.6465
▁tahsi	-10.647
▁Kaydı	-10.6472
▁İsa	-10.6478
▁Üzerinde	-10.648
terapi	-10.6482
▁Uç	-10.6488
oskopi	-10.6493
▁say	-10.6495
mont	-10.6496
ZER	-10.6498
stin	-10.6502
▁gerektire	-10.6503
▁yanlışlıkla	-10.6503
▁Exp	-10.6505
▁ürününü	-10.6505
▁duyguları	-10.6506
▁Ferri	-10.6507
▁CR	-10.651
▁0.5	-10.651
hot	-10.6511
▁ortamında	-10.6511
▁havuzu	-10.6511
▁Gram	-10.6512
▁tava	-10.6514
▁turistler	-10.6516
▁Iç	-10.6518
ntem	-10.6522
▁semptomları	-10.6523
ktörü	-10.6527
▁tıkla	-10.6534
▁Stratejisi	-10.6563
▁kel	-10.6566
▁kullanmayı	-10.6566
rdea	-10.6568
▁kaz	-10.6576
ğunu	-10.6578
▁blogunuz	-10.658
▁Yapma	-10.6581
▁(31	-10.6582
▁ihtiyaçlarınız	-10.6586
▁tipte	-10.659
▁görevleri	-10.6592
▁Adam	-10.6602
▁hayvanların	-10.6606
tenek	-10.661
Kuru	-10.6615
▁198	-10.6617
▁sonucun	-10.6634
aire	-10.6646
▁refl	-10.6649
▁monitörünü	-10.6653
1-0	-10.6656
sso	-10.666
▁bırakma	-10.6661
▁ayırma	-10.6663
▁paylaşma	-10.6663
▁birinci	-10.6666
▁gerçekleştirme	-10.6675
iyasa	-10.6681
ight	-10.6683
▁(47	-10.6716
▁anlayışını	-10.6721
mə	-10.6723
▁hesabını	-10.6742
oter	-10.6751
asıl	-10.6759
fri	-10.6759
ekli	-10.676
▁gizliliğ	-10.6782
rew	-10.6791
sku	-10.6797
▁isteğin	-10.6802
▁durumlar	-10.6803
▁ikincisi	-10.6803
▁Dog	-10.6806
▁platformda	-10.6807
eklemeyi	-10.6812
▁Üstü	-10.6814
86	-10.6827
▁bağlam	-10.6839
▁projeler	-10.684
▁kesilme	-10.6843
thal	-10.6861
▁korkuyor	-10.6896
▁seve	-10.6896
▁sürme	-10.6897
▁zek	-10.6913
urutucu	-10.694
▁Premi	-10.6959
▁halkı	-10.697
ер	-10.6971
▁kılmak	-10.6976
▁kenarı	-10.6987
▁ib	-10.6993
▁yollarda	-10.6996
▁kullanılmasını	-10.7
▁avcı	-10.7003
▁yün	-10.7011
partman	-10.7018
woo	-10.7046
tırılmış	-10.7064
mayacağı	-10.7066
▁(24	-10.7073
▁topla	-10.7077
▁Sitemizde	-10.7082
▁barb	-10.7086
ayacağız	-10.7098
Logo	-10.71
aşkın	-10.7137
atörleri	-10.7141
▁sitesinde	-10.7144
öle	-10.7167
▁ilkeler	-10.7167
▁saldırı	-10.7179
▁masajı	-10.7185
ext	-10.7186
▁lezzetleri	-10.7204
▁uzakta	-10.7208
1400	-10.7209
▁produc	-10.7212
angle	-10.7221
rdiğinizde	-10.7229
ekleyin	-10.723
▁geçti	-10.7243
▁çekilme	-10.7284
▁tarihte	-10.7285
▁kısmını	-10.7286
▁Stres	-10.7306
▁Yılın	-10.7311
▁grubunu	-10.7312
▁olduğumu	-10.7313
İTA	-10.7314
▁güvenin	-10.7329
mülatörü	-10.7345
▁şifresi	-10.7351
▁verilmiş	-10.7353
▁Oh	-10.7354
▁kaldırı	-10.7375
▁flor	-10.7379
hoo	-10.7388
▁ebeveynler	-10.7414
nova	-10.7428
▁kurutu	-10.7437
▁kolu	-10.7496
▁oynama	-10.7525
▁Altında	-10.753
tırıcı	-10.753
▁takımın	-10.7536
▁tabletler	-10.7545
▁kanun	-10.7545
▁kapanı	-10.7548
▁anneler	-10.7554
ltılı	-10.7556
COM	-10.7568
▁Franc	-10.758
▁reçetesi	-10.7603
▁değiştirebilir	-10.7606
▁karıştırıl	-10.7606
ska	-10.7607
noid	-10.7615
91	-10.7619
postaları	-10.7622
▁etiketleri	-10.7623
▁tanımlı	-10.7635
▁Transformat	-10.7635
dıkları	-10.7646
ndone	-10.7653
▁hükümleri	-10.7658
▁Od	-10.7661
▁işleminde	-10.7664
▁çözünür	-10.7685
▁planlan	-10.7688
gül	-10.7689
▁kabin	-10.771
▁0.0	-10.7721
▁kanallar	-10.7753
vini	-10.7765
▁yuvaları	-10.7769
▁bitler	-10.7773
▁kazana	-10.7779
partiküller	-10.7784
Jİ	-10.7792
bey	-10.7801
▁Bitkiler	-10.7806
▁pozisyonda	-10.7831
▁asma	-10.7839
▁materyaller	-10.7842
latılır	-10.7871
▁ülkelerin	-10.7878
▁sekmesin	-10.7878
▁sisteminde	-10.7882
▁tankı	-10.7892
▁Teli	-10.7899
001	-10.7902
merci	-10.7904
ikişsiz	-10.7934
otter	-10.7943
▁tabanca	-10.7944
afet	-10.7993
▁karşılaştı	-10.7998
▁saklan	-10.8027
ığın	-10.8088
▁havalimanı	-10.8103
▁Aralı	-10.8103
ültürün	-10.811
▁kaydedil	-10.8111
▁yazılımını	-10.8126
▁hazırlığı	-10.8132
boks	-10.8144
▁kökleri	-10.8161
▁Jet	-10.8188
▁ekipmanlar	-10.8201
▁zorunlulu	-10.8233
parat	-10.8236
▁Sertifikası	-10.8254
▁Odaları	-10.8262
▁sebepler	-10.8275
klenebilir	-10.8279
▁iyileşme	-10.8282
▁şartların	-10.8309
▁Farm	-10.8317
önlü	-10.8321
▁polit	-10.8323
▁halinde	-10.8332
▁she	-10.8359
▁Kullanımlı	-10.8422
▁kuruluşun	-10.8425
ped	-10.8441
▁Boo	-10.8446
ilə	-10.8449
ront	-10.8451
▁öğrencilerin	-10.8501
2020	-10.8501
▁çubukları	-10.852
▁tasarlandı	-10.8559
urganlığ	-10.8596
▁miktarın	-10.8614
sonic	-10.862
380	-10.8627
▁içerebil	-10.8652
▁Dikiş	-10.8665
▁çalışmalarını	-10.8726
abancası	-10.8734
▁Nov	-10.874
308	-10.8773
▁karşılaş	-10.8777
▁başkaların	-10.8805
▁verilerini	-10.8808
▁Game	-10.881
Jul	-10.8821
▁sekmesi	-10.8824
▁egzersiz	-10.883
astro	-10.8864
▁incelen	-10.8869
▁mobilyalar	-10.8915
▁misafirlerin	-10.8916
▁kullanılabilece	-10.902
Pedi	-10.9022
▁karıştır	-10.9023
▁Geç	-10.9027
▁engellen	-10.9039
onsuz	-10.9056
▁tavay	-10.9057
▁komp	-10.9089
▁ayarlay	-10.9097
▁nitr	-10.9229
ри	-10.9283
▁flo	-10.9288
▁Yayınlan	-10.9302
sürük	-10.9355
çılış	-10.9367
▁(56	-10.9447
▁verdiğiniz	-10.9452
▁aradığını	-10.9458
▁Katlan	-10.9473
▁edilmesin	-10.9479
▁faydalan	-10.9506
▁Paket	-10.9507
▁tabaka	-10.9513
bildiğinden	-10.9522
spor	-10.9524
▁saldırılar	-10.9535
refabrik	-10.9536
▁doğ	-10.9542
öğrenim	-10.9572
307	-10.9622
▁kaldı	-10.9635
leyebilirsiniz	-10.9709
▁hav	-10.9714
Apk	-10.9726
eşini	-10.9746
▁yollarını	-10.9752
▁bag	-10.9761
bilecek	-10.98
erekirse	-10.9813
hsul	-10.9829
▁büyütü	-10.9864
▁Mekan	-10.9948
ğimiz	-10.9984
▁Kullan	-10.9994
▁West	-11.0006
▁klasörü	-11.0022
anında	-11.0025
blim	-11.0045
3-0	-11.0045
▁kullanmakta	-11.0064
▁bildiri	-11.0165
▁MED	-11.0214
▁tamamlanması	-11.0261
▁güve	-11.0377
▁takti	-11.0415
▁yö	-11.0417
▁Kültür	-11.0442
▁tutul	-11.0456
▁Sıfırla	-11.0465
müt	-11.0465
EGE	-11.0511
gunluğu	-11.0512
▁şekiller	-11.0532
160	-11.0543
DPE	-11.0545
▁Danışman	-11.0552
uncu	-11.0555
▁tuş	-11.0594
▁Başka	-11.0602
ksiyon	-11.0614
▁diller	-11.0633
▁Kayd	-11.0649
▁etmiyor	-11.0669
gerçekleştirdiği	-11.0699
özlükler	-11.0702
EDİ	-11.0702
▁işleti	-11.0732
▁yükselt	-11.0757
▁araştır	-11.076
üldüğü	-11.0762
▁opera	-11.0764
müş	-11.0766
▁Güncel	-11.0776
▁karakter	-11.078
▁eşleştir	-11.0792
▁Che	-11.0796
onomik	-11.0806
olgu	-11.0808
okulu	-11.0815
▁kılavuz	-11.0837
▁molekül	-11.0837
▁mimariy	-11.0846
▁uygul	-11.0847
▁aydınlat	-11.0849
▁sonuçlandı	-11.0856
erimizde	-11.0868
▁küvet	-11.0868
▁kısm	-11.0872
▁Elektro	-11.0882
▁atölye	-11.091
▁ayarlandığı	-11.0912
oglu	-11.0934
▁swi	-11.0944
Sonraki	-11.096
parmak	-11.0963
Т	-11.0966
Resim	-11.0967
priz	-11.0968
üreticiler	-11.0968
Baba	-11.0969
▁mark	-11.097
Hosting	-11.097
▁dinlen	-11.097
yakıt	-11.097
sonuç	-11.0971
▁hesapların	-11.0971
▁grub	-11.0973
Sağ	-11.0973
Bodrum	-11.0974
Gerçek	-11.0974
Bitcoin	-11.0974
▁ismini	-11.0974
blok	-11.0975
mbr	-11.0976
Windows	-11.0977
İngilizce	-11.0977
▁çubu	-11.0977
Diğer	-11.0978
kaldırma	-11.0978
çocuk	-11.0978
lign	-11.0979
Antalya	-11.0979
Elektrik	-11.0979
Benz	-11.0979
elektrik	-11.0979
şehir	-11.098
porn	-11.098
New	-11.098
servis	-11.098
Anti	-11.098
Türkiye	-11.098
dakikalı	-11.0981
yüksek	-11.0981
raft	-11.0982
▁kamyon	-11.0983
cektir	-11.0983
▁plasti	-11.0985
Gıda	-11.0987
Yeni	-11.0989
▁Özellikle	-11.0992
▁Transfer	-11.0998
atent	-11.0999
▁çevr	-11.1
Geliş	-11.1004
kaplama	-11.1012
videos	-11.1013
▁Depo	-11.1014
316	-11.102
▁silme	-11.1026
▁batı	-11.1028
▁uğra	-11.1029
Prin	-11.1035
ararlı	-11.1036
▁şiddet	-11.1043
▁Donanım	-11.1043
▁geçtiği	-11.1044
İÇİ	-11.1045
▁Bayram	-11.1046
▁katılım	-11.1047
▁Suite	-11.1047
▁sunucu	-11.1048
üdü	-11.105
NCİ	-11.105
ağlık	-11.105
▁kıta	-11.1055
▁kombinasyon	-11.1057
▁mekanizma	-11.106
▁Dekora	-11.1063
▁gövde	-11.1063
otov	-11.1064
▁üzeri	-11.1065
▁Madalya	-11.1072
leşmey	-11.1074
soc	-11.1074
▁Makina	-11.1075
▁Uzak	-11.1076
Kaynakl	-11.1076
latformu	-11.1076
▁huzur	-11.1078
ilmemiş	-11.1079
ındık	-11.1079
▁Bileş	-11.1082
▁Kulak	-11.1082
▁Ultrason	-11.1082
üspansiyon	-11.1082
uval	-11.1083
bonelik	-11.1083
hidro	-11.1083
onnektör	-11.1083
elecekte	-11.1084
lova	-11.1084
oltuğu	-11.1084
▁Teslim	-11.1085
▁formatı	-11.1086
▁çoğal	-11.1086
lduğunda	-11.1086
▁gübre	-11.1086
▁buluş	-11.1087
▁nitelikl	-11.1087
osfat	-11.1087
▁Yedek	-11.1087
lgın	-11.1087
artner	-11.1087
arafından	-11.1088
avsiye	-11.1088
etenolon	-11.1088
ütun	-11.1088
▁özelleştiril	-11.1088
▁bulunmakta	-11.1089
uayene	-11.1089
psiyon	-11.1089
▁formül	-11.1089
ömlek	-11.1089
irenci	-11.109
▁Yardım	-11.109
▁alabilirsin	-11.109
alsiyum	-11.109
▁döngüsü	-11.1091
effaf	-11.1091
ikolata	-11.1091
olyester	-11.1091
ıklayın	-11.1091
iziksel	-11.1091
SYON	-11.1092
amandır	-11.1092
▁hipo	-11.1092
landığında	-11.1092
▁olmuş	-11.1092
▁konsol	-11.1092
nutmayın	-11.1092
ürüyüş	-11.1092
▁Restaura	-11.1093
embran	-11.1093
▁vatandaşl	-11.1093
njeksiyon	-11.1093
▁döngü	-11.1093
service	-11.1093
þ	-11.1093
▁ŞİRKET	-11.1093
▁об	-11.1093
▁PROF	-11.1093
▁amfora	-11.1093
▁dönüştürü	-11.1093
▁paragraf	-11.1093
abaratuvarlar	-11.1093
eröristler	-11.1093
ofloksasin	-11.1093
▁Consult	-11.1093
▁Değiştiril	-11.1093
▁Konfor	-11.1093
▁Mukavemet	-11.1093
▁Trabzon	-11.1093
▁Vücud	-11.1093
▁Watson	-11.1093
▁akvaryum	-11.1093
▁dezenfek	-11.1093
▁ekosistem	-11.1093
▁iltiha	-11.1093
▁invertörlerimiz	-11.1093
▁kıyısı	-11.1093
▁müşavir	-11.1093
▁portföy	-11.1093
▁protesto	-11.1093
▁pıhtılaş	-11.1093
▁siklo	-11.1093
▁topluluğumuz	-11.1093
▁topoizomeraz	-11.1093
▁vasıtası	-11.1093
▁yetiştiri	-11.1093
▁zihni	-11.1093
▁öngörül	-11.1093
▁İnvidyo	-11.1093
-2715	-11.1093
1.08.201	-11.1093
Dianabol	-11.1093
LİĞİ	-11.1093
OPLAN	-11.1093
PROP	-11.1093
SİYON	-11.1093
bacteri	-11.1093
bildikleri	-11.1093
ecrübel	-11.1093
elikopter	-11.1093
enopoz	-11.1093
enteşeler	-11.1093
ertificate	-11.1093
hejiang	-11.1093
imnastik	-11.1093
joying	-11.1093
kskavatör	-11.1093
lgoritmalarını	-11.1093
ology	-11.1093
rbaycan	-11.1093
tropin	-11.1093
wagen	-11.1093
Â	-11.1093
Ð	-11.1093
ê	-11.1093
ð	-11.1093
ýnýz	-11.1093
Ə	-11.1093
ι	-11.1093
λ	-11.1093
В	-11.1093
ите	-11.1093
й	-11.1093
ост	-11.1093
т	-11.1093
א	-11.1093
י	-11.1093
ר	-11.1093
ت	-11.1093
ی	-11.1093
ộ	-11.1093
▁91.5	-11.1093
▁Aşındırma	-11.1093
▁BabaKız	-11.1093
▁Bakanlığı	-11.1093
▁Bangalore	-11.1093
▁Blow	-11.1093
▁Britney	-11.1093
▁Bungalow	-11.1093
▁BÖLÜM	-11.1093
▁Bölme	-11.1093
▁CPVC	-11.1093
▁Cesaret	-11.1093
▁Cetvel	-11.1093
▁Cezayir	-11.1093
▁Chron	-11.1093
▁Chunmee	-11.1093
▁CoinJoin	-11.1093
▁Dailymotion	-11.1093
▁Davetiye	-11.1093
▁Decanoat	-11.1093
▁Dengeleme	-11.1093
▁Description	-11.1093
▁Distribütör	-11.1093
▁Dublin	-11.1093
▁Durabolin	-11.1093
▁Duygu	-11.1093
▁DİDİM	-11.1093
▁Egzersiz	-11.1093
▁Eldiven	-11.1093
▁Enstitüsü	-11.1093
▁Epinefrin	-11.1093
▁European	-11.1093
▁ExpressVPN	-11.1093
▁Extrude	-11.1093
▁FUARI	-11.1093
▁Faaliyet	-11.1093
▁Fakültesi	-11.1093
▁Gerçekleşti	-11.1093
▁Güvence	-11.1093
▁Hemşire	-11.1093
▁Hig	-11.1093
▁Hijyen	-11.1093
▁Hollanda	-11.1093
▁Hollow	-11.1093
▁Kampanyalar	-11.1093
▁Karabağ	-11.1093
▁Karaciğer	-11.1093
▁Kaynağı	-11.1093
▁Kelebek	-11.1093
▁Kelimeler	-11.1093
▁Keypad	-11.1093
▁Kozbeyli	-11.1093
▁Lezbiyen	-11.1093
▁Mercekler	-11.1093
▁Metodoloji	-11.1093
▁Moskova	-11.1093
▁Muafiyet	-11.1093
▁Netflix	-11.1093
▁OTOMAT	-11.1093
▁Okuyucu	-11.1093
▁Optoelektronik	-11.1093
▁PETROLEUM	-11.1093
▁Patatesler	-11.1093
▁Personel	-11.1093
▁Politikamız	-11.1093
▁Pregabalin	-11.1093
▁Results	-11.1093
▁Slavutich	-11.1093
▁Sorumluluk	-11.1093
▁Soğutucu	-11.1093
▁Stafford	-11.1093
▁Steriliz	-11.1093
▁Süreçlerini	-11.1093
▁Taraflar	-11.1093
▁Trello	-11.1093
▁Triggerfish	-11.1093
▁Turchia	-11.1093
▁Tütüncü	-11.1093
▁USMLE	-11.1093
▁Vakfı	-11.1093
▁Yalikavak	-11.1093
▁Yoğuşma	-11.1093
▁YÖNTEM	-11.1093
▁Yöneticisi	-11.1093
▁ankrajı	-11.1093
▁antrenman	-11.1093
▁antrenör	-11.1093
▁argüm	-11.1093
▁barındırılan	-11.1093
▁bilincindedir	-11.1093
▁birçoğu	-11.1093
▁bölünmüş	-11.1093
▁bölünür	-11.1093
▁cerrahi	-11.1093
▁dermatoloji	-11.1093
▁dogranmis	-11.1093
▁doldurma	-11.1093
▁doyurucu	-11.1093
▁ekstraksiyon	-11.1093
▁ekstresi	-11.1093
▁entegratör	-11.1093
▁eskort	-11.1093
▁eğilme	-11.1093
▁filament	-11.1093
▁gardrop	-11.1093
▁gebeliklerin	-11.1093
▁gördüm	-11.1093
▁harmanla	-11.1093
▁hususlar	-11.1093
▁ihtimalle	-11.1093
▁imkansızdır	-11.1093
▁istatistik	-11.1093
▁istemiyor	-11.1093
▁jantlar	-11.1093
▁katalizör	-11.1093
▁lavabo	-11.1093
▁lökosit	-11.1093
▁masraf	-11.1093
▁memnuniyetle	-11.1093
▁mücadele	-11.1093
▁nezlesi	-11.1093
▁nömrəsi	-11.1093
▁oryantasyonu	-11.1093
▁paeoni	-11.1093
▁pointelle	-11.1093
▁protokolünü	-11.1093
▁rahatlatmak	-11.1093
▁spesifi	-11.1093
▁süneklik	-11.1093
▁sınıflandırılır	-11.1093
▁sıçrama	-11.1093
▁transkripsiyonu	-11.1093
▁tropik	-11.1093
▁vazgeçilmez	-11.1093
▁veritaban	-11.1093
▁vurgu	-11.1093
▁yavaşlatıldı	-11.1093
▁yetkinlikleri	-11.1093
▁yumruk	-11.1093
▁yükselişi	-11.1093
▁zeytinyağı	-11.1093
▁ÖDÜL	-11.1093
▁Ölçüm	-11.1093
▁ÜRÜNLER	-11.1093
▁çekirdeği	-11.1093
▁çözeltisi	-11.1093
▁İngiltere	-11.1093
▁İnşaat	-11.1093
▁Şüphesiz	-11.1093
▁Enkoder	-11.1093
▁Hafta	-11.1093
▁Hizalama	-11.1093
▁Kitabı	-11.1093
▁Pigment	-11.1093
▁Search	-11.1093
▁Süsleme	-11.1093
▁WIFI	-11.1093
▁başlattığı	-11.1093
▁destekleyebilir	-11.1093
▁endikasyonu	-11.1093
▁fagositi	-11.1093
▁hazırlayacak	-11.1093
▁kategoriler	-11.1093
▁mağdur	-11.1093
▁sebzeler	-11.1093
▁simgesin	-11.1093
▁yavaşlatma	-11.1093
.0-6.0	-11.1093
iyerarşi	-11.1093
olybag	-11.1093
ubstrat	-11.1093
öroplastisite	-11.1093
ələ	-11.1093
▁Belediye	-11.1093
▁Bulmaca	-11.1093
▁Calculat	-11.1093
▁Düğme	-11.1093
▁ENERJ	-11.1093
▁Engelleyici	-11.1093
▁Günümüzde	-11.1093
▁Konektör	-11.1093
▁Koşullar	-11.1093
▁MAKİN	-11.1093
▁Mektubu	-11.1093
▁Mountain	-11.1093
▁Potosi	-11.1093
▁Pozisyonlar	-11.1093
▁Regülatörü	-11.1093
▁Sharp	-11.1093
▁SÜRÜ	-11.1093
▁UYGULAMALAR	-11.1093
▁Vadisi	-11.1093
▁WeTe	-11.1093
▁Yastık	-11.1093
▁Zenith	-11.1093
▁arşiv	-11.1093
▁bekletil	-11.1093
▁bileşimi	-11.1093
▁depresyonu	-11.1093
▁değnek	-11.1093
▁doküman	-11.1093
▁efsane	-11.1093
▁heykel	-11.1093
▁hırsız	-11.1093
▁kampanya	-11.1093
▁nakliye	-11.1093
▁okçu	-11.1093
▁olmamıştı	-11.1093
▁region	-11.1093
▁sevgi	-11.1093
▁sirkül	-11.1093
▁sorgula	-11.1093
▁twink	-11.1093
▁uygulayın	-11.1093
▁yayımlanması	-11.1093
▁yönergeler	-11.1093
▁yönlendirile	-11.1093
▁yürüttüğü	-11.1093
▁zanaat	-11.1093
▁çorap	-11.1093
▁ısırığı	-11.1093
ibrasyon	-11.1093
iprofloksasin	-11.1093
lendirilebilir	-11.1093
ntibiyoti	-11.1093
ystem	-11.1093
▁ANASAYFA	-11.1093
▁Beyoglu	-11.1093
▁Dirençl	-11.1093
▁Düzenleyici	-11.1093
▁Müjde	-11.1093
▁Olymp	-11.1093
▁Skanes	-11.1093
▁YAYIN	-11.1093
▁arttırır	-11.1093
▁artırılması	-11.1093
▁birleşimin	-11.1093
▁diyalo	-11.1093
▁düşündüğünüz	-11.1093
▁göstəri	-11.1093
▁kaydetme	-11.1093
▁kaçırma	-11.1093
▁komşu	-11.1093
▁küçül	-11.1093
▁lekeler	-11.1093
▁lobide	-11.1093
▁manikür	-11.1093
▁mecbur	-11.1093
▁paydaşlarımıza	-11.1093
▁proto	-11.1093
▁sağlamıştır	-11.1093
▁sebore	-11.1093
▁telekom	-11.1093
▁tırmanma	-11.1093
▁çakışma	-11.1093
▁öneririz	-11.1093
▁ötürü	-11.1093
▁İşbirliği	-11.1093
▁Girişimci	-11.1093
▁Ordusu	-11.1093
▁Sevgi	-11.1093
▁YAPI	-11.1093
▁başarısızlık	-11.1093
▁kalıbı	-11.1093
▁kaşıntı	-11.1093
▁pornstars	-11.1093
▁sünger	-11.1093
▁tedbirler	-11.1093
▁yaşlanma	-11.1093
▁Şarkı	-11.1093
▁Damper	-11.1093
▁artırdığı	-11.1093
▁rahim	-11.1093
▁seyirci	-11.1093
▁yönetebilmeniz	-11.1093
ahraman	-11.1093
strapon	-11.1093
tiğinden	-11.1093
æ	-11.1093
önüllü	-11.1093
özüldü	-11.1093
ави	-11.1093
▁Bakteri	-11.1093
▁Gebze	-11.1093
▁Görüş	-11.1093
▁Isabel	-11.1093
▁Kapsül	-11.1093
▁Knorr	-11.1093
▁Mısır	-11.1093
▁Rotamız	-11.1093
▁Rulman	-11.1093
▁Woood	-11.1093
▁akredit	-11.1093
▁dağılım	-11.1093
▁edeceğiz	-11.1093
▁formatların	-11.1093
▁gölge	-11.1093
▁kilometre	-11.1093
▁niteliği	-11.1093
▁soylular	-11.1093
▁taahüt	-11.1093
▁Çemberle	-11.1093
▁üretilmektedir	-11.1093
covery	-11.1093
▁Kiosk	-11.1093
▁PayPal	-11.1093
▁Sarışın	-11.1093
▁Tanyer	-11.1093
▁Tencere	-11.1093
▁Weih	-11.1093
▁aşındırı	-11.1093
▁başlayarak	-11.1093
▁kanaatin	-11.1093
▁külot	-11.1093
▁patoloji	-11.1093
▁ısırık	-11.1093
▁şeridi	-11.1093
TIRA	-11.1093
▁Halojen	-11.1093
▁Kalınlık	-11.1093
▁Progres	-11.1093
▁SÖN	-11.1093
▁Theatre	-11.1093
▁duyumsadı	-11.1093
▁elbise	-11.1093
▁harcama	-11.1093
▁israf	-11.1093
▁nodül	-11.1093
▁İzolatör	-11.1093
▁Quad	-11.1093
▁flood	-11.1093
ability	-11.1093
erhem	-11.1093
▁Austral	-11.1093
▁HOME	-11.1093
▁algısın	-11.1093
▁gözenek	-11.1093
▁hisseleri	-11.1093
▁lamine	-11.1093
▁stabil	-11.1093
▁tolerans	-11.1093
▁Çıkış	-11.1093
oftware	-11.1093
rtibat	-11.1093
webh	-11.1093
▁ASTM	-11.1093
▁CHIN	-11.1093
▁Toplantı	-11.1093
▁Yurdu	-11.1093
▁mediastinoskopi	-11.1093
▁yavru	-11.1093
anufacture	-11.1093
▁Fırça	-11.1093
▁Kağıdı	-11.1093
▁departmanları	-11.1093
▁emniyet	-11.1093
Tavuk	-11.1093
norkel	-11.1093
▁Daniel	-11.1093
▁Krallık	-11.1093
▁Washing	-11.1093
▁Yelek	-11.1093
▁artırabilir	-11.1093
▁açıklayabilir	-11.1093
▁direnen	-11.1093
▁immün	-11.1093
▁kulüp	-11.1093
▁kütü	-11.1093
▁tepkisidir	-11.1093
▁çalmak	-11.1093
▁çekilebilir	-11.1093
Drive	-11.1093
▁Cheers	-11.1093
▁Uyumlu	-11.1093
▁karbonhidrat	-11.1093
▁mütev	-11.1093
▁Closer	-11.1093
▁boşalır	-11.1093
▁hours	-11.1093
▁poşetleri	-11.1093
▁çıkartmay	-11.1093
erukunuzu	-11.1093
hibrid	-11.1093
▁görülür	-11.1093
▁zafer	-11.1093
▁litre	-11.1093
▁mizah	-11.1093
▁parçacığı	-11.1093
▁Sürüm	-11.1093
▁bdsm	-11.1093
▁denetleme	-11.1093
▁katlanma	-11.1093
▁korkar	-11.1093
▁kütle	-11.1093
▁sosyo	-11.1093
▁döndürme	-11.1093
▁girebilirsiniz	-11.1093
▁koltuk	-11.1093
▁şelat	-11.1093
▁Berlin	-11.1093
▁Yıldız	-11.1093
▁sembolize	-11.1093
▁tereyağ	-11.1093
▁İmza	-11.1093
▁Eğlence	-11.1093
▁ovalama	-11.1093
▁retro	-11.1093
▁sevme	-11.1093
▁vatandaşlarını	-11.1093
▁Belirti	-11.1093
▁İlave	-11.1093
biyografisi	-11.1093
irilmis	-11.1093
▁Cyber	-11.1093
▁limanýn	-11.1093
▁metrekare	-11.1093
▁çınlama	-11.1093
renbolon	-11.1093
▁baktım	-11.1093
▁Trading	-11.1093
▁eklenti	-11.1093
▁göstergesi	-11.1093
▁ruhsat	-11.1093
21206	-11.1093
ahtekarlık	-11.1093
meslektaşları	-11.1093
▁Gezisi	-11.1093
▁bulantı	-11.1093
▁Eklenti	-11.1093
▁Oyuncu	-11.1093
▁SERV	-11.1093
▁month	-11.1093
▁sirke	-11.1093
▁üretiyoruz	-11.1093
▁eyalet	-11.1093
▁tuval	-11.1093
CMH	-11.1093
iyafet	-11.1093
▁Cevabı	-11.1093
▁mevsim	-11.1093
America	-11.1093
▁ayaklarınız	-11.1093
▁Riyad	-11.1093
▁Sekiz	-11.1093
▁Akışı	-11.1093
▁Secur	-11.1093
▁davranışları	-11.1093
▁gülüş	-11.1093
▁Yorumları	-11.1093
▁yakalayı	-11.1093
▁İKİ	-11.1093
eceğiz	-11.1093
▁Skype	-11.1093
▁rıza	-11.1093
▁silah	-11.1093
tiğinizde	-11.1093
▁FOB	-11.1093
▁Manage	-11.1093
▁eklendi	-11.1093
▁dökülme	-11.1093
▁MCF	-11.1093
▁Yalnız	-11.1093
▁09:	-11.1093
▁başlatın	-11.1093
ITA	-11.1093
blanca	-11.1093
▁Karakter	-11.1093
▁Nuev	-11.1093
▁metod	-11.1093
▁yurtdışında	-11.1093
▁yükümlü	-11.1093
▁MUG	-11.1093
▁hacim	-11.1093
▁Kardeş	-11.1093
▁Parola	-11.1093
▁üretildi	-11.1093
ebeke	-11.1093
gging	-11.1093
▁Durdur	-11.1093
▁yığılm	-11.1093
▁Finansmanı	-11.1093
▁sayaç	-11.1093
▁Örtü	-11.1093
▁Emül	-11.1093
NOT	-11.1093
▁Retro	-11.1093
▁Lcd	-11.1093
▁sagla	-11.1093
▁yararlanma	-11.1093
▁İbra	-11.1093
▁Sonix	-11.1093
▁robot	-11.1093
▁gezme	-11.1093
▁küpe	-11.1093
▁ünvan	-11.1093
▁Bekleme	-11.1093
▁giraz	-11.1093
urulduğu	-11.1093
▁Fincan	-11.1093
▁bicim	-11.1093
▁boşalt	-11.1093
▁Şahin	-11.1093
▁cephe	-11.1093
eptitler	-11.1093
▁Dökülmesi	-11.1093
▁Greete	-11.1093
▁olsaydı	-11.1093
▁vites	-11.1093
▁Bahar	-11.1094
▁Tsvet	-11.1094
▁dönüştüreceği	-11.1094
▁süit	-11.1094
▁Blanca	-11.1094
▁koordinasyonu	-11.1094
▁Çınlama	-11.1094
▁Dışarıda	-11.1094
▁Smart	-11.1094
▁durdurulma	-11.1094
3-7	-11.1094
▁ECO	-11.1094
▁spot	-11.1094
▁söner	-11.1094
▁Kompresörü	-11.1094
▁Platin	-11.1094
▁Türleri	-11.1094
▁Ringo	-11.1094
▁Diop	-11.1094
▁Quo	-11.1094
▁inceledi	-11.1094
▁Ether	-11.1094
▁hekiminiz	-11.1094
▁Pyth	-11.1094
period	-11.1094
vizyonu	-11.1094
▁ARI	-11.1094
▁Dağıtı	-11.1094
▁Prag	-11.1094
▁yaşadık	-11.1094
▁DOT	-11.1094
▁bilmiyor	-11.1094
▁Sahte	-11.1094
▁Webcam	-11.1094
▁çözün	-11.1094
▁elasto	-11.1094
▁tantra	-11.1094
▁azaltılması	-11.1094
alatası	-11.1094
TMP	-11.1094
▁serpin	-11.1094
▁konsoloslu	-11.1094
▁köşesi	-11.1094
ütücü	-11.1094
▁düşünülmüş	-11.1094
▁ocean	-11.1094
▁İleti	-11.1094
PAGE	-11.1094
▁hamur	-11.1094
ford	-11.1094
müyor	-11.1094
▁Sunucu	-11.1094
▁hazne	-11.1094
▁tatlandırıcı	-11.1094
-09	-11.1094
▁Stamp	-11.1094
▁Portnova	-11.1094
▁geliştirdik	-11.1094
etleyicisi	-11.1094
▁traş	-11.1094
Bronz	-11.1094
▁Deut	-11.1094
ASYONU	-11.1094
ekabet	-11.1094
▁dibinde	-11.1094
▁transi	-11.1094
ор	-11.1094
▁Espa	-11.1094
▁Takipçiler	-11.1094
▁metabolizma	-11.1094
▁arıyorsunuz	-11.1094
▁ceza	-11.1094
▁sürdürü	-11.1094
▁filo	-11.1094
▁Motorola	-11.1094
phone	-11.1094
▁Only	-11.1094
7-21	-11.1094
▁Freya	-11.1094
▁Hastalıkları	-11.1094
▁toplayabilir	-11.1094
ekreasyon	-11.1094
Hentai	-11.1094
▁Water	-11.1094
▁defter	-11.1094
▁yumuşatıcı	-11.1094
yışı	-11.1094
ühre	-11.1094
▁Decor	-11.1094
▁süpürge	-11.1094
lavye	-11.1095
▁sütununda	-11.1095
▁algılayıcı	-11.1095
▁emlak	-11.1095
load	-11.1095
▁incelemeler	-11.1095
uvalet	-11.1095
▁Terra	-11.1095
▁Komp	-11.1095
▁şark	-11.1095
▁bozul	-11.1095
▁Canada	-11.1095
▁yormay	-11.1095
▁İdeal	-11.1095
egülatör	-11.1095
wsw	-11.1095
ARTI	-11.1095
▁Analiz	-11.1095
epatit	-11.1095
▁gets	-11.1095
TEMİ	-11.1095
▁Tenis	-11.1095
▁Sürücü	-11.1095
▁kırık	-11.1095
▁Değerlendirmesi	-11.1095
kapsül	-11.1095
▁prototipleme	-11.1095
▁İPhone	-11.1095
▁İlkbahar	-11.1095
DOĞ	-11.1095
▁Oranı	-11.1095
▁düşünüyorum	-11.1095
▁kulak	-11.1095
▁Servislerimizde	-11.1095
▁Federa	-11.1095
▁Sports	-11.1095
782	-11.1095
▁güncellemeler	-11.1095
çevirme	-11.1095
▁dükkanlar	-11.1095
▁kurulmuştur	-11.1095
▁döngüsünü	-11.1095
▁Phy	-11.1095
ahisleri	-11.1095
▁Pozi	-11.1095
▁hbn	-11.1095
▁28.0	-11.1095
▁rotasyon	-11.1095
▁neşe	-11.1095
▁Kaplin	-11.1095
weet	-11.1095
▁ATM	-11.1095
pandex	-11.1095
Clean	-11.1095
▁adayları	-11.1095
▁dörd	-11.1095
▁fenol	-11.1095
▁Önem	-11.1095
▁Jant	-11.1095
hüt	-11.1095
kciğer	-11.1096
▁Mutl	-11.1096
▁tanışma	-11.1096
avanoz	-11.1096
ал	-11.1096
esepsiyon	-11.1096
▁prostat	-11.1096
▁zayıflat	-11.1096
▁Istanb	-11.1096
▁Şehri	-11.1096
▁yazılmıştır	-11.1096
▁çalıştı	-11.1096
irletici	-11.1096
▁Konje	-11.1096
▁yurt	-11.1096
▁Hızlandırıcı	-11.1096
▁otomotiv	-11.1096
▁çevrili	-11.1096
▁tpu	-11.1096
▁ampul	-11.1096
▁0.8	-11.1096
▁Sorgu	-11.1096
▁iletmey	-11.1096
▁dağıtıl	-11.1096
▁tekrarlanabilir	-11.1096
ubernet	-11.1096
▁öldürme	-11.1096
▁Sahin	-11.1096
▁PROJELER	-11.1096
İŞİM	-11.1096
▁Whol	-11.1096
▁erişilebil	-11.1096
▁atanma	-11.1096
▁nano	-11.1096
▁Danc	-11.1096
▁0,5	-11.1096
▁enfek	-11.1096
▁formülasyon	-11.1097
INIZ	-11.1097
▁türevi	-11.1097
▁Basitçe	-11.1097
▁sızdırmazlı	-11.1097
▁sağladı	-11.1097
▁sendrom	-11.1097
▁BAŞ	-11.1097
▁ppm	-11.1097
▁oteliniz	-11.1097
▁adapt	-11.1097
▁maskeley	-11.1097
▁kahverengi	-11.1097
▁rota	-11.1097
▁getirilir	-11.1097
▁Kaset	-11.1097
▁gözlükleri	-11.1097
▁Release	-11.1097
esleğ	-11.1097
▁faks	-11.1097
evduat	-11.1097
▁gökyüzü	-11.1097
▁gölleri	-11.1097
▁olsa	-11.1097
▁Mimar	-11.1097
▁Çakma	-11.1097
▁biçimlendir	-11.1097
issing	-11.1097
▁anıt	-11.1097
▁Salon	-11.1097
▁iplik	-11.1097
▁Radyatör	-11.1098
▁denedi	-11.1098
▁Hermes	-11.1098
ntage	-11.1098
düğünüzde	-11.1098
▁lezyon	-11.1098
484	-11.1098
▁metenolon	-11.1098
▁Medical	-11.1098
▁tekniği	-11.1098
RİA	-11.1098
▁yıpra	-11.1098
▁Matso	-11.1098
gınlığı	-11.1098
▁Kutusu	-11.1098
ileceği	-11.1098
▁Hisar	-11.1098
▁Budape	-11.1098
▁Binance	-11.1098
▁Enjekt	-11.1098
▁Mix	-11.1098
▁Başlat	-11.1098
▁Kartuş	-11.1098
Edition	-11.1098
▁arttırıl	-11.1098
▁sıvam	-11.1098
dukları	-11.1098
▁övü	-11.1098
▁kaybedebilir	-11.1098
Pakistan	-11.1098
▁düşmanı	-11.1098
▁Ekstrüder	-11.1098
▁perakendeci	-11.1098
▁kriz	-11.1099
▁Yedekleme	-11.1099
lease	-11.1099
▁İdrar	-11.1099
013	-11.1099
▁serpil	-11.1099
▁Pipe	-11.1099
ÜNC	-11.1099
1998	-11.1099
▁babe	-11.1099
▁istek	-11.1099
▁Başarı	-11.1099
▁yakınlaştırma	-11.1099
▁hekim	-11.1099
▁Ağız	-11.1099
class	-11.1099
▁geldiğimiz	-11.1099
▁Kaplanmış	-11.1099
▁gübreleme	-11.1099
▁Tente	-11.1099
▁düşünce	-11.1099
TÜR	-11.1099
hotos	-11.1099
▁Sevil	-11.1099
▁normalleştir	-11.1099
▁indirilme	-11.11
▁öyley	-11.11
rdından	-11.11
▁Konteynerler	-11.11
▁kalkan	-11.11
▁yükselme	-11.11
▁şekillendirme	-11.11
▁kurulumunda	-11.11
▁perakende	-11.11
▁durumunuzu	-11.11
▁merak	-11.11
▁çoğaltıl	-11.11
▁florür	-11.11
▁kategorisinde	-11.11
▁tablosu	-11.11
utuapp	-11.11
leyebilen	-11.11
▁kapatma	-11.11
▁istemcilerin	-11.11
duğumuz	-11.11
▁Motel	-11.11
▁polyester	-11.11
▁partner	-11.11
▁kriti	-11.1101
▁Hamam	-11.1101
▁Mahkemesi	-11.1101
MIND	-11.1101
▁isterseniz	-11.1101
▁Hesa	-11.1101
▁çabu	-11.1101
▁değişimleri	-11.1101
Fresh	-11.1101
▁geçirilmesi	-11.1101
▁Drone	-11.1101
toksik	-11.1101
MSAN	-11.1101
▁Domates	-11.1101
▁sağlayacaktır	-11.1101
▁nitrat	-11.1102
SIU	-11.1102
▁Çark	-11.1102
RPG	-11.1102
Flush	-11.1102
▁Kolej	-11.1102
▁yönetmen	-11.1102
▁Numarası	-11.1102
▁Sigortası	-11.1102
▁Spea	-11.1102
▁bağlayın	-11.1102
▁itira	-11.1102
▁wal	-11.1102
ornstar	-11.1102
▁sağlayın	-11.1102
▁kokusu	-11.1102
▁çağında	-11.1102
▁Braga	-11.1102
buku	-11.1102
▁İthal	-11.1102
▁Öğe	-11.1102
IDER	-11.1102
AYLA	-11.1102
▁Mekanizma	-11.1103
▁bilmiyorum	-11.1103
▁rahatsız	-11.1103
▁(365	-11.1103
▁sürdü	-11.1103
▁dozaj	-11.1103
Babes	-11.1103
▁kantit	-11.1103
▁yerleştirildi	-11.1103
▁anılmıştır	-11.1103
agle	-11.1103
▁devlet	-11.1103
▁süspansiyon	-11.1103
▁Sunar	-11.1103
▁Çeşitleri	-11.1103
▁Ağrı	-11.1103
▁hissettikleri	-11.1103
▁kaçınıl	-11.1103
▁koltuğu	-11.1104
085	-11.1104
▁hesaplanır	-11.1104
arantez	-11.1104
▁kraft	-11.1104
▁taşırken	-11.1104
▁getirilmesi	-11.1104
▁bütünleşti	-11.1104
▁izlenebilir	-11.1104
▁Flori	-11.1104
eferans	-11.1104
▁İade	-11.1104
▁State	-11.1104
amgala	-11.1104
▁10.4	-11.1104
▁Depolama	-11.1104
▁saklanması	-11.1104
▁Gözetleme	-11.1104
▁Snap	-11.1104
reens	-11.1104
▁gerektirmez	-11.1104
aradise	-11.1104
▁gamı	-11.1105
▁yolunu	-11.1105
URL	-11.1105
▁Tepe	-11.1105
▁topluluk	-11.1105
▁bakabilecek	-11.1105
AHİ	-11.1105
▁kolaylaştırmak	-11.1105
▁Calli	-11.1105
trepo	-11.1105
▁750	-11.1105
▁Stick	-11.1105
▁istif	-11.1105
perest	-11.1106
▁Dys	-11.1106
cture	-11.1106
0-8	-11.1106
RAB	-11.1106
▁emisyon	-11.1106
▁değiştirilmesi	-11.1106
▁Kulaklık	-11.1106
▁odaklanmak	-11.1106
▁getirmiştir	-11.1106
▁Şeridi	-11.1106
-70-	-11.1106
▁954	-11.1106
▁yardımıyla	-11.1106
▁işçiler	-11.1107
▁çözeme	-11.1107
▁getirecek	-11.1107
▁Chang	-11.1107
ebilirseniz	-11.1107
▁yoğurt	-11.1107
▁gemi	-11.1107
▁koyabilirsiniz	-11.1107
▁Admin	-11.1107
▁jia	-11.1107
filiz	-11.1107
▁pamuk	-11.1107
maddi	-11.1108
▁temizleyici	-11.1108
perasyon	-11.1108
▁Light	-11.1108
▁iade	-11.1108
ELEK	-11.1108
▁Küba	-11.1108
▁zararsız	-11.1108
▁huzurlu	-11.1108
▁Kriz	-11.1108
▁ısıtıl	-11.1108
▁Yurt	-11.1109
▁seferinde	-11.1109
▁detektör	-11.1109
▁Liber	-11.1109
▁seviyorum	-11.1109
1-9	-11.1109
▁içeresinde	-11.1109
LIG	-11.1109
umarhane	-11.1109
▁Village	-11.1109
▁zorlukları	-11.1109
now	-11.1109
▁3.5	-11.1109
▁soyun	-11.111
▁Önyükle	-11.111
▁stand	-11.111
▁günümüz	-11.111
▁Bölgesinde	-11.111
▁modernizasyon	-11.111
lediğinizde	-11.111
0.15	-11.111
▁küre	-11.111
▁işaretleyici	-11.111
▁VBA	-11.111
061	-11.111
▁hatırla	-11.1111
ortakal	-11.1111
ucci	-11.1111
▁bağış	-11.1111
▁görüşmeler	-11.1111
▁edebilirsiniz	-11.1111
▁enzim	-11.1111
gram	-11.1111
▁etek	-11.1111
YUN	-11.1111
▁ederek	-11.1111
ırasında	-11.1112
▁atleti	-11.1112
aklaşı	-11.1112
▁değilseniz	-11.1112
▁Aşk	-11.1113
▁olmadık	-11.1113
▁bağlanmış	-11.1113
olekül	-11.1113
▁tutarken	-11.1113
▁uygulanması	-11.1113
yurdu	-11.1113
TİP	-11.1114
▁kayış	-11.1114
shut	-11.1114
üloz	-11.1115
▁seçebilirsiniz	-11.1115
▁Boğ	-11.1115
▁işgal	-11.1115
▁Faydal	-11.1115
▁dost	-11.1115
▁unre	-11.1115
▁sunabilir	-11.1115
▁gücünü	-11.1115
▁Beyo	-11.1115
▁(71	-11.1115
▁gönderdiği	-11.1115
▁ihtiyacımız	-11.1115
▁pnömatik	-11.1115
ometri	-11.1116
▁artırı	-11.1116
nstru	-11.1116
onsept	-11.1116
arkod	-11.1116
▁Seti	-11.1117
▁erit	-11.1117
▁Kafa	-11.1117
▁Uygulamanızı	-11.1117
▁Niha	-11.1117
▁semen	-11.1117
▁Eklemler	-11.1117
▁Tekniği	-11.1117
ventur	-11.1118
▁baha	-11.1118
▁müst	-11.1118
▁isterse	-11.1118
▁izlenmesi	-11.1118
ISI	-11.1118
▁çalışacak	-11.1118
echani	-11.1118
▁Palm	-11.1119
▁anladı	-11.1119
▁çekilmiş	-11.1119
▁Şang	-11.1119
kuyu	-11.1119
elirtilmemiş	-11.1119
drar	-11.1119
▁korkusuy	-11.1119
aburga	-11.1119
▁mühendisliği	-11.1119
▁Nuv	-11.112
▁eksikliği	-11.112
onferen	-11.112
▁Valida	-11.112
ucks	-11.112
▁Yönetimiyle	-11.112
▁olamayaca	-11.112
▁polisak	-11.112
▁Gezin	-11.112
▁cle	-11.112
tube	-11.112
▁taah	-11.112
▁belirttiği	-11.112
▁göstericiler	-11.112
oneer	-11.112
▁Yurda	-11.1121
▁hə	-11.1121
8-19	-11.1121
▁Adres	-11.1121
п	-11.9637
щ	-12.1093
Á	-12.1093
ë	-12.1093
š	-12.1093
П	-12.1093
ô	-12.1093
À	-12.1093
Ø	-12.1093
à	-12.1093
è	-12.1093
î	-12.1093
ñ	-12.1093
Č	-12.1093
ł	-12.1093
ń	-12.1093
ɪ	-12.1093
Ε	-12.1093
Φ	-12.1093
ά	-12.1093
έ	-12.1093
η	-12.1093
κ	-12.1093
τ	-12.1093
І	-12.1093
А	-12.1093
Б	-12.1093
Е	-12.1093
Ж	-12.1093
З	-12.1093
М	-12.1093
С	-12.1093
г	-12.1093
з	-12.1093
х	-12.1093
ц	-12.1093
ш	-12.1093
ъ	-12.1093
ы	-12.1093
ҫ	-12.1093
ב	-12.1093
ה	-12.1093
ו	-12.1093
נ	-12.1093
ע	-12.1093
ק	-12.1093
ת	-12.1093
ا	-12.1093
ب	-12.1093
س	-12.1093
ش	-12.1093
ع	-12.1093
و	-12.1093
ي	-12.1093
ک	-12.1093
ア	-12.1093
タ	-12.1093
ヤ	-12.1093
ル	-12.1093
ン	-12.1093
中	-12.1093
乐	-12.1093
体	-12.1093
国	-12.1093
城	-12.1093
娱	-12.1093
导	-12.1093
文	-12.1093
日	-12.1093
本	-12.1093
简	-12.1093
者	-12.1093
語	-12.1093
际	-12.1093
领	-12.1093
국	-12.1093
니	-12.1093
아	-12.1093
어	-12.1093
오	-12.1093
일	-12.1093
전	-12.1093
텔	-12.1093
한	-12.1093
호	-12.1093
û	-12.1093
б	-12.1093
Г	-12.1093
ч	-12.1093
к	-12.858
