<unk>	0
<s>	0
</s>	0
ar	-0
er	-1
an	-2
in	-3
ir	-4
▁b	-5
il	-6
en	-7
▁k	-8
al	-9
▁s	-10
ak	-11
el	-12
ın	-13
▁v	-14
▁d	-15
ek	-16
▁y	-17
lar	-18
as	-19
et	-20
▁t	-21
ik	-22
▁ve	-23
▁o	-24
▁g	-25
▁i	-26
es	-27
la	-28
on	-29
ma	-30
ler	-31
un	-32
iz	-33
ır	-34
em	-35
▁m	-36
▁B	-37
da	-38
or	-39
▁h	-40
at	-41
▁bir	-42
▁S	-43
▁A	-44
de	-45
ay	-46
▁K	-47
lan	-48
im	-49
is	-50
lı	-51
▁iç	-52
it	-53
ul	-54
▁T	-55
ur	-56
▁ç	-57
iy	-58
▁p	-59
ür	-60
▁M	-61
▁için	-62
ün	-63
iş	-64
ed	-65
am	-66
▁P	-67
ap	-68
▁D	-69
li	-70
ab	-71
le	-72
ış	-73
ız	-74
ah	-75
ol	-76
ağ	-77
▁H	-78
az	-79
ad	-80
▁E	-81
▁ö	-82
ım	-83
ük	-84
▁f	-85
ya	-86
ık	-87
▁G	-88
um	-89
ıl	-90
ey	-91
▁il	-92
▁ol	-93
st	-94
mak	-95
esi	-96
▁Y	-97
ilir	-98
ör	-99
ları	-100
▁C	-101
ası	-102
ok	-103
eri	-104
alar	-105
aş	-106
▁al	-107
▁O	-108
üz	-109
ut	-110
leri	-111
uz	-112
▁1	-113
ot	-114
▁ş	-115
eğ	-116
af	-117
ev	-118
▁(	-119
üm	-120
dan	-121
ında	-122
▁2	-123
ro	-124
ini	-125
eb	-126
▁Ç	-127
▁ar	-128
▁İ	-129
▁L	-130
tir	-131
ullan	-132
▁F	-133
▁n	-134
▁ile	-135
dir	-136
cı	-137
uy	-138
ine	-139
lik	-140
yon	-141
ip	-142
dır	-143
▁R	-144
▁kullan	-145
ic	-146
▁r	-147
av	-148
ını	-149
iniz	-150
den	-151
▁z	-152
lem	-153
aç	-154
uk	-155
inde	-156
ec	-157
ekt	-158
me	-159
▁-	-160
oğ	-161
iler	-162
▁yap	-163
▁ür	-164
lık	-165
iğ	-166
man	-167
▁an	-168
▁et	-169
om	-170
os	-171
ist	-172
ac	-173
ön	-174
▁bu	-175
ce	-176
tır	-177
ilm	-178
▁en	-179
ama	-180
ta	-181
üş	-182
uş	-183
ların	-184
eş	-185
▁V	-186
larak	-187
eç	-188
▁Bu	-189
00	-190
lay	-191
ib	-192
len	-193
▁I	-194
▁olarak	-195
op	-196
us	-197
ez	-198
zel	-199
▁ed	-200
▁kon	-201
▁iş	-202
▁,	-203
▁ön	-204
ter	-205
▁N	-206
isi	-207
▁veya	-208
..	-209
▁c	-210
▁ger	-211
if	-212
▁3	-213
du	-214
ıs	-215
▁bil	-216
dı	-217
üy	-218
aha	-219
lama	-220
▁in	-221
▁kar	-222
tel	-223
▁gör	-224
asyon	-225
tik	-226
üks	-227
id	-228
▁ay	-229
eler	-230
inin	-231
▁kal	-232
ıcı	-233
▁gel	-234
▁sağ	-235
mek	-236
tr	-237
ül	-238
cak	-239
▁da	-240
abilir	-241
▁var	-242
est	-243
tad	-244
▁değ	-245
anı	-246
▁uy	-247
▁tar	-248
▁U	-249
lu	-250
tadır	-251
▁ver	-252
ark	-253
▁son	-254
▁daha	-255
laş	-256
▁sür	-257
alı	-258
▁her	-259
ından	-260
aları	-261
üksek	-262
di	-263
ına	-264
ması	-265
mış	-266
▁ek	-267
▁özel	-268
▁bul	-269
oy	-270
tı	-271
üç	-272
▁Ü	-273
leş	-274
alış	-275
▁yıl	-276
üc	-277
ans	-278
ağı	-279
▁W	-280
tan	-281
ep	-282
ibi	-283
met	-284
iştir	-285
od	-286
lab	-287
aman	-288
ınız	-289
aki	-290
maktadır	-291
ru	-292
▁or	-293
▁pro	-294
art	-295
eli	-296
gi	-297
iv	-298
tur	-299
akin	-300
▁An	-301
ede	-302
▁baş	-303
▁yer	-304
oz	-305
▁kur	-306
elik	-307
ebilir	-308
re	-309
yi	-310
▁gö	-311
ca	-312
eni	-313
imi	-314
ilen	-315
▁olan	-316
lam	-317
gu	-318
▁çalış	-319
▁par	-320
▁sah	-321
▁sun	-322
▁yar	-323
▁ürün	-324
▁bulun	-325
▁20	-326
▁zaman	-327
▁gibi	-328
▁de	-329
▁üret	-330
▁4	-331
▁Ö	-332
▁çok	-333
izmet	-334
lü	-335
▁Ş	-336
te	-337
▁5	-338
duğ	-339
▁Ar	-340
▁el	-341
ers	-342
▁tek	-343
ğı	-344
iye	-345
rik	-346
daki	-347
iyor	-348
▁uz	-349
▁kay	-350
▁üz	-351
ih	-352
ra	-353
▁ak	-354
ileri	-355
oj	-356
▁kap	-357
leme	-358
ının	-359
▁üzer	-360
azı	-361
liğ	-362
men	-363
▁aç	-364
otel	-365
ızlı	-366
eki	-367
▁iyi	-368
▁gerek	-369
ili	-370
▁Ay	-371
▁ad	-372
istem	-373
eh	-374
ob	-375
ret	-376
▁hizmet	-377
üt	-378
üv	-379
unu	-380
▁gen	-381
eleri	-382
▁Bir	-383
▁büy	-384
▁etk	-385
▁ser	-386
▁otel	-387
erk	-388
▁ma	-389
eden	-390
▁doğ	-391
ef	-392
ran	-393
tar	-394
▁şek	-395
siniz	-396
▁olduğ	-397
labilir	-398
let	-399
ley	-400
lerin	-401
▁sahip	-402
ing	-403
▁Ek	-404
asar	-405
▁ist	-406
▁l	-407
▁gün	-408
ada	-409
ımı	-410
▁bö	-411
▁on	-412
▁tüm	-413
▁yön	-414
uv	-415
san	-416
▁bağ	-417
ize	-418
▁yüksek	-419
ayı	-420
çek	-421
▁sa	-422
▁taraf	-423
akinesi	-424
og	-425
▁u	-426
ant	-427
edir	-428
▁201	-429
öz	-430
▁En	-431
ilik	-432
▁bel	-433
▁top	-434
siy	-435
▁faz	-436
▁kad	-437
▁Hotel	-438
ısı	-439
unda	-440
leştir	-441
ici	-442
ren	-443
▁geç	-444
▁oy	-445
iğer	-446
ster	-447
▁seç	-448
...	-449
ıy	-450
han	-451
las	-452
lat	-453
▁vardır	-454
oloj	-455
▁kat	-456
asında	-457
raf	-458
▁Çin	-459
▁uygu	-460
oc	-461
üst	-462
▁düz	-463
eye	-464
▁oluş	-465
akk	-466
iyet	-467
üven	-468
▁sistem	-469
aj	-470
▁J	-471
ide	-472
mas	-473
rı	-474
ast	-475
iği	-476
may	-477
▁od	-478
imiz	-479
▁dur	-480
▁kor	-481
▁çık	-482
▁büyük	-483
▁şekil	-484
sa	-485
ti	-486
sel	-487
▁ko	-488
arik	-489
▁ken	-490
for	-491
ite	-492
▁kiş	-493
▁mal	-494
▁met	-495
arı	-496
osy	-497
▁tem	-498
▁fazla	-499
▁tarafından	-500
▁_	-501
ava	-502
eme	-503
siz	-504
▁den	-505
▁alan	-506
ht	-507
dım	-508
alık	-509
liği	-510
unun	-511
▁ort	-512
▁tasar	-513
▁"	-514
ram	-515
▁su	-516
ımız	-517
▁ama	-518
▁bak	-519
▁sat	-520
▁tel	-521
▁yüz	-522
▁Otel	-523
cu	-524
örü	-525
ecek	-526
▁Kar	-527
▁boy	-528
▁kab	-529
siyon	-530
esinde	-531
ektedir	-532
ost	-533
▁10	-534
▁ya	-535
ılan	-536
ılır	-537
üs	-538
aya	-539
to	-540
dur	-541
▁eğ	-542
deki	-543
trol	-544
▁mes	-545
▁say	-546
▁yet	-547
esini	-548
ılmış	-549
▁bilg	-550
any	-551
▁aş	-552
▁ik	-553
lara	-554
unuz	-555
▁Kon	-556
▁sır	-557
▁yak	-558
inden	-559
▁tekn	-560
çi	-561
ort	-562
▁yan	-563
▁Yüksek	-564
ig	-565
ki	-566
▁w	-567
▁Bil	-568
matik	-569
larını	-570
▁belir	-571
▁kadar	-572
dığ	-573
▁Al	-574
▁yol	-575
▁yeni	-576
lerini	-577
▁sonra	-578
ci	-579
▁Z	-580
eti	-581
▁as	-582
▁at	-583
maya	-584
▁Kap	-585
larda	-586
▁güven	-587
▁göster	-588
▁özellik	-589
şı	-590
der	-591
▁Eğ	-592
▁alt	-593
▁sit	-594
erkez	-595
ag	-596
üp	-597
eda	-598
işim	-599
▁Tek	-600
▁parç	-601
edarik	-602
lg	-603
ken	-604
maz	-605
res	-606
▁Ak	-607
▁az	-608
▁es	-609
akik	-610
lere	-611
▁dön	-612
▁hakk	-613
▁önem	-614
▁diğer	-615
▁görün	-616
▁6	-617
enk	-618
omp	-619
▁İn	-620
arak	-621
▁Pro	-622
▁ben	-623
aklık	-624
▁içer	-625
dece	-626
▁tes	-627
▁değil	-628
ER	-629
tü	-630
miş	-631
▁ağ	-632
edav	-633
isel	-634
▁Ser	-635
▁fark	-636
▁yıld	-637
▁dakik	-638
▁içinde	-639
▁şekilde	-640
iyat	-641
▁kan	-642
▁durum	-643
▁yardım	-644
ch	-645
mm	-646
▁0	-647
▁iz	-648
▁öğ	-649
▁yat	-650
iteli	-651
▁işlem	-652
▁yıldızlı	-653
eg	-654
ov	-655
eniz	-656
▁düş	-657
▁ilg	-658
▁sor	-659
▁tut	-660
hangi	-661
▁açık	-662
▁kontrol	-663
▁geliştir	-664
20	-665
up	-666
lak	-667
▁El	-668
aret	-669
▁Her	-670
▁der	-671
▁tür	-672
ilmiş	-673
▁bulunmaktadır	-674
ED	-675
ub	-676
ök	-677
evc	-678
ıcak	-679
inizi	-680
▁sadece	-681
uç	-682
eği	-683
gun	-684
lım	-685
nak	-686
net	-687
eşit	-688
iyle	-689
▁har	-690
▁tak	-691
▁ter	-692
ektrik	-693
▁karşı	-694
▁oluştur	-695
se	-696
▁8	-697
orm	-698
yum	-699
asıl	-700
lığı	-701
rıca	-702
▁Kal	-703
▁yaş	-704
▁önce	-705
ıt	-706
▁:	-707
evr	-708
rol	-709
▁Or	-710
tand	-711
▁gir	-712
lamak	-713
▁doğru	-714
▁neden	-715
▁ilgili	-716
ent	-717
acak	-718
ideo	-719
otor	-720
▁güç	-721
▁hal	-722
▁taş	-723
▁malz	-724
▁olmak	-725
▁makinesi	-726
▁X	-727
irk	-728
una	-729
ayan	-730
uvar	-731
üçük	-732
ıyor	-733
▁mod	-734
estek	-735
lemek	-736
▁Özel	-737
▁kolay	-738
▁herhangi	-739
ow	-740
▁a	-741
uma	-742
anyo	-743
anın	-744
▁Tür	-745
▁man	-746
▁çek	-747
▁şeh	-748
ipman	-749
▁tedav	-750
mektedir	-751
nı	-752
si	-753
erj	-754
eyi	-755
▁er	-756
mesi	-757
ocuk	-758
lacak	-759
▁mesaf	-760
▁gerçek	-761
▁önemli	-762
▁uzaklık	-763
asa	-764
ızı	-765
htiy	-766
▁Par	-767
▁bas	-768
▁biz	-769
lendir	-770
▁geniş	-771
▁farklı	-772
▁sağlar	-773
iç	-774
bir	-775
cel	-776
luk	-777
üşt	-778
evcut	-779
ka	-780
ne	-781
tal	-782
yla	-783
▁As	-784
▁İş	-785
gram	-786
▁don	-787
▁mak	-788
arası	-789
▁nasıl	-790
larının	-791
▁Ayrıca	-792
ılabilir	-793
▁yılında	-794
▁yardımcı	-795
mel	-796
rün	-797
ucu	-798
▁St	-799
azır	-800
▁oyun	-801
▁ulaş	-802
▁banyo	-803
▁merkez	-804
▁Makinesi	-805
AR	-806
ge	-807
of	-808
mat	-809
▁im	-810
▁km	-811
▁LED	-812
▁Met	-813
▁dev	-814
▁san	-815
▁şey	-816
▁tama	-817
iciler	-818
ındaki	-819
▁genel	-820
▁ihtiy	-821
▁teknoloj	-822
AN	-823
ia	-824
oru	-825
van	-826
ıda	-827
▁(1	-828
▁In	-829
▁Sp	-830
▁kr	-831
erli	-832
malı	-833
▁Gen	-834
▁hay	-835
▁kes	-836
▁tab	-837
▁zor	-838
malar	-839
▁Eğer	-840
▁araç	-841
▁Çelik	-842
▁çeşit	-843
tomatik	-844
▁oteller	-845
abilirsiniz	-846
-1	-847
he	-848
ıp	-849
▁7	-850
rup	-851
ulu	-852
▁em	-853
▁ok	-854
▁üc	-855
eket	-856
itim	-857
▁Ben	-858
▁Kay	-859
▁San	-860
▁dün	-861
▁res	-862
▁çöz	-863
abrik	-864
dırma	-865
▁biri	-866
▁göre	-867
ilmesi	-868
lastik	-869
▁ücret	-870
lerinin	-871
▁mevcut	-872
▁program	-873
▁olabilir	-874
lo	-875
ça	-876
aba	-877
ass	-878
lük	-879
tem	-880
vis	-881
ücü	-882
enek	-883
enin	-884
obil	-885
ışık	-886
▁Kur	-887
▁dok	-888
▁göz	-889
▁hem	-890
▁tan	-891
▁Ürün	-892
azılım	-893
lanmış	-894
▁bağlı	-895
▁fiyat	-896
▁uygun	-897
▁değiştir	-898
▁hakkında	-899
AS	-900
ye	-901
üğ	-902
atı	-903
▁15	-904
▁Co	-905
▁öl	-906
▁hat	-907
▁mon	-908
▁per	-909
▁yok	-910
üşter	-911
▁Üret	-912
▁hızlı	-913
gı	-914
ve	-915
ara	-916
dal	-917
ift	-918
mez	-919
▁19	-920
▁ev	-921
iyel	-922
uyor	-923
örün	-924
▁tah	-925
irket	-926
oğraf	-927
▁ayar	-928
▁dosy	-929
▁prof	-930
larına	-931
▁insan	-932
larında	-933
▁üretim	-934
AL	-935
sı	-936
öp	-937
öy	-938
▁9	-939
000	-940
ang	-941
com	-942
ern	-943
gan	-944
tif	-945
zer	-946
▁Aç	-947
▁Ch	-948
▁Su	-949
▁iki	-950
▁ilk	-951
▁kaz	-952
▁mik	-953
▁yay	-954
itesi	-955
▁aynı	-956
▁hast	-957
▁olma	-958
▁olur	-959
iğiniz	-960
▁hazır	-961
▁destek	-962
▁olduğu	-963
izi	-964
kin	-965
lığ	-966
nek	-967
ışı	-968
▁30	-969
▁Tr	-970
▁sp	-971
düst	-972
efon	-973
ükem	-974
▁Son	-975
▁get	-976
düstr	-977
esine	-978
idrol	-979
ivers	-980
▁Türk	-981
▁Yeni	-982
▁bölg	-983
asyonu	-984
lerine	-985
▁çelik	-986
ükemmel	-987
▁Tedarik	-988
▁sistemi	-989
▁üzerinde	-990
ET	-991
IN	-992
▁e	-993
dro	-994
edi	-995
eks	-996
gel	-997
ron	-998
ten	-999
▁1.	-1000
▁Am	-1001
▁On	-1002
▁ör	-1003
erek	-1004
▁Res	-1005
▁hav	-1006
▁oda	-1007
▁web	-1008
likle	-1009
likte	-1010
▁Hava	-1011
▁renk	-1012
▁saat	-1013
▁test	-1014
indeki	-1015
ternet	-1016
▁düzen	-1017
tandart	-1018
▁malzem	-1019
▁ürünler	-1020
▁kullanıcı	-1021
çe	-1022
cuz	-1023
taj	-1024
çok	-1025
▁Av	-1026
▁eş	-1027
afir	-1028
imli	-1029
utma	-1030
▁Yap	-1031
▁duy	-1032
▁yük	-1033
▁hava	-1034
▁çevr	-1035
ilerin	-1036
masını	-1037
▁almak	-1038
▁kendi	-1039
▁küçük	-1040
▁çıkar	-1041
idrolik	-1042
▁yöntem	-1043
▁bulunan	-1044
▁kişisel	-1045
ebilirsiniz	-1046
▁kullanılır	-1047
ha	-1048
ij	-1049
oş	-1050
ğu	-1051
amb	-1052
anb	-1053
erm	-1054
kaç	-1055
lin	-1056
▁Ne	-1057
dığı	-1058
eyen	-1059
▁...	-1060
▁Gün	-1061
▁fot	-1062
▁sev	-1063
▁sık	-1064
ılması	-1065
▁alanı	-1066
▁deney	-1067
▁getir	-1068
▁video	-1069
▁elektrik	-1070
▁olduğunu	-1071
utf	-1072
ver	-1073
▁Er	-1074
▁ot	-1075
▁Tur	-1076
▁Web	-1077
▁dik	-1078
▁dil	-1079
▁fır	-1080
▁haf	-1081
▁kim	-1082
▁yem	-1083
aslan	-1084
esyon	-1085
lerde	-1086
manız	-1087
▁proj	-1088
nivers	-1089
▁edilm	-1090
▁etmek	-1091
▁sıcak	-1092
▁temiz	-1093
▁yönet	-1094
▁üzere	-1095
esyonel	-1096
▁arasında	-1097
▁birlikte	-1098
dür	-1099
ive	-1100
lim	-1101
▁24	-1102
▁Sh	-1103
arlı	-1104
eceğ	-1105
line	-1106
▁Bar	-1107
layan	-1108
layın	-1109
ıştır	-1110
▁Alan	-1111
▁Açık	-1112
▁geri	-1113
▁uzun	-1114
isafir	-1115
laştır	-1116
▁değiş	-1117
▁etkin	-1118
▁gelen	-1119
▁kurul	-1120
▁öğren	-1121
▁çalışma	-1122
▁kaliteli	-1123
EL	-1124
EN	-1125
ece	-1126
yle	-1127
▁(2	-1128
▁Pr	-1129
▁vb	-1130
▁öd	-1131
ahat	-1132
alan	-1133
eyaz	-1134
▁Bas	-1135
▁Kat	-1136
▁Mod	-1137
▁Yön	-1138
▁art	-1139
▁cih	-1140
▁nok	-1141
▁soğ	-1142
▁vüc	-1143
▁yür	-1144
anbul	-1145
lilik	-1146
mayan	-1147
osyal	-1148
▁mark	-1149
▁şehr	-1150
▁Motor	-1151
▁devam	-1152
▁değer	-1153
▁Kullan	-1154
▁birçok	-1155
▁kaynak	-1156
▁müşter	-1157
▁şirket	-1158
aslanmaz	-1159
▁uygulam	-1160
▁sahiptir	-1161
▁ücretsiz	-1162
acı	-1163
ali	-1164
ana	-1165
ild	-1166
str	-1167
sız	-1168
ülk	-1169
▁At	-1170
▁Ul	-1171
▁le	-1172
▁üç	-1173
orum	-1174
üler	-1175
ınıf	-1176
▁Sat	-1177
▁bit	-1178
▁müm	-1179
▁İst	-1180
alama	-1181
aştır	-1182
forman	-1183
landır	-1184
▁kazan	-1185
▁yakın	-1186
▁birkaç	-1187
50	-1188
ly	-1189
na	-1190
td	-1191
amp	-1192
eng	-1193
ire	-1194
kün	-1195
lüm	-1196
muş	-1197
one	-1198
oğu	-1199
▁dö	-1200
▁ul	-1201
ağıt	-1202
ebek	-1203
ekli	-1204
içek	-1205
meye	-1206
▁Biz	-1207
▁Tar	-1208
▁saç	-1209
lantı	-1210
sanız	-1211
▁bazı	-1212
▁size	-1213
▁ancak	-1214
▁geçir	-1215
larımız	-1216
▁mümkün	-1217
▁olacak	-1218
▁hareket	-1219
▁kullanılan	-1220
mi	-1221
şa	-1222
ard	-1223
err	-1224
kan	-1225
olu	-1226
ore	-1227
▁12	-1228
▁Ap	-1229
▁do	-1230
▁la	-1231
▁pr	-1232
emiz	-1233
ilin	-1234
ment	-1235
üzel	-1236
▁Top	-1237
▁ede	-1238
▁mas	-1239
▁tip	-1240
▁yağ	-1241
assas	-1242
asını	-1243
lanan	-1244
undan	-1245
▁2019	-1246
▁azal	-1247
▁para	-1248
▁boyut	-1249
▁donat	-1250
▁dünya	-1251
▁konak	-1252
▁sağla	-1253
▁sunar	-1254
▁çocuk	-1255
▁edilen	-1256
▁odalar	-1257
ilebilir	-1258
▁Türkiye	-1259
▁Ünivers	-1260
▁fotoğraf	-1261
▁mükemmel	-1262
VC	-1263
ud	-1264
▁j	-1265
ari	-1266
bon	-1267
usu	-1268
şık	-1269
▁Uz	-1270
iber	-1271
unca	-1272
ılar	-1273
▁200	-1274
▁Hav	-1275
▁dah	-1276
▁hes	-1277
▁oyn	-1278
▁çap	-1279
ahtar	-1280
imiçi	-1281
izyon	-1282
uslar	-1283
çiler	-1284
▁elde	-1285
▁yanı	-1286
▁Metal	-1287
▁bilgi	-1288
▁böyle	-1289
▁dayan	-1290
malıdır	-1291
▁dakika	-1292
▁araştır	-1293
▁tasarım	-1294
▁telefon	-1295
▁zamanda	-1296
▁çeşitli	-1297
▁mesafede	-1298
▁profesyonel	-1299
NC	-1300
co	-1301
ga	-1302
dık	-1303
erv	-1304
gın	-1305
ina	-1306
suz	-1307
▁Uy	-1308
▁İç	-1309
eğin	-1310
inal	-1311
oğun	-1312
umlu	-1313
▁Bel	-1314
▁Kir	-1315
▁dış	-1316
▁kıs	-1317
▁yaz	-1318
▁üst	-1319
▁ısı	-1320
talya	-1321
utfak	-1322
▁kend	-1323
▁plan	-1324
leyici	-1325
üşteri	-1326
▁Ekran	-1327
▁aşağı	-1328
▁üretic	-1329
▁ekipman	-1330
▁gerekir	-1331
▁kullanım	-1332
▁donatılmış	-1333
kı	-1334
lac	-1335
uru	-1336
▁Aş	-1337
▁mm	-1338
▁Ön	-1339
abil	-1340
erji	-1341
▁Baş	-1342
▁Per	-1343
▁ana	-1344
▁cam	-1345
▁gön	-1346
▁kas	-1347
▁kom	-1348
▁sol	-1349
▁tam	-1350
▁ülk	-1351
droid	-1352
imler	-1353
inyum	-1354
larla	-1355
latma	-1356
▁ışık	-1357
aların	-1358
imleri	-1359
▁ekran	-1360
▁yüzey	-1361
▁Sistem	-1362
▁belirt	-1363
▁servis	-1364
▁görüntü	-1365
▁tedarik	-1366
▁yazılım	-1367
lanabilir	-1368
▁performan	-1369
.1	-1370
30	-1371
qu	-1372
th	-1373
ach	-1374
ion	-1375
rub	-1376
sin	-1377
ütü	-1378
▁is	-1379
▁ne	-1380
amak	-1381
asal	-1382
avan	-1383
ekan	-1384
erat	-1385
iltr	-1386
▁Tak	-1387
▁Ver	-1388
▁dök	-1389
▁kah	-1390
▁kut	-1391
▁tık	-1392
▁ölç	-1393
isyon	-1394
lanır	-1395
uklar	-1396
▁dahil	-1397
▁konum	-1398
▁makin	-1399
▁metal	-1400
▁metre	-1401
▁satış	-1402
▁sonuç	-1403
▁eğitim	-1404
▁fabrik	-1405
▁gönder	-1406
▁yapmak	-1407
▁merkezi	-1408
▁misafir	-1409
uslararası	-1410
-2	-1411
MA	-1412
ack	-1413
duk	-1414
dın	-1415
enc	-1416
end	-1417
ess	-1418
fer	-1419
▁Ve	-1420
▁op	-1421
avaş	-1422
izin	-1423
olon	-1424
üyor	-1425
▁Giz	-1426
▁Ltd	-1427
▁Mar	-1428
▁PVC	-1429
▁bar	-1430
▁bes	-1431
▁dal	-1432
▁diş	-1433
▁kam	-1434
▁mad	-1435
▁sal	-1436
▁söz	-1437
ektör	-1438
▁yapı	-1439
esinin	-1440
isinde	-1441
▁cihaz	-1442
▁indir	-1443
▁kabul	-1444
▁tarih	-1445
▁yoğun	-1446
evizyon	-1447
lerimiz	-1448
üminyum	-1449
▁miktar	-1450
▁endüstr	-1451
▁olmayan	-1452
▁yapılan	-1453
▁bilgiler	-1454
▁internet	-1455
▁otomatik	-1456
▁konaklama	-1457
▁sırasında	-1458
PS	-1459
uh	-1460
çı	-1461
ate	-1462
ity	-1463
sal	-1464
▁25	-1465
▁Ev	-1466
azar	-1467
esel	-1468
üket	-1469
▁Güç	-1470
▁duş	-1471
▁kır	-1472
▁pol	-1473
▁önc	-1474
astik	-1475
ciler	-1476
ersiz	-1477
ezerv	-1478
istal	-1479
oloji	-1480
▁Tekn	-1481
▁gerç	-1482
▁ilet	-1483
▁inşa	-1484
▁manz	-1485
▁sıra	-1486
etleri	-1487
siyonu	-1488
usunda	-1489
▁artır	-1490
▁düşük	-1491
▁geliş	-1492
▁rahat	-1493
▁çözüm	-1494
▁ortaya	-1495
▁sağlık	-1496
▁Android	-1497
▁Ekipman	-1498
▁ürünleri	-1499
▁televizyon	-1500
).	-1501
.,	-1502
.0	-1503
60	-1504
kü	-1505
▁'	-1506
▁.	-1507
akt	-1508
ens	-1509
los	-1510
ong	-1511
ork	-1512
sik	-1513
yal	-1514
yor	-1515
▁Br	-1516
▁mü	-1517
▁tr	-1518
▁öz	-1519
▁İl	-1520
anda	-1521
ehir	-1522
ital	-1523
iyah	-1524
post	-1525
ütün	-1526
ıklı	-1527
ıllı	-1528
▁Doğ	-1529
▁Kiş	-1530
▁Mas	-1531
▁ark	-1532
▁bal	-1533
▁bek	-1534
▁cil	-1535
▁etm	-1536
▁fir	-1537
▁fon	-1538
▁giy	-1539
▁has	-1540
▁kil	-1541
▁tic	-1542
lerle	-1543
▁Daha	-1544
▁Proj	-1545
▁bile	-1546
▁edin	-1547
▁kaps	-1548
▁kayn	-1549
▁nokt	-1550
lardan	-1551
▁anlam	-1552
▁kalın	-1553
▁organ	-1554
▁satın	-1555
▁tamam	-1556
▁tüket	-1557
dığınız	-1558
lerinde	-1559
▁güncel	-1560
▁modern	-1561
▁olması	-1562
ınabilir	-1563
▁boyunca	-1564
▁ihtiyaç	-1565
▁tamamen	-1566
▁performans	-1567
.5	-1568
ES	-1569
ığ	-1570
emb	-1571
gün	-1572
jen	-1573
ona	-1574
ung	-1575
ünü	-1576
ılı	-1577
▁18	-1578
▁Do	-1579
▁Kr	-1580
▁Od	-1581
▁Of	-1582
▁Ok	-1583
▁of	-1584
amik	-1585
mayı	-1586
onom	-1587
▁Har	-1588
▁Tab	-1589
▁Toz	-1590
▁Tüm	-1591
▁bun	-1592
▁bur	-1593
▁dir	-1594
▁med	-1595
▁sar	-1596
▁ses	-1597
▁toz	-1598
ilmek	-1599
manın	-1600
▁Renk	-1601
▁eder	-1602
▁iliş	-1603
▁mini	-1604
▁otur	-1605
▁rest	-1606
▁sayı	-1607
artman	-1608
ektörü	-1609
▁Ancak	-1610
▁Avrup	-1611
▁Satış	-1612
▁Tasar	-1613
▁güçlü	-1614
▁hafif	-1615
▁sürec	-1616
▁temel	-1617
▁varsa	-1618
▁yürüy	-1619
▁Hizmet	-1620
▁ediyor	-1621
▁kalite	-1622
▁sitesi	-1623
▁tedavi	-1624
▁Plastik	-1625
▁altında	-1626
▁çalışan	-1627
▁Hidrolik	-1628
▁kullanıl	-1629
▁sağlamak	-1630
▁standart	-1631
▁bilgileri	-1632
▁çevrimiçi	-1633
▁Üreticiler	-1634
▁kullanılabilir	-1635
hr	-1636
pt	-1637
ıç	-1638
eyn	-1639
gil	-1640
ime	-1641
inc	-1642
ind	-1643
isk	-1644
oid	-1645
oli	-1646
orn	-1647
rar	-1648
▁(4	-1649
▁Ağ	-1650
▁iy	-1651
▁st	-1652
aber	-1653
anlı	-1654
ekte	-1655
erik	-1656
ileş	-1657
isay	-1658
üyük	-1659
▁Bit	-1660
▁Gel	-1661
▁Kız	-1662
▁bah	-1663
▁dan	-1664
▁ise	-1665
▁kir	-1666
▁zar	-1667
▁ziy	-1668
alanı	-1669
asına	-1670
bilir	-1671
etler	-1672
meden	-1673
▁Işık	-1674
▁arab	-1675
▁dikk	-1676
▁fonk	-1677
▁konu	-1678
▁list	-1679
▁olup	-1680
▁sayf	-1681
▁çift	-1682
mesini	-1683
zersiz	-1684
▁bakım	-1685
▁başka	-1686
▁bölüm	-1687
▁doğal	-1688
▁güzel	-1689
▁ortak	-1690
▁ortam	-1691
▁sunan	-1692
▁sunul	-1693
▁sınıf	-1694
ilindir	-1695
▁Merkez	-1696
▁toplam	-1697
▁gerekli	-1698
▁nedenle	-1699
▁üzerine	-1700
▁uygulama	-1701
▁özellikle	-1702
leştirilmiş	-1703
▁Ekipmanları	-1704
▁uzaklıktadır	-1705
ON	-1706
bo	-1707
gn	-1708
vi	-1709
abı	-1710
are	-1711
arj	-1712
ayi	-1713
bar	-1714
cek	-1715
elt	-1716
ill	-1717
lil	-1718
ros	-1719
uyu	-1720
ülü	-1721
▁(3	-1722
▁Et	-1723
▁Is	-1724
▁Ko	-1725
▁Ot	-1726
▁Oy	-1727
▁ap	-1728
▁bl	-1729
▁İz	-1730
angi	-1731
desi	-1732
ekor	-1733
eriğ	-1734
etik	-1735
işir	-1736
umuş	-1737
usal	-1738
uyla	-1739
öpek	-1740
▁Bur	-1741
▁CNC	-1742
▁Dok	-1743
▁Kab	-1744
▁Mal	-1745
▁Taş	-1746
▁adı	-1747
▁bin	-1748
▁düğ	-1749
▁gid	-1750
▁hiç	-1751
▁koy	-1752
▁koş	-1753
▁kız	-1754
▁pay	-1755
▁söy	-1756
▁teş	-1757
▁Çok	-1758
ekten	-1759
lenme	-1760
üştür	-1761
ınıza	-1762
▁Uygu	-1763
▁alın	-1764
▁ağır	-1765
▁grub	-1766
▁ilaç	-1767
▁izin	-1768
▁kart	-1769
▁kasa	-1770
▁pomp	-1771
▁ısıt	-1772
enerat	-1773
ileceğ	-1774
inizin	-1775
likler	-1776
masına	-1777
ınızın	-1778
▁Bunun	-1779
▁Büyük	-1780
▁Mobil	-1781
▁Yönet	-1782
▁düşün	-1783
▁işlet	-1784
▁motor	-1785
▁yarat	-1786
▁yemek	-1787
izasyon	-1788
▁Avrupa	-1789
▁edilir	-1790
▁içeriğ	-1791
▁yaklaş	-1792
▁hizmeti	-1793
▁ihtiyac	-1794
▁Otomatik	-1795
▁değildir	-1796
▁Paslanmaz	-1797
▁geliştirme	-1798
▁genellikle	-1799
10	-1800
EM	-1801
LI	-1802
cü	-1803
öm	-1804
üb	-1805
ıv	-1806
and	-1807
ino	-1808
mam	-1809
nın	-1810
onu	-1811
orb	-1812
tor	-1813
val	-1814
ört	-1815
ınç	-1816
▁Ad	-1817
▁No	-1818
▁Ro	-1819
▁ki	-1820
▁li	-1821
▁ün	-1822
adaş	-1823
alaj	-1824
alim	-1825
anel	-1826
atif	-1827
ayla	-1828
erin	-1829
imdi	-1830
itik	-1831
lant	-1832
ubuk	-1833
ulan	-1834
ünkü	-1835
ırım	-1836
▁Boy	-1837
▁Düş	-1838
▁Pol	-1839
▁Tip	-1840
▁Yar	-1841
▁ait	-1842
▁kaf	-1843
▁kol	-1844
▁mey	-1845
▁mim	-1846
▁num	-1847
▁pat	-1848
▁rek	-1849
▁sak	-1850
▁sin	-1851
engin	-1852
istik	-1853
yasal	-1854
▁Gıda	-1855
▁Live	-1856
▁adım	-1857
▁gıda	-1858
▁ucuz	-1859
▁veri	-1860
alarda	-1861
elerin	-1862
ijital	-1863
isayar	-1864
isinin	-1865
▁Beyaz	-1866
▁Sıcak	-1867
▁kadın	-1868
▁kanal	-1869
▁olduk	-1870
▁uzman	-1871
▁yapar	-1872
▁yatak	-1873
▁Çalış	-1874
▁Çocuk	-1875
▁şehir	-1876
lenmesi	-1877
▁etkili	-1878
larından	-1879
▁Sistemi	-1880
▁anahtar	-1881
▁kristal	-1882
▁odaları	-1883
▁plastik	-1884
▁Konuklar	-1885
▁mevcuttur	-1886
▁uzaklıkta	-1887
▁kullanarak	-1888
▁gerçekleştir	-1889
),	-1890
12	-1891
65	-1892
7)	-1893
EK	-1894
ST	-1895
bi	-1896
ni	-1897
ri	-1898
ts	-1899
ğü	-1900
aal	-1901
ady	-1902
ank	-1903
bet	-1904
emi	-1905
erç	-1906
ice	-1907
itn	-1908
rak	-1909
tür	-1910
umu	-1911
yan	-1912
üsü	-1913
▁11	-1914
▁13	-1915
▁17	-1916
▁AB	-1917
▁Bö	-1918
▁Es	-1919
▁TV	-1920
▁am	-1921
▁re	-1922
edef	-1923
edek	-1924
efer	-1925
elen	-1926
hone	-1927
osya	-1928
ünde	-1929
ıntı	-1930
▁100	-1931
▁Cam	-1932
▁Diş	-1933
▁GPS	-1934
▁Mad	-1935
▁Sağ	-1936
▁Sür	-1937
▁The	-1938
▁dep	-1939
▁fay	-1940
▁giz	-1941
▁küv	-1942
▁pak	-1943
▁tav	-1944
▁tur	-1945
▁ütü	-1946
erede	-1947
erken	-1948
istan	-1949
ormal	-1950
▁Parç	-1951
▁boru	-1952
▁park	-1953
▁sert	-1954
▁sonr	-1955
▁tanı	-1956
▁çoğu	-1957
dığını	-1958
laması	-1959
layıcı	-1960
opüler	-1961
▁Genel	-1962
▁Güven	-1963
▁dolay	-1964
▁engel	-1965
▁esnek	-1966
▁giriş	-1967
▁güneş	-1968
▁mekan	-1969
aaliyet	-1970
lanması	-1971
▁derece	-1972
▁koruma	-1973
▁sosyal	-1974
▁yaygın	-1975
▁böylece	-1976
▁kullanı	-1977
▁veriler	-1978
▁ziyaret	-1979
abilirler	-1980
▁bağlantı	-1981
▁güvenlik	-1982
▁İstanbul	-1983
▁üreticisi	-1984
▁edilmiştir	-1985
▁hizmetleri	-1986
İM	-1987
bin	-1988
hal	-1989
ian	-1990
int	-1991
iyi	-1992
ogr	-1993
sun	-1994
tiv	-1995
ırı	-1996
▁14	-1997
▁16	-1998
▁50	-1999
▁Bo	-2000
▁CO	-2001
▁Em	-2002
▁Ex	-2003
▁HD	-2004
▁Pe	-2005
adan	-2006
ason	-2007
atör	-2008
diği	-2009
edik	-2010
emin	-2011
erry	-2012
form	-2013
şeme	-2014
▁Bak	-2015
▁Car	-2016
▁Gir	-2017
▁Kol	-2018
▁Mak	-2019
▁Sit	-2020
▁Tel	-2021
▁inç	-2022
▁lez	-2023
▁tal	-2024
▁çev	-2025
▁İyi	-2026
erçev	-2027
lanma	-2028
rafik	-2029
sınız	-2030
yanın	-2031
▁Bilg	-2032
▁Ucuz	-2033
▁adet	-2034
▁asit	-2035
▁dair	-2036
▁edil	-2037
▁eriş	-2038
▁genç	-2039
▁prot	-2040
▁yetk	-2041
▁Çift	-2042
miştir	-2043
mıştır	-2044
▁Görün	-2045
▁Model	-2046
▁Video	-2047
▁araba	-2048
▁aracı	-2049
▁başla	-2050
▁benim	-2051
▁bileş	-2052
▁duvar	-2053
▁düzey	-2054
▁görev	-2055
▁koşul	-2056
▁seviy	-2057
▁sorun	-2058
▁süreç	-2059
▁sürüm	-2060
▁vücut	-2061
▁Amerik	-2062
▁benzer	-2063
▁erişim	-2064
▁içerik	-2065
▁içerir	-2066
▁manzar	-2067
▁teknik	-2068
alarının	-2069
ediğiniz	-2070
▁Antalya	-2071
▁Jenerat	-2072
▁Kişisel	-2073
▁Merkezi	-2074
▁Tasarım	-2075
▁yeniden	-2076
▁Elektrik	-2077
▁Gizlilik	-2078
▁apartman	-2079
▁tedavisi	-2080
▁Havaalanı	-2081
▁araştırma	-2082
▁dakikalık	-2083
▁gerçekten	-2084
▁sayesinde	-2085
▁elektrikli	-2086
▁müşteriler	-2087
▁oluşturmak	-2088
▁Tedarikçiler	-2089
-0	-2090
AP	-2091
uc	-2092
ıb	-2093
ıf	-2094
ech	-2095
fen	-2096
irt	-2097
iss	-2098
itr	-2099
kür	-2100
oks	-2101
sim	-2102
tak	-2103
şap	-2104
▁40	-2105
▁Be	-2106
▁IP	-2107
▁LC	-2108
▁Ma	-2109
▁kö	-2110
▁kı	-2111
▁mu	-2112
▁Ör	-2113
egor	-2114
hrac	-2115
luğu	-2116
lüğü	-2117
uluk	-2118
umuz	-2119
yalı	-2120
üküm	-2121
ımlı	-2122
▁Ger	-2123
▁New	-2124
▁Tam	-2125
▁ayr	-2126
▁boş	-2127
▁det	-2128
▁enf	-2129
▁gar	-2130
▁kit	-2131
▁lam	-2132
▁sın	-2133
▁tat	-2134
▁yal	-2135
▁yel	-2136
ayıcı	-2137
isans	-2138
leyin	-2139
ronik	-2140
unuzu	-2141
ıkama	-2142
▁Arab	-2143
▁Boru	-2144
▁Turk	-2145
▁Uzun	-2146
▁alır	-2147
▁anda	-2148
▁ayrı	-2149
▁emin	-2150
▁form	-2151
▁fren	-2152
▁olun	-2153
▁terc	-2154
▁İçin	-2155
etleme	-2156
ilikon	-2157
lerden	-2158
onomik	-2159
▁Düşük	-2160
▁Küçük	-2161
▁Makin	-2162
▁aktar	-2163
▁bizim	-2164
▁eğlen	-2165
▁kalit	-2166
▁karar	-2167
▁medya	-2168
▁model	-2169
▁seçen	-2170
▁tesis	-2171
▁yaşam	-2172
▁çiçek	-2173
eksiyon	-2174
▁Eğitim	-2175
▁Kaynak	-2176
▁Kızlar	-2177
▁dikkat	-2178
▁döşeme	-2179
▁işaret	-2180
▁teslim	-2181
▁yerine	-2182
dınlatma	-2183
ıştırıcı	-2184
▁Yazılım	-2185
▁biridir	-2186
▁fabrika	-2187
▁istiyor	-2188
▁kaplama	-2189
▁kurutma	-2190
▁malzeme	-2191
▁seçenek	-2192
▁sürekli	-2193
▁çalışır	-2194
lanmıştır	-2195
▁dönüştür	-2196
▁faaliyet	-2197
ezervasyon	-2198
ilmektedir	-2199
▁Parçaları	-2200
▁fonksiyon	-2201
▁konusunda	-2202
▁kullanmak	-2203
▁sunmaktadır	-2204
▁özellikleri	-2205
2)	-2206
99	-2207
OL	-2208
OR	-2209
do	-2210
ou	-2211
▁Q	-2212
▁x	-2213
ARI	-2214
LER	-2215
ein	-2216
ele	-2217
ene	-2218
ink	-2219
ish	-2220
lav	-2221
nız	-2222
ola	-2223
ord	-2224
ows	-2225
ree	-2226
uar	-2227
urg	-2228
▁DV	-2229
▁Da	-2230
▁Ol	-2231
▁iP	-2232
▁un	-2233
▁ıs	-2234
alet	-2235
anta	-2236
etli	-2237
eşil	-2238
izik	-2239
kanı	-2240
mızı	-2241
orat	-2242
tığı	-2243
ıldı	-2244
▁Bağ	-2245
▁CAS	-2246
▁Ded	-2247
▁Dön	-2248
▁Düz	-2249
▁Gal	-2250
▁Kam	-2251
▁Kim	-2252
▁Mer	-2253
▁Str	-2254
▁Val	-2255
▁Yan	-2256
▁boz	-2257
▁des	-2258
▁ett	-2259
▁kel	-2260
▁kök	-2261
▁pil	-2262
▁İlk	-2263
akter	-2264
alara	-2265
ansör	-2266
arken	-2267
iklet	-2268
iğini	-2269
madan	-2270
mamız	-2271
meler	-2272
ortum	-2273
ukarı	-2274
uyucu	-2275
ınızı	-2276
▁Etik	-2277
▁Park	-2278
▁Term	-2279
▁anti	-2280
▁dört	-2281
▁etik	-2282
▁eğit	-2283
▁komp	-2284
akkabı	-2285
hracat	-2286
itness	-2287
iğimiz	-2288
muştur	-2289
ıyoruz	-2290
▁adres	-2291
▁basit	-2292
▁bütün	-2293
▁büyüm	-2294
▁derec	-2295
▁dönüş	-2296
▁hangi	-2297
▁harik	-2298
▁hesab	-2299
▁kayıt	-2300
▁korum	-2301
▁mimar	-2302
▁pazar	-2303
▁resmi	-2304
▁Çiçek	-2305
alarını	-2306
ektörün	-2307
larınız	-2308
▁Kalite	-2309
▁Karbon	-2310
▁akıllı	-2311
▁başarı	-2312
▁enerji	-2313
▁hassas	-2314
▁hayvan	-2315
▁iyileş	-2316
▁küveti	-2317
▁montaj	-2318
▁paylaş	-2319
▁arkadaş	-2320
▁maliyet	-2321
▁minibar	-2322
▁sunuyor	-2323
▁yürüyüş	-2324
▁Standart	-2325
▁dakikada	-2326
▁hastalık	-2327
▁hidrolik	-2328
▁nedeniyle	-2329
▁yerleştir	-2330
▁üzerinden	-2331
▁apartmanları	-2332
▁uluslararası	-2333
-4	-2334
8)	-2335
AT	-2336
ME	-2337
dü	-2338
fa	-2339
yl	-2340
erl	-2341
ile	-2342
inç	-2343
ise	-2344
lif	-2345
lor	-2346
mem	-2347
ner	-2348
rum	-2349
teg	-2350
tığ	-2351
uge	-2352
üne	-2353
▁Ac	-2354
▁Mü	-2355
▁PC	-2356
▁Sa	-2357
▁eg	-2358
▁it	-2359
▁şu	-2360
ayın	-2361
best	-2362
deal	-2363
eyin	-2364
oran	-2365
ümüz	-2366
üncü	-2367
ünüz	-2368
ışın	-2369
▁199	-2370
▁Alt	-2371
▁Amb	-2372
▁Değ	-2373
▁Dün	-2374
▁Ist	-2375
▁Isı	-2376
▁Pir	-2377
▁Say	-2378
▁Tal	-2379
▁Tes	-2380
▁Tüp	-2381
▁Yat	-2382
▁Yıl	-2383
▁baz	-2384
▁biç	-2385
▁dam	-2386
▁din	-2387
▁döv	-2388
▁gaz	-2389
▁hız	-2390
▁sab	-2391
▁sap	-2392
▁tad	-2393
giliz	-2394
imize	-2395
lenir	-2396
lıyor	-2397
neğin	-2398
otans	-2399
ugeot	-2400
▁Bazı	-2401
▁Geri	-2402
▁Kapı	-2403
▁Otom	-2404
▁Prof	-2405
▁Ultr	-2406
▁ayak	-2407
▁cilt	-2408
▁kapı	-2409
▁katı	-2410
▁masa	-2411
▁odak	-2412
▁onay	-2413
▁tipi	-2414
▁önde	-2415
▁öner	-2416
ilecek	-2417
iyoruz	-2418
ıcılar	-2419
▁Beach	-2420
▁alerj	-2421
▁biraz	-2422
▁dokun	-2423
▁gelir	-2424
▁hayat	-2425
▁hedef	-2426
▁hemen	-2427
▁kahve	-2428
▁odası	-2429
▁parça	-2430
▁pişir	-2431
▁sizin	-2432
▁takım	-2433
▁türlü	-2434
▁yapan	-2435
▁yedek	-2436
▁yerde	-2437
▁yorum	-2438
▁çünkü	-2439
alimanı	-2440
dığında	-2441
larıyla	-2442
latform	-2443
leriyle	-2444
ozisyon	-2445
ısından	-2446
▁Basınç	-2447
▁Hassas	-2448
▁Mutfak	-2449
▁Sosyal	-2450
▁bildir	-2451
▁dolayı	-2452
▁hortum	-2453
▁kapsam	-2454
▁makine	-2455
▁mutfak	-2456
▁nerede	-2457
▁sayıda	-2458
▁sayısı	-2459
▁süresi	-2460
▁tercih	-2461
▁yerleş	-2462
▁zengin	-2463
ektronik	-2464
▁Endüstr	-2465
▁Müşteri	-2466
▁Peugeot	-2467
▁ihracat	-2468
▁müşteri	-2469
▁soğutma	-2470
▁Açıklama	-2471
▁gereksin	-2472
▁gerektir	-2473
▁sektörün	-2474
▁sıcaklık	-2475
▁Alüminyum	-2476
▁güvenilir	-2477
▁parçaları	-2478
▁değerlendir	-2479
.4	-2480
1)	-2481
5)	-2482
70	-2483
AC	-2484
AD	-2485
Fi	-2486
OS	-2487
sh	-2488
ux	-2489
uğ	-2490
yı	-2491
İN	-2492
▁)	-2493
alt	-2494
arb	-2495
bol	-2496
bot	-2497
dik	-2498
etr	-2499
ezi	-2500
gıç	-2501
har	-2502
izm	-2503
laj	-2504
lış	-2505
nin	-2506
oji	-2507
osk	-2508
osu	-2509
paz	-2510
tım	-2511
ıvı	-2512
▁22	-2513
▁Fr	-2514
▁Go	-2515
▁Wh	-2516
▁Wi	-2517
▁av	-2518
....	-2519
emir	-2520
erez	-2521
hend	-2522
ilme	-2523
ivil	-2524
manı	-2525
resi	-2526
ress	-2527
taki	-2528
tern	-2529
tion	-2530
ümüş	-2531
▁Adı	-2532
▁Ana	-2533
▁Bah	-2534
▁Bay	-2535
▁Cen	-2536
▁Dev	-2537
▁Dur	-2538
▁Dış	-2539
▁Eur	-2540
▁Hat	-2541
▁Kır	-2542
▁LCD	-2543
▁Mah	-2544
▁Off	-2545
▁Soğ	-2546
▁Tic	-2547
▁buz	-2548
▁dav	-2549
▁hüc	-2550
▁kaç	-2551
▁kok	-2552
▁rağ	-2553
▁şif	-2554
aklar	-2555
deniz	-2556
ediye	-2557
encer	-2558
isine	-2559
mayın	-2560
menin	-2561
nızca	-2562
posta	-2563
seniz	-2564
tifik	-2565
uştur	-2566
▁Lamb	-2567
▁Oyun	-2568
▁Pomp	-2569
▁Rady	-2570
▁amaç	-2571
▁aras	-2572
▁film	-2573
▁kork	-2574
▁onun	-2575
▁otom	-2576
▁spor	-2577
▁yüks	-2578
▁ölçü	-2579
▁şart	-2580
ebilen	-2581
indows	-2582
iyorum	-2583
▁Araba	-2584
▁Diğer	-2585
▁Fiber	-2586
▁Filtr	-2587
▁Fiyat	-2588
▁Stand	-2589
▁anlaş	-2590
▁balat	-2591
▁bebek	-2592
▁beyaz	-2593
▁döküm	-2594
▁eksik	-2595
▁filtr	-2596
▁fırın	-2597
▁hesap	-2598
▁hüküm	-2599
▁kablo	-2600
▁lazer	-2601
▁maden	-2602
▁mesaj	-2603
▁olsun	-2604
▁pompa	-2605
▁tanım	-2606
▁testi	-2607
▁trans	-2608
▁yayın	-2609
▁yumuş	-2610
▁öğret	-2611
ecektir	-2612
▁Alanya	-2613
▁Servis	-2614
▁rağmen	-2615
▁sözleş	-2616
▁tekrar	-2617
▁Silikon	-2618
▁asansör	-2619
▁belirli	-2620
▁düzenli	-2621
▁gereken	-2622
▁yanında	-2623
▁yeterli	-2624
ekorasyon	-2625
otansiyel	-2626
▁Ayakkabı	-2627
▁Uygulama	-2628
▁geçirmez	-2629
▁şehrinde	-2630
▁Tedarikçi	-2631
▁dayanıklı	-2632
▁kullanımı	-2633
▁paslanmaz	-2634
▁teknoloji	-2635
▁almaktadır	-2636
▁balataları	-2637
▁etmektedir	-2638
-5	-2639
3)	-2640
80	-2641
DF	-2642
IS	-2643
PE	-2644
ww	-2645
öv	-2646
üf	-2647
İT	-2648
201	-2649
abl	-2650
arp	-2651
ary	-2652
auç	-2653
can	-2654
det	-2655
düğ	-2656
eff	-2657
ept	-2658
gen	-2659
ger	-2660
kal	-2661
kek	-2662
ker	-2663
kes	-2664
lum	-2665
lus	-2666
min	-2667
oft	-2668
raz	-2669
sat	-2670
sit	-2671
ulo	-2672
ult	-2673
use	-2674
ıma	-2675
▁21	-2676
▁AC	-2677
▁Ab	-2678
▁Dr	-2679
▁Op	-2680
▁US	-2681
▁to	-2682
▁Öğ	-2683
▁öm	-2684
abol	-2685
arit	-2686
ariş	-2687
atik	-2688
ayıf	-2689
emik	-2690
erit	-2691
ilim	-2692
opar	-2693
siye	-2694
umaş	-2695
vuru	-2696
ünün	-2697
ırak	-2698
▁Den	-2699
▁Der	-2700
▁Kan	-2701
▁Kem	-2702
▁Kes	-2703
▁Kit	-2704
▁Lev	-2705
▁Mac	-2706
▁Man	-2707
▁Mat	-2708
▁Mon	-2709
▁Oda	-2710
▁Pak	-2711
▁Sal	-2712
▁Yak	-2713
▁Yüz	-2714
▁ada	-2715
▁doz	-2716
▁for	-2717
▁hak	-2718
▁min	-2719
▁nit	-2720
▁pek	-2721
▁pür	-2722
▁seb	-2723
▁sek	-2724
▁sey	-2725
▁yen	-2726
▁çay	-2727
▁Şiş	-2728
ation	-2729
auçuk	-2730
elere	-2731
ement	-2732
erler	-2733
hotel	-2734
lenen	-2735
leyen	-2736
tarma	-2737
veriş	-2738
▁2016	-2739
▁Alaş	-2740
▁Ayak	-2741
▁Host	-2742
▁Kayı	-2743
▁Malz	-2744
▁Veri	-2745
▁ayır	-2746
▁beri	-2747
▁bilm	-2748
▁eski	-2749
▁etki	-2750
▁imal	-2751
▁kişi	-2752
▁seks	-2753
▁ster	-2754
▁tarz	-2755
▁tren	-2756
▁uyum	-2757
▁ödem	-2758
ipariş	-2759
iğinde	-2760
liğini	-2761
ulması	-2762
▁Apart	-2763
▁Aşağı	-2764
▁Bebek	-2765
▁Erkek	-2766
▁aktiv	-2767
▁amacı	-2768
▁etkil	-2769
▁gider	-2770
▁grubu	-2771
▁kesin	-2772
▁konuş	-2773
▁mobil	-2774
▁olası	-2775
▁sahne	-2776
▁talep	-2777
▁yarar	-2778
▁yarış	-2779
▁yavaş	-2780
▁ödeme	-2781
avantaj	-2782
isiklet	-2783
uvarlak	-2784
▁Destek	-2785
▁Teknik	-2786
▁Turkey	-2787
▁garant	-2788
▁hiçbir	-2789
▁kaldır	-2790
▁lisans	-2791
▁ticari	-2792
▁toptan	-2793
▁yelpaz	-2794
▁üçüncü	-2795
elerinde	-2796
ılmıştır	-2797
▁Ambalaj	-2798
▁Görüntü	-2799
▁değişik	-2800
▁kuruluş	-2801
▁oldukça	-2802
▁olmadan	-2803
▁sorumlu	-2804
▁yapılır	-2805
▁yönetim	-2806
▁İngiliz	-2807
layabilir	-2808
▁alanında	-2809
▁anlamına	-2810
▁arabayla	-2811
▁başarılı	-2812
▁ekonomik	-2813
▁iletişim	-2814
▁numarası	-2815
▁platform	-2816
▁yalnızca	-2817
▁aşağıdaki	-2818
▁iyileştir	-2819
▁olmalıdır	-2820
▁Havalimanı	-2821
▁Jeneratörü	-2822
▁bilgisayar	-2823
▁mesafesinde	-2824
▁Üniversiteli	-2825
▁sunulmaktadır	-2826
.2	-2827
11	-2828
16	-2829
32	-2830
4)	-2831
AY	-2832
IA	-2833
OT	-2834
PC	-2835
RO	-2836
ew	-2837
fi	-2838
gü	-2839
io	-2840
ji	-2841
ars	-2842
gin	-2843
ial	-2844
laç	-2845
lev	-2846
lot	-2847
lüt	-2848
mos	-2849
olf	-2850
out	-2851
ova	-2852
par	-2853
rom	-2854
ser	-2855
uel	-2856
uğu	-2857
yaf	-2858
▁Ah	-2859
▁Bl	-2860
▁Ge	-2861
▁ce	-2862
▁ef	-2863
▁ey	-2864
▁id	-2865
▁ip	-2866
▁uç	-2867
▁üy	-2868
▁İs	-2869
adın	-2870
amız	-2871
apon	-2872
apor	-2873
ator	-2874
cort	-2875
illa	-2876
inci	-2877
kara	-2878
lenm	-2879
ojen	-2880
otos	-2881
ozit	-2882
sten	-2883
stil	-2884
ömür	-2885
ülat	-2886
üstü	-2887
ıtma	-2888
▁Bul	-2889
▁Cas	-2890
▁Cih	-2891
▁Con	-2892
▁Gaz	-2893
▁Geç	-2894
▁Haf	-2895
▁Hay	-2896
▁Nok	-2897
▁Pet	-2898
▁Sep	-2899
▁Sev	-2900
▁Tat	-2901
▁Ter	-2902
▁erk	-2903
▁içi	-2904
▁kez	-2905
▁kli	-2906
▁lüt	-2907
▁mağ	-2908
▁onu	-2909
▁raf	-2910
▁sig	-2911
▁str	-2912
▁tuv	-2913
▁Üst	-2914
▁çağ	-2915
dolab	-2916
edeni	-2917
effaf	-2918
lanık	-2919
losuz	-2920
lıkla	-2921
oparl	-2922
simum	-2923
sunuz	-2924
ultan	-2925
ışman	-2926
▁Araç	-2927
▁Ağır	-2928
▁Genç	-2929
▁Seks	-2930
▁Spor	-2931
▁alma	-2932
▁alış	-2933
▁anal	-2934
▁arka	-2935
▁bize	-2936
▁bunu	-2937
▁doku	-2938
▁doğr	-2939
▁geld	-2940
▁grup	-2941
▁gücü	-2942
▁kuru	-2943
▁serv	-2944
▁uyar	-2945
▁verm	-2946
▁yolu	-2947
▁şabl	-2948
▁şarj	-2949
aciğer	-2950
asının	-2951
ayılan	-2952
elerde	-2953
hendis	-2954
maları	-2955
olojik	-2956
örleri	-2957
▁Boyut	-2958
▁Geniş	-2959
▁Kadın	-2960
▁Kayıt	-2961
▁Siyah	-2962
▁Trans	-2963
▁birey	-2964
▁dağıt	-2965
▁geçiş	-2966
▁görüş	-2967
▁hasta	-2968
▁ideal	-2969
▁içine	-2970
▁işbir	-2971
▁kamer	-2972
▁kağıt	-2973
▁kurum	-2974
▁seçim	-2975
▁sivil	-2976
▁siyah	-2977
▁tarım	-2978
▁taşıy	-2979
▁örnek	-2980
▁İnsan	-2981
▁şimdi	-2982
acaktır	-2983
asından	-2984
diğiniz	-2985
elerini	-2986
layarak	-2987
ungsten	-2988
▁Birleş	-2989
▁Fabrik	-2990
▁Online	-2991
▁Renkli	-2992
▁Sandal	-2993
▁arttır	-2994
▁düzelt	-2995
▁escort	-2996
▁gerekt	-2997
▁haline	-2998
▁inşaat	-2999
▁işlemi	-3000
▁lütfen	-3001
▁online	-3002
▁oturma	-3003
▁reklam	-3004
▁sürücü	-3005
▁tutmak	-3006
▁yukarı	-3007
▁ölçüde	-3008
▁ısıtma	-3009
larınızı	-3010
▁Kontrol	-3011
▁Oteller	-3012
▁Windows	-3013
▁deneyim	-3014
▁durumda	-3015
▁eğitimi	-3016
▁geçerli	-3017
▁kişilik	-3018
▁otelden	-3019
▁popüler	-3020
▁ticaret	-3021
▁yetenek	-3022
▁Güvenlik	-3023
▁Istanbul	-3024
▁Kaliteli	-3025
▁Makinası	-3026
▁Silindir	-3027
▁buzdolab	-3028
▁edebilir	-3029
▁gösterir	-3030
▁kaldırma	-3031
▁kontrolü	-3032
▁kullanır	-3033
▁parçalar	-3034
▁sağlayan	-3035
▁sağlıklı	-3036
▁tıklayın	-3037
▁yaklaşık	-3038
▁yılından	-3039
▁alüminyum	-3040
▁açısından	-3041
▁durumunda	-3042
▁arasındaki	-3043
▁çalışmalar	-3044
▁Endüstriyel	-3045
▁Taşınabilir	-3046
▁Uluslararası	-3047
▁Üniversitesi	-3048
,5	-3049
04	-3050
35	-3051
54	-3052
AK	-3053
EC	-3054
IM	-3055
KU	-3056
SS	-3057
UN	-3058
ex	-3059
ml	-3060
oh	-3061
ym	-3062
İK	-3063
İR	-3064
ame	-3065
biy	-3066
div	-3067
enz	-3068
enç	-3069
ima	-3070
jik	-3071
lağ	-3072
lec	-3073
lex	-3074
mal	-3075
mar	-3076
mer	-3077
müş	-3078
nun	-3079
off	-3080
oin	-3081
pit	-3082
ref	-3083
rey	-3084
rip	-3085
sen	-3086
ses	-3087
ton	-3088
ube	-3089
udi	-3090
ure	-3091
urt	-3092
▁AN	-3093
▁Ed	-3094
▁Gö	-3095
▁Mu	-3096
▁ab	-3097
▁ac	-3098
.000	-3099
aten	-3100
burg	-3101
emek	-3102
ence	-3103
eton	-3104
glas	-3105
iğin	-3106
keri	-3107
okak	-3108
olar	-3109
olum	-3110
onel	-3111
ptop	-3112
rama	-3113
ustr	-3114
ıfır	-3115
▁App	-3116
▁Art	-3117
▁But	-3118
▁Cor	-3119
▁Dan	-3120
▁Döv	-3121
▁Fot	-3122
▁Hal	-3123
▁Kah	-3124
▁Led	-3125
▁May	-3126
▁Mic	-3127
▁PDF	-3128
▁Pay	-3129
▁Raf	-3130
▁Sab	-3131
▁Yaz	-3132
▁Yağ	-3133
▁Yer	-3134
▁amb	-3135
▁diz	-3136
▁gez	-3137
▁key	-3138
▁köp	-3139
▁kıl	-3140
▁lev	-3141
▁mac	-3142
▁mar	-3143
▁muk	-3144
▁mut	-3145
▁sen	-3146
▁soy	-3147
▁tep	-3148
▁ton	-3149
▁tüp	-3150
▁vak	-3151
▁www	-3152
▁Çek	-3153
▁çiz	-3154
▁Şek	-3155
▁şiş	-3156
▁şüp	-3157
Harit	-3158
acker	-3159
ağıdı	-3160
eketi	-3161
esign	-3162
ganik	-3163
isini	-3164
kiler	-3165
linik	-3166
lıklı	-3167
meniz	-3168
metik	-3169
odrum	-3170
sijen	-3171
yacak	-3172
▁2017	-3173
▁Anti	-3174
▁Bölg	-3175
▁City	-3176
▁Euro	-3177
▁Grup	-3178
▁Orta	-3179
▁Tipi	-3180
▁alaş	-3181
▁blog	-3182
▁dost	-3183
▁eden	-3184
▁hale	-3185
▁hiss	-3186
▁kamu	-3187
▁klas	-3188
▁kısa	-3189
▁kısm	-3190
▁lezz	-3191
▁lüks	-3192
▁madd	-3193
▁mavi	-3194
▁olab	-3195
▁olac	-3196
▁oldu	-3197
▁oper	-3198
▁pant	-3199
▁plak	-3200
▁prob	-3201
▁pros	-3202
▁risk	-3203
▁yazı	-3204
▁Çevr	-3205
▁İkin	-3206
amalar	-3207
enleri	-3208
eribot	-3209
ijinal	-3210
imizin	-3211
isidir	-3212
liliği	-3213
meleri	-3214
ınızda	-3215
▁Doğal	-3216
▁Duvar	-3217
▁Giriş	-3218
▁Güneş	-3219
▁Hızlı	-3220
▁Panel	-3221
▁artış	-3222
▁bilet	-3223
▁bilin	-3224
▁bunun	-3225
▁bırak	-3226
▁delik	-3227
▁derin	-3228
▁dosya	-3229
▁dönem	-3230
▁erkek	-3231
▁havuz	-3232
▁hayal	-3233
▁iklim	-3234
▁incel	-3235
▁kalıp	-3236
▁karma	-3237
▁köpek	-3238
▁monit	-3239
▁sanat	-3240
▁sınır	-3241
▁taban	-3242
▁veren	-3243
▁verim	-3244
▁verir	-3245
▁vücud	-3246
▁zarar	-3247
▁Çubuk	-3248
▁çerez	-3249
▁İşlem	-3250
▁şerit	-3251
iziksel	-3252
likleri	-3253
oparlör	-3254
ozmetik	-3255
▁Bildir	-3256
▁Kauçuk	-3257
▁Lastik	-3258
▁Serisi	-3259
▁Sultan	-3260
▁alacak	-3261
▁eğlenc	-3262
▁günlük	-3263
▁harika	-3264
▁herkes	-3265
▁işleme	-3266
▁kimlik	-3267
▁konfor	-3268
▁laptop	-3269
▁normal	-3270
▁sahibi	-3271
▁sektör	-3272
▁tespit	-3273
▁toprak	-3274
▁yanlış	-3275
▁yoktur	-3276
Haritayı	-3277
abilecek	-3278
ebileceğ	-3279
esindeki	-3280
lamaları	-3281
lerinizi	-3282
▁Amerika	-3283
▁Anahtar	-3284
▁Dijital	-3285
▁Fitness	-3286
▁Kategor	-3287
▁Mobilya	-3288
▁bunları	-3289
▁görünüm	-3290
▁güvenli	-3291
▁kaynağı	-3292
▁kolayca	-3293
▁kurulum	-3294
▁serbest	-3295
▁yatırım	-3296
▁zorunda	-3297
▁Üretici	-3298
▁çapında	-3299
▁Kimyasal	-3300
▁banyolar	-3301
▁etkileri	-3302
▁karakter	-3303
▁programı	-3304
▁seçeneği	-3305
▁tarayıcı	-3306
▁tasarımı	-3307
▁tedarikç	-3308
▁verileri	-3309
▁çalışmak	-3310
▁üretilen	-3311
▁benzersiz	-3312
▁birleştir	-3313
▁gerekiyor	-3314
▁oluşturur	-3315
▁ürünlerin	-3316
▁hassasiyet	-3317
▁odalarında	-3318
▁potansiyel	-3319
▁özellikler	-3320
▁taşınabilir	-3321
▁üreticileri	-3322
▁sağlamaktadır	-3323
1,	-3324
25	-3325
6)	-3326
AM	-3327
BA	-3328
LE	-3329
TD	-3330
US	-3331
dl	-3332
ks	-3333
ry	-3334
ENİ	-3335
ade	-3336
ane	-3337
app	-3338
ata	-3339
avi	-3340
ber	-3341
dll	-3342
dra	-3343
ebo	-3344
eci	-3345
ect	-3346
ena	-3347
ert	-3348
eğe	-3349
fat	-3350
ick	-3351
ith	-3352
kil	-3353
kın	-3354
lap	-3355
lob	-3356
ock	-3357
oda	-3358
ool	-3359
rop	-3360
ruf	-3361
son	-3362
tin	-3363
tör	-3364
uşu	-3365
yap	-3366
yse	-3367
üny	-3368
ığı	-3369
▁(5	-3370
▁3.	-3371
▁45	-3372
▁Di	-3373
▁GT	-3374
▁PE	-3375
▁PP	-3376
▁Pi	-3377
▁SA	-3378
▁ah	-3379
▁Üc	-3380
-100	-3381
acağ	-3382
agaj	-3383
alya	-3384
alığ	-3385
anım	-3386
coin	-3387
dana	-3388
duğu	-3389
ediy	-3390
emel	-3391
emez	-3392
epçe	-3393
etre	-3394
ibar	-3395
irli	-3396
iyon	-3397
kürt	-3398
oliz	-3399
olog	-3400
rist	-3401
tada	-3402
tain	-3403
tası	-3404
tere	-3405
uluğ	-3406
ıbbi	-3407
ırma	-3408
ıyla	-3409
▁Ark	-3410
▁Col	-3411
▁DVD	-3412
▁Diz	-3413
▁Don	-3414
▁Düğ	-3415
▁Gar	-3416
▁Göz	-3417
▁Ham	-3418
▁Kas	-3419
▁Kaz	-3420
▁Kil	-3421
▁Kul	-3422
▁Lab	-3423
▁Lim	-3424
▁Mes	-3425
▁Mil	-3426
▁Net	-3427
▁OEM	-3428
▁Pal	-3429
▁Ray	-3430
▁Rek	-3431
▁Sel	-3432
▁Ses	-3433
▁Söz	-3434
▁Tah	-3435
▁bıç	-3436
▁cev	-3437
▁cin	-3438
▁cüz	-3439
▁evc	-3440
▁fik	-3441
▁kav	-3442
▁kaş	-3443
▁kul	-3444
▁kür	-3445
▁lab	-3446
▁lok	-3447
▁mor	-3448
▁piy	-3449
▁ruh	-3450
▁siz	-3451
▁süp	-3452
▁süs	-3453
▁sız	-3454
▁the	-3455
▁yas	-3456
▁Çap	-3457
▁örn	-3458
▁İlg	-3459
acebo	-3460
cilik	-3461
cılık	-3462
ediği	-3463
ehlik	-3464
enizi	-3465
estiv	-3466
eğine	-3467
iliği	-3468
landı	-3469
luluk	-3470
ograd	-3471
tegre	-3472
ulman	-3473
umsuz	-3474
utucu	-3475
valtı	-3476
ünden	-3477
üzyon	-3478
▁2013	-3479
▁Asit	-3480
▁Goji	-3481
▁Kart	-3482
▁List	-3483
▁Tech	-3484
▁Test	-3485
▁Yapı	-3486
▁aile	-3487
▁amac	-3488
▁ağrı	-3489
▁benz	-3490
▁günü	-3491
▁iddi	-3492
▁olağ	-3493
▁onar	-3494
▁suyu	-3495
▁süre	-3496
▁sıvı	-3497
▁tozu	-3498
▁türü	-3499
▁unut	-3500
▁uzak	-3501
▁İlaç	-3502
asonik	-3503
dıktan	-3504
dından	-3505
emizde	-3506
erince	-3507
igment	-3508
ildiği	-3509
lenmiş	-3510
lığını	-3511
mesine	-3512
üskürt	-3513
▁Berry	-3514
▁Dayan	-3515
▁Dünya	-3516
▁Güzel	-3517
▁Hafif	-3518
▁Hattı	-3519
▁Havuz	-3520
▁Japon	-3521
▁Kemer	-3522
▁Kirov	-3523
▁Köpek	-3524
▁Sınıf	-3525
▁aktif	-3526
▁altın	-3527
▁azalt	-3528
▁aşırı	-3529
▁bakır	-3530
▁balık	-3531
▁basın	-3532
▁bağım	-3533
▁biçim	-3534
▁deniz	-3535
▁detay	-3536
▁efekt	-3537
▁evcil	-3538
▁gümüş	-3539
▁işlev	-3540
▁kalan	-3541
▁kapas	-3542
▁karış	-3543
▁kenar	-3544
▁korun	-3545
▁madde	-3546
▁maruz	-3547
▁masaj	-3548
▁mağaz	-3549
▁meyve	-3550
▁mikro	-3551
▁onlar	-3552
▁optik	-3553
▁soğuk	-3554
▁yapıl	-3555
▁zaten	-3556
▁zayıf	-3557
▁Ücret	-3558
▁çanta	-3559
▁ürünü	-3560
acebook	-3561
aksiyon	-3562
duğunuz	-3563
ebilmek	-3564
elerine	-3565
ersonel	-3566
ilendir	-3567
letleri	-3568
uşturma	-3569
▁Ankara	-3570
▁Burada	-3571
▁Gerçek	-3572
▁Günlük	-3573
▁Kapalı	-3574
▁Müşter	-3575
▁Otelin	-3576
▁bakter	-3577
▁başına	-3578
▁birbir	-3579
▁birden	-3580
▁dalgıç	-3581
▁durumu	-3582
▁edildi	-3583
▁etiket	-3584
▁fırsat	-3585
▁grafik	-3586
▁görmek	-3587
▁iPhone	-3588
▁içeren	-3589
▁kapalı	-3590
▁katman	-3591
▁kombin	-3592
▁nedeni	-3593
▁onları	-3594
▁oyuncu	-3595
▁profil	-3596
▁renkli	-3597
▁sigara	-3598
▁yapısı	-3599
▁Çerçev	-3600
▁şeffaf	-3601
alarımız	-3602
oratuvar	-3603
▁Kırmızı	-3604
▁Politik	-3605
▁Telefon	-3606
▁Tracker	-3607
▁Yönetim	-3608
▁avantaj	-3609
▁ilişkin	-3610
▁isteyen	-3611
▁katılım	-3612
▁korumak	-3613
▁listesi	-3614
▁olumsuz	-3615
▁problem	-3616
▁verilen	-3617
▁verimli	-3618
▁yenilik	-3619
▁üretimi	-3620
lenebilir	-3621
leyebilir	-3622
▁Basınçlı	-3623
▁Kullanım	-3624
▁Mükemmel	-3625
▁Sertifik	-3626
▁Standoff	-3627
▁Terminal	-3628
▁dünyanın	-3629
▁esneklik	-3630
▁gelişmiş	-3631
▁genişlet	-3632
▁insanlar	-3633
▁koruyucu	-3634
▁kullanın	-3635
▁kurtarma	-3636
▁miktarda	-3637
▁pantolon	-3638
▁yoğunluk	-3639
▁özelliği	-3640
▁şehrinin	-3641
▁Dedektörü	-3642
▁Fiberglas	-3643
▁alışveriş	-3644
▁karaciğer	-3645
▁yapabilir	-3646
▁önemlidir	-3647
▁İngilizce	-3648
▁Aydınlatma	-3649
▁Kirovograd	-3650
▁durumlarda	-3651
▁malzemeler	-3652
▁olduğundan	-3653
▁endüstriyel	-3654
▁istediğiniz	-3655
▁uygulamalar	-3656
▁istiyorsanız	-3657
▁uygulamaları	-3658
):	-3659
.:	-3660
84	-3661
AZ	-3662
Ap	-3663
IF	-3664
IL	-3665
IT	-3666
PA	-3667
PN	-3668
TH	-3669
TI	-3670
UL	-3671
fı	-3672
go	-3673
ix	-3674
ku	-3675
ky	-3676
pa	-3677
sm	-3678
ug	-3679
ər	-3680
ESİ	-3681
add	-3682
dar	-3683
ekn	-3684
epe	-3685
ere	-3686
eto	-3687
ezg	-3688
kon	-3689
laz	-3690
lib	-3691
our	-3692
own	-3693
yac	-3694
ült	-3695
şun	-3696
▁2.	-3697
▁26	-3698
▁27	-3699
▁60	-3700
▁DC	-3701
▁Ho	-3702
▁Hy	-3703
▁PL	-3704
▁Ph	-3705
▁RF	-3706
▁SS	-3707
▁Sw	-3708
▁Un	-3709
▁fr	-3710
▁Şu	-3711
abet	-3712
acık	-3713
aken	-3714
akit	-3715
amaş	-3716
arbe	-3717
ates	-3718
avem	-3719
ekiç	-3720
elat	-3721
enci	-3722
erse	-3723
ezik	-3724
iyer	-3725
kesi	-3726
ladı	-3727
lası	-3728
lent	-3729
liye	-3730
meli	-3731
ogle	-3732
otiv	-3733
roup	-3734
taur	-3735
ünür	-3736
ılma	-3737
ınma	-3738
▁120	-3739
▁500	-3740
▁ABD	-3741
▁Böy	-3742
▁Dök	-3743
▁Eyl	-3744
▁Far	-3745
▁Has	-3746
▁Hol	-3747
▁Hız	-3748
▁Kor	-3749
▁Len	-3750
▁Lin	-3751
▁Med	-3752
▁Pan	-3753
▁Por	-3754
▁Sar	-3755
▁Saç	-3756
▁Sch	-3757
▁Sil	-3758
▁Süp	-3759
▁Sık	-3760
▁Van	-3761
▁Vüc	-3762
▁WPC	-3763
▁Yük	-3764
▁and	-3765
▁arz	-3766
▁beb	-3767
▁bon	-3768
▁bor	-3769
▁but	-3770
▁can	-3771
▁cep	-3772
▁del	-3773
▁dol	-3774
▁gem	-3775
▁git	-3776
▁hey	-3777
▁hoş	-3778
▁küt	-3779
▁mem	-3780
▁mol	-3781
▁mus	-3782
▁reh	-3783
▁reç	-3784
▁rol	-3785
▁sem	-3786
▁tas	-3787
▁val	-3788
▁vid	-3789
▁Çöz	-3790
▁Önc	-3791
▁İki	-3792
ading	-3793
aktör	-3794
atıcı	-3795
ağını	-3796
cılar	-3797
cının	-3798
eceği	-3799
eleme	-3800
emesi	-3801
ester	-3802
imizi	-3803
incir	-3804
inize	-3805
işmiş	-3806
layıp	-3807
makta	-3808
meyen	-3809
niyet	-3810
ogrid	-3811
opark	-3812
unuza	-3813
vaniz	-3814
ültür	-3815
▁2012	-3816
▁Bunu	-3817
▁Ekim	-3818
▁Gran	-3819
▁Komp	-3820
▁Mark	-3821
▁Poli	-3822
▁Port	-3823
▁Rulo	-3824
▁Sens	-3825
▁akım	-3826
▁akış	-3827
▁aşam	-3828
▁belg	-3829
▁büny	-3830
▁deng	-3831
▁depo	-3832
▁edeb	-3833
▁eğer	-3834
▁inan	-3835
▁kayb	-3836
▁kötü	-3837
▁lamb	-3838
▁muht	-3839
▁seri	-3840
▁söyl	-3841
▁vars	-3842
▁yine	-3843
▁Şarj	-3844
amster	-3845
atılık	-3846
elikle	-3847
esiyle	-3848
inizde	-3849
isiniz	-3850
lardır	-3851
latıcı	-3852
lıklar	-3853
manıza	-3854
rosoft	-3855
sesuar	-3856
ısınız	-3857
▁Ahşap	-3858
▁Alman	-3859
▁Baskı	-3860
▁Dokun	-3861
▁Doğru	-3862
▁Gizli	-3863
▁Güçlü	-3864
▁Haber	-3865
▁Kapas	-3866
▁Kömür	-3867
▁Mekan	-3868
▁Onlar	-3869
▁Ortak	-3870
▁Perde	-3871
▁Proje	-3872
▁Sonuç	-3873
▁Taban	-3874
▁Temiz	-3875
▁ahşap	-3876
▁alıcı	-3877
▁arama	-3878
▁başar	-3879
▁bugün	-3880
▁canlı	-3881
▁cevap	-3882
▁dostu	-3883
▁etraf	-3884
▁gelec	-3885
▁hakkı	-3886
▁imkan	-3887
▁kalma	-3888
▁katlı	-3889
▁levha	-3890
▁metro	-3891
▁monte	-3892
▁odada	-3893
▁orada	-3894
▁pürüz	-3895
▁senin	-3896
▁yapıs	-3897
▁yeten	-3898
▁yeşil	-3899
▁çubuk	-3900
▁çıkan	-3901
▁çıkış	-3902
▁ölçüm	-3903
▁İndir	-3904
▁Şimdi	-3905
eferans	-3906
esinden	-3907
ülasyon	-3908
ışıklık	-3909
▁Design	-3910
▁Enerji	-3911
▁Google	-3912
▁Hotels	-3913
▁Makine	-3914
▁Modern	-3915
▁Otelde	-3916
▁Sanayi	-3917
▁Tekerl	-3918
▁cihazı	-3919
▁cüzdan	-3920
▁geçmiş	-3921
▁imkanı	-3922
▁itibar	-3923
▁içecek	-3924
▁kağıdı	-3925
▁olmaya	-3926
▁pencer	-3927
▁sanayi	-3928
▁sağlan	-3929
▁serisi	-3930
▁sinyal	-3931
▁sonsuz	-3932
▁tarama	-3933
▁teklif	-3934
▁terası	-3935
▁varlık	-3936
▁yıkama	-3937
▁çerçev	-3938
▁İlgili	-3939
▁Şirket	-3940
landırma	-3941
larımıza	-3942
lerinden	-3943
▁Geogrid	-3944
▁Hareket	-3945
▁Malzeme	-3946
▁Misafir	-3947
▁Oksijen	-3948
▁Piroliz	-3949
▁Restaur	-3950
▁azaltır	-3951
▁bağlant	-3952
▁bileşen	-3953
▁değerli	-3954
▁dijital	-3955
▁dışında	-3956
▁etkiley	-3957
▁gelişim	-3958
▁girişim	-3959
▁içeriği	-3960
▁onların	-3961
▁organik	-3962
▁restore	-3963
▁tavsiye	-3964
▁yöntemi	-3965
▁zamanlı	-3966
larındaki	-3967
▁Birleşik	-3968
▁Facebook	-3969
▁Kaynakçı	-3970
▁Resimler	-3971
▁Sandalye	-3972
▁alabilir	-3973
▁bireysel	-3974
▁bisiklet	-3975
▁deneyimi	-3976
▁fiziksel	-3977
▁havaalan	-3978
▁kalitesi	-3979
▁karmaşık	-3980
▁kolaydır	-3981
▁konforlu	-3982
▁maksimum	-3983
▁mühendis	-3984
▁olmasını	-3985
▁otelleri	-3986
▁personel	-3987
▁pozisyon	-3988
▁restoran	-3989
▁silindir	-3990
▁tasarruf	-3991
▁yerleşim	-3992
▁Çocuklar	-3993
▁çocuklar	-3994
▁çıkarmak	-3995
▁Dayanıklı	-3996
▁bulabilir	-3997
▁buzdolabı	-3998
▁fiyatları	-3999
▁istasyonu	-4000
▁işbirliği	-4001
▁neredeyse	-4002
▁operasyon	-4003
▁sağlayıcı	-4004
▁belirtilen	-4005
▁elektronik	-4006
▁kalitesini	-4007
▁karşılamak	-4008
▁olmadığını	-4009
▁yöntemleri	-4010
▁Özellikler	-4011
▁özelleştir	-4012
▁öğrenciler	-4013
▁üzerindeki	-4014
▁Rezervasyon	-4015
▁malzemeleri	-4016
▁rezervasyon	-4017
▁tasarlanmış	-4018
▁teknolojisi	-4019
▁vermektedir	-4020
▁ulaşılabilir	-4021
▁alabilirsiniz	-4022
▁görebilirsiniz	-4023
▁tasarlanmıştır	-4024
-6	-4025
.)	-4026
.8	-4027
15	-4028
17	-4029
19	-4030
22	-4031
24	-4032
31	-4033
33	-4034
40	-4035
8.	-4036
83	-4037
BC	-4038
DA	-4039
DM	-4040
EO	-4041
OD	-4042
UM	-4043
hi	-4044
ii	-4045
je	-4046
nö	-4047
oo	-4048
rü	-4049
so	-4050
ago	-4051
ahi	-4052
amı	-4053
ano	-4054
bit	-4055
dat	-4056
değ	-4057
duc	-4058
eco	-4059
ema	-4060
esk	-4061
ete	-4062
eth	-4063
eyz	-4064
eşf	-4065
gar	-4066
her	-4067
ies	-4068
kol	-4069
luğ	-4070
mir	-4071
mut	-4072
per	-4073
rat	-4074
ray	-4075
rib	-4076
sch	-4077
sil	-4078
süz	-4079
tık	-4080
uan	-4081
udu	-4082
uvv	-4083
üyü	-4084
üzü	-4085
ıza	-4086
şam	-4087
şiv	-4088
▁4.	-4089
▁AH	-4090
▁AP	-4091
▁Af	-4092
▁Az	-4093
▁Eş	-4094
▁IS	-4095
▁KO	-4096
▁Me	-4097
▁Mo	-4098
▁Re	-4099
▁VE	-4100
▁cm	-4101
▁eb	-4102
▁mi	-4103
▁uğ	-4104
,000	-4105
Daha	-4106
aban	-4107
adığ	-4108
akat	-4109
amaz	-4110
ansı	-4111
asız	-4112
ayet	-4113
bini	-4114
edür	-4115
eman	-4116
enen	-4117
engi	-4118
esiz	-4119
feri	-4120
ical	-4121
iddi	-4122
ildi	-4123
imer	-4124
lack	-4125
land	-4126
lash	-4127
leks	-4128
obüs	-4129
orba	-4130
rada	-4131
ramı	-4132
star	-4133
teki	-4134
tral	-4135
umar	-4136
urun	-4137
uzey	-4138
önil	-4139
ülen	-4140
üzik	-4141
▁150	-4142
▁AST	-4143
▁Ama	-4144
▁Ban	-4145
▁Bun	-4146
▁Cad	-4147
▁Cal	-4148
▁Cat	-4149
▁Com	-4150
▁Cum	-4151
▁Dec	-4152
▁Dep	-4153
▁Dir	-4154
▁Duy	-4155
▁Fin	-4156
▁Giy	-4157
▁Hem	-4158
▁Hig	-4159
▁Inn	-4160
▁Jun	-4161
▁KAL	-4162
▁Kav	-4163
▁Ken	-4164
▁Kut	-4165
▁LIN	-4166
▁LTD	-4167
▁Laz	-4168
▁Lit	-4169
▁Lon	-4170
▁Rus	-4171
▁Sah	-4172
▁Sig	-4173
▁Tor	-4174
▁Vak	-4175
▁Win	-4176
▁Yal	-4177
▁Yet	-4178
▁Yol	-4179
▁ant	-4180
▁bat	-4181
▁bec	-4182
▁biy	-4183
▁cas	-4184
▁day	-4185
▁dağ	-4186
▁doy	-4187
▁ele	-4188
▁esn	-4189
▁gal	-4190
▁güc	-4191
▁ham	-4192
▁haz	-4193
▁hep	-4194
▁hip	-4195
▁kod	-4196
▁kıy	-4197
▁led	-4198
▁nem	-4199
▁nes	-4200
▁pas	-4201
▁sim	-4202
▁soh	-4203
▁suy	-4204
▁süt	-4205
▁tır	-4206
▁vad	-4207
▁vur	-4208
▁yiy	-4209
▁çab	-4210
▁çat	-4211
▁ışı	-4212
▁şah	-4213
▁şar	-4214
angın	-4215
dalga	-4216
durma	-4217
edeki	-4218
emize	-4219
emizi	-4220
enize	-4221
eveyn	-4222
ideos	-4223
ilere	-4224
imini	-4225
lavuz	-4226
limat	-4227
linde	-4228
lobal	-4229
lında	-4230
maris	-4231
ograf	-4232
ology	-4233
osfat	-4234
ülörü	-4235
ımızı	-4236
ırlar	-4237
▁2008	-4238
▁Atık	-4239
▁Ayar	-4240
▁Aynı	-4241
▁Benz	-4242
▁Blen	-4243
▁Dair	-4244
▁Dern	-4245
▁Ekst	-4246
▁Eski	-4247
▁Film	-4248
▁Free	-4249
▁Fren	-4250
▁Golf	-4251
▁Hint	-4252
▁Inst	-4253
▁Kodu	-4254
▁Mach	-4255
▁Plan	-4256
▁Ster	-4257
▁Tüpü	-4258
▁Vana	-4259
▁Yani	-4260
▁York	-4261
▁algı	-4262
▁bana	-4263
▁başk	-4264
▁blok	-4265
▁doğa	-4266
▁fayd	-4267
▁halk	-4268
▁horm	-4269
▁hücr	-4270
▁ince	-4271
▁koyu	-4272
▁kurs	-4273
▁kutu	-4274
▁kuvv	-4275
▁mutf	-4276
▁ofis	-4277
▁okul	-4278
▁orta	-4279
▁sarı	-4280
▁sizi	-4281
▁çarp	-4282
▁ödül	-4283
▁İnce	-4284
▁İtal	-4285
akende	-4286
akları	-4287
amaşır	-4288
ağının	-4289
ekteki	-4290
ethiye	-4291
lemeyi	-4292
menizi	-4293
mosyon	-4294
undaki	-4295
ülmesi	-4296
▁Benim	-4297
▁Buhar	-4298
▁Dişli	-4299
▁Dolum	-4300
▁Düğün	-4301
▁Ekstr	-4302
▁Excel	-4303
▁Eylül	-4304
▁Group	-4305
▁Kartı	-4306
▁Kesme	-4307
▁Masaj	-4308
▁Nasıl	-4309
▁Pazar	-4310
▁Premi	-4311
▁Takip	-4312
▁Tarih	-4313
▁Tavan	-4314
▁Tedav	-4315
▁Yatak	-4316
▁Zaman	-4317
▁araya	-4318
▁bagaj	-4319
▁bahçe	-4320
▁barın	-4321
▁baskı	-4322
▁bazen	-4323
▁bilim	-4324
▁bonus	-4325
▁bozuk	-4326
▁ciddi	-4327
▁demir	-4328
▁doğum	-4329
▁ekstr	-4330
▁etmiş	-4331
▁eylem	-4332
▁fiber	-4333
▁firma	-4334
▁giyin	-4335
▁haber	-4336
▁hatta	-4337
▁havlu	-4338
▁ilişk	-4339
▁ister	-4340
▁kemik	-4341
▁kesme	-4342
▁komut	-4343
▁kumaş	-4344
▁lider	-4345
▁marka	-4346
▁oranı	-4347
▁otele	-4348
▁panel	-4349
▁piyas	-4350
▁rapor	-4351
▁resim	-4352
▁sabah	-4353
▁saniy	-4354
▁savaş	-4355
▁sebep	-4356
▁sefer	-4357
▁tatil	-4358
▁yapma	-4359
▁yapış	-4360
▁yerel	-4361
▁zehir	-4362
▁Çeşit	-4363
▁Öğren	-4364
▁çekiç	-4365
▁çevre	-4366
▁Şekil	-4367
▁Şönil	-4368
eneksel	-4369
ilerini	-4370
inizden	-4371
lardaki	-4372
lığında	-4373
lığıyla	-4374
masının	-4375
nömatik	-4376
vanizli	-4377
▁Akıllı	-4378
▁Arıtma	-4379
▁Bodrum	-4380
▁Kamyon	-4381
▁Kayışı	-4382
▁Kurulu	-4383
▁Londra	-4384
▁Yangın	-4385
▁Yıkama	-4386
▁alanda	-4387
▁alaşım	-4388
▁altyap	-4389
▁ayrıca	-4390
▁burada	-4391
▁doktor	-4392
▁dışarı	-4393
▁edecek	-4394
▁etkisi	-4395
▁faydal	-4396
▁fazlas	-4397
▁format	-4398
▁gemisi	-4399
▁görsel	-4400
▁görünt	-4401
▁hastan	-4402
▁kasası	-4403
▁klinik	-4404
▁kutusu	-4405
▁masası	-4406
▁odaklı	-4407
▁olağan	-4408
▁oluşur	-4409
▁onarım	-4410
▁parlak	-4411
▁rezerv	-4412
▁rulman	-4413
▁sunmak	-4414
▁tadını	-4415
▁ulaşım	-4416
▁ulusal	-4417
▁vermek	-4418
▁yüzden	-4419
▁yıllar	-4420
▁zincir	-4421
▁önünde	-4422
▁örneği	-4423
▁İkinci	-4424
▁şablon	-4425
eksiyonu	-4426
elerinin	-4427
ilmiştir	-4428
lemeleri	-4429
masından	-4430
ılmasını	-4431
▁Bitcoin	-4432
▁Brülörü	-4433
▁Bununla	-4434
▁Feribot	-4435
▁Organik	-4436
▁Popüler	-4437
▁Satılık	-4438
▁Seramik	-4439
▁Tekstil	-4440
▁Ticaret	-4441
▁Verimli	-4442
▁aktivit	-4443
▁ayrıntı	-4444
▁başladı	-4445
▁bilezik	-4446
▁birinde	-4447
▁dosyası	-4448
▁ederken	-4449
▁edinmek	-4450
▁fazlası	-4451
▁garanti	-4452
▁indirme	-4453
▁kapılar	-4454
▁markası	-4455
▁nitelik	-4456
▁noktası	-4457
▁pigment	-4458
▁seramik	-4459
▁sipariş	-4460
▁sonraki	-4461
▁sonrası	-4462
▁steroid	-4463
▁tahtası	-4464
▁yerinde	-4465
▁yumuşak	-4466
▁yönelik	-4467
▁yükselt	-4468
▁çıkarın	-4469
▁önlemek	-4470
▁öğrenci	-4471
▁üretmek	-4472
▁İtalyan	-4473
▁Geliştir	-4474
▁Herhangi	-4475
▁Yuvarlak	-4476
▁Yönetimi	-4477
▁ardından	-4478
▁artırmak	-4479
▁bağımsız	-4480
▁danışman	-4481
▁dosyalar	-4482
▁doğrudan	-4483
▁ekipmanı	-4484
▁etkinlik	-4485
▁geldiniz	-4486
▁gizlilik	-4487
▁istasyon	-4488
▁kablosuz	-4489
▁kahvaltı	-4490
▁kimyasal	-4491
▁olmuştur	-4492
▁orijinal	-4493
▁prosedür	-4494
▁pürüzsüz	-4495
▁toplantı	-4496
▁tungsten	-4497
▁Ücretsiz	-4498
▁İnternet	-4499
▁Bildirimi	-4500
▁Görüntüle	-4501
▁Kullanıcı	-4502
▁Microsoft	-4503
▁Tozlaştır	-4504
▁altındaki	-4505
▁büyüklüğü	-4506
▁güvenliği	-4507
▁merkezine	-4508
▁olacaktır	-4509
▁reaksiyon	-4510
▁sunuyoruz	-4511
▁tedarikçi	-4512
▁temizleme	-4513
▁yeterince	-4514
▁yürüyerek	-4515
▁Çevrimiçi	-4516
▁çalışmaya	-4517
▁Bilgisayar	-4518
▁Elektrikli	-4519
▁Misafirler	-4520
▁Ultrasonik	-4521
▁aydınlatma	-4522
▁dekorasyon	-4523
▁dokunmatik	-4524
▁içerisinde	-4525
▁kesinlikle	-4526
▁makineleri	-4527
▁mikrodalga	-4528
▁sistemleri	-4529
▁uygulaması	-4530
▁üreticiler	-4531
▁ihtiyacınız	-4532
▁karşılaştır	-4533
▁kolaylaştır	-4534
▁konularında	-4535
▁manzarasına	-4536
▁özelliklere	-4537
▁şekillendir	-4538
▁aracılığıyla	-4539
▁kullanıcılar	-4540
▁oluşmaktadır	-4541
▁bilgilerinizi	-4542
▁donatılmıştır	-4543
▁verilmektedir	-4544
▁Tozlaştırılmış	-4545
▁bulabilirsiniz	-4546
-9	-4547
."	-4548
.7	-4549
02	-4550
3.	-4551
9)	-4552
AH	-4553
An	-4554
CH	-4555
FT	-4556
Hz	-4557
KO	-4558
KW	-4559
LÜ	-4560
MS	-4561
NA	-4562
TP	-4563
UR	-4564
YO	-4565
ax	-4566
bu	-4567
ck	-4568
ee	-4569
hu	-4570
nc	-4571
sp	-4572
yo	-4573
İS	-4574
İZ	-4575
-12	-4576
100	-4577
:30	-4578
ASA	-4579
App	-4580
Bir	-4581
ILI	-4582
YON	-4583
aca	-4584
ace	-4585
afe	-4586
api	-4587
ash	-4588
asi	-4589
ask	-4590
att	-4591
aze	-4592
cin	-4593
day	-4594
daş	-4595
ded	-4596
dum	-4597
ebi	-4598
evk	-4599
ezo	-4600
gsm	-4601
hou	-4602
ida	-4603
idd	-4604
ikr	-4605
kay	-4606
liy	-4607
lub	-4608
nda	-4609
nde	-4610
ole	-4611
olt	-4612
ose	-4613
oya	-4614
pan	-4615
sak	-4616
tay	-4617
ula	-4618
var	-4619
vik	-4620
ŞAP	-4621
şet	-4622
▁(6	-4623
▁0,	-4624
▁23	-4625
▁80	-4626
▁BA	-4627
▁CT	-4628
▁EN	-4629
▁Ec	-4630
▁HS	-4631
▁Il	-4632
▁Li	-4633
▁MP	-4634
▁OT	-4635
▁Sm	-4636
▁TO	-4637
▁Up	-4638
▁We	-4639
▁ch	-4640
▁if	-4641
▁mı	-4642
▁ro	-4643
▁sc	-4644
▁se	-4645
▁th	-4646
▁xH	-4647
Star	-4648
adir	-4649
adık	-4650
akip	-4651
alma	-4652
altı	-4653
amin	-4654
anan	-4655
anet	-4656
atih	-4657
atur	-4658
ayıc	-4659
azen	-4660
emiş	-4661
enis	-4662
enli	-4663
esin	-4664
gisi	-4665
hang	-4666
ikel	-4667
ikro	-4668
ipto	-4669
iral	-4670
ites	-4671
iyal	-4672
kısı	-4673
lgun	-4674
obin	-4675
ocuğ	-4676
oker	-4677
olan	-4678
olik	-4679
onya	-4680
osit	-4681
osta	-4682
otik	-4683
rive	-4684
tuğu	-4685
ukuk	-4686
uter	-4687
üman	-4688
ürlü	-4689
ılık	-4690
ırın	-4691
▁1.0	-4692
▁304	-4693
▁APK	-4694
▁Ali	-4695
▁Bor	-4696
▁Cin	-4697
▁DVB	-4698
▁Dav	-4699
▁Del	-4700
▁Des	-4701
▁Dil	-4702
▁Enj	-4703
▁Est	-4704
▁Fer	-4705
▁Fir	-4706
▁Fre	-4707
▁HDR	-4708
▁ISO	-4709
▁Kum	-4710
▁Köp	-4711
▁Mag	-4712
▁Mum	-4713
▁PRO	-4714
▁Pas	-4715
▁Pip	-4716
▁Riy	-4717
▁Rob	-4718
▁Saf	-4719
▁Sam	-4720
▁Sen	-4721
▁Siz	-4722
▁Sor	-4723
▁Sun	-4724
▁Tav	-4725
▁Tem	-4726
▁Tok	-4727
▁Ven	-4728
▁Yaş	-4729
▁Yen	-4730
▁aer	-4731
▁ara	-4732
▁ağr	-4733
▁böl	-4734
▁bük	-4735
▁ded	-4736
▁def	-4737
▁dük	-4738
▁end	-4739
▁enj	-4740
▁fer	-4741
▁fit	-4742
▁fut	-4743
▁hom	-4744
▁ila	-4745
▁imz	-4746
▁işç	-4747
▁jak	-4748
▁köş	-4749
▁len	-4750
▁lob	-4751
▁log	-4752
▁mev	-4753
▁mil	-4754
▁net	-4755
▁sel	-4756
▁sil	-4757
▁tuz	-4758
▁yık	-4759
▁yığ	-4760
▁Çev	-4761
▁çoğ	-4762
▁çub	-4763
▁ört	-4764
▁şık	-4765
abilm	-4766
ahmet	-4767
amanı	-4768
aması	-4769
ansız	-4770
anımı	-4771
ekans	-4772
ekkür	-4773
eller	-4774
eneke	-4775
enler	-4776
itası	-4777
itreş	-4778
işkin	-4779
lamaz	-4780
laşma	-4781
liyor	-4782
lumun	-4783
lığın	-4784
matör	-4785
oster	-4786
renaj	-4787
santr	-4788
siyum	-4789
tadan	-4790
ulmuş	-4791
ultip	-4792
uluğu	-4793
umaya	-4794
ısına	-4795
▁1000	-4796
▁2010	-4797
▁2014	-4798
▁2015	-4799
▁2018	-4800
▁Arch	-4801
▁Club	-4802
▁Flor	-4803
▁Form	-4804
▁Fran	-4805
▁Grub	-4806
▁Ital	-4807
▁Kend	-4808
▁Kong	-4809
▁Mavi	-4810
▁Mekt	-4811
▁Ning	-4812
▁Para	-4813
▁Plaj	-4814
▁Prot	-4815
▁Rest	-4816
▁Room	-4817
▁Saat	-4818
▁Sarı	-4819
▁Step	-4820
▁Suyu	-4821
▁anla	-4822
▁antr	-4823
▁araz	-4824
▁aşın	-4825
▁başv	-4826
▁bitk	-4827
▁deri	-4828
▁ders	-4829
▁dizi	-4830
▁esas	-4831
▁etti	-4832
▁gece	-4833
▁hala	-4834
▁iler	-4835
▁ilgi	-4836
▁kamp	-4837
▁kanı	-4838
▁keşf	-4839
▁mach	-4840
▁okum	-4841
▁olay	-4842
▁part	-4843
▁port	-4844
▁soru	-4845
▁sırt	-4846
▁takv	-4847
▁takı	-4848
▁taze	-4849
▁term	-4850
▁uyan	-4851
▁uydu	-4852
▁uyku	-4853
▁uzat	-4854
▁yana	-4855
▁yarı	-4856
▁zevk	-4857
▁İlet	-4858
▁ışığ	-4859
▁şüph	-4860
abilen	-4861
abolik	-4862
akliye	-4863
embran	-4864
geleri	-4865
ilerde	-4866
imeler	-4867
işirme	-4868
lemeye	-4869
liğine	-4870
manızı	-4871
mutlar	-4872
oranda	-4873
ısının	-4874
▁AHŞAP	-4875
▁Bileş	-4876
▁Bilim	-4877
▁Bizim	-4878
▁Bölüm	-4879
▁Böyle	-4880
▁Cihaz	-4881
▁Demir	-4882
▁Deniz	-4883
▁Değer	-4884
▁Gerek	-4885
▁Hazır	-4886
▁Kamer	-4887
▁Kendi	-4888
▁Kolay	-4889
▁Kurul	-4890
▁Lazer	-4891
▁Levha	-4892
▁Olgun	-4893
▁Radyo	-4894
▁Satın	-4895
▁Smart	-4896
▁Sıfır	-4897
▁Techn	-4898
▁Villa	-4899
▁Vücut	-4900
▁Yayın	-4901
▁Yumuş	-4902
▁anlay	-4903
▁aydın	-4904
▁belli	-4905
▁bitki	-4906
▁bulaş	-4907
▁böcek	-4908
▁daima	-4909
▁daire	-4910
▁diyet	-4911
▁dövme	-4912
▁düğün	-4913
▁ettik	-4914
▁eşsiz	-4915
▁gelin	-4916
▁geçen	-4917
▁hafta	-4918
▁hattı	-4919
▁istem	-4920
▁kaplı	-4921
▁kartı	-4922
▁keyif	-4923
▁kilit	-4924
▁kolon	-4925
▁konuk	-4926
▁kural	-4927
▁makul	-4928
▁nedir	-4929
▁neler	-4930
▁olmaz	-4931
▁param	-4932
▁parkı	-4933
▁polis	-4934
▁sabit	-4935
▁sahib	-4936
▁saklı	-4937
▁sanal	-4938
▁sayfa	-4939
▁saygı	-4940
▁silin	-4941
▁sokak	-4942
▁sprey	-4943
▁tabak	-4944
▁takip	-4945
▁tarif	-4946
▁yapın	-4947
▁yoksa	-4948
▁yürüt	-4949
▁zemin	-4950
▁zorlu	-4951
▁zorun	-4952
▁Çanta	-4953
▁çevir	-4954
▁üyesi	-4955
▁Şişme	-4956
▁şahıs	-4957
▁şeker	-4958
▁şifre	-4959
addelen	-4960
ansiyon	-4961
asyonlu	-4962
epsiyon	-4963
erseniz	-4964
estival	-4965
ilerine	-4966
itasyon	-4967
leyerek	-4968
olojisi	-4969
▁Alaşım	-4970
▁Askeri	-4971
▁Asyalı	-4972
▁Avustr	-4973
▁Casino	-4974
▁Center	-4975
▁Christ	-4976
▁Göster	-4977
▁Sepeti	-4978
▁Strate	-4979
▁Sınıfı	-4980
▁Tallin	-4981
▁Ticari	-4982
▁Ulusal	-4983
▁Yardım	-4984
▁adresi	-4985
▁amatör	-4986
▁analiz	-4987
▁azalma	-4988
▁başlan	-4989
▁başlat	-4990
▁bulmak	-4991
▁derhal	-4992
▁ettiği	-4993
▁faktör	-4994
▁iyidir	-4995
▁karbon	-4996
▁klasik	-4997
▁kurşun	-4998
▁manuel	-4999
▁manşet	-5000
▁memnun	-5001
▁mesafe	-5002
▁otobüs	-5003
▁pratik	-5004
▁sohbet	-5005
▁sonucu	-5006
▁sürümü	-5007
▁tablet	-5008
▁tahrik	-5009
▁titreş	-5010
▁tutkal	-5011
▁uyumlu	-5012
▁vücudu	-5013
▁yazılı	-5014
▁çekici	-5015
▁çekmek	-5016
▁öncesi	-5017
▁İtalya	-5018
▁şeyler	-5019
artement	-5020
dığından	-5021
eknoloji	-5022
imlerini	-5023
malarını	-5024
refabrik	-5025
▁Akdeniz	-5026
▁Arabası	-5027
▁Blender	-5028
▁Bulanık	-5029
▁Fabrika	-5030
▁Fethiye	-5031
▁Kiralık	-5032
▁Lambası	-5033
▁Machine	-5034
▁Maskesi	-5035
▁Soğutma	-5036
▁Yamalar	-5037
▁alerjik	-5038
▁ambalaj	-5039
▁başvuru	-5040
▁benzeri	-5041
▁besleme	-5042
▁bilinen	-5043
▁bulunur	-5044
▁donanım	-5045
▁dosyayı	-5046
▁dünyada	-5047
▁düzeyde	-5048
▁ebeveyn	-5049
▁edilmiş	-5050
▁etkileş	-5051
▁görülen	-5052
▁görüyor	-5053
▁hazırla	-5054
▁imalatı	-5055
▁işletim	-5056
▁kişinin	-5057
▁küresel	-5058
▁kılavuz	-5059
▁mukavem	-5060
▁pişirme	-5061
▁protein	-5062
▁püskürt	-5063
▁rekabet	-5064
▁servisi	-5065
▁seyahat	-5066
▁sonunda	-5067
▁sunulan	-5068
▁testere	-5069
▁tuvalet	-5070
▁türleri	-5071
▁veriyor	-5072
▁yararlı	-5073
▁yetkisi	-5074
▁yoluyla	-5075
▁Ürünler	-5076
▁çamaşır	-5077
▁önceden	-5078
▁öğretim	-5079
dığınızda	-5080
ebilirler	-5081
ileceğini	-5082
landırıcı	-5083
mayabilir	-5084
▁Filtresi	-5085
▁Fotoğraf	-5086
▁Marmaris	-5087
▁Otomotiv	-5088
▁Sıcaklık	-5089
▁araçları	-5090
▁bağlıdır	-5091
▁beslenme	-5092
▁bilmeniz	-5093
▁bölgesel	-5094
▁derecede	-5095
▁dikkatli	-5096
▁egzersiz	-5097
▁eksiksiz	-5098
▁faydalan	-5099
▁hareketi	-5100
▁hastalar	-5101
▁hastalığ	-5102
▁hoparlör	-5103
▁içindeki	-5104
▁korumaya	-5105
▁kozmetik	-5106
▁lezzetli	-5107
▁otomobil	-5108
▁projenin	-5109
▁referans	-5110
▁telefonu	-5111
▁teşekkür	-5112
▁tüketimi	-5113
▁vermeden	-5114
▁xHamster	-5115
▁yaklaşım	-5116
▁yaparken	-5117
▁yazılımı	-5118
▁Çiçekler	-5119
▁şeklinde	-5120
addelenmiş	-5121
▁Apartment	-5122
▁Hareketli	-5123
▁Motorları	-5124
▁doğrulama	-5125
▁esnasında	-5126
▁eğlenceli	-5127
▁fabrikası	-5128
▁faydaları	-5129
▁genelinde	-5130
▁gerektiği	-5131
▁gerçekleş	-5132
▁güçlendir	-5133
▁hizmetini	-5134
▁işlenmesi	-5135
▁malzemesi	-5136
▁manzaralı	-5137
▁olacağını	-5138
▁olduğunca	-5139
▁resimleri	-5140
▁uygulanan	-5141
▁yapılması	-5142
▁yetenekli	-5143
▁Dekorasyon	-5144
▁Dokunmatik	-5145
▁Galvanizli	-5146
▁Genellikle	-5147
▁Hizmetleri	-5148
▁Restaurant	-5149
▁belirlemek	-5150
▁bilgilerin	-5151
▁bünyesinde	-5152
▁edilebilir	-5153
▁enfeksiyon	-5154
▁ihtiyacına	-5155
▁kapsamında	-5156
▁kullanılab	-5157
▁sektöründe	-5158
▁varsayılan	-5159
▁yeterlidir	-5160
▁Üniversite	-5161
▁çevresinde	-5162
ebileceğiniz	-5163
landırılması	-5164
▁Karıştırıcı	-5165
▁Profesyonel	-5166
▁Sultanahmet	-5167
▁değiştirmek	-5168
▁gelecekteki	-5169
▁geliştirmek	-5170
▁kullanımını	-5171
▁tedavisinde	-5172
▁uzaklıktaki	-5173
artementhotel	-5174
▁Kimyasalları	-5175
▁geliştirilen	-5176
▁müşterilerin	-5177
▁rezervasyonu	-5178
layabilirsiniz	-5179
leyebilirsiniz	-5180
▁ayarlanabilir	-5181
▁endüstrisinde	-5182
▁tedarikçileri	-5183
-3	-5184
-7	-5185
.6	-5186
18	-5187
27	-5188
28	-5189
3,	-5190
34	-5191
36	-5192
42	-5193
55	-5194
6,	-5195
61	-5196
73	-5197
76	-5198
98	-5199
AB	-5200
BD	-5201
Bu	-5202
CO	-5203
DE	-5204
DT	-5205
En	-5206
GB	-5207
HD	-5208
ID	-5209
LD	-5210
OB	-5211
PU	-5212
Ro	-5213
TR	-5214
UP	-5215
XX	-5216
YA	-5217
YE	-5218
cy	-5219
ho	-5220
sk	-5221
sw	-5222
yB	-5223
ÖN	-5224
ÜR	-5225
âh	-5226
İC	-5227
ıd	-5228
ко	-5229
-20	-5230
.00	-5231
2.5	-5232
400	-5233
ASI	-5234
HIN	-5235
aft	-5236
ahı	-5237
aly	-5238
ats	-5239
ayb	-5240
aza	-5241
car	-5242
dem	-5243
dit	-5244
diy	-5245
don	-5246
dul	-5247
ecr	-5248
ekk	-5249
eld	-5250
ell	-5251
eze	-5252
ezl	-5253
fil	-5254
fly	-5255
gaz	-5256
ham	-5257
hen	-5258
hur	-5259
ibr	-5260
ich	-5261
ilt	-5262
kor	-5263
led	-5264
lon	-5265
ney	-5266
odu	-5267
ood	-5268
opi	-5269
oth	-5270
ovo	-5271
rin	-5272
row	-5273
rıs	-5274
sul	-5275
sül	-5276
ulk	-5277
und	-5278
upl	-5279
uva	-5280
uxe	-5281
yaj	-5282
öly	-5283
üfe	-5284
üle	-5285
üme	-5286
ürk	-5287
ğüs	-5288
şek	-5289
▁28	-5290
▁3,	-5291
▁42	-5292
▁48	-5293
▁8,	-5294
▁AR	-5295
▁AS	-5296
▁BO	-5297
▁By	-5298
▁De	-5299
▁Gr	-5300
▁Gu	-5301
▁Iş	-5302
▁Ku	-5303
▁Kö	-5304
▁Le	-5305
▁Mr	-5306
▁Qu	-5307
▁Ra	-5308
▁Tw	-5309
▁aj	-5310
▁be	-5311
▁by	-5312
▁eV	-5313
▁te	-5314
▁um	-5315
▁Öd	-5316
▁ÜR	-5317
▁Üç	-5318
▁üt	-5319
▁İk	-5320
▁ış	-5321
,...	-5322
ARIN	-5323
ELER	-5324
ERIA	-5325
Genç	-5326
KUMA	-5327
acer	-5328
alım	-5329
amam	-5330
amuk	-5331
ance	-5332
ande	-5333
atit	-5334
bise	-5335
cası	-5336
cisi	-5337
ding	-5338
dımı	-5339
eldi	-5340
embe	-5341
eşem	-5342
gası	-5343
gesi	-5344
gülü	-5345
iden	-5346
ikay	-5347
ikiş	-5348
ilya	-5349
imal	-5350
inil	-5351
inli	-5352
iriz	-5353
isiz	-5354
itap	-5355
izer	-5356
kray	-5357
laka	-5358
load	-5359
lolu	-5360
losu	-5361
lığa	-5362
oglu	-5363
omuz	-5364
orex	-5365
orna	-5366
oğaz	-5367
ptom	-5368
raki	-5369
rink	-5370
rosk	-5371
teyn	-5372
thal	-5373
tiği	-5374
ture	-5375
urlu	-5376
uyun	-5377
ware	-5378
work	-5379
yant	-5380
çesi	-5381
çlar	-5382
ılda	-5383
ısır	-5384
ışlı	-5385
▁(10	-5386
▁250	-5387
▁350	-5388
▁360	-5389
▁400	-5390
▁Ada	-5391
▁And	-5392
▁Aqu	-5393
▁Bes	-5394
▁Bey	-5395
▁Bin	-5396
▁Bıç	-5397
▁Cev	-5398
▁DTH	-5399
▁Dal	-5400
▁Din	-5401
▁Diy	-5402
▁Duş	-5403
▁Eth	-5404
▁Exp	-5405
▁Fab	-5406
▁Fil	-5407
▁For	-5408
▁Gre	-5409
▁Gym	-5410
▁Güm	-5411
▁Haz	-5412
▁Hes	-5413
▁KES	-5414
▁Koy	-5415
▁Kıb	-5416
▁Lüt	-5417
▁Max	-5418
▁Meg	-5419
▁Mor	-5420
▁Müz	-5421
▁Not	-5422
▁Olu	-5423
▁Ort	-5424
▁PET	-5425
▁Pow	-5426
▁Ref	-5427
▁SSL	-5428
▁Seç	-5429
▁Sky	-5430
▁Sol	-5431
▁Soy	-5432
▁Sub	-5433
▁TEK	-5434
▁Tay	-5435
▁Ton	-5436
▁VPN	-5437
▁Var	-5438
▁Vic	-5439
▁Yur	-5440
▁aks	-5441
▁ank	-5442
▁ann	-5443
▁bot	-5444
▁bür	-5445
▁dek	-5446
▁dez	-5447
▁egz	-5448
▁fil	-5449
▁gec	-5450
▁göv	-5451
▁hac	-5452
▁iOS	-5453
▁jel	-5454
▁kek	-5455
▁lim	-5456
▁mek	-5457
▁mer	-5458
▁muh	-5459
▁nef	-5460
▁pan	-5461
▁pet	-5462
▁ref	-5463
▁sep	-5464
▁tez	-5465
▁tuş	-5466
▁tüc	-5467
▁uğr	-5468
▁yum	-5469
▁zım	-5470
▁Çık	-5471
▁Ölü	-5472
ALARI	-5473
acağı	-5474
amaya	-5475
anlar	-5476
anlık	-5477
anmış	-5478
aporu	-5479
aralı	-5480
ayolu	-5481
culuk	-5482
dirim	-5483
diven	-5484
dınız	-5485
ebilm	-5486
ecrüb	-5487
eptid	-5488
etrik	-5489
forje	-5490
icisi	-5491
iksel	-5492
irmek	-5493
itter	-5494
lerce	-5495
mamış	-5496
mazon	-5497
mekte	-5498
meyin	-5499
okupl	-5500
ovası	-5501
plant	-5502
razyB	-5503
ribüt	-5504
rojen	-5505
siyet	-5506
usunu	-5507
yalar	-5508
üphan	-5509
ürüst	-5510
ıcısı	-5511
ıklar	-5512
ırken	-5513
ışmak	-5514
▁1992	-5515
▁1997	-5516
▁2009	-5517
▁2011	-5518
▁Acil	-5519
▁Adım	-5520
▁Anne	-5521
▁Blok	-5522
▁Boya	-5523
▁Brun	-5524
▁Cilt	-5525
▁Comp	-5526
▁Cuma	-5527
▁Dosy	-5528
▁Hast	-5529
▁High	-5530
▁Iron	-5531
▁Isıt	-5532
▁KASA	-5533
▁KOKU	-5534
▁Katı	-5535
▁Mart	-5536
▁Mini	-5537
▁Ofis	-5538
▁Part	-5539
▁Play	-5540
▁Plaz	-5541
▁Plus	-5542
▁Poly	-5543
▁Post	-5544
▁Road	-5545
▁Sert	-5546
▁Star	-5547
▁Sunu	-5548
▁Tang	-5549
▁Ters	-5550
▁Tran	-5551
▁adam	-5552
▁arzu	-5553
▁ateş	-5554
▁atom	-5555
▁atık	-5556
▁bira	-5557
▁büfe	-5558
▁büyü	-5559
▁dağı	-5560
▁devr	-5561
▁dile	-5562
▁disk	-5563
▁dist	-5564
▁dolu	-5565
▁düny	-5566
▁flor	-5567
▁göst	-5568
▁hata	-5569
▁iPad	-5570
▁kafa	-5571
▁katk	-5572
▁kesi	-5573
▁koku	-5574
▁kons	-5575
▁kılı	-5576
▁lenf	-5577
▁nane	-5578
▁ocak	-5579
▁pire	-5580
▁plaj	-5581
▁porn	-5582
▁semb	-5583
▁sens	-5584
▁site	-5585
▁sona	-5586
▁stok	-5587
▁tank	-5588
▁ultr	-5589
▁vill	-5590
▁yani	-5591
▁yans	-5592
▁yasa	-5593
▁yeri	-5594
▁Çant	-5595
▁Öner	-5596
▁çatı	-5597
▁ömrü	-5598
▁örgü	-5599
▁ünlü	-5600
abancı	-5601
acağız	-5602
ademik	-5603
aliman	-5604
alimat	-5605
atsApp	-5606
edikal	-5607
elidir	-5608
emizin	-5609
errahi	-5610
eğiniz	-5611
imizde	-5612
imleme	-5613
irketi	-5614
krayna	-5615
lacağı	-5616
lamaya	-5617
lantik	-5618
lemler	-5619
lerdir	-5620
lığına	-5621
unuzun	-5622
uyoruz	-5623
varyum	-5624
ücüler	-5625
ümleri	-5626
ıklama	-5627
ıldığı	-5628
ımızın	-5629
▁Abdul	-5630
▁Afrik	-5631
▁Aktif	-5632
▁Alanı	-5633
▁Altın	-5634
▁Bahar	-5635
▁Banyo	-5636
▁Basit	-5637
▁Bayan	-5638
▁Bazen	-5639
▁Beden	-5640
▁Beton	-5641
▁Bilgi	-5642
▁Black	-5643
▁Butik	-5644
▁Daire	-5645
▁Darbe	-5646
▁Dağıt	-5647
▁Deney	-5648
▁Derin	-5649
▁Dosya	-5650
▁Engel	-5651
▁Enter	-5652
▁Etkin	-5653
▁Fatih	-5654
▁Grubu	-5655
▁House	-5656
▁Kazan	-5657
▁Konut	-5658
▁Kumaş	-5659
▁Köpük	-5660
▁Mayıs	-5661
▁Müdür	-5662
▁Nokta	-5663
▁OKUMA	-5664
▁Orada	-5665
▁Piezo	-5666
▁Pompa	-5667
▁Price	-5668
▁Sabit	-5669
▁Sanat	-5670
▁Savaş	-5671
▁Sayfa	-5672
▁Soğuk	-5673
▁Tatil	-5674
▁Tesis	-5675
▁Tıbbi	-5676
▁Uzman	-5677
▁Verim	-5678
▁White	-5679
▁Yerel	-5680
▁akşam	-5681
▁alkol	-5682
▁amino	-5683
▁antik	-5684
▁arası	-5685
▁artık	-5686
▁açmak	-5687
▁bahis	-5688
▁bakın	-5689
▁bakış	-5690
▁başta	-5691
▁becer	-5692
▁birik	-5693
▁bobin	-5694
▁boğaz	-5695
▁buton	-5696
▁bölge	-5697
▁denet	-5698
▁dizin	-5699
▁döviz	-5700
▁eksen	-5701
▁eşleş	-5702
▁fikir	-5703
▁giyim	-5704
▁heyec	-5705
▁hotel	-5706
▁hukuk	-5707
▁içilm	-5708
▁kabuk	-5709
▁kapan	-5710
▁kapat	-5711
▁kaçın	-5712
▁kesim	-5713
▁klima	-5714
▁korur	-5715
▁kıyaf	-5716
▁lamin	-5717
▁macun	-5718
▁metin	-5719
▁molek	-5720
▁müzik	-5721
▁nakit	-5722
▁nehir	-5723
▁nikel	-5724
▁nokta	-5725
▁oynat	-5726
▁oyunu	-5727
▁paket	-5728
▁paral	-5729
▁reakt	-5730
▁sakin	-5731
▁salon	-5732
▁salın	-5733
▁seçin	-5734
▁sorum	-5735
▁sunum	-5736
▁süper	-5737
▁sürüc	-5738
▁sınav	-5739
▁temin	-5740
▁teras	-5741
▁tetik	-5742
▁torna	-5743
▁tutan	-5744
▁tutar	-5745
▁tuval	-5746
▁verme	-5747
▁yargı	-5748
▁yasal	-5749
▁Çinli	-5750
▁Çünkü	-5751
▁ölçek	-5752
▁İşlet	-5753
▁Şehir	-5754
▁şarap	-5755
▁şekli	-5756
alarına	-5757
anyetik	-5758
asyonun	-5759
cıların	-5760
diğimiz	-5761
elerden	-5762
encefil	-5763
icileri	-5764
ikasyon	-5765
ileceği	-5766
imizden	-5767
indedir	-5768
iğinden	-5769
lanacak	-5770
liğinin	-5771
lıkları	-5772
lıyoruz	-5773
tiğiniz	-5774
ülatörü	-5775
▁Amatör	-5776
▁Amazon	-5777
▁Bilkay	-5778
▁Bunlar	-5779
▁CrazyB	-5780
▁Etiket	-5781
▁Filtre	-5782
▁Finans	-5783
▁Garden	-5784
▁Kaydet	-5785
▁Kıbrıs	-5786
▁Lityum	-5787
▁Lütfen	-5788
▁Madenc	-5789
▁Office	-5790
▁Paketi	-5791
▁Paneli	-5792
▁Reklam	-5793
▁Sadece	-5794
▁Server	-5795
▁Shrink	-5796
▁Sigort	-5797
▁Spacer	-5798
▁Sözleş	-5799
▁Tehlik	-5800
▁Victor	-5801
▁Yapımı	-5802
▁Yöntem	-5803
▁Zengin	-5804
▁aittir	-5805
▁bakımı	-5806
▁başlar	-5807
▁birimi	-5808
▁birini	-5809
▁birleş	-5810
▁borusu	-5811
▁boşluk	-5812
▁bölümü	-5813
▁coğraf	-5814
▁davran	-5815
▁doldur	-5816
▁drenaj	-5817
▁durdur	-5818
▁filtre	-5819
▁fosfat	-5820
▁ikinci	-5821
▁işleri	-5822
▁kabart	-5823
▁kalıcı	-5824
▁kanama	-5825
▁kaşığı	-5826
▁konuda	-5827
▁kurulu	-5828
▁lastik	-5829
▁makara	-5830
▁modeli	-5831
▁olanak	-5832
▁olumlu	-5833
▁olursa	-5834
▁oluyor	-5835
▁oluşan	-5836
▁oturum	-5837
▁saldır	-5838
▁saniye	-5839
▁seçmek	-5840
▁stator	-5841
▁steril	-5842
▁strate	-5843
▁sözlük	-5844
▁süreci	-5845
▁sınıfı	-5846
▁tadına	-5847
▁tekerl	-5848
▁temsil	-5849
▁tesisi	-5850
▁teşvik	-5851
▁tüccar	-5852
▁vadeli	-5853
▁verici	-5854
▁vidalı	-5855
▁websit	-5856
▁yemeği	-5857
▁yüksel	-5858
▁yüzeyi	-5859
▁zamanı	-5860
▁Önceki	-5861
▁Üretim	-5862
▁çözümü	-5863
▁ücreti	-5864
........	-5865
abileceğ	-5866
ektörler	-5867
lanmamış	-5868
larımızı	-5869
laştırma	-5870
ternatif	-5871
▁ASTERIA	-5872
▁Aşağıda	-5873
▁Başvuru	-5874
▁Bilyalı	-5875
▁Derneği	-5876
▁Emniyet	-5877
▁Estonya	-5878
▁Gerilim	-5879
▁Hosting	-5880
▁Italian	-5881
▁Kaplama	-5882
▁Medikal	-5883
▁Nakliye	-5884
▁Pişirme	-5885
▁Premium	-5886
▁Project	-5887
▁Projesi	-5888
▁Sağlığı	-5889
▁Türbini	-5890
▁Univers	-5891
▁Yatırım	-5892
▁Yumuşak	-5893
▁aslında	-5894
▁ayarlan	-5895
▁ağırlık	-5896
▁bebeğin	-5897
▁beklent	-5898
▁birinin	-5899
▁biçimde	-5900
▁bulanık	-5901
▁bölgede	-5902
▁bölgesi	-5903
▁dağıtım	-5904
▁dikkate	-5905
▁duyarlı	-5906
▁duyulan	-5907
▁düzeldi	-5908
▁entegre	-5909
▁eğlence	-5910
▁fitness	-5911
▁gelecek	-5912
▁getirir	-5913
▁giyinme	-5914
▁izlemek	-5915
▁kablolu	-5916
▁kanallı	-5917
▁karışık	-5918
▁kategor	-5919
▁kendini	-5920
▁keyifli	-5921
▁kırmızı	-5922
▁mekaniz	-5923
▁miktarı	-5924
▁montajı	-5925
▁odaklan	-5926
▁organiz	-5927
▁otopark	-5928
▁politik	-5929
▁semptom	-5930
▁sunulur	-5931
▁taşıyan	-5932
▁uzunluk	-5933
▁vücudun	-5934
▁yapmaya	-5935
▁yardımı	-5936
▁yükleme	-5937
▁zararlı	-5938
▁Çalışma	-5939
▁Çeşitli	-5940
▁üretici	-5941
▁Amerikan	-5942
▁Atlantik	-5943
▁Benzinli	-5944
▁Bilgiler	-5945
▁Ferforje	-5946
▁Firmamız	-5947
▁Internet	-5948
▁Odalarda	-5949
▁Oludeniz	-5950
▁Tedarikç	-5951
▁Tekerlek	-5952
▁WhatsApp	-5953
▁Yazılımı	-5954
▁adlandır	-5955
▁amacıyla	-5956
▁başlayan	-5957
▁benimser	-5958
▁bulundur	-5959
▁bunların	-5960
▁cihazlar	-5961
▁dereceli	-5962
▁edilmesi	-5963
▁ediyoruz	-5964
▁getirmek	-5965
▁gösteren	-5966
▁hastanın	-5967
▁hazırlık	-5968
▁itibaren	-5969
▁kadınlar	-5970
▁kalınlık	-5971
▁karıştır	-5972
▁kursları	-5973
▁kurumsal	-5974
▁mimarisi	-5975
▁monitörü	-5976
▁ortalama	-5977
▁oyunları	-5978
▁rahatsız	-5979
▁resimler	-5980
▁siteleri	-5981
▁sitesine	-5982
▁söylemek	-5983
▁sıklıkla	-5984
▁temizlik	-5985
▁terminal	-5986
▁toplumun	-5987
▁transfer	-5988
▁yapıştır	-5989
▁yaratıcı	-5990
▁yetiştir	-5991
▁yönetimi	-5992
▁çalıştır	-5993
▁önerilir	-5994
▁şirketin	-5995
ayıcınızın	-5996
sesuarları	-5997
▁Aşağıdaki	-5998
▁CrazyBulk	-5999
▁Etiketler	-6000
▁Kullanımı	-6001
▁Mahmutlar	-6002
▁arttırmak	-6003
▁banyoları	-6004
▁birimleri	-6005
▁dedektörü	-6006
▁destekler	-6007
▁görünüyor	-6008
▁havaliman	-6009
▁iletişime	-6010
▁içilmeyen	-6011
▁maliyetli	-6012
▁manzarası	-6013
▁olduğunuz	-6014
▁paketleme	-6015
▁sonuçları	-6016
▁sürecinde	-6017
▁tasarrufu	-6018
▁tasarımcı	-6019
▁versiyonu	-6020
▁yazılımın	-6021
▁yedekleme	-6022
▁yelpazede	-6023
▁yelpazesi	-6024
▁yenilikçi	-6025
▁Çerçevesi	-6026
layabiliriz	-6027
lenmektedir	-6028
▁Avustralya	-6029
▁Sistemleri	-6030
▁Technology	-6031
▁arkadaşlar	-6032
▁değiştirme	-6033
▁engellemek	-6034
▁fonksiyonu	-6035
▁gereksinim	-6036
▁gerektiren	-6037
▁hastalığın	-6038
▁insanların	-6039
▁kullanıyor	-6040
▁misafirler	-6041
▁olağanüstü	-6042
▁sağlayacak	-6043
▁soruşturma	-6044
▁yeteneğine	-6045
▁yoğunluklu	-6046
▁avantajları	-6047
▁belirtileri	-6048
▁danışmanlık	-6049
▁fonksiyonel	-6050
▁hizmetlerin	-6051
▁kombinasyon	-6052
▁kullanılmak	-6053
▁kullanırken	-6054
▁laboratuvar	-6055
▁süreçlerini	-6056
▁Özellikleri	-6057
▁erişilebilir	-6058
▁kullanılması	-6059
▁kullanıyoruz	-6060
▁organizasyon	-6061
▁performansını	-6062
▁uygulanabilir	-6063
▁özelliklerini	-6064
▁gereksinimleri	-6065
▁göstermektedir	-6066
▁konumlanmıştır	-6067
▁mesafesindedir	-6068
▁çalışanlarımız	-6069
▁Özelleştirilmiş	-6070
▁özelleştirilmiş	-6071
".	-6072
,0	-6073
01	-6074
2'	-6075
26	-6076
37	-6077
38	-6078
43	-6079
5,	-6080
68	-6081
85	-6082
90	-6083
96	-6084
:0	-6085
?"	-6086
BF	-6087
CC	-6088
CL	-6089
CU	-6090
DR	-6091
EG	-6092
EZ	-6093
FL	-6094
FS	-6095
IK	-6096
IP	-6097
LG	-6098
LU	-6099
Lİ	-6100
MB	-6101
MP	-6102
OG	-6103
PP	-6104
QL	-6105
RS	-6106
SM	-6107
Sp	-6108
TC	-6109
TV	-6110
UH	-6111
ae	-6112
au	-6113
dy	-6114
ei	-6115
ff	-6116
ft	-6117
hl	-6118
ke	-6119
kz	-6120
kâ	-6121
ld	-6122
nt	-6123
ox	-6124
ph	-6125
ps	-6126
su	-6127
sv	-6128
tu	-6129
ue	-6130
ze	-6131
ÜN	-6132
ým	-6133
ýz	-6134
İA	-6135
İL	-6136
İP	-6137
İŞ	-6138
ри	-6139
▁!	-6140
▁Т	-6141
-00	-6142
-25	-6143
:00	-6144
:04	-6145
ACK	-6146
ANG	-6147
ANT	-6148
Kay	-6149
LET	-6150
Mon	-6151
ORT	-6152
PDM	-6153
Res	-6154
aah	-6155
adı	-6156
afa	-6157
age	-6158
akg	-6159
ale	-6160
arş	-6161
azi	-6162
bay	-6163
bür	-6164
cil	-6165
dea	-6166
dek	-6167
ean	-6168
emo	-6169
erp	-6170
evi	-6171
für	-6172
get	-6173
hai	-6174
his	-6175
hoş	-6176
ica	-6177
ics	-6178
idi	-6179
ier	-6180
iew	-6181
ifi	-6182
ika	-6183
ike	-6184
imd	-6185
ins	-6186
ips	-6187
iri	-6188
iğe	-6189
işi	-6190
jet	-6191
jur	-6192
kap	-6193
kar	-6194
kel	-6195
kim	-6196
lle	-6197
mad	-6198
med	-6199
mes	-6200
oil	-6201
pas	-6202
pus	-6203
ras	-6204
rek	-6205
riş	-6206
rok	-6207
sis	-6208
sur	-6209
tek	-6210
tuk	-6211
tul	-6212
ull	-6213
ush	-6214
ust	-6215
ute	-6216
vay	-6217
vir	-6218
viç	-6219
yen	-6220
yer	-6221
yst	-6222
yük	-6223
yüz	-6224
öyü	-6225
ğne	-6226
ıyı	-6227
▁00	-6228
▁09	-6229
▁1:	-6230
▁29	-6231
▁46	-6232
▁70	-6233
▁ER	-6234
▁FU	-6235
▁IN	-6236
▁KA	-6237
▁Lu	-6238
▁MT	-6239
▁PA	-6240
▁RO	-6241
▁ST	-6242
▁Sn	-6243
▁So	-6244
▁TL	-6245
▁TN	-6246
▁Th	-6247
▁UV	-6248
▁Ub	-6249
▁di	-6250
▁ku	-6251
▁mg	-6252
▁sw	-6253
▁us	-6254
▁ye	-6255
▁ül	-6256
▁İm	-6257
▁İp	-6258
ILIM	-6259
LARI	-6260
LERİ	-6261
MAYE	-6262
Road	-6263
Tube	-6264
able	-6265
adar	-6266
afer	-6267
afet	-6268
aför	-6269
akay	-6270
akma	-6271
alin	-6272
aliz	-6273
amet	-6274
angz	-6275
apur	-6276
arat	-6277
arda	-6278
ardı	-6279
arık	-6280
asin	-6281
aylı	-6282
azit	-6283
ağın	-6284
crip	-6285
daly	-6286
düğü	-6287
elle	-6288
elli	-6289
enta	-6290
enüz	-6291
esan	-6292
esif	-6293
este	-6294
etat	-6295
evki	-6296
eyiz	-6297
eyve	-6298
fade	-6299
falt	-6300
fini	-6301
ford	-6302
guan	-6303
ifüz	-6304
ight	-6305
igür	-6306
imum	-6307
ined	-6308
inta	-6309
iran	-6310
isan	-6311
isco	-6312
iste	-6313
iten	-6314
itir	-6315
itor	-6316
itts	-6317
iyan	-6318
iyim	-6319
işik	-6320
kali	-6321
lari	-6322
lass	-6323
layt	-6324
lenb	-6325
levi	-6326
ling	-6327
lisi	-6328
loks	-6329
mlek	-6330
ogan	-6331
okol	-6332
olat	-6333
omer	-6334
onda	-6335
onik	-6336
orld	-6337
orta	-6338
oter	-6339
para	-6340
quip	-6341
raft	-6342
ranı	-6343
ring	-6344
sche	-6345
site	-6346
sung	-6347
tısı	-6348
udio	-6349
unan	-6350
uğla	-6351
uşma	-6352
yesi	-6353
özel	-6354
ülük	-6355
ülür	-6356
üret	-6357
ürme	-6358
üver	-6359
üyle	-6360
ılab	-6361
ıltı	-6362
▁(22	-6363
▁0-0	-6364
▁1.5	-6365
▁160	-6366
▁175	-6367
▁2.1	-6368
▁2.4	-6369
▁305	-6370
▁550	-6371
▁900	-6372
▁Air	-6373
▁Aut	-6374
▁Bet	-6375
▁Biy	-6376
▁Bol	-6377
▁Bot	-6378
▁Bra	-6379
▁CAD	-6380
▁Can	-6381
▁Cap	-6382
▁Dah	-6383
▁Dam	-6384
▁Det	-6385
▁Ecz	-6386
▁End	-6387
▁GTX	-6388
▁Gez	-6389
▁Gol	-6390
▁Gör	-6391
▁Gül	-6392
▁Hep	-6393
▁Hiç	-6394
▁Hot	-6395
▁KON	-6396
▁Kek	-6397
▁Kel	-6398
▁Koş	-6399
▁Kür	-6400
▁Kış	-6401
▁Log	-6402
▁Low	-6403
▁MED	-6404
▁MET	-6405
▁Mağ	-6406
▁Mem	-6407
▁Mim	-6408
▁Mir	-6409
▁Oto	-6410
▁Pat	-6411
▁Pen	-6412
▁Pil	-6413
▁RES	-6414
▁RGB	-6415
▁Reg	-6416
▁Rig	-6417
▁Roy	-6418
▁SCH	-6419
▁SER	-6420
▁Sek	-6421
▁Sey	-6422
▁Sin	-6423
▁Ste	-6424
▁Süs	-6425
▁Sın	-6426
▁Sır	-6427
▁Ten	-6428
▁Tep	-6429
▁Tsh	-6430
▁Tut	-6431
▁Tıp	-6432
▁USB	-6433
▁Vad	-6434
▁Vid	-6435
▁Vik	-6436
▁Wat	-6437
▁Yem	-6438
▁Zor	-6439
▁Zım	-6440
▁alg	-6441
▁amp	-6442
▁açı	-6443
▁aşk	-6444
▁ban	-6445
▁ber	-6446
▁bey	-6447
▁blu	-6448
▁bol	-6449
▁cnc	-6450
▁dth	-6451
▁eti	-6452
▁far	-6453
▁gev	-6454
▁güb	-6455
▁hek	-6456
▁huz	-6457
▁ihl	-6458
▁ind	-6459
▁kop	-6460
▁kus	-6461
▁mah	-6462
▁muz	-6463
▁mür	-6464
▁nay	-6465
▁not	-6466
▁nüf	-6467
▁ped	-6468
▁pen	-6469
▁pul	-6470
▁reg	-6471
▁rot	-6472
▁sac	-6473
▁sam	-6474
▁seg	-6475
▁sön	-6476
▁sün	-6477
▁teh	-6478
▁tit	-6479
▁tıp	-6480
▁vat	-6481
▁çal	-6482
▁çam	-6483
▁çim	-6484
▁Şal	-6485
▁şem	-6486
ackag	-6487
adaki	-6488
adfly	-6489
afaza	-6490
alığı	-6491
ament	-6492
andaş	-6493
anyum	-6494
anızı	-6495
arklı	-6496
asarı	-6497
ayene	-6498
binde	-6499
biyen	-6500
burgh	-6501
dahal	-6502
danın	-6503
ducts	-6504
dustr	-6505
dürme	-6506
eceli	-6507
ektif	-6508
ektro	-6509
ental	-6510
ermer	-6511
ernet	-6512
ersin	-6513
eynir	-6514
gusal	-6515
ikler	-6516
ikola	-6517
ilimi	-6518
ilmis	-6519
irtid	-6520
iston	-6521
izesi	-6522
lanca	-6523
lectr	-6524
lendi	-6525
likol	-6526
luluğ	-6527
manlı	-6528
okopi	-6529
ozlar	-6530
panya	-6531
phone	-6532
resel	-6533
resin	-6534
resör	-6535
ruder	-6536
sızlı	-6537
tayız	-6538
tikül	-6539
uvarı	-6540
çılık	-6541
ülfür	-6542
ülmüş	-6543
ünmüş	-6544
üsyon	-6545
ısını	-6546
▁1200	-6547
▁1500	-6548
▁1960	-6549
▁Asya	-6550
▁Ateş	-6551
▁Avan	-6552
▁Baba	-6553
▁Bang	-6554
▁Bank	-6555
▁Cafe	-6556
▁Down	-6557
▁Doğu	-6558
▁EPDM	-6559
▁Etki	-6560
▁Evde	-6561
▁Evet	-6562
▁Fabr	-6563
▁Ferm	-6564
▁Ferr	-6565
▁Fort	-6566
▁Hard	-6567
▁Kalı	-6568
▁Kamp	-6569
▁Kara	-6570
▁Klas	-6571
▁Lüks	-6572
▁Masa	-6573
▁Mega	-6574
▁Muse	-6575
▁Must	-6576
▁Noel	-6577
▁Otur	-6578
▁Porn	-6579
▁Psik	-6580
▁Side	-6581
▁Site	-6582
▁Size	-6583
▁Stok	-6584
▁Tezg	-6585
▁Tozu	-6586
▁Ulaş	-6587
▁Word	-6588
▁YENİ	-6589
▁Yıld	-6590
▁aldı	-6591
▁altı	-6592
▁anim	-6593
▁anne	-6594
▁aray	-6595
▁azot	-6596
▁ağaç	-6597
▁bank	-6598
▁bant	-6599
▁bizi	-6600
▁boya	-6601
▁boyu	-6602
▁duru	-6603
▁döng	-6604
▁eVET	-6605
▁edip	-6606
▁ekib	-6607
▁etme	-6608
▁evde	-6609
▁fırç	-6610
▁goji	-6611
▁graf	-6612
▁güne	-6613
▁halı	-6614
▁icin	-6615
▁ipuç	-6616
▁isim	-6617
▁içme	-6618
▁işit	-6619
▁kent	-6620
▁kilo	-6621
▁klip	-6622
▁konf	-6623
▁krit	-6624
▁mate	-6625
▁mesl	-6626
▁mült	-6627
▁oral	-6628
▁pres	-6629
▁rady	-6630
▁reng	-6631
▁sent	-6632
▁serp	-6633
▁sirk	-6634
▁slot	-6635
▁staj	-6636
▁sütü	-6637
▁taah	-6638
▁tabi	-6639
▁tart	-6640
▁taşı	-6641
▁tram	-6642
▁turn	-6643
▁turu	-6644
▁tutk	-6645
▁valf	-6646
▁yalı	-6647
▁yılı	-6648
▁Üzer	-6649
▁çant	-6650
▁çapı	-6651
▁İlan	-6652
▁İzle	-6653
▁İzol	-6654
▁ısır	-6655
▁Şamp	-6656
▁Şart	-6657
▁şant	-6658
akayık	-6659
alamak	-6660
alanan	-6661
alyası	-6662
amızda	-6663
androl	-6664
artesi	-6665
ayback	-6666
celona	-6667
dırmaz	-6668
elated	-6669
enizin	-6670
enolon	-6671
esiden	-6672
esince	-6673
esteği	-6674
etooth	-6675
eğinde	-6676
format	-6677
guları	-6678
ifüzör	-6679
ikleri	-6680
ilelik	-6681
ilerek	-6682
iliyor	-6683
ilmeye	-6684
iminde	-6685
iyetle	-6686
laklık	-6687
libans	-6688
luluğu	-6689
memesi	-6690
mosfer	-6691
ocuğun	-6692
ojenik	-6693
ometre	-6694
selona	-6695
teryal	-6696
uterol	-6697
ülatör	-6698
üyorum	-6699
ımları	-6700
ısıyla	-6701
▁Arena	-6702
▁Arşiv	-6703
▁Balık	-6704
▁Belki	-6705
▁Boyun	-6706
▁Bugün	-6707
▁Carol	-6708
▁Ceket	-6709
▁Dikiş	-6710
▁Dolap	-6711
▁Dönüş	-6712
▁Dövme	-6713
▁EMAYE	-6714
▁Elmas	-6715
▁Esnek	-6716
▁Fakat	-6717
▁Forex	-6718
▁Gümüş	-6719
▁Güney	-6720
▁Hangi	-6721
▁Hayır	-6722
▁KALİT	-6723
▁KESME	-6724
▁Kalem	-6725
▁Kanal	-6726
▁Kapat	-6727
▁Kargo	-6728
▁Karşı	-6729
▁Kitap	-6730
▁Kurum	-6731
▁Lamba	-6732
▁Linux	-6733
▁Macar	-6734
▁Mesaj	-6735
▁Mikro	-6736
▁Nisan	-6737
▁Nokia	-6738
▁Orman	-6739
▁Pitts	-6740
▁Rapor	-6741
▁Sokak	-6742
▁Sonra	-6743
▁Soyma	-6744
▁Suudi	-6745
▁Süpür	-6746
▁Tamir	-6747
▁Tarif	-6748
▁Tarım	-6749
▁Ultra	-6750
▁Uygun	-6751
▁World	-6752
▁Yedek	-6753
▁Yorum	-6754
▁Yüzey	-6755
▁Yüzme	-6756
▁Zemin	-6757
▁aerob	-6758
▁akımı	-6759
▁arıza	-6760
▁atmak	-6761
▁atöly	-6762
▁beden	-6763
▁budur	-6764
▁bükme	-6765
▁bıçak	-6766
▁casus	-6767
▁cilde	-6768
▁dalga	-6769
▁damak	-6770
▁damar	-6771
▁davet	-6772
▁dekor	-6773
▁denir	-6774
▁desen	-6775
▁dolap	-6776
▁duşlu	-6777
▁dökün	-6778
▁edici	-6779
▁ekimi	-6780
▁elmas	-6781
▁elyaf	-6782
▁endiş	-6783
▁enerj	-6784
▁enteg	-6785
▁enter	-6786
▁etmez	-6787
▁ferah	-6788
▁flash	-6789
▁fırça	-6790
▁gizli	-6791
▁göğüs	-6792
▁hatır	-6793
▁hediy	-6794
▁hikay	-6795
▁hücre	-6796
▁hızla	-6797
▁ifade	-6798
▁ilacı	-6799
▁ileri	-6800
▁istey	-6801
▁kanep	-6802
▁katma	-6803
▁katıl	-6804
▁kitap	-6805
▁konus	-6806
▁koyun	-6807
▁kumar	-6808
▁kurut	-6809
▁kuzey	-6810
▁köpük	-6811
▁lamba	-6812
▁liman	-6813
▁modül	-6814
▁mutlu	-6815
▁nadir	-6816
▁nesil	-6817
▁oksit	-6818
▁olgun	-6819
▁oyunc	-6820
▁plaka	-6821
▁rakip	-6822
▁rengi	-6823
▁reçet	-6824
▁saati	-6825
▁sarma	-6826
▁sarım	-6827
▁satan	-6828
▁sergi	-6829
▁servo	-6830
▁sesli	-6831
▁solun	-6832
▁sonuc	-6833
▁spekt	-6834
▁stand	-6835
▁sıfır	-6836
▁tablo	-6837
▁tarzı	-6838
▁taşım	-6839
▁taşın	-6840
▁telif	-6841
▁temas	-6842
▁toplu	-6843
▁tıbbi	-6844
▁vakum	-6845
▁vakıf	-6846
▁yakıt	-6847
▁yanıt	-6848
▁yatan	-6849
▁yaşay	-6850
▁yönlü	-6851
▁yüklü	-6852
▁Çekme	-6853
▁çağır	-6854
▁çekin	-6855
▁ömrün	-6856
▁önler	-6857
▁üreme	-6858
▁ütüsü	-6859
▁İhtiy	-6860
▁İleri	-6861
▁İzmir	-6862
▁şüphe	-6863
▁şırın	-6864
abilmek	-6865
acınıza	-6866
alardan	-6867
angzhou	-6868
asküler	-6869
cilerin	-6870
düğünüz	-6871
dıkları	-6872
hanghai	-6873
ikolata	-6874
ilmemiş	-6875
itesini	-6876
lamalar	-6877
lamanın	-6878
lamanız	-6879
layınız	-6880
leridir	-6881
mayacak	-6882
ojistik	-6883
olanızı	-6884
ongguan	-6885
ormalde	-6886
tığımız	-6887
uvirtid	-6888
örneğin	-6889
ülkiyet	-6890
ışmalar	-6891
▁Afrika	-6892
▁Aralık	-6893
▁Baryum	-6894
▁Başkan	-6895
▁Birkaç	-6896
▁Birçok	-6897
▁Cihazı	-6898
▁Cumhur	-6899
▁Derece	-6900
▁Doktor	-6901
▁Doları	-6902
▁Electr	-6903
▁Eresin	-6904
▁Farklı	-6905
▁Fiyatı	-6906
▁Garant	-6907
▁Güncel	-6908
▁Hediye	-6909
▁Hiçbir	-6910
▁Intern	-6911
▁KOKUYO	-6912
▁Kalıcı	-6913
▁Kamera	-6914
▁Kapağı	-6915
▁Konfer	-6916
▁Lenovo	-6917
▁Lisans	-6918
▁Master	-6919
▁Mektup	-6920
▁Mevcut	-6921
▁Motoru	-6922
▁Müzesi	-6923
▁Odalar	-6924
▁Photos	-6925
▁Pirinç	-6926
▁Raporu	-6927
▁Riyali	-6928
▁Sitesi	-6929
▁Suites	-6930
▁Tablet	-6931
▁Tayvan	-6932
▁Taşıma	-6933
▁Tekrar	-6934
▁Teneke	-6935
▁Tipard	-6936
▁Toplam	-6937
▁Toplum	-6938
▁Toptan	-6939
▁Tshirt	-6940
▁Türbin	-6941
▁Yukarı	-6942
▁antren	-6943
▁aradığ	-6944
▁arıyor	-6945
▁askeri	-6946
▁açıkça	-6947
▁ağrısı	-6948
▁balkon	-6949
▁basınç	-6950
▁biçimi	-6951
▁bürosu	-6952
▁büyüme	-6953
▁bıçağı	-6954
▁cinsel	-6955
▁dantel	-6956
▁değeri	-6957
▁dokuma	-6958
▁dürüst	-6959
▁düzgün	-6960
▁ederiz	-6961
▁efekti	-6962
▁eleman	-6963
▁futbol	-6964
▁geçişi	-6965
▁gitmek	-6966
▁global	-6967
▁gömlek	-6968
▁gözlük	-6969
▁hasarı	-6970
▁havada	-6971
▁hediye	-6972
▁hisset	-6973
▁hotels	-6974
▁iletim	-6975
▁isteğe	-6976
▁izleme	-6977
▁kamera	-6978
▁kamyon	-6979
▁kardiy	-6980
▁kaybet	-6981
▁kaybol	-6982
▁kayded	-6983
▁kaydet	-6984
▁kesmek	-6985
▁keşfed	-6986
▁kişiye	-6987
▁konusu	-6988
▁kripto	-6989
▁kuvvet	-6990
▁kültür	-6991
▁makyaj	-6992
▁milyon	-6993
▁mimari	-6994
▁musluk	-6995
▁mürekk	-6996
▁naylon	-6997
▁odanın	-6998
▁okuyun	-6999
▁ortamı	-7000
▁paketi	-7001
▁rehber	-7002
▁sarhoş	-7003
▁sayede	-7004
▁sağlam	-7005
▁sembol	-7006
▁sergil	-7007
▁sunucu	-7008
▁sürede	-7009
▁süreli	-7010
▁sıkıcı	-7011
▁tahriş	-7012
▁takdir	-7013
▁tarihi	-7014
▁taşıma	-7015
▁tehlik	-7016
▁teşkil	-7017
▁trafik	-7018
▁tırnak	-7019
▁unutul	-7020
▁yandan	-7021
▁yaptık	-7022
▁yapımı	-7023
▁yağsız	-7024
▁yaşamı	-7025
▁yerden	-7026
▁yerler	-7027
▁yıldır	-7028
▁zordur	-7029
▁çözmek	-7030
▁çıkarı	-7031
▁örtüsü	-7032
▁şeyden	-7033
▁şeydir	-7034
dığınızı	-7035
ebilecek	-7036
indistan	-7037
isindeki	-7038
lacaktır	-7039
lemenize	-7040
lendirme	-7041
lerimizi	-7042
leyicisi	-7043
liliğini	-7044
liğinden	-7045
loksasin	-7046
ografisi	-7047
quipment	-7048
üphanesi	-7049
▁Alaşımı	-7050
▁Almanya	-7051
▁Araçlar	-7052
▁Arkadaş	-7053
▁Avantaj	-7054
▁Bayramı	-7055
▁Bilişim	-7056
▁Böylece	-7057
▁Entegre	-7058
▁Fermuar	-7059
▁Görünüm	-7060
▁Haziran	-7061
▁Industr	-7062
▁Instant	-7063
▁Katkısı	-7064
▁Kavrama	-7065
▁Konteyn	-7066
▁Mekanik	-7067
▁Perdesi	-7068
▁Porsche	-7069
▁Program	-7070
▁Protein	-7071
▁Related	-7072
▁Sensörü	-7073
▁Sipariş	-7074
▁Steroid	-7075
▁Twitter	-7076
▁Ukrayna	-7077
▁Venedik	-7078
▁Yeniden	-7079
▁anlayış	-7080
▁anlaşma	-7081
▁anormal	-7082
▁araçlar	-7083
▁artırır	-7084
▁açıklar	-7085
▁aşağıya	-7086
▁banyoda	-7087
▁barında	-7088
▁bizimle	-7089
▁coğrafi	-7090
▁dayanak	-7091
▁dengeli	-7092
▁değilim	-7093
▁dinamik	-7094
▁direnci	-7095
▁dükkanı	-7096
▁element	-7097
▁etkiler	-7098
▁firması	-7099
▁getirdi	-7100
▁görünür	-7101
▁hakları	-7102
▁homojen	-7103
▁hükümet	-7104
▁ilaçlar	-7105
▁implant	-7106
▁indirin	-7107
▁işçilik	-7108
▁kariyer	-7109
▁katkıda	-7110
▁kazanan	-7111
▁kendine	-7112
▁kendisi	-7113
▁keyfini	-7114
▁kurulan	-7115
▁machine	-7116
▁maddesi	-7117
▁mekanik	-7118
▁membran	-7119
▁mikrosk	-7120
▁mobilya	-7121
▁molekül	-7122
▁mutfağı	-7123
▁odasına	-7124
▁ortamda	-7125
▁oynamak	-7126
▁parçası	-7127
▁pencere	-7128
▁polimer	-7129
▁pompası	-7130
▁projesi	-7131
▁reaktiv	-7132
▁riskini	-7133
▁saygılı	-7134
▁segment	-7135
▁sivilce	-7136
▁suyunun	-7137
▁söyledi	-7138
▁sıradan	-7139
▁talimat	-7140
▁tanıtım	-7141
▁tesisin	-7142
▁toplama	-7143
▁ulaşmak	-7144
▁uyandır	-7145
▁yapısal	-7146
▁yapıyor	-7147
▁yatırma	-7148
▁yerleri	-7149
▁Çerçeve	-7150
▁Çocuğun	-7151
▁Örneğin	-7152
▁örneğin	-7153
▁öğrenme	-7154
▁Şakayık	-7155
▁şablonu	-7156
alarından	-7157
androlone	-7158
arsayılan	-7159
duğunuzda	-7160
ilendirme	-7161
malısınız	-7162
melisiniz	-7163
ultipleks	-7164
ıldığında	-7165
▁Akademik	-7166
▁Alanları	-7167
▁Aletleri	-7168
▁Ateşleme	-7169
▁Bağlantı	-7170
▁Bisiklet	-7171
▁Cinsiyet	-7172
▁Danışman	-7173
▁Doğrudan	-7174
▁Dünyanın	-7175
▁Haritası	-7176
▁Hoparlör	-7177
▁Kablosuz	-7178
▁Kaldırma	-7179
▁Kiralama	-7180
▁Kozmetik	-7181
▁Pnömatik	-7182
▁Products	-7183
▁Restoran	-7184
▁Sıkıştır	-7185
▁Tarayıcı	-7186
▁Tasarımı	-7187
▁Vanaları	-7188
▁Yardımcı	-7189
▁amacımız	-7190
▁bazıları	-7191
▁başvurun	-7192
▁belediye	-7193
▁belirgin	-7194
▁bildirim	-7195
▁bilimsel	-7196
▁bulunmak	-7197
▁dayanımı	-7198
▁depolama	-7199
▁değişken	-7200
▁dinlenme	-7201
▁edildiği	-7202
▁endüstri	-7203
▁festival	-7204
▁girmeden	-7205
▁gönderin	-7206
▁harekete	-7207
▁hikayesi	-7208
▁indirmek	-7209
▁ipuçları	-7210
▁istanbul	-7211
▁kalbinde	-7212
▁kalsiyum	-7213
▁kamerası	-7214
▁karayolu	-7215
▁karşılaş	-7216
▁kazanmak	-7217
▁komisyon	-7218
▁kullanma	-7219
▁maddeler	-7220
▁makinası	-7221
▁materyal	-7222
▁muhteşem	-7223
▁noktalar	-7224
▁odalarda	-7225
▁ortaklık	-7226
▁parkları	-7227
▁piyasaya	-7228
▁planlama	-7229
▁sektörde	-7230
▁sertifik	-7231
▁seçerken	-7232
▁sonuçlar	-7233
▁soğutucu	-7234
▁sporları	-7235
▁teslimat	-7236
▁testleri	-7237
▁titreşim	-7238
▁tüketici	-7239
▁vatandaş	-7240
▁yapılmış	-7241
▁yararlan	-7242
▁yerlerde	-7243
▁yetişkin	-7244
▁yuvarlak	-7245
▁yüklemek	-7246
▁zencefil	-7247
▁Ürünleri	-7248
▁çubuklar	-7249
▁önerilen	-7250
▁önlemler	-7251
▁önleyici	-7252
▁İletişim	-7253
▁ışıkları	-7254
▁şartlara	-7255
lenbuterol	-7256
libanserin	-7257
mamaktadır	-7258
▁Barcelona	-7259
▁Barselona	-7260
▁Ekstruder	-7261
▁Güvenliği	-7262
▁Madalyası	-7263
▁Otomasyon	-7264
▁Paketleme	-7265
▁Performan	-7266
▁Transferi	-7267
▁arkasında	-7268
▁bluetooth	-7269
▁boyutları	-7270
▁deneyimli	-7271
▁desenleri	-7272
▁dosyaları	-7273
▁düğmesini	-7274
▁düşünüyor	-7275
▁ettiğiniz	-7276
▁fazlasını	-7277
▁görüntüle	-7278
▁göstermek	-7279
▁havaalanı	-7280
▁hücreleri	-7281
▁içeriğini	-7282
▁işlemleri	-7283
▁kalınlığı	-7284
▁kelimeler	-7285
▁kontrollü	-7286
▁kutusunda	-7287
▁monitörün	-7288
▁mümkündür	-7289
▁perakende	-7290
▁promosyon	-7291
▁sahibinin	-7292
▁sektörüne	-7293
▁sürebilir	-7294
▁süresince	-7295
▁unutmayın	-7296
▁uygulanır	-7297
▁verebilir	-7298
▁videoları	-7299
▁villaları	-7300
▁yakınında	-7301
▁yanındaki	-7302
▁yatakları	-7303
▁yemekleri	-7304
▁yönlendir	-7305
▁çerezleri	-7306
▁çözümleri	-7307
▁örneğidir	-7308
▁ülkemizde	-7309
▁ısıtıcısı	-7310
▁Devletleri	-7311
▁Ekstrüzyon	-7312
▁Elektronik	-7313
▁Geleneksel	-7314
▁Hassasiyet	-7315
▁Kapasitesi	-7316
▁Madencilik	-7317
▁Pittsburgh	-7318
▁Politikası	-7319
▁Smartphone	-7320
▁University	-7321
▁bakteriyel	-7322
▁barındırma	-7323
▁bağlantısı	-7324
▁bağışıklık	-7325
▁belirlenir	-7326
▁bölgesinde	-7327
▁büyümesini	-7328
▁değişiklik	-7329
▁endüstrisi	-7330
▁etkileyici	-7331
▁formatında	-7332
▁gereklidir	-7333
▁geçerlidir	-7334
▁güneşlenme	-7335
▁hakkındaki	-7336
▁kaynakları	-7337
▁kullanışlı	-7338
▁kırışıklık	-7339
▁madencilik	-7340
▁merkezinde	-7341
▁müşterinin	-7342
▁parolanızı	-7343
▁parçaların	-7344
▁resepsiyon	-7345
▁restoranda	-7346
▁sağlanması	-7347
▁sözleşmeye	-7348
▁tıklayarak	-7349
▁tıklayınız	-7350
▁uzaklıktan	-7351
▁verdiğiniz	-7352
▁yarışmalar	-7353
▁Öğrenciler	-7354
▁özelliğine	-7355
▁şehrindeki	-7356
▁Kategoriler	-7357
▁Laboratuvar	-7358
▁Yapıştırıcı	-7359
▁arkadaşları	-7360
▁bulunabilir	-7361
▁destekleyen	-7362
▁değişebilir	-7363
▁dosyalarını	-7364
▁etkinleştir	-7365
▁etkinlikler	-7366
▁fotoğraflar	-7367
▁haddelenmiş	-7368
▁istasyonuna	-7369
▁karıştırıcı	-7370
▁kompozisyon	-7371
▁konuklarına	-7372
▁kıyafetleri	-7373
▁misafirlere	-7374
▁mühendislik	-7375
▁müşterilere	-7376
▁tedarikçisi	-7377
▁teknolojiye	-7378
▁yapmaktadır	-7379
▁yemeklerini	-7380
▁yerleştirin	-7381
▁çalışmaları	-7382
▁ürünlerinin	-7383
▁Uygulamaları	-7384
▁bölgelerinde	-7385
▁faaliyetleri	-7386
▁girişimcilik	-7387
▁görüntülemek	-7388
▁gösterebilir	-7389
▁hastalıkları	-7390
▁hizmetinizde	-7391
▁kullanabilir	-7392
▁kullanmasını	-7393
▁kullanıldığı	-7394
▁uygulamasını	-7395
▁Ayarlanabilir	-7396
▁havaalanından	-7397
▁ihtiyaçlarına	-7398
▁kullanıcılara	-7399
▁tarayıcınızın	-7400
▁ulaşabilirler	-7401
▁verilerinizin	-7402
▁araştırmacılar	-7403
▁bilgilerinizin	-7404
▁değerlendirmek	-7405
▁fotoğraflarını	-7406
▁geliştiriciler	-7407
▁geliştirilmesi	-7408
▁sağlanmaktadır	-7409
▁yakınlarındaki	-7410
▁yapabilirsiniz	-7411
appartementhotel	-7412
",	-7413
)(	-7414
-8	-7415
2-	-7416
4,	-7417
41	-7418
67	-7419
79	-7420
82	-7421
88	-7422
94	-7423
:1	-7424
??	-7425
Ar	-7426
EA	-7427
EB	-7428
EP	-7429
FR	-7430
IC	-7431
Jİ	-7432
KD	-7433
MQ	-7434
Ms	-7435
OĞ	-7436
PG	-7437
PL	-7438
Re	-7439
Wh	-7440
ba	-7441
bl	-7442
cc	-7443
fc	-7444
ie	-7445
ja	-7446
kf	-7447
nm	-7448
sd	-7449
yd	-7450
zo	-7451
İD	-7452
İn	-7453
İş	-7454
əs	-7455
ав	-7456
те	-7457
-19	-7458
-23	-7459
-40	-7460
.15	-7461
.20	-7462
206	-7463
220	-7464
32.	-7465
ARE	-7466
CAD	-7467
DEN	-7468
IBC	-7469
INI	-7470
Kon	-7471
LAR	-7472
Ltd	-7473
MAK	-7474
PEG	-7475
POR	-7476
Pay	-7477
SEK	-7478
Saf	-7479
TEL	-7480
TIR	-7481
Tüm	-7482
ULT	-7483
VPN	-7484
Web	-7485
aat	-7486
adi	-7487
ake	-7488
arc	-7489
ave	-7490
bah	-7491
bey	-7492
bof	-7493
bur	-7494
bük	-7495
cam	-7496
ced	-7497
cus	-7498
cük	-7499
''	-7500
--	-7501
1-	-7502
1.	-7503
47	-7504
97	-7505
AF	-7506
FA	-7507
GO	-7508
MX	-7509
ZH	-7510
gr	-7511
ko	-7512
pe	-7513
po	-7514
ÜK	-7515
ÜM	-7516
ýn	-7517
Ğİ	-7518
ıh	-7519
aks	-7520
bis	-7521
dad	-7522
dak	-7523
deş	-7524
din	-7525
düm	-7526
eak	-7527
ecz	-7528
eed	-7529
eep	-7530
eet	-7531
ela	-7532
els	-7533
erg	-7534
ery	-7535
etv	-7536
ety	-7537
eva	-7538
eçe	-7539
fon	-7540
gas	-7541
geç	-7542
gon	-7543
gue	-7544
gül	-7545
gıt	-7546
hem	-7547
hop	-7548
hui	-7549
hür	-7550
ico	-7551
ify	-7552
iha	-7553
iki	-7554
inz	-7555
ism	-7556
isp	-7557
ivi	-7558
kır	-7559
lah	-7560
lio	-7561
lix	-7562
lox	-7563
lue	-7564
mac	-7565
mis	-7566
mod	-7567
mon	-7568
nat	-7569
nec	-7570
nit	-7571
nor	-7572
oel	-7573
omi	-7574
org	-7575
ori	-7576
ory	-7577
osp	-7578
otu	-7579
oyu	-7580
pad	-7581
pal	-7582
pat	-7583
que	-7584
rag	-7585
ral	-7586
red	-7587
riz	-7588
sam	-7589
sek	-7590
sif	-7591
soc	-7592
ste	-7593
taş	-7594
tih	-7595
uer	-7596
une	-7597
ura	-7598
uti	-7599
5.	-7600
Ge	-7601
HI	-7602
MH	-7603
PM	-7604
TF	-7605
XT	-7606
cm	-7607
hz	-7608
ls	-7609
mp	-7610
ny	-7611
xy	-7612
şe	-7613
800	-7614
ENT	-7615
apk	-7616
ase	-7617
bek	-7618
ear	-7619
hid	-7620
ikl	-7621
raj	-7622
ris	-7623
say	-7624
way	-7625
web	-7626
win	-7627
xia	-7628
yar	-7629
yat	-7630
yiz	-7631
yth	-7632
yıl	-7633
zar	-7634
zon	-7635
çak	-7636
übü	-7637
üel	-7638
ümü	-7639
İCİ	-7640
ılm	-7641
ınd	-7642
şan	-7643
▁''	-7644
▁(7	-7645
▁06	-7646
▁1)	-7647
▁1,	-7648
▁2)	-7649
▁32	-7650
▁34	-7651
▁36	-7652
▁3:	-7653
▁47	-7654
▁5.	-7655
▁57	-7656
▁7,	-7657
▁85	-7658
▁AV	-7659
▁Aj	-7660
▁BD	-7661
▁BI	-7662
▁BR	-7663
▁Ba	-7664
▁Bi	-7665
▁BÖ	-7666
▁CD	-7667
▁CR	-7668
▁EB	-7669
▁EK	-7670
▁Ef	-7671
▁Ep	-7672
▁Fi	-7673
▁GB	-7674
▁GR	-7675
▁HA	-7676
▁HE	-7677
▁Hu	-7678
▁IL	-7679
▁IR	-7680
▁Iç	-7681
▁Ji	-7682
▁KE	-7683
▁KM	-7684
▁KN	-7685
▁Ki	-7686
▁LS	-7687
▁La	-7688
▁Lo	-7689
▁MC	-7690
▁MD	-7691
▁MM	-7692
▁Mm	-7693
▁NO	-7694
▁OR	-7695
▁Oh	-7696
▁Om	-7697
▁Ov	-7698
▁PS	-7699
▁Ri	-7700
▁SL	-7701
▁SO	-7702
▁Sl	-7703
▁TC	-7704
▁TS	-7705
▁Uç	-7706
▁Vi	-7707
▁XO	-7708
▁XP	-7709
▁XY	-7710
▁YA	-7711
▁YT	-7712
▁br	-7713
▁dc	-7714
▁ep	-7715
▁ib	-7716
▁ml	-7717
▁ob	-7718
▁tw	-7719
▁up	-7720
▁va	-7721
▁ÇO	-7722
▁Öl	-7723
▁Öz	-7724
▁Ül	-7725
▁öy	-7726
▁İP	-7727
▁İd	-7728
▁İt	-7729
▁ız	-7730
▁şö	-7731
-201	-7732
0000	-7733
2500	-7734
ARMs	-7735
ENİŞ	-7736
Free	-7737
Join	-7738
OTEL	-7739
Türk	-7740
abad	-7741
abes	-7742
acın	-7743
ades	-7744
ahim	-7745
ahür	-7746
alam	-7747
ambu	-7748
ames	-7749
andy	-7750
anim	-7751
anır	-7752
anız	-7753
aria	-7754
asla	-7755
asta	-7756
astr	-7757
atec	-7758
atin	-7759
atça	-7760
avak	-7761
avat	-7762
avru	-7763
azik	-7764
ağız	-7765
bolu	-7766
bour	-7767
cean	-7768
chia	-7769
cial	-7770
dale	-7771
drom	-7772
drop	-7773
eder	-7774
edim	-7775
▁	-7776
a	-7777
e	-7778
i	-7779
r	-7780
l	-7781
n	-7782
k	-7783
ı	-7784
t	-7785
m	-7786
s	-7787
d	-7788
o	-7789
u	-7790
y	-7791
b	-7792
ü	-7793
z	-7794
v	-7795
ş	-7796
,	-7797
g	-7798
ç	-7799
.	-7800
c	-7801
p	-7802
h	-7803
ğ	-7804
f	-7805
ö	-7806
A	-7807
S	-7808
B	-7809
K	-7810
T	-7811
0	-7812
M	-7813
E	-7814
D	-7815
P	-7816
1	-7817
H	-7818
2	-7819
C	-7820
-	-7821
G	-7822
O	-7823
L	-7824
R	-7825
Y	-7826
j	-7827
İ	-7828
:	-7829
N	-7830
F	-7831
I	-7832
3	-7833
5	-7834
)	-7835
(	-7836
Ç	-7837
4	-7838
V	-7839
'	-7840
U	-7841
6	-7842
w	-7843
9	-7844
8	-7845
7	-7846
W	-7847
Ü	-7848
Ş	-7849
"	-7850
Ö	-7851
x	-7852
Z	-7853
J	-7854
;	-7855
?	-7856
X	-7857
_	-7858
!	-7859
q	-7860
Q	-7861
ə	-7862
о	-7863
â	-7864
ý	-7865
и	-7866
а	-7867
р	-7868
Ğ	-7869
Ý	-7870
к	-7871
е	-7872
Т	-7873
в	-7874
л	-7875
с	-7876
т	-7877
н	-7878
я	-7879
ä	-7880
é	-7881
í	-7882
м	-7883
α	-7884
ν	-7885
Р	-7886
б	-7887
д	-7888
п	-7889
у	-7890
ь	-7891
ر	-7892
Â	-7893
Ð	-7894
æ	-7895
ê	-7896
ð	-7897
þ	-7898
Ə	-7899
ι	-7900
λ	-7901
В	-7902
й	-7903
א	-7904
י	-7905
ר	-7906
ت	-7907
ی	-7908
ộ	-7909
À	-7910
Á	-7911
Ø	-7912
à	-7913
è	-7914
ë	-7915
î	-7916
ñ	-7917
ô	-7918
û	-7919
Č	-7920
ł	-7921
ń	-7922
š	-7923
ɪ	-7924
Ε	-7925
Φ	-7926
ά	-7927
έ	-7928
η	-7929
κ	-7930
τ	-7931
І	-7932
А	-7933
Б	-7934
Г	-7935
Е	-7936
Ж	-7937
З	-7938
М	-7939
П	-7940
С	-7941
г	-7942
з	-7943
х	-7944
ц	-7945
ч	-7946
ш	-7947
щ	-7948
ъ	-7949
ы	-7950
ҫ	-7951
ב	-7952
ה	-7953
ו	-7954
נ	-7955
ע	-7956
ק	-7957
ת	-7958
ا	-7959
ب	-7960
س	-7961
ش	-7962
ع	-7963
و	-7964
ي	-7965
ک	-7966
ア	-7967
タ	-7968
ヤ	-7969
ル	-7970
ン	-7971
中	-7972
乐	-7973
体	-7974
国	-7975
城	-7976
娱	-7977
导	-7978
文	-7979
日	-7980
本	-7981
简	-7982
者	-7983
語	-7984
际	-7985
领	-7986
국	-7987
니	-7988
아	-7989
어	-7990
오	-7991
일	-7992
전	-7993
텔	-7994
한	-7995
호	-7996
