<unk>	0
<s>	0
</s>	0
ी	-3.85335
ा	-3.87357
▁के	-3.89077
।	-3.91837
े	-3.91998
र	-3.94403
▁	-4.00603
न	-4.09417
▁में	-4.17016
ल	-4.23812
▁है	-4.33688
▁की	-4.35995
म	-4.48456
,	-4.55855
▁को	-4.57184
क	-4.60331
▁से	-4.64172
ि	-4.70747
त	-4.72114
ों	-4.74759
▁का	-4.85115
▁ने	-4.87705
्	-4.87894
ो	-4.88378
▁स	-4.89776
स	-4.96472
द	-4.99687
प	-5.01245
▁पर	-5.02748
ट	-5.03108
ं	-5.05079
▁और	-5.07724
▁कि	-5.08041
ु	-5.1194
ू	-5.14157
य	-5.14189
.	-5.16374
ज	-5.16488
ह	-5.17805
▁अ	-5.20052
▁आ	-5.27144
ने	-5.30895
▁म	-5.32849
▁कर	-5.3325
व	-5.33631
ता	-5.36551
▁हैं	-5.3756
ग	-5.40668
ब	-5.4351
ना	-5.43825
▁इस	-5.45896
▁प	-5.46675
श	-5.47628
▁भी	-5.49173
▁क	-5.54579
▁ब	-5.55222
▁ज	-5.59768
ै	-5.65521
▁लिए	-5.71595
▁हो	-5.75825
▁प्र	-5.76068
▁च	-5.78262
▁एक	-5.79496
▁श	-5.80638
-	-5.80965
▁न	-5.81253
▁जा	-5.81914
▁व	-5.82688
ड	-5.8312
▁ह	-5.84716
फ	-5.84954
ण	-5.85069
वा	-5.8648
▁ग	-5.88261
▁नहीं	-5.89864
ित	-5.9208
ध	-5.93228
कर	-5.95935
▁द	-5.96252
▁किया	-5.9802
ए	-5.98201
ते	-5.99333
िक	-6.00932
रा	-6.02411
्र	-6.0417
▁फ	-6.04435
च	-6.05152
ला	-6.05829
▁र	-6.06693
▁यह	-6.07414
▁गया	-6.09698
▁था	-6.10989
▁ही	-6.11322
मा	-6.1168
भ	-6.14093
री	-6.14703
्य	-6.15269
▁त	-6.15882
ख	-6.15899
ड़	-6.18433
या	-6.19892
▁कहा	-6.20814
▁वि	-6.23119
का	-6.24027
▁ख	-6.25097
ार	-6.27144
सी	-6.30422
▁ल	-6.31003
▁तो	-6.32301
▁करने	-6.32425
ंड	-6.33911
▁सं	-6.34726
ाई	-6.34898
0	-6.34985
▁ए	-6.36768
ली	-6.37216
▁साथ	-6.37309
▁भ	-6.38942
ें	-6.39436
ती	-6.41404
▁बाद	-6.41806
क्ष	-6.42211
ठ	-6.43052
▁रहे	-6.43303
ॉ	-6.44024
ियों	-6.45416
नी	-6.45521
थ	-6.45917
▁दिया	-6.48186
▁मिल	-6.50639
▁सा	-6.50857
ाइ	-6.53519
ां	-6.53797
ंग	-6.55326
ेश	-6.55904
▁पा	-6.57581
▁ट	-6.58873
▁गई	-6.59078
ष	-6.59105
ति	-6.60018
▁तक	-6.61482
▁उ	-6.6271
▁रहा	-6.63694
स्त	-6.64158
▁दे	-6.65299
िया	-6.66225
▁रही	-6.66627
▁हुए	-6.67703
)	-6.68268
के	-6.70191
▁नि	-6.71278
▁जो	-6.71751
▁(	-6.73324
1	-6.73767
ाव	-6.74462
▁सरकार	-6.74758
त्र	-6.75036
▁सु	-6.76105
▁पुलिस	-6.76125
▁थी	-6.76949
▁दी	-6.78165
▁उनक	-6.78829
्व	-6.78984
ओं	-6.79498
▁लोगों	-6.79865
दा	-6.79993
्ल	-6.80621
▁2	-6.80685
▁मा	-6.80753
्स	-6.80822
▁अपने	-6.81202
2	-6.82124
्या	-6.82301
्त	-6.83399
स्ट	-6.8431
▁इसक	-6.84347
्ट	-6.84435
टी	-6.8548
▁सी	-6.86096
पी	-6.86657
ंस	-6.86871
▁वह	-6.87102
से	-6.88443
▁मु	-6.88905
▁लेकिन	-6.89115
▁उस	-6.89209
िल	-6.89391
स्	-6.89471
पा	-6.90706
▁थे	-6.9094
▁दो	-6.92397
▁उन्होंने	-6.93603
सा	-6.93622
ेट	-6.94029
िंग	-6.94172
5	-6.9434
पुर	-6.94532
▁अब	-6.9563
▁लगा	-6.96384
कार	-6.96537
जी	-6.96781
्‍	-6.97962
▁गए	-6.98493
ई	-6.98574
▁इ	-6.99512
▁रा	-6.99549
▁चल	-6.99915
▁या	-7.00056
▁कम	-7.00062
▁ले	-7.00195
ंट	-7.01548
ुल	-7.02336
▁ध	-7.02505
e	-7.03235
जा	-7.03482
वार	-7.04516
▁लग	-7.05052
ाने	-7.05373
▁बना	-7.05522
▁होने	-7.06382
a	-7.06441
बा	-7.07451
▁पहले	-7.07584
▁दिन	-7.08049
▁हम	-7.0901
▁इन	-7.09018
▁कुछ	-7.09927
▁बताया	-7.10034
मान	-7.10548
▁बा	-7.11254
▁सिंह	-7.1278
3	-7.13473
गी	-7.13617
8	-7.14191
▁रो	-7.14263
में	-7.14297
ंत	-7.14424
ले	-7.14874
र्म	-7.15127
▁वाले	-7.15176
वी	-7.15196
दी	-7.16272
9	-7.16323
▁1	-7.17907
चा	-7.17924
▁भारत	-7.18197
शा	-7.18818
▁ला	-7.18992
▁देख	-7.19102
▁बार	-7.19265
▁सि	-7.20729
4	-7.20731
▁लेकर	-7.21489
▁3	-7.21824
:	-7.22045
▁ऐस	-7.22118
योग	-7.22198
7	-7.22553
o	-7.22586
▁करते	-7.23195
▁पहुंच	-7.23821
i	-7.24535
▁कोई	-7.25415
▁राज	-7.25957
▁पूर	-7.25996
िट	-7.26159
▁छ	-7.27291
▁आप	-7.27315
▁बढ़	-7.27522
▁साल	-7.28132
क्त	-7.28539
▁अपनी	-7.29189
6	-7.29255
▁इं	-7.29754
▁देश	-7.3004
▁कई	-7.31042
▁बात	-7.31381
की	-7.3202
▁दौरान	-7.32654
▁20	-7.32876
▁रख	-7.32984
▁हुई	-7.34567
▁कह	-7.35861
▁उप	-7.35993
▁सभी	-7.36574
▁ट्र	-7.36867
▁ये	-7.37317
▁गु	-7.38238
िस	-7.38978
▁तरह	-7.39129
र्ट	-7.39453
▁क्षेत्र	-7.39672
एम	-7.39776
जन	-7.39966
▁जब	-7.40269
्यू	-7.40878
▁घर	-7.41346
▁प्रदेश	-7.41439
वर	-7.41891
▁बि	-7.41975
हर	-7.42097
गा	-7.42328
▁समय	-7.42413
▁बे	-7.42599
▁खा	-7.43298
िव	-7.43912
▁स्व	-7.44728
▁राज्य	-7.4473
▁लिया	-7.45213
एस	-7.45328
वि	-7.45722
वाल	-7.45732
▁जिस	-7.45839
▁लोग	-7.46361
ड़ा	-7.46534
ीय	-7.46906
▁हुआ	-7.47229
क्स	-7.47487
▁दिल्ली	-7.47544
बी	-7.47997
़	-7.4803
▁ना	-7.48031
▁आपक	-7.48332
डी	-7.48617
▁फिल्म	-7.4881
क्र	-7.48986
▁वे	-7.49472
▁बन	-7.49569
▁नाम	-7.49901
▁काम	-7.5012
t	-7.51068
द्ध	-7.51331
▁अधिक	-7.51722
▁रूप	-7.51744
ोर	-7.51935
▁जाने	-7.51964
यर	-7.52198
ेंगे	-7.5224
▁द्वारा	-7.52382
▁कै	-7.5327
'	-7.53284
▁आरोप	-7.53716
▁दा	-7.53882
▁टीम	-7.54265
▁ड	-7.54847
्च	-7.55093
▁रह	-7.55456
एं	-7.55722
▁शुरू	-7.56086
कि	-7.56296
▁प्रति	-7.56965
▁घ	-7.57153
▁आज	-7.5721
▁उन्हें	-7.57468
▁चुनाव	-7.57468
▁हर	-7.57621
▁बीच	-7.58098
00	-7.58478
▁बी	-7.58795
शन	-7.58933
▁मान	-7.58977
र्ड	-7.59219
▁5	-7.5943
▁रि	-7.59641
दार	-7.59946
▁कोरोना	-7.60291
▁होगा	-7.61099
s	-7.61369
▁कार्य	-7.61844
ेगा	-7.62448
इ	-7.62778
प्र	-7.63075
▁चुक	-7.63093
▁तीन	-7.63097
r	-7.63108
ज़	-7.6339
उ	-7.63635
▁दूसर	-7.63935
▁पु	-7.64042
त्त	-7.64161
ंज	-7.64205
▁डा	-7.64648
▁लाख	-7.64672
▁4	-7.64794
र्ज	-7.65406
▁'	-7.65536
▁पै	-7.65556
र्स	-7.65767
घ	-7.65921
ंच	-7.67253
▁सकता	-7.67408
ेशन	-7.67794
▁अनु	-7.68216
▁जानकारी	-7.68488
▁वर्ष	-7.69361
▁कांग्रेस	-7.6966
ये	-7.69673
▁वहीं	-7.69692
सभा	-7.6991
▁एव	-7.69946
अ	-7.7026
▁गो	-7.71313
▁मामले	-7.7134
▁यू	-7.71378
▁दोनों	-7.71677
▁महा	-7.72074
▁मैं	-7.72076
▁आई	-7.72346
▁कुमार	-7.72854
▁जाता	-7.72918
▁जाएगा	-7.73302
▁पड़	-7.74091
धान	-7.75051
▁10	-7.75485
▁ता	-7.75514
▁पूर्व	-7.75938
स्थ	-7.76574
▁फिर	-7.76676
▁रुपये	-7.77419
ओ	-7.7757
आई	-7.7829
▁करना	-7.78685
▁करोड़	-7.79151
▁पास	-7.79501
...	-7.79928
’	-7.8
▁मि	-7.80711
▁वाली	-7.81319
र्क	-7.81398
▁कारण	-7.81442
ग्र	-7.8202
▁सब	-7.821
▁पार्टी	-7.82208
▁मार	-7.82375
h	-7.83097
▁बता	-7.83715
▁ओ	-7.84184
ँ	-7.84455
▁जारी	-7.84562
▁जांच	-7.84837
▁गांव	-7.84917
िंद	-7.85449
छ	-7.85451
▁मांग	-7.85893
▁शामिल	-7.86294
▁सकते	-7.86347
▁डि	-7.8709
▁विभाग	-7.87227
▁चाहिए	-7.87228
▁पद	-7.87278
ेंद्र	-7.87314
▁बच्च	-7.88217
d	-7.88642
▁ज्यादा	-7.88643
l	-7.89118
▁एस	-7.89145
▁अध्यक्ष	-7.89596
▁तैयार	-7.89596
▁मोदी	-7.89606
च्छ	-7.90079
▁6	-7.90421
▁अन्य	-7.90627
▁जिला	-7.90708
▁वो	-7.90927
▁ऑ	-7.91069
हार	-7.91575
▁पहल	-7.91595
▁भारतीय	-7.91685
न्न	-7.92048
▁हजार	-7.92051
र्थ	-7.92457
▁‘	-7.92841
▁इससे	-7.92924
▁जिले	-7.93043
हित	-7.93611
▁उसके	-7.9413
▁करें	-7.94437
▁ओर	-7.94774
▁राम	-7.94905
▁किए	-7.9535
▁खेल	-7.96433
▁बहुत	-7.97068
धार	-7.97133
▁उन	-7.97572
▁छात्र	-7.97585
▁श्री	-7.97642
▁झ	-7.97764
▁उत्तर	-7.9812
ियां	-7.98302
n	-7.98467
झ	-7.9885
बसे	-7.9915
▁हाल	-7.99417
▁खिलाफ	-7.9968
▁जैस	-7.99949
▁देने	-8.0012
ॉल	-8.00258
▁काफ	-8.00992
▁मंत्री	-8.01255
▁भाजपा	-8.01285
▁मह	-8.01587
▁दर्ज	-8.01677
▁बु	-8.0181
र्ग	-8.02247
▁होगी	-8.02706
▁डे	-8.02918
▁जरूर	-8.03471
▁चार	-8.03532
▁महिला	-8.03909
▁सामने	-8.04047
▁क्यों	-8.04596
▁भर	-8.05265
▁बारे	-8.05462
▁मौत	-8.05693
▁आए	-8.05799
▁बच	-8.06262
▁:	-8.06377
▁वाल	-8.07269
▁उसक	-8.07553
▁पांच	-8.08218
ष्ट	-8.08471
आर	-8.08752
▁डी	-8.0885
युक्त	-8.0914
▁अगर	-8.09285
▁वर्	-8.09691
▁अभी	-8.098
▁19	-8.09914
राज	-8.10022
"	-8.10305
▁अस्पताल	-8.10305
▁योजना	-8.10305
▁स्थान	-8.10306
▁दिए	-8.10325
न्ह	-8.10336
आ	-8.1043
▁अभि	-8.10911
▁लड़	-8.10936
▁जिन	-8.11008
▁चाह	-8.11038
▁नई	-8.11323
▁बंद	-8.11564
▁जीत	-8.12558
▁अपना	-8.12755
▁मामल	-8.13559
▁तथा	-8.13933
▁नगर	-8.14009
▁बैठक	-8.14522
▁हालांकि	-8.14522
▁दिख	-8.1454
▁बह	-8.14647
A	-8.1514
वास	-8.15209
ढ़	-8.15621
▁खान	-8.16037
▁विकास	-8.16397
▁शहर	-8.16586
m	-8.18284
बंध	-8.18285
▁ई	-8.18334
▁करीब	-8.1851
ेक्ट	-8.18574
▁जिसक	-8.18858
c	-8.18925
▁रिपोर्ट	-8.18951
▁7	-8.19013
▁अनुसार	-8.19577
▁केंद्र	-8.19848
ढ	-8.20163
P	-8.2022
▁आयोज	-8.20222
▁घटना	-8.20226
▁संबंध	-8.20404
▁मुख्य	-8.20876
▁मुख्यमंत्री	-8.20883
▁मैच	-8.20889
क्क	-8.20955
फ़	-8.22545
▁क्या	-8.22566
▁8	-8.2265
▁पढ़	-8.22657
▁दिल	-8.22972
▁बदल	-8.23168
▁तेज	-8.23359
िस्ट	-8.23422
▁वजह	-8.23568
ाधिक	-8.23957
?	-8.24207
▁प्रधानमंत्री	-8.24207
▁भेज	-8.24516
▁गिर	-8.2455
▁अलावा	-8.24905
▁होती	-8.25047
▁बड़ी	-8.26328
▁पिछले	-8.26956
▁ग्र	-8.27211
राष्ट्रीय	-8.273
▁लिख	-8.27671
▁स्थिति	-8.28188
▁निर्	-8.2967
▁जबकि	-8.29941
▁12	-8.30124
u	-8.30503
▁निर्देश	-8.30506
▁लोक	-8.30672
S	-8.31228
▁ब्र	-8.31292
▁कॉ	-8.3189
▁फैसल	-8.3196
ग्राम	-8.32034
▁पानी	-8.32423
▁जाए	-8.32478
▁रुपए	-8.32693
▁आदि	-8.32847
▁डॉ	-8.33039
▁उम्मीद	-8.33434
▁बजे	-8.33614
▁शिव	-8.34024
▁हमार	-8.34099
▁बैंक	-8.3418
▁इसलिए	-8.3418
▁अधिकारी	-8.34201
C	-8.34932
▁संख्या	-8.34933
▁स्कूल	-8.34941
ियन	-8.35139
एंगे	-8.35557
ियर	-8.35596
ऊ	-8.35689
▁गिरफ्तार	-8.35689
▁मौजूद	-8.35689
▁सुरक्षा	-8.3569
▁जाएगी	-8.35789
▁कंपनी	-8.36453
▁सदस्य	-8.36453
▁जुड़	-8.36515
▁जिसमें	-8.36655
लाइन	-8.37071
▁पत्र	-8.37143
▁परीक्षा	-8.37224
▁सकती	-8.37281
▁जहां	-8.38012
पूर्ण	-8.38131
▁निवास	-8.38298
▁बाहर	-8.39891
▁रहने	-8.40026
B	-8.40359
▁हत्या	-8.40374
▁तहत	-8.40409
▁हूं	-8.4041
▁जनता	-8.40522
▁किसानों	-8.40922
I	-8.41159
▁कार्यक्रम	-8.41161
▁भाग	-8.41314
▁नजर	-8.4133
▁विधान	-8.41548
M	-8.41966
▁विशेष	-8.41966
ुबह	-8.4208
▁व्यक्ति	-8.42789
▁हिंदी	-8.4279
R	-8.43599
▁परिवार	-8.43628
▁स्प	-8.44391
▁आधार	-8.44427
र्द	-8.44456
▁उठा	-8.45416
▁मीडिया	-8.46099
▁ऑफ	-8.46324
▁15	-8.46453
ल्ड	-8.46889
▁मंदिर	-8.46946
▁निकल	-8.47327
▁महीन	-8.47788
▁जगह	-8.47846
▁मरीज	-8.47914
▁मुताबिक	-8.48663
▁पाकिस्तान	-8.48664
ाबाद	-8.4867
▁हाथ	-8.4871
ar	-8.48866
p	-8.49532
▁सूचना	-8.49533
▁स्थित	-8.49756
▁सड़क	-8.50495
▁मौके	-8.51295
▁स्वास्थ्य	-8.51295
▁पंचायत	-8.52187
▁युवक	-8.52187
▁11	-8.52652
▁वीडियो	-8.53088
▁निकाल	-8.53152
▁खुद	-8.54041
▁बिहार	-8.54123
गढ़	-8.54907
▁मध्य	-8.5496
ल्प	-8.5584
▁प्रशासन	-8.55841
▁चर्चा	-8.55841
▁फीसद	-8.55848
▁कार्रवाई	-8.56775
▁खरीद	-8.56853
▁नोट	-8.56866
▁दूर	-8.57117
▁प्रदर्शन	-8.57719
▁खबर	-8.57809
▁अलग	-8.57908
▁यादव	-8.58687
▁समझ	-8.59648
▁मदद	-8.59754
▁विश्व	-8.60021
g	-8.60604
▁सर्व	-8.60702
▁इतन	-8.61511
▁विधायक	-8.61584
▁जल्द	-8.61587
▁वापस	-8.61594
▁बड़े	-8.61671
▁मुझ	-8.61783
▁राजनीति	-8.62576
▁14	-8.62895
▁शिक्षा	-8.63579
▁बोल	-8.63727
▁स्क	-8.6394
▁ग्रामीण	-8.64584
▁निर्माण	-8.64585
▁सिर्फ	-8.64585
▁कोविड	-8.64595
▁छोड़	-8.64596
▁गांधी	-8.65605
▁विरोध	-8.65605
▁न्यूज़	-8.65605
▁अधिकारियों	-8.65606
▁परेशान	-8.65613
▁महिलाओं	-8.65814
▁अंतर	-8.66615
N	-8.66635
▁जीवन	-8.6664
▁कानून	-8.66648
▁सोमव	-8.66777
▁सोन	-8.67173
▁शाह	-8.67327
▁बुधवार	-8.67678
an	-8.67849
▁उपलब्ध	-8.6873
▁कभी	-8.68837
▁तरफ	-8.69246
in	-8.6994
ियो	-8.70592
▁व्यवस्था	-8.70869
▁दुनिया	-8.70869
▁मंगल	-8.70933
D	-8.71956
▁समस्या	-8.71956
▁वाहन	-8.71962
▁युवा	-8.73056
▁इंडिया	-8.73058
▁होंगे	-8.73113
▁उत्	-8.73144
/	-8.74166
▁शिकायत	-8.74166
▁अभियान	-8.74173
▁बाजार	-8.74184
▁नियम	-8.75459
▁दौर	-8.76392
▁अमेरिक	-8.76426
ेन्द्र	-8.76429
▁पीएम	-8.76472
▁शादी	-8.76472
▁समाज	-8.76493
▁उद्	-8.76513
▁कराया	-8.7658
|	-8.77575
▁घोषणा	-8.77575
▁शर्मा	-8.77608
▁इलाक	-8.77657
▁प्रमुख	-8.78738
▁शुक्र	-8.78745
▁समिति	-8.78957
क्शन	-8.79666
▁क्रिकेट	-8.79914
▁रेलवे	-8.79914
▁शनिवार	-8.79915
▁प्रयास	-8.79946
▁अगल	-8.81101
k	-8.81105
कश्मीर	-8.81105
▁मुंबई	-8.81105
▁ध्यान	-8.81122
्रिय	-8.81157
E	-8.8231
H	-8.8231
▁नंबर	-8.82311
y	-8.83529
▁प्राप्त	-8.8353
▁घायल	-8.8353
▁जवाब	-8.83568
▁राशि	-8.84097
▁गंभीर	-8.84764
▁संगठन	-8.84764
▁बेहतर	-8.84765
▁किसान	-8.85246
▁खिलाड़	-8.86014
▁दुकान	-8.86014
▁सोशल	-8.86016
▁पोस्ट	-8.86039
ऐ	-8.8845
▁वैक्सीन	-8.88562
G	-8.88562
T	-8.8986
▁व्यापार	-8.89861
▁भर्ती	-8.8987
▁बाइक	-8.89905
▁छोट	-8.89945
▁प्ला	-8.90007
ाहुल	-8.90009
▁लंब	-8.90044
b	-8.91176
▁कृषि	-8.91176
▁सुविधा	-8.91176
▁शिक्षक	-8.91177
▁यात्रा	-8.91194
डाउन	-8.91239
पोर्ट	-8.92383
▁रविवार	-8.92511
▁सहाय	-8.92513
▁निगम	-8.92562
▁पकड़	-8.92756
घाट	-8.93705
w	-8.93861
▁प्रतिशत	-8.93876
▁टेस्ट	-8.93886
▁आदेश	-8.939
▁कार्यालय	-8.95232
▁बल्क	-8.95253
▁समर्थ	-8.96644
▁सचिव	-8.96662
▁कार्यकर्ता	-8.98028
v	-8.98028
–	-8.98028
▁बल्लेबाज	-8.98028
▁लौट	-8.98028
▁विवाद	-8.98073
वुड	-8.98138
ः	-8.99457
▁सहयोग	-9.00931
▁मेडि	-9.00963
▁सम्मान	-9.02377
▁2021	-9.02377
▁फोटो	-9.02377
▁उत्पाद	-9.02378
▁शेयर	-9.02413
▁तस्वीर	-9.03869
▁लखनऊ	-9.03869
▁बीजेपी	-9.03869
▁वायरस	-9.0387
▁पसंद	-9.0387
▁सूत्र	-9.03914
▁कोशिश	-9.05386
▁मिश्र	-9.05389
िस्तान	-9.05391
▁न्याय	-9.05496
▁संक्रमण	-9.06923
▁पीछे	-9.06923
▁अवसर	-9.06926
▁पुरान	-9.07575
▁गुरुवार	-9.08485
▁पंजाब	-9.08486
▁पीड़ित	-9.08486
▁मुद्द	-9.08486
▁जुलाई	-9.08491
▁घंटे	-9.08494
▁संस्था	-9.08499
▁मोबाइल	-9.10072
▁कॉलेज	-9.10074
”	-9.11685
▁मंत्रालय	-9.11685
▁राजस्थान	-9.11685
▁हिस्सा	-9.11685
▁प्रस्ताव	-9.11691
▁इलाज	-9.11698
▁खर्च	-9.11705
▁शुरुआत	-9.13325
▁सप्ताह	-9.13325
▁आतंक	-9.13326
▁जन्म	-9.13334
▁बोर्ड	-9.13339
U	-9.14991
▁आवश्यक	-9.14991
▁उपस्थित	-9.14992
▁परिषद	-9.16687
-19	-9.16689
▁महत्व	-9.1669
▁बिजली	-9.16693
▁जमीन	-9.16705
▁पेट्रोल	-9.1841
▁प्रतिनिधि	-9.18411
केंद्रीय	-9.19126
▁प्रभावित	-9.20165
▁विभिन्न	-9.20165
▁नागरिक	-9.20165
▁मैदान	-9.20165
▁पहचान	-9.20165
▁तीसर	-9.20202
J	-9.21951
“	-9.21951
▁मौसम	-9.21951
▁डॉक्टर	-9.21951
▁प्रक्रिया	-9.21953
‍	-9.2336
!	-9.23769
L	-9.25621
F	-9.31391
O	-9.35432
W	-9.44039
ऋ	-9.46312
V	-9.48637
›	-9.48637
j	-9.51018
K	-9.53457
‘	-9.62072
ॅ	-9.69491
(	-9.73681
>	-9.75462
‌	-9.88595
f	-10.0372
x	-10.1223
%	-10.1678
​	-10.2154
ऑ	-10.3557
०	-10.3736
—	-10.4324
Y	-10.4949
;	-10.4949
१	-10.7932
॰	-10.8841
@	-10.9841
z	-10.9841
]	-11.0953
+	-11.2203
í	-11.2203
३	-11.2203
२	-11.3631
७	-11.3631
X	-11.5298
🔊	-11.5298
_	-11.5298
५	-11.7298
Z	-11.9798
q	-11.9798
ऱ	-11.9798
	-11.9798
ï	-12.3131
८	-12.3131
४	-12.8131
�	-12.8131
﻿	-13.8116
९	-13.8117
×	-13.8118
६	-13.8119
Q	-13.812
&	-13.8121
ऩ	-13.8122
[	-13.8123
*	-13.8124
̈	-13.8125
»	-13.8126
#	-13.8127
ञ	-13.8128
ृ	-13.8129
ौ	-13.813
в	-13.8131
и	-13.8131
л	-13.8131
о	-13.8131
я	-13.8131
ا	-13.8131
و	-13.8131
ی	-13.8131
£	-13.8131
©	-13.8131
«	-13.8131
Ó	-13.8131
т	-13.8131
ت	-13.8131
ل	-13.8131
ऌ	-13.8131
ङ	-13.8131
‎	-13.8131
←	-13.8131
➽	-13.8131
🔵	-13.8131
^	-13.8131
Ü	-13.8131
=	-13.8131
औ	-13.8131
