<unk>	0
<s>	0
</s>	0
▁के	-3.71935
।	-3.74136
ी	-3.9173
▁में	-3.99233
े	-4.12638
▁है	-4.16093
▁की	-4.19008
ा	-4.22712
,	-4.38855
▁को	-4.43176
▁	-4.46218
▁से	-4.48058
न	-4.5098
र	-4.59537
ों	-4.60626
▁का	-4.70483
▁ने	-4.73601
ल	-4.79642
म	-4.88456
▁पर	-4.88789
▁और	-4.90023
▁कि	-4.94498
क	-4.9482
.	-4.98737
त	-5.17471
▁हैं	-5.19406
ि	-5.23787
▁स	-5.25429
▁भी	-5.31032
▁कर	-5.32568
ं	-5.35111
स	-5.36623
ो	-5.37134
ने	-5.41176
प	-5.41635
▁इस	-5.4218
्	-5.48552
▁लिए	-5.53902
द	-5.55009
ू	-5.55682
ु	-5.58773
ज	-5.62061
▁एक	-5.64194
ता	-5.67286
ना	-5.67545
ट	-5.68089
य	-5.71236
▁नहीं	-5.72175
-	-5.74579
ह	-5.75973
श	-5.79658
▁किया	-5.80042
▁अ	-5.80101
▁हो	-5.81036
▁न	-5.85406
▁प	-5.85634
ित	-5.88549
▁यह	-5.89693
▁गया	-5.91825
▁ही	-5.92324
ब	-5.92941
ग	-5.93745
कर	-5.96702
▁आ	-5.99591
▁म	-5.99917
▁कहा	-6.02691
▁था	-6.03844
व	-6.04453
▁जा	-6.10769
ण	-6.1148
▁तो	-6.1396
▁करने	-6.14334
▁व	-6.1479
▁ब	-6.16325
▁ह	-6.17417
ड	-6.18385
फ	-6.19126
▁साथ	-6.19505
▁क	-6.21041
िक	-6.22385
▁बाद	-6.2387
सी	-6.2561
▁ज	-6.25701
च	-6.25867
ै	-6.29473
▁रहे	-6.29739
▁दिया	-6.30347
▁र	-6.35778
ला	-6.36175
रा	-6.3649
▁फ	-6.38537
ड़	-6.38976
वा	-6.39085
ते	-6.39843
▁ग	-6.40308
▁प्र	-6.40374
ख	-6.40951
▁गई	-6.41281
▁श	-6.41771
ां	-6.43227
▁द	-6.45507
▁रहा	-6.45786
या	-6.46187
ियों	-6.46239
▁तक	-6.4738
▁रही	-6.48831
ार	-6.49385
▁हुए	-6.49999
)	-6.50567
ध	-6.55471
▁(	-6.55592
ंड	-6.55935
▁सरकार	-6.57064
▁च	-6.57611
▁पुलिस	-6.58423
ली	-6.58913
भ	-6.59216
▁दी	-6.59404
▁उनक	-6.60504
्र	-6.60729
▁ल	-6.60944
ंग	-6.62216
▁लोगों	-6.62231
नी	-6.63098
▁अपने	-6.63579
▁जो	-6.64521
्य	-6.65667
ॉ	-6.6597
▁त	-6.6765
ें	-6.67897
ती	-6.68312
▁वह	-6.68387
▁उ	-6.69937
▁थी	-6.7075
▁उस	-6.71399
▁लेकिन	-6.71414
ओं	-6.73162
▁थे	-6.7347
ाई	-6.74487
▁इसक	-6.74588
▁उन्होंने	-6.75903
ए	-6.76039
्स	-6.76479
ष	-6.76515
▁अब	-6.77316
री	-6.77538
िंग	-6.79672
▁गए	-6.802
▁ख	-6.80232
▁भ	-6.82222
1	-6.8354
▁वि	-6.84383
मा	-6.85384
थ	-6.85684
िया	-6.85815
▁होने	-6.88104
्व	-6.88696
का	-6.89088
▁पहले	-6.89341
पुर	-6.90351
▁या	-6.90813
▁मिल	-6.91136
▁कुछ	-6.92238
▁बताया	-6.92306
0	-6.93484
▁कम	-6.93737
2	-6.93769
िल	-6.93875
से	-6.94269
▁सिंह	-6.95128
▁दो	-6.95519
▁दे	-6.97112
▁वाले	-6.97322
ई	-6.99103
क्ष	-6.99589
▁भारत	-7.00489
ठ	-7.00832
▁ए	-7.01856
▁पा	-7.01946
जी	-7.03016
▁लेकर	-7.03695
▁करते	-7.04636
दा	-7.04751
:	-7.04955
▁सा	-7.0499
▁ले	-7.05281
के	-7.07016
▁साल	-7.07524
▁कोई	-7.07683
▁आप	-7.07946
जा	-7.0912
पी	-7.10812
गी	-7.10975
▁सु	-7.11518
▁अपनी	-7.11529
▁देश	-7.11616
▁बात	-7.12883
▁कई	-7.13041
▁नि	-7.13772
▁लग	-7.14569
▁दौरान	-7.14949
e	-7.15323
i	-7.16011
ंस	-7.16678
▁हुई	-7.16864
▁मु	-7.17493
स्त	-7.17536
5	-7.1779
▁इन	-7.17866
▁बार	-7.18006
▁इ	-7.18214
▁सं	-7.18317
ले	-7.1837
▁ये	-7.18781
▁सभी	-7.18838
▁ट	-7.19623
वार	-7.19762
कार	-7.20012
▁चल	-7.21188
a	-7.21303
▁तरह	-7.21398
▁जब	-7.21461
ाइ	-7.21637
ति	-7.21924
▁क्षेत्र	-7.21971
ाने	-7.22484
सा	-7.23134
▁दिन	-7.23449
टी	-7.23453
▁प्रदेश	-7.23762
▁बन	-7.24738
▁समय	-7.24842
▁राज	-7.24901
▁ना	-7.25133
्या	-7.2523
एस	-7.25539
स्ट	-7.25933
त्र	-7.26524
▁बा	-7.26531
ंट	-7.26887
▁राज्य	-7.26896
▁काम	-7.27051
▁लिया	-7.27474
▁ध	-7.28038
ीय	-7.28403
▁लोग	-7.28574
▁जिस	-7.29242
▁हुआ	-7.29554
मान	-7.29679
जन	-7.29753
▁दिल्ली	-7.29842
9	-7.29908
ंत	-7.30299
्‍	-7.30542
दी	-7.30684
▁वे	-7.30846
ेट	-7.30917
▁फिल्म	-7.31109
▁हर	-7.31316
▁मान	-7.3187
वि	-7.32996
8	-7.33177
▁सि	-7.33218
स्	-7.33401
7	-7.33486
ाव	-7.3417
▁रूप	-7.34304
▁आपक	-7.34529
▁जाने	-7.34552
▁द्वारा	-7.34681
▁घर	-7.35408
▁2	-7.3567
'	-7.36197
4	-7.36398
▁टीम	-7.37206
पा	-7.38019
कि	-7.38094
▁सी	-7.38203
▁शुरू	-7.38385
िट	-7.3877
▁नाम	-7.3891
बी	-7.39131
▁हम	-7.39242
▁उन्हें	-7.39767
▁चुनाव	-7.3978
ेश	-7.40044
▁बीच	-7.40298
▁रह	-7.40788
्ट	-7.40813
ुल	-7.41186
एं	-7.41245
▁3	-7.41571
▁छ	-7.41897
्यू	-7.41924
▁आज	-7.42216
▁कोरोना	-7.42592
▁होगा	-7.43249
ास	-7.43915
▁कार्य	-7.44043
टा	-7.44628
▁ऐस	-7.44789
▁तीन	-7.45209
में	-7.45488
▁लाख	-7.46741
▁'	-7.47146
बा	-7.47571
क्स	-7.48861
डी	-7.49347
▁सकता	-7.49653
हर	-7.50169
▁एव	-7.50606
▁जानकारी	-7.50789
▁गो	-7.51407
▁कांग्रेस	-7.51959
▁वहीं	-7.51981
▁बी	-7.52389
▁मामले	-7.52788
गा	-7.53167
▁पड़	-7.5336
▁जाता	-7.53424
ोर	-7.53886
▁दोनों	-7.53963
ंच	-7.54035
▁मैं	-7.54758
▁अधिक	-7.55063
6	-7.55114
▁कुमार	-7.55167
3	-7.55574
▁जाएगा	-7.55593
t	-7.55922
िन	-7.56071
वर	-7.56519
▁मा	-7.57468
▁पूर्व	-7.58133
र्स	-7.58493
▁फिर	-7.58897
▁करना	-7.58985
▁प्रति	-7.59548
▁रुपये	-7.59724
हा	-7.59833
o	-7.59851
की	-7.59874
▁रो	-7.60052
▁पास	-7.60272
ओ	-7.60652
▁गु	-7.60748
▁बना	-7.61083
▁करोड़	-7.61439
▁बता	-7.61797
ये	-7.61979
▁आई	-7.62032
’	-7.62299
▁अनु	-7.62577
▁रख	-7.62984
तर	-7.63351
▁वाली	-7.6347
▁कारण	-7.63662
▁पार्टी	-7.64503
क्र	-7.64825
्त	-7.64963
▁पी	-7.65546
▁जारी	-7.65605
▁लगा	-7.65863
दार	-7.65921
▁जांच	-7.6702
▁पहुंच	-7.67103
▁गांव	-7.67339
▁मांग	-7.68144
▁डि	-7.68462
▁सकते	-7.68607
▁शामिल	-7.68629
▁रा	-7.68739
र्ज	-7.69061
s	-7.69473
▁विभाग	-7.69526
▁चाहिए	-7.69537
▁स्व	-7.70226
▁बच्च	-7.70488
▁देख	-7.70594
र्म	-7.70772
▁ड	-7.70889
▁ज्यादा	-7.70941
▁जान	-7.71415
▁ता	-7.71456
शन	-7.71573
▁ट्र	-7.7171
▁तैयार	-7.71895
▁अध्यक्ष	-7.71937
▁मोदी	-7.71938
▁पद	-7.72047
अ	-7.72171
▁आरोप	-7.72818
▁अन्य	-7.73006
▁राम	-7.73297
▁पु	-7.73495
एम	-7.73563
▁भारतीय	-7.7399
▁घ	-7.74095
▁हजार	-7.7433
▁ला	-7.74547
▁10	-7.74869
▁इससे	-7.74892
▁‘	-7.75027
▁जिले	-7.7532
▁5	-7.75349
▁किए	-7.75368
वे	-7.75474
▁बि	-7.75482
▁ओर	-7.75573
▁मे	-7.75969
▁उसके	-7.76021
इ	-7.76518
▁एस	-7.76522
▁करें	-7.76583
आई	-7.76707
▁वर्ष	-7.76813
▁मि	-7.77735
▁4	-7.77868
िका	-7.77882
सभा	-7.78213
▁खेल	-7.78464
▁झ	-7.79186
▁बहुत	-7.79364
ंज	-7.79364
्ल	-7.80326
▁बे	-7.80396
▁उत्तर	-7.80423
d	-7.80924
...	-7.81008
▁काफ	-7.81108
▁रे	-7.81204
h	-7.81429
▁देने	-7.81505
▁कै	-7.8178
▁खिलाफ	-7.8198
ड़ा	-7.82153
बसे	-7.82594
हित	-7.82622
▁ली	-7.82864
ज़	-7.82877
▁उप	-7.83159
▁सब	-7.83369
यर	-7.83567
▁भाजपा	-7.83584
▁दर्ज	-7.83772
▁मंत्री	-7.83843
▁जिला	-7.84136
मी	-7.84354
▁आए	-7.8442
▁होगी	-7.84799
न्न	-7.85118
ूर	-7.85518
▁वाल	-7.85941
▁महिला	-7.86198
▁बारे	-7.86277
▁सामने	-7.86663
▁क्यों	-7.86879
▁-	-7.87052
▁:	-7.87273
▁पूर	-7.8745
▁सम	-7.8766
▁पै	-7.87779
▁उसक	-7.8796
▁मौत	-7.87992
▁डी	-7.88308
राज	-7.88683
▁खान	-7.88686
▁आने	-7.88769
▁बढ़	-7.89014
▁जी	-7.89018
▁रि	-7.89145
ौर	-7.89235
▁चार	-7.89258
घ	-7.896
्च	-7.89682
▁पांच	-7.90414
वी	-7.90448
शा	-7.90803
छ	-7.90812
▁दा	-7.90933
▁इं	-7.91483
िम	-7.9164
▁अगर	-7.91719
▁अभी	-7.92038
▁19	-7.92077
▁मार	-7.92599
▁अस्पताल	-7.92604
▁योजना	-7.92604
▁स्थान	-7.92604
▁दिए	-7.92712
स्थ	-7.92918
▁भर	-7.9294
▁महा	-7.93065
ेगा	-7.93323
ेड	-7.93346
़	-7.93446
▁उन	-7.94334
▁बंद	-7.94433
▁डे	-7.94672
l	-7.94778
00	-7.95228
▁अपना	-7.9528
प्र	-7.95286
आर	-7.95941
▁तथा	-7.96214
िस	-7.96521
▁कह	-7.96559
▁हालांकि	-7.96822
▁जीत	-7.96892
▁नई	-7.97023
▁20	-7.97101
▁बु	-7.97111
▁नगर	-7.97156
क्त	-7.97572
▁कु	-7.97711
▁बैठक	-7.97972
ढ़	-7.98072
▁जिसक	-7.98139
▁शहर	-7.98355
▁विकास	-7.9869
रो	-7.98883
▁7	-7.99021
पर	-7.99138
▁केंद्र	-7.99399
▁श्री	-7.9946
▁6	-7.99544
वास	-7.99958
▁करीब	-8.00705
▁रिपोर्ट	-8.01243
▁हाल	-8.01333
▁अनुसार	-8.01872
ोल	-8.02338
ेज	-8.02458
बर	-8.02491
▁अन	-8.02573
▁संबंध	-8.02597
▁घटना	-8.02633
▁मह	-8.02901
▁वर्	-8.02922
▁इसी	-8.0301
▁होता	-8.03112
▁मुख्य	-8.03163
▁मुख्यमंत्री	-8.03184
▁मैच	-8.03308
बंध	-8.03311
▁बह	-8.0349
▁क्या	-8.03645
▁आर	-8.03882
पाल	-8.03921
को	-8.03958
▁वो	-8.04068
▁तेज	-8.04829
▁वजह	-8.05839
ियां	-8.05932
▁1	-8.06334
गर	-8.0643
▁होती	-8.06466
?	-8.06506
▁बढ़ा	-8.06507
▁प्रधानमंत्री	-8.06511
टर	-8.06527
ेशन	-8.06612
्क	-8.06643
▁भेज	-8.06777
िंद	-8.07125
िव	-8.07137
▁अलावा	-8.07192
खा	-8.07375
▁चला	-8.07607
दर	-8.0797
▁बड़ी	-8.08584
▁पिछले	-8.09256
झ	-8.0937
▁स्थिति	-8.10252
▁ब्र	-8.10441
▁शि	-8.10545
▁डा	-8.10679
नि	-8.10718
▁मेर	-8.11215
त्त	-8.1126
▁ठ	-8.11288
▁जिन	-8.11292
ष्ट	-8.11593
▁8	-8.11607
कल	-8.12199
▁जबकि	-8.1225
द्र	-8.12384
▁निर्देश	-8.12805
▁ई	-8.12866
▁12	-8.12882
▁जाए	-8.13125
▁दूसर	-8.13351
▁बै	-8.13652
उ	-8.13796
▁पानी	-8.14024
▁लोक	-8.14087
ेंट	-8.14612
▁रुपए	-8.15014
▁आम	-8.15298
हार	-8.15745
▁बजे	-8.15776
िस्ट	-8.15865
वान	-8.15931
▁इसलिए	-8.16482
▁बैंक	-8.16484
▁यू	-8.1664
र्ड	-8.16713
▁छात्र	-8.16975
▁संख्या	-8.17231
▁स्कूल	-8.17235
▁अधिकारी	-8.17302
▁सर	-8.17405
▁दिनों	-8.17542
रिया	-8.17853
गत	-8.17879
▁मौजूद	-8.17988
▁सुरक्षा	-8.17988
▁गिरफ्तार	-8.17989
▁जाएगी	-8.18081
▁दूसरे	-8.18174
▁चा	-8.18702
▁कंपनी	-8.18752
▁सदस्य	-8.18752
u	-8.18752
▁ऐसा	-8.18804
▁जिसमें	-8.18896
▁खा	-8.19491
▁परीक्षा	-8.19523
▁सकती	-8.1954
▁जहां	-8.20302
पूर्ण	-8.20336
▁निवास	-8.2044
▁नेता	-8.21232
ॉल	-8.21539
▁आग	-8.21754
▁आगे	-8.21964
▁बाहर	-8.22032
▁रहने	-8.22132
▁बनाने	-8.22169
िश	-8.22204
ेंगे	-8.22618
▁हत्या	-8.22662
▁तहत	-8.22667
▁हूं	-8.22673
▁जनता	-8.22972
ुबह	-8.23184
्री	-8.23251
▁किसानों	-8.23304
▁कार्यक्रम	-8.23459
▁भाग	-8.23511
▁विधान	-8.2354
▁तब	-8.23725
▁नजर	-8.238
चा	-8.2414
r	-8.24463
करण	-8.24481
▁बस	-8.24554
▁लेने	-8.25059
▁हिंदी	-8.25083
▁थाना	-8.25527
▁जल	-8.25562
ग्र	-8.25829
▁परिवार	-8.25911
▁आधार	-8.2609
▁जाती	-8.26313
▁नए	-8.26426
▁अप	-8.26974
▁दें	-8.27205
▁कोर्ट	-8.27223
▁योग	-8.27319
▁उठा	-8.27606
▁मन	-8.28061
▁मीडिया	-8.28398
▁15	-8.28498
वाह	-8.28567
▁वै	-8.286
▁मिला	-8.28667
n	-8.28752
युक्त	-8.28871
▁ओ	-8.292
लाइन	-8.29224
▁मंदिर	-8.29245
ल्ड	-8.29295
▁निकल	-8.29495
▁महीन	-8.29885
▁दल	-8.29913
▁टी	-8.29939
बल	-8.29956
▁सीट	-8.29963
▁दिल	-8.30022
ाधिक	-8.30076
▁जगह	-8.30106
▁मरीज	-8.30131
▁कुल	-8.30438
▁9	-8.30687
र्द	-8.30922
▁मुताबिक	-8.30962
▁पाकिस्तान	-8.30962
▁हाथ	-8.30978
जर	-8.31098
▁मो	-8.31117
▁जैसे	-8.31122
I	-8.31832
p	-8.31832
▁सूचना	-8.32217
▁स्थित	-8.32341
m	-8.32709
▁सड़क	-8.32738
एफ	-8.32753
मु	-8.32907
▁गिर	-8.32912
▁बच	-8.32953
▁कॉ	-8.3296
वाल	-8.33094
सर	-8.33247
▁मिली	-8.33284
▁मौके	-8.33594
▁स्वास्थ्य	-8.33594
▁आदि	-8.33647
आ	-8.33754
नाथ	-8.33793
रेंद्र	-8.33958
▁रात	-8.34069
िए	-8.34165
▁पंचायत	-8.34487
▁युवक	-8.34487
ar	-8.34543
▁11	-8.34636
▁अभि	-8.34765
▁लड़	-8.34817
▁पार	-8.34999
▁करेंगे	-8.35052
▁पता	-8.35126
▁वीडियो	-8.35388
▁निकाल	-8.35481
द्ध	-8.35581
▁देव	-8.35622
▁सके	-8.35774
▁पहली	-8.3611
▁लगात	-8.36136
▁खुद	-8.36305
▁बिहार	-8.36354
र्क	-8.3651
▁बेट	-8.3659
▁सै	-8.36668
▁पूरा	-8.36883
यू	-8.38054
▁चर्चा	-8.3814
▁प्रशासन	-8.3814
▁फीसद	-8.38142
▁भू	-8.38434
एन	-8.38764
▁विश्व	-8.38784
ंध	-8.38839
धा	-8.38845
▁कार्रवाई	-8.39075
▁खरीद	-8.39097
▁मै	-8.39403
▁दूर	-8.39413
▁होते	-8.39494
ाँ	-8.39815
▁पूरे	-8.39941
▁करता	-8.39988
▁खबर	-8.40198
▁प्रदर्शन	-8.40218
▁एम	-8.40329
माल	-8.40403
▁क्ल	-8.4056
▁अलग	-8.40745
▁यादव	-8.40975
▁गा	-8.41094
▁लगे	-8.4121
▁कहन	-8.41399
राम	-8.4155
▁व्यक्ति	-8.41711
▁चि	-8.41855
▁मदद	-8.4195
▁समझ	-8.41991
▁पहुंचे	-8.42407
▁डाल	-8.42637
g	-8.42903
▁सर्व	-8.43075
्‍य	-8.43188
▁डॉ	-8.43242
▁इतन	-8.43315
▁एन	-8.4339
ल्ल	-8.43669
▁सुन	-8.43724
▁रोक	-8.43749
▁विधायक	-8.43883
▁वापस	-8.43886
▁जल्द	-8.43889
▁बड़े	-8.4391
यल	-8.4396
▁मुझ	-8.43994
▁अंतर	-8.44048
ाबाद	-8.44158
▁सेवा	-8.44744
क्क	-8.44913
ट्ट	-8.45031
▁स्क	-8.45108
▁पढ़	-8.45199
▁14	-8.45329
▁बोल	-8.45405
ेंद्र	-8.45656
ियर	-8.45743
c	-8.45832
▁शिक्षा	-8.45908
ँ	-8.46089
▁इसका	-8.46391
▁राष्ट्रीय	-8.46436
▁दु	-8.46558
A	-8.46733
R	-8.46883
▁निर्माण	-8.46883
▁सिर्फ	-8.46883
▁ग्रामीण	-8.46887
▁छोड़	-8.46888
▁कोविड	-8.46891
▁शिव	-8.46981
▁जे	-8.47056
वन	-8.47196
र्ट	-8.4735
▁रन	-8.47476
▁सवाल	-8.47537
ाइट	-8.47541
▁न्यूज़	-8.47904
▁गांधी	-8.47904
▁परेशान	-8.47906
▁विरोध	-8.47959
▁अधिकारियों	-8.47992
▁महिलाओं	-8.48127
▁चाह	-8.48342
▁ढ	-8.48536
▁शो	-8.48552
च्छ	-8.48916
▁विशेष	-8.48935
▁कानून	-8.48939
▁जीवन	-8.48985
▁चुक	-8.49123
▁मिलने	-8.49135
▁सोमव	-8.49318
▁बुधवार	-8.49977
▁इस्त	-8.50105
▁लगाया	-8.50362
ैक	-8.50422
मेंट	-8.50555
▁अव	-8.50654
▁जन	-8.50662
▁पत्र	-8.50915
▁मामला	-8.51026
▁उपलब्ध	-8.51029
▁कभी	-8.51057
▁बदल	-8.5109
▁तरफ	-8.51231
▁फैसला	-8.51686
▁सो	-8.51996
▁30	-8.52141
in	-8.52192
▁हाई	-8.52267
▁बर	-8.52423
▁आय	-8.52559
▁देते	-8.52938
▁व्यवस्था	-8.53168
▁दुनिया	-8.53169
▁मंगल	-8.53183
▁पहल	-8.53227
▁आया	-8.53444
धान	-8.53563
▁थ	-8.53616
ियो	-8.53701
▁प्रो	-8.53782
भग	-8.53978
▁चुकी	-8.54173
▁समस्या	-8.54256
▁वाहन	-8.54272
▁आरोपी	-8.54356
an	-8.54724
धार	-8.55264
▁युवा	-8.55354
▁इंडिया	-8.55355
▁होंगे	-8.55388
नगर	-8.55832
/	-8.56465
▁शिकायत	-8.56465
▁अभियान	-8.56467
▁बाजार	-8.5647
▁राय	-8.5736
▁सोन	-8.57449
"	-8.57556
20	-8.57763
▁नियम	-8.57772
▁बॉ	-8.57793
▁लाभ	-8.57936
▁दर	-8.57984
▁पेश	-8.58625
▁शादी	-8.58736
▁समाज	-8.58748
▁कराया	-8.5879
▁पीएम	-8.58856
▁किलो	-8.58876
▁दौर	-8.59029
▁प्रा	-8.59294
▁माल	-8.59565
्टर	-8.59674
▁कप	-8.59766
▁टै	-8.59825
|	-8.59874
▁घोषणा	-8.59874
▁शर्मा	-8.5988
▁इलाक	-8.5992
▁करती	-8.60072
▁25	-8.60141
गढ़	-8.60146
▁खास	-8.60286
▁चीन	-8.60415
▁नव	-8.60518
बार	-8.60571
▁प्रमुख	-8.61038
▁शुक्र	-8.61039
▁मध्य	-8.6105
▁50	-8.61093
▁अल	-8.61094
▁जरूरत	-8.61294
क्शन	-8.61825
मार	-8.61853
▁ऑफ	-8.62124
▁समिति	-8.62161
▁क्रिकेट	-8.62214
▁शनिवार	-8.62214
▁रेलवे	-8.62215
▁प्रयास	-8.62223
▁करके	-8.62389
▁अगल	-8.62511
k	-8.63404
▁मुंबई	-8.63404
D	-8.63404
▁ध्यान	-8.63409
▁चुका	-8.63437
▁ग्र	-8.63538
ेस्ट	-8.63858
लब	-8.64018
▁जाते	-8.64422
▁जाना	-8.64484
E	-8.64609
▁नंबर	-8.64612
S	-8.64656
ेक्ट	-8.64717
▁आयोज	-8.64719
▁कीमत	-8.65052
▁बड़ा	-8.6515
फ़	-8.65354
▁टे	-8.65437
▁रू	-8.65602
▁राशि	-8.6569
▁जमा	-8.65739
y	-8.65829
▁घायल	-8.65829
▁जवाब	-8.65835
▁प्राप्त	-8.65847
देव	-8.66262
▁ज़	-8.66438
▁लाल	-8.66613
िटी	-8.66884
N	-8.67063
▁गंभीर	-8.67063
▁संगठन	-8.67063
▁"	-8.67099
▁बेहतर	-8.67116
▁किसान	-8.6736
▁पहुंचा	-8.67993
▁बिना	-8.68009
▁खिलाड़	-8.68315
▁सोशल	-8.68316
▁दुकान	-8.68351
▁खड़	-8.68364
ामी	-8.68419
▁धन	-8.68458
▁जेल	-8.68484
▁केवल	-8.68593
▁जोड़	-8.68617
▁स्प	-8.69064
म्प	-8.69258
▁चलत	-8.69501
▁अहम	-8.69622
▁स्तर	-8.6966
▁रखा	-8.69671
एल	-8.69783
काल	-8.70283
ऊ	-8.7086
G	-8.70861
▁वैक्सीन	-8.70861
▁यूपी	-8.7102
▁तौर	-8.71162
▁पक्ष	-8.71185
ाहुल	-8.71204
▁बनाया	-8.71369
वाई	-8.71426
▁लिखा	-8.71461
▁P	-8.72014
▁200	-8.7203
T	-8.7216
▁व्यापार	-8.7216
▁भर्ती	-8.72163
▁बाइक	-8.72168
▁प्ला	-8.72186
▁छोट	-8.72199
▁लंब	-8.72236
ल्प	-8.72237
▁तय	-8.72242
P	-8.72306
▁कल	-8.72312
▁बैठ	-8.72509
ेंस	-8.72603
▁ऑ	-8.72608
र्न	-8.72733
मेत	-8.7278
ार्थ	-8.72792
▁आइ	-8.72796
▁माह	-8.73056
▁बाल	-8.73104
▁कृषि	-8.73475
▁सुविधा	-8.73475
▁शिक्षक	-8.73477
▁शाम	-8.73507
▁इंटर	-8.73663
▁कार्ड	-8.73771
▁सीमा	-8.74009
र्थ	-8.74028
घाट	-8.74333
पोर्ट	-8.74378
▁शाह	-8.74523
▁यात्रा	-8.7454
▁शव	-8.74598
▁रविवार	-8.74809
▁सहाय	-8.74815
▁निगम	-8.7482
▁पकड़	-8.74901
क़	-8.75202
▁लगाने	-8.75252
▁ब्ल	-8.75527
ाइड	-8.75862
▁हास	-8.76022
▁हमारे	-8.76158
▁प्रतिशत	-8.76166
▁होना	-8.76252
▁टेस्ट	-8.76336
▁आदेश	-8.76359
ाइन	-8.76528
▁देखते	-8.76664
▁ग्राम	-8.77192
▁मत	-8.77267
▁साफ	-8.77373
▁जैस	-8.77471
▁बल्क	-8.77541
▁कार्यालय	-8.77586
▁अज	-8.77682
▁सही	-8.77746
▁देखा	-8.77893
एच	-8.78469
▁C	-8.78501
▁कट	-8.78734
▁सचिव	-8.78921
▁समर्थ	-8.78964
▁13	-8.79073
वीर	-8.79118
▁फ़	-8.79249
र्ग	-8.80132
▁आयोजन	-8.80202
▁ऐ	-8.80309
v	-8.80327
▁बल्लेबाज	-8.80327
▁लौट	-8.80327
▁विवाद	-8.80336
वुड	-8.80357
▁कार्यकर्ता	-8.80369
▁सार	-8.80507
▁चाहते	-8.80569
स्व	-8.80672
▁गौर	-8.80745
न्ह	-8.81182
▁जय	-8.8119
▁हार	-8.81218
ालय	-8.81321
▁गठ	-8.81341
ियन	-8.81512
ः	-8.81756
▁उत्	-8.82417
▁सात	-8.831
▁चौक	-8.83205
▁सहयोग	-8.83207
▁उपयोग	-8.83242
▁मेडि	-8.83275
▁ट्रेन	-8.83277
▁जुट	-8.83301
▁तेल	-8.83434
▁एयर	-8.83474
▁खुल	-8.83821
प्त	-8.83923
▁18	-8.84073
▁पति	-8.84254
▁थीं	-8.84293
ाइज	-8.84471
▁मामल	-8.84564
▁जुड़	-8.84569
▁फोटो	-8.84676
b	-8.84676
▁2021	-8.84676
▁उत्पाद	-8.84676
▁सम्मान	-8.84677
▁शेयर	-8.84685
▁उम्मीदवार	-8.84753
▁बारिश	-8.84833
▁नेताओं	-8.84932
म्ब	-8.8507
वीं	-8.85665
एंगे	-8.86067
▁उम्मीद	-8.8609
▁बीजेपी	-8.86168
▁लखनऊ	-8.86168
▁तस्वीर	-8.86168
▁वायरस	-8.86168
▁पसंद	-8.86169
▁सूत्र	-8.86179
▁सफल	-8.86232
▁आठ	-8.8625
▁आयोग	-8.86401
▁B	-8.8721
▁ऑन	-8.87444
िस्तान	-8.87685
▁मिश्र	-8.87686
▁कोशिश	-8.87691
▁बयान	-8.8771
▁24	-8.87977
M	-8.8805
▁लिख	-8.88516
▁बेह	-8.88788
▁प्रदा	-8.88797
▁बनाए	-8.88854
▁नीत	-8.88861
▁देखने	-8.89206
▁संक्रमण	-8.89222
▁पीछे	-8.89224
▁अवसर	-8.89267
▁–	-8.89323
▁16	-8.89349
▁यद	-8.89357
▁जाएंगे	-8.89463
▁पुरान	-8.89542
ग्राम	-8.89638
शनल	-8.89681
▁दिखा	-8.90041
▁इनक	-8.9006
▁लो	-8.90165
▁पंजाब	-8.90785
▁जुलाई	-8.90785
▁पीड़ित	-8.90787
▁संस्था	-8.90787
▁घंटे	-8.90788
▁गुरुवार	-8.90824
▁गयी	-8.90866
गंज	-8.91048
▁वक्त	-8.91353
▁मुद्द	-8.91531
▁प्रकार	-8.91739
कृत	-8.92354
H	-8.92372
▁मोबाइल	-8.92372
▁कॉलेज	-8.92373
▁जुड़े	-8.9254
▁A	-8.9261
▁सीएम	-8.92618
▁प्रकाश	-8.92787
▁हवा	-8.93139
प्प	-8.93849
▁मां	-8.93917
खंड	-8.93937
▁वोट	-8.93976
”	-8.93985
▁राजस्थान	-8.93985
▁हिस्सा	-8.93985
▁प्रस्ताव	-8.93985
▁खर्च	-8.93988
▁इलाज	-8.93989
▁मंत्रालय	-8.93995
योग	-8.9401
▁रखने	-8.94101
▁पिता	-8.94116
▁धर्म	-8.94227
न्द	-8.94315
▁कैसे	-8.94319
▁हमें	-8.95583
▁आतंक	-8.95622
▁सप्ताह	-8.95624
▁शुरुआत	-8.95624
▁बोर्ड	-8.95626
▁जन्म	-8.95634
▁बजट	-8.95644
फ्ट	-8.95705
▁17	-8.95792
▁हमार	-8.95813
▁मई	-8.95865
▁मात्र	-8.95942
▁कश्मीर	-8.96063
C	-8.9612
▁एक्स	-8.96192
▁सभा	-8.96205
▁दोस्त	-8.96213
▁रोड	-8.96263
मीटर	-8.96307
ग्रह	-8.9657
▁एल	-8.9702
▁आवश्यक	-8.97291
U	-8.97291
▁उपस्थित	-8.97291
▁पुत्र	-8.97544
▁प्रधान	-8.97556
B	-8.97815
▁छात्रों	-8.97869
▁खेत	-8.97945
▁अमेरिका	-8.97985
▁सूच	-8.98657
▁छह	-8.98811
‍	-8.98963
▁परिषद	-8.98986
▁महत्व	-8.98987
▁बिजली	-8.98987
-19	-8.98989
▁जमीन	-8.98998
▁आसान	-8.99051
▁अंक	-8.99131
▁जून	-8.99152
▁हमला	-8.9993
प्ले	-8.9994
▁भाई	-9.00031
▁M	-9.00294
w	-9.0071
▁पेट्रोल	-9.0071
▁प्रतिनिधि	-9.00711
▁विचार	-9.00718
देश	-9.00723
▁अच्छा	-9.00733
▁फैल	-9.0083
▁मतदा	-9.0084
व्य	-9.01007
▁23	-9.01039
▁रास्त	-9.01073
▁फ्र	-9.01093
▁बॉल	-9.01382
▁असर	-9.01435
▁जरूरी	-9.0206
ाही	-9.02383
▁विभिन्न	-9.02464
▁पहचान	-9.02464
▁नागरिक	-9.02464
▁मैदान	-9.02467
डाउन	-9.02477
▁तीसर	-9.0248
▁नोट	-9.02481
▁फोन	-9.02537
▁अंति	-9.02571
▁100	-9.02635
▁प्रभावित	-9.02693
▁वर्षीय	-9.02758
ढ	-9.03045
▁बचा	-9.0397
▁पोस्ट	-9.04247
▁मौसम	-9.0425
▁डॉक्टर	-9.0425
▁प्रक्रिया	-9.04251
▁विपक्ष	-9.04253
▁मंडल	-9.04295
जूद	-9.04296
▁ख़	-9.04596
▁हमले	-9.04729
▁दाम	-9.04903
▁बाव	-9.05071
लैंड	-9.0585
▁S	-9.05997
!	-9.06068
▁कर्मचारी	-9.06068
▁कंपनिय	-9.06068
▁प्रभारी	-9.06068
▁परिजनों	-9.06068
▁निर्णय	-9.06068
▁आंकड़	-9.06069
▁राष्ट्रपति	-9.0607
▁प्रवेश	-9.06072
▁अगस्त	-9.06073
▁तलाश	-9.06074
ेश्वर	-9.0608
▁चरण	-9.06095
▁ठीक	-9.06108
▁मार्ग	-9.06148
▁बदलाव	-9.06187
▁रंग	-9.06426
▁अधिकार	-9.06544
▁चुन	-9.06576
ाड़ी	-9.06793
▁अमर	-9.0693
▁यात्र	-9.07097
ैक्ट	-9.07365
हिर	-9.07504
L	-9.0792
▁आवेदन	-9.0792
▁मजदूर	-9.0792
▁बातचीत	-9.0792
▁भूमिका	-9.0792
▁विषय	-9.07923
▁विजय	-9.07938
▁“	-9.07953
केंद्रीय	-9.08086
▁कड़	-9.08377
▁दिख	-9.08591
मंत्री	-9.08597
▁पाए	-9.08774
रिए	-9.09714
▁दक्षिण	-9.09807
▁संचाल	-9.09809
भाषा	-9.09817
▁अच्छी	-9.09818
▁मिनट	-9.09825
ड्ड	-9.09881
▁निशान	-9.09884
▁इन्ह	-9.09919
▁संयुक्त	-9.09984
▁गलत	-9.10039
▁पार्क	-9.10097
▁प्रेम	-9.10147
▁60	-9.10745
or	-9.11007
▁महामा	-9.11103
▁पाया	-9.11189
▁मनो	-9.11576
▁नुकसान	-9.1173
▁नेतृत्व	-9.1173
▁आतंकवाद	-9.11733
▁लागू	-9.11734
▁अपराध	-9.11755
▁भारी	-9.1178
▁राजनीतिक	-9.12253
तिथि	-9.1238
▁दावा	-9.12388
▁भाव	-9.12454
▁ड्र	-9.12617
▁बर्	-9.13431
45	-9.13632
▁अफगान	-9.1369
▁माध्यम	-9.1369
▁मुकाबले	-9.1369
▁वृद्ध	-9.1369
▁अदालत	-9.13691
F	-9.13691
▁ऊपर	-9.13691
▁भगवान	-9.13692
▁दिवस	-9.13694
▁समूह	-9.13695
▁पूजा	-9.137
▁स्थल	-9.13733
▁चयन	-9.13739
▁लूट	-9.13739
▁दोपह	-9.1392
▁40	-9.13976
▁व्य	-9.14333
▁फ्ल	-9.14442
▁कदम	-9.14745
er	-9.14907
▁गाय	-9.14965
कर्ता	-9.15685
▁अतिरिक्	-9.1569
▁दिसंबर	-9.1569
▁वरिष्ठ	-9.1569
▁पत्नी	-9.15691
▁आखिर	-9.15691
▁राजधानी	-9.15693
▁सांसद	-9.15693
▁स्टेशन	-9.15694
▁विकेट	-9.15701
▁सलाह	-9.1572
▁नोटिस	-9.15734
▁पढ़ें	-9.15965
▁मिलेगा	-9.1603
▁हमेश	-9.16334
ra	-9.16616
▁राजनीति	-9.1718
रोध	-9.17609
▁कर्मचारियों	-9.17731
O	-9.17731
▁हादसे	-9.17731
▁जनवरी	-9.17734
▁अंदर	-9.17736
▁टिकट	-9.17737
▁शराब	-9.17739
यंत्र	-9.17773
▁2020	-9.17794
▁अपील	-9.17795
▁अमित	-9.178
▁सुधार	-9.17894
30	-9.18269
▁घट	-9.18606
▁चीज	-9.18614
▁रहेगा	-9.19019
ब्ब	-9.19345
▁न्याय	-9.19812
J	-9.19815
▁चौधरी	-9.19815
▁विश्वविद्यालय	-9.19815
▁संक्रमित	-9.19815
निश्चित	-9.19815
▁बंगाल	-9.19815
▁शांति	-9.19822
▁शुभ	-9.19823
▁सफाई	-9.19827
▁गरीब	-9.19831
▁लॉक	-9.19837
▁कपूर	-9.19898
▁मूल्य	-9.19927
▁मार्च	-9.19957
▁पालन	-9.20115
▁गाड़	-9.20197
▁निजी	-9.2059
ानक	-9.21264
शाल	-9.2156
▁राष्ट्र	-9.21864
▁सितंबर	-9.21942
▁2019	-9.21943
▁क्षमता	-9.21943
▁याचिका	-9.21943
▁चंद्र	-9.21944
▁खुश	-9.21959
▁जिलों	-9.21962
▁कहीं	-9.21975
▁आवाज	-9.22348
ुद्ध	-9.22352
▁लिय	-9.22664
ानदार	-9.23187
▁खत्	-9.23462
▁प्रभाव	-9.23834
▁घोषित	-9.24116
▁तैनात	-9.24116
▁नवंबर	-9.24117
▁कब्ज	-9.24118
▁गेंदबाज	-9.24125
▁खाद्य	-9.24127
▁रोग	-9.24127
▁उम्र	-9.2413
▁न्यायालय	-9.24131
▁चालक	-9.24135
▁कमेटी	-9.24143
ाउंड	-9.24179
▁विदेश	-9.24257
ज्ज	-9.24408
▁जवान	-9.24737
▁सोच	-9.2511
राष्ट्रीय	-9.2517
▁पैद	-9.25931
ेन्द्र	-9.26143
W	-9.26338
▁अप्रैल	-9.26338
▁आंदोलन	-9.26338
▁जम्मू	-9.26338
▁मजबूत	-9.26338
▁विद्यालय	-9.26338
▁हरियाणा	-9.26338
▁स्थाप	-9.26339
▁भोपाल	-9.2634
▁कहत	-9.26364
▁आसप	-9.26445
▁दिखाई	-9.26617
▁संघ	-9.2665
▁वित्त	-9.26691
▁26	-9.26698
▁22	-9.26886
▁खोल	-9.26984
▁गर्म	-9.27136
▁बढ़त	-9.27551
▁एड	-9.28532
▁गृह	-9.28611
▁पश्चिम	-9.28611
ऋ	-9.28611
▁चिकित्सा	-9.28611
▁गेंद	-9.28611
▁आर्थिक	-9.28612
▁निवेश	-9.28614
▁संजय	-9.28629
▁सलमान	-9.28644
on	-9.28749
▁मंत्र	-9.28923
▁पैसे	-9.29056
▁इनमें	-9.29108
al	-9.29429
अलग	-9.2978
▁कितन	-9.30696
›	-9.30937
▁दरअसल	-9.30937
▁परिणाम	-9.30937
▁मुश्किल	-9.30937
▁ट्वीट	-9.30937
▁पूछ	-9.30941
▁खराब	-9.3095
▁स्वयं	-9.30951
▁संकट	-9.30958
▁सुनवाई	-9.3098
▁ओवर	-9.31092
▁केन्द्र	-9.31164
▁देंगे	-9.31448
्रिय	-9.31518
▁फैसल	-9.31838
▁लगाए	-9.3185
▁खात	-9.31907
▁विद्यार्थ	-9.33318
▁अक्टूबर	-9.33318
▁फिलहाल	-9.33318
▁मौका	-9.33318
▁सौंप	-9.33318
j	-9.33318
▁पुरुष	-9.33318
▁फुट	-9.33343
▁चोट	-9.33343
▁दिशा	-9.33353
▁मुक्त	-9.33629
▁रिश्	-9.33669
कर्मियों	-9.33703
बुक	-9.34406
K	-9.35757
▁पूछताछ	-9.35757
▁वायरल	-9.35757
▁उत्तराखंड	-9.35758
▁उच्च	-9.35758
,000	-9.35767
▁राहत	-9.35767
▁गैस	-9.35774
तंत्र	-9.35825
▁घरेल	-9.35857
▁निभा	-9.36137
▁तुर	-9.36557
▁बाबा	-9.36589
▁टाइ	-9.36839
▁दुर्	-9.37959
▁टीकाकर	-9.37964
ुआ	-9.38001
▁नही	-9.38007
▁जिम्मेदार	-9.38257
▁दर्शक	-9.38257
▁संभावना	-9.38257
▁सुरक्षित	-9.38257
▁समीक्षा	-9.38257
▁मंजूर	-9.38258
▁बीमारी	-9.3826
▁वार्ड	-9.38274
▁संसद	-9.38301
▁स्ट्र	-9.38342
▁ऑक्स	-9.38368
▁टीवी	-9.38394
▁सत्ता	-9.38403
▁भवन	-9.38577
▁साबि	-9.39632
शांत	-9.3974
80	-9.39937
▁वर्ग	-9.4035
कृष्ण	-9.40821
▁भविष्य	-9.40821
▁रिकॉर्ड	-9.40821
▁सामान्य	-9.40822
▁मास्क	-9.40826
▁थोड़	-9.40843
▁जरूर	-9.40858
फॉर्म	-9.40878
▁करेगी	-9.40907
st	-9.41114
▁35	-9.41393
▁व्यक्त	-9.41464
▁फेस	-9.42277
बंदी	-9.43349
▁एसोसिएशन	-9.43452
▁नौकरी	-9.43452
▁परियोजना	-9.43452
▁प्राथमिक	-9.43452
▁समारोह	-9.43452
▁झारखंड	-9.43452
▁2018	-9.43453
▁दाखिल	-9.43453
रोजगार	-9.43454
▁तरीके	-9.43455
▁सीरीज	-9.43457
▁शासन	-9.43468
▁छूट	-9.43468
▁रक्षा	-9.43484
▁आत्म	-9.43696
त्म	-9.43798
▁सामन	-9.43974
शंकर	-9.44471
रूप	-9.44972
▁शक्ति	-9.44978
‘	-9.4499
▁छत्तीसगढ़	-9.46155
▁सुप्रीम	-9.46155
▁2017	-9.46155
▁फरवरी	-9.46155
▁तिवारी	-9.46155
▁गुप्ता	-9.46157
▁लक्ष्य	-9.46157
▁खूब	-9.4618
▁क्रम	-9.46261
▁संदेश	-9.46283
▁पत्रकार	-9.46361
▁उद्	-9.47077
▁अकाउंट	-9.48933
▁चिकित्सक	-9.48933
▁प्रत्याश	-9.48933
▁कोलकाता	-9.48933
▁अवधि	-9.48935
▁बरामद	-9.48936
▁खुलासा	-9.48937
▁कक्षा	-9.4897
▁पटना	-9.4898
स्‍ट	-9.50367
ियत	-9.51674
ॅ	-9.5179
▁स्मार्ट	-9.5179
▁वितरण	-9.51792
▁पेंशन	-9.51793
▁आदमी	-9.51797
▁चिंता	-9.51798
▁किशोर	-9.51812
▁डॉलर	-9.51816
▁आंख	-9.51816
▁हालात	-9.51828
▁ऑफिस	-9.51893
सूस	-9.51981
▁सिद्ध	-9.52009
▁चेक	-9.52119
विश्वास	-9.52699
▁वाद	-9.54218
▁गतिविधिय	-9.54731
▁ठाकुर	-9.54731
▁बदमाश	-9.54731
▁वेबसाइट	-9.54731
▁अग्रवाल	-9.54731
▁प्रस्तुत	-9.54731
▁गिरावट	-9.54732
▁अफसर	-9.54734
▁उपचार	-9.54736
▁वकील	-9.54747
▁चेहर	-9.54753
▁अभ्य	-9.54755
▁शरीर	-9.54763
▁घुस	-9.54785
▁प्यार	-9.54805
▁तकनीक	-9.54817
▁धारा	-9.54835
▁फसल	-9.5487
▁कानपुर	-9.54874
▁लड़की	-9.54949
(	-9.56598
कोर्ट	-9.56711
>	-9.57761
V	-9.57761
▁एक्सप्रेस	-9.57761
▁एजेंसी	-9.57761
▁ऑस्ट्रेलिया	-9.57761
▁चौहान	-9.57761
▁प्रत्येक	-9.57761
▁महाराष्ट्र	-9.57761
▁मुलाकात	-9.57761
▁अशोक	-9.57762
▁कारोबार	-9.57762
▁आरक्षण	-9.57763
▁भोजन	-9.57767
▁प्रसाद	-9.57769
▁कोतवाल	-9.57796
▁स्पष्ट	-9.57835
ch	-9.57887
▁सेंटर	-9.57931
▁गुरु	-9.57949
▁शाय	-9.58124
▁स्वाग	-9.58269
▁मूल	-9.60882
▁इतिहास	-9.60886
▁पॉजिटिव	-9.60886
▁प्रदूषण	-9.60886
▁समुदाय	-9.60886
▁सार्वजनि	-9.60887
▁प्रवक्त	-9.60888
▁उद्योग	-9.60902
▁सूर्य	-9.60922
▁मकान	-9.60934
▁परिसर	-9.60945
ियम	-9.61036
ाचार	-9.63211
शिप	-9.6404
▁इंतजार	-9.64112
▁पुरस्कार	-9.64112
▁सामाजिक	-9.64112
▁तहसील	-9.64112
▁संवाददाता	-9.64113
▁कप्तान	-9.64113
▁अवैध	-9.64113
▁आबादी	-9.64114
▁पटेल	-9.64114
▁समाप्त	-9.64115
▁संभव	-9.64116
▁जनपद	-9.64119
▁विराट	-9.64123
▁शिविर	-9.64133
▁प्रथम	-9.64133
▁टूट	-9.64181
▁कोहली	-9.64202
▁गार्ड	-9.64228
▁होटल	-9.64244
▁नीच	-9.64335
▁असल	-9.64906
मंद	-9.65809
ात्मक	-9.6744
▁चुनौती	-9.67446
▁मोहम्मद	-9.67446
▁शीर्ष	-9.67446
▁रद्द	-9.67446
▁निर्वाच	-9.67446
▁विजेता	-9.67446
▁शहीद	-9.67446
▁आनंद	-9.67447
▁दबाव	-9.67454
सीबीआई	-9.67474
▁प्रोफे	-9.67474
▁पांडे	-9.67481
▁स्टार	-9.6751
▁आजाद	-9.67847
ानंद	-9.68267
▁उपाय	-9.68703
चार्य	-9.70513
ध्यक्ष	-9.70594
‌	-9.70894
▁अभिनेत्री	-9.70894
▁आधिकार	-9.70894
▁ऊर्जा	-9.70894
▁एक्ट्रेस	-9.70894
▁जागरूक	-9.70894
▁पौधे	-9.70894
▁फायदा	-9.70894
▁तारीख	-9.70896
▁ड्राइव	-9.70898
▁एशिया	-9.70899
▁हफ्त	-9.709
▁अनुभव	-9.70904
▁प्रचार	-9.7091
▁निर्धार	-9.70913
▁संपत्ति	-9.70915
▁मधु	-9.70917
▁फर्जी	-9.7092
ंस्कृति	-9.70931
कलेक्टर	-9.70938
▁फरार	-9.71001
▁मंडी	-9.71027
मूर्ति	-9.71403
ार्मिक	-9.71577
▁अमेरिक	-9.7298
मैं	-9.73414
▁अध्यापक	-9.74465
▁विधेयक	-9.74465
▁मार्केट	-9.74466
▁इंडियन	-9.74466
▁टक्कर	-9.74468
▁तुलना	-9.74471
▁कैंसर	-9.74472
▁अभिनेता	-9.74472
▁युद्ध	-9.74472
▁मोहन	-9.74481
▁प्रतिभा	-9.74483
▁फायर	-9.74484
▁ओपन	-9.74487
▁गंगा	-9.74531
▁निपट	-9.7455
▁रिलीज	-9.74597
जागरण	-9.74709
▁इंग्ल	-9.75036
▁महंगा	-9.75168
▁कन्	-9.7637
▁अधि	-9.77621
▁अधीक्षक	-9.78169
▁इंस्पेक्टर	-9.78169
▁कर्नाटक	-9.78169
▁चेतावनी	-9.78169
▁चेयरमैन	-9.78169
▁चौथ	-9.78169
▁जिलाधिकार	-9.78169
▁ज्ञापन	-9.78169
▁प्रतियोगिता	-9.78169
▁मजबूर	-9.78169
▁मृतक	-9.78169
▁विशेषज्ञ	-9.78169
▁हिस्से	-9.78169
कैबिनेट	-9.78169
▁व्यवसाय	-9.78169
▁हाउस	-9.78169
▁गुजरात	-9.78169
▁विकसित	-9.78169
निरीक्षक	-9.7817
▁अपडेट	-9.7817
▁उन्‍ह	-9.7817
▁सिन्हा	-9.78172
▁जिन्हे	-9.78172
▁फाइनल	-9.78174
▁जायेगा	-9.78175
▁साझा	-9.78177
▁संवाद	-9.78184
▁कैंप	-9.78184
▁ट्रांस	-9.78186
▁एडमि	-9.78334
▁रुप	-9.81904
▁तत्काल	-9.82015
▁मुस्लिम	-9.82015
▁दिक्कत	-9.82015
▁शब्द	-9.82015
▁श्रमिक	-9.82015
▁परिवहन	-9.82015
▁वार्ता	-9.82016
▁मुफ्त	-9.82017
▁उर्फ	-9.82017
▁तापमान	-9.82018
▁भरोसा	-9.82018
▁ट्रेलर	-9.8202
▁ग्रुप	-9.82021
▁इस्लाम	-9.82021
▁सैन्य	-9.82022
▁बिगड़	-9.82026
▁स्टोर	-9.8203
▁स्टेट	-9.82031
▁सहमत	-9.82044
▁जंगल	-9.82068
▁सियास	-9.82919
▁निर्	-9.85115
रफ्तार	-9.86015
▁अतिक्रमण	-9.86015
▁दुष्कर्म	-9.86015
▁भ्रष्टाचार	-9.86015
▁लॉन्च	-9.86015
▁शीघ्र	-9.86015
▁हथियार	-9.86015
f	-9.86015
▁सिलसिल	-9.86015
▁एटीएम	-9.86016
▁दर्शन	-9.86016
▁ऊंच	-9.86017
▁खारिज	-9.8602
▁हिंदू	-9.8602
▁सख्त	-9.86025
▁तहरी	-9.86055
▁लड़किय	-9.86561
▁विधि	-9.88707
गांव	-9.89084
▁अरविंद	-9.90182
▁पदाधिकारियों	-9.90182
▁परिवर्तन	-9.90182
▁मुकाबला	-9.90182
▁वाराणसी	-9.90182
▁वैज्ञानिक	-9.90182
▁संबोधित	-9.90182
▁स्टूडेंट	-9.90182
▁स्टेडियम	-9.90182
▁जिन्हों	-9.90182
▁सामग्री	-9.90182
▁कल्याण	-9.90182
▁आदित्य	-9.90185
▁विकल्प	-9.90186
▁आउट	-9.90189
▁संकेत	-9.9019
आईपीएल	-9.90194
▁ट्रंप	-9.90201
▁पोस्टमार्	-9.90208
▁सकेंगे	-9.90213
▁जताई	-9.9022
▁हिंसा	-9.90266
▁संगीत	-9.90322
कश्मीर	-9.93358
▁कॉलोनी	-9.9453
▁ज्ञान	-9.9453
▁दुर्घटना	-9.9453
▁भुगतान	-9.9453
▁मध्यप्रदेश	-9.9453
▁हिमाचल	-9.9453
▁Rea	-9.9453
▁हिसाब	-9.9453
x	-9.9453
▁प्रावधान	-9.9453
▁इंदौर	-9.94531
▁धमकी	-9.94537
▁सक्रिय	-9.94537
▁वस्तु	-9.94543
▁बिक्री	-9.94543
▁सिविल	-9.94545
▁प्रसार	-9.94582
▁चावल	-9.94593
प्रकाश	-9.97906
%	-9.99075
▁उल्लंघन	-9.99075
▁उल्लेख	-9.99075
▁खूबसूरत	-9.99075
▁चंडीगढ़	-9.99075
▁पर्यावरण	-9.99075
▁लक्ष्मी	-9.99075
▁शुक्ला	-9.99075
▁स्वर्ण	-9.99075
▁नामांकन	-9.99075
▁व्यवहार	-9.99075
▁रिजर्व	-9.99075
▁निर्माता	-9.99076
▁प्रश्न	-9.99076
▁उपाध्यक्ष	-9.99076
▁संस्कार	-9.99076
▁यूनियन	-9.99076
▁जस्टिस	-9.99076
▁निदेशक	-9.99077
▁मारपीट	-9.99078
▁विस्तार	-9.99078
▁मोर्च	-9.99079
▁वसूल	-9.99079
▁जयंती	-9.99082
▁उत्साह	-9.99083
▁कलाकार	-9.99086
▁ईरान	-9.99104
▁ऑपरे	-9.99159
द्दे	-10.0148
​	-10.0384
▁अध्ययन	-10.0384
▁उपभोक्ता	-10.0384
▁औद्योगिक	-10.0384
ऑ	-10.1848
०	-10.1966
—	-10.2554
Y	-10.3179
;	-10.3179
ऐ	-10.6045
१	-10.6162
॰	-10.7071
@	-10.8071
z	-10.8071
]	-10.9183
í	-11.0433
३	-11.0433
+	-11.0433
२	-11.1861
७	-11.1861
–	-11.3411
X	-11.3528
🔊	-11.3528
_	-11.3528
५	-11.5528
q	-11.8028
	-11.8028
ऱ	-11.8028
Z	-11.8028
ï	-12.1361
८	-12.1361
“	-12.6246
४	-12.6361
�	-12.6361
﻿	-13.6346
९	-13.6347
×	-13.6348
६	-13.6349
Q	-13.635
&	-13.6351
ऩ	-13.6352
[	-13.6353
*	-13.6354
̈	-13.6355
»	-13.6356
#	-13.6357
ञ	-13.6358
ृ	-13.6359
ौ	-13.636
в	-13.6361
и	-13.6361
л	-13.6361
о	-13.6361
я	-13.6361
ا	-13.6361
ل	-13.6361
ی	-13.6361
=	-13.6361
^	-13.6361
£	-13.6361
©	-13.6361
«	-13.6361
Ó	-13.6361
Ü	-13.6361
т	-13.6361
ت	-13.6361
و	-13.6361
ऌ	-13.6361
औ	-13.6361
ङ	-13.6361
‎	-13.6361
←	-13.6361
➽	-13.6361
🔵	-13.6361
