<unk>	0
<s>	0
</s>	0
▁के	-3.50252
।	-3.53262
▁में	-3.76978
▁है	-3.9461
▁की	-3.96704
ी	-4.06463
,	-4.17676
▁को	-4.23447
▁से	-4.28346
े	-4.32479
ों	-4.47751
▁ने	-4.52965
▁का	-4.56377
ा	-4.65535
▁और	-4.67833
▁पर	-4.72998
▁	-4.83054
.	-4.8504
▁कि	-4.86482
▁हैं	-4.96444
▁भी	-5.1072
▁इस	-5.19287
▁कर	-5.28547
▁लिए	-5.31681
न	-5.33899
▁एक	-5.46963
▁नहीं	-5.49949
ने	-5.50667
▁किया	-5.57516
-	-5.60654
▁हो	-5.67237
▁ही	-5.68689
▁गया	-5.69516
▁यह	-5.72576
▁कहा	-5.84543
▁था	-5.86084
र	-5.86532
▁करने	-5.91838
क	-5.97047
▁साथ	-5.97271
▁तो	-5.97271
कर	-5.99847
ल	-6.03737
▁बाद	-6.04032
म	-6.05759
▁जा	-6.06237
ित	-6.06356
▁दिया	-6.08054
▁स	-6.10865
▁रहे	-6.12035
त	-6.16477
▁गई	-6.2276
▁रहा	-6.24038
ं	-6.24141
▁तक	-6.24535
▁व	-6.269
▁हुए	-6.27781
▁रही	-6.29149
▁सरकार	-6.35144
▁(	-6.37072
ियों	-6.3812
▁उनक	-6.38588
स	-6.39036
▁पुलिस	-6.39493
▁लोगों	-6.40058
)	-6.40216
▁अपने	-6.41303
ना	-6.44551
ता	-6.4583
▁दी	-6.45831
▁न	-6.48066
▁उस	-6.48111
▁थी	-6.48568
▁लेकिन	-6.49203
▁वह	-6.50409
ि	-6.5102
▁थे	-6.51041
▁उन्होंने	-6.53689
▁गए	-6.57828
▁अब	-6.58274
▁इसक	-6.59698
▁आ	-6.60947
ां	-6.6408
▁जो	-6.64196
ो	-6.6435
▁होने	-6.65635
▁पहले	-6.6689
ओं	-6.67108
ट	-6.68153
▁कुछ	-6.70011
▁बताया	-6.70029
्स	-6.71943
▁सिंह	-6.72892
द	-6.73731
▁वाले	-6.74947
▁भारत	-6.78292
▁आप	-6.79839
▁लेकर	-6.81358
▁करते	-6.81879
▁साल	-6.84015
▁अ	-6.84406
▁या	-6.84479
▁कोई	-6.85333
▁अपनी	-6.89267
िक	-6.90153
▁दो	-6.90249
▁कई	-6.90648
:	-6.91119
से	-6.91584
▁देश	-6.91738
▁दौरान	-6.92747
िंग	-6.95709
▁ये	-6.95916
व	-6.96044
▁बात	-6.96552
▁सभी	-6.96642
सी	-6.96746
▁हुई	-6.97248
ू	-6.97811
▁बार	-6.98402
▁तरह	-6.99178
ते	-7.00803
▁समय	-7.02432
▁प्रदेश	-7.03036
▁इन	-7.04091
▁लिया	-7.05025
ें	-7.05599
ई	-7.07171
▁हुआ	-7.07311
ार	-7.07384
▁दिन	-7.07438
▁दिल्ली	-7.07632
के	-7.08095
▁काम	-7.0814
▁फिल्म	-7.08907
ज	-7.09301
▁लोग	-7.11195
▁जिस	-7.11371
▁द्वारा	-7.12489
▁घर	-7.12684
ीय	-7.12845
▁राज्य	-7.13494
प	-7.14526
▁टीम	-7.14678
▁क्षेत्र	-7.15011
▁जाने	-7.15549
▁नाम	-7.1579
▁म	-7.16654
▁क	-7.1729
▁उन्हें	-7.17555
▁चुनाव	-7.17561
▁बीच	-7.17917
▁जब	-7.18971
▁हम	-7.19734
▁रूप	-7.19984
ण	-7.20098
▁शुरू	-7.2037
▁कोरोना	-7.20378
▁होगा	-7.20787
य	-7.21076
▁ऐस	-7.21942
▁मिल	-7.22875
▁तीन	-7.22915
▁र	-7.23025
में	-7.24413
▁प	-7.24641
▁कम	-7.26035
▁दे	-7.2655
▁किस	-7.26714
▁सकता	-7.27412
ब	-7.27484
▁आज	-7.27979
▁एव	-7.28694
▁जानकारी	-7.28696
▁कांग्रेस	-7.29751
▁वहीं	-7.29788
▁ले	-7.30172
▁जाता	-7.30305
नी	-7.3033
▁मामले	-7.30483
▁'	-7.30737
▁अधिक	-7.31296
कि	-7.31559
▁दोनों	-7.31733
▁हर	-7.3217
▁मैं	-7.32229
▁चल	-7.32759
▁ब	-7.32853
▁कुमार	-7.32956
वार	-7.33008
▁वे	-7.33213
▁जाएगा	-7.33353
ती	-7.33608
▁करना	-7.3462
या	-7.35681
▁पूर्व	-7.35904
▁रुपये	-7.3755
▁लाख	-7.38062
▁आपक	-7.38283
▁करोड़	-7.39215
ड	-7.40239
ए	-7.4048
▁फिर	-7.40553
▁प्र	-7.4073
▁वाली	-7.40985
▁कारण	-7.41603
▁पार्टी	-7.42348
▁पास	-7.42916
▁जारी	-7.42967
िया	-7.44182
श	-7.44442
▁जांच	-7.44565
▁गांव	-7.4507
▁लग	-7.45823
▁सकते	-7.46375
▁शामिल	-7.46394
ह	-7.46527
्	-7.46842
▁विभाग	-7.47307
▁चाहिए	-7.47307
'	-7.48308
▁ज्यादा	-7.48727
िल	-7.48733
▁मोदी	-7.49679
▁अध्यक्ष	-7.49687
▁ज	-7.50912
▁भारतीय	-7.51799
▁किए	-7.52005
▁इससे	-7.52679
▁जिले	-7.53094
री	-7.53148
▁ओर	-7.53168
▁उसके	-7.53554
ग	-7.54528
▁अन्य	-7.54888
▁काफ	-7.55228
▁कार्य	-7.55269
▁बहुत	-7.57184
सभा	-7.58939
▁देने	-7.58956
▁लगा	-7.59085
▁खिलाफ	-7.59778
▁करें	-7.6031
पुर	-7.60775
▁बना	-7.61101
▁मंत्री	-7.61361
▁भाजपा	-7.61393
▁जिला	-7.61815
▁हजार	-7.6182
▁-	-7.62018
▁सब	-7.62044
▁होगी	-7.62153
▁10	-7.63084
को	-7.63235
▁बारे	-7.63322
▁उसक	-7.63809
▁:	-7.64073
▁मांग	-7.64206
▁सामने	-7.64391
▁क्यों	-7.64654
▁‘	-7.64668
▁आने	-7.64708
ु	-7.65175
वा	-7.65368
▁मौत	-7.65773
▁राम	-7.65907
फ	-7.66256
▁पूर	-7.66669
▁उत्तर	-7.67166
▁श	-7.6808
▁पांच	-7.68093
▁ग	-7.68211
▁देख	-7.68276
ंग	-7.68425
जी	-7.69765
▁अभी	-7.69839
▁अस्पताल	-7.70385
▁दिए	-7.704
▁योजना	-7.7043
▁अगर	-7.70942
▁उन	-7.71682
▁अपना	-7.72832
▁वाल	-7.72933
▁केंद्र	-7.72952
▁वर्ष	-7.73387
▁बता	-7.73738
▁बंद	-7.73951
▁तथा	-7.73989
▁नगर	-7.74281
▁नई	-7.74301
▁बन	-7.74345
▁हालांकि	-7.74603
ली	-7.75117
▁त	-7.75232
ाई	-7.75573
▁शहर	-7.75898
▁राज	-7.75918
▁जिसक	-7.76169
▁चार	-7.76434
▁बैठक	-7.76441
▁स्थान	-7.76468
▁तैयार	-7.76622
▁दर्ज	-7.77244
▁इसी	-7.77345
▁बढ़	-7.78281
▁करीब	-7.78401
▁रिपोर्ट	-7.7901
▁होता	-7.79044
’	-7.79435
▁महिला	-7.79501
▁अनुसार	-7.79665
▁जीत	-7.79962
▁विकास	-7.80943
▁मैच	-7.80958
▁क्या	-7.80978
▁मुख्यमंत्री	-7.81
▁पहुंच	-7.81147
▁वो	-7.82515
एं	-7.82565
रा	-7.82855
▁आरोप	-7.83136
▁होती	-7.83542
▁प्रति	-7.83624
▁वजह	-7.83626
ला	-7.83879
?	-7.84288
▁प्रधानमंत्री	-7.84309
▁3	-7.8441
▁मार	-7.84773
▁अलावा	-7.85001
ख	-7.85169
▁ए	-7.85765
▁2	-7.86235
▁बड़ी	-7.865
▁फ	-7.86728
▁आए	-7.87024
▁पिछले	-7.87203
▁स्थिति	-7.87358
▁घटना	-7.87746
▁जी	-7.88573
▁हाल	-7.88613
▁खेल	-7.88923
▁बच्च	-7.89108
▁ली	-7.89546
▁जबकि	-7.90001
▁सं	-7.90112
▁आई	-7.9015
▁निर्देश	-7.90584
बसे	-7.91007
▁सा	-7.91117
▁रुपए	-7.9278
▁नेता	-7.93005
...	-7.93059
▁बजे	-7.93621
▁मेर	-7.93858
▁बैंक	-7.9426
▁इसलिए	-7.94315
▁पा	-7.94837
▁अधिकारी	-7.9498
▁संख्या	-7.95012
▁स्कूल	-7.95063
▁पानी	-7.95107
▁दूसरे	-7.95355
▁दिनों	-7.9549
▁ऐसा	-7.95499
▁मौजूद	-7.9577
▁जाएगी	-7.95802
़	-7.96026
▁ना	-7.96127
▁सदस्य	-7.96533
▁कंपनी	-7.96533
▁जिसमें	-7.96724
▁19	-7.97167
▁श्री	-7.97181
▁कहन	-7.97299
▁सकती	-7.97303
▁परीक्षा	-7.97304
टी	-7.97554
च	-7.97649
ास	-7.97666
▁जहां	-7.98078
▁निवास	-7.98156
गी	-7.98333
▁च	-7.9894
▁आगे	-7.99164
▁रहने	-7.99235
▁1	-7.99409
▁बनाने	-7.99515
▁बाहर	-7.9969
▁खान	-8.00289
▁मुख्य	-8.00426
▁हूं	-8.0044
▁तहत	-8.00452
ुबह	-8.00458
▁जनता	-8.00552
▁किसानों	-8.01173
▁विधान	-8.01244
▁नजर	-8.01412
▁थाना	-8.01865
▁मिला	-8.01892
▁लेने	-8.02093
▁लोक	-8.02216
▁हिंदी	-8.0286
▁सह	-8.02995
▁नए	-8.03152
▁जाती	-8.03412
▁परिवार	-8.03701
▁आधार	-8.03741
▁आम	-8.04089
▁कोर्ट	-8.04136
▁पद	-8.04297
▁सुरक्षा	-8.04625
का	-8.04663
▁भ	-8.04728
▁भर	-8.05221
▁20	-8.05571
▁12	-8.05642
ाने	-8.05819
▁मीडिया	-8.0618
▁सीट	-8.06432
कार	-8.06439
▁दें	-8.06656
▁मिली	-8.06999
▁मंदिर	-8.07037
▁महीन	-8.07337
▁मरीज	-8.07885
▁जगह	-8.07947
्य	-8.08447
▁जैसे	-8.0845
▁पाकिस्तान	-8.0879
▁रह	-8.08953
▁पता	-8.09111
▁हत्या	-8.09755
▁सूचना	-8.09781
▁बस	-8.1004
▁सड़क	-8.10491
▁स्थित	-8.10967
▁उ	-8.1097
▁5	-8.10975
▁कार्यक्रम	-8.11072
▁संबंध	-8.11163
▁स्वास्थ्य	-8.11376
▁गिरफ्तार	-8.11402
▁मौके	-8.11417
▁द	-8.11543
मा	-8.12052
▁युवक	-8.12268
▁पंचायत	-8.12286
▁करेंगे	-8.12507
▁पहली	-8.12694
▁तब	-8.12878
▁वीडियो	-8.13171
▁हाथ	-8.13177
▁करता	-8.13211
▁पूरा	-8.13787
i	-8.13951
▁मुताबिक	-8.14039
▁खुद	-8.14087
▁बिहार	-8.14122
▁जाए	-8.14845
▁सु	-8.15123
▁प्रशासन	-8.15947
▁चर्चा	-8.15971
▁फीसद	-8.1603
▁रात	-8.1609
▁होते	-8.16115
▁व्यक्ति	-8.16487
▁कार्रवाई	-8.16856
माल	-8.17007
▁6	-8.1702
▁पूरे	-8.17159
▁ल	-8.1791
▁ता	-8.18462
▁पहुंचे	-8.18697
▁यादव	-8.18794
▁इसका	-8.19053
शन	-8.19255
▁उप	-8.19329
▁मदद	-8.19713
▁आग	-8.19833
ियां	-8.20006
▁अलग	-8.20055
▁बढ़ा	-8.20246
▁दूसर	-8.20354
▁इतन	-8.20702
▁दल	-8.21242
▁जल्द	-8.21664
▁वापस	-8.21664
▁विधायक	-8.21671
▁डॉ	-8.21755
▁मुझ	-8.2178
▁बड़े	-8.21893
बी	-8.21995
▁11	-8.22046
ंड	-8.22118
▁कुल	-8.22179
▁आदि	-8.23652
▁शिक्षा	-8.23655
थ	-8.23939
▁रन	-8.24005
डी	-8.24024
▁4	-8.24031
▁राष्ट्रीय	-8.24044
▁ग्रामीण	-8.24665
▁सिर्फ	-8.24665
▁छोड़	-8.24671
▁निर्माण	-8.24685
▁कोविड	-8.24702
▁सवाल	-8.24792
▁15	-8.2488
मान	-8.25134
▁चलत	-8.25229
▁लगे	-8.25399
▁प्रदर्शन	-8.25646
▁गांधी	-8.25685
▁विरोध	-8.25693
▁न्यूज़	-8.25701
▁अधिकारियों	-8.25787
▁महिलाओं	-8.25888
a	-8.26103
▁मिलने	-8.26136
▁विशेष	-8.26713
▁भाग	-8.2676
▁सोमव	-8.26819
▁जीवन	-8.26853
▁14	-8.27175
रेंद्र	-8.27331
दार	-8.27555
▁बुधवार	-8.27764
▁योग	-8.27821
▁लगाया	-8.27888
▁चुक	-8.2842
▁मामला	-8.2843
▁हाई	-8.28883
▁कभी	-8.28921
▁तरफ	-8.29182
▁फैसला	-8.29234
s	-8.29671
भग	-8.29966
▁देते	-8.30139
▁आरोपी	-8.30496
ाना	-8.30652
▁खबर	-8.30862
▁व्यवस्था	-8.3095
▁मंगल	-8.3097
▁दुनिया	-8.30989
▁ह	-8.31145
▁जान	-8.31224
▁लगात	-8.31387
▁चुकी	-8.31684
▁समस्या	-8.32037
▁जिन	-8.32041
▁वाहन	-8.32056
भ	-8.323
▁मु	-8.3233
▁विश्व	-8.3239
▁पी	-8.32516
▁चला	-8.32771
▁युवा	-8.33135
▁होंगे	-8.33145
▁इंडिया	-8.3319
ड़	-8.33671
▁अभियान	-8.34246
▁पत्र	-8.34375
▁बाजार	-8.34398
ति	-8.34963
▁30	-8.35317
▁8	-8.35374
▁करती	-8.35739
▁खास	-8.35829
▁पार	-8.359
▁वि	-8.35933
2	-8.3619
▁उपलब्ध	-8.36461
▁शादी	-8.36511
वी	-8.36536
▁कराया	-8.36582
▁किलो	-8.36711
▁जाना	-8.36928
▁सी	-8.37153
▁घोषणा	-8.37656
▁इलाक	-8.3766
▁शर्मा	-8.37824
▁जन	-8.37855
राज	-8.37945
पी	-8.37953
▁कार	-8.38188
▁पीएम	-8.38196
ंत	-8.38429
▁निकल	-8.38622
की	-8.38678
▁प्रमुख	-8.38827
▁शुक्र	-8.38843
▁समिति	-8.38926
तर	-8.39199
▁भेज	-8.39506
ंस	-8.39653
एस	-8.39833
▁करके	-8.39844
▁प्रयास	-8.39995
▁शनिवार	-8.39998
▁रेलवे	-8.40004
▁अगल	-8.40021
िका	-8.40294
e	-8.40324
▁आया	-8.40346
▁चुका	-8.40424
ेशन	-8.40772
▁जाते	-8.40971
▁ध्यान	-8.41187
▁कानून	-8.41202
▁मुंबई	-8.41238
पूर्ण	-8.41588
▁मे	-8.41843
▁रखा	-8.42274
▁नंबर	-8.42421
▁राशि	-8.42472
▁शिव	-8.42472
कल	-8.42547
▁बड़ा	-8.42659
▁कीमत	-8.42701
▁करा	-8.42711
्र	-8.43024
▁निकाल	-8.43315
ेज	-8.43556
▁घायल	-8.4361
▁पेश	-8.43714
▁मान	-8.43829
▁दूर	-8.43896
▁"	-8.43962
00	-8.44418
▁मह	-8.44635
▁जल	-8.44675
▁गंभीर	-8.44844
▁संगठन	-8.44844
▁समाज	-8.44879
▁जरूरत	-8.44942
▁जेल	-8.44984
▁बिना	-8.44995
▁किसान	-8.45244
▁पड़	-8.45402
▁डा	-8.45801
▁सोशल	-8.4611
▁इस्त	-8.46361
ंट	-8.47245
▁केवल	-8.47424
▁तय	-8.47513
▁स्तर	-8.47633
▁तेज	-8.48166
▁लिखा	-8.4827
टर	-8.48332
▁जवाब	-8.48642
▁बनाया	-8.48853
▁तौर	-8.49029
▁छात्र	-8.49157
ठ	-8.49312
▁सके	-8.49431
▁लाल	-8.49472
वर	-8.49837
▁बाइक	-8.49941
▁भर्ती	-8.49946
▁होना	-8.50093
▁शव	-8.50159
▁रि	-8.50296
▁डे	-8.50519
▁कृषि	-8.51257
▁शिक्षक	-8.51257
▁शाम	-8.51296
▁आयोज	-8.51776
▁यात्रा	-8.5198
▁लगाने	-8.5241
▁मध्य	-8.52458
लब	-8.52468
▁शिकायत	-8.52493
▁रविवार	-8.52602
▁साफ	-8.52643
▁निगम	-8.5268
स्ट	-8.52736
ै	-8.52776
▁सीमा	-8.52796
▁ध	-8.53097
मेत	-8.53136
ओ	-8.53364
▁देखा	-8.53485
यू	-8.5363
▁हमारे	-8.5367
▁प्राप्त	-8.53787
जन	-8.53804
▁प्रतिशत	-8.53942
▁लाभ	-8.53959
▁आदेश	-8.53981
▁देखते	-8.54162
ाहुल	-8.54289
▁ट	-8.5437
▁ग्राम	-8.54405
▁7	-8.5476
ष	-8.5501
▁कार्यालय	-8.55326
लाइन	-8.55895
▁दौर	-8.56396
क्ष	-8.56639
▁सचिव	-8.5674
नाथ	-8.56766
▁रोक	-8.57
ेंद्र	-8.57078
▁कह	-8.57161
▁आयोजन	-8.57196
ेश	-8.57249
/	-8.57291
▁सात	-8.5735
▁डाल	-8.57359
▁50	-8.57866
वुड	-8.58109
▁विवाद	-8.58117
▁कार्यकर्ता	-8.58117
▁गठ	-8.5816
▁ई	-8.58203
▁चाहते	-8.58248
▁महा	-8.58329
▁सही	-8.58346
▁यूपी	-8.58394
▁कार्ड	-8.58512
▁ऑफ	-8.58545
▁पति	-8.58722
▁25	-8.58953
▁सेवा	-8.59148
बंध	-8.59401
▁थीं	-8.59722
दा	-8.60167
गत	-8.60432
पर	-8.60465
▁दर	-8.60672
ुल	-8.61096
राम	-8.61167
िन	-8.61378
A	-8.61517
आई	-8.61604
▁उठा	-8.61616
अ	-8.61825
▁बदल	-8.62073
▁2021	-8.62462
▁शेयर	-8.62479
▁बारिश	-8.62536
▁आठ	-8.62612
▁नेताओं	-8.62991
▁मामल	-8.63185
रिया	-8.63696
▁उम्मीद	-8.63883
▁टेस्ट	-8.63908
▁सूत्र	-8.63949
▁बीजेपी	-8.63951
▁पसंद	-8.63968
▁लखनऊ	-8.63968
▁आयोग	-8.63981
▁वायरस	-8.64076
वि	-8.64084
▁बल्क	-8.64154
▁अन	-8.64218
▁ऑन	-8.64228
▁अनु	-8.64272
▁हास	-8.644
d	-8.64708
▁मत	-8.65132
▁कोशिश	-8.65465
▁बयान	-8.65466
वे	-8.65584
्क	-8.65709
टा	-8.65893
▁देखने	-8.66569
▁18	-8.66632
0	-8.66677
भी	-8.66885
▁संक्रमण	-8.67009
▁अवसर	-8.67012
हर	-8.67036
▁जाएंगे	-8.67058
▁–	-8.67072
▁बी	-8.67211
▁पीछे	-8.67255
▁कल	-8.67506
▁बे	-8.67589
▁पुरान	-8.67595
▁पक्ष	-8.67665
ड़ा	-8.67819
▁पहुंचा	-8.68097
▁कमी	-8.68134
▁माना	-8.68399
मेंट	-8.68526
▁जुलाई	-8.6857
▁गयी	-8.68589
▁गुरुवार	-8.68591
▁पंजाब	-8.68597
▁फोटो	-8.68648
▁24	-8.68648
▁प्रकार	-8.68679
▁वक्त	-8.68724
▁यही	-8.68736
▁घंटे	-8.68875
▁धन	-8.68978
▁जुड़े	-8.6904
▁बनाए	-8.69142
▁क्रिकेट	-8.69437
▁बच	-8.69467
▁बॉल	-8.69616
▁खड़	-8.69676
हा	-8.69839
▁व्यापार	-8.69978
▁सुविधा	-8.70079
▁मोबाइल	-8.70153
▁उपयोग	-8.70156
▁कॉलेज	-8.70168
ध	-8.70292
वीं	-8.70398
▁प्रकाश	-8.70446
▁रखने	-8.70545
सा	-8.70582
ियर	-8.71224
ेट	-8.71386
▁ला	-8.71665
▁ट्रेन	-8.71675
▁प्रस्ताव	-8.71766
▁इलाज	-8.71766
▁राजस्थान	-8.71766
▁खर्च	-8.71767
▁मंत्रालय	-8.7177
▁वैक्सीन	-8.71827
▁हिस्सा	-8.71838
▁कैसे	-8.71851
▁पिता	-8.72087
▁रोड	-8.72148
▁एन	-8.7216
▁मई	-8.72187
▁नि	-8.72189
▁हमें	-8.72285
▁तेजी	-8.72339
▁सभा	-8.72599
▁वन	-8.72624
▁हार	-8.72684
▁एयर	-8.73219
▁आतंक	-8.73254
ज़	-8.73291
▁शुरुआत	-8.73405
▁बजट	-8.73425
▁सप्ताह	-8.73437
▁बोर्ड	-8.7344
हित	-8.7351
▁मात्र	-8.73581
▁अंतर	-8.73596
▁9	-8.737
▁कश्मीर	-8.73704
▁ख	-8.73834
▁हमार	-8.73924
▁पकड़	-8.74101
▁13	-8.74121
▁दिल	-8.74367
▁मेडि	-8.74506
▁यद	-8.74509
▁माह	-8.74859
▁छात्रों	-8.74876
▁मां	-8.74926
▁परेशान	-8.75021
▁छह	-8.75113
▁प्रदा	-8.75146
▁पुत्र	-8.75219
▁गिर	-8.75248
▁देव	-8.75329
▁अमेरिका	-8.75594
▁रख	-8.76179
जा	-8.76249
▁मन	-8.76576
र्स	-8.76717
िस्तान	-8.76762
▁चीन	-8.76762
्‍	-8.76767
▁बिजली	-8.76772
▁जमीन	-8.76778
▁परिषद	-8.76788
▁जून	-8.76788
▁बल	-8.7687
▁भाई	-8.77014
▁जमा	-8.77252
▁बच्चे	-8.77395
रो	-8.77633
4	-8.7764
|	-8.77686
स्त	-8.78079
▁सर्व	-8.78083
▁लौट	-8.78158
▁नियम	-8.78297
▁लगी	-8.78332
▁टी	-8.78374
▁बेहतर	-8.78499
▁रास्त	-8.78505
▁पेट्रोल	-8.78512
▁विचार	-8.7854
▁सीएम	-8.78656
▁शाह	-8.78669
▁दाम	-8.78754
▁असर	-8.78841
▁शो	-8.78952
▁बेह	-8.79019
▁17	-8.79035
ले	-8.79209
▁अच्छा	-8.79507
▁जरूरी	-8.79646
▁यू	-8.79749
िस	-8.7986
भर	-8.80022
▁पड़ा	-8.80115
▁लड़	-8.80137
िश	-8.80222
▁पहचान	-8.80245
▁विभिन्न	-8.80246
▁मैदान	-8.8025
-19	-8.8028
▁तेल	-8.80338
▁नोट	-8.8037
▁प्रभावित	-8.80434
▁फोन	-8.80466
▁वर्षीय	-8.80498
▁बाव	-8.80651
्री	-8.808
▁कप	-8.80841
▁कहत	-8.80948
▁सेना	-8.81341
▁समझ	-8.81415
▁बैठ	-8.81706
▁सो	-8.81987
▁प्रक्रिया	-8.82031
▁मौसम	-8.82031
▁विपक्ष	-8.82043
▁कु	-8.82059
जूद	-8.821
▁मंडल	-8.8227
▁हमले	-8.82338
▁रंग	-8.82429
▁सार	-8.83307
▁दुकान	-8.8373
▁कर्मचारी	-8.83849
▁निर्णय	-8.83849
▁अगस्त	-8.83849
▁प्रवेश	-8.83849
▁कंपनिय	-8.8385
▁तलाश	-8.8385
▁ठीक	-8.83851
▁बदलाव	-8.83879
▁राष्ट्रपति	-8.83891
▁चरण	-8.83969
▁प्रभारी	-8.84022
▁बेट	-8.84087
▁मिले	-8.84179
▁परिजनों	-8.84201
▁अधिकार	-8.8421
▁वोट	-8.84391
▁अंति	-8.8462
▁यात्र	-8.84947
t	-8.8513
▁100	-8.85587
▁धर्म	-8.85675
▁बातचीत	-8.85701
▁महत्व	-8.8571
▁भूमिका	-8.85719
▁“	-8.85724
▁आवेदन	-8.8573
▁विषय	-8.85743
▁विजय	-8.85852
▁ढ	-8.86034
▁ज़	-8.86563
ॉ	-8.86607
▁सि	-8.87295
▁गो	-8.87524
▁संयुक्त	-8.87605
▁मिनट	-8.87609
▁प्रेम	-8.8765
▁जम	-8.87693
‍	-8.87742
▁बनी	-8.87786
▁महामा	-8.87826
▁बीत	-8.87866
▁गलत	-8.87868
मन	-8.87926
▁हमला	-8.87947
▁पाया	-8.88023
▁स्व	-8.8808
लाल	-8.88091
▁16	-8.88146
▁पैद	-8.88222
हिर	-8.88593
▁राजनीतिक	-8.88608
B	-8.88703
▁अच्छी	-8.88703
▁23	-8.88951
▁कै	-8.89029
▁समर्थ	-8.89273
यों	-8.89309
▁नुकसान	-8.89511
▁लागू	-8.89511
▁नेतृत्व	-8.89514
▁दावा	-8.89664
▁आतंकवाद	-8.8969
▁अपराध	-8.89691
▁भारी	-8.89749
▁एल	-8.89771
▁आर	-8.90122
▁मनो	-8.90394
वन	-8.90493
ामी	-8.90692
सर	-8.91092
▁भेजा	-8.91095
नगर	-8.91126
▁अफगान	-8.91472
▁माध्यम	-8.91472
▁मुकाबले	-8.91472
▁ऊपर	-8.91472
▁भगवान	-8.91472
▁अदालत	-8.91472
▁पूजा	-8.91476
▁चयन	-8.9149
▁दोपह	-8.91506
▁जन्म	-8.91521
▁समूह	-8.91541
▁दिवस	-8.91554
▁खत्	-8.91589
▁दिख	-8.91613
ेंगे	-8.91758
▁स्थल	-8.91798
▁खरीद	-8.9185
▁गौर	-8.9208
▁कदम	-8.92083
▁लिख	-8.92092
▁आते	-8.92421
▁बढ़त	-8.92671
क्त	-8.92756
▁बाल	-8.92887
▁बने	-8.92919
E	-8.93471
▁अतिरिक्	-8.93472
▁राजधानी	-8.93472
▁दिसंबर	-8.93472
▁विकेट	-8.93478
▁वरिष्ठ	-8.93481
▁राय	-8.93489
▁नोटिस	-8.93489
▁स्टेशन	-8.9349
▁पत्नी	-8.93513
▁सांसद	-8.93531
▁मिलेगा	-8.9354
▁पढ़ें	-8.93627
▁हमेश	-8.93639
दान	-8.93909
▁होकर	-8.93978
▁पहला	-8.94007
्ट	-8.94345
▁तैयारी	-8.95
िए	-8.95037
▁इ	-8.95059
▁हटा	-8.95223
▁जनवरी	-8.95513
▁अपील	-8.95516
▁शराब	-8.9552
▁अंदर	-8.95534
▁2020	-8.95537
▁कर्मचारियों	-8.95538
▁वृद्ध	-8.95553
▁हादसे	-8.95555
▁अमित	-8.9556
▁टिकट	-8.95565
▁रहेगा	-8.95752
▁ओ	-8.95768
▁क्षेत्रों	-8.96318
▁राजनीति	-8.9648
क्स	-8.96483
▁कड़	-8.96495
तम	-8.96619
▁अंत	-8.96771
दीप	-8.96887
ः	-8.9737
▁उपस्थित	-8.97441
▁अच	-8.97452
▁नौ	-8.97511
गंज	-8.97516
गर	-8.97525
▁चौधरी	-8.97596
▁बंगाल	-8.97596
▁संक्रमित	-8.97596
▁विश्वविद्यालय	-8.976
▁मार्च	-8.97625
▁कपूर	-8.97632
▁शांति	-8.97643
▁न्याय	-8.9766
▁निजी	-8.97668
▁मूल्य	-8.97676
▁डी	-8.97728
▁जैस	-8.97738
▁माल	-8.9786
5	-8.97863
▁बल्लेबाज	-8.9796
▁करेगा	-8.97991
▁लॉक	-8.98138
▁B	-8.98474
▁कट	-8.98515
▁पालन	-8.9856
▁रहता	-8.98585
3	-8.98805
डाउन	-8.98892
6	-8.98896
▁पहुंची	-8.9919
▁रोग	-8.99246
ोल	-8.99415
▁देर	-8.99524
ानक	-8.99683
▁क्षमता	-8.99723
▁सितंबर	-8.99724
▁जिलों	-8.99728
▁प्रधान	-8.9974
्ड	-8.99747
▁खुश	-8.99754
▁इनक	-8.99882
▁कहीं	-8.99914
I	-8.99942
▁सुन	-8.9995
▁मार्ग	-8.99985
▁पड़ता	-9.00001
▁नव	-9.0005
केंद्रीय	-9.00194
ोर	-9.00292
बल	-9.00374
गा	-9.00626
▁देता	-9.0064
▁रहते	-9.00803
▁याद	-9.00855
S	-9.00907
ेश्वर	-9.00923
ीजन	-9.0107
▁लाइन	-9.01093
▁60	-9.01254
▁आता	-9.01492
▁कराई	-9.01638
▁घट	-9.01727
▁सम्मान	-9.01734
▁प्रभाव	-9.01738
प्र	-9.01812
▁नवंबर	-9.01902
▁कमेटी	-9.01902
▁न्यायालय	-9.01903
▁घोषित	-9.01926
▁जवान	-9.01936
▁उम्र	-9.01937
▁विदेश	-9.01988
▁खाद्य	-9.02002
▁चालक	-9.02005
▁ट्रक	-9.02096
▁अनुम	-9.02167
्या	-9.02278
▁बा	-9.02614
▁चौक	-9.02722
ाँ	-9.02918
ढ़	-9.03129
!	-9.03292
राष्ट्रीय	-9.03329
▁खा	-9.03579
▁मुद्द	-9.03695
▁दीप	-9.04102
▁40	-9.04116
▁अप्रैल	-9.0412
▁भोपाल	-9.0412
▁मजबूत	-9.0412
▁स्थाप	-9.0412
▁प्रतिनिधि	-9.04124
▁आंदोलन	-9.0413
▁वित्त	-9.04131
▁लूट	-9.04134
▁हरियाणा	-9.04147
▁जम्मू	-9.04165
▁विद्यालय	-9.04274
▁दिखाई	-9.0428
▁संघ	-9.04377
▁सहयोग	-9.0444
▁एस	-9.0503
चा	-9.05814
▁लिय	-9.06363
▁अहम	-9.06363
▁गेंद	-9.06388
▁गृह	-9.06392
▁आर्थिक	-9.06392
▁सलमान	-9.06394
▁पश्चिम	-9.06439
▁संजय	-9.06444
▁सफाई	-9.06519
▁पैसे	-9.06651
वें	-9.06841
▁इनमें	-9.06945
▁मंत्र	-9.06981
▁छ	-9.07186
▁लगता	-9.07203
▁जोड़	-9.07428
▁बनाकर	-9.07494
▁गाड़	-9.0766
▁भीड़	-9.07663
▁बहन	-9.0776
▁बो	-9.07761
▁पोस्ट	-9.07828
▁2019	-9.07834
▁खिलाड़ी	-9.07843
अलग	-9.07923
ग्राम	-9.07945
▁छात्रा	-9.08181
▁गोली	-9.0839
▁पार्क	-9.08672
▁आवाज	-9.08678
›	-9.08718
▁ट्वीट	-9.08718
▁दरअसल	-9.08718
▁परिणाम	-9.08718
▁मुश्किल	-9.08718
▁खराब	-9.08722
▁सुनवाई	-9.08722
▁संकट	-9.08748
▁देंगे	-9.08772
▁मो	-9.08806
आ	-9.08913
केश	-9.09052
▁देवी	-9.09103
o	-9.09214
▁घाट	-9.09343
▁पे	-9.09409
▁वर्त	-9.09443
▁केन्द्र	-9.09818
1	-9.10034
नि	-9.10041
▁फैसल	-9.10141
▁सुधार	-9.10667
▁S	-9.108
गढ़	-9.10846
▁बचा	-9.10859
रे	-9.1092
▁पढ़	-9.11077
▁फिलहाल	-9.11099
▁चोट	-9.1111
▁अक्टूबर	-9.11129
▁मौका	-9.11182
▁दस	-9.11412
▁रेल	-9.11457
िम	-9.1173
▁दक्षिण	-9.11733
▁रोज	-9.11796
▁लाने	-9.11836
m	-9.11918
▁मुक्त	-9.12132
्ल	-9.12244
▁थाने	-9.1227
आर	-9.123
▁रा	-9.12594
▁मानव	-9.129
▁इं	-9.13195
▁दवा	-9.13235
पा	-9.13357
मो	-9.13401
▁22	-9.13443
▁उच्च	-9.13538
▁पूछताछ	-9.13538
▁वायरल	-9.13538
▁गैस	-9.13538
▁उत्तराखंड	-9.1354
प्त	-9.13593
देव	-9.13597
▁राहत	-9.13639
▁इंटरने	-9.13835
▁कही	-9.13897
▁रैल	-9.14092
▁बाबा	-9.14115
▁संबंधित	-9.14194
▁घरेल	-9.14231
▁26	-9.14273
▁आसप	-9.14376
▁जिनक	-9.14407
▁चोरी	-9.14611
▁पुल	-9.14717
7	-9.14954
▁अव	-9.1501
▁पीड़ित	-9.15065
▁डि	-9.15194
▁सपा	-9.1527
फ़	-9.15622
▁नही	-9.15857
▁तस्वीर	-9.15948
▁दर्शक	-9.16038
▁समीक्षा	-9.16038
▁संभावना	-9.16061
▁सुरक्षित	-9.16076
▁टीवी	-9.16077
▁संसद	-9.1608
▁भवन	-9.16091
▁ओवर	-9.16189
▁वर्ग	-9.16283
रिए	-9.16283
▁साबि	-9.16298
▁माता	-9.16451
▁सीध	-9.16465
▁बीमारी	-9.1673
▁सिर	-9.17013
9	-9.17105
▁बढ़ाने	-9.1728
बार	-9.17702
उ	-9.17707
G	-9.17789
मीटर	-9.17825
▁इन्ह	-9.17962
▁सोच	-9.18047
▁डर	-9.18058
मी	-9.18287
▁लें	-9.1834
▁रिकॉर्ड	-9.18602
▁दिशा	-9.18608
▁मास्क	-9.1861
▁सामान्य	-9.18624
▁करेगी	-9.18625
▁विमान	-9.18664
▁ऑ	-9.18681
▁आवास	-9.18688
▁अमर	-9.18708
▁चंद्र	-9.18716
खंड	-9.18731
▁तमा	-9.18751
ानदार	-9.18991
ौर	-9.19202
▁लगाई	-9.19275
▁जरूर	-9.19282
त्र	-9.19387
▁खाने	-9.19806
वाला	-9.20014
▁नागरिक	-9.2007
R	-9.20094
▁सामन	-9.20116
रण	-9.20134
▁उम्मीदवार	-9.20187
▁नया	-9.20401
▁बनने	-9.20414
वाल	-9.20455
▁टीकाकर	-9.2049
▁बेटे	-9.20517
▁राष्ट्र	-9.20806
▁लंब	-9.21106
▁एसोसिएशन	-9.21234
▁दाखिल	-9.21234
▁सीरीज	-9.21234
▁समारोह	-9.21234
▁तरीके	-9.21235
▁परियोजना	-9.21236
▁2018	-9.21249
▁गये	-9.21277
▁ऑक्स	-9.21284
▁झारखंड	-9.21288
▁अप	-9.21306
▁छूट	-9.21318
▁परेशानी	-9.21319
।"	-9.21423
▁रक्षा	-9.21457
▁फेस	-9.21477
▁पैर	-9.21483
▁शासन	-9.21533
▁वी	-9.21566
▁सजा	-9.21614
चर	-9.2185
▁मतदा	-9.21904
▁मिश्रा	-9.21948
एम	-9.22109
20	-9.22123
r	-9.22228
g	-9.2243
▁वै	-9.22452
▁काल	-9.22795
▁फैल	-9.2293
▁बाक	-9.2308
▁वार्ड	-9.2324
▁सहाय	-9.23353
▁शक्ति	-9.23378
▁बर	-9.23536
▁छत्तीसगढ़	-9.23936
▁तिवारी	-9.23936
▁सुप्रीम	-9.23936
▁लक्ष्य	-9.2394
▁2017	-9.23947
▁फरवरी	-9.23947
▁संदेश	-9.23958
▁पत्रकार	-9.24014
▁मगर	-9.24042
▁सैनिक	-9.2408
▁सहायता	-9.24099
▁गुप्ता	-9.2411
▁खूब	-9.24123
बा	-9.24167
ुक	-9.24411
▁पाए	-9.24562
▁किये	-9.24695
ंगी	-9.24726
▁तैनात	-9.24893
"	-9.24895
▁जोर	-9.24932
▁खिलाड़	-9.24979
ाइट	-9.2503
▁परि	-9.25095
▁सर	-9.25277
▁ड	-9.25385
इस	-9.25604
▁पूर्ण	-9.25772
ेगा	-9.25877
▁पि	-9.25914
हम	-9.25976
▁दिखा	-9.26105
▁खुल	-9.26336
तौर	-9.26551
▁भविष्य	-9.26712
▁चिकित्सक	-9.26714
▁अकाउंट	-9.26714
▁चिकित्सा	-9.26714
▁बरामद	-9.26715
▁खुलासा	-9.26723
▁कोलकाता	-9.26749
र्न	-9.26757
▁अवधि	-9.26759
▁पटना	-9.26867
▁कक्षा	-9.26947
पाल	-9.27009
▁एसपी	-9.27074
▁फ़	-9.27158
▁प्रो	-9.27339
▁ट्र	-9.27447
▁छोटे	-9.27458
▁एप	-9.27474
▁31	-9.27483
▁सूची	-9.27826
▁व्यक्त	-9.27838
▁लेना	-9.27903
▁आसान	-9.27915
8	-9.28079
▁प्रबंध	-9.28104
▁आय	-9.28273
ेस	-9.28348
▁चा	-9.28572
ाव	-9.28592
▁जला	-9.28763
रत	-9.28798
साथ	-9.28831
न्न	-9.28836
बुक	-9.2889
बंदी	-9.29079
▁आत्म	-9.29487
▁सफल	-9.29571
▁आदमी	-9.29571
▁पेंशन	-9.29571
▁आंख	-9.29572
▁डॉलर	-9.29573
▁सलाह	-9.29574
▁नौकरी	-9.29577
▁वितरण	-9.29597
▁हालात	-9.29608
ेंट	-9.29623
सूस	-9.2963
▁चेक	-9.29679
ीं	-9.29742
▁नदी	-9.29752
▁चिंता	-9.29783
िट	-9.29784
▁सत्र	-9.29825
▁बिल	-9.29863
D	-9.29866
▁उत्पादन	-9.29918
▁बेच	-9.30032
▁केस	-9.30098
▁उत्	-9.30241
▁सौ	-9.30301
लैंड	-9.30336
▁उठ	-9.30519
रोध	-9.30635
▁गा	-9.30725
▁जुट	-9.3076
हार	-9.30851
p	-9.30862
▁भू	-9.30935
ैंड	-9.31052
▁मश	-9.31075
▁अभि	-9.31301
ार्थ	-9.31316
डे	-9.3161
▁लाखों	-9.31714
▁घ	-9.32058
▁अच्छ	-9.32067
▁खोल	-9.32082
▁वर्षों	-9.32212
▁निवेश	-9.32303
50	-9.32418
▁हा	-9.32452
▁याचिका	-9.32509
▁बदमाश	-9.32512
▁ठाकुर	-9.32512
▁वेबसाइट	-9.32512
▁गतिविधिय	-9.32512
▁गिरावट	-9.32512
▁उपचार	-9.32513
▁दूसरा	-9.32513
▁प्यार	-9.32514
▁वकील	-9.32514
▁अग्रवाल	-9.32515
▁शरीर	-9.32516
▁अफसर	-9.32516
▁फसल	-9.32516
▁कानपुर	-9.3254
हत	-9.3271
्‍य	-9.32813
रानी	-9.32817
▁लगाए	-9.32836
▁धारा	-9.32917
ेक	-9.32975
,000	-9.33027
ंज	-9.331
▁लड़की	-9.33245
▁डिज	-9.33325
▁भाव	-9.33359
▁रोकने	-9.33405
▁बि	-9.33608
ाबाद	-9.33932
▁21	-9.33967
▁मना	-9.34374
ग्रह	-9.347
(	-9.3475
कोर्ट	-9.34781
घाट	-9.34983
▁वाद	-9.34991
पोर्ट	-9.35091
▁भल	-9.35492
दी	-9.3552
▁अशोक	-9.35543
▁आरक्षण	-9.35543
▁एक्सप्रेस	-9.35543
▁प्रत्येक	-9.35543
▁भोजन	-9.35543
▁मुलाकात	-9.35544
▁चौहान	-9.35544
▁कारोबार	-9.35544
▁ऑस्ट्रेलिया	-9.35545
▁तुर	-9.3555
▁सेंटर	-9.3556
▁महाराष्ट्र	-9.35582
▁मंच	-9.35612
▁कोतवाल	-9.35622
▁एजेंसी	-9.35631
▁प्रसाद	-9.35642
ड़ी	-9.35942
▁मानना	-9.35957
इ	-9.36046
वल	-9.36229
▁A	-9.36417
एल	-9.36434
▁रखे	-9.36456
▁न्यूज	-9.36559
▁पढ़ा	-9.36814
▁गर्म	-9.37019
▁कॉ	-9.37158
▁35	-9.37235
▁आंकड़	-9.37317
मंत्री	-9.37812
▁सम	-9.37833
घ	-9.37991
ेल	-9.38019
▁जानत	-9.38032
u	-9.38352
▁सत्ता	-9.38361
▁तोड़	-9.38478
▁चीज	-9.38542
▁दा	-9.38632
▁मूल	-9.3864
▁प्रदूषण	-9.38668
▁समुदाय	-9.38668
▁सार्वजनि	-9.38668
▁पॉजिटिव	-9.38668
▁प्रवक्त	-9.38668
▁उद्योग	-9.3867
▁इतिहास	-9.3867
▁मकान	-9.38671
▁दर्द	-9.38677
कर्मियों	-9.38685
▁परिसर	-9.38691
▁पेड़	-9.38703
▁वर्मा	-9.38745
▁हवाई	-9.38757
▁उतर	-9.38759
▁अज	-9.38796
▁एंड	-9.38821
▁पर्यटक	-9.38846
▁स्वाग	-9.38988
▁1.	-9.38993
▁सफलता	-9.39051
ेयर	-9.39168
▁मेल	-9.39264
▁नय	-9.39358
।'	-9.39512
▁झ	-9.3954
▁थ	-9.39624
क्र	-9.39672
▁एक्स	-9.39701
चित	-9.3975
▁आती	-9.39805
ाइ	-9.39898
ये	-9.39922
C	-9.39923
▁अर	-9.39925
ेड	-9.39942
▁जोन	-9.40013
▁चलाने	-9.40172
▁रे	-9.40235
al	-9.40322
▁राजा	-9.40386
▁एम	-9.40389
▁जाएं	-9.40463
▁27	-9.4054
▁खो	-9.40558
▁चि	-9.40603
▁गरीब	-9.40746
▁अभिन	-9.40782
),	-9.40894
▁चुन	-9.41087
▁आवश्यक	-9.41147
in	-9.41656
▁नीत	-9.41727
जीत	-9.41834
शनल	-9.41835
▁सूर्य	-9.41889
▁अवैध	-9.41893
▁इंतजार	-9.41893
▁तहसील	-9.41893
▁संवाददाता	-9.41893
▁कप्तान	-9.41894
▁आबादी	-9.41894
▁शिविर	-9.41895
▁समाप्त	-9.41899
▁संभव	-9.41903
▁जनपद	-9.41905
▁होटल	-9.41906
▁कोहली	-9.41906
▁पुरस्कार	-9.41907
▁नीच	-9.41907
▁पटेल	-9.41922
▁प्रथम	-9.41934
▁विराट	-9.41967
▁रखी	-9.41974
▁रायपुर	-9.41975
▁सामाजिक	-9.42013
▁संपर	-9.4205
y	-9.4209
▁रावत	-9.42128
▁28	-9.42135
▁शि	-9.42166
▁टूट	-9.42299
▁नियमित	-9.4234
वान	-9.42368
टम	-9.4249
▁सम्म	-9.42528
ात्मक	-9.42767
र्म	-9.42833
ीश	-9.42899
▁चली	-9.42978
▁भा	-9.43123
ूर	-9.43225
ानी	-9.43382
-20	-9.43609
▁पु	-9.43849
▁कितन	-9.43852
▁पारी	-9.43992
▁अली	-9.43992
छ	-9.44011
n	-9.44142
पन	-9.44156
T	-9.44221
▁सौंप	-9.44234
▁खेत	-9.44344
▁संस्था	-9.44752
गार	-9.44787
▁जय	-9.44822
h	-9.45165
▁रहत	-9.45221
▁स्वयं	-9.45224
▁चुनौती	-9.45227
▁रद्द	-9.45227
▁शीर्ष	-9.45227
▁विजेता	-9.45227
▁आनंद	-9.45227
▁शहीद	-9.45228
▁निर्वाच	-9.45228
▁दबाव	-9.45263
▁मोहम्मद	-9.45269
ानंद	-9.4528
▁मिलेगी	-9.45297
▁डीएम	-9.45314
▁कर्ज	-9.45392
▁मालिक	-9.45403
ृत	-9.45527
▁वैसे	-9.45615
▁ओम	-9.45639
▁टॉप	-9.45694
▁मिलते	-9.46104
स्‍ट	-9.46162
शिप	-9.46176
ाल	-9.46225
वाह	-9.46283
▁देन	-9.46286
सीबीआई	-9.46314
नाक	-9.46504
▁उम्मीदवारों	-9.46725
▁खेती	-9.47042
▁अंक	-9.47212
▁डॉक्टर	-9.47514
जे	-9.47535
l	-9.47554
ुन	-9.47693
▁आरोपिय	-9.4793
▁शुभ	-9.48225
▁शा	-9.48236
▁गाय	-9.48327
करण	-9.48357
▁आधिकार	-9.48675
▁अभिनेत्री	-9.48675
▁ऊर्जा	-9.48675
▁एक्ट्रेस	-9.48675
▁फायदा	-9.48675
▁हफ्त	-9.48675
▁तारीख	-9.48675
▁प्रचार	-9.48676
▁पौधे	-9.48677
▁फरार	-9.48678
▁अनुभव	-9.4868
▁उपाय	-9.48688
▁>	-9.48775
▁गीत	-9.48785
▁निर्धार	-9.48812
ार्मिक	-9.48829
▁सवार	-9.4889
▁भूमि	-9.48939
▁कृष्ण	-9.48946
बर	-9.4899
कलेक्टर	-9.49225
▁मंडी	-9.49232
▁मंजूरी	-9.49331
ल्ड	-9.49349
▁मिलती	-9.49349
▁खतरा	-9.49388
▁दोस्त	-9.4945
▁आवश्यकता	-9.49481
मेश	-9.49484
▁तीसरे	-9.49511
▁घुस	-9.49664
रोजगार	-9.50118
▁तर	-9.50148
▁काट	-9.50155
स्	-9.50162
▁मच	-9.50209
▁|	-9.50319
▁गईं	-9.50334
▁आखिर	-9.50479
दर	-9.50571
▁थोड़	-9.50672
▁नाल	-9.50861
▁कब्ज	-9.50917
▁जे	-9.50922
▁एशिया	-9.50969
▁स्टार	-9.51
▁मिश्र	-9.51281
▁अमेरिक	-9.51286
स्व	-9.51317
▁बतात	-9.51348
मैं	-9.51454
मेल	-9.51531
▁खेले	-9.51535
▁29	-9.51755
▁ख़	-9.51889
ंच	-9.51951
▁पहल	-9.52041
एन	-9.52045
▁प्राथमिक	-9.52096
▁स्पष्ट	-9.52244
▁इंग्ल	-9.52246
▁टक्कर	-9.52246
▁विधेयक	-9.52246
▁कौन	-9.52247
▁कैंसर	-9.52247
▁तुलना	-9.52247
▁अभिनेता	-9.52252
▁मार्केट	-9.52264
▁रिलीज	-9.52271
▁पुष्ट	-9.52279
▁अध्यापक	-9.5228
▁गंगा	-9.5229
जागरण	-9.52303
▁चीनी	-9.52321
▁राज्यपाल	-9.52351
▁युद्ध	-9.52354
▁सामान	-9.52359
▁दोबार	-9.52398
▁फायर	-9.52413
▁इंडियन	-9.52432
▁ऐ	-9.52449
▁अंतर्	-9.52453
▁फिट	-9.52496
▁सुख	-9.52548
▁मोहन	-9.52568
एफ	-9.5267
▁विश्वास	-9.5269
▁रूस	-9.52944
▁खरीदने	-9.53031
▁खाते	-9.53139
कम	-9.53146
▁खाना	-9.5335
▁नै	-9.53381
▁समझा	-9.53524
▁चले	-9.53762
्च	-9.53804
▁पेट	-9.53872
िग	-9.5388
▁नीति	-9.54052
▁70	-9.54052
▁कस	-9.54079
▁विद्यार्थ	-9.54164
▁लाय	-9.54436
िटल	-9.54458
वादी	-9.54646
▁शाय	-9.54707
▁मजदूर	-9.54785
ढ	-9.55054
▁दर्जन	-9.55081
निश्चित	-9.55136
▁लेत	-9.55187
▁कहानी	-9.55359
▁कोर्स	-9.55372
िटी	-9.55483
▁अधीक्षक	-9.5595
▁अपडेट	-9.5595
▁कर्नाटक	-9.5595
▁चेतावनी	-9.5595
▁चेयरमैन	-9.5595
▁ज्ञापन	-9.5595
▁प्रतियोगिता	-9.5595
▁मजबूर	-9.5595
▁विकसित	-9.5595
कैबिनेट	-9.5595
▁उन्‍ह	-9.5595
▁सिन्हा	-9.5595
▁साझा	-9.55951
▁इंस्पेक्टर	-9.55951
▁जायेगा	-9.55955
▁जिन्हे	-9.55956
▁गुजरात	-9.55958
▁व्यवसाय	-9.55969
▁कैंप	-9.55971
▁मुख्यालय	-9.55977
▁संवाद	-9.55986
▁शिकार	-9.55989
यी	-9.55992
▁ठंड	-9.56001
थित	-9.56001
▁क्लास	-9.56006
▁रहेंगे	-9.56033
▁लड़ाई	-9.56041
▁चौथ	-9.56069
▁तस्वीरें	-9.56084
▁देगा	-9.5612
▁फाइनल	-9.5618
▁चाहता	-9.56253
▁खोज	-9.56284
▁रखना	-9.5632
▁मृतक	-9.56324
▁दोष	-9.56337
यन	-9.56461
▁इंटर	-9.56461
गो	-9.5649
▁नकल	-9.56541
ँ	-9.56566
▁पाल	-9.56601
▁N	-9.56624
ोग	-9.56645
▁जिलाधिकार	-9.56699
▁डिग	-9.56753
जर	-9.56834
ूम	-9.57019
▁आकर	-9.57035
▁2.	-9.5711
▁अर्ज	-9.57113
▁मजदूरों	-9.57129
▁पदक	-9.57134
▁डॉक्टरों	-9.57219
▁नेशनल	-9.57245
▁आरोपित	-9.57296
▁एडमि	-9.57419
इन	-9.57481
▁टे	-9.57512
▁जु	-9.57986
ारी	-9.58296
र्ड	-9.58348
▁करवा	-9.58394
▁लंबी	-9.58451
▁वही	-9.58515
▁फल	-9.58521
ात	-9.58562
▁सच	-9.58582
म्प	-9.58629
▁45	-9.58915
वीर	-9.58946
पूर्व	-9.59012
टे	-9.59101
जल	-9.59163
ेन्द्र	-9.59182
▁प्रा	-9.59309
▁संग	-9.5968
▁हाउस	-9.59796
▁ग्रुप	-9.59796
▁तत्काल	-9.59796
▁परिवहन	-9.59796
▁मुफ्त	-9.59796
▁मुस्लिम	-9.59796
▁शब्द	-9.59796
▁तापमान	-9.59796
▁भरोसा	-9.59796
▁ट्रेलर	-9.59797
▁इस्लाम	-9.59797
▁दिक्कत	-9.59798
▁सैन्य	-9.59802
▁प्रशिक्षण	-9.59827
▁श्रमिक	-9.59843
▁जयपुर	-9.59856
▁अनुमान	-9.59875
▁सियास	-9.59882
▁लाइट	-9.59945
▁स्टेट	-9.59953
▁उठाया	-9.59973
▁सहमत	-9.59995
▁उर्फ	-9.6
▁रवान	-9.60004
▁पड़े	-9.60005
▁जंगल	-9.60009
▁वार्ता	-9.60044
▁महिलाएं	-9.60046
वाड़	-9.60105
क्सर	-9.60177
▁रखते	-9.60225
▁रखें	-9.60251
कुल	-9.60348
▁फुट	-9.60471
एच	-9.60569
▁बचाने	-9.60579
▁ग्र	-9.60606
▁सपन	-9.60646
▁कमल	-9.60687
▁गोल	-9.60711
▁लोन	-9.60715
शांत	-9.60722
ाही	-9.60772
▁गेंदबाजी	-9.60816
▁उम	-9.60986
▁दान	-9.61084
पति	-9.61224
▁न्यू	-9.61369
▁ब्ल	-9.61389
▁लगाते	-9.61433
▁अल	-9.61498
▁हवा	-9.61502
▁खाल	-9.61711
यर	-9.61905
पन्न	-9.61911
र्व	-9.62022
वां	-9.62063
▁चोर	-9.62112
▁सारा	-9.62171
▁ताल	-9.6218
er	-9.62356
्टर	-9.62365
वास	-9.62502
जय	-9.62548
जनक	-9.62657
▁चेहर	-9.62789
▁नियुक्ति	-9.62824
▁अनि	-9.62908
ोत	-9.62921
▁जोड़ी	-9.6297
▁उत्पाद	-9.6304
ॉल	-9.63114
▁असल	-9.63423
▁गुरु	-9.63474
ेंस	-9.63495
▁सिद्ध	-9.63555
▁क्रम	-9.63783
रफ्तार	-9.63796
▁लॉन्च	-9.63796
▁शीघ्र	-9.63796
▁एटीएम	-9.63796
▁हिंदू	-9.63797
▁भ्रष्टाचार	-9.63797
▁अतिक्रमण	-9.63798
▁दुष्कर्म	-9.63798
▁वर्ल्ड	-9.63799
▁तहरी	-9.63799
▁दर्शन	-9.63799
▁खारिज	-9.638
▁प्लांट	-9.63814
▁हथियार	-9.63838
▁जानिए	-9.63848
▁सख्त	-9.63859
▁रोहित	-9.63906
▁मा	-9.63925
▁होम	-9.63979
▁किरदार	-9.64025
युक्त	-9.64047
▁कमर	-9.64121
▁प्लान	-9.64188
▁किनार	-9.64283
▁विधि	-9.64345
वाद	-9.64367
▁लो	-9.6437
▁दम	-9.64496
ममता	-9.64513
▁निशान	-9.64548
▁सबक	-9.64568
▁पाई	-9.64747
▁जिम्मेदारी	-9.64873
▁भाषा	-9.6497
▁बॉ	-9.65276
on	-9.65678
▁जैसा	-9.65686
वेयर	-9.65771
ियो	-9.65857
▁लीग	-9.65905
ाइज	-9.65913
▁बोल	-9.66157
▁सोन	-9.66157
िकल	-9.66433
▁बाग	-9.66487
ियन	-9.66872
▁हित	-9.66885
टन	-9.66928
▁कला	-9.66947
▁संचाल	-9.67202
ंगा	-9.67209
▁आस	-9.67355
स्थ	-9.67405
▁सुनी	-9.67538
▁निग	-9.67569
्रा	-9.67793
काल	-9.67895
k	-9.67948
▁प्रोफे	-9.67957
▁निभा	-9.6796
▁दौड़	-9.67963
▁मुकाबला	-9.67963
▁वाराणसी	-9.67963
▁स्टूडेंट	-9.67963
▁स्टेडियम	-9.67963
▁पदाधिकारियों	-9.67963
▁विकल्प	-9.67963
▁जिन्हों	-9.67963
▁ट्रंप	-9.67963
▁पोस्टमार्	-9.67963
▁संकेत	-9.67965
▁सकेंगे	-9.67971
▁टैक्स	-9.67971
▁कैमर	-9.67972
▁खून	-9.67974
▁पदाधिकारी	-9.67981
▁जताई	-9.67992
▁हॉल	-9.67997
▁फर्जी	-9.67999
▁लागत	-9.68015
▁कल्याण	-9.68016
▁वैज्ञानिक	-9.68016
▁परिवर्तन	-9.68016
▁अरविंद	-9.68024
▁संबोधित	-9.68049
▁जापान	-9.68074
▁संगीत	-9.68106
▁आउट	-9.6812
ासन	-9.68146
▁सामग्री	-9.68154
पीठ	-9.68172
▁सफर	-9.68197
▁गति	-9.68239
▁मिलन	-9.68317
▁डीजल	-9.68376
▁पै	-9.68385
▁बुर	-9.68526
▁बताई	-9.68585
▁देखें	-9.68624
▁कोच	-9.68647
▁500	-9.68778
▁मले	-9.68812
▁सर्वे	-9.69185
▁छोटी	-9.69286
▁G	-9.69308
▁बातें	-9.69333
▁ऑफिस	-9.69356
पुरा	-9.69433
ांक	-9.69611
▁पीड़िता	-9.6962
▁रुक	-9.69682
▁पर्या	-9.69723
व्य	-9.69822
पू	-9.69825
an	-9.6991
तंत्र	-9.69953
ंध	-9.70097
▁सै	-9.70266
▁आसानी	-9.70618
▁हल	-9.70932
▁चाहे	-9.71105
वाएं	-9.71249
इय	-9.71266
▁चौकी	-9.71372
▁राजी	-9.71376
M	-9.71433
P	-9.71468
▁32	-9.71473
H	-9.7148
भाषा	-9.71491
कश्मीर	-9.71513
शाल	-9.71528
आइ	-9.7154
▁बल्लेबाजी	-9.71547
▁वीर	-9.71717
▁जुड़	-9.71723
ेक्ट	-9.71877
▁सूच	-9.71885
न्य	-9.71945
▁बुला	-9.72221
▁ओपन	-9.72224
▁उन्ह	-9.72239
ैनिक	-9.72253
▁दुर्घटना	-9.72311
▁भुगतान	-9.72311
▁हिमाचल	-9.72311
▁हिसाब	-9.72311
▁कॉलोनी	-9.72311
▁धमकी	-9.72311
▁सक्रिय	-9.72311
▁सिस्टम	-9.72311
▁सिविल	-9.72311
▁कोरिया	-9.72313
्त	-9.72314
▁ज्ञान	-9.72314
▁‘‘	-9.72319
▁मध्यप्रदेश	-9.7232
▁बिक्री	-9.72321
▁इंदौर	-9.72322
▁धर	-9.72326
▁चावल	-9.72327
▁प्रावधान	-9.72329
▁प्रयोग	-9.72345
▁जैन	-9.72349
▁लिस्ट	-9.7235
▁बेहतरी	-9.72351
ाणु	-9.72359
▁पदार्थ	-9.72361
▁जब्त	-9.72387
▁बिल्क	-9.7239
▁प्रसार	-9.72408
त्व	-9.72416
ेस्ट	-9.72426
िट्टी	-9.7244
▁प्रताप	-9.72475
▁हिंसा	-9.72486
झ	-9.72489
▁अंदाज	-9.72512
▁पंच	-9.72565
22	-9.72641
▁ट्वि	-9.72648
▁सेक्टर	-9.7268
▁रोल	-9.72687
पेट	-9.72748
वत	-9.72768
ेलन	-9.72813
▁महंगा	-9.72892
▁सिटी	-9.72899
▁जोशी	-9.72909
▁प्रत्याशी	-9.73305
▁माने	-9.73349
▁नियुक्त	-9.73398
▁कॉल	-9.73402
▁निशाना	-9.7341
▁खंड	-9.73722
रू	-9.73759
N	-9.73845
▁फंस	-9.7388
लू	-9.73902
पे	-9.73903
लोक	-9.73921
c	-9.74155
▁आंकड़े	-9.74233
▁दूरी	-9.74238
▁जुड़ी	-9.74295
त्त	-9.74322
)।	-9.74362
ुआ	-9.74713
▁बह	-9.75146
आईपीएल	-9.75428
▁य	-9.75548
▁बिगड़	-9.75726
गांव	-9.75941
▁जि	-9.75965
▁अस	-9.76002
▁अपर	-9.76101
▁200	-9.76111
प्रकाश	-9.7612
40	-9.76196
ऊ	-9.76298
▁Rea	-9.7638
ष्ट	-9.76393
▁प्रवास	-9.76605
▁पर्यट	-9.76662
नजर	-9.76679
▁स्वर्ण	-9.76856
%	-9.76856
▁उल्लंघन	-9.76856
▁उल्लेख	-9.76856
▁खूबसूरत	-9.76856
▁चंडीगढ़	-9.76856
▁जस्टिस	-9.76856
▁पर्यावरण	-9.76856
▁प्रश्न	-9.76856
▁रिजर्व	-9.76856
▁लक्ष्मी	-9.76856
▁मारपीट	-9.76857
▁मोर्च	-9.76857
▁उपाध्यक्ष	-9.76857
▁उत्साह	-9.76857
▁यूनियन	-9.76858
▁निर्माता	-9.76861
▁अखिलेश	-9.76868
▁उतार	-9.7687
▁नवीन	-9.76879
▁विस्तार	-9.76883
▁जितन	-9.76883
▁गोल्ड	-9.7689
▁कलाकार	-9.76893
▁प्रस्तुत	-9.76896
▁नामांकन	-9.76899
▁ऑपरे	-9.76902
▁विवाह	-9.76903
▁संस्कार	-9.7691
▁शेर	-9.76919
▁हस्त	-9.76924
▁निदेशक	-9.76956
▁मनाया	-9.76961
▁शुक्ला	-9.76971
▁गेट	-9.77008
▁व्यवहार	-9.77027
एक	-9.77082
▁विल	-9.77097
▁सदन	-9.77107
▁शुल्क	-9.77141
▁चलाया	-9.77143
▁हिस्से	-9.77144
▁पैसा	-9.77176
▁ईरान	-9.77182
स्टिक	-9.77251
▁जयंती	-9.77314
▁कब	-9.77338
तः	-9.77357
▁सम्मानित	-9.77361
▁केरल	-9.77481
लो	-9.77542
द्र	-9.77597
ासत	-9.77608
चना	-9.77643
देश	-9.77809
▁खाद	-9.77835
स्तर	-9.77951
▁P	-9.7796
नीय	-9.78008
मु	-9.78088
▁खतरे	-9.78175
th	-9.78213
or	-9.78266
▁मीटर	-9.78347
▁चार्ट	-9.78386
▁दोस्तों	-9.78401
कृति	-9.78551
▁हे	-9.78643
▁निकले	-9.78662
▁रहीं	-9.78731
अप	-9.78733
▁जुड़ा	-9.78766
▁क्रिकेटर	-9.78967
▁पढ़े	-9.79134
▁आखिरी	-9.79163
▁डो	-9.79273
▁खतर	-9.79353
धा	-9.79822
▁संपत्ति	-9.79862
▁अरब	-9.80016
80	-9.80104
▁क्ल	-9.80121
▁90	-9.80196
▁डाला	-9.8025
▁...	-9.80357
द्दे	-9.80439
▁गार्ड	-9.80456
ालय	-9.80546
रु	-9.80552
कू	-9.80701
ड़े	-9.80869
27	-9.80932
मती	-9.81161
▁फीस	-9.81227
स्थल	-9.81238
ियत	-9.81447
मैन	-9.8149
f	-9.81618
▁अध्ययन	-9.81618
▁उपभोक्ता	-9.81618
▁औद्योगिक	-9.81618
▁गेहूं	-9.81618
▁ग्राहक	-9.81618
▁टूर्नामेंट	-9.81618
▁प्रसिद्ध	-9.81618
▁लापरवाह	-9.81618
▁शाहरुख	-9.81618
▁हंगामा	-9.81618
▁परंपरा	-9.81618
▁परीक्षण	-9.81618
▁प्रियंका	-9.81618
▁डेस्क	-9.81618
▁संभाल	-9.81619
▁मानसिक	-9.81619
▁शर्त	-9.81623
▁रेफर	-9.81623
▁तनाव	-9.81624
▁फूल	-9.81625
▁जमानत	-9.81628
▁दूध	-9.81632
▁2014	-9.81632
▁फेंक	-9.81633
▁मशीन	-9.81635
▁आकर्ष	-9.81636
▁2016	-9.81642
▁वनडे	-9.81649
▁किताब	-9.81651
▁बहु	-9.8166
▁स्वामी	-9.81662
▁मनीष	-9.81662
हूर	-9.81666
▁शूटिंग	-9.81666
▁कालेज	-9.81675
▁कार्यकाल	-9.8168
▁साढ़	-9.81705
▁दायर	-9.81723
ुद्ध	-9.81731
▁D	-9.81749
▁पुलिसकर्म	-9.81758
▁आयु	-9.81759
▁आयुक्त	-9.81794
▁बैग	-9.81794
डियो	-9.8184
”	-9.81854
▁पालिका	-9.81869
▁आएगी	-9.81871
▁बजाय	-9.81909
▁अहमद	-9.81926
▁दिनेश	-9.81927
▁अंकित	-9.81961
▁विर	-9.81976
नो	-9.81982
▁वायु	-9.82016
▁शास	-9.82031
▁गंद	-9.82177
▁चार्ज	-9.82196
▁जाम	-9.82257
रेशन	-9.82399
ed	-9.8251
▁सकें	-9.82633
तिन	-9.82692
यां	-9.82728
▁पोर्ट	-9.82918
▁सोना	-9.83176
▁उद्	-9.83334
▁फैला	-9.83447
▁टिक	-9.83686
w	-9.83871
▁कार्यकार	-9.83999
▁बोला	-9.84053
धान	-9.84123
st	-9.8421
लिया	-9.84254
▁टन	-9.84314
धार	-9.84511
नु	-9.84552
िक्स	-9.84662
▁खड़ा	-9.84685
▁यूजर	-9.84721
▁मि	-9.84762
▁बोले	-9.84768
▁4.	-9.8477
पास	-9.8503
10	-9.85086
तक	-9.8516
ंडा	-9.85388
▁पुरुष	-9.85443
F	-9.85593
▁असम	-9.85764
सिंह	-9.85826
सूचना	-9.85849
मित	-9.85873
▁पट	-9.85882
▁कर्म	-9.86011
▁प्ला	-9.86091
▁इनका	-9.86303
b	-9.86384
ध्यक्ष	-9.86512
द्ध	-9.86593
▁Home	-9.86618
▁अधिनियम	-9.86618
▁अर्थव्यवस्था	-9.86618
▁केजरीवाल	-9.86618
▁दिल्‍ली	-9.86618
▁बढ़ोतरी	-9.86618
▁मैसेज	-9.86618
▁अरुण	-9.86618
▁निर्यात	-9.86618
▁मेहनत	-9.86619
▁मुंह	-9.86619
▁सब्जी	-9.86619
▁विक्रम	-9.86619
▁ताकत	-9.86621
▁स्वीकार	-9.86624
▁स्टाफ	-9.86632
▁एंटी	-9.86635
▁बांध	-9.86635
▁आपूर्ति	-9.86643
▁धोनी	-9.86644
▁बनर्जी	-9.86645
▁मिशन	-9.8665
▁स्वीकृत	-9.8668
▁बांट	-9.86692
िस्ट	-9.86705
▁लेंगे	-9.86715
▁मॉडल	-9.86725
▁सीओ	-9.86726
▁हंस	-9.86746
▁आएगा	-9.86753
▁हेम	-9.86755
▁विज्ञान	-9.86765
▁जिंदगी	-9.8678
▁गोपाल	-9.86796
▁पायल	-9.86834
▁पहुंचाया	-9.86839
▁चांद	-9.86844
पो	-9.86852
▁निरीक्षक	-9.86891
र्ट	-9.86901
▁डिस्	-9.86907
▁करवाया	-9.86977
िरा	-9.87062
▁व्य	-9.87073
▁सुर	-9.873
▁समर्थक	-9.87322
▁वेस्ट	-9.8733
▁अंग	-9.87351
▁L	-9.87352
▁सीज	-9.87367
▁एकत्र	-9.87473
दि	-9.87512
▁मांगी	-9.87531
25	-9.87548
▁नो	-9.8759
▁आईसी	-9.87601
▁टोल	-9.87717
▁माय	-9.87872
▁पो	-9.87884
▁तकनीकी	-9.87927
नेस	-9.87967
▁R	-9.88039
प्प	-9.88167
▁पीट	-9.88349
▁मी	-9.88483
्ले	-9.88485
म्	-9.88524
वंत	-9.88815
गणना	-9.89006
क्क	-9.89171
पार	-9.89245
शा	-9.89257
▁रहें	-9.89268
▁चाल	-9.89287
ीकरण	-9.89361
▁गु	-9.89436
▁सोने	-9.89509
▁रू	-9.89614
▁33	-9.89668
▁सुना	-9.89775
पुरी	-9.89862
▁रोशन	-9.9011
▁लु	-9.90197
ोन	-9.90253
▁जानकार	-9.90317
▁छा	-9.90421
▁आइ	-9.90467
ज्ज	-9.90477
ैक्ट	-9.90516
शंकर	-9.91062
▁प्रतिभा	-9.91142
ूट	-9.91216
रेन	-9.91348
▁संस्थान	-9.91437
▁बचत	-9.91461
▁बेड	-9.91723
▁गिरफ्तारी	-9.91736
▁भक्त	-9.91783
्यादा	-9.91874
▁गुजर	-9.91879
▁इंटरव्यू	-9.91881
▁उद्देश्य	-9.91881
▁डाउनलोड	-9.91881
▁नोएडा	-9.91881
▁मुकदमा	-9.91881
▁वारदात	-9.91881
▁सीसीटीवी	-9.91881
▁इंडस्ट्री	-9.91881
▁चक्कर	-9.91881
▁व्यापक	-9.91883
▁समीप	-9.91884
▁सैंपल	-9.91885
▁हेतु	-9.91885
▁एसडीएम	-9.91886
▁कामकाज	-9.91886
▁दावेदार	-9.91895
▁अभ्य	-9.91902
कारी	-9.91905
▁अयोध्	-9.9191
▁पाएंगे	-9.91911
▁ट्रेड	-9.91914
▁श्याम	-9.91927
▁पड़ेगा	-9.91942
▁आरएस	-9.91948
▁संतोष	-9.91958
▁क्लब	-9.91959
▁सरदार	-9.92021
▁विनो	-9.92036
▁ठ	-9.92042
▁2015	-9.92048
▁गुम	-9.92079
मिन	-9.92186
▁J	-9.92198
▁चाय	-9.92228
▁इच्छा	-9.92287
▁सका	-9.92347
▁आये	-9.92349
▁सर्च	-9.9245
▁गुर	-9.9261
डिया	-9.92612
▁तिथि	-9.92626
कीय	-9.92655
▁लुक	-9.92733
▁बादल	-9.92801
▁हजारों	-9.92807
23	-9.9283
▁in	-9.93105
▁पुरुषों	-9.93203
▁ड्राइवर	-9.93388
▁किशोरी	-9.93392
▁फी	-9.93411
जोर	-9.93461
▁सोल	-9.93512
▁अदा	-9.93545
▁अन्न	-9.93583
▁चढ़	-9.93748
▁जुटा	-9.93767
▁कं	-9.93851
▁रेड	-9.9403
▁सीख	-9.94119
▁आना	-9.94146
▁इंद	-9.94172
▁मुद्दा	-9.94264
▁नागरिकों	-9.94306
सन	-9.94332
ंगू	-9.94405
कोट	-9.94455
▁80	-9.94471
▁उड़	-9.94634
-1	-9.94637
चल	-9.94707
▁मर	-9.94891
▁विन	-9.9502
▁पड़ी	-9.95068
▁मतदाता	-9.95121
18	-9.95234
ेटिव	-9.95427
क्षय	-9.95636
▁मचा	-9.95776
▁नील	-9.95824
नाम	-9.95829
▁प्रिय	-9.95878
्टी	-9.96173
▁जर	-9.96206
▁तीसर	-9.9633
▁यात	-9.96354
▁मै	-9.96359
ar	-9.96363
वर्त	-9.96427
L	-9.96464
▁अधि	-9.96479
W	-9.96613
खला	-9.96743
पत्र	-9.96811
▁छत	-9.96834
धी	-9.97029
काश	-9.97107
▁राजस्	-9.97279
▁पांडे	-9.97365
▁M	-9.97426
▁गर्भ	-9.97435
▁आक्रोश	-9.97437
▁2013	-9.97437
▁आशंका	-9.97437
▁क्राइम	-9.97437
▁तालिबान	-9.97437
▁दिग्गज	-9.97437
▁निरीक्षण	-9.97437
▁न्यायाधीश	-9.97437
▁मुसलमान	-9.97437
▁पिटाई	-9.97437
▁प्राधिकर	-9.97446
▁2012	-9.9745
▁सुंदर	-9.97451
ing	-9.97455
▁सुशील	-9.97462
▁मस्जिद	-9.97463
▁मदन	-9.97469
▁नकद	-9.97471
ोषण	-9.97481
▁तत्व	-9.97496
▁स्मार्टफोन	-9.975
▁ओपी	-9.97508
िमंडल	-9.97521
ंतु	-9.97545
▁डांस	-9.97551
▁सुझाव	-9.97555
▁युवत	-9.97555
ायात	-9.9757
▁टाइम	-9.97596
▁राजेश	-9.97619
▁बद	-9.97627
▁शेख	-9.97653
टिंग	-9.97659
▁दत्त	-9.97707
▁गैर	-9.97734
ाभ	-9.97753
▁इंस्टा	-9.97771
निक	-9.97785
▁राह	-9.97871
▁हु	-9.9788
▁मानते	-9.97882
▁नाक	-9.97925
▁C	-9.9797
▁सेवाओं	-9.97978
▁हटान	-9.98039
ग्र	-9.9805
▁चाहती	-9.98157
▁लेख	-9.98173
▁गन्न	-9.98397
▁नर	-9.98543
▁निश्चित	-9.98703
▁सौर	-9.98731
ँच	-9.98741
▁साव	-9.98794
सून	-9.98834
जो	-9.98875
▁रहेगी	-9.99156
▁I	-9.99201
▁खेला	-9.99551
▁कब्जा	-9.99633
▁पोल	-9.99686
▁फ्र	-9.99724
वाली	-9.9977
्यूट	-9.99858
ाउंड	-10.0006
▁खे	-10.0026
्व	-10.0029
▁रेट	-10.0056
▁बम	-10.0062
▁छोट	-10.0068
तिथि	-10.007
घर	-10.0099
▁धीरे	-10.0116
▁बै	-10.0117
हन	-10.012
▁अर्	-10.0134
▁अं	-10.0138
र्ग	-10.0141
▁दिलान	-10.0146
▁स्टोर	-10.0149
़ा	-10.0157
▁दू	-10.0163
70	-10.0166
▁मांगा	-10.0187
विक	-10.0192
▁सहयोगी	-10.02
▁कराए	-10.0217
▁गान	-10.0225
ेटर	-10.0226
ॅ	-10.0238
▁सम्	-10.0238
पिता	-10.0249
पक्ष	-10.0257
कश	-10.0265
▁झा	-10.0276
सद	-10.0279
यल	-10.028
खा	-10.0288
▁परिजन	-10.0315
▁जागरूक	-10.0315
▁बेल	-10.0318
▁निर्	-10.0327
▁बच्‍च	-10.0332
▁अनिवार्य	-10.0332
▁ओडिशा	-10.0332
▁ग्वालियर	-10.0332
▁नजदीक	-10.0332
▁फैंस	-10.0332
▁माहौल	-10.0332
▁मृत्यु	-10.0332
▁शौचालय	-10.0332
▁श्रीलंका	-10.0332
▁श्रीवास्तव	-10.0332
▁संघर्ष	-10.0332
▁संसाधन	-10.0332
▁हड़ताल	-10.0332
▁बधाई	-10.0332
▁महागठ	-10.0332
▁प्लस	-10.0332
▁श्रेण	-10.0332
▁पूंजी	-10.0332
▁रसोई	-10.0332
▁शुरु	-10.0332
▁रणवीर	-10.0332
▁दुबे	-10.0332
▁स्वच्छ	-10.0332
▁मिर्च	-10.0332
▁बॉर्डर	-10.0332
▁सिलेंडर	-10.0332
▁शाखा	-10.0333
▁गौतम	-10.0333
▁स्कोर	-10.0333
▁सच्च	-10.0333
▁निधन	-10.0333
▁स्वतंत्र	-10.0334
▁स्वस्थ	-10.0334
▁मिमी	-10.0334
▁सुरेश	-10.0334
▁नशे	-10.0335
▁कुश	-10.0335
ूषण	-10.0336
▁उपकरण	-10.0337
▁दुख	-10.0337
▁फोर्स	-10.0338
▁संपन्न	-10.0338
▁अंजा	-10.0338
▁चेन्नई	-10.0339
▁लड़किय	-10.0341
▁प्रकरण	-10.0343
▁बीबी	-10.0344
▁अर्थ	-10.0346
▁उधर	-10.0347
▁स्नान	-10.0347
▁ठो	-10.0347
▁पावर	-10.0352
▁PM	-10.0355
▁रूम	-10.0356
▁कविता	-10.0363
sh	-10.0365
▁छवि	-10.037
▁आगरा	-10.0372
वेज	-10.0378
▁सागर	-10.0381
▁करवाई	-10.0394
▁महज	-10.0394
▁महंग	-10.0396
फिक	-10.0401
▁खुला	-10.0401
▁संचालन	-10.0405
▁सदर	-10.0408
▁बु	-10.0414
92	-10.0418
▁उठाए	-10.0418
ताओं	-10.0419
▁''	-10.0421
▁मास	-10.0423
▁बचे	-10.0428
▁आकार	-10.0432
▁K	-10.0438
िजन	-10.0453
र्थ	-10.0466
▁आजादी	-10.0469
▁धान	-10.0474
▁एक्टर	-10.0482
▁साह	-10.0486
▁शर	-10.049
▁चंद	-10.05
क़	-10.05
▁दास	-10.05
45	-10.0502
गल	-10.051
ंबर	-10.0512
▁कहां	-10.0514
▁टीका	-10.0516
▁रुप	-10.0543
▁जाति	-10.0544
▁गरीबों	-10.0552
ांश	-10.0555
▁ब्र	-10.0556
▁डाय	-10.0571
▁हट	-10.0584
▁जानने	-10.0584
▁गाने	-10.0598
▁कितने	-10.0599
फान	-10.0602
▁दि	-10.0619
प्ले	-10.062
▁अक्ष	-10.0626
▁बुक	-10.0658
▁करार	-10.0709
।”	-10.0713
▁जानें	-10.0722
।’	-10.0746
▁बदले	-10.075
30	-10.075
ब्ब	-10.0759
▁पुर	-10.0761
so	-10.0777
म्बर	-10.078
▁संस्कृति	-10.0787
▁किशोर	-10.0788
लेक्शन	-10.0788
बीन	-10.0802
▁फि	-10.0804
▁गण	-10.0805
ाऊ	-10.0814
▁सिलसिल	-10.0817
शान	-10.0839
फ्ट	-10.0862
▁बिग	-10.0866
▁सत्य	-10.0869
▁जग	-10.0877
▁पाक	-10.0886
बाजार	-10.0887
▁लव	-10.0891
▁घूम	-10.0894
▁मृत	-10.0909
राह	-10.0917
मूह	-10.0935
▁जित	-10.0941
▁बीमार	-10.0946
यु	-10.0946
▁आइए	-10.0956
▁शख्स	-10.0956
;	-10.0957
▁News	-10.0957
▁उदाहरण	-10.0957
▁पार्षद	-10.0957
▁प्रोत्साह	-10.0957
▁बिलासपुर	-10.0957
▁बुजुर्ग	-10.0957
▁मेट्रो	-10.0957
▁मोटरसाइकिल	-10.0957
▁रिजल्ट	-10.0957
▁शारीरिक	-10.0957
▁गैंग	-10.0957
▁स्क्रीन	-10.0957
▁हैदराबाद	-10.0957
▁ऐलान	-10.0957
▁रांची	-10.0957
▁प्रतिदिन	-10.0957
▁मुखिया	-10.0957
▁यूनिवर्सिटी	-10.0957
▁कंप्यूटर	-10.0957
▁चैनल	-10.0957
▁दशक	-10.0957
▁हॉक	-10.0957
▁श्रद्धालु	-10.0957
▁इमरान	-10.0957
▁बराबर	-10.0957
▁मल्टी	-10.0957
▁ठिकान	-10.0958
▁ब्रांच	-10.0958
▁स्प	-10.0958
▁सेकेंड	-10.0958
▁वैश्	-10.0958
▁2011	-10.0959
▁विष्णु	-10.0959
▁एसएसपी	-10.0959
▁लंदन	-10.0959
▁एक्शन	-10.096
▁शिफ्ट	-10.096
▁सराहन	-10.0961
▁चम	-10.0962
▁जिक्र	-10.0962
▁सकेगा	-10.0964
▁वेतन	-10.0964
▁प्रोजेक्ट	-10.0965
▁प्रिंस	-10.0965
▁समर्प	-10.0965
▁वैक्सीनेशन	-10.0966
▁टेली	-10.0966
▁दस्त	-10.0967
▁बैनर	-10.0967
▁डोज	-10.0969
न्ह	-10.0972
▁टैग	-10.0972
▁छीन	-10.0974
▁रूपये	-10.0974
▁प्रतिबंध	-10.0975
▁मेरठ	-10.0975
▁कैश	-10.0976
▁आशा	-10.0977
▁गुना	-10.0978
▁नाराज	-10.0978
▁सुपर	-10.0993
▁ट्रै	-10.0996
▁पंप	-10.1002
▁छाप	-10.1009
▁यंत्र	-10.1013
▁फॉर्म	-10.1019
वाले	-10.1028
ियम	-10.1031
▁पूछ	-10.1037
▁होंगी	-10.1049
▁पूछा	-10.1055
▁ताज	-10.1055
▁भय	-10.1065
▁साइन	-10.1077
मण	-10.1078
▁खात	-10.1084
▁दौरा	-10.1085
।’’	-10.1087
▁गुण	-10.1095
ग्रस्त	-10.1096
▁तट	-10.1098
77	-10.1101
16	-10.1103
डू	-10.1105
▁दलित	-10.1116
▁सकी	-10.1117
टो	-10.1134
▁आईटी	-10.1135
▁समान	-10.1135
96	-10.1137
▁चुना	-10.1139
▁आईं	-10.114
पूर	-10.1153
▁वेल	-10.1159
एसटीए	-10.1166
▁क्व	-10.1169
ाद	-10.117
न्स	-10.1172
▁ब्रेक	-10.1175
▁51	-10.1188
▁आपस	-10.1189
ाड़ी	-10.119
▁लोगो	-10.1195
▁लि	-10.1196
▁सिम	-10.1196
गे	-10.1203
▁आश्व	-10.121
▁घु	-10.1211
19	-10.1218
▁नेपाल	-10.1219
▁स्ट्र	-10.1222
▁डेट	-10.1223
▁हवाल	-10.1245
▁मारा	-10.1251
▁ठे	-10.1266
धन	-10.128
ैग	-10.1281
▁शक	-10.1287
ंडर	-10.1295
निया	-10.1299
किन	-10.1314
61	-10.132
▁ऑफर	-10.133
बारी	-10.1355
▁पल	-10.1385
▁घंट	-10.1392
बे	-10.1409
▁गेंदबाज	-10.1444
▁जिम्मेदार	-10.1447
▁खुले	-10.1452
▁जड़	-10.1466
▁इनाम	-10.1469
▁बीमारिय	-10.147
चन	-10.1477
▁पिछल	-10.1481
▁दिवा	-10.1498
▁दु	-10.15
ज्ञ	-10.1507
▁फा	-10.151
▁रु	-10.1522
▁फार्म	-10.1531
O	-10.1536
▁शर्म	-10.1537
▁लहर	-10.1541
फोन	-10.155
▁नाग	-10.1559
शील	-10.1563
▁42	-10.1568
ैन	-10.157
ौली	-10.158
मेट	-10.1586
मार	-10.1589
साइड	-10.1589
वाई	-10.1606
▁वस्तु	-10.161
दु	-10.1611
ाइड	-10.1614
ट्ट	-10.1617
▁प्रतीक	-10.1621
▁भरा	-10.1622
▁स्मार्ट	-10.1623
▁प्रमाण	-10.1623
▁इंतजाम	-10.1624
▁औसत	-10.1624
▁कौश	-10.1624
▁त्योहार	-10.1624
▁मुआवज	-10.1624
▁संरक्षण	-10.1624
▁समझौत	-10.1624
▁स्थिर	-10.1624
▁गूगल	-10.1624
▁जूझ	-10.1624
▁ब्लॉक	-10.1624
▁लक्षण	-10.1624
▁संकल्प	-10.1624
▁संज्ञान	-10.1624
▁स्पेशल	-10.1624
▁तिमाह	-10.1624
▁प्रगति	-10.1624
▁खींच	-10.1624
▁टाटा	-10.1624
▁लिंक	-10.1624
▁पशु	-10.1624
▁महोत्सव	-10.1624
com	-10.1624
▁ब्रिट	-10.1624
▁दीपावली	-10.1624
▁इजाज	-10.1624
▁नेहरू	-10.1624
▁अभ्यर्थ	-10.1624
▁धनबाद	-10.1624
ियस	-10.1625
▁इंसान	-10.1625
▁डूब	-10.1625
▁आर्मी	-10.1625
▁ईश्वर	-10.1625
▁मिठा	-10.1625
▁निकाय	-10.1625
▁राजपूत	-10.1625
प्रभु	-10.1626
▁गणेश	-10.1626
▁ब्रांड	-10.1626
▁अधिवक्ता	-10.1627
▁देहरादून	-10.1627
▁दिये	-10.1627
▁बांग्लादेश	-10.1627
▁जताया	-10.1627
▁नियंत्रण	-10.1627
▁ग्रहण	-10.1627
▁कमलनाथ	-10.1627
ाक्षर	-10.1628
मिट	-10.1628
▁मसल	-10.163
▁बॉक्स	-10.1631
▁सलाहकार	-10.1631
▁दुर्	-10.1631
▁राशन	-10.1633
▁दुकानदार	-10.1634
▁बुलाया	-10.1634
▁हादसा	-10.1634
▁डीलर	-10.1635
▁रोहता	-10.1636
▁उड़ा	-10.1636
▁पृष्ठ	-10.1638
▁अंग्रेज	-10.1638
▁अतिथि	-10.1639
▁संशोधन	-10.1639
▁ऐप	-10.164
न्द	-10.164
▁सांस	-10.164
ैर	-10.1641
▁टकरा	-10.1641
▁अल्	-10.1641
▁डायरेक्टर	-10.1643
▁बहाल	-10.1645
▁निपटने	-10.1648
▁बहस	-10.1649
▁सुनाई	-10.1649
न्द्र	-10.1653
▁Al	-10.1654
▁बहादुर	-10.1655
▁श्रीनगर	-10.1656
ैत	-10.1657
कॉम	-10.166
▁बीज	-10.1665
▁छिप	-10.1667
्‍या	-10.1667
▁आधा	-10.1675
▁पाय	-10.1684
▁सावधानी	-10.1692
▁F	-10.1706
▁बाई	-10.1726
▁शंकर	-10.173
▁अनुपम	-10.1733
▁H	-10.1734
▁चढ़ा	-10.1735
▁कपड़े	-10.1736
▁हर्ष	-10.1737
.5	-10.1747
▁जंग	-10.1761
▁बजा	-10.177
हाँ	-10.1786
▁हवाला	-10.1787
▁T	-10.1789
▁गुस्सा	-10.1803
एंगे	-10.1808
▁ताला	-10.1827
पीसी	-10.183
▁अनुस	-10.1833
ूबर	-10.1842
....	-10.1843
ंगना	-10.1846
शाला	-10.1851
▁Ma	-10.1851
टने	-10.1861
न्त	-10.187
तह	-10.1873
एसपी	-10.1903
▁टॉ	-10.1906
जू	-10.1917
ण्ड	-10.1925
▁निकाली	-10.1935
क्षेप	-10.1958
▁विद्यार्थी	-10.1959
▁अथ	-10.1963
छा	-10.1969
रस	-10.197
ुरी	-10.1986
ड्ड	-10.1998
ॉप	-10.2002
रूप	-10.2002
05	-10.2007
▁बेटा	-10.2008
▁परम	-10.2019
▁टो	-10.2024
▁/	-10.2031
▁घेर	-10.2037
▁पकड़ा	-10.2038
▁नाथ	-10.2061
▁गल	-10.2063
वासियों	-10.2063
िहार	-10.2072
49	-10.2083
▁52	-10.2086
योग	-10.2091
रीब	-10.2094
▁लेता	-10.2106
ाराम	-10.2113
ल्ला	-10.2135
▁टै	-10.2152
▁पक्षों	-10.216
▁तकनीक	-10.2175
▁गत	-10.2186
▁निकाला	-10.2191
ाली	-10.2192
ल्स	-10.2197
▁रचना	-10.2213
कर्मी	-10.2215
ुम	-10.2238
▁लीक	-10.2238
ुओं	-10.2244
श्त	-10.2248
▁आरटी	-10.225
ch	-10.2252
काउंटर	-10.2252
भारत	-10.2253
मूर्ति	-10.2255
मुझ	-10.2259
मार्ग	-10.2262
▁चाक	-10.2263
चार्ज	-10.227
▁हैरान	-10.2271
▁कन्	-10.2282
▁)	-10.2282
ध्या	-10.2294
▁एड	-10.2297
ol	-10.2317
▁तार	-10.2324
▁जिसमे	-10.2326
▁गेम	-10.2329
र्ज	-10.2331
▁माइक	-10.2334
पद	-10.2335
▁सिनेमा	-10.2337
ॉन्ग	-10.2338
०	-10.2338
▁कटौ	-10.2338
▁आयुर्वेद	-10.2338
▁पहुँच	-10.2338
▁आत्महत्या	-10.2338
▁इलाहाबाद	-10.2338
▁दिलचस्प	-10.2338
▁निरंतर	-10.2338
▁मौल	-10.2338
▁रणनीति	-10.2338
▁रिकार्ड	-10.2338
▁श्रद्धांजलि	-10.2338
▁संदिग्ध	-10.2338
▁सब्सिडी	-10.2338
▁प्रतिक्रिया	-10.2338
▁ड्यूटी	-10.2338
▁जोधपुर	-10.2338
▁इकाई	-10.2338
▁उपायुक्त	-10.2338
▁कनेक्शन	-10.2338
▁मान्यता	-10.2338
▁कस्ब	-10.2338
▁कार्यवाही	-10.2338
▁महानिदेशक	-10.2338
▁फूड	-10.2338
▁जरिये	-10.2338
▁मानवाधिकार	-10.2338
▁हेल्थ	-10.2338
▁समाधान	-10.2338
▁ट्रॉफी	-10.2339
▁स्कूट	-10.2339
▁सप्लाई	-10.2339
▁अलर्ट	-10.2339
▁अहमदाबाद	-10.2339
▁कामयाब	-10.2339
▁लोकप्रिय	-10.2339
▁रिश्तेदार	-10.234
▁अत्य	-10.234
▁एजेंसिय	-10.234
▁गंवा	-10.234
▁पूजन	-10.234
▁महात्म	-10.234
▁बरसात	-10.234
▁अलीगढ़	-10.234
37	-10.2341
▁लाइफ	-10.2341
▁प्रोग्राम	-10.2341
▁नाराजगी	-10.2342
▁अमल	-10.2342
▁धूम	-10.2342
▁रुख	-10.2342
▁जबलपुर	-10.2342
▁प्रारंभ	-10.2343
▁समक्ष	-10.2343
▁तारीफ	-10.2343
▁तुम	-10.2343
▁रजिस्ट्र	-10.2343
▁2022	-10.2343
▁प्रेर	-10.2344
▁छठ	-10.2345
▁कन्या	-10.2345
▁डेढ़	-10.2345
▁चित्र	-10.2345
▁संविधान	-10.2346
▁नारे	-10.2346
▁लिखे	-10.2346
▁तर्क	-10.2346
▁लिमिटेड	-10.2347
▁त्याग	-10.2347
▁यश	-10.2348
▁विवेक	-10.2349
▁अंडर	-10.2351
▁मनाली	-10.2352
▁बसपा	-10.2352
▁उत्तरी	-10.2353
▁बहू	-10.2353
▁गहन	-10.2355
▁सोनू	-10.2355
▁मिड	-10.2355
▁टाल	-10.2359
▁शेष	-10.236
▁राजेंद्र	-10.2361
▁अकाल	-10.2361
▁कचर	-10.2363
▁इस्तीफा	-10.2365
▁स्क	-10.2365
▁पवन	-10.2367
▁फंड	-10.2369
▁शोध	-10.237
▁सचि	-10.2379
▁रवि	-10.238
▁टू	-10.2383
▁पंत	-10.2386
▁जायज	-10.2388
वती	-10.2393
▁मरने	-10.2398
▁अमन	-10.24
▁V	-10.2402
▁हरि	-10.2408
िव	-10.2409
▁01	-10.241
▁नहर	-10.2417
▁संयोज	-10.2417
▁गिरि	-10.2417
▁हि	-10.2418
▁व्यापारी	-10.2419
▁एक्ट	-10.2431
▁खुफ	-10.2436
▁बाज	-10.2437
▁W	-10.2445
▁विशेषज्ञों	-10.2449
▁समा	-10.245
पीएफ	-10.245
▁डेटा	-10.246
▁”	-10.2462
▁दाल	-10.2472
पु	-10.2473
राग	-10.2477
▁फिल	-10.2481
ाइन	-10.2487
र्डर	-10.2493
्ली	-10.2495
▁जलकर	-10.2497
99	-10.2505
िज	-10.2511
▁इन्ही	-10.2525
▁चिन्ह	-10.2525
▁कहर	-10.2533
▁अड्ड	-10.2537
▁ब्रा	-10.2541
जान	-10.2541
15	-10.2544
▁बाबर	-10.255
."	-10.2558
बीर	-10.2577
यह	-10.2578
▁रोशनी	-10.2589
▁बैट	-10.2628
कृत	-10.2632
भाव	-10.2634
ूक	-10.2634
लिव	-10.2635
ल्ल	-10.2646
▁बेन	-10.2656
हान	-10.2658
्यू	-10.2666
दो	-10.2672
▁भरी	-10.2677
बाल	-10.2677
▁पैक	-10.2685
▁तल	-10.27
▁ऋ	-10.2708
र्क	-10.2729
्ज़	-10.2731
धाम	-10.2732
‍ि	-10.2743
ॉय	-10.2751
▁लड़क	-10.2765
▁कायम	-10.2769
हरा	-10.2769
नाज	-10.2787
▁मधु	-10.2792
▁खर	-10.2792
▁रेप	-10.2804
लिए	-10.2811
ैप	-10.2821
केट	-10.2827
▁बिक	-10.2845
ाश	-10.2854
▁पू	-10.2857
▁उड़ान	-10.2873
रूम	-10.2891
डर	-10.2895
▁ऊंच	-10.2924
▁सुल	-10.293
गम	-10.2931
▁प्रत्याश	-10.2932
वंश	-10.2933
▁विप	-10.2937
▁आजाद	-10.2941
िड	-10.2941
िंदर	-10.2943
एँ	-10.2965
▁36	-10.2967
ून	-10.2978
्जर	-10.298
▁विशेषज्ञ	-10.2992
मेर	-10.3005
▁निराश	-10.3006
▁स्टॉ	-10.3007
▁गौ	-10.301
-3	-10.3012
ोज	-10.3019
▁महाराज	-10.3019
अर	-10.3022
▁प्रदर्श	-10.3023
दूसरे	-10.3028
सर्च	-10.3029
ाधिकारी	-10.3038
स्था	-10.3054
▁मज	-10.3068
.’	-10.307
▁हेड	-10.3081
▁कानूनों	-10.3097
▁पाठ	-10.3103
▁अखिल	-10.3105
त्कार	-10.3107
▁̈सह	-10.3107
▁अपहरण	-10.3107
▁एकजुट	-10.3107
▁कर्फ्यू	-10.3107
▁काउंसिल	-10.3107
▁क्विंटल	-10.3107
▁ठेकेदार	-10.3107
▁डिवाइस	-10.3107
▁डेब्यू	-10.3107
▁त्रिपाठी	-10.3107
▁समुद्र	-10.3107
▁भास्कर	-10.3107
▁क्वारंटा	-10.3107
▁जोखिम	-10.3107
▁साहित्य	-10.3107
ation	-10.3107
▁आपत्ति	-10.3107
▁फ्रांस	-10.3107
▁लापता	-10.3107
बेडकर	-10.3107
▁गुरुद्वार	-10.3107
▁पंडित	-10.3107
▁सूरत	-10.3107
▁महासचिव	-10.3107
▁मुद्रा	-10.3107
▁ओलंपि	-10.3107
▁ट्रांसफर	-10.3107
▁सक्षम	-10.3107
▁सबूत	-10.3107
▁याचिकाकर्ता	-10.3108
▁फ्लाइट	-10.3108
▁प्रतिनिधिमंडल	-10.3108
▁डिजाइन	-10.3108
▁नाटक	-10.3108
▁हरकत	-10.3108
▁इधर	-10.3108
▁झटक	-10.3109
▁शपथ	-10.3109
▁मित्र	-10.3109
▁पहलवान	-10.3109
▁भिड़	-10.3109
यंस	-10.3109
्मा	-10.3109
▁बस्ती	-10.311
▁छावन	-10.311
▁आलम	-10.311
▁भट्ट	-10.3111
▁ड्रग	-10.3111
▁नमक	-10.3111
फ्रेंड	-10.3112
▁बर्फ	-10.3113
▁डिप्	-10.3113
▁नक्सलवाद	-10.3114
▁हराया	-10.3114
द्दीन	-10.3115
▁प्रभात	-10.3115
तिक	-10.3115
▁अर्पित	-10.3117
▁साइबर	-10.3118
▁बनारस	-10.3119
▁जुर्माना	-10.3119
▁मुनाफा	-10.3119
▁पड़ोस	-10.3119
:30	-10.312
▁नारेबाज	-10.3122
▁ब्लैक	-10.3123
▁आएंगे	-10.3124
▁गायब	-10.3125
▁जाएंगी	-10.3126
▁दिखाया	-10.3127
▁Ra	-10.3127
▁गोवा	-10.3128
▁स्वरूप	-10.3132
▁जहर	-10.3132
▁लगेगा	-10.3135
▁उतन	-10.3136
नरेश	-10.3137
▁आदिवास	-10.3137
▁ट्रैक	-10.314
▁गुलाब	-10.3141
▁डीसी	-10.3146
▁नाइट	-10.3154
▁माफी	-10.316
▁दिली	-10.3162
तिर	-10.3165
▁करेंगी	-10.3165
▁रेखा	-10.3166
▁सुविधाओं	-10.3173
▁खबरें	-10.3175
▁आपदा	-10.3177
▁रूट	-10.3188
▁दुर्गा	-10.3192
▁कोड	-10.3196
▁हुय	-10.3204
▁बिंदु	-10.3212
▁रोट	-10.3221
▁लगाएं	-10.3226
ज्ञा	-10.3227
▁लौटे	-10.3262
▁शांत	-10.3269
▁पीटा	-10.3275
▁सेल्स	-10.3279
ोट	-10.3286
▁पीछ	-10.3304
▁धु	-10.3308
टैक	-10.333
▁बल्	-10.3338
रेंज	-10.3345
▁उल	-10.3346
थल	-10.3368
▁फ्री	-10.3373
ंकल	-10.3379
98	-10.3387
▁रस	-10.3426
ंबल	-10.3436
्रम	-10.3436
ट्रिक	-10.3441
▁मजा	-10.3447
▁पोस्टर	-10.3456
▁नक्सल	-10.3477
▁टीएम	-10.3485
▁राव	-10.3504
▁सौद	-10.3504
▁रो	-10.3529
▁सुर्खिय	-10.3536
पैड	-10.3541
▁रिक्	-10.3543
09	-10.3548
ाधिक	-10.3551
▁गर्मी	-10.3574
▁बड़	-10.358
मुख	-10.3581
▁बाला	-10.359
▁भरत	-10.3594
▁फार	-10.3596
▁स्वा	-10.3607
ांत	-10.3608
▁बू	-10.3613
िफ	-10.362
▁150	-10.3627
कला	-10.3644
बीएस	-10.3645
▁आयी	-10.3656
▁बच्चन	-10.368
▁नेहा	-10.3694
▁आला	-10.3702
17	-10.3704
▁पाट	-10.3707
▁ऋषि	-10.3711
▁जीता	-10.3728
▁44	-10.3739
▁लाए	-10.3754
78	-10.3757
▁वसूल	-10.3759
फॉर्म	-10.3761
▁लॉ	-10.3765
डिट	-10.3773
▁चौ	-10.3778
▁मक	-10.3781
ॉक्स	-10.3786
▁फर्	-10.3796
ज़ा	-10.3798
लभ	-10.3802
रथ	-10.3803
79	-10.3806
▁कपड़	-10.3816
्वे	-10.3819
ंदन	-10.3831
▁मेन	-10.3833
तु	-10.3835
89	-10.3851
ेक्स	-10.3854
ंद्र	-10.3859
76	-10.3875
डीजल	-10.388
त्म	-10.3899
▁वॉ	-10.3901
ुली	-10.3905
57	-10.3917
ईओ	-10.3919
ंस्कृति	-10.3919
▁भावना	-10.3921
▁इंद्र	-10.3928
▁जश्	-10.393
▁प्रस्तुति	-10.3934
▁टाइ	-10.3938
▁चैंपियन	-10.394
▁पाठ्यक्रम	-10.394
▁संदर्भ	-10.394
▁सुपरस्टार	-10.394
▁इजाफ	-10.394
▁एजुकेशन	-10.394
▁कंटेन	-10.394
▁गुणवत्ता	-10.394
▁छापेमारी	-10.394
▁जनप्रतिनिधि	-10.394
▁जनसंख्या	-10.394
▁तथ्य	-10.394
▁धन्यवाद	-10.394
▁धैर्य	-10.394
▁पाउडर	-10.394
▁पेयजल	-10.394
▁मनुष्य	-10.394
▁लाइसेंस	-10.394
▁स्रोत	-10.394
▁हड़कंप	-10.394
▁कच्च	-10.394
▁दस्तावेज	-10.394
▁द्वितीय	-10.394
▁पुण्य	-10.394
▁बीएसएफ	-10.394
▁मैनेजर	-10.394
कर्ता	-10.394
▁अंतरिक्ष	-10.394
▁झूठ	-10.394
▁ब्याज	-10.394
▁टिहरी	-10.394
▁टुकड़	-10.394
▁खंगाल	-10.3941
▁प्रेरणा	-10.3941
▁छुट्टी	-10.3941
▁इशार	-10.3941
▁उन्होने	-10.3941
▁वंचित	-10.3941
▁शुरूआत	-10.3941
▁नमून	-10.3941
▁शैल	-10.3941
▁एक्टिव	-10.3941
▁जनरल	-10.3941
▁राघव	-10.3941
▁जबरदस्त	-10.3941
▁ब्रिटेन	-10.3941
▁कठिन	-10.3941
▁धूल	-10.3942
▁मास्टर	-10.3942
▁कूद	-10.3942
▁रैंक	-10.3942
▁जैव	-10.3942
▁साइंस	-10.3942
▁प्रकट	-10.3942
श्रेष्ठ	-10.3942
▁शिवसेना	-10.3942
▁दृष्टि	-10.3942
▁आदित्यनाथ	-10.3942
▁तलाक	-10.3943
▁इराक	-10.3943
▁रत्न	-10.3943
▁राजकुमार	-10.3943
▁सितार	-10.3944
▁कोयला	-10.3944
▁आदित्य	-10.3944
ंकज	-10.3944
ाधीन	-10.3944
▁नज़र	-10.3945
▁समस्त	-10.3945
▁हसन	-10.3945
▁तुम्हार	-10.3945
▁पैकेट	-10.3946
▁आलोचना	-10.3946
▁दादा	-10.3946
▁प्राची	-10.3946
▁फैन	-10.3947
▁रुबी	-10.3947
▁शीत	-10.3947
▁श्रम	-10.3948
▁इंजन	-10.3948
▁वास्तविक	-10.3948
▁सर्विस	-10.3949
▁अपमान	-10.3949
▁इंच	-10.3949
▁शतक	-10.395
▁संजीव	-10.3951
धर	-10.3951
▁आवंटन	-10.3951
▁पांडेय	-10.3952
▁सलाम	-10.3952
▁गवाह	-10.3953
▁अज्ञा	-10.3953
▁क्रमश	-10.3953
ोदय	-10.3953
▁ड्रेस	-10.3953
▁प्लेट	-10.3954
▁अमीर	-10.3956
▁मोटा	-10.3957
▁पासवान	-10.3957
▁पब्लिक	-10.3959
▁शास्त्र	-10.3959
▁अमरीक	-10.396
▁भंडार	-10.3961
िमांड	-10.3962
▁नाकाम	-10.3962
▁प्रेस	-10.3964
▁जागरूकता	-10.3964
▁चीजें	-10.3966
▁ग़	-10.3966
▁शरण	-10.3967
ाइय	-10.3968
▁क्रॉस	-10.3969
ra	-10.397
▁यमुना	-10.3971
▁नशा	-10.3971
▁34	-10.3971
▁पुष्प	-10.3972
▁पात्र	-10.3973
▁पट्ट	-10.3973
▁धरना	-10.3974
▁पहनने	-10.3975
▁ठाक	-10.3977
▁नारायण	-10.398
▁मस्त	-10.3982
▁वितर	-10.3982
तुष्ट	-10.3983
▁रात्रि	-10.3985
कथा	-10.3994
▁संचालक	-10.3996
▁बढ़ाया	-10.4002
▁उपस्थिति	-10.4005
वायद	-10.4007
▁चालान	-10.4008
ुश	-10.4009
▁जज	-10.4014
र्जी	-10.4018
▁वार्	-10.4019
▁देगी	-10.4025
विता	-10.4034
▁प्ले	-10.4035
ांकन	-10.404
▁नर्स	-10.4042
-2	-10.4054
▁रखता	-10.406
▁बेसिक	-10.4061
▁पुन	-10.4063
▁बेस	-10.4068
▁पर्व	-10.4069
बोध	-10.4074
▁पप्	-10.4076
स्टडी	-10.408
▁भूल	-10.4083
▁लीड	-10.4086
▁बाधा	-10.4094
दगी	-10.4098
टीबी	-10.4104
▁जोड़े	-10.4112
म्भ	-10.4122
▁हां	-10.4124
▁ऊंचा	-10.4143
97	-10.4148
ल्प	-10.4152
हिमा	-10.4159
▁बरस	-10.4166
▁38	-10.417
▁शह	-10.417
▁चीफ	-10.4176
गाम	-10.4183
तन	-10.4184
▁मूर्ति	-10.4185
▁राग	-10.4192
▁सौंपा	-10.42
लिंग	-10.4205
ख्याल	-10.421
▁खल	-10.4212
▁मिस	-10.4223
000	-10.4233
▁कार्यक्रमों	-10.4241
▁फ्ल	-10.4248
▁निर	-10.4249
प्	-10.4251
▁जानी	-10.4253
▁कांड	-10.4254
▁रिला	-10.4257
वेदन	-10.4258
धुन	-10.4261
▁कवि	-10.4263
▁सहकार	-10.4276
▁आसमा	-10.4289
सान	-10.4294
डल	-10.43
▁48	-10.4302
मीर	-10.4302
टेक	-10.4312
▁हरा	-10.4319
▁क्वालि	-10.4323
47	-10.4324
38	-10.4348
▁जुटे	-10.4356
▁हरे	-10.4357
घात	-10.4358
हीन	-10.4395
फर	-10.4399
▁करवान	-10.44
ावत	-10.4405
रेप	-10.4415
ैक	-10.4421
01	-10.4422
रह	-10.4424
▁ज्य	-10.4428
▁खन	-10.4437
▁तप	-10.4458
▁हों	-10.4461
46	-10.4497
han	-10.4499
▁250	-10.4503
▁भेजे	-10.4511
▁बकर	-10.4518
रेन्द्र	-10.4525
▁मॉ	-10.4528
▁कमेंट	-10.4531
▁किंग	-10.4535
▁ऑफिसर	-10.4555
▁55	-10.4573
▁गिरा	-10.4577
र्मा	-10.458
ऊद	-10.4583
व्याप	-10.4586
▁ते	-10.459
▁पूछे	-10.4593
21	-10.4595
▁72	-10.46
▁दक्षिणी	-10.4603
इश	-10.4612
▁निंद	-10.4616
ूस	-10.4639
▁मुह	-10.4642
56	-10.4658
▁पहाड़	-10.4664
माग	-10.4666
▁मंजूर	-10.4674
en	-10.4695
▁हत्यार	-10.4696
▁हेल	-10.4709
ड्डा	-10.4738
▁लिहाज	-10.4749
▁गिल	-10.4754
▁खरीदी	-10.4756
▁भाष	-10.4758
V	-10.4767
विश्वास	-10.477
वायरस	-10.477
▁मल	-10.477
यंत्र	-10.4771
रंजन	-10.4771
पुत्र	-10.4771
प्रदेश	-10.4772
भूमि	-10.4773
▁सिंग	-10.4782
ma	-10.4784
▁दुर्ग	-10.4796
▁साधा	-10.4804
क्शन	-10.4808
▁0	-10.4812
▁वां	-10.4812
▁सीम	-10.4814
ोई	-10.4824
लॉग	-10.4827
▁बैठा	-10.4833
▁अवध	-10.4841
ारंभ	-10.4843
▁देरी	-10.4845
चालन	-10.4846
▁क्रांति	-10.485
निलंबित	-10.485
प्रोटोकॉल	-10.485
॰	-10.485
▁आदर्श	-10.485
▁आशीर्वाद	-10.485
▁आह्वान	-10.485
▁इत्यादि	-10.485
▁कमिश्नर	-10.485
▁गडकरी	-10.485
▁जायसवाल	-10.485
▁तिब्बत	-10.485
▁प्रौद्योगिक	-10.485
▁फ़ीसदी	-10.485
▁रक्तदान	-10.485
▁विद्युत	-10.485
▁सिफारिश	-10.485
▁स्थगित	-10.485
▁उजाला	-10.485
▁फैशन	-10.485
▁बुखार	-10.485
▁मछली	-10.485
▁लेनदेन	-10.485
▁लैब	-10.485
▁सैकड़ों	-10.485
▁हालाँकि	-10.485
▁हूँ	-10.485
ुभाष	-10.485
▁ईमानदार	-10.485
▁गाँव	-10.485
▁तुलसी	-10.485
▁शिमला	-10.485
▁केसरवानी	-10.485
▁द्विवेदी	-10.485
▁धूप	-10.485
▁मुल्क	-10.485
▁खन्ना	-10.485
▁नृत्य	-10.485
▁व्हाट्सएप	-10.485
▁सूरज	-10.485
▁अवार्ड	-10.485
▁इंस्टीट	-10.485
▁बर्बाद	-10.485
▁पटाख	-10.485
▁दीक्षित	-10.485
▁ट्रेंड	-10.485
विभाजन	-10.485
▁परिस्थितियों	-10.485
▁पंजीकरण	-10.485
▁किस्म	-10.485
▁भड़क	-10.485
▁डाक्टर	-10.4851
▁ट्रैक्टर	-10.4851
हनुमान	-10.4851
परिचय	-10.4851
▁अटल	-10.4851
▁ग्रीन	-10.4852
▁हायर	-10.4852
▁बनवा	-10.4852
ि़य	-10.4853
▁गोरखपुर	-10.4853
रामलीला	-10.4853
▁जबरन	-10.4853
▁प्राचार्य	-10.4854
▁स्किन	-10.4854
▁हल्क	-10.4854
▁गहल	-10.4854
▁गाइड	-10.4855
▁जहरील	-10.4855
▁पेंटिंग	-10.4856
▁तोमर	-10.4856
▁टीचर	-10.4856
▁बायो	-10.4857
▁एप्प	-10.4857
▁माल्या	-10.4857
अपने	-10.4857
▁बाबू	-10.4857
▁सामु	-10.4858
▁त्रि	-10.4858
▁पेपर	-10.4858
इंडीज	-10.4858
▁पीएस	-10.4859
▁उल्ट	-10.4861
▁भेंट	-10.4861
▁गुहार	-10.4861
▁कैप्	-10.4863
▁रवी	-10.4863
▁योग्यता	-10.4863
षा	-10.4863
▁डबल	-10.4866
▁नीरज	-10.4867
▁राख	-10.4867
▁कार्यपाल	-10.4868
▁हॉट	-10.4869
▁रिहा	-10.487
▁भागीदार	-10.487
▁जेएनएन	-10.487
▁छू	-10.4871
▁बोलते	-10.4872
▁श्रीदेवी	-10.4872
▁फास्ट	-10.4873
▁रामनगर	-10.4874
▁बॉय	-10.4875
▁ब्यूरो	-10.4877
▁प्रणाली	-10.4877
▁संस्क	-10.4879
▁विहार	-10.4885
गीर	-10.4886
▁वाक	-10.4889
▁फेल	-10.489
▁काशी	-10.4891
▁छक्क	-10.4894
▁बहुम	-10.4895
▁रोम	-10.4898
▁एंब	-10.49
▁पड	-10.49
▁अफ्रीका	-10.4902
संघ	-10.4906
▁फेर	-10.4908
▁पत्त	-10.4913
▁बरेल	-10.4915
र्टी	-10.4932
▁कॉपी	-10.4932
▁बौद्ध	-10.4935
ाची	-10.494
59	-10.4945
▁पथ	-10.4947
v	-10.4949
▁टि	-10.4957
रक्षा	-10.4964
्तर	-10.4966
▁रोह	-10.497
▁जगत	-10.4975
▁बालक	-10.4978
▁सस्त	-10.4985
एचसी	-10.4985
▁शुभम	-10.4986
दिया	-10.4988
▁हद	-10.5
▁बैक	-10.5001
▁पैम	-10.5006
.”	-10.501
क्रमण	-10.5012
▁दबा	-10.5012
धारी	-10.5013
रवरी	-10.5014
▁अनन्	-10.5015
गन	-10.5018
▁बला	-10.5023
▁नंद	-10.5025
▁उपज	-10.503
▁आर्य	-10.5034
▁खिल	-10.5052
▁बारह	-10.5054
है	-10.506
▁चौंका	-10.5065
कड़	-10.5074
▁बैठने	-10.5082
▁चू	-10.5087
ूब	-10.51
▁सिखा	-10.5103
▁मनी	-10.511
जब	-10.5115
▁मेकर	-10.5127
गाड़	-10.5129
ेक्शन	-10.5144
अद	-10.5146
42	-10.5154
▁खोला	-10.5186
▁लड़े	-10.5192
▁हॉस्	-10.5201
डीह	-10.5201
▁अति	-10.5214
्रेशर	-10.5217
िक्र	-10.5227
ंश	-10.5239
यो	-10.5241
▁किमी	-10.5251
▁आयात	-10.5266
▁विपर	-10.5267
▁चप	-10.5294
नीत	-10.53
▁75	-10.5306
▁बट	-10.5307
कंप	-10.5308
04	-10.5322
▁49	-10.5323
▁थोड़ी	-10.5338
िंदा	-10.5339
▁दोस्ती	-10.5346
निस	-10.5365
▁भरे	-10.5384
pe	-10.5385
▁पक्क	-10.5391
षिक	-10.5404
▁सिख	-10.5418
▁सफ	-10.5452
ित्व	-10.5482
▁बोली	-10.5482
्पण	-10.5491
▁पिक	-10.5502
ंजर	-10.5504
▁43	-10.5508
▁बदला	-10.5509
ाफ़	-10.5513
▁400	-10.5518
गाह	-10.552
ीनियर	-10.554
पीएल	-10.5543
▁मार्क	-10.5544
मंत	-10.5555
te	-10.5563
▁ड्राइव	-10.5563
▁(1	-10.5566
वाया	-10.5568
▁फॉर	-10.5569
.'	-10.5571
U	-10.5589
त्थ	-10.5592
हो	-10.5598
पान	-10.5633
▁600	-10.5646
वर्ध	-10.5664
▁रज	-10.5684
▁निकला	-10.5686
क्का	-10.569
ic	-10.5693
▁अब्दुल	-10.5724
रांत	-10.5747
▁नतीज	-10.5751
खेड़	-10.5752
र्द	-10.5753
▁कंड	-10.5762
K	-10.5766
कृष्ण	-10.5769
मात्र	-10.5783
गण	-10.5788
मंडल	-10.5791
▁बीस	-10.5792
har	-10.5796
▁37	-10.5798
राज्य	-10.5799
िंद	-10.58
▁सद	-10.5809
योजना	-10.5818
▁ऑल	-10.5825
▁गुल	-10.5826
बिट	-10.5827
▁शूट	-10.5832
es	-10.5835
राधिक	-10.5837
िफिकेशन	-10.5841
दायिक	-10.5845
▁ज्योति	-10.5847
▁अमृत	-10.5848
x	-10.5848
वानी	-10.5849
▁Video	-10.585
▁अनदेख	-10.585
▁एफआईआर	-10.585
▁कंट्रोल	-10.585
▁कश्यप	-10.585
▁डायबिटीज	-10.585
▁दर्शा	-10.585
▁न्यूयॉर्क	-10.585
▁पश्चात	-10.585
▁फेस्टिव	-10.585
▁बटालियन	-10.585
▁मथुरा	-10.585
▁रिटायर	-10.585
▁वाणिज्य	-10.585
▁विशिष्ट	-10.585
▁शताब्द	-10.585
▁साजिद	-10.585
▁सोयाबीन	-10.585
▁हृदय	-10.585
▁एंट्री	-10.585
▁कॉन्फ्रेंस	-10.585
▁जर्मनी	-10.585
▁डीजीपी	-10.585
▁ढूंढ	-10.585
▁प्रयागराज	-10.585
▁फ़िल्म	-10.585
▁बृज	-10.585
▁बेंगलुरु	-10.585
▁भोजपुर	-10.585
▁सेवानिवृत्त	-10.585
▁आँख	-10.585
▁गोविंद	-10.585
▁जन्मदिन	-10.585
▁आरंभ	-10.585
▁पंक्ति	-10.585
▁उत्सव	-10.585
▁स्वदेशी	-10.585
▁दंडाधिकार	-10.585
▁गर्ल	-10.585
▁रजिस्टर	-10.585
▁काउंसल	-10.585
▁कोविंद	-10.585
▁छेड़	-10.585
▁जटिल	-10.585
निष्क	-10.585
▁स्थानांतर	-10.585
▁सिपाही	-10.585
▁दिलाया	-10.585
▁बिजनेस	-10.585
▁पृष्ठभूमि	-10.585
▁शोधकर्ता	-10.585
▁मुठभेड़	-10.585
▁मत्स्य	-10.585
▁डिफें	-10.585
▁बैलेंस	-10.585
सिरमौर	-10.5851
▁सांप	-10.5851
▁आंगन	-10.5851
ाह्न	-10.5851
▁सबकुछ	-10.5851
▁शशि	-10.5851
▁चरम	-10.5851
▁एसडीओ	-10.5851
▁युग	-10.5852
▁ढेर	-10.5852
▁मणिपुर	-10.5852
▁ख़बर	-10.5852
▁आश्र	-10.5852
▁विफल	-10.5852
▁रोष	-10.5852
बूझ	-10.5853
▁हेलीक	-10.5853
▁कुत्त	-10.5853
▁बूथ	-10.5853
▁सीईओ	-10.5853
▁अग्नि	-10.5853
▁नेटवर्क	-10.5854
AN	-10.5854
▁सिंधिया	-10.5854
▁2008	-10.5855
▁आशी	-10.5855
वश्य	-10.5856
▁विशाल	-10.5856
सपा	-10.5856
▁माइक्रो	-10.5856
▁हँ	-10.5857
▁ठगी	-10.5857
▁सर्ज	-10.5857
रक्षित	-10.5858
▁बुध	-10.5858
▁लाइव	-10.5858
▁बैंग	-10.586
▁हार्ट	-10.586
▁मेहता	-10.5862
▁मोटर	-10.5863
▁स्टेप	-10.5863
रिएंट	-10.5864
▁पटवार	-10.5865
▁राउंड	-10.5865
▁प्रशंसक	-10.5865
▁प्रांत	-10.5865
▁अनंत	-10.5867
▁पात्रता	-10.587
▁प्रॉप	-10.5871
पिटल	-10.5871
▁​	-10.5872
▁मानक	-10.5872
▁रजत	-10.5873
ईडी	-10.5873
▁एमएस	-10.5873
▁भगत	-10.5876
▁शिख	-10.5878
▁चलेगा	-10.588
▁मेहरा	-10.588
▁संचार	-10.5881
▁कर्ण	-10.5881
▁शूटर	-10.5882
▁काबू	-10.5883
▁बिछ	-10.5885
▁झगड़ा	-10.5887
▁नष्ट	-10.5887
▁भक्ति	-10.5889
▁सेंट्र	-10.5889
▁गांग	-10.5889
▁राणा	-10.5889
▁निर्भर	-10.5892
▁मेगा	-10.5893
▁पार्किंग	-10.5895
▁लाश	-10.5895
▁U	-10.5897
क्कत	-10.5898
▁प्राथमिकता	-10.5898
▁पुजारी	-10.5898
▁लेखक	-10.5899
▁लम्ब	-10.5899
▁प्रतिमा	-10.5902
▁गौरव	-10.5902
▁दुकानें	-10.5903
▁—	-10.5907
▁लगवान	-10.5909
86	-10.5914
▁पद्म	-10.5916
▁नायक	-10.5917
▁अकेले	-10.5917
▁मीर	-10.5918
▁निधि	-10.5921
▁वर्ड	-10.5925
▁ड्र	-10.5925
▁आरती	-10.5931
▁सपोर्ट	-10.5931
वायु	-10.5932
थॉ	-10.5933
टू	-10.5934
▁दिलात	-10.5935
स्‍था	-10.594
▁कागज	-10.5943
▁करो	-10.5945
▁निवेशक	-10.5945
िरोह	-10.5949
▁दावे	-10.5949
कूल	-10.5951
▁लंग	-10.5955
रूख	-10.5955
▁पाती	-10.5956
लेख	-10.5956
▁बोलने	-10.596
▁स्टे	-10.5967
▁कैद	-10.597
▁गहर	-10.5975
▁उद्ध	-10.5993
▁पहन	-10.5993
▁बिंद	-10.5994
षित	-10.5998
▁क्यू	-10.5999
▁सर्दी	-10.6015
विजय	-10.6022
▁गहरी	-10.6024
▁कुर्स	-10.6029
▁राजद	-10.6035
ाहिद	-10.6037
▁तीसरा	-10.604
हल	-10.6041
▁एडव	-10.6043
ोच्च	-10.6061
▁मार्	-10.6064
▁गुला	-10.6067
▁वसूली	-10.6082
▁जीव	-10.6082
▁बरत	-10.6091
▁गार्डन	-10.6107
▁शू	-10.6112
▁जानकर	-10.612
▁किड	-10.6122
▁जद	-10.6123
▁वाट	-10.6124
▁सील	-10.6129
ंकी	-10.6133
▁थम	-10.614
lan	-10.614
▁स्ट्री	-10.6148
▁नस	-10.615
▁ध्व	-10.6153
▁चु	-10.6153
ॉफी	-10.6159
▁मंद	-10.6161
योजित	-10.6163
ोलॉजी	-10.6164
व्यय	-10.6165
▁डाली	-10.617
▁टैंकर	-10.6174
▁सीन	-10.6185
▁अन्	-10.6188
▁इर	-10.6193
▁रच	-10.6213
ंदा	-10.6214
▁सवा	-10.6215
81	-10.6224
▁बज	-10.6229
ंगल	-10.6233
▁मिलिय	-10.6234
▁अवस्थ	-10.6242
▁!	-10.6246
▁बुरा	-10.6251
▁अनुप	-10.6255
शिका	-10.6262
▁डाउन	-10.6267
▁खरीदार	-10.6274
▁चाह	-10.6274
▁दां	-10.6275
▁साध	-10.6276
श्वर	-10.6278
▁पहना	-10.6284
▁सिस	-10.6294
ल्फ	-10.6308
▁पहने	-10.6322
69	-10.6327
▁प्रमो	-10.6351
▁सोनी	-10.6352
▁आभ	-10.6375
▁शिवान	-10.6379
पीओ	-10.6388
▁हमल	-10.6403
▁बीसी	-10.6421
ंत्रिक	-10.643
▁रुपय	-10.6432
्पीड	-10.6434
▁वार	-10.6437
▁गिन	-10.6441
राव	-10.6455
▁पाली	-10.6457
काय	-10.6467
▁मंड	-10.647
मर्श	-10.6498
मय	-10.6502
▁उत्त	-10.6541
▁कमान	-10.6554
▁तैनाती	-10.656
▁गायक	-10.6565
रात	-10.6568
बर्ग	-10.6572
बाजी	-10.6574
▁Mi	-10.6579
▁बेर	-10.6583
▁सनी	-10.6583
▁108	-10.6593
ाहन	-10.6603
▁फंसा	-10.6606
hi	-10.6616
ist	-10.6633
▁हुईं	-10.664
वाय	-10.6651
स्प	-10.6659
▁सेक्स	-10.6663
▁पॉ	-10.6665
ाजीपुर	-10.6674
ोना	-10.668
▁टेक	-10.668
▁नीतिय	-10.6681
टेल	-10.6682
▁बीट	-10.6697
शास	-10.671
▁सुने	-10.6716
▁सीए	-10.6727
▁करवात	-10.6738
▁64	-10.6749
भूत	-10.6774
मैट	-10.6785
▁डेर	-10.6797
ैट	-10.6797
▁सर्द	-10.6804
ad	-10.6815
95	-10.6817
▁एसडी	-10.6844
▁किशन	-10.6849
32	-10.6849
▁वर्क	-10.6853
nt	-10.6858
▁गौरी	-10.686
ीएमओ	-10.6864
▁झंड	-10.687
चेंज	-10.6876
ऐ	-10.6878
विद्यालय	-10.6878
ग्राफ	-10.6879
ड्स	-10.6879
ट्वि	-10.688
पंप	-10.688
जगह	-10.6881
स्कूल	-10.6882
झू	-10.6883
▁द्वार	-10.689
▁लाइ	-10.6892
▁आध	-10.6895
प्रीत	-10.6897
्टिंग	-10.6911
14	-10.6913
जियो	-10.6914
भाई	-10.6921
▁एजें	-10.6924
स्‍थ	-10.6931
▁काउंट	-10.6933
▁कक्ष	-10.6935
▁बिल्ड	-10.6938
प्ताह	-10.6938
▁संबोध	-10.6942
▁धीम	-10.6943
▁In	-10.6943
बाज	-10.6946
्‍म	-10.6947
▁शॉर्	-10.6947
▁निपट	-10.6949
नुसार	-10.695
▁वास्तव	-10.695
▁मिन	-10.6957
▁रजनी	-10.6958
कारो	-10.696
▁पुस्तक	-10.696
▁जॉन	-10.696
▁श्रद्धा	-10.696
हेल	-10.696
▁पृथ्वी	-10.6961
▁सृजन	-10.6961
दृश्य	-10.6961
▁अपलोड	-10.6961
▁अपेक्षा	-10.6961
▁अभियंता	-10.6961
▁अश्लील	-10.6961
▁गाँधी	-10.6961
▁चैलेंज	-10.6961
▁ज्‍यादा	-10.6961
▁दफ्तर	-10.6961
▁दुश्	-10.6961
▁पंजीयन	-10.6961
▁पवित्र	-10.6961
▁प्रोडक्ट	-10.6961
▁बदायूं	-10.6961
▁महिंद्रा	-10.6961
▁मुरादाबाद	-10.6961
▁मुलायम	-10.6961
▁मैनेजमेंट	-10.6961
▁लखीमपुर	-10.6961
▁विश्लेषण	-10.6961
▁शेट्टी	-10.6961
▁श्रृं	-10.6961
▁सर्वेक्षण	-10.6961
▁ससुराल	-10.6961
▁स्मिथ	-10.6961
▁स्मृति	-10.6961
▁हाइड्रो	-10.6961
▁हिंदुस्तान	-10.6961
▁इकाइय	-10.6961
▁एएमजी	-10.6961
▁जीएसटी	-10.6961
▁भैंस	-10.6961
▁संदेह	-10.6961
▁सनसनी	-10.6961
▁अखबार	-10.6961
▁अल्पसंख्यक	-10.6961
▁घोटाल	-10.6961
▁चूंकि	-10.6961
▁निराकरण	-10.6961
▁पलायन	-10.6961
▁साजिश	-10.6961
▁साहिब	-10.6961
▁कैलाश	-10.6961
▁धमाके	-10.6961
▁साइकिल	-10.6961
▁प्रसन्न	-10.6961
▁पठान	-10.6961
▁प्रवीण	-10.6961
▁राफेल	-10.6961
▁अनूप	-10.6961
▁सिल्व	-10.6961
▁पूर्णिमा	-10.6961
▁स्टैंड	-10.6961
▁हज़ार	-10.6961
▁जवाहर	-10.6961
▁नींद	-10.6961
▁ज़रूर	-10.6961
▁उद्यम	-10.6961
आईएएनएस	-10.6961
▁चित्रकूट	-10.6961
▁जहाज	-10.6961
▁तरीका	-10.6961
▁मौर्य	-10.6961
▁लाठी	-10.6961
▁घातक	-10.6961
ड्यूल	-10.6961
▁रणबीर	-10.6961
▁दरवाज	-10.6961
▁अंसारी	-10.6961
▁पंवार	-10.6961
▁आमिर	-10.6961
▁रॉयल	-10.6961
▁चौबे	-10.6961
▁पांव	-10.6961
णमू	-10.6961
▁गुर्जर	-10.6961
▁इराद	-10.6962
▁समाचार	-10.6962
▁प्रधानाचार्य	-10.6962
▁दबिश	-10.6962
▁हिंदु	-10.6962
▁यूरोप	-10.6962
एनडीए	-10.6962
▁धोखा	-10.6962
▁अमृतसर	-10.6962
▁ऑटो	-10.6963
▁भागलपुर	-10.6963
▁माफिया	-10.6963
▁सेल्फी	-10.6963
▁सरोज	-10.6963
▁गोयल	-10.6964
▁अहसास	-10.6964
▁फीचर	-10.6964
▁छात्रावास	-10.6964
▁फ्लोर	-10.6964
यूएई	-10.6964
▁रिश्ते	-10.6964
▁जेनेर	-10.6965
ंघ	-10.6965
▁खुरा	-10.6965
▁बगैर	-10.6966
▁फेम	-10.6966
▁ईयर	-10.6966
▁बेरोजगार	-10.6967
▁विक्रेताओं	-10.6968
▁महामंत्री	-10.6968
▁इंजीनियरिंग	-10.6968
▁2004	-10.6969
▁सानिया	-10.6969
सुन	-10.6969
▁अटकल	-10.6969
▁लाभार्थ	-10.6969
▁बुद्धि	-10.6969
▁मामू	-10.6969
िणी	-10.6969
▁ऐंड	-10.697
▁चुप	-10.697
▁गिराया	-10.697
आजमगढ़	-10.697
▁सतना	-10.6971
▁निकास	-10.6971
▁एमडी	-10.6971
▁रिश्ता	-10.6972
बद्ध	-10.6973
▁व्ह	-10.6973
साफ	-10.6973
▁साहब	-10.6974
िपल	-10.6975
▁मस्तिष्क	-10.6976
हैया	-10.6976
▁श्रेय	-10.6976
▁सशक्त	-10.6976
▁इंकार	-10.6976
▁छाया	-10.6976
बीएसई	-10.6979
▁सुरक्षाबल	-10.6979
कांत	-10.698
्लास	-10.698
▁कमांडर	-10.698
▁योग्य	-10.6981
▁गेम्स	-10.6981
▁द्रव	-10.6983
▁अग्र	-10.6983
▁बाब	-10.6984
रेखा	-10.6986
▁निभाई	-10.6988
▁ताइ	-10.6989
▁गाली	-10.6989
▁चिप	-10.699
▁जख्मी	-10.6994
▁बेस्ट	-10.6997
▁कांस्टेब	-10.6998
▁कोमल	-10.6998
▁कौर	-10.6999
रपुर	-10.6999
▁सुरेंद्र	-10.7
▁बितान	-10.7001
▁शिल्पा	-10.7003
▁स्थायी	-10.7005
▁बॉस	-10.701
▁चुरा	-10.7011
▁स्ल	-10.7012
कप	-10.7013
▁नवरात्र	-10.7023
▁02	-10.7023
▁पिला	-10.7024
क्वीन	-10.7024
▁चौराहा	-10.7026
ॉर्ड	-10.7028
▁घटनाएं	-10.7032
▁नाच	-10.7036
▁झांसी	-10.7037
▁घिर	-10.7037
▁मटर	-10.7039
▁बर्	-10.7041
▁शिकायतें	-10.7043
▁स्त्र	-10.7047
▁गाइडलाइन	-10.7047
▁कराएं	-10.7052
म्ब	-10.7056
▁जाये	-10.7056
▁ट्रॉल	-10.7071
▁भगा	-10.7073
▁नतीजा	-10.7073
जिस्ट्रे	-10.7073
▁इको	-10.7074
▁निचल	-10.7078
▁घूमत	-10.708
▁सर्जन	-10.7082
▁लिहाजा	-10.7087
ल्ली	-10.7087
▁स्‍वा	-10.7089
▁नीम	-10.7097
▁सहार	-10.7099
▁कमाई	-10.71
▁धा	-10.71
▁छुपा	-10.7101
▁तस्करी	-10.7103
▁चूक	-10.7112
▁जमात	-10.7119
▁पलट	-10.712
▁एट	-10.7121
▁प्रतिभाग	-10.7124
▁श्रा	-10.7125
le	-10.7128
▁रै	-10.7135
टिक	-10.7136
▁मूड	-10.7138
माझ	-10.7142
▁जेपी	-10.7142
ाचार	-10.7142
्यूब	-10.7145
एलईडी	-10.7145
▁मनमोह	-10.7147
▁राजू	-10.7148
▁आसन	-10.7149
▁दाग	-10.7156
▁क्रे	-10.7159
वाग	-10.7159
▁डीए	-10.7159
षे	-10.716
▁पच	-10.7165
▁कंध	-10.717
▁बैर	-10.7171
▁हिला	-10.7172
▁दीवान	-10.7198
▁अनुष्	-10.7207
ाधि	-10.7213
▁लगते	-10.7215
▁De	-10.7216
▁सोफ	-10.7218
▁सिलसिले	-10.7221
▁चलाना	-10.7228
लाद	-10.7232
▁भु	-10.7234
▁अफ	-10.7239
िसो	-10.7243
▁खेलना	-10.7249
स्‍त	-10.7256
▁चेहरा	-10.7257
िर्द	-10.7258
तिया	-10.7258
टिव	-10.7276
ग्ग	-10.728
्मच	-10.7285
िफ्ट	-10.7296
▁हिट	-10.7298
▁लैंड	-10.7315
िनी	-10.7323
▁स्टोरी	-10.7325
▁गली	-10.7375
▁लंबा	-10.7403
▁हब	-10.7412
बु	-10.7413
▁प्रीत	-10.7413
▁संत	-10.7424
क्यू	-10.7438
▁शोर	-10.7448
▁मोह	-10.7454
▁धार	-10.7455
▁सीरिय	-10.7457
▁घेरा	-10.7464
28	-10.7465
▁सेंसे	-10.7467
88	-10.7471
▁एसी	-10.7484
िये	-10.7491
▁बग	-10.7492
▁सीआर	-10.7497
ध्य	-10.7501
▁संस	-10.7528
▁85	-10.7548
फल	-10.755
▁खाक	-10.755
▁दुर	-10.7551
▁एबी	-10.7555
एसयू	-10.7557
▁उद	-10.757
wa	-10.7573
ेंट्स	-10.7576
▁अवग	-10.7576
94	-10.7579
29	-10.7582
्‍स	-10.7588
▁भजन	-10.7589
ंदर	-10.7594
▁सवारी	-10.7608
नक्सलियों	-10.7613
▁चै	-10.7628
▁तन	-10.7638
▁इम्	-10.7648
घा	-10.7658
▁डरा	-10.7667
11	-10.7669
▁वर्	-10.767
सेना	-10.7679
▁ग्रेट	-10.7681
▁मोत	-10.7705
जीवन	-10.7713
ीएमसी	-10.7717
जित	-10.7722
▁पार्ट	-10.7738
माज	-10.7739
▁स्‍	-10.7749
देवी	-10.7776
08	-10.7781
62	-10.7796
पतन	-10.7799
▁एनसी	-10.78
▁भ्र	-10.7807
▁पॉल	-10.7807
▁टैंक	-10.7814
▁सीडी	-10.7817
▁बताए	-10.7835
▁लोह	-10.7845
हकीक	-10.7849
and	-10.7864
▁सेमी	-10.7873
▁करवाए	-10.7896
ामक	-10.7935
▁लिप	-10.7939
▁आईएस	-10.794
ुकेश	-10.7944
ुचित	-10.795
▁87	-10.7971
▁सीबी	-10.7973
फरी	-10.7984
सिंग	-10.7993
▁68	-10.7995
इंग	-10.7999
ur	-10.8006
26	-10.8007
एसआई	-10.8009
2005	-10.8032
▁ड्रा	-10.8052
▁300	-10.8063
▁जलवा	-10.8067
राब	-10.8079
ल्लू	-10.8079
▁मदर	-10.8083
क्‍स	-10.8084
▁वेब	-10.8091
▁अंश	-10.8093
गन्ना	-10.8101
थाम	-10.8103
▁इच्छ	-10.8114
निधि	-10.8124
▁चिंत	-10.8124
ऑ	-10.8125
चंद	-10.8127
शुल्क	-10.813
फाइल	-10.813
फाइनल	-10.813
मुख्यमंत्री	-10.8131
पांच	-10.8136
सागर	-10.8142
▁57	-10.815
▁आकल	-10.8157
शिव	-10.8161
पाट	-10.8164
मुक्त	-10.8181
▁फील्ड	-10.8182
▁निभात	-10.8184
▁कड़ा	-10.8192
▁सब्जिय	-10.8197
Y	-10.8201
▁मुर	-10.8201
▁प्रशिक्ष	-10.8203
िरकत	-10.8205
▁माध	-10.8205
▁गोरख	-10.8206
▁बीमा	-10.8206
भव	-10.8207
▁फोर	-10.8207
▁दिव्या	-10.8209
▁सिंध	-10.8209
िंदगी	-10.821
डब्ल्यू	-10.8211
गलौ	-10.8211
í	-10.8211
▁उपचुनाव	-10.8211
▁सरस्वती	-10.8211
+	-10.8211
३	-10.8211
▁Document	-10.8211
▁अफ़ग़ान	-10.8211
▁उजागर	-10.8211
▁कुरुक्षेत्र	-10.8211
▁गड्ढ	-10.8211
▁गैलेक्सी	-10.8211
▁चिकित्साधिकारी	-10.8211
▁चौटाला	-10.8211
▁झोपड़	-10.8211
▁त्यौहार	-10.8211
▁दूल्ह	-10.8211
▁नाबालिग	-10.8211
▁नौजवान	-10.8211
▁पीडि़त	-10.8211
▁लैपटॉप	-10.8211
▁विद्रोह	-10.8211
▁संवेदनशील	-10.8211
▁सक्सेना	-10.8211
▁सिंचाई	-10.8211
▁सिलेबस	-10.8211
▁दुबई	-10.8211
▁महापौर	-10.8211
▁वाहिनी	-10.8211
▁छिड़क	-10.8211
▁तब्दी	-10.8211
▁फॉलो	-10.8211
▁स्नातक	-10.8211
▁संभाग	-10.8211
...............	-10.8211
▁मार्गदर्श	-10.8211
▁बेहोश	-10.8211
ोष्ठ	-10.8211
▁दबोच	-10.8211
▁फतेह	-10.8211
▁शत्रु	-10.8211
▁आंसू	-10.8211
▁शोभा	-10.8211
▁अंपायर	-10.8211
▁स्ट्राइक	-10.8211
▁बोतल	-10.8211
स्पॉट	-10.8211
▁पथराव	-10.8211
▁तूफान	-10.8211
▁बगावत	-10.8211
▁रवैय	-10.8211
▁पुणे	-10.8211
▁भीषण	-10.8211
क्लोरो	-10.8211
▁व्रत	-10.8211
▁स्न	-10.8211
1984	-10.8211
▁सरपंच	-10.8211
▁सतीश	-10.8211
▁धातु	-10.8211
▁बढा	-10.8211
ास्	-10.8211
▁तिरंग	-10.8212
▁रोहतक	-10.8212
▁Jobs	-10.8212
▁कीजिए	-10.8212
▁हिस्ट्री	-10.8212
▁सिद्धांत	-10.8212
पीड़न	-10.8212
▁कोहराम	-10.8212
▁भटक	-10.8212
▁डिमांड	-10.8212
▁प्रोसेस	-10.8212
▁आदत	-10.8212
▁मुट्ठ	-10.8212
▁रेशम	-10.8213
रांव	-10.8213
▁बॉन्ड	-10.8213
ay	-10.8213
▁अनुकूल	-10.8213
▁एसिड	-10.8213
▁परहेज	-10.8213
▁मसाल	-10.8213
▁मीटिंग	-10.8213
▁तुर्की	-10.8213
▁मेहमान	-10.8213
▁दखल	-10.8213
gar	-10.8214
▁चौड़ी	-10.8214
्‌	-10.8214
▁इटली	-10.8214
शुद	-10.8215
▁एचआर	-10.8215
▁घाव	-10.8215
▁दिव्यांग	-10.8216
▁सुधर	-10.8216
▁मुरली	-10.8216
ल्फ़	-10.8216
▁कारखान	-10.8216
▁पॉलिसी	-10.8216
▁हानि	-10.8217
▁एंड्र	-10.8217
▁दलील	-10.8217
▁बिखर	-10.8217
▁महाकाल	-10.8217
▁बेगूसराय	-10.8217
▁दोगुन	-10.8217
▁लांच	-10.8217
प्रयाग	-10.8218
▁शिरो	-10.8218
▁मैन	-10.8218
▁जयराम	-10.8218
▁बैच	-10.8219
▁केशव	-10.822
▁पहिय	-10.8221
▁नौकरिय	-10.8221
▁ढील	-10.8221
▁ख़तर	-10.8222
▁जेवर	-10.8222
ya	-10.8223
▁पाएगा	-10.8225
▁रॉ	-10.8225
▁निबंध	-10.8227
ूरक	-10.8227
▁कैंट	-10.8228
▁प्रिंट	-10.8228
▁शॉर्ट	-10.8229
▁प्रतिरोध	-10.823
▁एमएम	-10.823
▁कल्प	-10.823
▁उग्रवाद	-10.8231
▁84	-10.8232
▁डाटा	-10.8232
▁साहू	-10.8232
▁भूपे	-10.8232
▁बुकिंग	-10.8233
िप्त	-10.8234
▁इश्	-10.8234
▁पैनल	-10.8235
निहाल	-10.8235
▁नीर	-10.8235
▁दादर	-10.8236
▁वस्तुओं	-10.8237
▁दुल्हन	-10.8239
▁लक्ष्मण	-10.8239
▁स्टाइल	-10.8239
▁जगदीश	-10.824
।''	-10.8241
▁125	-10.8241
▁पैग	-10.8243
▁अनुरा	-10.8245
▁दिव	-10.8246
▁फुल	-10.8247
▁प्रत्यक्ष	-10.825
▁स्पर्धा	-10.825
60	-10.8252
▁भाग्य	-10.8253
▁बगल	-10.8254
▁ज़िल	-10.8255
स्को	-10.8256
▁पाठक	-10.8256
लेवा	-10.8256
वह	-10.8257
PF	-10.8262
▁मप्र	-10.8262
▁मिलेंगे	-10.8263
▁ग्रेड	-10.8265
▁एम्स	-10.8265
ैया	-10.8265
▁इंड	-10.8266
▁लेट	-10.8267
▁मीना	-10.8267
आम	-10.8268
▁71	-10.8269
▁आर्ट	-10.8269
रिक्शा	-10.8273
▁अभिभावकों	-10.8275
▁बारीक	-10.8279
कालत	-10.828
▁वीके	-10.8281
03	-10.8281
ेक्टर	-10.8283
बाग	-10.8287
▁अंध	-10.8288
▁आगाज	-10.8289
▁धारक	-10.829
▁गढ़	-10.8292
▁धारण	-10.8293
▁शीट	-10.8293
▁लीला	-10.8293
सूद	-10.8294
बड़े	-10.8294
▁टेबल	-10.8297
▁O	-10.8299
▁उत्पादक	-10.83
▁कुंड	-10.83
PU	-10.831
णवी	-10.831
न्तु	-10.8312
हार्द	-10.8312
▁उज्	-10.8312
▁भंग	-10.8313
सरकार	-10.8318
▁निर्मल	-10.8322
-4	-10.8326
▁चेर	-10.833
ुत	-10.8336
▁कराते	-10.8349
▁सुलझा	-10.8351
▁चमक	-10.8354
▁हुक	-10.8355
▁पहुंचती	-10.8361
त्ता	-10.8366
▁प्राप्ति	-10.8367
ोड़ा	-10.8369
बड़	-10.8371
पीटीआई	-10.8371
दास	-10.8376
▁ब्लू	-10.8378
▁निराशा	-10.8382
रेख	-10.8383
▁लटका	-10.8389
▁पाते	-10.8394
▁माद	-10.8398
▁मैग	-10.8402
▁प्रदर्शनकार	-10.8405
गोल	-10.8407
pur	-10.8425
ुख्ता	-10.8425
डीपी	-10.8425
▁घड़	-10.8429
▁धुन	-10.8429
ंपल	-10.843
▁जोश	-10.8432
▁एसआई	-10.8433
बेट	-10.8437
▁बीके	-10.8446
▁रूपए	-10.8454
च्छा	-10.8455
ब्स	-10.8464
बाब	-10.848
राए	-10.8484
▁रणजी	-10.8485
▁कम्प	-10.8501
▁पुनर्	-10.8509
▁व्यू	-10.851
दरी	-10.8513
35	-10.8513
▁कंस	-10.8516
▁संस्थानों	-10.8518
▁पाता	-10.8524
टेबल	-10.8529
दंगल	-10.8531
▁टेक्न	-10.8534
▁लड़के	-10.8539
▁बाड़	-10.8548
▁0.	-10.8558
▁तारा	-10.8584
लेंस	-10.8584
▁गोला	-10.8586
▁मात	-10.8608
्रिय	-10.8612
लोर	-10.8614
सारी	-10.8618
▁पाना	-10.8627
▁कमरों	-10.8627
▁गढ़वा	-10.8633
▁सिंगा	-10.8634
▁खरीदा	-10.8635
▁किरण	-10.8642
▁खरी	-10.8642
▁फलों	-10.8648
▁आचार	-10.8651
जीडीपी	-10.8655
▁रण	-10.8664
▁हासन	-10.8681
्वचा	-10.8682
▁जता	-10.8686
▁मेह	-10.8688
क़्	-10.8695
▁भ्रम	-10.8696
▁महान	-10.8713
▁संपत्तिय	-10.8713
......	-10.8719
थवा	-10.873
▁मेड	-10.8741
ka	-10.8754
▁अस्त	-10.8769
शियल	-10.8782
राट	-10.8786
▁द्र	-10.8796
्ती	-10.8798
बान	-10.8799
▁बागी	-10.8837
वाण	-10.8838
▁ठहरा	-10.8855
▁वैल	-10.8857
▁स्त	-10.8862
्यर्थ	-10.8867
ैड	-10.8874
यूनिट	-10.8878
डंड	-10.8883
छित	-10.8885
▁मुम	-10.8894
नवमी	-10.8901
▁औषधि	-10.8906
ड़िया	-10.8915
▁शु	-10.893
▁छप	-10.8932
▁प्रॉ	-10.8937
लपुर	-10.8947
▁पैन	-10.8966
▁65	-10.9
▁बीए	-10.9013
रिज	-10.9024
ोटा	-10.9061
रोप	-10.907
▁बिन	-10.9081
oo	-10.9097
ाएगी	-10.9102
ायक	-10.911
िड़	-10.9111
क्ति	-10.9132
▁बहान	-10.9136
खान	-10.9149
▁वोटर	-10.915
्यास	-10.9159
▁कम्	-10.916
स्या	-10.9164
नुमा	-10.919
विन	-10.9213
▁भूख	-10.922
बंधक	-10.9238
ाणी	-10.9248
▁विश्वक	-10.9257
▁चाहत	-10.9262
▁झाड़	-10.9262
▁रंज	-10.9275
वस्था	-10.9276
फाउंड	-10.9278
ंदे	-10.9295
्ज	-10.93
रक्षक	-10.9303
ख्	-10.9303
▁खु	-10.9311
la	-10.9315
यंक	-10.9315
लिस	-10.9315
▁रिया	-10.9318
87	-10.9323
ुख्यात	-10.9324
▁पैरा	-10.933
मेन	-10.9336
फू	-10.9336
▁सीने	-10.9343
▁यूज	-10.9345
▁खिला	-10.9349
बस	-10.9356
▁यूपीए	-10.9356
93	-10.9359
ारंटी	-10.9369
रिटी	-10.9379
▁साइज	-10.9386
58	-10.9389
▁क्रि	-10.94
▁एफए	-10.9423
गौड़	-10.9439
▁कमीश	-10.9445
▁हिन्द	-10.9447
▁लाह	-10.9452
▁मराठ	-10.9453
74	-10.9454
▁तस्कर	-10.9457
ंझ	-10.9461
▁पैस	-10.9467
ैंप	-10.9477
▁राजग	-10.9481
श्री	-10.9484
ओमी	-10.9515
▁54	-10.9523
ूंगा	-10.9535
▁मोहल्ल	-10.9537
ख्त	-10.9542
▁बंगल	-10.9545
नईदुनिया	-10.9553
कुमार	-10.9556
सर्जन	-10.9556
—	-10.9556
मंद	-10.9557
J	-10.9557
निरीक्षक	-10.9558
छात्रा	-10.9559
सफाई	-10.9559
वैक्सीन	-10.9559
फोटो	-10.956
पाकिस्तान	-10.956
भाजपा	-10.956
राशि	-10.956
वर्ष	-10.956
फिल्म	-10.956
शक्ति	-10.9563
वर्ग	-10.9569
किसान	-10.9577
बरेल	-10.9578
▁गुप्त	-10.9578
ड्रा	-10.9579
बहन	-10.958
न्दर	-10.9582
बाएं	-10.9588
रिड	-10.9592
▁कमिट	-10.9599
ुति	-10.96
ानू	-10.9602
खरी	-10.9608
ावधान	-10.9615
▁सरस	-10.9616
ग्रा	-10.9622
बैक	-10.9625
चरण	-10.9627
▁इंजीनियर	-10.9629
▁भिजवा	-10.9632
लैक	-10.9632
▁नियंत्र	-10.9634
अब	-10.9635
ृष्टि	-10.9636
श्‍व	-10.9636
▁ट्रांस	-10.9637
तिहास	-10.9638
स्ट्रेलिया	-10.9638
▁रेडियो	-10.9639
नौत	-10.9639
हिन्दुस्तान	-10.9639
२	-10.9639
▁BJP	-10.9639
▁Bihar	-10.9639
▁Hindi	-10.9639
▁उदासीन	-10.9639
▁उन्नाव	-10.9639
▁उपाध्याय	-10.9639
▁कंटेस्टेंट	-10.9639
▁चोपड़ा	-10.9639
▁जबर्दस्त	-10.9639
▁टोक्यो	-10.9639
▁तमिलनाडु	-10.9639
▁ध्रुव	-10.9639
▁प्रजापति	-10.9639
▁प्रॉब्लम	-10.9639
▁प्वाइंट	-10.9639
▁फौज	-10.9639
▁मरम्मत	-10.9639
▁महाप्रबंधक	-10.9639
▁म्यांमा	-10.9639
▁यौ	-10.9639
▁वातावरण	-10.9639
▁वास्तु	-10.9639
▁शिकंजा	-10.9639
▁सहूलियत	-10.9639
▁साझेदारी	-10.9639
▁सोसायटी	-10.9639
▁सौभाग्य	-10.9639
▁हौसल	-10.9639
Tech	-10.9639
प्लेटफार्म	-10.9639
७	-10.9639
▁अकादम	-10.9639
▁एमजीएम	-10.9639
▁कस्टमर	-10.9639
▁तबादला	-10.9639
▁देखभाल	-10.9639
▁मलेशिया	-10.9639
▁मुखर्जी	-10.9639
▁शैक्षणिक	-10.9639
▁समन्वय	-10.9639
▁अपोलो	-10.9639
▁आंध्र	-10.9639
▁उदयपुर	-10.9639
▁कुशवाहा	-10.9639
▁दिग्	-10.9639
▁दुमका	-10.9639
▁मछलिय	-10.9639
▁रघु	-10.9639
▁सौगात	-10.9639
▁इमारत	-10.9639
▁ट्रायल	-10.9639
▁तृतीय	-10.9639
▁माओवाद	-10.9639
▁संन्यास	-10.9639
▁पत्थर	-10.9639
▁लैश	-10.9639
▁सेनेटाइज	-10.9639
▁हिमालय	-10.9639
▁चुनौतिय	-10.9639
▁पुतला	-10.9639
▁फ्रेंच	-10.9639
▁बंटवार	-10.9639
▁बाधित	-10.9639
▁कार्यभार	-10.9639
▁पिस्टल	-10.9639
▁वर्चुअल	-10.9639
लॉजिस्ट	-10.9639
▁विदाई	-10.9639
▁संस्थापक	-10.9639
▁स्पोर्ट	-10.9639
▁चश्म	-10.9639
▁दायित्व	-10.9639
▁फायदेमंद	-10.9639
ालिब	-10.9639
▁प्रताड़	-10.9639
▁मुन्ना	-10.9639
▁निम्न	-10.9639
▁हरिद्वार	-10.9639
वैधानिक	-10.9639
▁सतर्क	-10.9639
▁झुलस	-10.9639
▁मल्ह	-10.9639
ment	-10.9639
ल्‍ड	-10.9639
▁Crea	-10.964
▁मिसाइल	-10.964
▁शिशु	-10.964
▁टेलि	-10.964
▁पेशेवर	-10.964
▁उत्कृष्ट	-10.964
▁पतंग	-10.964
▁फुटबॉल	-10.964
▁सैमस	-10.964
▁झलक	-10.964
▁सजावट	-10.964
▁जींद	-10.964
▁कयास	-10.964
▁नॉन	-10.964
ंतरिक	-10.964
▁तुला	-10.964
▁पौधा	-10.964
▁तोड़फोड़	-10.964
▁पुनर्वास	-10.964
▁अन्यथा	-10.964
▁नवाब	-10.964
▁चमत्कार	-10.964
▁ब्लाक	-10.964
▁अफवाह	-10.964
▁हेल्प	-10.964
ाइफल	-10.9641
▁रुद्र	-10.9641
▁सिलि	-10.9641
▁अंचल	-10.9641
▁अश्विन	-10.9641
▁फेडर	-10.9641
▁जनजात	-10.9641
▁उन्नत	-10.9641
▁ट्रांज	-10.9641
▁भुवन	-10.9641
▁समापन	-10.9641
▁मुहिम	-10.9641
▁क्लिप	-10.9641
▁कर्मवीर	-10.9641
▁चतुर्थ	-10.9642
▁8.30	-10.9642
▁गावस्	-10.9642
▁विश्‍व	-10.9642
▁समाजसेव	-10.9642
▁डिब्ब	-10.9642
▁संतुल	-10.9642
▁टैबल	-10.9642
▁जेएन	-10.9642
▁सूख	-10.9642
ायण	-10.9642
▁खिलाड	-10.9642
▁जामुन	-10.9643
विलंब	-10.9643
▁सिक्क	-10.9643
▁बेल्ट	-10.9643
▁कनेक्ट	-10.9643
▁वर्जन	-10.9643
▁झेलन	-10.9643
एडीएम	-10.9643
▁वरीय	-10.9643
▁जेटली	-10.9644
▁दाव	-10.9644
▁गुरुग्राम	-10.9644
▁कलीम	-10.9644
▁स्पिन	-10.9644
▁कैप्शन	-10.9644
▁सम्बंध	-10.9644
54	-10.9644
▁प्लाजा	-10.9644
▁सर्कि	-10.9645
▁कैम्प	-10.9645
▁फ्लैट	-10.9646
▁सुराग	-10.9646
▁१	-10.9647
▁राष्‍ट्र	-10.9647
▁कूड़	-10.9647
▁ठहराया	-10.9647
वेन्यू	-10.9647
ोत्रा	-10.9647
ci	-10.9648
▁अलवर	-10.9648
▁रायगढ़	-10.9648
▁आमदन	-10.9648
▁गरम	-10.9649
▁दंपत	-10.9649
▁वैध	-10.9649
▁बोल्ड	-10.965
▁पेमेंट	-10.9653
▁राजकीय	-10.9653
ाइंड	-10.9653
▁सन्	-10.9654
▁एमबी	-10.9654
▁टाइप	-10.9654
▁अनुदान	-10.9654
▁रखेंगे	-10.9655
▁सलीम	-10.9655
▁5,000	-10.9656
▁चलेगी	-10.9657
खपत	-10.9658
▁मलिक	-10.9658
▁पीढ़	-10.9658
▁गाड़ियां	-10.9659
▁संग्रह	-10.9659
▁सुनाया	-10.966
शरीफ	-10.9661
▁रतन	-10.9661
▁राज्‍य	-10.9663
▁स्वयंसेवक	-10.9663
▁फांस	-10.9663
▁महेंद्र	-10.9665
▁विकासखंड	-10.9665
▁अब्ब	-10.9668
▁पाएगी	-10.9668
▁डेवि	-10.9669
▁बाह	-10.967
▁प्लेस	-10.9671
ाइल	-10.9674
ndr	-10.9675
▁सिद्द	-10.9678
▁मोड	-10.9678
▁रियल	-10.9678
▁मायाव	-10.9678
▁आकाश	-10.9679
▁राधा	-10.9679
▁मैप	-10.9679
म्पल	-10.968
▁नायर	-10.968
▁दिलाई	-10.9681
▁पर्वत	-10.9684
▁फड	-10.9685
▁एजेंड	-10.9688
31	-10.9688
▁रहमान	-10.9689
दूषित	-10.9689
▁उधार	-10.9691
▁लकी	-10.9692
▁सट्ट	-10.9692
▁सिंगर	-10.9693
▁अस्थ	-10.9694
▁दिखाते	-10.9695
▁करूंगा	-10.9696
▁गुड़	-10.9696
पीआर	-10.9697
▁उपलब्धि	-10.9701
▁सुप	-10.9704
▁रहाणे	-10.9706
▁पेंट	-10.9709
ck	-10.9712
▁शुद्ध	-10.9714
▁अनोख	-10.9717
▁अल्प	-10.9723
शील्ड	-10.9723
▁अभियोज	-10.9724
▁ट्रेनें	-10.9729
▁सारण	-10.9733
▁बैल	-10.9738
▁मूवी	-10.9741
▁फाइल	-10.9743
▁मोहल्ला	-10.9743
सिटी	-10.9744
▁टेस्टिंग	-10.9745
▁जिम	-10.9745
हमार	-10.975
▁चेंज	-10.9752
▁विष	-10.9758
▁उठाई	-10.9761
▁सहयोगियों	-10.9764
▁कुंज	-10.9765
स्पेक्ट	-10.9766
धारण	-10.9766
▁अकेली	-10.9772
▁कुं	-10.9774
▁सहारा	-10.9776
▁जेब	-10.9776
धिकारियों	-10.978
जिन	-10.978
▁तेज़	-10.9781
,500	-10.9786
▁मॉल	-10.9788
▁एसए	-10.9788
एनसीआर	-10.9798
▁धो	-10.9806
पीएम	-10.9806
▁लाई	-10.9809
रोवर	-10.9809
ाकृति	-10.9818
ोनिया	-10.9822
▁हिन्दी	-10.9826
▁पापा	-10.9827
▁मराठी	-10.9829
▁रंजन	-10.9832
▁इले	-10.9832
▁आजमा	-10.9837
कभी	-10.9837
ाचार्य	-10.9839
▁हिल	-10.9846
▁अंबा	-10.9852
▁मदरस	-10.9853
ांठ	-10.9854
▁असह	-10.9858
ov	-10.9862
▁राष्ट्रवाद	-10.9868
▁मलब	-10.9869
▁नहा	-10.987
live	-10.987
▁हक	-10.9875
’’	-10.9881
धारा	-10.9881
▁परमार	-10.9884
▁सत्या	-10.9886
▁सौप	-10.9889
▁तू	-10.9895
नागौर	-10.9908
▁तीस	-10.9909
▁खां	-10.9912
▁थ्र	-10.9914
▁सुधारने	-10.9928
▁लहरा	-10.9929
▁आड	-10.993
▁मध्यम	-10.993
आरसी	-10.993
▁घंटा	-10.9936
शस्त्र	-10.9946
▁पहाड़ी	-10.9947
▁कॉन्ट	-10.9948
थै	-10.9949
ह्मण	-10.9951
▁सीता	-10.9955
▁गाज	-10.997
टेड	-10.9983
ीफा	-10.9986
लेंडर	-10.9993
▁साधन	-10.9995
डो	-10.9998
▁विस्त	-10.9999
▁खाता	-11.0001
म्बे	-11.0001
ीआरपी	-11.0007
फ़ोन	-11.001
▁एनपी	-11.0025
▁आर्	-11.0028
▁ऋष	-11.0062
▁पार्टिय	-11.0076
▁देसी	-11.0077
▁निर्म	-11.0081
▁ग्रह	-11.0091
बरा	-11.0095
वेर	-11.0099
▁सरल	-11.0109
तड़प	-11.0113
▁निशा	-11.0145
-10	-11.0173
▁रैन	-11.0181
रदार	-11.0184
▁गोप	-11.0194
▁मनमा	-11.0205
67	-11.0225
▁ईशा	-11.0231
▁शॉ	-11.0237
नामा	-11.0253
आईसी	-11.0253
▁व्‍य	-11.0258
▁यूट	-11.0259
▁सोचत	-11.0266
▁2.5	-11.0269
▁आब	-11.0271
▁आजीव	-11.0304
▁देवग	-11.0305
फोर्	-11.0308
▁बरतन	-11.0311
साद	-11.0324
डीआर	-11.0329
पूत	-11.0329
ुहान	-11.034
डीज	-11.0347
▁83	-11.0352
▁बढ़ेग	-11.0357
▁श्	-11.0359
.30	-11.0361
सफल	-11.0369
इये	-11.0376
▁बाप	-11.0384
ोही	-11.0404
घे	-11.0405
ाईं	-11.044
▁प्रोट	-11.0442
संत	-11.0449
्ध	-11.0457
आप	-11.0458
▁हथ	-11.0464
बिन	-11.0469
भिष	-11.0476
.45	-11.0486
2006	-11.049
लोहिया	-11.0492
अर्	-11.052
ूचि	-11.0539
12	-11.0551
02	-11.0567
र्ब	-11.0568
▁गोग	-11.0595
▁बिज	-11.0595
63	-11.0628
पीएन	-11.0631
मानस	-11.0645
हिता	-11.0655
▁गला	-11.0671
▁इल	-11.0672
▁वाई	-11.0675
▁66	-11.0691
बाद	-11.0694
खल	-11.0699
▁टॉर	-11.075
▁उपयुक्	-11.0782
▁58	-11.08
प्रिय	-11.0844
vi	-11.0851
शाही	-11.0864
ंद्रा	-11.0879
्रीमिय	-11.0881
टीओ	-11.0897
बाड़	-11.0923
मोहन	-11.0948
च्छ	-11.0953
ल्या	-11.0958
ुग्ग	-11.0992
▁दमकल	-11.0993
▁श्र	-11.0995
स्त्र	-11.1012
▁रिल	-11.1017
ion	-11.1022
up	-11.1028
इड	-11.1058
▁आक्र	-11.1079
सीबी	-11.1096
▁देवता	-11.1115
▁जीएम	-11.1116
इंट	-11.1117
▁सीरिया	-11.1122
रात्रि	-11.1128
रिमा	-11.1128
▁बरा	-11.1137
▁जयंत	-11.1143
▁सावधान	-11.1158
पुल	-11.1175
▁गाइडलाइ	-11.1177
▁पैट	-11.119
ांति	-11.1193
▁चौराह	-11.1206
▁अफ्रीक	-11.1206
▁नाय	-11.1207
फेर	-11.1209
▁चर्च	-11.121
‌	-11.1214
नारायण	-11.1223
बहादुर	-11.1224
अंदाज	-11.1225
वार्ता	-11.1226
अमेरिका	-11.1226
–	-11.1226
मुंबई	-11.1226
2002	-11.1231
गैर	-11.1235
फायर	-11.1236
खूब	-11.1237
पालिका	-11.1241
अगर	-11.1244
▁स्क्व	-11.1244
पार्ट	-11.1246
▁छि	-11.1246
जोल	-11.1258
▁आनन	-11.126
▁प्रशंस	-11.1279
▁स्वयंसेव	-11.1279
▁कमांड	-11.1281
ाइबर	-11.1287
गिर	-11.1292
▁रिश्	-11.1293
द्घ	-11.1297
▁संभाव	-11.1299
कांड	-11.1299
▁सुल्तान	-11.13
मूला	-11.1302
▁मधुर	-11.1303
▁चतुर्	-11.1303
ट्ठ	-11.1303
पौध	-11.1304
▁मुजफ्फर	-11.1304
▁शौक	-11.1305
▁पंजीक	-11.1305
▁प्रतिष्ठ	-11.1305
▁क्षति	-11.1306
dia	-11.1306
द्वीप	-11.1306
▁सेलिब्र	-11.1306
▁उज्जैन	-11.1306
▁बास्केटब	-11.1306
▁मानचित्र	-11.1306
▁वृंदा	-11.1306
Photo	-11.1306
X	-11.1306
_	-11.1306
िष्कार	-11.1306
▁Chart	-11.1306
▁Late	-11.1306
▁More	-11.1306
▁अगुवा	-11.1306
▁अप्लाई	-11.1306
▁इकट्ठ	-11.1306
▁इस्राईल	-11.1306
▁उपविजेता	-11.1306
▁एक्सरसाइज	-11.1306
▁एग्जाम	-11.1306
▁ओबामा	-11.1306
▁कम्युनिस्ट	-11.1306
▁कृप	-11.1306
▁कोलेस्ट्र	-11.1306
▁ख्वाब	-11.1306
▁जालंधर	-11.1306
▁जौहर	-11.1306
▁टिप्पणी	-11.1306
▁पदोन्नत	-11.1306
▁पाण्डेय	-11.1306
▁प्रोड्यूस	-11.1306
▁फैक्ट्रिय	-11.1306
▁बहरहाल	-11.1306
▁बहराइच	-11.1306
▁बीसीसीआई	-11.1306
▁भूमिपूजन	-11.1306
▁मृद	-11.1306
▁शुभकामनाएं	-11.1306
▁श्मशान	-11.1306
▁समृद्ध	-11.1306
▁स्टोक्स	-11.1306
▁हल्दी	-11.1306
🔊	-11.1306
सीतामढ़ी	-11.1306
▁इन्वेस्ट	-11.1306
▁नक्श	-11.1306
▁बिजनौर	-11.1306
▁लड्डू	-11.1306
▁सम्पत्ति	-11.1306
▁सैलून	-11.1306
▁एसएमएस	-11.1306
▁जिहाद	-11.1306
▁डिलीवर	-11.1306
▁रिस्पांस	-11.1306
▁अभिव्यक्त	-11.1306
▁कार्डधारक	-11.1306
▁कैलोरी	-11.1306
▁दहेज	-11.1306
▁पिछड़	-11.1306
▁मेडिसिन	-11.1306
▁सुधीर	-11.1306
▁हलफनाम	-11.1306
▁गड़बड़ी	-11.1306
▁तेंदु	-11.1306
▁मुकदमे	-11.1306
▁वेरिफिकेशन	-11.1306
▁जैश	-11.1306
▁प्याज	-11.1306
▁सरेंडर	-11.1306
JEE	-11.1306
▁आमंत्र	-11.1306
▁यकीन	-11.1306
▁सेक्रेटरी	-11.1306
▁कुल्ह	-11.1306
▁कंडीशन	-11.1306
टाउन	-11.1306
पलामू	-11.1306
वक्‍त	-11.1306
▁खिताब	-11.1306
▁छुट्टिय	-11.1306
▁डिमरी	-11.1306
▁फटकार	-11.1306
ज्वल	-11.1306
▁हस्तांतर	-11.1306
▁मातृ	-11.1306
▁थाईलैंड	-11.1306
▁पत्‍	-11.1306
nsiv	-11.1306
डब्ल्यूएचओ	-11.1306
▁रोमांच	-11.1306
▁जॉब	-11.1306
▁टंडन	-11.1306
▁गलियार	-11.1306
▁देओल	-11.1306
▁स्टील	-11.1306
▁आशु	-11.1306
▁पॉपुल	-11.1306
▁आज़ाद	-11.1306
▁भरोसे	-11.1306
▁प्राप्‍त	-11.1306
▁अतुल	-11.1306
एसबीआई	-11.1306
▁वासु	-11.1306
▁मधुबन	-11.1306
1990	-11.1306
▁न्‍याय	-11.1306
विंदर	-11.1307
▁भ्रष्ट	-11.1307
▁ढांच	-11.1307
▁विंडो	-11.1307
uni	-11.1307
▁आपातकाल	-11.1307
▁नॉर्थ	-11.1307
▁प्रजाति	-11.1307
▁साक्षी	-11.1307
▁सजग	-11.1307
▁स्वीड	-11.1307
▁अनुशासन	-11.1307
▁पंख	-11.1307
▁सिनेमाघर	-11.1307
▁आइडल	-11.1307
▁कठोर	-11.1307
▁काबुल	-11.1307
▁सर्टिफिकेट	-11.1307
▁श्वेत	-11.1307
▁घबरा	-11.1307
डिवीजन	-11.1307
▁परामर्श	-11.1307
▁सईद	-11.1308
▁प्रयोगशाला	-11.1308
▁लाभदायक	-11.1308
▁देशभक्त	-11.1308
▁लूटपाट	-11.1308
▁बुलेट	-11.1308
▁सरिता	-11.1308
▁चिकन	-11.1308
आईआईटी	-11.1308
▁स्पेन	-11.1308
▁प्रारूप	-11.1308
▁शरणार्थ	-11.1308
▁निकट	-11.1308
▁अंकुश	-11.1308
▁कुल्लू	-11.1308
▁इर्द	-11.1308
▁सिंघ	-11.1308
▁07	-11.1308
▁कैपिटल	-11.1308
▁जरुर	-11.1309
▁म्यूजि	-11.1309
▁संतान	-11.1309
▁बटोर	-11.1309
▁Tr	-11.1309
▁अलमार	-11.1309
ub	-11.1309
ॉलेज	-11.1309
▁घोष	-11.1309
▁निगाह	-11.1309
▁साक्ष्य	-11.1309
▁स्पेस	-11.1309
▁वारिस	-11.131
▁ज्योतिष	-11.131
▁उपयोगकर्ता	-11.131
▁वारियर	-11.131
▁प्रोफेशनल	-11.131
▁बुलंद	-11.131
▁शिकायतकर्ता	-11.131
जिंक	-11.1311
▁ईपीएफ	-11.1311
▁प्रोडक्शन	-11.1311
▁पैकेज	-11.1312
▁सचेत	-11.1312
▁संवर्ध	-11.1313
दौर	-11.1313
▁विवे	-11.1313
ोत्तर	-11.1314
▁प्रोमो	-11.1314
▁अनजान	-11.1314
ब्ध	-11.1314
▁लद्दाख	-11.1315
▁Google	-11.1315
▁गाजियाबाद	-11.1315
▁बीयर	-11.1316
▁क्‍ल	-11.1316
▁संयोग	-11.1316
▁चूह	-11.1317
▁नजार	-11.1318
ाइपर	-11.1318
प्रतीक्ष	-11.1318
▁दशा	-11.1319
▁रिव्य	-11.1319
▁मुर्म	-11.132
▁सरव	-11.132
▁कुलपति	-11.132
▁महादेव	-11.1321
▁एमपी	-11.1321
▁लिपिक	-11.1321
▁जेएस	-11.1322
थानी	-11.1322
▁नवाज	-11.1323
▁राजदू	-11.1323
▁रावण	-11.1324
कल्पि	-11.1324
▁आरक्षक	-11.1324
▁डेयर	-11.1325
mor	-11.1325
▁सब्जियां	-11.1326
▁नौकरियां	-11.1326
▁बाइड	-11.1326
▁महानगर	-11.1327
ja	-11.1327
▁हमलावर	-11.1327
▁एचए	-11.1327
▁फ्लू	-11.1329
▁चीज़	-11.1329
▁बालिका	-11.1329
▁डीवी	-11.133
▁राजनेता	-11.133
83	-11.1333
▁तेव	-11.1334
▁रज्ज	-11.1334
▁तंज	-11.1335
▁भावनाओं	-11.1335
▁फौर	-11.1335
▁ठप	-11.1336
▁बेटियां	-11.1336
▁ईस्ट	-11.1337
▁गहराई	-11.1338
▁नौका	-11.1338
▁तीख	-11.1339
▁रामपाल	-11.1339
▁सूजन	-11.1339
▁रेग	-11.134
▁वर्ण	-11.1341
▁सैनी	-11.1342
▁मुश्	-11.1343
▁दावत	-11.1344
▁भोल	-11.1344
▁पीयू	-11.1344
▁एसएस	-11.1345
▁जानवर	-11.1345
▁विराज	-11.1347
▁पत्रिका	-11.1348
▁फील्डर	-11.1348
▁दक्ष	-11.1349
▁टाइट	-11.1349
फोड़	-11.1349
▁बनेंगे	-11.135
▁बनेगा	-11.135
▁मेडल	-11.135
▁आॅ	-11.135
500	-11.135
Inte	-11.1352
▁एआर	-11.1352
मंजस	-11.1353
▁देखेंगे	-11.1354
▁समानता	-11.1355
▁टीएस	-11.1356
▁जेई	-11.1356
▁लड़कियां	-11.1357
▁क्लीनिक	-11.1357
▁बत्र	-11.1361
▁@	-11.1361
▁India	-11.1361
▁दंत	-11.1364
▁खाया	-11.1364
▁साइ	-11.1364
▁मुका	-11.1367
100	-11.137
▁तमंचे	-11.1372
▁ग्रो	-11.1373
खड़	-11.1377
ेमडे	-11.1377
▁रीजन	-11.1378
ेप्ट	-11.138
▁चाहने	-11.1381
ावली	-11.1382
म्म	-11.1382
ंदी	-11.1382
▁मुताबिक़	-11.1383
▁रिजव	-11.1385
ओएस	-11.1386
▁सवाई	-11.1388
▁उबर	-11.1389
▁कठ	-11.139
▁मिथ	-11.1392
▁‌	-11.1393
▁डीएन	-11.1396
▁लेब	-11.1396
MS	-11.1396
▁आपात	-11.1397
ीडीसी	-11.1399
▁साड़ी	-11.1399
बादशाह	-11.1401
▁बाघ	-11.1401
पोस्ट	-11.1402
▁एयरलाइ	-11.1402
▁खि	-11.1403
नातन	-11.1403
▁डीआर	-11.141
▁नईदुनिया	-11.1413
▁देहा	-11.1413
ूमत	-11.1415
▁सिड	-11.1426
▁फर्स्	-11.1427
▁दरिया	-11.1427
▁डालें	-11.143
▁बंगला	-11.1431
ंजय	-11.1435
▁ग्राफ	-11.144
▁जेट	-11.1441
र्मल	-11.1442
▁फेज	-11.1444
▁पालक	-11.1444
Me	-11.1446
▁ब्रे	-11.1454
▁साधना	-11.1455
▁चैट	-11.1455
▁अप्र	-11.1456
सुश्री	-11.1463
▁भार	-11.1464
▁नरम	-11.1465
इंद्रजीत	-11.1466
▁बताएं	-11.1467
▁झंडा	-11.1469
▁हैंडल	-11.1478
▁बर्त	-11.1486
निवास	-11.1494
▁आटा	-11.1496
▁मानद	-11.1496
दयाल	-11.1498
-8	-11.1503
▁Re	-11.1503
▁डील	-11.1504
कुंभ	-11.1505
▁परफॉर्म	-11.1513
▁सत्तार	-11.1515
अव	-11.1528
वॉर्न	-11.1536
▁कसर	-11.1539
75	-11.155
▁प्रको	-11.155
ज्म	-11.1557
▁हाँ	-11.1557
▁बैन	-11.1559
एनएम	-11.1562
▁काउंटर	-11.1569
मिया	-11.1572
33	-11.1576
एफएओ	-11.1581
रसन	-11.1588
▁प्राधिकार	-11.1593
▁पहुंचते	-11.1599
हिंद	-11.1606
वेस्ट	-11.1614
▁Co	-11.1616
्रिक	-11.1619
मऊ	-11.1628
▁जेड	-11.1631
▁खज	-11.1645
▁जाओ	-11.1652
▁प्राण	-11.1661
▁बब	-11.1661
06	-11.1667
▁युक्त	-11.1683
▁मीरा	-11.1684
▁टोक	-11.1685
्रीज	-11.1698
▁शील	-11.1702
पात	-11.1705
▁चलाए	-11.1708
▁लिंग	-11.1708
▁खोद	-11.1749
दादी	-11.1749
▁आसार	-11.1753
▁41	-11.1759
न्‍न	-11.176
परिक	-11.1796
▁व्यस्	-11.1798
ुपयोग	-11.18
र्द्ध	-11.18
ंजीत	-11.1801
.60	-11.1815
डाल	-11.184
▁चक्रव	-11.1848
▁दोहर	-11.1852
रोग्य	-11.1852
to	-11.1878
सिम	-11.1887
▁नवनिर्	-11.1887
▁दब	-11.1898
्टन	-11.1906
एगा	-11.1915
160	-11.1924
प्रद	-11.1939
▁लल्ल	-11.1954
▁म्यू	-11.1968
▁अधूर	-11.1971
▁शायर	-11.1981
ओले	-11.1981
लाह	-11.1983
▁नीलम	-11.1992
▁आइस	-11.2004
▁पाबंद	-11.2011
स्ट्रो	-11.2012
्दे	-11.2015
हनन	-11.2018
.25	-11.2024
ुझा	-11.2026
स्टॉक	-11.2032
▁पैं	-11.2085
▁डेल	-11.2085
4)	-11.2103
शियन	-11.2109
एएफ	-11.2122
▁पलक	-11.2123
थिय	-11.2132
▁निजाम	-11.2144
▁मंग	-11.2156
▁बुल	-11.2159
▁इट	-11.2164
▁Cha	-11.218
ईटी	-11.2181
▁उभरत	-11.2198
▁आयुष	-11.2198
शाद	-11.2207
▁हव	-11.2218
ंगण	-11.2226
पात्र	-11.225
Al	-11.2255
ाश्त	-11.2258
▁350	-11.2274
ul	-11.2275
चढ़ाव	-11.228
ैला	-11.2297
▁ठहर	-11.2319
▁आयुष्	-11.2323
ुलाई	-11.234
वेट	-11.2348
ge	-11.2352
▁उभर	-11.2354
▁रोस	-11.2358
1996	-11.2359
da	-11.2366
▁सीपी	-11.2376
▁मैरि	-11.2383
▁निजा	-11.2397
ाएगा	-11.241
हाल	-11.2448
▁Ka	-11.2461
▁सहज	-11.2473
▁130	-11.2497
र्ती	-11.2522
लांस	-11.2531
▁आभा	-11.2533
‍का	-11.2537
न्नू	-11.2574
ैसी	-11.2574
▁आईड	-11.2577
आरटी	-11.2587
दिय	-11.2613
▁एशिय	-11.2615
▁मुहा	-11.2623
ाइजर	-11.2634
श्वस्त	-11.2635
हर्षि	-11.2664
▁यूनि	-11.2671
ाजपे	-11.2689
▁ईड	-11.2692
▁बबु	-11.2702
ध्वज	-11.2704
▁चक्र	-11.2706
2-1	-11.2712
▁आईपीए	-11.2718
▁अम्	-11.272
्वेज	-11.2727
ly	-11.2738
▁तड़	-11.2748
▁हिन	-11.2748
▁120	-11.2767
▁टूर	-11.2792
▁ओव	-11.2881
म्प्ल	-11.2891
एमयू	-11.2893
दरबार	-11.2897
योजन	-11.29
जिट	-11.2901
बहार	-11.2903
रगुजा	-11.2913
▁फुटव	-11.2933
जाता	-11.2955
सेवक	-11.2959
श्मि	-11.2964
सीआर	-11.2976
▁103	-11.2991
▁39	-11.2992
▁दिखाए	-11.3002
▁एक्सप	-11.3008
▁197	-11.301
डिंग	-11.3015
▁अकेल	-11.3018
जीवी	-11.302
▁लटक	-11.3025
दायक	-11.303
53	-11.3067
इल	-11.307
▁हिस्स	-11.3074
▁1500	-11.3093
▁चिन्	-11.3099
▁53	-11.3112
डोना	-11.3112
7.5	-11.312
निर्भर	-11.3122
सीएच	-11.3137
मोट	-11.3138
▁निच	-11.3147
▁700	-11.3158
▁प्रभार	-11.3163
धिक	-11.3165
▁इंडिय	-11.3165
क्टर	-11.3173
जमी	-11.3175
गुरु	-11.3185
▁मैट	-11.3185
▁प्रभा	-11.3191
▁प्रतिबद्ध	-11.3201
▁अलाव	-11.3218
घंटा	-11.3221
दुनिया	-11.3223
व्यवहार	-11.3225
आउट	-11.3225
प्रताप	-11.3225
सामाजिक	-11.3226
वैसे	-11.3226
छोटे	-11.3226
सुविधा	-11.3226
कोविड	-11.3226
▁हिंस	-11.3227
जैसे	-11.3227
▁फाइनें	-11.3227
शेख	-11.3227
▁नप	-11.3228
PM	-11.3228
बदल	-11.3228
ग्रेड	-11.323
▁IS	-11.323
धीरे	-11.3232
लेकिन	-11.3234
स्थायी	-11.3234
ऑफ	-11.3235
विदेश	-11.3235
मार्क	-11.324
जेपी	-11.3242
्यूशन	-11.3245
पहल	-11.3248
▁क्लीन	-11.3248
बिहार	-11.325
▁रेस	-11.3255
▁संशोध	-11.3257
▁गाव	-11.3259
विध	-11.3261
बॉल	-11.3267
आईएम	-11.3269
2000	-11.3271
पंच	-11.3276
▁आइपीए	-11.3281
ंविधान	-11.3283
▁उग्र	-11.3285
ओवर	-11.3288
आरती	-11.329
▁विक्रेता	-11.3292
दित्य	-11.3293
मेकर	-11.3294
पोत	-11.3294
▁दुष्	-11.3294
कुश	-11.3296
▁पुरस्क	-11.3298
▁बाय	-11.3299
तोष	-11.3301
नायक	-11.3302
▁राठौ	-11.3304
z	-11.3305
र्फ	-11.3305
ou	-11.3305
▁विद्या	-11.3305
नाइटेड	-11.3305
▁फायदे	-11.3306
▁द्वि	-11.3306
▁लखन	-11.3306
▁ज्वैलर	-11.3306
▁लैंस	-11.3306
▁शैक्ष	-11.3306
]	-11.3306
odi	-11.3306
तेलुगु	-11.3306
राकांपा	-11.3306
सिक्योरिटी	-11.3306
५	-11.3306
‌र्ट्स	-11.3306
▁,‘‘	-11.3306
▁अर्धशतक	-11.3306
▁इंटरफेस	-11.3306
▁इकलौत	-11.3306
▁उज्जवल	-11.3306
▁ऑलराउंडर	-11.3306
▁कुरैशी	-11.3306
▁ख्वाहिश	-11.3306
▁गुनगुन	-11.3306
▁घमासान	-11.3306
▁घुसपैठ	-11.3306
▁जिम्मेवारी	-11.3306
▁ट्रिब्य	-11.3306
▁डलहौजी	-11.3306
▁दुष्प्रभाव	-11.3306
▁दृढ़	-11.3306
▁धोखाधड़ी	-11.3306
▁नीदरलैंड	-11.3306
▁नैनीताल	-11.3306
▁न्यूक्लिय	-11.3306
▁पर्यवेक्षक	-11.3306
▁पादुकोण	-11.3306
▁पुस्तिका	-11.3306
▁प्रेसिडेंट	-11.3306
▁फर्नीचर	-11.3306
▁फैक्ट्री	-11.3306
▁बृहस्पति	-11.3306
▁ब्रिगेड	-11.3306
▁भिक्षु	-11.3306
▁भौतिक	-11.3306
▁मतभेद	-11.3306
▁महत्वाकांक्ष	-11.3306
▁मिर्जापुर	-11.3306
▁मुम्बई	-11.3306
▁मैक्सिको	-11.3306
▁रेस्टोरेंट	-11.3306
▁वाशिंगटन	-11.3306
▁विस्फोट	-11.3306
▁वैकेंसी	-11.3306
▁सब्जेक्ट	-11.3306
▁स्कॉर्पियो	-11.3306
▁स्टंप	-11.3306
▁स्टूडियो	-11.3306
▁हल्द्वानी	-11.3306
▁हाजिर	-11.3306
▁हुसैन	-11.3306
▁होमगार्ड	-11.3306
▁होशंगाबाद	-11.3306
news	-11.3306
▁क्वार्टर	-11.3306
▁ख़र्च	-11.3306
▁गंतव्य	-11.3306
▁चरमपंथ	-11.3306
▁निमोनिया	-11.3306
▁नियामक	-11.3306
▁पुर्तगाल	-11.3306
▁फिरोजपुर	-11.3306
▁फूंक	-11.3306
▁फॉर्मूला	-11.3306
▁बुनियाद	-11.3306
▁मध्‍य	-11.3306
▁महमूद	-11.3306
▁मुफ़्त	-11.3306
▁मुहम्मद	-11.3306
▁वामपंथ	-11.3306
▁सस्पेंड	-11.3306
▁सौंदर्य	-11.3306
▁हाथापाई	-11.3306
▁हानिकारक	-11.3306
अमेठी	-11.3306
चिह्न	-11.3306
ीर्ण	-11.3306
▁Pro	-11.3306
▁bha	-11.3306
▁उछाल	-11.3306
▁उर्दू	-11.3306
▁तेलंगाना	-11.3306
▁देशद्रोह	-11.3306
▁जागरुक	-11.3306
▁बदबू	-11.3306
▁बाज़ार	-11.3306
▁ब्योर	-11.3306
▁ब्रह्म	-11.3306
▁रोचक	-11.3306
▁लुटेर	-11.3306
असिस्टेंट	-11.3306
▁गूंज	-11.3306
▁धुआं	-11.3306
▁निरोधक	-11.3306
▁मुख्‍य	-11.3306
▁शॉपिंग	-11.3306
App	-11.3306
▁अख्तर	-11.3306
▁एकेडमी	-11.3306
▁डैम	-11.3306
▁भाकपा	-11.3306
▁संपाद	-11.3306
▁सडक़	-11.3306
▁साबुन	-11.3306
▁जुकाम	-11.3306
▁संरचना	-11.3306
▁चंबा	-11.3306
▁पाइप	-11.3306
▁विवरण	-11.3306
▁अस्थिर	-11.3306
▁वरुण	-11.3306
▁चंचल	-11.3306
▁बागपत	-11.3306
▁हिसार	-11.3306
▁उधम	-11.3306
▁मीठा	-11.3306
▁भिंड	-11.3306
▁सभ्य	-11.3306
▁पाटीदार	-11.3306
▁रहस्य	-11.3306
▁मांझी	-11.3306
▁इजिप्	-11.3306
▁संचय	-11.3306
▁चप्पे	-11.3306
आरजेडी	-11.3306
थौरा	-11.3306
▁तेजस्वी	-11.3306
▁पणजी	-11.3306
▁हिस्सेदारी	-11.3306
▁निशानेबाज	-11.3306
▁फरियाद	-11.3306
▁बीएससी	-11.3306
▁मैथ्यू	-11.3306
सिवि	-11.3306
▁पंथ	-11.3306
▁दहला	-11.3306
raj	-11.3306
▁सम्बन्ध	-11.3306
▁प्रणव	-11.3306
▁प्रदेशाध्यक्ष	-11.3306
▁पूनम	-11.3306
▁इवेंट	-11.3306
▁खिसक	-11.3306
▁बैक्टीरिया	-11.3306
▁जावेद	-11.3306
▁तीर्थ	-11.3306
▁पानीपत	-11.3306
▁क्षतिग्रस्त	-11.3306
act	-11.3306
▁उनियाल	-11.3306
▁ब्राउज	-11.3307
▁अफरात	-11.3307
▁अवतार	-11.3307
▁ऑप्श	-11.3307
मिंट	-11.3307
▁कन्हैया	-11.3307
कीर्तन	-11.3307
▁अत्याचार	-11.3307
▁क्लाइमे	-11.3307
▁तिहा	-11.3307
▁यूज़र	-11.3307
▁सूबे	-11.3307
▁कारागार	-11.3307
▁स्लाइड	-11.3307
▁स्टीव	-11.3307
▁चैंबर	-11.3307
▁सलेम	-11.3307
▁कांफ्रेंस	-11.3307
▁बोनस	-11.3307
क्ष्म	-11.3307
▁आर्टिस्ट	-11.3307
▁गोपनीय	-11.3307
▁गणराज्य	-11.3307
▁लंका	-11.3307
▁रविंद्र	-11.3307
▁तमिल	-11.3307
▁अजीब	-11.3307
▁पुस्तकालय	-11.3307
▁इनोवे	-11.3307
▁स्नेह	-11.3307
▁टिप्स	-11.3307
▁पेनल	-11.3307
▁कारीगर	-11.3307
सॉफ्ट	-11.3307
▁स्कीम	-11.3307
▁स्कैन	-11.3307
▁गमेती	-11.3307
▁On	-11.3307
▁ब्रिज	-11.3307
▁आरबीआई	-11.3307
85	-11.3308
▁स्पीकर	-11.3308
▁गुड्ड	-11.3308
▁सिक्किम	-11.3308
र्तिक	-11.3308
PUR	-11.3308
▁बुरहान	-11.3308
▁तिलक	-11.3308
ंथन	-11.3308
▁डिटेल	-11.3308
एनजीटी	-11.3309
▁पार्टनर	-11.3309
▁परसेंट	-11.3309
वड़े	-11.3309
▁नगद	-11.3309
▁चंद्रवंश	-11.3309
उद्दीन	-11.3309
▁जिम्मा	-11.3309
▁पशुपाल	-11.3309
▁जरूरतमंद	-11.3309
▁बडा	-11.3309
▁स्पष्टीकरण	-11.3309
OR	-11.3309
▁अमेज	-11.331
▁पोस्‍ट	-11.331
▁अधिग्रह	-11.331
▁कमाया	-11.331
▁फर्जीवाड़	-11.331
▁Cr	-11.331
डीटीसी	-11.331
तरुण	-11.331
▁To	-11.331
▁बिस्तर	-11.331
▁विविध	-11.331
▁बिष्ट	-11.331
kin	-11.3311
▁कतार	-11.3311
▁खिच	-11.3311
ow	-11.3311
▁धर्मशाला	-11.3311
अपना	-11.3311
ऊंगा	-11.3311
▁न्‍यू	-11.3311
▁ऋतु	-11.3312
▁खैर	-11.3312
▁पीजीआई	-11.3312
▁CB	-11.3312
▁दबंग	-11.3312
▁सुहेल	-11.3312
▁परिभाषा	-11.3312
▁कॉमर्स	-11.3312
▁सुप्रिय	-11.3312
▁सुखदेव	-11.3313
▁जायेगी	-11.3313
▁होंठ	-11.3313
▁क्लार्	-11.3314
▁परिचित	-11.3314
▁गमल	-11.3314
▁राउ	-11.3315
▁फैट	-11.3315
▁यादगार	-11.3315
▁एनआइ	-11.3315
▁Ha	-11.3315
सीएसके	-11.3315
▁मुर्ग	-11.3316
▁एनएच	-11.3316
बीच	-11.3317
▁व्यावसाय	-11.3317
▁एक्सेस	-11.3317
एटीएस	-11.3317
▁रॉड	-11.3317
▁थिरक	-11.3318
▁किन्नर	-11.3319
क्रेन	-11.3319
▁मार्श	-11.3319
▁गेंदबाज़	-11.3319
▁कबाड़	-11.332
ide	-11.332
ैरिफ	-11.332
▁पिस्त	-11.332
▁2001	-11.3321
ser	-11.3321
▁एमओ	-11.3321
.''	-11.3322
▁खांसी	-11.3322
▁रकब	-11.3322
▁एडिट	-11.3323
्रोच	-11.3323
वेदी	-11.3324
सिप	-11.3324
▁बनाएंगे	-11.3324
एचओ	-11.3325
▁बुद्ध	-11.3325
▁लगाएंगे	-11.3326
▁लंच	-11.3326
▁माधव	-11.3326
▁दुआ	-11.3327
▁गुफ	-11.3327
▁उपहार	-11.3329
▁लालगंज	-11.333
▁सराहा	-11.333
मर्सि	-11.3331
▁पार्टियां	-11.3332
फ्यूज	-11.3332
▁सैफ	-11.3332
▁खंडवा	-11.3332
▁मण्ड	-11.3333
▁आइपीएल	-11.3334
रईस	-11.3334
यक्रम	-11.3334
▁जरुरत	-11.3334
▁रजिस्ट्रार	-11.3335
▁ओनर	-11.3336
▁घास	-11.3336
▁मोड़	-11.3339
टरीना	-11.3339
राणा	-11.3341
▁समझदार	-11.3341
▁प्राय	-11.3342
▁162	-11.3342
▁विवि	-11.3343
▁सुमन	-11.3345
▁पीड़ा	-11.3347
श्‍न	-11.3347
▁डेल्	-11.3348
▁कष्ट	-11.3348
▁ढाल	-11.3349
▁शनि	-11.335
्यजीव	-11.3351
▁योगेंद्र	-11.3351
रावास	-11.3352
▁गुजार	-11.3352
▁अनशन	-11.3353
क्ष्य	-11.3353
▁प्रवाह	-11.3353
▁गुरू	-11.3353
▁रैम	-11.3354
रजनीकांत	-11.3354
निस्ता	-11.3355
चोक	-11.3356
▁प्रहार	-11.3357
▁ओपनिंग	-11.3359
▁फरमा	-11.336
ाउंस	-11.3363
▁ऊन	-11.3364
▁ओला	-11.3365
▁बिल्डर	-11.3366
▁चाइ	-11.3367
▁गुंड	-11.3368
PL	-11.3369
▁जिन्	-11.337
सौर	-11.3377
शुद्ध	-11.338
▁लह	-11.3382
्युम	-11.3383
▁पिंक	-11.3388
▁सिमट	-11.3389
aba	-11.3393
▁लगेगी	-11.3393
.24	-11.3394
▁पोज	-11.3396
-21	-11.34
पथ	-11.3402
▁शाहीन	-11.3403
एमई	-11.3406
▁बागड	-11.3408
▁एमएल	-11.3408
▁पीजी	-11.3411
▁सुनते	-11.3414
▁दिस	-11.3415
▁जनसभा	-11.3416
▁एससी	-11.3416
र्दन	-11.3426
जुक	-11.3429
▁झि	-11.3433
▁1000	-11.3433
▁जातक	-11.3434
▁कैसी	-11.3438
▁चिता	-11.3438
▁गद्द	-11.3438
ूढ़	-11.3439
▁स्वास्	-11.344
▁हमीद	-11.3441
6.1	-11.3443
गुन	-11.3447
ेवाड़ी	-11.3461
एफसीआई	-11.3463
▁पढ़ना	-11.3464
Maha	-11.3467
▁सटे	-11.3469
▁देंगी	-11.3476
ादाद	-11.3478
▁घो	-11.3483
▁अज़	-11.3488
कूट	-11.3489
▁6.9	-11.3495
▁कैब	-11.3496
▁निरस्त	-11.3497
ैलेंट	-11.3507
▁उमड़	-11.3516
लीफ	-11.3517
शेद	-11.3519
्रूज	-11.3521
oj	-11.3529
▁असलह	-11.3537
▁स्वाद	-11.3545
विनाश	-11.3547
लावा	-11.3562
ूज़	-11.3569
जेएम	-11.3572
▁उर्	-11.3572
▁अब्दु	-11.3575
▁उलट	-11.3579
▁दूत	-11.3589
▁रैप	-11.3596
ni	-11.3598
सोस	-11.3605
बर्द	-11.3643
▁जरा	-11.3645
्सेंट	-11.3647
▁दाह	-11.3653
▁कार्यान्व	-11.3667
▁पाटन	-11.3676
रावत	-11.369
▁विजि	-11.371
द्यप	-11.3805
▁एमए	-11.3807
ईएस	-11.382
▁इंस्ट	-11.385
▁निगल	-11.3858
ak	-11.3863
ख्यात	-11.3863
▁वर्कर	-11.3864
▁टल	-11.3897
समय	-11.3898
▁मिनि	-11.3903
ud	-11.3905
ोखा	-11.3915
लिफ्ट	-11.3927
‍त	-11.3929
सराय	-11.3932
ुलें	-11.394
यानि	-11.3967
▁नागर	-11.4012
▁बनाय	-11.4018
1994	-11.4034
डीबी	-11.4036
▁फंद	-11.4082
▁थल	-11.4095
▁बांद	-11.41
71	-11.4113
34	-11.4117
▁Se	-11.412
मोश	-11.4127
tra	-11.4156
▁क्रिस	-11.4176
2019-20	-11.419
तर्ग	-11.4194
▁कॉप	-11.42
डेल	-11.421
▁जुआ	-11.421
kar	-11.4221
▁कांस्	-11.423
देन	-11.4232
ज़ाइ	-11.4267
UN	-11.4276
ुर्की	-11.4301
▁पॉलि	-11.4301
न्याय	-11.432
वच	-11.4323
▁क्रो	-11.4334
भूति	-11.4338
▁1.8	-11.4359
▁चिल	-11.4382
रोड़	-11.4383
ॉर्ट	-11.4386
▁आड़	-11.4412
▁सिह	-11.4427
▁91	-11.4447
▁मणि	-11.4465
▁निक्	-11.447
▁मिस्	-11.4514
्रोम	-11.4515
फिश	-11.4518
▁ऋत	-11.4519
43	-11.4536
▁स्‍व	-11.4544
्लीक	-11.4545
▁Car	-11.4547
▁रखत	-11.4549
चर्य	-11.4552
दीव	-11.4565
कटोर	-11.4584
सिग्नल	-11.4587
चार्य	-11.4593
▁हलक	-11.4597
▁बन्द	-11.4618
▁विट	-11.4622
▁यूएस	-11.4626
खण्ड	-11.4676
kha	-11.4707
ard	-11.4725
arna	-11.4749
पायर	-11.4785
▁सुग	-11.4789
बाह	-11.4791
्रेटर	-11.4812
ाधिकार	-11.4853
्तव्य	-11.4874
DU	-11.4878
न्ट्र	-11.4883
▁230	-11.4952
tan	-11.4975
▁पराज	-11.4991
लांग	-11.4999
▁256	-11.5001
योलॉजी	-11.5011
इंस्टी	-11.5018
▁Pa	-11.5045
▁मनप	-11.5076
▁चेन	-11.5079
घरान	-11.508
▁विभू	-11.5088
▁गुस्स	-11.5099
mi	-11.5143
me	-11.5143
▁उगा	-11.5145
टेक्निक	-11.5148
पाउंड	-11.5188
▁चौंक	-11.519
▁माम	-11.5236
ोलियो	-11.5237
ुंब	-11.525
AC	-11.5272
▁नाड	-11.5273
▁बदत	-11.5278
ल्म	-11.5286
▁एक्सपो	-11.5305
कुंत	-11.5306
ोलि	-11.5323
ंभा	-11.5324
ायड	-11.5336
▁मूर्त	-11.5354
▁माफ	-11.5358
ान्वित	-11.537
टेस्ट	-11.5413
ॉवर	-11.5415
▁128	-11.542
क्रेट	-11.5426
▁कॉमे	-11.5461
▁सीपीए	-11.5463
j	-11.549
ंशिक	-11.5491
ंजू	-11.5511
निर्वा	-11.5527
ट्रॉली	-11.5553
ंशु	-11.5562
▁मौक	-11.5576
ीएलए	-11.5577
एसएम	-11.5585
rea	-11.5591
▁114	-11.5592
▁(201	-11.5605
▁एफसी	-11.5608
▁मूव	-11.5619
▁तिग	-11.5629
स्ट्रक्	-11.5643
▁झांस	-11.5647
▁अभिभावक	-11.5684
▁झगड़	-11.5706
▁यमुन	-11.5707
▁शिल्प	-11.5708
▁इस्तीफ	-11.5709
नाशक	-11.571
HO	-11.5713
India	-11.572
@	-11.572
कुंड	-11.5721
प्रत्यक्ष	-11.5722
स्पर्धा	-11.5722
‘	-11.5722
संचार	-11.5723
काबू	-11.5723
ब्यूरो	-11.5723
प्रणाली	-11.5723
शेष	-11.5723
संस्क	-11.5724
कर्ण	-11.5724
पिछल	-11.5724
चौथ	-11.5725
इंडियन	-11.5726
>	-11.5726
विचार	-11.5726
प्रशासन	-11.5727
समिति	-11.5727
प्रधानमंत्री	-11.5727
महिला	-11.5727
तोड़	-11.5727
कांग्रेस	-11.5727
उन्होंने	-11.5727
स्वरूप	-11.5727
श्रीनगर	-11.5727
यात्रा	-11.5727
मूल्य	-11.5728
लाखों	-11.5728
विज्ञान	-11.5728
प्रसाद	-11.5728
कहां	-11.5728
दिल्ली	-11.5728
गुड़	-11.5729
एमएल	-11.5729
सामने	-11.5729
गोपाल	-11.5733
दोष	-11.5734
फिर	-11.5735
सम्मान	-11.5736
चंद्र	-11.5739
ॉट्स	-11.5745
सफलता	-11.5757
▁जुटाए	-11.5757
▁पुष्	-11.5761
भारतीय	-11.5763
किनार	-11.5775
युद्ध	-11.5775
▁अध्याप	-11.578
्रॉफ	-11.5782
▁विश्	-11.5782
बिग	-11.5784
▁गुहा	-11.5787
फिट	-11.5788
▁हथिया	-11.5789
▁आलोच	-11.5789
▁निदेश	-11.5792
▁गिरफ्त	-11.5796
पूर्ति	-11.5796
विद्	-11.5797
ाउंट	-11.58
शिक्षण	-11.5801
वृत्ति	-11.5803
▁परिस्थिति	-11.5804
▁सूज	-11.5805
बन्ध	-11.5805
	-11.5806
लौक	-11.5806
Petrol	-11.5806
▁अस्वीकार	-11.5806
▁एंटीबायोटिक	-11.5806
▁धमतरी	-11.5806
▁हिदायत	-11.5806
Watch	-11.5806
Z	-11.5806
bharat	-11.5806
ember	-11.5806
ight	-11.5806
mail	-11.5806
अतिपिछड़	-11.5806
ऱ	-11.5806
हाइड्रेट	-11.5806
ौलत	-11.5806
▁2302236	-11.5806
▁Chopra	-11.5806
▁[...]	-11.5806
▁january	-11.5806
▁अनियमितता	-11.5806
▁अहंकार	-11.5806
▁इंडोनेशिया	-11.5806
▁इलेक्ट्रॉनिक	-11.5806
▁उत्पत्ति	-11.5806
▁एचआईवी	-11.5806
▁एचडीएफसी	-11.5806
▁खिलौन	-11.5806
▁गम्भीर	-11.5806
▁गोस्वामी	-11.5806
▁चरित्र	-11.5806
▁जवाबदेह	-11.5806
▁जहानाबाद	-11.5806
▁जालौन	-11.5806
▁जौनपुर	-11.5806
▁डिविलियर्स	-11.5806
▁डिस्काउंट	-11.5806
▁ताजपोशी	-11.5806
▁दहशत	-11.5806
▁निर्दलीय	-11.5806
▁नींबू	-11.5806
▁पर्दाफाश	-11.5806
▁पाऊडर	-11.5806
▁पारदर्श	-11.5806
▁प्रधानाध्यापक	-11.5806
▁फिजिक्स	-11.5806
▁फिरोजाबाद	-11.5806
▁फुटपाथ	-11.5806
▁फैजाबाद	-11.5806
▁बड़ौद	-11.5806
▁बर्खास्त	-11.5806
▁भेदभाव	-11.5806
▁मक्खन	-11.5806
▁मन्दिर	-11.5806
▁मलयालम	-11.5806
▁मुक़ाबल	-11.5806
▁मुसीबत	-11.5806
▁योद्धा	-11.5806
▁रस्तोगी	-11.5806
▁रामानुज	-11.5806
▁लौह	-11.5806
▁वापिस	-11.5806
▁विज्ञापन	-11.5806
▁वीरभद्र	-11.5806
▁शाहजहांपुर	-11.5806
▁सुपरवाइजर	-11.5806
▁सूदखोर	-11.5806
▁हनीप्रीत	-11.5806
▁हिम्मत	-11.5806
▁हिस्‍स	-11.5806
▁आश्चर्य	-11.5806
▁उपेक्षा	-11.5806
▁कट्टरपंथ	-11.5806
▁झुंझुनू	-11.5806
▁तिलहन	-11.5806
▁निषेध	-11.5806
▁पीलीभीत	-11.5806
▁प्रेजेंट	-11.5806
▁फहराया	-11.5806
▁फेफड़	-11.5806
▁फोटोशूट	-11.5806
▁मित्तल	-11.5806
▁मेलबर्न	-11.5806
▁मैसूर	-11.5806
▁मोहब्बत	-11.5806
▁राइडर्स	-11.5806
▁लघु	-11.5806
▁लाइब्रेर	-11.5806
▁साउथ	-11.5806
▁सेनिटाइज	-11.5806
▁हस्तशिल्प	-11.5806
▁हाशमी	-11.5806
nbsp	-11.5806
oss	-11.5806
▁1991	-11.5806
▁Scar	-11.5806
▁उत्सुक	-11.5806
▁झड़प	-11.5806
▁टमाटर	-11.5806
▁डिस्टेंस	-11.5806
▁त्रिकोण	-11.5806
▁धरोहर	-11.5806
▁निज़ाम	-11.5806
▁भयावह	-11.5806
▁वल्लभ	-11.5806
▁जुनून	-11.5806
▁रुचि	-11.5806
▁व्याख्या	-11.5806
टॉयलेट	-11.5806
सेप्शन	-11.5806
▁more	-11.5806
▁चुप्पी	-11.5806
▁जिन्‍ह	-11.5806
▁पीरोड	-11.5806
▁महोबा	-11.5806
▁म्यूजियम	-11.5806
▁रिटर्न	-11.5806
▁सांप्रदायिक	-11.5806
SSC	-11.5806
कायाकल्प	-11.5806
फैक्‍स	-11.5806
▁गवर्न	-11.5806
▁गैंगस्टर	-11.5806
▁टीसीएस	-11.5806
▁थरूर	-11.5806
▁लीजिए	-11.5806
▁वैद्य	-11.5806
▁कारतूस	-11.5806
▁परिश्रम	-11.5806
satta	-11.5806
▁अमावस	-11.5806
▁स्ट्रीमिंग	-11.5806
१०	-11.5806
▁कांकेर	-11.5806
▁क्रूर	-11.5806
▁गुंजा	-11.5806
▁बजरंग	-11.5806
▁माँग	-11.5806
▁सुजुकी	-11.5806
▁इमेज	-11.5806
▁ईंधन	-11.5806
▁महत्‍	-11.5806
कॉरपोरे	-11.5806
▁रियासत	-11.5806
▁रेणु	-11.5806
▁दोहराया	-11.5806
▁वेदांत	-11.5806
▁सरगना	-11.5806
▁जर्नल	-11.5806
▁रोमांस	-11.5806
▁तानाशाह	-11.5806
▁त्रस्त	-11.5806
ांजलि	-11.5806
▁निखार	-11.5806
▁फिलीपी	-11.5806
▁तंवर	-11.5806
▁दीजिए	-11.5806
▁​​	-11.5806
▁अभय	-11.5806
▁कर्नल	-11.5806
ज्वेलर	-11.5806
▁जेम्स	-11.5806
▁मवेश	-11.5806
▁लैस	-11.5806
▁खस्ता	-11.5806
एएफआरसी	-11.5806
▁इसलिये	-11.5806
▁बकाया	-11.5806
▁रिकवर	-11.5806
▁किराये	-11.5806
▁चक्की	-11.5806
▁मंशा	-11.5806
रुड़की	-11.5806
▁डेवलप	-11.5806
▁मंजिल	-11.5806
▁रॉबिन	-11.5806
▁दशहर	-11.5806
▁जायेंगे	-11.5806
▁नकाब	-11.5806
▁सांबा	-11.5806
▁नाइक	-11.5806
घटन	-11.5806
▁रिश्तों	-11.5806
▁स्थाई	-11.5806
▁बुढ़ा	-11.5806
युनाइटेड	-11.5806
▁di	-11.5806
▁प्रत्‍य	-11.5806
▁क्रश	-11.5806
▁पीपल	-11.5806
▁चोद	-11.5806
▁निष्ठा	-11.5806
▁परिस्थितियां	-11.5807
▁अय्य	-11.5807
▁चेतन	-11.5807
▁is	-11.5807
▁क्रय	-11.5807
▁समावेश	-11.5807
▁Exp	-11.5807
▁भूपेंद्र	-11.5807
▁एक्सपर्ट	-11.5807
▁हुनर	-11.5807
▁पतली	-11.5807
▁बैचलर	-11.5807
▁टेक्नीशिय	-11.5807
▁इफ्त	-11.5807
▁Cho	-11.5807
▁क्‍यों	-11.5807
घनत्व	-11.5807
▁सोडा	-11.5807
▁शरारत	-11.5807
▁Pre	-11.5807
▁भुगतन	-11.5807
जोड़	-11.5807
▁कॉम्प्ल	-11.5807
▁टेलर	-11.5807
धनुष	-11.5807
ष्टाचार	-11.5807
▁आइसोले	-11.5807
▁हड़क	-11.5807
▁शौकीन	-11.5807
▁मुरत्त	-11.5807
▁खजूर	-11.5807
▁फोक	-11.5807
▁सुदाम	-11.5808
rade	-11.5808
लेक्टोर	-11.5808
▁थत्यूड़	-11.5808
▁एडिशन	-11.5808
▁ट्रांसजे	-11.5808
एलपीजी	-11.5808
▁प्रथा	-11.5808
एसजीबी	-11.5808
▁UP	-11.5808
▁मूवमेंट	-11.5808
टास्क	-11.5808
▁गड़बड	-11.5808
▁बर्बर	-11.5808
▁मैट्रिक	-11.5808
▁त्रिपुरा	-11.5808
▁प्रसूत	-11.5808
▁मुजफ्फरनगर	-11.5808
चबूतरा	-11.5808
िस्ट्री	-11.5809
विश्वसनीय	-11.5809
कोषाध्यक्ष	-11.5809
▁आरसीबी	-11.5809
▁शख्सियत	-11.5809
▁अभिलेख	-11.5809
▁मुलाक	-11.5809
▁फुलेश्वर	-11.5809
▁अद्भ	-11.5809
▁एप्‍प	-11.5809
▁जादू	-11.5809
लैंग	-11.5809
▁रिफाइ	-11.5809
▁स्वास्थ	-11.5809
क़रीब	-11.5809
तांडव	-11.5809
▁सुपरकिंग्	-11.5809
▁MP	-11.5809
▁बाध्य	-11.5809
आईसीआई	-11.5809
▁झल्ला	-11.581
▁प्लेयर	-11.581
▁प्रतिष्ठान	-11.581
▁बिन्द	-11.581
एमसीजी	-11.581
▁शारद	-11.581
▁करूंगी	-11.581
▁कॉन्स	-11.5811
▁जयशंकर	-11.5811
▁कहानियां	-11.5811
▁सफाईकर्मी	-11.5811
मनरेगा	-11.5811
▁लेखपाल	-11.5811
▁नारंग	-11.5811
▁रामचंद्र	-11.5811
▁स्लै	-11.5811
▁करूं	-11.5812
▁पीडीपी	-11.5812
ॉल्ट	-11.5812
va	-11.5812
uk	-11.5812
ेल्दी	-11.5812
▁प्रवृत्ति	-11.5813
▁Yo	-11.5813
▁क़ब	-11.5813
▁1993	-11.5813
जागृत	-11.5813
▁इलेक्शन	-11.5814
▁भैया	-11.5814
▁वॉटर	-11.5814
▁लपक	-11.5814
्यूमर	-11.5814
▁संरक्षक	-11.5814
▁व्हील	-11.5814
▁कुचल	-11.5815
िम्ह	-11.5815
▁गोंडा	-11.5815
▁गोमती	-11.5815
ारोह	-11.5816
▁गिरिराज	-11.5816
▁दूंगा	-11.5816
▁सीतापुर	-11.5816
▁चलेंगी	-11.5816
धंधा	-11.5816
▁भवानी	-11.5816
▁खट्ट	-11.5817
▁उठेगा	-11.5817
▁क्लियर	-11.5817
▁वेडिंग	-11.5817
▁चहल	-11.5817
▁भुला	-11.5817
▁एंकर	-11.5818
▁सेविका	-11.5818
ेरियन	-11.5818
▁इजरा	-11.5818
▁लियोन	-11.5818
▁सुपरह	-11.5818
▁दाहिन	-11.5818
▁सैंक	-11.5819
पीडिया	-11.5819
▁झूम	-11.5819
▁चंदेल	-11.5819
▁लकड़	-11.5819
▁निपटाए	-11.5819
▁भिजवाया	-11.5819
▁रचनाकार	-11.582
▁कराएंगे	-11.582
eb	-11.582
▁बूढ़	-11.582
▁सुरेन्द्र	-11.582
▁क्रिया	-11.5821
▁मैथ	-11.5821
▁मंडरा	-11.5821
▁मध्यस्थ	-11.5821
▁यथा	-11.5821
▁अंबानी	-11.5822
़दू	-11.5822
▁सेंसर	-11.5822
dy	-11.5822
▁बेंच	-11.5822
▁स्वार्थ	-11.5823
ाइवे	-11.5824
▁स्विम	-11.5825
▁बजरी	-11.5825
▁रस्म	-11.5825
▁असीम	-11.5825
▁दस्तख	-11.5825
▁पीएलए	-11.5825
▁मिलेंगी	-11.5826
▁हिन्दू	-11.5826
▁पागल	-11.5826
▁पथरी	-11.5826
▁सुल्तानपुर	-11.5826
ूर्त	-11.5826
▁बलदेव	-11.5827
▁बताएंगे	-11.5827
▁जूस	-11.5827
▁अगवा	-11.5828
▁बीएच	-11.5828
▁सायना	-11.5828
▁परमात्	-11.5829
▁सिरसा	-11.5829
▁नागपुर	-11.5829
त्न	-11.583
▁मटक	-11.5832
▁मोक्ष	-11.5832
केवल	-11.5833
▁डस्ट	-11.5833
▁बचाओ	-11.5833
▁कातिल	-11.5833
▁आइजी	-11.5834
▁ज़मी	-11.5834
▁थोक	-11.5834
▁सैनिटाइजर	-11.5834
▁एसओ	-11.5835
▁रोब	-11.5836
▁फिक्स	-11.5838
श्चि	-11.5838
▁आफत	-11.5839
▁स्वजन	-11.5839
▁गेस्ट	-11.584
▁वेंडर	-11.584
▁लेफ्ट	-11.5841
▁बनवाया	-11.5841
्रॉयड	-11.5842
▁आईएए	-11.5843
ादश	-11.5843
्रॉन	-11.5843
▁बजाज	-11.5844
▁कालोन	-11.5846
▁माइन	-11.5847
▁संक्र	-11.5847
ंडारी	-11.5848
▁135	-11.5848
▁जिंदा	-11.585
▁जिम्	-11.585
▁बांस	-11.585
ोत्री	-11.585
लिख	-11.5852
▁भांग	-11.5853
▁आरबी	-11.5853
▁बैड	-11.5854
▁ट्राई	-11.5854
▁यूथ	-11.5854
▁आईआर	-11.5854
▁दंगा	-11.5855
▁आवाज़	-11.5855
्रीमर	-11.5858
▁बक्सर	-11.586
▁सुस्त	-11.586
▁115	-11.5862
▁कैच	-11.5863
▁इस्‍त	-11.5866
▁पंडा	-11.5866
▁मिक्स	-11.5866
▁बनेगी	-11.5866
▁श्या	-11.5867
▁राजेश्वर	-11.5869
▁फाड़	-11.5873
▁प्रफे	-11.5879
▁इफ	-11.5879
▁लंबाई	-11.588
ुक़	-11.5881
▁कैफ	-11.5882
राहो	-11.5883
▁मुड़	-11.5884
▁बौर	-11.5886
▁प्राइवे	-11.589
शुमार	-11.5896
ड्रीम	-11.5899
▁बागवान	-11.59
OS	-11.5904
▁कहला	-11.5909
ालोद	-11.591
▁नमाज	-11.5912
च्यु	-11.5913
▁सबरीम	-11.5917
▁उप्र	-11.5923
FI	-11.5929
िमरन	-11.593
आत्मनिर्भर	-11.5936
सूली	-11.5937
म्‍ब	-11.5939
ललित	-11.5942
▁गोरा	-11.5943
मरान	-11.5945
दैव	-11.5945
ुड़	-11.5946
▁प्रतिबद्धता	-11.5953
▁खुज	-11.5953
क्चर	-11.5958
▁अम्म	-11.596
▁चौबी	-11.5981
▁होर्डि	-11.5983
▁बाक़	-11.5987
ड्रै	-11.5991
रीदी	-11.6007
र्गो	-11.6015
▁अटार	-11.6039
धुंध	-11.604
टियार	-11.6049
IR	-11.6052
खाटू	-11.6059
स्टेट	-11.606
dmi	-11.6061
ैकेट	-11.6114
▁mo	-11.6114
मैटिक	-11.612
▁लुभा	-11.6158
▁ड्रॉ	-11.6163
शीट	-11.6164
▁घटान	-11.6194
्मदा	-11.6227
लंटियर	-11.6232
शॉट	-11.6251
लॉट	-11.6253
अगरबत्त	-11.6255
रिप्रे	-11.6267
day	-11.6285
▁1,4	-11.6306
▁कांटे	-11.6323
▁वारंट	-11.6348
्रक्ट	-11.6358
एएमयू	-11.6387
ब्लो	-11.6388
▁आर्च	-11.6399
ॉटरी	-11.6408
▁साधु	-11.6459
टीआई	-11.6488
विलास	-11.6491
रसेल	-11.652
▁माप	-11.6528
अर्ज	-11.6542
2007	-11.6559
एमटी	-11.6581
▁360	-11.6589
शक्तिमान	-11.662
▁नोब	-11.6625
▁मुंड	-11.6632
▁एंजि	-11.6635
▁टूरि	-11.6658
2015	-11.6664
▁संस्कृत	-11.6675
▁बिगड़त	-11.6684
▁Kha	-11.6703
▁कैलि	-11.6706
थापक	-11.6726
▁गाध	-11.6766
▁झाड़िय	-11.6768
ाइज़	-11.6779
डेगा	-11.682
ायब	-11.6941
उदय	-11.696
रदराज	-11.6979
दाएं	-11.7008
▁मधुव	-11.7018
रोज़	-11.7059
▁दाऊ	-11.709
▁पॉज	-11.7093
ल्लु	-11.7143
▁दाय	-11.7189
CI	-11.7191
▁इलेक्ट्रि	-11.7218
uja	-11.7235
स्‍वी	-11.724
▁सुर्ख	-11.7252
▁औषध	-11.7321
गोड़	-11.7338
थर्स	-11.7363
बडे	-11.7383
▁सैद्धा	-11.7398
ुलवाया	-11.7435
jan	-11.7441
▁बुआ	-11.7464
▁क्वाल	-11.7612
▁08:	-11.7637
ुशासन	-11.7727
▁कुर्	-11.7808
र्षि	-11.7878
ोपिया	-11.7882
lo	-11.7897
co	-11.794
▁फ्लै	-11.795
ंबो	-11.7999
▁वैस	-11.8014
्टेशन	-11.8038
▁प्राइ	-11.8077
▁चिड़	-11.8297
र्धन	-11.8308
संगत	-11.8331
ुष्‍क	-11.8394
शिला	-11.8432
▁बिलकु	-11.8458
फक्	-11.8471
िद्द	-11.8545
ive	-11.8571
सूच	-11.8611
ीरिय	-11.8653
राधा	-11.8666
म्‍मे	-11.8682
are	-11.8688
▁सुलझ	-11.8737
कोसिस	-11.8879
पटना	-11.8943
▁पुजार	-11.896
▁सामग्र	-11.8964
डॉन	-11.8983
▁तमंच	-11.8996
▁फाग	-11.9013
िस्ट्रे	-11.902
▁डायरेक्ट	-11.9027
▁शुक्ल	-11.9042
राष्ट्र	-11.9049
947	-11.9051
गुप्त	-11.9055
कुछ	-11.9055
दुल्हन	-11.9055
लक्ष्मण	-11.9055
द्वार	-11.9056
​	-11.9056
विश्व	-11.9056
जेएनएन	-11.9057
भागीदार	-11.9057
पब्लिक	-11.9057
पुष्प	-11.9057
ब्लैक	-11.9057
श्रीदेवी	-11.9058
अंग्रेज	-11.9058
पृष्ठ	-11.9058
सुपर	-11.9058
सुझाव	-11.9058
फास्ट	-11.9058
आगरा	-11.9058
मॉडल	-11.9059
शास्त्र	-11.9059
निवेश	-11.9059
एजेंसी	-11.9059
झारखंड	-11.9059
जम्मू	-11.906
पश्चिम	-11.906
वृद्ध	-11.906
पंजाब	-11.906
पत्नी	-11.906
समझ	-11.906
शुक्र	-11.906
निर्माण	-11.906
पंचायत	-11.906
दिवस	-11.906
बहुत	-11.906
सहाय	-11.906
राष्ट्रपति	-11.9061
कोरोना	-11.9061
वजह	-11.9061
स्टाइल	-11.9061
उधर	-11.9064
विराट	-11.9065
सुफ	-11.9066
प्रेम	-11.9066
ऐसा	-11.9068
उसक	-11.9072
प्रसार	-11.9074
हॉट	-11.9081
्यूमन	-11.9081
ुष्क	-11.9089
▁आवंट	-11.909
▁एंड्रॉ	-11.91
सत्य	-11.91
वॉट	-11.9112
▁विधाय	-11.9113
▁तुम्ह	-11.9117
्यवसाय	-11.912
▁वनभू	-11.9121
JD	-11.9121
सबक	-11.9125
कर्ष	-11.9126
हसास	-11.9129
प्रत्याशि	-11.9132
ेष्ठ	-11.9133
▁छात्रवृत	-11.9133
परीक्ष	-11.9136
ष्ठान	-11.9136
▁Job	-11.9137
▁इंट्र	-11.9137
कृष्ट	-11.9138
▁Ex	-11.9138
निष्ठ	-11.9138
बैक्टीरिय	-11.9138
▁स्मार	-11.9138
▁छुट	-11.9139
ाट्सएप	-11.9139
चुअल	-11.9139
Bharat	-11.9139
acc	-11.9139
git	-11.9139
▁0184-2	-11.9139
▁ऑर्गेन	-11.9139
:24	-11.9139
Uttar	-11.9139
hakti	-11.9139
सांख्यिकी	-11.9139
▁कोऑर्डिने	-11.9139
▁त्रुटि	-11.9139
▁निष्पाद	-11.9139
▁पुडुच	-11.9139
▁वोडाफोन	-11.9139
Phone	-11.9139
Sridevi	-11.9139
areli	-11.9139
iesel	-11.9139
ips	-11.9139
एमसीएलआर	-11.9139
कुमकुम	-11.9139
फोसिस	-11.9139
वक्रोक्ति	-11.9139
ीरसेल्वम	-11.9139
८	-11.9139
▁Air	-11.9139
▁ENG	-11.9139
▁Jio	-11.9139
▁Lucknow	-11.9139
▁Marg	-11.9139
▁Qu	-11.9139
▁UGC	-11.9139
▁Vir	-11.9139
▁hindi	-11.9139
▁rally	-11.9139
▁अध्यादेश	-11.9139
▁अध्‍यक्ष	-11.9139
▁अनुच्छेद	-11.9139
▁अपशब्द	-11.9139
▁अर्जेंटीना	-11.9139
▁आँकड़	-11.9139
▁आख़िर	-11.9139
▁आवश्‍यक	-11.9139
▁इंटरमीडि	-11.9139
▁इग्न	-11.9139
▁इब्राहिम	-11.9139
▁इलायची	-11.9139
▁उच्‍च	-11.9139
▁उम्‍मीद	-11.9139
▁उर्मिला	-11.9139
▁एंटरटेन	-11.9139
▁एसोसिएट	-11.9139
▁एहतियात	-11.9139
▁औपचारिक	-11.9139
▁कनेक्टिविटी	-11.9139
▁क़ानून	-11.9139
▁क़ीमत	-11.9139
▁कार्पोरे	-11.9139
▁कुमाऊं	-11.9139
▁कैल्शियम	-11.9139
▁कॉर्पोरे	-11.9139
▁खगड़िया	-11.9139
▁खाताधारक	-11.9139
▁गैरकानूनी	-11.9139
▁ग्वांगझ	-11.9139
▁जद्दोजह	-11.9139
▁ज़िम्मेदार	-11.9139
▁झंझारपुर	-11.9139
▁टर्मिनल	-11.9139
▁टेरेसा	-11.9139
▁तिर्की	-11.9139
▁तीमारदार	-11.9139
▁तेलुगू	-11.9139
▁दरम्यान	-11.9139
▁दिशानिर्देश	-11.9139
▁दुर्भाग्य	-11.9139
▁धज्जियां	-11.9139
▁नयनादेवी	-11.9139
▁नवविवाहित	-11.9139
▁नाइजीरिया	-11.9139
▁निमंत्र	-11.9139
▁नुस्ख	-11.9139
▁न्योता	-11.9139
▁पाकिस्‍तान	-11.9139
▁प्रोडक्‍	-11.9139
▁फव्वार	-11.9139
▁फ़ैसल	-11.9139
▁फार्मासिस्ट	-11.9139
▁बंदोबस्त	-11.9139
▁बिचौलि	-11.9139
▁बुलंदशहर	-11.9139
▁बेंगलुरू	-11.9139
▁मज़दूर	-11.9139
▁माइग्रे	-11.9139
▁मुखबिर	-11.9139
▁मेदिनीपुर	-11.9139
▁मेहरबान	-11.9139
▁मैनुअल	-11.9139
▁लखीसराय	-11.9139
▁लिफाफ	-11.9139
▁लुधियाना	-11.9139
▁लौड़	-11.9139
▁विक्टोरिया	-11.9139
▁विध्वंस	-11.9139
▁विश्लेषक	-11.9139
▁शहडोल	-11.9139
▁शिलान्यास	-11.9139
▁सतबरवा	-11.9139
▁सीएसआईआर	-11.9139
▁सैनेटाइज	-11.9139
▁सोनभद्र	-11.9139
▁स्काउट	-11.9139
▁हांगकांग	-11.9139
▁हॉरिज	-11.9139
▁ह्रदयेश	-11.9139
:48	-11.9139
ign	-11.9139
वशिष्ठ	-11.9139
▁अंडरवियर	-11.9139
▁अछूत	-11.9139
▁अनिश्चितकाल	-11.9139
▁अनुपस्थित	-11.9139
▁आर्बिट्रे	-11.9139
▁कैरेक्टर	-11.9139
▁नाखुश	-11.9139
▁नीलकंठ	-11.9139
▁बिखेर	-11.9139
▁रिचर्ड	-11.9139
▁वॉरियर	-11.9139
price	-11.9139
ï	-11.9139
मानखुर्द	-11.9139
▁1955	-11.9139
▁अंबिका	-11.9139
▁उखाड़	-11.9139
▁उधारदाता	-11.9139
▁उस्ताद	-11.9139
▁एग्जि	-11.9139
▁एम्बुले	-11.9139
▁टाउनशिप	-11.9139
▁तोहफा	-11.9139
▁त्रिवेंद्र	-11.9139
▁पोशाक	-11.9139
▁बंधाया	-11.9139
▁सैनिटाईज	-11.9139
▁हितग्राह	-11.9139
▁अयोग्य	-11.9139
▁इंतज़ा	-11.9139
▁बीडीओ	-11.9139
▁रघुवंशी	-11.9139
▁स्पेशियल	-11.9139
app	-11.9139
job	-11.9139
rot	-11.9139
अनलॉक	-11.9139
▁अभद्र	-11.9139
▁इकबाल	-11.9139
▁चंद्रचूड	-11.9139
▁जीपीएस	-11.9139
▁पंचकूला	-11.9139
▁सिब्बल	-11.9139
आइटीबीपी	-11.9139
▁मरांडी	-11.9139
▁रेसिपी	-11.9139
▁सुदूर	-11.9139
NET	-11.9139
▁अनूठ	-11.9139
▁अहीर	-11.9139
▁ग्रंथ	-11.9139
▁मच्छर	-11.9139
▁रिएक्शन	-11.9139
▁शहजाद	-11.9139
▁जंक्शन	-11.9139
आईसीएमआर	-11.9139
▁जल्‍द	-11.9139
▁प्रशासक	-11.9139
▁व्यंजन	-11.9139
▁सुब्र	-11.9139
▁हरदोई	-11.9139
▁पेरेंट	-11.9139
▁नौकरीपेश	-11.9139
▁मारामारी	-11.9139
▁रुझान	-11.9139
▁उछल	-11.9139
▁कुण्डल	-11.9139
▁फैक्टर	-11.9139
▁मुबारक	-11.9139
▁विधवा	-11.9139
▁सहारनपुर	-11.9139
▁इक्वि	-11.9139
▁उपक्रम	-11.9139
▁चांपा	-11.9139
▁सूअर	-11.9139
▁ओवरलोड	-11.9139
▁शिष्य	-11.9139
▁इंज्व	-11.9139
▁उपार्ज	-11.9139
▁परिवेश	-11.9139
महाद्वीपीय	-11.9139
▁नौकरशाह	-11.9139
स्पीति	-11.9139
▁मैडम	-11.9139
▁जैतपुर	-11.9139
▁बिस्क	-11.9139
▁स्टोन	-11.9139
▁हॉन्गक	-11.9139
▁अमरूद	-11.9139
▁एमएफए	-11.9139
▁कनाडा	-11.9139
▁ब्रोकर	-11.9139
▁भरपाई	-11.9139
▁(2002)	-11.9139
▁अधीर	-11.9139
▁बिठा	-11.914
ल्गु	-11.914
▁सोहराब	-11.914
▁नींव	-11.914
▁निराला	-11.914
▁अनुमोद	-11.914
िप्स	-11.914
▁अरोरा	-11.914
▁बिटिया	-11.914
ext	-11.914
line	-11.914
▁अन्नदाता	-11.914
▁गुटख	-11.914
▁भद्रक	-11.914
घ्न	-11.914
▁Revi	-11.914
▁एनेस्थ	-11.914
▁खदानों	-11.914
▁उकसा	-11.914
वीआईपी	-11.914
▁झुग्गिय	-11.914
▁मनचाह	-11.914
▁उदारवाद	-11.914
▁लहसुन	-11.914
▁श्रोता	-11.914
▁कटारिया	-11.914
▁ग्लोबल	-11.914
सिद्व	-11.914
▁पुरुषोत्तम	-11.914
▁मूसा	-11.914
जिटिव	-11.914
▁जाधव	-11.914
▁पीडित	-11.914
्मिता	-11.914
▁वर्चस्	-11.914
▁हुस्न	-11.914
▁बालियान	-11.914
akhan	-11.914
▁मिरर	-11.914
ोत्तम	-11.914
▁मीणा	-11.914
▁उस्मान	-11.914
▁डंक	-11.914
्यूनर	-11.914
▁चार्जशीट	-11.914
▁भांप	-11.914
▁हजरतगंज	-11.914
▁उधारकर्ता	-11.914
▁अच्‍छी	-11.914
▁ज्ञात	-11.914
आरएलए	-11.914
▁आतिश	-11.914
▁अराजक	-11.914
▁बांह	-11.914
▁Pra	-11.914
▁घसीट	-11.914
▁बाड़मेर	-11.914
▁गर्भपात	-11.914
▁सफ़र	-11.914
▁समूच	-11.914
▁क्षु	-11.914
▁मैन्यू	-11.914
▁मुस्क	-11.9141
▁निबट	-11.9141
ोपैथ	-11.9141
▁कांगड़ा	-11.9141
rav	-11.9141
▁बंधवा	-11.9141
▁माकन	-11.9141
▁मेमोर	-11.9141
▁वरदान	-11.9141
uz	-11.9141
▁रेखांक	-11.9141
▁भतीज	-11.9141
▁भेड़	-11.9141
ell	-11.9141
पीडियाट्रि	-11.9141
▁खिंच	-11.9141
▁छतरपुर	-11.9141
rut	-11.9141
▁सद्गु	-11.9141
▁महाभिय	-11.9141
▁रेगुले	-11.9141
▁मैनपुरी	-11.9141
▁जॉनसन	-11.9141
बूल	-11.9142
▁एक्सेप्ट	-11.9142
▁ट्रांसपोर्ट	-11.9142
▁सम्भाव	-11.9142
KH	-11.9142
यस्क	-11.9142
मनोरोग	-11.9142
▁आर्टिकल	-11.9142
▁कैंटीन	-11.9142
Vis	-11.9142
▁आयरन	-11.9142
▁फ़ाइल	-11.9142
gov	-11.9142
ock	-11.9142
▁राजनिति	-11.9142
▁छुड़	-11.9142
ऋ	-12.4058
“	-12.4061
q	-12.4139
४	-12.4139
�	-12.4139
१	-13.406
=	-13.4139
^	-13.4139
£	-13.4139
©	-13.4139
«	-13.4139
Ó	-13.4139
Ü	-13.4139
т	-13.4139
я	-13.4139
ا	-13.4139
ت	-13.4139
ل	-13.4139
و	-13.4139
ی	-13.4139
ङ	-13.4139
‎	-13.4139
←	-13.4139
➽	-13.4139
🔵	-13.4139
ऌ	-13.4139
в	-13.4139
и	-13.4139
л	-13.4139
о	-13.4139
﻿	-13.4246
९	-13.4247
×	-13.4248
६	-13.4249
Q	-13.425
&	-13.4251
ऩ	-13.4252
[	-13.4253
*	-13.4254
̈	-13.4255
»	-13.4256
#	-13.4257
ञ	-13.4258
ृ	-13.4259
ौ	-13.426
औ	-13.4261
