<unk>	0
<s>	0
</s>	0
▁के	-3.59004
।	-3.61869
▁में	-3.86104
ी	-3.98977
▁है	-4.03406
▁की	-4.05763
े	-4.22522
,	-4.25835
▁को	-4.31
▁से	-4.36349
ा	-4.39259
ों	-4.52981
▁ने	-4.61416
▁का	-4.61573
▁	-4.62306
▁और	-4.76917
▁पर	-4.79777
.	-4.89169
▁कि	-4.91989
न	-4.92841
▁हैं	-5.05678
▁भी	-5.19548
र	-5.26429
▁इस	-5.29846
▁कर	-5.33509
क	-5.37942
ल	-5.3969
▁लिए	-5.40793
म	-5.49613
ने	-5.50726
▁एक	-5.54753
▁नहीं	-5.59065
त	-5.63066
▁किया	-5.66721
-	-5.67648
▁स	-5.69652
▁हो	-5.7208
ं	-5.74566
▁ही	-5.78108
स	-5.784
▁गया	-5.78647
▁यह	-5.82003
ि	-5.8687
ट	-5.88668
▁कहा	-5.91939
▁था	-5.945
द	-5.96509
ो	-5.98683
कर	-6.00266
▁करने	-6.00998
ित	-6.02996
▁जा	-6.04388
▁तो	-6.05768
▁साथ	-6.06401
ू	-6.0748
ना	-6.08231
प	-6.10369
▁बाद	-6.11077
▁रहे	-6.16872
▁दिया	-6.17177
ब	-6.23696
▁न	-6.24007
ता	-6.24644
▁व	-6.25327
ह	-6.29162
ज	-6.30808
▁गई	-6.31779
्	-6.3204
▁रहा	-6.32292
▁तक	-6.33813
य	-6.34079
▁आ	-6.34272
ु	-6.3463
▁रही	-6.3527
▁अ	-6.3572
▁हुए	-6.369
)	-6.37461
श	-6.39208
व	-6.41524
▁(	-6.42478
ियों	-6.43939
▁सरकार	-6.43946
▁उनक	-6.47289
▁पुलिस	-6.48477
ां	-6.48548
▁लोगों	-6.49165
▁अपने	-6.50413
▁प	-6.52846
▁दी	-6.53156
ड	-6.54218
▁म	-6.54599
सी	-6.5469
▁वह	-6.55183
▁उस	-6.56851
▁थी	-6.57775
▁लेकिन	-6.58311
▁थे	-6.60329
ण	-6.60418
▁इसक	-6.60592
िक	-6.60698
ग	-6.6114
्स	-6.62304
▁उन्होंने	-6.62797
▁अब	-6.64816
▁ब	-6.66792
▁गए	-6.66989
ओं	-6.68579
िंग	-6.70813
▁जो	-6.72389
▁होने	-6.74812
ार	-6.75039
▁पहले	-6.76012
▁कुछ	-6.79126
▁बताया	-6.79157
फ	-6.79403
▁क	-6.80407
ते	-6.80826
▁सिंह	-6.82013
▁ज	-6.83405
▁वाले	-6.84096
▁श	-6.85884
▁भारत	-6.87422
▁या	-6.88407
▁लेकर	-6.90491
▁करते	-6.91119
रा	-6.91461
▁र	-6.91853
ए	-6.92051
नी	-6.92567
▁आप	-6.93224
▁साल	-6.93254
वा	-6.93824
▁कोई	-6.94604
ें	-6.94916
ई	-6.95744
या	-6.96122
▁दो	-6.96813
▁अपनी	-6.98387
:	-6.98431
से	-6.98551
▁फ	-6.98942
▁कई	-6.99812
िया	-7.00397
ंग	-7.00566
▁देश	-7.0102
▁दौरान	-7.01841
ख	-7.02153
▁प्र	-7.02362
च	-7.02391
▁बार	-7.03012
▁हुई	-7.03771
री	-7.04416
▁ग	-7.05174
▁ये	-7.05392
▁बात	-7.05773
▁सभी	-7.05786
ला	-7.06564
ली	-7.07994
▁तरह	-7.08302
ती	-7.09476
▁प्रदेश	-7.10668
▁समय	-7.11561
▁इन	-7.11732
▁दे	-7.13162
▁लिया	-7.14214
▁लोग	-7.1538
ड़	-7.16041
▁हुआ	-7.16433
▁दिन	-7.1666
▁दिल्ली	-7.16736
▁फिल्म	-7.18024
▁काम	-7.19389
▁मिल	-7.19748
▁जाने	-7.20353
ष	-7.20531
▁कम	-7.21522
▁द्वारा	-7.21575
िल	-7.21614
▁जिस	-7.21625
▁घर	-7.21826
▁त	-7.21872
▁राज्य	-7.22669
ीय	-7.22671
ाई	-7.23403
थ	-7.23784
▁टीम	-7.23838
्य	-7.23961
▁ह	-7.24136
▁क्षेत्र	-7.2418
▁हम	-7.24371
▁नाम	-7.25007
वार	-7.25776
▁रूप	-7.26418
▁वे	-7.26626
▁चुनाव	-7.26666
▁उन्हें	-7.26669
▁बीच	-7.27064
▁आपक	-7.2822
▁ल	-7.28291
▁जब	-7.28333
▁हर	-7.287
▁शुरू	-7.29483
▁कोरोना	-7.29485
▁होगा	-7.29979
के	-7.30084
▁ले	-7.30239
्र	-7.30833
▁आज	-7.30961
▁ऐस	-7.30975
▁च	-7.31025
▁तीन	-7.32044
पुर	-7.32289
में	-7.33137
▁पा	-7.33949
e	-7.33981
i	-7.3513
▁चल	-7.36251
का	-7.36396
कि	-7.36493
▁सकता	-7.36528
जी	-7.36776
मा	-7.37688
▁जानकारी	-7.37817
▁एव	-7.37957
ै	-7.38212
▁कांग्रेस	-7.38853
▁वहीं	-7.38867
गी	-7.39002
▁जाता	-7.3962
▁मामले	-7.39635
a	-7.3978
▁'	-7.40125
▁भ	-7.40221
▁दोनों	-7.40849
▁राज	-7.41192
▁मैं	-7.41442
▁अधिक	-7.41971
▁कुमार	-7.42079
▁जाएगा	-7.42466
ॉ	-7.4252
▁द	-7.42893
▁करना	-7.44372
'	-7.44467
ंड	-7.44621
ध	-7.4473
▁मु	-7.44788
▁पूर्व	-7.45063
▁फिर	-7.45771
▁वि	-7.46006
▁लग	-7.4616
▁पास	-7.46334
▁रुपये	-7.46615
▁सं	-7.4712
▁लाख	-7.47262
▁करोड़	-7.48327
0	-7.48452
▁उ	-7.49122
▁ए	-7.4964
2	-7.49668
▁वाली	-7.50127
भ	-7.50455
▁कारण	-7.5075
▁पार्टी	-7.51396
कार	-7.51941
बी	-7.52224
▁जारी	-7.52262
4	-7.52682
▁जांच	-7.53751
▁किस	-7.53944
▁गांव	-7.54212
▁मांग	-7.54891
▁सकते	-7.5549
▁शामिल	-7.55514
▁विभाग	-7.5642
▁चाहिए	-7.56423
ंत	-7.56646
्‍	-7.568
▁कार्य	-7.56881
एस	-7.57602
▁ज्यादा	-7.57844
डी	-7.57957
▁ख	-7.57962
पी	-7.58148
टी	-7.58426
▁मोदी	-7.58805
▁अध्यक्ष	-7.58813
▁अन्य	-7.59805
▁सु	-7.60282
▁भारतीय	-7.6089
▁लगा	-7.61178
▁हजार	-7.61217
▁10	-7.61597
▁किए	-7.61733
▁इससे	-7.6174
▁ओर	-7.6198
▁जिले	-7.62212
▁उसके	-7.62741
दा	-7.6293
▁करें	-7.63225
’	-7.64207
ाने	-7.64318
़	-7.64349
▁राम	-7.64432
▁खेल	-7.65259
सभा	-7.65266
▁सी	-7.65548
▁काफ	-7.65743
▁बहुत	-7.66325
▁बन	-7.67107
▁उत्तर	-7.67303
...	-7.67917
एं	-7.67978
▁देने	-7.68023
▁बना	-7.68209
हर	-7.68589
▁खिलाफ	-7.68874
▁भाजपा	-7.70513
▁मंत्री	-7.70609
ति	-7.70739
▁जिला	-7.70925
▁बता	-7.71306
▁प्रति	-7.71449
▁होगी	-7.71485
▁आई	-7.72073
▁-	-7.72782
▁बारे	-7.72857
▁मार	-7.73474
▁सामने	-7.73519
▁उसक	-7.736
▁:	-7.73628
▁देख	-7.73757
▁क्यों	-7.73768
▁‘	-7.73784
▁आने	-7.74332
▁4	-7.74394
▁पूर	-7.74644
▁मौत	-7.74886
जा	-7.75658
ंस	-7.757
1	-7.75777
▁भर	-7.75943
▁ली	-7.76561
ओ	-7.76608
▁इ	-7.76628
▁ना	-7.76679
सा	-7.7717
▁पांच	-7.77202
बसे	-7.77293
िन	-7.77408
▁नि	-7.77571
▁अभी	-7.7899
▁सा	-7.79116
ुल	-7.7938
▁अस्पताल	-7.79498
▁योजना	-7.79499
▁दिए	-7.79542
▁पहुंच	-7.79724
▁3	-7.79931
▁उन	-7.79993
▁अगर	-7.80166
स्ट	-7.80225
ास	-7.80758
▁वाल	-7.8076
▁बंद	-7.81228
▁बी	-7.81299
▁अपना	-7.81963
▁जी	-7.82396
पा	-7.82555
▁बढ़	-7.82566
▁वर्ष	-7.82588
▁जीत	-7.82831
स्त	-7.8302
▁तथा	-7.83104
▁जिसक	-7.83255
वि	-7.83408
▁नई	-7.83594
▁नगर	-7.8366
▁हालांकि	-7.83715
को	-7.83746
5	-7.83962
ठ	-7.84053
▁शहर	-7.85084
▁पी	-7.85132
▁केंद्र	-7.85263
▁बैठक	-7.85365
▁विकास	-7.8558
▁स्थान	-7.85592
▁तैयार	-7.85593
▁चार	-7.85832
▁दर्ज	-7.86136
▁5	-7.8624
3	-7.86365
▁6	-7.86915
वर	-7.87545
▁करीब	-7.87555
▁इसी	-7.87705
की	-7.87839
▁19	-7.87861
ेज	-7.87998
▁रिपोर्ट	-7.88129
▁होता	-7.88547
▁महिला	-7.88591
▁अनुसार	-7.88787
▁वो	-7.88883
▁घटना	-7.89489
▁बच्च	-7.89625
▁मैच	-7.90108
▁मुख्यमंत्री	-7.90125
▁क्या	-7.9017
ंट	-7.90651
▁मे	-7.91721
ाइ	-7.91838
▁आरोप	-7.92723
▁वजह	-7.92726
▁होती	-7.92868
?	-7.934
▁प्रधानमंत्री	-7.93404
▁सब	-7.93999
▁अलावा	-7.94082
s	-7.94772
ले	-7.94814
d	-7.95163
00	-7.95165
क्ष	-7.95179
मान	-7.95204
्ट	-7.95361
▁बड़ी	-7.95513
▁हाल	-7.95708
बा	-7.95768
▁पिछले	-7.9615
अ	-7.96199
▁आए	-7.96217
▁डे	-7.9646
▁स्थिति	-7.96522
ज़	-7.96529
▁2	-7.96877
▁रि	-7.97147
▁सि	-7.97296
र्स	-7.97831
दार	-7.98181
8	-7.9843
शन	-7.98921
▁जबकि	-7.9911
्व	-7.99503
▁निर्देश	-7.99698
टर	-7.9977
▁जान	-8.00028
t	-8.0011
िस	-8.00135
▁पानी	-8.0064
▁12	-8.00926
▁रुपए	-8.01905
▁बा	-8.0266
▁बजे	-8.02703
ियां	-8.0279
्या	-8.02989
वे	-8.03122
▁नेता	-8.03312
▁उप	-8.03369
▁इसलिए	-8.03374
▁बैंक	-8.03375
टा	-8.03393
▁दा	-8.0343
▁रह	-8.04093
▁संख्या	-8.04125
▁अधिकारी	-8.04138
▁स्कूल	-8.04189
▁श्री	-8.04195
▁दिनों	-8.04466
हा	-8.04498
▁दूसरे	-8.04603
▁आम	-8.0461
▁गिरफ्तार	-8.04882
▁मौजूद	-8.04882
▁सुरक्षा	-8.04886
▁जाएगी	-8.04947
▁ऐसा	-8.05215
▁झ	-8.0539
▁सदस्य	-8.05646
▁कंपनी	-8.05646
▁जिसमें	-8.05833
▁मेर	-8.06084
▁परीक्षा	-8.06416
▁सकती	-8.06419
जन	-8.07123
▁जहां	-8.07192
▁निवास	-8.07224
रो	-8.07456
▁ध	-8.0814
▁रहने	-8.0841
▁आगे	-8.08469
▁बनाने	-8.08691
▁बाहर	-8.08812
o	-8.09093
▁खान	-8.09253
▁मुख्य	-8.09535
▁हत्या	-8.09553
▁हूं	-8.09554
▁तहत	-8.09582
वी	-8.09696
▁जनता	-8.09701
ुबह	-8.09748
▁कहन	-8.09831
▁1	-8.09954
▁किसानों	-8.10249
▁कार्यक्रम	-8.10353
▁विधान	-8.10371
▁कु	-8.10533
रिया	-8.10599
▁नजर	-8.10627
▁दल	-8.11055
▁लेने	-8.11323
▁थाना	-8.11604
आई	-8.11656
▁लोक	-8.11709
▁हिंदी	-8.11973
्ल	-8.11979
▁मिला	-8.12288
▁नए	-8.12641
▁जाती	-8.12737
▁परिवार	-8.12831
▁पद	-8.12893
▁आधार	-8.1295
▁ता	-8.13321
▁सह	-8.13384
▁बे	-8.13404
▁कोर्ट	-8.1375
तर	-8.14017
▁दें	-8.1413
प्र	-8.14283
िका	-8.14928
▁मीडिया	-8.15292
ड़ा	-8.15741
▁गो	-8.1608
▁सीट	-8.16118
▁मंदिर	-8.16139
▁निकल	-8.16263
▁मान	-8.16301
पर	-8.16331
▁महीन	-8.16578
▁कुल	-8.16579
▁मिली	-8.16745
▁मरीज	-8.17009
▁जगह	-8.17068
▁रात	-8.17563
▁जैसे	-8.17595
▁8	-8.17717
▁मुताबिक	-8.17856
▁पाकिस्तान	-8.17912
▁15	-8.18169
▁मह	-8.18183
▁भाग	-8.18243
कल	-8.18432
▁बढ़ा	-8.18574
▁7	-8.18825
▁पता	-8.1887
▁20	-8.18918
▁सूचना	-8.18943
आर	-8.19326
▁ई	-8.19439
▁सड़क	-8.19608
▁छ	-8.19756
▁स्थित	-8.20016
▁संबंध	-8.20292
▁कै	-8.20436
गा	-8.20443
▁मौके	-8.20488
▁स्वास्थ्य	-8.20488
त्र	-8.20585
▁रा	-8.20731
राज	-8.21252
▁तब	-8.21289
▁पंचायत	-8.21381
▁युवक	-8.21381
▁बस	-8.21556
▁करेंगे	-8.21753
▁पहली	-8.21845
▁आग	-8.22131
ंज	-8.22164
▁वीडियो	-8.22285
▁निकाल	-8.2231
▁हाथ	-8.22323
स्	-8.22915
▁महा	-8.2294
▁11	-8.22965
▁करता	-8.23137
▁खुद	-8.23192
▁बिहार	-8.23235
▁पूरा	-8.23386
▁योग	-8.23479
मी	-8.23675
▁रो	-8.23711
▁जाए	-8.23951
▁व्यक्ति	-8.23963
ाव	-8.24156
माल	-8.24376
गत	-8.24401
क्र	-8.24612
9	-8.24622
l	-8.24622
▁चर्चा	-8.25034
▁प्रशासन	-8.25034
▁फीसद	-8.25321
▁होते	-8.25556
▁कार्रवाई	-8.25968
▁जल	-8.26164
्री	-8.26173
▁डाल	-8.26253
ेशन	-8.26265
▁दूर	-8.26316
▁पूरे	-8.26538
छ	-8.2679
रेंद्र	-8.26945
▁खबर	-8.26954
▁प्रदर्शन	-8.27051
▁अलग	-8.2739
▁मो	-8.27526
▁एस	-8.27725
▁रन	-8.27936
▁यादव	-8.27946
दी	-8.27964
ेट	-8.28131
▁पहुंचे	-8.28236
▁अन	-8.28535
राम	-8.28736
▁मदद	-8.2883
िट	-8.28938
▁दूसर	-8.29026
ोर	-8.29174
▁बि	-8.29405
घ	-8.29619
▁ला	-8.29645
▁डॉ	-8.29839
▁इतन	-8.29901
▁लगे	-8.29952
▁आर	-8.30383
शा	-8.30589
▁विधायक	-8.30777
▁वापस	-8.30778
▁जल्द	-8.30778
▁बड़े	-8.30868
▁मुझ	-8.30963
▁इसका	-8.31006
ाना	-8.31203
▁बोल	-8.31267
▁गु	-8.31269
▁चला	-8.31335
▁विश्व	-8.31762
▁पढ़	-8.31775
यू	-8.32149
▁शिक्षा	-8.32767
▁राष्ट्रीय	-8.33251
▁14	-8.33743
▁निर्माण	-8.33777
▁छोड़	-8.33778
▁सिर्फ	-8.33778
▁ग्रामीण	-8.33779
▁कोविड	-8.3378
▁आदि	-8.33839
▁जिन	-8.3392
▁पड़	-8.33956
▁सवाल	-8.34023
▁कार	-8.3469
▁गांधी	-8.34798
▁न्यूज़	-8.34823
▁विरोध	-8.34826
▁अधिकारियों	-8.349
ये	-8.34921
▁महिलाओं	-8.34998
▁मिलने	-8.35095
▁करा	-8.35383
ेंट	-8.35422
6	-8.35523
▁भेज	-8.35737
▁विशेष	-8.35824
▁कानून	-8.3583
▁जीवन	-8.35874
A	-8.35876
▁सोमव	-8.36026
▁एन	-8.36335
▁चुक	-8.36385
बंध	-8.36427
एम	-8.36538
भग	-8.36585
वन	-8.3664
ंच	-8.36719
्यू	-8.36847
▁बुधवार	-8.3687
▁चलत	-8.36926
▁लगाया	-8.3708
▁पत्र	-8.3719
▁अनु	-8.37252
▁मामला	-8.3775
p	-8.37922
▁उपलब्ध	-8.37923
▁कभी	-8.38018
▁हाई	-8.38212
u	-8.38341
▁तरफ	-8.38408
▁बदल	-8.38414
▁आया	-8.38442
▁फैसला	-8.38477
▁30	-8.38624
▁पु	-8.38872
r	-8.38878
▁थ	-8.39036
▁देते	-8.39398
्‍य	-8.39427
▁आरोपी	-8.39801
▁कह	-8.39929
▁व्यवस्था	-8.40062
▁दुनिया	-8.40062
▁मंगल	-8.40065
नि	-8.40728
▁चुकी	-8.40913
▁समस्या	-8.41149
▁वाहन	-8.41183
▁यू	-8.41455
▁लगात	-8.41461
▁कप	-8.42117
▁युवा	-8.42248
▁होंगे	-8.42267
▁इंडिया	-8.42316
▁बै	-8.42424
▁जे	-8.42944
▁तेज	-8.43287
/	-8.43359
▁शिकायत	-8.43359
▁अभियान	-8.43359
▁बाजार	-8.43533
▁डा	-8.43691
पाल	-8.43883
ेस	-8.44166
दर	-8.44179
▁लाभ	-8.44549
▁पेश	-8.44815
नाथ	-8.45159
▁करती	-8.45386
▁ट	-8.45443
▁खास	-8.4561
▁शादी	-8.45621
▁दौर	-8.45663
उ	-8.4575
▁कराया	-8.45755
▁किलो	-8.46125
▁पीएम	-8.46204
▁पार	-8.46262
▁जन	-8.46371
्क	-8.46514
▁घोषणा	-8.46768
▁इलाक	-8.46777
लब	-8.46971
▁शर्मा	-8.4698
7	-8.47094
मेंट	-8.47564
▁प्रमुख	-8.47931
▁शुक्र	-8.47931
हित	-8.47966
▁समिति	-8.48011
▁जाना	-8.48035
▁जरूरत	-8.48091
▁मध्य	-8.48178
त्त	-8.48354
▁ऑफ	-8.484
िए	-8.48456
▁करके	-8.48559
▁बच	-8.48686
िम	-8.48828
▁शनिवार	-8.49108
▁प्रयास	-8.49109
▁रेलवे	-8.49125
▁अगल	-8.49228
ेंद्र	-8.49321
▁मन	-8.4967
ेंगे	-8.49936
▁चुका	-8.49999
▁रख	-8.50212
▁ध्यान	-8.50303
▁मुंबई	-8.50364
बर	-8.50386
▁जाते	-8.50464
पूर्ण	-8.50503
▁रे	-8.50517
▁इस्त	-8.51217
▁नंबर	-8.51555
▁राशि	-8.51572
▁बड़ा	-8.51704
▁डी	-8.51907
▁कीमत	-8.51909
▁लाल	-8.51963
▁आयोज	-8.52001
्त	-8.52009
▁25	-8.52051
ेड	-8.52067
m	-8.52091
▁रखा	-8.52452
▁मा	-8.52488
▁पै	-8.52666
▁घायल	-8.52723
▁जवाब	-8.52724
▁प्राप्त	-8.52734
▁बाल	-8.52967
िश	-8.53005
▁अव	-8.5315
▁शिव	-8.53214
▁"	-8.53336
▁दिल	-8.53466
▁खड़	-8.53641
▁गंभीर	-8.53957
▁संगठन	-8.53957
▁समाज	-8.53958
▁बेहतर	-8.53983
▁गा	-8.53996
▁छात्र	-8.5417
▁बिना	-8.54265
▁किसान	-8.54278
क्स	-8.54411
▁बर	-8.5456
▁जेल	-8.54633
▁सर	-8.54662
▁घ	-8.54757
▁सोशल	-8.55208
मो	-8.5523
ूर	-8.55413
S	-8.55477
ियर	-8.55508
▁खरीद	-8.56066
k	-8.56473
मेत	-8.56616
▁केवल	-8.56872
▁स्तर	-8.56874
यर	-8.56939
▁पक्ष	-8.56948
▁सुन	-8.5695
ेश	-8.57111
▁तय	-8.5716
▁दर	-8.57346
मन	-8.57737
ऊ	-8.57754
▁यूपी	-8.57822
▁लिखा	-8.57996
▁बनाया	-8.58
▁ढ	-8.58018
ाहुल	-8.58031
▁बैठ	-8.58243
बल	-8.58267
▁तौर	-8.58284
▁गिर	-8.58384
▁9	-8.58468
ंगी	-8.58592
ौर	-8.5861
▁सके	-8.58626
▁एम	-8.58964
▁व्यापार	-8.59054
▁बाइक	-8.59055
▁भर्ती	-8.59055
नगर	-8.59233
ढ़	-8.59357
▁कार्ड	-8.59918
▁शव	-8.59993
▁सो	-8.60066
▁शाम	-8.60328
र्द	-8.60367
▁कृषि	-8.60369
▁शिक्षक	-8.6037
▁सुविधा	-8.60429
▁होना	-8.60569
▁सीमा	-8.60666
▁साफ	-8.60805
ेगा	-8.60868
चा	-8.60907
लाइन	-8.60998
वास	-8.61118
▁यात्रा	-8.61267
▁लगाने	-8.6168
g	-8.61687
▁रविवार	-8.61721
▁पकड़	-8.61731
▁निगम	-8.61884
भी	-8.62747
▁हमारे	-8.62915
गर	-8.62997
▁प्रतिशत	-8.63056
▁टेस्ट	-8.63096
▁आदेश	-8.63143
▁सोन	-8.63202
▁बेट	-8.63205
क्त	-8.63311
▁देखते	-8.63338
▁हास	-8.63421
▁देखा	-8.63452
▁स्व	-8.63713
▁ग्राम	-8.63729
▁कट	-8.63997
▁मै	-8.64006
वान	-8.64092
▁ठ	-8.64157
▁कार्यालय	-8.64444
▁बल्क	-8.64491
▁उठा	-8.64498
खा	-8.65059
▁इं	-8.6509
▁टी	-8.65175
ोल	-8.65296
▁कल	-8.6531
▁शि	-8.65562
▁सचिव	-8.6586
▁खा	-8.66003
▁50	-8.66172
▁बल	-8.66174
▁देव	-8.66656
▁आयोजन	-8.6668
▁ड	-8.66886
ar	-8.66911
▁सात	-8.66983
▁13	-8.67051
▁बल्लेबाज	-8.67221
▁लौट	-8.67221
वुड	-8.67229
▁कार्यकर्ता	-8.67241
▁विवाद	-8.67245
▁चाहते	-8.6727
▁गौर	-8.67317
▁गठ	-8.67422
मु	-8.67641
▁भा	-8.67716
▁सही	-8.67749
देव	-8.67801
▁ज़	-8.68072
द्ध	-8.68085
झ	-8.68278
▁कमी	-8.68364
▁पति	-8.68651
▁सेवा	-8.6872
▁सम	-8.69034
an	-8.69135
यों	-8.6937
▁चि	-8.69676
वाल	-8.69696
▁हार	-8.69777
▁थीं	-8.69838
सर	-8.70076
▁चौक	-8.70099
▁ट्रेन	-8.7011
▁पि	-8.70111
▁सहयोग	-8.70113
▁उपयोग	-8.70114
▁तेल	-8.70158
इ	-8.70165
▁एयर	-8.70167
▁मेडि	-8.7021
▁खुल	-8.70239
▁जमा	-8.70276
भर	-8.70382
एल	-8.71035
n	-8.71346
म्प	-8.71402
▁2021	-8.7157
▁शेयर	-8.71622
▁फोटो	-8.71666
▁बारिश	-8.7169
्रा	-8.71742
ंध	-8.71783
▁धन	-8.71814
जे	-8.71814
▁मामल	-8.71844
ड़े	-8.71985
▁आठ	-8.71988
▁इनक	-8.7215
▁लड़	-8.72152
आ	-8.72204
▁नेताओं	-8.72254
र्ड	-8.72289
▁18	-8.72501
▁यही	-8.72503
▁कॉ	-8.72528
h	-8.72942
▁उम्मीद	-8.7299
E	-8.73062
▁पसंद	-8.73062
▁बीजेपी	-8.73062
▁लखनऊ	-8.73062
▁सूत्र	-8.73063
▁आयोग	-8.73153
▁वायरस	-8.7322
▁200	-8.73224
I	-8.73576
▁ऑन	-8.73773
र्म	-8.74347
▁कोशिश	-8.7458
▁बयान	-8.74583
धार	-8.74886
▁ऑ	-8.74924
फ़	-8.75412
▁वै	-8.75425
िज	-8.75487
▁पे	-8.75506
▁देखने	-8.75741
▁लिख	-8.75898
▁24	-8.76022
▁दुकान	-8.76081
▁संक्रमण	-8.76125
▁अवसर	-8.76139
▁–	-8.76201
c	-8.76285
▁जाएंगे	-8.76298
▁आय	-8.76309
▁पीछे	-8.76405
▁मां	-8.76499
▁पुरान	-8.76656
▁दिखा	-8.76679
गंज	-8.76795
▁बनाए	-8.76999
in	-8.77022
▁C	-8.77022
▁मत	-8.77112
वीं	-8.7732
▁ओ	-8.77391
िंद	-8.77497
▁पंजाब	-8.77678
▁जुलाई	-8.77679
▁गुरुवार	-8.77714
▁गयी	-8.77765
▁वक्त	-8.7791
▁16	-8.77931
र्न	-8.77968
▁प्रकार	-8.77999
▁क्रिकेट	-8.78081
▁वन	-8.78173
▁घंटे	-8.78183
▁जुड़े	-8.78218
▁मुद्द	-8.78305
▁शो	-8.78378
एन	-8.78379
ुक	-8.78464
▁यद	-8.78872
िव	-8.78938
▁माना	-8.79035
▁समझ	-8.79072
दान	-8.79167
▁मोबाइल	-8.79266
▁कॉलेज	-8.7928
▁हा	-8.7947
▁रोक	-8.79493
▁शाह	-8.79508
▁प्रकाश	-8.7965
ुन	-8.79704
▁रखने	-8.79828
एफ	-8.80218
क़	-8.80595
”	-8.80879
▁हिस्सा	-8.80879
▁प्रस्ताव	-8.80879
▁राजस्थान	-8.80879
▁इलाज	-8.80879
▁मंत्रालय	-8.80883
▁खर्च	-8.80884
▁पहुंचा	-8.8091
▁धर्म	-8.80922
▁वैक्सीन	-8.80957
▁बॉल	-8.80976
▁कैसे	-8.81065
▁अंतर	-8.81215
▁वोट	-8.81388
▁पिता	-8.81406
ग्र	-8.81453
▁सार	-8.81563
▁हमें	-8.81692
धा	-8.81825
▁मई	-8.81828
▁रोड	-8.81852
हार	-8.81924
▁तेजी	-8.81983
▁हमार	-8.82061
र्ट	-8.82317
▁आतंक	-8.82347
▁सभा	-8.82429
▁शुरुआत	-8.82518
▁बजट	-8.82522
▁बोर्ड	-8.82532
▁मात्र	-8.82561
▁सप्ताह	-8.82565
▁माल	-8.82808
▁कश्मीर	-8.82891
न्न	-8.83302
क्क	-8.83561
▁प्रा	-8.83812
▁छात्रों	-8.83978
▁परेशान	-8.83989
▁17	-8.84029
▁नौ	-8.84134
ष्ट	-8.84184
▁उपस्थित	-8.84185
▁माह	-8.84305
ूम	-8.84318
▁पुत्र	-8.84404
▁छह	-8.84534
▁अमेरिका	-8.84863
B	-8.84884
बार	-8.84911
र्ज	-8.85006
ेक्ट	-8.85175
िटी	-8.85296
प्त	-8.85371
ाइट	-8.85483
▁चीन	-8.85794
िस्तान	-8.85879
▁परिषद	-8.8588
▁बिजली	-8.8588
▁जमीन	-8.859
▁जून	-8.85915
▁बह	-8.85985
▁परि	-8.86086
▁राय	-8.8615
▁सीएम	-8.86237
-19	-8.86268
▁भाई	-8.86299
▁हमला	-8.86336
ल्प	-8.86576
C	-8.86597
|	-8.866
गढ़	-8.8676
ीजन	-8.86798
▁अज	-8.86895
▁बच्चे	-8.8706
▁प्रदा	-8.87115
▁मिले	-8.87279
▁सर्व	-8.87317
▁प्रो	-8.87415
▁नियम	-8.87431
जर	-8.87508
▁पेट्रोल	-8.87604
▁विचार	-8.87605
▁रास्त	-8.87689
चर	-8.8783
▁बेह	-8.88056
लाल	-8.88174
▁असर	-8.88191
▁अच्छा	-8.88421
एच	-8.88439
▁लगी	-8.88611
हिर	-8.88709
▁जरूरी	-8.88855
▁विभिन्न	-8.89358
▁पहचान	-8.89358
▁नागरिक	-8.89358
डाउन	-8.89362
▁मैदान	-8.89378
▁नोट	-8.89498
▁प्रभावित	-8.89557
▁वर्षीय	-8.89601
▁फोन	-8.8968
काल	-8.89872
▁दाम	-8.89886
ड़ी	-8.89888
▁डि	-8.90021
R	-8.90124
▁पड़ा	-8.90471
▁100	-8.90519
▁बाव	-8.90634
र्ग	-8.90837
ेंस	-8.9094
ामी	-8.91056
▁अल	-8.91103
▁मौसम	-8.91144
▁प्रक्रिया	-8.91144
जूद	-8.91152
▁विपक्ष	-8.9116
▁पोस्ट	-8.91173
▁मंडल	-8.91321
▁ख़	-8.91326
▁हमले	-8.91364
▁एल	-8.91609
▁23	-8.91744
▁ग्र	-8.92032
▁रंग	-8.92253
लो	-8.92476
▁S	-8.92569
!	-8.92962
▁कर्मचारी	-8.92962
▁निर्णय	-8.92962
▁कंपनिय	-8.92962
▁परिजनों	-8.92962
▁प्रवेश	-8.92962
▁अगस्त	-8.92963
▁तलाश	-8.92963
▁राष्ट्रपति	-8.92969
▁ठीक	-8.92975
▁प्रभारी	-8.93001
▁बदलाव	-8.93012
▁चरण	-8.93015
▁ट्र	-8.93193
▁देर	-8.93346
स्थ	-8.93347
▁अधिकार	-8.93367
▁नव	-8.93392
्च	-8.93489
▁एक्स	-8.93585
▁कहत	-8.93604
्ड	-8.93622
▁बने	-8.93683
ेश्वर	-8.93729
▁यात्र	-8.93784
डे	-8.93869
▁जोड़	-8.93989
▁जम	-8.94395
▁अंति	-8.94549
▁बातचीत	-8.94814
▁विषय	-8.94815
▁महत्व	-8.94832
रिए	-8.94832
▁“	-8.94842
▁आवेदन	-8.9485
▁भूमिका	-8.94851
▁विजय	-8.94995
▁सै	-8.95146
▁व्य	-8.95203
वाह	-8.95447
ार्थ	-8.95454
▁कड़	-8.95589
▁मनो	-8.95598
‍	-8.9579
y	-8.95803
ाइड	-8.95805
ल्ल	-8.95833
▁दिख	-8.95871
▁भू	-8.96365
▁य	-8.96671
w	-8.967
▁दक्षिण	-8.96701
▁इन्ह	-8.96719
▁संयुक्त	-8.96735
▁मिनट	-8.96787
▁प्रेम	-8.96789
▁पार्क	-8.96811
▁सेना	-8.96846
▁पाया	-8.97205
▁संचाल	-8.97261
तम	-8.97263
▁महामा	-8.97302
▁गलत	-8.97515
D	-8.97611
▁B	-8.97822
र्क	-8.97826
ाँ	-8.97887
▁अच्छी	-8.97902
▁राजनीतिक	-8.98061
▁समर्थ	-8.98165
ॉल	-8.98497
स्व	-8.98521
▁नुकसान	-8.98624
▁नेतृत्व	-8.98624
▁लागू	-8.98624
▁छात्रा	-8.98658
▁अपराध	-8.98747
▁भारी	-8.98767
▁बनी	-8.98811
▁आतंकवाद	-8.98825
▁दावा	-8.98883
केश	-8.99711
▁स्प	-8.99726
केंद्रीय	-8.99823
चित	-9.00187
▁फ़	-9.0025
▁गाय	-9.00307
▁60	-9.00415
ियो	-9.00465
▁अफगान	-9.00584
▁मुकाबले	-9.00584
▁वृद्ध	-9.00584
▁माध्यम	-9.00585
▁भगवान	-9.00585
▁ऊपर	-9.00585
▁अदालत	-9.00585
▁दिवस	-9.00585
▁पूजा	-9.00586
▁चयन	-9.00591
▁याद	-9.00615
▁प्रधान	-9.0065
▁लूट	-9.0066
▁समूह	-9.00688
▁लंब	-9.00695
▁जन्म	-9.00706
▁दोपह	-9.00737
"	-9.0084
▁स्थल	-9.00993
▁भेजा	-9.00996
ग्रह	-9.0121
▁पैद	-9.0129
▁कदम	-9.01378
ैक	-9.01395
P	-9.0157
N	-9.01589
ग्राम	-9.01594
▁हु	-9.01737
ाबाद	-9.02215
▁आते	-9.02252
▁अतिरिक्	-9.02584
▁दिसंबर	-9.02584
▁पत्नी	-9.02584
▁वरिष्ठ	-9.02584
▁आखिर	-9.02584
▁राजधानी	-9.02585
▁स्टेशन	-9.02585
▁विकेट	-9.02611
▁नोटिस	-9.02624
▁सांसद	-9.0266
▁मिलेगा	-9.02735
▁अप	-9.02746
▁पढ़ें	-9.02792
▁उत्	-9.02834
▁हमेश	-9.02932
▁खत्	-9.03029
▁40	-9.03103
▁पहला	-9.03289
▁घट	-9.03342
▁होकर	-9.03423
▁चीज	-9.03443
▁बो	-9.03538
▁स्क	-9.03701
▁बढ़त	-9.03761
▁गाड़	-9.03778
▁हटा	-9.0398
ाइज	-9.04053
खंड	-9.04061
20	-9.04133
लैंड	-9.04143
▁रू	-9.04426
▁चा	-9.04566
▁तैयारी	-9.04577
O	-9.04625
▁कर्मचारियों	-9.04625
▁हादसे	-9.04626
▁अंदर	-9.04626
▁जनवरी	-9.04627
▁शराब	-9.04627
▁अपील	-9.04638
▁अमित	-9.0464
▁ब्र	-9.04641
▁2020	-9.04655
▁सुधार	-9.04696
▁टिकट	-9.04739
▁पाए	-9.04784
▁अंत	-9.04889
▁क्षेत्रों	-9.05082
▁रहेगा	-9.05186
50	-9.05222
▁राजनीति	-9.05227
ः	-9.05286
ंडा	-9.05518
▁वर्	-9.05563
द्र	-9.0576
पोर्ट	-9.05831
रोध	-9.05844
व्य	-9.05954
▁अनुम	-9.06035
एंगे	-9.06036
▁जैस	-9.06123
दीप	-9.06288
▁अभि	-9.06628
▁न्याय	-9.06703
निश्चित	-9.06709
▁चौधरी	-9.06709
▁संक्रमित	-9.06709
▁बंगाल	-9.0671
▁सफाई	-9.06711
▁शांति	-9.06712
▁विश्वविद्यालय	-9.06713
▁गरीब	-9.06713
▁मूल्य	-9.06758
▁मार्च	-9.06761
▁कपूर	-9.06813
▁चुन	-9.06898
ानक	-9.06926
▁अच	-9.06929
▁निजी	-9.07022
▁हे	-9.07112
▁टे	-9.07119
▁लॉक	-9.07434
▁करेगा	-9.07501
यी	-9.07893
▁रहता	-9.08026
▁रोग	-9.08199
▁जय	-9.0834
▁पालन	-9.08358
ूट	-9.08678
▁क्षमता	-9.08836
▁सितंबर	-9.08837
▁जिलों	-9.08847
▁राष्ट्र	-9.08869
▁खुश	-9.08872
▁आवाज	-9.08929
▁चंद्र	-9.08946
▁डर	-9.09031
▁कहीं	-9.09124
▁मार्ग	-9.09151
▁पहुंची	-9.09154
▁पड़ता	-9.09262
▁लिय	-9.09586
G	-9.10009
▁रहते	-9.1008
▁देता	-9.10265
▁जुट	-9.10491
▁लाइन	-9.10526
▁सम्मान	-9.10791
▁बीत	-9.10833
▁घोषित	-9.1101
▁तैनात	-9.1101
▁कब्ज	-9.11016
▁नवंबर	-9.11017
▁न्यायालय	-9.11017
▁कमेटी	-9.11019
▁विदेश	-9.11056
▁उम्र	-9.11063
ँ	-9.1117
▁जवान	-9.1118
▁प्रभाव	-9.11191
▁चालक	-9.11218
▁खाद्य	-9.11228
स्था	-9.11243
▁वी	-9.11316
▁ट्रक	-9.11563
▁सोच	-9.1162
▁बॉ	-9.11699
कू	-9.11751
▁कितन	-9.11856
▁आता	-9.11953
िस्ट	-9.11969
▁कराई	-9.12182
िग	-9.12191
मंत्री	-9.12203
राष्ट्रीय	-9.1225
फ्ट	-9.1261
वें	-9.12742
ियन	-9.12843
पो	-9.1295
▁अप्रैल	-9.13232
▁आंदोलन	-9.13232
▁जम्मू	-9.13232
▁मजबूत	-9.13232
▁हरियाणा	-9.13232
▁भोपाल	-9.13233
▁स्थाप	-9.13235
▁प्रतिनिधि	-9.13247
▁क्ल	-9.13336
▁वित्त	-9.13339
▁बाग	-9.1335
▁गर्म	-9.13365
▁विद्यालय	-9.13424
हत	-9.13439
▁दिखाई	-9.13459
▁आसप	-9.13604
▁संघ	-9.13607
▁26	-9.13755
er	-9.14096
M	-9.1446
or	-9.14614
्रम	-9.14685
निक	-9.14943
▁22	-9.1512
▁उड़	-9.15415
▁अहम	-9.1542
▁गेंद	-9.15494
▁पश्चिम	-9.15505
▁गृह	-9.15505
▁आर्थिक	-9.15505
▁निवेश	-9.15505
▁संजय	-9.15508
▁सलमान	-9.1551
▁खोल	-9.15516
▁आइ	-9.15518
▁पैसे	-9.15695
▁मंत्र	-9.15954
▁दीप	-9.15969
▁इनमें	-9.16022
▁कं	-9.1603
▁मच	-9.16186
वल	-9.16301
▁घाट	-9.16315
▁सिर	-9.1644
▁जु	-9.16542
▁लगता	-9.16609
▁बनाकर	-9.16655
अलग	-9.16841
प्ले	-9.17053
▁खिलाड़ी	-9.17078
▁2019	-9.17142
ंगा	-9.17473
र्थ	-9.17509
▁A	-9.17696
▁गोली	-9.17728
▁ब्ल	-9.17729
गार	-9.17772
b	-9.17818
›	-9.17831
▁ट्वीट	-9.17831
▁दरअसल	-9.17831
▁परिणाम	-9.17831
▁मुश्किल	-9.17831
▁पूछ	-9.17832
▁खराब	-9.17836
▁संकट	-9.17838
▁सुनवाई	-9.17844
ेस्ट	-9.17858
मार	-9.17877
▁ओवर	-9.17892
▁देंगे	-9.17967
▁अमर	-9.18095
▁बहन	-9.1851
▁एंड	-9.18738
▁देवी	-9.18927
▁फैसल	-9.18961
▁लि	-9.19042
▁केन्द्र	-9.19076
▁R	-9.19177
T	-9.19209
म्	-9.1925
गो	-9.19444
▁पैर	-9.19608
▁भीड़	-9.19648
रत	-9.19829
धान	-9.19973
▁वर्त	-9.20068
▁अक्टूबर	-9.20212
▁पुरुष	-9.20212
▁मौका	-9.20212
▁विद्यार्थ	-9.20212
▁सौंप	-9.20212
▁फिलहाल	-9.20212
▁शुभ	-9.20213
▁चोट	-9.20216
▁दिशा	-9.20244
▁मुक्त	-9.20317
यल	-9.20378
▁लगाए	-9.20704
▁रेल	-9.21139
प्प	-9.21536
▁लाने	-9.21645
▁थाने	-9.21693
ुद्ध	-9.21753
▁दस	-9.22019
▁उठ	-9.22142
▁जोर	-9.22182
▁जिनक	-9.22305
▁रोज	-9.22312
ुआ	-9.2238
्टर	-9.22389
F	-9.22442
▁बचा	-9.22591
v	-9.22619
▁वायरल	-9.22651
▁उच्च	-9.22651
▁पूछताछ	-9.22651
▁उत्तराखंड	-9.22651
▁गैस	-9.22652
,000	-9.22656
▁1.	-9.22667
ाउंड	-9.2267
al	-9.22678
▁राहत	-9.22687
▁निभा	-9.22695
▁घरेल	-9.227
▁बाबा	-9.23011
▁इंटरने	-9.23048
्मा	-9.23225
▁संबंधित	-9.2334
▁मानव	-9.23428
इस	-9.23537
करण	-9.23607
▁चोरी	-9.23814
▁पीड़ित	-9.23882
▁चले	-9.23992
▁कही	-9.23997
▁सपा	-9.24225
▁पुल	-9.24264
▁दवा	-9.2445
▁मर	-9.2459
▁नही	-9.24905
▁तस्वीर	-9.25048
▁दर्शक	-9.25151
▁समीक्षा	-9.25151
▁संभावना	-9.25151
▁संसद	-9.2516
▁सुरक्षित	-9.25166
▁ऑक्स	-9.25185
▁वार्ड	-9.252
▁सत्ता	-9.25208
▁टीवी	-9.25216
▁भवन	-9.25306
▁धर	-9.25361
ाही	-9.25539
▁साबि	-9.25746
शांत	-9.25788
▁वर्ग	-9.25797
▁P	-9.25875
▁बीमारी	-9.25894
▁रैल	-9.25949
म्ब	-9.26132
हम	-9.26136
▁माता	-9.26162
वाला	-9.26213
▁मि	-9.26271
80	-9.26403
on	-9.26421
▁बढ़ाने	-9.26606
िक्स	-9.2661
।'	-9.26639
ैर	-9.26929
मीटर	-9.2693
▁दोस्त	-9.27006
▁सीध	-9.27047
▁अस	-9.27526
शनल	-9.27528
▁भविष्य	-9.27715
▁रिकॉर्ड	-9.27715
▁मास्क	-9.27725
▁थोड़	-9.27726
फॉर्म	-9.27731
ानदार	-9.27754
▁करेगी	-9.27763
▁सामान्य	-9.27767
▁विमान	-9.2793
▁आवास	-9.2805
▁जरूर	-9.28101
▁तमा	-9.28271
▁टीकाकर	-9.284
▁लें	-9.28603
▁लगाई	-9.28683
▁पाल	-9.29026
▁मतदा	-9.29213
▁सामन	-9.29355
▁उम्मीदवार	-9.29368
ासन	-9.29648
▁खाने	-9.29734
▁बनने	-9.29901
▁सहाय	-9.30155
▁अंक	-9.30174
j	-9.30346
▁एसोसिएशन	-9.30346
▁प्राथमिक	-9.30346
▁समारोह	-9.30346
▁झारखंड	-9.30346
▁परियोजना	-9.30346
▁दाखिल	-9.30347
▁सीरीज	-9.30347
▁तरीके	-9.30348
▁नौकरी	-9.30354
▁2018	-9.30362
▁छूट	-9.30383
▁अंग	-9.30389
▁आत्म	-9.30444
▁फैल	-9.30458
▁गये	-9.30601
▁रक्षा	-9.30606
▁बेटे	-9.30631
▁परेशानी	-9.30659
▁शक्ति	-9.30707
शंकर	-9.30774
▁शासन	-9.30857
▁नया	-9.3086
ैक्ट	-9.309
ज्ञा	-9.30916
▁दुर्	-9.30967
ड्ड	-9.30968
धी	-9.30998
▁बु	-9.31058
रोजगार	-9.31265
▁मिश्रा	-9.31281
▁खो	-9.31284
।"	-9.31345
ल्ड	-9.31363
ल्ला	-9.31379
▁M	-9.31563
▁ऐ	-9.31577
ट्ट	-9.31607
ब्ब	-9.31643
अप	-9.3191
देश	-9.31996
▁सजा	-9.32025
कृत	-9.32083
▁बाक	-9.3218
ra	-9.32181
न्त	-9.32212
▁बुर	-9.32285
▁ताल	-9.32549
▁फेस	-9.32613
▁सवार	-9.3304
W	-9.33049
▁छत्तीसगढ़	-9.33049
▁तिवारी	-9.33049
▁सुप्रीम	-9.33049
▁लक्ष्य	-9.33049
▁गुप्ता	-9.33049
▁2017	-9.33059
▁फरवरी	-9.33075
▁संदेश	-9.33109
▁खूब	-9.33169
▁पत्रकार	-9.33195
▁क्रम	-9.33207
▁सहायता	-9.33255
▁सैनिक	-9.33274
▁मगर	-9.33363
गल	-9.335
▁खिलाड़	-9.33939
हान	-9.34001
▁बिल	-9.34142
ंद्र	-9.3426
▁एड	-9.34277
वादी	-9.34325
वीर	-9.34885
▁किये	-9.35244
ांक	-9.35314
▁पूर्ण	-9.35347
▁31	-9.3558
▁पो	-9.35613
▁अकाउंट	-9.35827
▁चिकित्सक	-9.35827
▁चिकित्सा	-9.35827
▁कोलकाता	-9.35827
▁अवधि	-9.35827
▁बरामद	-9.35828
▁खुलासा	-9.35829
▁कक्षा	-9.35833
▁पटना	-9.35837
▁एप	-9.35873
रानी	-9.36042
▁प्रबंध	-9.36074
तौर	-9.36198
▁एसपी	-9.36513
▁छोटे	-9.36539
स्‍ट	-9.36661
▁आसान	-9.3686
रण	-9.36937
▁सूची	-9.37045
बंदी	-9.3726
▁साह	-9.37342
▁लेना	-9.37741
▁2.	-9.37853
▁35	-9.3803
ावत	-9.38057
बुक	-9.38074
साथ	-9.38089
▁डिज	-9.38093
ाइन	-9.38153
जीत	-9.38198
▁सलाह	-9.38634
▁सफल	-9.38644
ॅ	-9.38684
▁पेंशन	-9.38685
▁वितरण	-9.38685
▁आदमी	-9.38686
▁चिंता	-9.38688
▁किशोर	-9.38689
▁फुट	-9.38689
▁आंख	-9.3869
▁डॉलर	-9.38691
▁हालात	-9.38703
▁ऑफिस	-9.38775
▁इंटर	-9.38797
▁चेक	-9.38814
ैंड	-9.38936
ोत	-9.38954
सूस	-9.38963
कर्मियों	-9.39086
▁उत्पादन	-9.39374
▁नदी	-9.39414
चल	-9.3954
▁बेच	-9.39581
▁सत्र	-9.39727
वाड़	-9.40244
▁साध	-9.40339
▁लाखों	-9.40351
दि	-9.40428
▁21	-9.40556
▁लो	-9.40615
घाट	-9.40644
▁दु	-9.40675
▁वर्षों	-9.41045
▁फल	-9.41057
ंडर	-9.41318
▁अच्छ	-9.41484
▁याचिका	-9.41619
▁प्रस्तुत	-9.41625
▁वेबसाइट	-9.41625
▁अग्रवाल	-9.41625
▁बदमाश	-9.41625
▁गिरावट	-9.41625
▁ठाकुर	-9.41625
▁अफसर	-9.41625
▁गतिविधिय	-9.41626
▁उपचार	-9.41626
▁वकील	-9.4163
▁चेहर	-9.41631
▁शरीर	-9.41631
▁प्यार	-9.41635
▁फसल	-9.41656
यंत्र	-9.41662
▁धारा	-9.41662
पति	-9.41665
▁तकनीक	-9.41681
▁कानपुर	-9.41684
▁जला	-9.41898
▁लु	-9.42101
▁व्यक्त	-9.42123
▁रोकने	-9.42462
▁दूसरा	-9.42503
▁लड़की	-9.42916
त्व	-9.42938
▁दम	-9.43295
शाल	-9.43605
(	-9.43667
न्द	-9.43734
कोर्ट	-9.43749
▁उत्पाद	-9.43928
▁मश	-9.441
▁भाव	-9.44414
क्शन	-9.44524
ज्ज	-9.4462
▁उम	-9.44648
▁अशोक	-9.44655
▁एक्सप्रेस	-9.44655
▁चौहान	-9.44655
▁प्रत्येक	-9.44655
▁मुलाकात	-9.44655
▁आरक्षण	-9.44656
▁भोजन	-9.44656
▁कारोबार	-9.44656
▁प्रसाद	-9.44657
▁ऑस्ट्रेलिया	-9.44659
▁महाराष्ट्र	-9.4466
▁कोतवाल	-9.44668
▁स्पष्ट	-9.44679
▁सेंटर	-9.44712
▁तुर	-9.44715
▁एजेंसी	-9.44726
▁रोशन	-9.44782
▁शाय	-9.44786
▁मंच	-9.45084
▁कमर	-9.45153
राह	-9.45241
▁निर्	-9.45245
▁मानना	-9.45538
▁27	-9.45643
▁तोड़	-9.45786
▁सुख	-9.45798
▁चढ़	-9.45856
मेल	-9.4595
▁न्यूज	-9.46104
▁मना	-9.46157
▁आंकड़	-9.46282
▁फ्र	-9.46321
पू	-9.46389
▁रखे	-9.46407
▁वाद	-9.46656
H	-9.46771
पुरा	-9.46982
मंद	-9.47038
-20	-9.47158
▁सुर	-9.47433
▁सच	-9.47586
▁गुरु	-9.47668
▁मूल	-9.47732
▁पॉजिटिव	-9.4778
▁समुदाय	-9.4778
▁सार्वजनि	-9.4778
▁प्रदूषण	-9.47781
▁प्रवक्त	-9.47781
▁सूर्य	-9.47786
▁उद्योग	-9.47787
▁इतिहास	-9.47789
▁मकान	-9.4779
शिप	-9.47819
▁परिसर	-9.47839
▁वर्मा	-9.47888
▁दर्द	-9.47927
▁हवाई	-9.47932
▁पेड़	-9.47969
▁उतर	-9.48038
▁पर्यटक	-9.481
योग	-9.48139
▁सफलता	-9.4818
▁चम	-9.482
▁गोल	-9.48262
▁28	-9.48395
▁फंस	-9.48421
र्व	-9.48432
डल	-9.48666
▁संपर	-9.48844
▁लेख	-9.49087
▁G	-9.49244
▁D	-9.49458
▁चलाने	-9.49606
▁बहु	-9.49861
▁आती	-9.49875
▁आवश्यक	-9.49897
ढ	-9.49956
▁70	-9.50127
जल	-9.5025
भाव	-9.50252
▁लेत	-9.50282
▁जाएं	-9.5034
ेयर	-9.5054
ेलन	-9.50633
▁अभिन	-9.50652
▁तर	-9.50967
▁इंतजार	-9.51006
▁तहसील	-9.51006
▁पुरस्कार	-9.51006
▁अवैध	-9.51006
▁कप्तान	-9.51006
▁आबादी	-9.51006
▁संवाददाता	-9.51007
▁पटेल	-9.51007
▁संभव	-9.51007
▁समाप्त	-9.51007
▁जनपद	-9.51008
▁प्रथम	-9.5101
▁शिविर	-9.51011
▁विराट	-9.51011
▁कोहली	-9.51036
▁गार्ड	-9.51049
▁होटल	-9.51061
▁नीच	-9.51063
▁रायपुर	-9.51136
▁सामाजिक	-9.51155
ेटर	-9.51169
▁चली	-9.5131
▁रावत	-9.51341
ाड़ी	-9.51375
▁फ्ल	-9.5139
ोग	-9.51404
▁राजा	-9.51409
▁स्वाग	-9.51458
▁नियमित	-9.51475
▁आस	-9.51534
युक्त	-9.51598
स्तर	-9.5166
▁टूट	-9.51832
▁जोन	-9.51898
10	-9.52008
▁नीत	-9.52147
▁मेल	-9.5217
▁गल	-9.52321
▁सम्म	-9.52387
▁खेत	-9.52599
▁N	-9.52643
▁रखी	-9.52834
▁निशान	-9.53108
▁सम्	-9.5326
▁पीट	-9.53293
▁कस	-9.53548
▁संस्था	-9.53701
▁नय	-9.53793
इन	-9.53803
▁आरोपिय	-9.53927
▁असल	-9.54066
टम	-9.54103
▁पारी	-9.54184
▁चुनौती	-9.5434
▁मोहम्मद	-9.5434
▁रद्द	-9.5434
▁शीर्ष	-9.5434
▁शहीद	-9.5434
▁आनंद	-9.5434
▁निर्वाच	-9.5434
▁स्वयं	-9.5434
▁दबाव	-9.54341
▁विजेता	-9.54342
▁पांडे	-9.54348
▁प्रोफे	-9.5435
सीबीआई	-9.54353
▁स्टार	-9.54357
▁चाह	-9.5446
▁आजाद	-9.54472
▁मिलेगी	-9.54477
▁वैसे	-9.54566
ानंद	-9.54584
▁डीएम	-9.54603
▁कर्ज	-9.54618
▁मालिक	-9.54648
▁अर्ज	-9.54702
ुश	-9.54888
▁ओम	-9.55024
▁टॉप	-9.55028
▁सबक	-9.55244
▁मिलते	-9.55564
क्सर	-9.55609
▁टै	-9.55696
▁उम्मीदवारों	-9.55762
▁खेती	-9.56283
-1	-9.56411
▁I	-9.56583
▁अली	-9.5662
वाई	-9.56648
▁डॉक्टर	-9.56681
▁पल	-9.5673
आइ	-9.56856
घर	-9.56982
बड़	-9.57488
ध्यक्ष	-9.57614
‌	-9.57788
▁अभिनेत्री	-9.57788
▁ऊर्जा	-9.57788
▁एक्ट्रेस	-9.57788
▁जागरूक	-9.57788
▁पौधे	-9.57788
▁फायदा	-9.57788
▁आधिकार	-9.57788
▁हफ्त	-9.57788
▁संपत्ति	-9.57789
▁अनुभव	-9.57789
▁तारीख	-9.57789
▁प्रचार	-9.5779
▁मधु	-9.57791
मूर्ति	-9.57799
▁फरार	-9.57806
कलेक्टर	-9.57807
▁मंडी	-9.57814
▁उपाय	-9.57823
▁फर्जी	-9.57846
▁प्रयोग	-9.57888
▁>	-9.57912
▁भक्त	-9.57945
ालय	-9.5808
ार्मिक	-9.5808
▁गीत	-9.58092
▁भूमि	-9.58094
▁कृष्ण	-9.58125
ाधिक	-9.58189
ात्मक	-9.58192
▁निर्धार	-9.58203
वाद	-9.58213
▁खिल	-9.58389
▁मंजूरी	-9.58497
▁रु	-9.58497
इय	-9.58508
▁29	-9.58596
▁खतरा	-9.58726
▁मिलती	-9.58773
ताओं	-9.58783
▁घुस	-9.58972
▁आवश्यकता	-9.58989
▁स्वा	-9.58998
▁निग	-9.58999
िटल	-9.59166
ियत	-9.59241
▁तीसरे	-9.59249
मेश	-9.59547
▁हवाल	-9.59603
▁रहत	-9.59605
▁रै	-9.59822
▁|	-9.59844
▁तीसर	-9.59879
▁मिश्र	-9.601
▁अमेरिक	-9.60105
49	-9.60162
▁ट्रै	-9.60214
भाषा	-9.60352
मैं	-9.60382
▁पहल	-9.60396
स्त्र	-9.60507
▁उद्	-9.60591
▁जानत	-9.60752
ीकरण	-9.60908
.5	-9.60955
च्छ	-9.61171
▁ऋ	-9.61324
▁अध्यापक	-9.61359
▁कौन	-9.61359
▁विधेयक	-9.61359
▁टक्कर	-9.6136
▁मार्केट	-9.6136
▁कैंसर	-9.6136
▁तुलना	-9.6136
▁इंग्ल	-9.61362
▁फायर	-9.61363
▁ओपन	-9.61363
▁मोहन	-9.61364
▁प्रतिभा	-9.61365
▁अभिनेता	-9.61369
▁युद्ध	-9.61382
पेट	-9.61397
▁रिलीज	-9.61397
▁पुष्ट	-9.61409
▁इंडियन	-9.61481
जागरण	-9.61489
▁गंगा	-9.61519
ic	-9.6152
▁सामान	-9.61543
▁45	-9.61563
▁भल	-9.61578
▁राज्यपाल	-9.61601
▁महंगा	-9.61612
▁दोबार	-9.61616
ेन्द्र	-9.61619
▁एशिया	-9.61634
ण्ड	-9.61666
▁फिट	-9.61704
▁चीनी	-9.61752
▁विश्वास	-9.61917
▁अंतर्	-9.62035
▁असम	-9.62286
ाचार	-9.62401
▁खरीदने	-9.62611
▁गईं	-9.62677
▁T	-9.62891
25	-9.62895
▁खाते	-9.62926
▁नीति	-9.62986
▁रिश्	-9.63101
▁खंड	-9.63598
▁रूस	-9.63715
▁मजदूर	-9.63956
▁हल	-9.6402
कुल	-9.64198
▁प्ला	-9.64301
▁बद	-9.64364
▁खाना	-9.64366
▁कब	-9.64377
▁नै	-9.64502
▁अधि	-9.6461
ध्या	-9.64683
▁पेट	-9.65037
▁स्ट्र	-9.65056
कैबिनेट	-9.65063
▁अधीक्षक	-9.65063
▁इंस्पेक्टर	-9.65063
▁कर्नाटक	-9.65063
▁चेतावनी	-9.65063
▁चेयरमैन	-9.65063
▁ज्ञापन	-9.65063
▁मजबूर	-9.65063
▁हिस्से	-9.65063
▁चौथ	-9.65063
▁प्रतियोगिता	-9.65063
▁विकसित	-9.65063
▁व्यवसाय	-9.65063
▁अपडेट	-9.65063
▁हाउस	-9.65063
▁सिन्हा	-9.65063
▁उन्‍ह	-9.65064
▁जायेगा	-9.65064
▁साझा	-9.65065
▁जिन्हे	-9.65065
▁कैंप	-9.65066
▁गुजरात	-9.65067
▁विशेषज्ञ	-9.65078
▁मुख्यालय	-9.65097
▁संवाद	-9.65131
▁क्लास	-9.65152
▁सिद्ध	-9.65152
कर्ता	-9.65176
▁रहेंगे	-9.65211
▁तस्वीरें	-9.65216
▁शिकार	-9.6522
▁लड़ाई	-9.6525
▁चाहता	-9.6529
▁फाइनल	-9.6535
थित	-9.65378
▁ठंड	-9.6543
▁बर्	-9.65544
▁K	-9.65579
▁देगा	-9.65598
▁दर्जन	-9.65629
▁मृतक	-9.65668
▁खोज	-9.65786
▁रखना	-9.65811
▁नील	-9.65824
▁जिलाधिकार	-9.65827
▁संस्थान	-9.65883
▁कहानी	-9.6595
▁दोष	-9.66174
▁मजदूरों	-9.66183
▁एडमि	-9.66228
▁डॉक्टरों	-9.66268
श्त	-9.66285
▁वीर	-9.66375
ल्फ	-9.66387
मैन	-9.66416
▁नकल	-9.66422
▁आरोपित	-9.66461
▁नेशनल	-9.66599
▁न्यू	-9.66894
पूर	-9.67135
▁हित	-9.67196
▁पदक	-9.67232
▁डिग	-9.67273
चना	-9.67323
बाज	-9.67405
▁ड्र	-9.67565
्रिय	-9.67646
फर	-9.67876
पूर्व	-9.67969
▁भु	-9.68119
▁आकर	-9.68229
▁कोर्स	-9.68336
▁संग	-9.68496
वां	-9.68672
▁लंबी	-9.68718
▁रखें	-9.68889
30	-9.68894
▁तत्काल	-9.68909
▁परिवहन	-9.68909
▁मुस्लिम	-9.68909
▁शब्द	-9.68909
▁उर्फ	-9.68909
▁दिक्कत	-9.68909
▁मुफ्त	-9.68909
▁श्रमिक	-9.68909
▁ट्रेलर	-9.68909
▁तापमान	-9.68909
▁ग्रुप	-9.6891
▁भरोसा	-9.6891
▁सैन्य	-9.6891
▁स्टोर	-9.68912
▁स्टेट	-9.68912
▁इस्लाम	-9.68912
▁जंगल	-9.68919
▁माय	-9.68941
▁प्रशिक्षण	-9.6895
▁32	-9.6895
▁वार्ता	-9.68999
▁जयपुर	-9.69037
▁रुप	-9.69039
st	-9.69048
▁अनुमान	-9.69063
▁लाइट	-9.69082
▁हवा	-9.69143
▁उठाया	-9.69191
▁महिलाएं	-9.69201
▁बिगड़	-9.69202
▁सियास	-9.69222
▁सहमत	-9.69269
▁आयु	-9.69291
▁रखते	-9.69293
काश	-9.69417
▁समझा	-9.69433
▁पंच	-9.69489
डियो	-9.69542
▁रवान	-9.6956
▁खाल	-9.69572
▁बतात	-9.69613
▁कर्म	-9.69664
▁U	-9.69732
▁बचाने	-9.69778
▁लाय	-9.69893
नीय	-9.6997
िकल	-9.70244
कृति	-9.70244
अर्	-9.70256
▁गेंदबाजी	-9.7039
▁लोन	-9.70538
▁क्व	-9.70553
▁सुना	-9.70729
▁विल	-9.7096
▁पड़े	-9.70974
▁नाल	-9.70976
शाला	-9.7102
▁लगाते	-9.71295
▁चोर	-9.71314
▁सपन	-9.71426
पन्न	-9.7153
कीय	-9.71732
▁नियुक्ति	-9.71978
ूस	-9.7211
िहार	-9.72171
▁डो	-9.72839
▁सारा	-9.7288
रफ्तार	-9.72909
▁अतिक्रमण	-9.72909
▁दुष्कर्म	-9.72909
▁शीघ्र	-9.72909
▁सिलसिल	-9.72909
▁हथियार	-9.72909
f	-9.72909
▁एटीएम	-9.72909
▁लॉन्च	-9.72909
▁दर्शन	-9.72909
▁हिंदू	-9.72909
▁ऊंच	-9.7291
▁खारिज	-9.7291
▁सख्त	-9.7291
▁भ्रष्टाचार	-9.72911
▁तहरी	-9.72923
▁वर्ल्ड	-9.72928
▁किरदार	-9.72931
▁प्लांट	-9.72952
▁घूम	-9.72969
▁रोहित	-9.72996
▁जानिए	-9.73034
▁वॉ	-9.7321
▁J	-9.73302
▁जोड़ी	-9.7332
▁किनार	-9.73398
▁विधि	-9.73472
जनक	-9.73577
▁एमए	-9.73609
▁प्लान	-9.7371
▁जितन	-9.7383
पंप	-9.74034
▁जिम्मेदारी	-9.74054
▁भाषा	-9.74054
वेयर	-9.74335
क्षय	-9.74352
▁कमल	-9.74379
▁500	-9.74461
▁बेल	-9.74492
ममता	-9.7478
▁नो	-9.74858
▁पॉ	-9.7492
45	-9.74963
रूप	-9.75021
▁जि	-9.75133
▁जैसा	-9.75397
▁अरब	-9.75398
▁पाई	-9.75745
गांव	-9.76112
मती	-9.76201
वर्त	-9.76264
▁लीग	-9.76839
ed	-9.76947
▁अरविंद	-9.77076
▁दौड़	-9.77076
▁मुकाबला	-9.77076
▁वाराणसी	-9.77076
▁वैज्ञानिक	-9.77076
▁सामग्री	-9.77076
▁स्टूडेंट	-9.77076
▁स्टेडियम	-9.77076
▁जिन्हों	-9.77076
▁पदाधिकारियों	-9.77076
▁परिवर्तन	-9.77076
▁संबोधित	-9.77076
▁कल्याण	-9.77076
▁विकल्प	-9.77077
▁ट्रंप	-9.77077
▁पोस्टमार्	-9.77078
▁संकेत	-9.77079
▁आउट	-9.77079
आईपीएल	-9.77082
▁जताई	-9.77084
▁सकेंगे	-9.77087
▁नाग	-9.77092
▁पदाधिकारी	-9.77092
▁खून	-9.77095
▁हिंसा	-9.77098
▁टैक्स	-9.77101
▁जापान	-9.77116
▁कैमर	-9.77118
th	-9.77166
▁लागत	-9.77199
▁टाइ	-9.77213
▁बुक	-9.77225
▁हॉल	-9.77254
▁संगीत	-9.77302
वंश	-9.7732
▁सुपर	-9.77348
▁बुला	-9.77355
37	-9.7746
▁सफर	-9.77524
▁देखें	-9.77553
▁डीजल	-9.77605
▁चार्ज	-9.77693
वाएं	-9.77699
हूर	-9.7776
▁गति	-9.77796
▁बताई	-9.7786
▁मले	-9.78142
किन	-9.78142
टेक	-9.78174
ैग	-9.78279
▁सर्वे	-9.78289
डिया	-9.78292
▁कला	-9.78316
▁छोटी	-9.78458
रेन	-9.78512
▁बातें	-9.78646
रेशन	-9.78673
▁विन	-9.78721
▁फर्	-9.78876
15	-9.78896
कर्मी	-9.79196
▁पीड़िता	-9.79246
22	-9.79301
तंत्र	-9.79451
▁गुर	-9.79507
▁रुक	-9.7958
▁सूच	-9.79758
ासत	-9.79804
▁आसानी	-9.79944
▁जुड़	-9.80018
▁चै	-9.8012
▁खात	-9.80137
96	-9.80292
L	-9.80411
कश्मीर	-9.80428
40	-9.80598
▁प्रभा	-9.80649
▁डाय	-9.80832
▁कराए	-9.80999
ैनिक	-9.81227
▁उन्ह	-9.81373
▁गान	-9.81393
▁दुर्घटना	-9.81424
▁भुगतान	-9.81424
▁हिमाचल	-9.81424
▁हिसाब	-9.81424
▁कॉलोनी	-9.81424
▁धमकी	-9.81425
▁सक्रिय	-9.81425
▁Rea	-9.81426
▁वस्तु	-9.81426
▁सिविल	-9.81426
▁बिक्री	-9.81427
▁सिस्टम	-9.81427
▁‘‘	-9.81431
▁प्रताप	-9.81431
▁जैन	-9.81432
▁मध्यप्रदेश	-9.81433
▁इंदौर	-9.81438
▁सेक्टर	-9.81439
▁ज्ञान	-9.81442
▁प्रसार	-9.81443
▁चावल	-9.81456
▁प्रावधान	-9.81474
▁जोशी	-9.81491
▁पदार्थ	-9.81498
▁बिल्क	-9.81508
▁गेम	-9.81522
▁शेर	-9.8157
▁घेर	-9.81576
38	-9.8161
▁सत्य	-9.81615
▁लिस्ट	-9.81655
िट्टी	-9.81665
▁अंदाज	-9.81672
▁जब्त	-9.81691
▁प्रवास	-9.81789
▁ट्वि	-9.81811
▁पर्या	-9.82086
ाणु	-9.82149
▁प्रत्याशी	-9.825
▁नियुक्त	-9.82506
यां	-9.82667
▁सिटी	-9.82699
▁चंद	-9.82867
▁टू	-9.83004
▁टो	-9.83016
▁डिस्	-9.83059
sh	-9.83079
▁निशाना	-9.83107
▁जुड़ी	-9.83389
▁चाहे	-9.83538
▁आंकड़े	-9.83561
स्प	-9.83566
▁रोल	-9.83847
▁कॉल	-9.84168
्यूट	-9.84226
▁जुटा	-9.8441
▁घंट	-9.84646
▁90	-9.84791
प्रकाश	-9.85011
▁पर्यट	-9.85534
%	-9.85969
▁उल्लंघन	-9.85969
▁उल्लेख	-9.85969
▁खूबसूरत	-9.85969
▁चंडीगढ़	-9.85969
▁प्रश्न	-9.85969
▁शुक्ला	-9.85969
▁स्वर्ण	-9.85969
▁पर्यावरण	-9.85969
▁रिजर्व	-9.85969
▁व्यवहार	-9.85969
▁संस्कार	-9.85969
▁जस्टिस	-9.85969
▁निदेशक	-9.85969
▁यूनियन	-9.85969
▁मोर्च	-9.8597
▁विस्तार	-9.8597
▁उपाध्यक्ष	-9.8597
▁वसूल	-9.8597
▁नामांकन	-9.8597
▁लक्ष्मी	-9.8597
▁मारपीट	-9.8597
▁उत्साह	-9.85971
▁निर्माता	-9.85972
▁जयंती	-9.85972
▁अखिलेश	-9.85982
▁उतार	-9.86004
▁नवीन	-9.86015
▁कलाकार	-9.86034
▁गोल्ड	-9.86043
▁अकेल	-9.86085
▁सदन	-9.86088
▁दि	-9.86091
▁त्रि	-9.86115
▁ऑपरे	-9.86117
▁विवाह	-9.86122
▁मनाया	-9.86129
▁पैसा	-9.86146
▁अनि	-9.86164
▁शुल्क	-9.86324
▁चलाया	-9.8645
▁ईरान	-9.86455
▁गेट	-9.86481
▁अन्न	-9.86489
▁सम्मानित	-9.86499
▁हस्त	-9.86533
▁लहर	-9.86707
▁33	-9.86898
▁अपर	-9.87035
नजर	-9.8707
स्टिक	-9.87147
▁आईसी	-9.87269
▁पोल	-9.87305
▁स्ल	-9.8735
▁खतरे	-9.8744
19	-9.87465
▁H	-9.87467
केट	-9.87511
▁चार्ट	-9.87517
-2	-9.87603
▁लड़क	-9.87616
▁मीटर	-9.87822
▁केरल	-9.87921
▁दान	-9.8793
ol	-9.87943
▁दोस्तों	-9.87994
▁खतर	-9.88257
लोक	-9.88327
▁समान	-9.88377
▁विर	-9.88433
▁लड़किय	-9.88668
द्दे	-9.88779
विक	-9.88787
▁जुड़ा	-9.88798
ur	-9.88827
27	-9.88986
U	-9.89088
तः	-9.89185
ंबर	-9.89308
▁फीस	-9.89344
▁क्रिकेटर	-9.89499
▁गण	-9.90027
वंत	-9.90037
▁टॉ	-9.90106
▁खाद	-9.90306
▁लॉ	-9.90441
बहादुर	-9.90731
​	-9.90731
▁अध्ययन	-9.90731
▁उपभोक्ता	-9.90731
▁औद्योगिक	-9.90731
▁गेहूं	-9.90731
▁ग्राहक	-9.90731
▁टूर्नामेंट	-9.90731
▁प्रसिद्ध	-9.90731
▁प्रियंका	-9.90731
▁लापरवाह	-9.90731
▁शाहरुख	-9.90731
▁2014	-9.90731
▁संभाल	-9.90731
▁हंगामा	-9.90731
▁परीक्षण	-9.90731
▁वायु	-9.90731
▁आकर्ष	-9.90731
▁परंपरा	-9.90731
▁शूटिंग	-9.90731
▁गर्भ	-9.90732
▁डेस्क	-9.90732
▁शर्त	-9.90733
▁मानसिक	-9.90733
▁बजाय	-9.90738
▁मनीष	-9.90739
ियम	-9.9074
▁तनाव	-9.9074
▁निराश	-9.9075
▁2016	-9.90752
▁गंद	-9.90753
▁जमानत	-9.90757
▁मशीन	-9.90757
▁रेफर	-9.90764
▁फेंक	-9.90778
▁कालेज	-9.90781
▁फूल	-9.90782
▁वनडे	-9.90787
▁दूध	-9.9079
▁पालिका	-9.90796
▁किताब	-9.9083
▁स्वामी	-9.90831
ेटिव	-9.90858
▁दायर	-9.90869
▁कार्यकाल	-9.90878
पत्र	-9.90898
लेक्शन	-9.909
▁साढ़	-9.90905
▁गैर	-9.90913
▁यूजर	-9.90944
जोर	-9.90965
▁शास	-9.91012
▁आयुक्त	-9.91022
▁दिनेश	-9.91092
▁आएगी	-9.91189
▁अंकित	-9.91201
पीठ	-9.91254
▁पाठ	-9.91262
▁अहमद	-9.91278
▁कार्यकार	-9.91338
▁सिम	-9.91375
स्थल	-9.91442
स्‍त	-9.91698
न्ह	-9.92016
▁चाल	-9.92072
बोध	-9.92125
▁सकें	-9.9249
18	-9.92533
▁बैग	-9.92765
▁हेम	-9.9307
▁पोर्ट	-9.93143
▁दू	-9.93203
ma	-9.93282
▁खर	-9.9377
▁टिक	-9.93832
▁गेंदबाज	-9.93856
ग्रस्त	-9.94286
▁टन	-9.94399
▁कन्	-9.94663
सूचना	-9.94742
सिंह	-9.94743
▁पुलिसकर्म	-9.94936
ch	-9.94948
हाँ	-9.95068
▁फैला	-9.95533
▁अरुण	-9.95731
▁Home	-9.95731
▁अर्थव्यवस्था	-9.95731
▁आपूर्ति	-9.95731
▁केजरीवाल	-9.95731
▁मेहनत	-9.95731
▁संशोध	-9.95731
▁अधिनियम	-9.95731
▁बढ़ोतरी	-9.95731
▁जिंदगी	-9.95731
▁दिल्‍ली	-9.95731
▁निर्यात	-9.95732
▁मैसेज	-9.95732
▁विज्ञान	-9.95732
▁सब्जी	-9.95732
▁गैंग	-9.95732
▁धोनी	-9.95733
▁सिनेमा	-9.95733
▁स्टाफ	-9.95733
▁शख्स	-9.95734
▁बनर्जी	-9.95734
▁विक्रम	-9.95734
▁स्वीकार	-9.95735
▁लिहाज	-9.95738
▁मुंह	-9.95738
▁फार्म	-9.95739
▁पशु	-9.9574
▁मॉडल	-9.9574
▁करवाया	-9.95741
त्कार	-9.95741
▁ताकत	-9.95742
▁एंटी	-9.95769
▁चांद	-9.95778
▁स्वीकृत	-9.95787
▁मिशन	-9.95813
▁बांध	-9.9586
▁गोपाल	-9.95867
▁पायल	-9.95888
▁आएगा	-9.95946
▁गन्न	-9.96009
▁पहुंचाया	-9.96055
▁बांट	-9.96058
▁निरीक्षक	-9.96071
▁लेंगे	-9.96078
िमांड	-9.96137
▁सोना	-9.96175
ंतु	-9.962
▁सीओ	-9.96236
▁दस्त	-9.96317
▁V	-9.96385
▁हंस	-9.96523
एसआई	-9.96739
▁वेस्ट	-9.96832
▁L	-9.96912
▁समर्थक	-9.9699
▁सौर	-9.97076
पीसी	-9.97448
िंदर	-9.97537
तिन	-9.9789
▁एकत्र	-9.97935
▁निर	-9.97965
शील	-9.98182
ay	-9.98186
▁टोल	-9.98666
त्म	-9.9895
▁मॉ	-9.98957
विध	-9.99005
गणना	-9.99036
▁जानकार	-9.99552
धुन	-10.0022
ूंगा	-10.0038
▁रेड	-10.006
▁करवान	-10.0078
मेर	-10.009
▁अभ्य	-10.0099
▁अमृत	-10.0099
▁इंडस्ट्री	-10.0099
▁उद्देश्य	-10.0099
▁डाउनलोड	-10.0099
▁नोएडा	-10.0099
▁मुकदमा	-10.0099
▁वारदात	-10.0099
▁संतोष	-10.0099
▁सीसीटीवी	-10.0099
▁सैंपल	-10.0099
▁एसडीएम	-10.0099
▁दावेदार	-10.0099
x	-10.0099
▁इंटरव्यू	-10.0099
▁इच्छा	-10.0099
▁अयोध्	-10.01
▁चक्कर	-10.01
▁हेतु	-10.01
▁व्यापक	-10.01
▁श्याम	-10.01
द्दीन	-10.01
▁कामकाज	-10.0101
▁समीप	-10.0101
▁2015	-10.0103
स्‍थ	-10.0103
▁रजिस्ट्र	-10.0104
57	-10.0104
▁ट्रेड	-10.0106
▁अत्य	-10.0106
▁गुजर	-10.0108
▁नतीज	-10.0108
▁पड़ेगा	-10.0114
▁सरदार	-10.0117
▁पाएंगे	-10.0117
्यादा	-10.0128
▁आरएस	-10.0129
▁विनो	-10.0136
▁रचना	-10.0141
धारण	-10.0142
▁क्लब	-10.0148
तिथि	-10.0173
▁सर्च	-10.0175
▁चाय	-10.0181
▁रवि	-10.019
कथा	-10.02
▁बेड	-10.0201
▁तिथि	-10.0201
एसपी	-10.0216
▁तार	-10.0234
▁छत	-10.0238
काउंटर	-10.0252
निर्भर	-10.0266
▁फिल	-10.0267
वर्ध	-10.0315
▁पैक	-10.0319
▁लुक	-10.0327
▁बचत	-10.0331
▁गुम	-10.0333
▁सहार	-10.0333
▁हटान	-10.0365
▁ड्राइवर	-10.0383
कोट	-10.0443
▁राव	-10.0455
▁क्रि	-10.0471
कॉम	-10.0508
23	-10.052
▁सीख	-10.0543
ऑ	-10.0556
भारत	-10.0558
खला	-10.0559
फोन	-10.056
▁मतदाता	-10.0597
▁भावना	-10.0606
77	-10.0621
न्द्र	-10.0633
०	-10.0655
▁आशंका	-10.0655
▁क्राइम	-10.0655
▁तालिबान	-10.0655
▁निरीक्षण	-10.0655
▁न्यायाधीश	-10.0655
▁मस्जिद	-10.0655
▁मुसलमान	-10.0655
▁युवत	-10.0655
▁2013	-10.0655
▁आक्रोश	-10.0655
▁दिग्गज	-10.0655
▁2012	-10.0655
▁हिन्द	-10.0655
▁सुझाव	-10.0655
▁पिटाई	-10.0655
▁प्रमाण	-10.0655
▁इंस्टा	-10.0655
▁स्मार्टफोन	-10.0655
▁सुंदर	-10.0656
▁प्राधिकर	-10.0656
▁पहाड़	-10.0657
ँच	-10.0657
▁शेख	-10.0658
▁सुशील	-10.0661
ing	-10.0662
▁बंगल	-10.0665
▁टैंक	-10.0666
▁छाप	-10.0666
▁स्टॉ	-10.067
▁तत्व	-10.067
▁चाहती	-10.0671
िमंडल	-10.0671
ोषण	-10.0674
▁मदन	-10.0674
▁ओपी	-10.0676
▁नकद	-10.0677
▁डांस	-10.0679
▁राजेश	-10.068
▁शरण	-10.0681
रक्षक	-10.0682
डिट	-10.0684
▁दत्त	-10.0685
रंजन	-10.0692
▁कैप्	-10.0695
▁सेवाओं	-10.0711
▁टाइम	-10.0712
▁मानते	-10.0737
▁अदा	-10.0738
▁आश्व	-10.0751
▁सोल	-10.0759
85	-10.0761
▁आईटी	-10.0787
▁36	-10.0799
▁धीरे	-10.0803
▁गिरि	-10.0803
te	-10.0831
ट्रिक	-10.0845
▁रेट	-10.0863
▁छोट	-10.0906
एँ	-10.0906
▁नाक	-10.0907
▁अनुस	-10.092
60	-10.0938
▁साव	-10.1003
सून	-10.1028
ायात	-10.1099
निधि	-10.11
मर्श	-10.111
ज्ञ	-10.111
70	-10.1125
पिता	-10.1164
प्रीत	-10.1175
▁स्मार्ट	-10.1243
▁शुरु	-10.1243
िफिकेशन	-10.1243
▁ओडिशा	-10.1243
▁गौतम	-10.1243
▁ग्वालियर	-10.1243
▁चेन्नई	-10.1243
▁नजदीक	-10.1243
▁माहौल	-10.1243
▁रसोई	-10.1243
▁शौचालय	-10.1243
▁श्रीलंका	-10.1243
▁श्रीवास्तव	-10.1243
▁श्रेण	-10.1243
▁संघर्ष	-10.1243
▁संसाधन	-10.1243
▁सिलेंडर	-10.1243
▁हड़ताल	-10.1243
▁अनिवार्य	-10.1243
▁अफ्रीक	-10.1243
▁मृत्यु	-10.1243
—	-10.1243
▁बच्‍च	-10.1243
▁बॉर्डर	-10.1243
▁मिर्च	-10.1243
▁महागठ	-10.1243
▁रणवीर	-10.1243
ॉन्ग	-10.1243
▁फैंस	-10.1243
▁पूंजी	-10.1243
▁बधाई	-10.1243
▁स्नान	-10.1243
दायिक	-10.1244
▁प्लस	-10.1244
▁उधर	-10.1244
▁फोर्स	-10.1244
▁निधन	-10.1244
▁कविता	-10.1244
▁दुबे	-10.1244
▁शाखा	-10.1244
▁अंजा	-10.1245
▁स्वतंत्र	-10.1246
▁PM	-10.1246
▁सच्च	-10.1246
▁स्वच्छ	-10.1246
▁शॉर्	-10.1247
▁सुरेश	-10.1248
▁तुम	-10.1248
▁स्वस्थ	-10.1249
▁स्कोर	-10.1251
▁उपकरण	-10.1252
▁संपन्न	-10.1253
▁मिमी	-10.1253
▁नशे	-10.1255
▁सागर	-10.1265
▁प्रकरण	-10.1267
▁संस्कृति	-10.1267
ूषण	-10.127
▁इंद	-10.127
▁दुख	-10.1273
▁अंडर	-10.1281
▁अर्थ	-10.1289
▁01	-10.1291
पक्ष	-10.1293
▁बीबी	-10.1307
▁आगरा	-10.1315
▁बिग	-10.1325
▁करवाई	-10.1334
▁पावर	-10.1335
▁''	-10.1336
▁दिवा	-10.1344
▁उठाए	-10.1347
▁एक्टर	-10.1353
▁ठो	-10.1357
▁आशा	-10.1362
▁छवि	-10.1377
फान	-10.1384
▁आइए	-10.1462
ूबर	-10.1569
▁मास	-10.1569
फेर	-10.1587
so	-10.1594
har	-10.1606
गाह	-10.1672
92	-10.1684
▁महज	-10.169
पीएफ	-10.1692
99	-10.1709
▁टीका	-10.1733
▁मृत	-10.1766
म्भ	-10.178
▁दिलान	-10.179
बाजार	-10.1792
▁बीमार	-10.1816
▁जिम	-10.182
मूह	-10.1839
97	-10.1843
;	-10.1868
Y	-10.1868
▁News	-10.1868
▁इंजीनियर	-10.1868
▁उदाहरण	-10.1868
▁कंप्यूटर	-10.1868
▁पार्षद	-10.1868
▁प्रोत्साह	-10.1868
▁बुजुर्ग	-10.1868
▁मेट्रो	-10.1868
▁मोटरसाइकिल	-10.1868
▁यूनिवर्सिटी	-10.1868
▁रिजल्ट	-10.1868
▁विष्णु	-10.1868
▁शारीरिक	-10.1868
▁2011	-10.1868
▁इमरान	-10.1868
▁ज्योति	-10.1868
▁प्रोजेक्ट	-10.1868
▁बिलासपुर	-10.1868
▁मल्टी	-10.1868
▁श्रद्धालु	-10.1868
▁स्क्रीन	-10.1868
▁मुखिया	-10.1868
▁हैदराबाद	-10.1868
▁तस्कर	-10.1868
▁दिव्या	-10.1868
▁ऐलान	-10.1868
▁ब्रांच	-10.1868
▁प्रतिदिन	-10.1868
▁बराबर	-10.1868
▁प्रिंस	-10.1868
▁रांची	-10.1869
▁चैनल	-10.1869
▁समर्प	-10.1869
क्ष्म	-10.1869
▁दशक	-10.1869
।’’	-10.187
▁सेकेंड	-10.187
▁बैनर	-10.187
▁हॉक	-10.1871
▁एसएसपी	-10.1871
▁ठिकान	-10.1872
▁ब्लैक	-10.1872
▁छिप	-10.1872
▁जिक्र	-10.1873
▁वेतन	-10.1873
▁शिफ्ट	-10.1873
▁लंदन	-10.1874
▁वैश्	-10.1876
▁मिन	-10.1877
▁वैक्सीनेशन	-10.1879
▁एक्शन	-10.1881
▁सराहन	-10.1883
▁सकेगा	-10.1884
▁मिस	-10.1884
▁ब्रेक	-10.1889
▁प्रतिबंध	-10.1897
▁टेली	-10.1897
▁डोज	-10.1898
▁मेरठ	-10.1902
पिटल	-10.191
▁51	-10.1913
▁नाराज	-10.1915
चेंज	-10.1916
▁एजें	-10.1916
▁छीन	-10.1917
▁रूपये	-10.1919
▁टैग	-10.192
सर्जन	-10.1924
गाड़	-10.193
▁रेखा	-10.194
भूत	-10.1957
▁गुण	-10.1959
म्बर	-10.1961
▁साइन	-10.1963
▁आर्ट	-10.1964
▁कैश	-10.199
ॉक्स	-10.2004
▁कुश	-10.2016
oo	-10.202
▁प्रतीक	-10.2145
आईएम	-10.2186
योजन	-10.2191
रेन्द्र	-10.2211
लेख	-10.2219
▁जश्	-10.2273
टेबल	-10.2292
▁जिम्मेदार	-10.2344
▁इनाम	-10.2365
16	-10.2367
47	-10.2373
▁बीमारिय	-10.2405
एसटीए	-10.2407
▁घु	-10.2446
▁शर्म	-10.2459
राज्य	-10.2494
ation	-10.2535
com	-10.2535
▁अधिवक्ता	-10.2535
▁इंतजाम	-10.2535
▁औसत	-10.2535
▁कौश	-10.2535
▁चौंक	-10.2535
▁डायरेक्टर	-10.2535
▁त्योहार	-10.2535
▁देहरादून	-10.2535
▁बांग्लादेश	-10.2535
▁महोत्सव	-10.2535
▁संरक्षण	-10.2535
▁समझौत	-10.2535
▁चौराह	-10.2535
▁दीपावली	-10.2535
▁नियंत्रण	-10.2535
▁मुआवज	-10.2535
▁स्थिर	-10.2535
▁स्पेशल	-10.2535
▁गुस्सा	-10.2535
▁धनबाद	-10.2535
▁गूगल	-10.2535
▁राजपूत	-10.2535
▁हादसा	-10.2535
▁ब्लॉक	-10.2535
▁लक्षण	-10.2535
▁संकल्प	-10.2535
▁संज्ञान	-10.2535
▁जूझ	-10.2535
▁तिमाह	-10.2535
▁हर्ष	-10.2535
प्रणाली	-10.2535
▁इंसान	-10.2535
▁प्रगति	-10.2535
▁ब्रांड	-10.2535
हैया	-10.2535
▁रोहता	-10.2535
▁गाइडलाइ	-10.2535
▁सावधानी	-10.2535
▁ग्रहण	-10.2535
▁जताया	-10.2535
▁खींच	-10.2536
▁टाटा	-10.2536
▁डूब	-10.2536
▁अभ्यर्थ	-10.2536
▁लिंक	-10.2536
▁डीलर	-10.2536
▁आर्मी	-10.2536
▁ईश्वर	-10.2537
ब्यूरो	-10.2537
▁निकाय	-10.2537
▁नेहरू	-10.2538
▁गणेश	-10.2538
▁अनुपम	-10.2539
▁कमलनाथ	-10.2539
▁दिये	-10.2539
▁मिठा	-10.2541
▁Ma	-10.2541
ियस	-10.2542
▁ब्रिट	-10.2542
▁इजाज	-10.2543
▁Al	-10.2543
▁व्ह	-10.2543
▁पुनर्	-10.2543
▁मूव	-10.2544
ग्ग	-10.2544
क्षेप	-10.2545
▁सलाहकार	-10.2548
▁बहाल	-10.2551
▁दुकानदार	-10.2551
▁बुलाया	-10.2551
▁श्रीनगर	-10.2553
▁बॉक्स	-10.2555
फाइल	-10.2556
▁अतिथि	-10.2558
प्रभु	-10.2558
ग्राफ	-10.256
▁आधा	-10.256
▁राशन	-10.2564
46	-10.2564
▁कमांड	-10.2565
ाक्षर	-10.257
▁माध	-10.2571
▁निपटने	-10.2572
▁मसल	-10.2574
▁सांस	-10.2576
▁आरटी	-10.2577
▁टकरा	-10.2579
▁ऐप	-10.2592
▁सुनाई	-10.2593
ाएगी	-10.2595
डीआर	-10.2601
han	-10.2719
मैट	-10.299
K	-10.3149
मुझ	-10.316
चार्ज	-10.3187
▁जिसमे	-10.3231
▁ट्रांस	-10.3248
▁लिमिटेड	-10.3249
▁आत्महत्या	-10.3249
▁आयुर्वेद	-10.3249
▁इलाहाबाद	-10.3249
▁जरिये	-10.3249
▁दिलचस्प	-10.3249
▁पहुँच	-10.3249
▁महानिदेशक	-10.3249
▁मानवाधिकार	-10.3249
▁मौल	-10.3249
▁रणनीति	-10.3249
▁श्रद्धांजलि	-10.3249
▁संदिग्ध	-10.3249
▁सप्लाई	-10.3249
▁सब्सिडी	-10.3249
▁हेल्थ	-10.3249
▁रिश्तेदार	-10.3249
▁लोकप्रिय	-10.3249
▁संविधान	-10.3249
प्रत्यक्ष	-10.3249
▁इस्तीफा	-10.3249
▁प्रतिक्रिया	-10.3249
▁विक्रेता	-10.3249
▁रिकार्ड	-10.3249
▁निरंतर	-10.3249
▁ड्यूटी	-10.3249
▁सब्जिय	-10.3249
▁लाइफ	-10.3249
▁उपायुक्त	-10.3249
▁कनेक्शन	-10.3249
▁समाधान	-10.3249
▁जोधपुर	-10.3249
▁पुस्तक	-10.3249
▁विवेक	-10.3249
▁मराठ	-10.3249
▁मान्यता	-10.325
▁कार्यवाही	-10.325
▁पूजन	-10.325
▁फील्ड	-10.325
▁इकाई	-10.325
▁मोहल्ल	-10.325
▁जबलपुर	-10.325
▁बरसात	-10.325
▁ट्रॉफी	-10.325
▁फूड	-10.325
▁त्याग	-10.325
▁कस्ब	-10.3251
56	-10.3251
▁अहमदाबाद	-10.3251
▁चिन्ह	-10.3252
▁अलीगढ़	-10.3253
▁शेष	-10.3253
▁कामयाब	-10.3253
▁2022	-10.3254
▁प्रोग्राम	-10.3255
▁एजेंसिय	-10.3255
▁महात्म	-10.3255
▁खुफ	-10.3256
▁अलर्ट	-10.3256
ोलॉजी	-10.3256
▁प्रारंभ	-10.3256
▁नाराजगी	-10.3257
▁स्कूट	-10.3257
▁माइक	-10.3257
▁तारीफ	-10.3258
▁गंवा	-10.3259
▁बिल्ड	-10.326
▁चित्र	-10.3265
▁धूम	-10.3265
▁कन्या	-10.3265
▁आदिवास	-10.3265
▁ऋषि	-10.3268
▁समक्ष	-10.3269
▁रुख	-10.3269
▁नौकरिय	-10.3269
▁डेढ़	-10.327
▁प्रेर	-10.327
▁नारे	-10.327
▁महाराज	-10.3273
▁मनाली	-10.3273
▁अमल	-10.3274
▁शोध	-10.3277
▁टाल	-10.3277
76	-10.328
▁बाबर	-10.3281
▁छठ	-10.3283
▁तर्क	-10.3284
▁बसपा	-10.3286
▁राजेंद्र	-10.3288
▁मिड	-10.3295
▁अड्ड	-10.3299
▁इंच	-10.3306
▁गहन	-10.3313
▁कचर	-10.3314
मार्ग	-10.3323
▁डीए	-10.3323
▁अनुरा	-10.3323
▁यश	-10.3324
▁ताज	-10.3336
86	-10.3408
▁जायज	-10.3459
मिट	-10.348
▁सांप	-10.3497
▁संयोज	-10.3506
ाहन	-10.3513
टीबी	-10.3586
79	-10.3591
ब्राह	-10.3598
▁सीरिय	-10.3615
98	-10.3664
नरेश	-10.377
‍ि	-10.3783
▁कायम	-10.3793
▁राजस्	-10.3793
▁प्रत्याश	-10.3828
ाधिकारी	-10.3852
58	-10.387
▁प्रदर्श	-10.3902
▁पीछ	-10.3907
V	-10.3917
दूसरे	-10.3919
सर्च	-10.3926
83	-10.3928
▁निपट	-10.398
17	-10.3982
▁In	-10.3983
▁सचि	-10.3991
▁अखिल	-10.4016
▁̈सह	-10.4018
▁कर्फ्यू	-10.4018
▁काउंसिल	-10.4018
▁क्विंटल	-10.4018
▁गुरुद्वार	-10.4018
▁जुर्माना	-10.4018
▁ठेकेदार	-10.4018
▁डिवाइस	-10.4018
▁त्रिपाठी	-10.4018
▁महासचिव	-10.4018
नईदुनिया	-10.4018
▁ओलंपि	-10.4018
▁मुनाफा	-10.4018
▁सुर्खिय	-10.4018
▁एकजुट	-10.4018
▁समुद्र	-10.4018
▁अपहरण	-10.4018
▁क्वारंटा	-10.4018
▁भास्कर	-10.4018
▁डेब्यू	-10.4018
▁साहित्य	-10.4018
▁जोखिम	-10.4018
▁साइबर	-10.4018
▁अर्पित	-10.4018
▁चतुर्	-10.4018
▁बिंदु	-10.4019
▁आपत्ति	-10.4019
▁स्वयंसेव	-10.4019
▁फ्रांस	-10.4019
▁लापता	-10.4019
▁इधर	-10.4019
▁शपथ	-10.4019
▁गुलाब	-10.4019
▁पंडित	-10.4019
▁भिड़	-10.4019
▁प्रतिनिधिमंडल	-10.4019
▁नारेबाज	-10.4019
▁सबूत	-10.4019
▁सूरत	-10.402
▁मुद्रा	-10.402
▁माफी	-10.402
▁सक्षम	-10.402
▁छावन	-10.402
▁याचिकाकर्ता	-10.402
▁ट्रांसफर	-10.402
▁डिजाइन	-10.4021
▁हराया	-10.4021
▁स्वरूप	-10.4022
▁फ्लाइट	-10.4022
▁बस्ती	-10.4022
▁हरकत	-10.4022
▁पहलवान	-10.4022
▁नाटक	-10.4023
▁नक्सलवाद	-10.4026
▁पड़ोस	-10.4026
फ्रेंड	-10.4027
▁मित्र	-10.4028
▁डिप्	-10.4029
▁पार्टिय	-10.4029
बेडकर	-10.403
ist	-10.4032
▁झटक	-10.4032
▁बनारस	-10.4033
▁नमक	-10.4035
▁भट्ट	-10.4037
:30	-10.4039
▁बर्फ	-10.4043
▁आलम	-10.4045
▁ड्रग	-10.4047
▁उधार	-10.4049
▁जाएंगी	-10.4054
▁ध्व	-10.4056
ोदय	-10.4056
▁लगेगा	-10.4079
61	-10.4105
▁उतन	-10.4117
PU	-10.4123
ावधान	-10.4218
▁चुप	-10.4234
िरोह	-10.4286
89	-10.4428
ंदन	-10.4554
्पण	-10.4571
चार्य	-10.468
साइड	-10.4703
पैड	-10.4734
ऐ	-10.4749
▁टीएम	-10.4767
डीजल	-10.4768
ीएमसी	-10.4795
ंस्कृति	-10.4822
▁आदित्य	-10.485
१	-10.4852
श्रेष्ठ	-10.4852
स्पर्धा	-10.4852
▁आवंटन	-10.4852
▁एजुकेशन	-10.4852
▁क्रॉस	-10.4852
▁गुणवत्ता	-10.4852
▁चैंपियन	-10.4852
▁छापेमारी	-10.4852
▁छुट्टी	-10.4852
▁जनप्रतिनिधि	-10.4852
▁जनसंख्या	-10.4852
▁जबरदस्त	-10.4852
▁टिहरी	-10.4852
▁तुम्हार	-10.4852
▁दस्तावेज	-10.4852
▁दृष्टि	-10.4852
▁द्वितीय	-10.4852
▁धन्यवाद	-10.4852
▁पाउडर	-10.4852
▁पाठ्यक्रम	-10.4852
▁फायदे	-10.4852
▁बौद्ध	-10.4852
▁मनुष्य	-10.4852
▁लाइसेंस	-10.4852
▁संदर्भ	-10.4852
▁अभिभावक	-10.4852
▁आलोचना	-10.4852
▁धैर्य	-10.4852
▁बीएसएफ	-10.4852
▁यमुना	-10.4852
▁सुपरस्टार	-10.4852
▁हड़कंप	-10.4852
▁कंटेन	-10.4852
▁पेयजल	-10.4852
▁रत्न	-10.4852
▁पहनने	-10.4852
▁मैनेजर	-10.4852
▁कच्च	-10.4852
▁माइक्रो	-10.4852
▁अंतरिक्ष	-10.4852
▁एक्टिव	-10.4852
▁कठिन	-10.4852
▁इजाफ	-10.4852
▁पुण्य	-10.4852
▁स्रोत	-10.4852
▁झूठ	-10.4852
▁तथ्य	-10.4852
▁शिवसेना	-10.4852
▁टुकड़	-10.4852
▁साइंस	-10.4852
▁प्रेरणा	-10.4852
▁उन्होने	-10.4852
▁क्वालि	-10.4852
▁ब्याज	-10.4852
▁संजीव	-10.4852
▁शास्त्र	-10.4852
▁शुरूआत	-10.4852
▁वंचित	-10.4852
▁खंगाल	-10.4852
▁प्राची	-10.4853
▁इशार	-10.4853
▁प्लेट	-10.4853
▁धूल	-10.4853
▁भंडार	-10.4853
▁ब्रिटेन	-10.4853
▁नमून	-10.4853
▁फैन	-10.4853
▁जॉन	-10.4853
▁जनरल	-10.4854
▁आदित्यनाथ	-10.4854
▁मास्टर	-10.4854
▁राजकुमार	-10.4855
▁रैंक	-10.4855
निष्क	-10.4856
▁राघव	-10.4856
▁शैल	-10.4856
▁हसन	-10.4858
▁ड्रेस	-10.4858
▁अमीर	-10.4858
▁जैव	-10.4859
▁प्रकट	-10.4859
▁तलाक	-10.4859
▁कूद	-10.486
▁इराक	-10.4861
▁पैकेट	-10.4861
▁वास्तविक	-10.4862
ov	-10.4863
▁सितार	-10.4865
▁कोयला	-10.4866
▁नज़र	-10.4867
▁रुबी	-10.4867
▁अपमान	-10.4869
रक्षित	-10.4869
▁सर्विस	-10.487
▁सिक्क	-10.4871
ाधीन	-10.4873
▁इंजन	-10.4873
▁नाकाम	-10.4874
ंकज	-10.4876
▁समस्त	-10.4878
▁शीत	-10.4878
ख्याल	-10.4879
▁अमरीक	-10.4888
▁सलाम	-10.4894
78	-10.4895
▁इंद्र	-10.4899
▁बाधा	-10.4903
▁वार्	-10.4908
▁चालान	-10.4912
तुष्ट	-10.4929
दायक	-10.4938
▁भूपे	-10.4955
घात	-10.4955
खेड़	-10.4958
▁नक्सल	-10.5048
▁वाक	-10.5074
ाहिद	-10.514
▁ठाक	-10.5274
ुझा	-10.5278
वेदन	-10.537
रेंज	-10.5434
59	-10.5451
▁चीफ	-10.5453
▁आसमा	-10.5479
चालन	-10.5488
हिमा	-10.5526
व्याप	-10.5547
▁मंजूर	-10.5571
▁रिक्	-10.5628
विश्वास	-10.566
भूमि	-10.566
वायरस	-10.5662
पुत्र	-10.5662
संघ	-10.5663
प्रदेश	-10.5671
ीआरपी	-10.5724
सफल	-10.5738
ारंभ	-10.5752
क्रमण	-10.5756
▁बायो	-10.5757
▁सैकड़ों	-10.5761
दुल्हन	-10.5761
निलंबित	-10.5761
प्रोटोकॉल	-10.5761
मस्तिष्क	-10.5761
॰	-10.5761
▁आदर्श	-10.5761
▁आशीर्वाद	-10.5761
▁आह्वान	-10.5761
▁इत्यादि	-10.5761
▁औषध	-10.5761
▁कमिश्नर	-10.5761
▁क्रांति	-10.5761
▁जायसवाल	-10.5761
▁जेएनएन	-10.5761
▁तिब्बत	-10.5761
▁द्विवेदी	-10.5761
▁नृत्य	-10.5761
▁प्रौद्योगिक	-10.5761
▁फ़ीसदी	-10.5761
▁लेनदेन	-10.5761
▁विद्युत	-10.5761
▁व्हाट्सएप	-10.5761
▁सिफारिश	-10.5761
▁स्थगित	-10.5761
▁केसरवानी	-10.5761
▁पंजीकरण	-10.5761
▁रक्तदान	-10.5761
▁हालाँकि	-10.5761
▁गडकरी	-10.5761
विभाजन	-10.5761
▁ईमानदार	-10.5761
▁ट्रैक्टर	-10.5761
▁डाक्टर	-10.5761
▁भिजवा	-10.5761
▁बुखार	-10.5761
▁हिंदु	-10.5761
▁हूँ	-10.5761
▁फैशन	-10.5761
▁गाँव	-10.5761
▁बर्बाद	-10.5761
▁इंस्टीट	-10.5761
▁उजाला	-10.5761
हनुमान	-10.5761
▁जरुर	-10.5761
▁मछली	-10.5761
▁कॉन्ट	-10.5761
▁योग्यता	-10.5761
▁तुलसी	-10.5761
▁पेंटिंग	-10.5761
▁जहरील	-10.5761
ुभाष	-10.5761
▁अवार्ड	-10.5761
▁शिमला	-10.5761
▁लैब	-10.5761
▁खन्ना	-10.5761
▁मुल्क	-10.5761
▁उल्ट	-10.5761
▁श्रीदेवी	-10.5761
▁पटाख	-10.5761
▁नीरज	-10.5761
▁हॉट	-10.5761
▁सूरज	-10.5761
▁दीक्षित	-10.5761
▁ट्रेंड	-10.5761
▁बाबू	-10.5761
▁क्षति	-10.5761
▁धूप	-10.5761
इंडीज	-10.5761
▁परिस्थितियों	-10.5762
▁फास्ट	-10.5763
▁प्राचार्य	-10.5763
▁किस्म	-10.5766
▁गोरखपुर	-10.5766
▁एंब	-10.5766
▁अंबा	-10.5768
▁भड़क	-10.5768
▁ग्रीन	-10.5769
▁हल्क	-10.577
परिचय	-10.577
▁अटल	-10.5771
▁जबरन	-10.5772
▁हायर	-10.5773
ि़य	-10.5774
▁टीचर	-10.5775
▁डबल	-10.5776
रामलीला	-10.5776
▁गुहार	-10.5776
▁छक्क	-10.5777
▁तोमर	-10.5781
▁फॉर	-10.5802
▁फेल	-10.5867
ीनियर	-10.5877
▁करवात	-10.5898
▁पद्म	-10.5936
सराय	-10.5949
रवरी	-10.5972
▁पप्	-10.6108
▁अनन्	-10.6146
▁ड्राइव	-10.6231
चंद	-10.6249
्मच	-10.6307
्रेशर	-10.6402
▁काउंट	-10.647
▁हॉस्	-10.6564
त्थ	-10.663
J	-10.666
कृष्ण	-10.666
शक्ति	-10.6661
विजय	-10.6664
रक्षा	-10.6666
जिस्ट्रे	-10.6752
मंडल	-10.6759
@	-10.6761
z	-10.6761
▁Video	-10.6761
▁इलेक्ट्र	-10.6761
▁एफआईआर	-10.6761
▁कंट्रोल	-10.6761
▁कश्यप	-10.6761
▁काउंसल	-10.6761
▁कॉन्फ्रेंस	-10.6761
▁डायबिटीज	-10.6761
▁नेटवर्क	-10.6761
▁न्यूयॉर्क	-10.6761
▁पश्चात	-10.6761
▁पृष्ठभूमि	-10.6761
▁बटालियन	-10.6761
▁बेंगलुरु	-10.6761
▁भोजपुर	-10.6761
▁मणिपुर	-10.6761
▁मथुरा	-10.6761
▁मुजफ्फर	-10.6761
▁मुठभेड़	-10.6761
▁वाणिज्य	-10.6761
▁विशिष्ट	-10.6761
▁शताब्द	-10.6761
▁साजिद	-10.6761
▁सोयाबीन	-10.6761
▁हृदय	-10.6761
▁अग्नि	-10.6761
▁अनदेख	-10.6761
▁बृज	-10.6761
▁सबकुछ	-10.6761
▁ढूंढ	-10.6761
▁प्रयागराज	-10.6761
▁फ़िल्म	-10.6761
▁फेस्टिव	-10.6761
▁बिजनेस	-10.6761
▁सेवानिवृत्त	-10.6761
▁एंट्री	-10.6761
▁एसडीओ	-10.6761
▁गोविंद	-10.6761
▁डीजीपी	-10.6761
▁दर्शा	-10.6761
▁रजिस्टर	-10.6761
▁सिपाही	-10.6761
India	-10.6761
▁मत्स्य	-10.6761
▁रिटायर	-10.6761
▁आँख	-10.6761
▁जर्मनी	-10.6761
▁बैलेंस	-10.6761
▁जन्मदिन	-10.6761
▁स्थानांतर	-10.6761
▁स्वदेशी	-10.6761
▁पंक्ति	-10.6761
▁आरंभ	-10.6761
▁रघु	-10.6761
▁लाइव	-10.6761
▁उत्सव	-10.6761
▁दंडाधिकार	-10.6761
▁गर्ल	-10.6762
▁म्यूजि	-10.6762
▁मेहता	-10.6762
▁शोधकर्ता	-10.6762
▁जटिल	-10.6762
▁दिलाया	-10.6762
▁विफल	-10.6762
▁हेलीक	-10.6762
▁मेहरा	-10.6762
▁छेड़	-10.6762
▁कोविंद	-10.6762
▁नायक	-10.6762
▁युग	-10.6763
▁आइपीए	-10.6764
▁रजत	-10.6764
सिरमौर	-10.6764
▁गहरी	-10.6765
▁डिफें	-10.6766
▁आंगन	-10.6766
िरकत	-10.6766
▁ढेर	-10.6767
▁चरम	-10.677
ाह्न	-10.6773
बूझ	-10.6774
▁आश्र	-10.6779
वश्य	-10.681
▁सेंट्र	-10.682
ोच्च	-10.6822
▁शिवान	-10.6832
▁शशि	-10.6845
PF	-10.685
▁सूज	-10.6892
▁दिलात	-10.6902
शियल	-10.7004
लॉग	-10.7078
▁कागज	-10.7083
ंत्रिक	-10.7246
श्वर	-10.7409
कंप	-10.7488
ाजीपुर	-10.7524
नक्सलियों	-10.7608
▁नीतिय	-10.7696
विद्यालय	-10.777
स्कूल	-10.7773
ट्वि	-10.7773
जगह	-10.7775
प्ताह	-10.784
नुसार	-10.7855
▁वास्तव	-10.7858
▁श्रद्धा	-10.7872
दृश्य	-10.7872
▁विश्लेषण	-10.7872
▁सृजन	-10.7872
]	-10.7872
आईएएनएस	-10.7872
▁अपेक्षा	-10.7872
▁अभियंता	-10.7872
▁अल्पसंख्यक	-10.7872
▁अश्लील	-10.7872
▁अहसास	-10.7872
▁घोटाल	-10.7872
▁चूंकि	-10.7872
▁चैलेंज	-10.7872
▁चौबे	-10.7872
▁जख्मी	-10.7872
▁ज्‍यादा	-10.7872
▁दफ्तर	-10.7872
▁पंजीयन	-10.7872
▁पृथ्वी	-10.7872
▁प्रोडक्ट	-10.7872
▁बदायूं	-10.7872
▁बुलंद	-10.7872
▁महिंद्रा	-10.7872
▁मुरादाबाद	-10.7872
▁मुलायम	-10.7872
▁मैनेजमेंट	-10.7872
▁रणबीर	-10.7872
▁लखीमपुर	-10.7872
▁ससुराल	-10.7872
▁साइकिल	-10.7872
▁स्मिथ	-10.7872
▁स्मृति	-10.7872
▁हाइड्रो	-10.7872
▁हिंदुस्तान	-10.7872
▁अंसारी	-10.7872
▁अपलोड	-10.7872
▁गाँधी	-10.7872
▁पलायन	-10.7872
▁राफेल	-10.7872
▁शेट्टी	-10.7872
▁श्रृं	-10.7872
▁सर्वेक्षण	-10.7872
▁इकाइय	-10.7872
▁चित्रकूट	-10.7872
▁नवरात्र	-10.7872
▁संदेह	-10.7872
▁रॉयल	-10.7872
बन्ध	-10.7872
▁एएमजी	-10.7872
▁मनमोह	-10.7872
▁निराकरण	-10.7872
▁पठान	-10.7872
▁सनसनी	-10.7872
▁प्रधानाचार्य	-10.7872
▁कांस्टेब	-10.7872
▁जीएसटी	-10.7872
▁धोखा	-10.7872
▁धमाके	-10.7872
▁पवित्र	-10.7872
▁बगैर	-10.7872
▁भैंस	-10.7872
▁साजिश	-10.7872
▁गुर्जर	-10.7872
▁यूरोप	-10.7872
▁अखबार	-10.7872
▁माफिया	-10.7872
▁दबिश	-10.7872
▁ज़रूर	-10.7872
▁छुपा	-10.7872
▁दुश्	-10.7872
▁हज़ार	-10.7872
▁नींद	-10.7872
▁कैलाश	-10.7872
▁प्रवीण	-10.7872
▁प्रसन्न	-10.7872
▁पूर्णिमा	-10.7872
▁स्टैंड	-10.7872
▁बुद्धि	-10.7872
▁साहिब	-10.7872
द्वीप	-10.7872
▁जहाज	-10.7872
▁झांसी	-10.7872
▁भागलपुर	-10.7872
टाउन	-10.7872
▁सशक्त	-10.7872
▁तमंच	-10.7872
▁जवाहर	-10.7873
▁घातक	-10.7873
▁अनूप	-10.7873
▁अटकल	-10.7873
▁तरीका	-10.7873
▁उद्यम	-10.7873
▁लाठी	-10.7873
▁सिल्व	-10.7873
▁मामू	-10.7873
▁गिराया	-10.7873
▁चुरा	-10.7873
▁इराद	-10.7873
▁सानिया	-10.7873
▁पंवार	-10.7874
▁दरवाज	-10.7874
▁मौर्य	-10.7874
▁आमिर	-10.7874
▁फीचर	-10.7874
एलईडी	-10.7875
▁स्‍वा	-10.7875
▁पांव	-10.7876
▁रजनी	-10.7876
एनडीए	-10.7878
णमू	-10.7878
ड्यूल	-10.788
▁घिर	-10.788
यूएई	-10.7881
ट्रॉली	-10.7885
▁जेनेर	-10.7887
आजमगढ़	-10.789
▁मूड	-10.7895
▁निकास	-10.7907
हकीक	-10.7931
▁द्रव	-10.7947
ॉफी	-10.7973
्पीड	-10.7974
ेप्ट	-10.7975
क्वीन	-10.801
▁बितान	-10.8011
▁धीम	-10.8101
फोर्	-10.8194
▁मिलिय	-10.8331
ीएमओ	-10.8621
्रीमिय	-10.8639
शुल्क	-10.9021
फाइनल	-10.9022
मुख्यमंत्री	-10.9023
▁प्रशिक्ष	-10.9108
▁गोरख	-10.9119
▁परिस्थिति	-10.912
í	-10.9122
वृत्ति	-10.9122
▁गैलेक्सी	-10.9122
▁टेक्न	-10.9122
▁दबोच	-10.9122
▁विद्रोह	-10.9122
+	-10.9122
डब्ल्यू	-10.9122
३	-10.9122
▁Document	-10.9122
▁Jobs	-10.9122
▁अंपायर	-10.9122
▁अफ़ग़ान	-10.9122
▁उपचुनाव	-10.9122
▁कुरुक्षेत्र	-10.9122
▁गड्ढ	-10.9122
▁चिकित्साधिकारी	-10.9122
▁चौटाला	-10.9122
▁चौड़ी	-10.9122
▁छिड़क	-10.9122
▁त्यौहार	-10.9122
▁दूल्ह	-10.9122
▁नाबालिग	-10.9122
▁पथराव	-10.9122
▁पीडि़त	-10.9122
▁पॉलिसी	-10.9122
▁बेगूसराय	-10.9122
▁मार्गदर्श	-10.9122
▁लैपटॉप	-10.9122
▁संवेदनशील	-10.9122
▁सिलेबस	-10.9122
▁स्टाइल	-10.9122
▁स्नातक	-10.9122
▁झोपड़	-10.9122
▁वाहिनी	-10.9122
▁संभाग	-10.9122
▁सक्सेना	-10.9122
▁सरस्वती	-10.9122
▁सुलझा	-10.9122
▁हिस्ट्री	-10.9122
ोष्ठ	-10.9122
▁धातु	-10.9122
▁पॉपुल	-10.9122
▁उजागर	-10.9122
▁नौजवान	-10.9122
▁रवैय	-10.9122
▁सिंचाई	-10.9122
▁तूफान	-10.9122
▁बॉन्ड	-10.9122
▁महापौर	-10.9122
▁मीटिंग	-10.9122
▁सरपंच	-10.9122
▁अनुकूल	-10.9122
▁तब्दी	-10.9122
...............	-10.9122
▁दुबई	-10.9122
▁बगावत	-10.9122
▁मेहमान	-10.9122
ुख्यात	-10.9122
▁उग्रवाद	-10.9122
▁तिरंग	-10.9122
▁फॉलो	-10.9122
▁तुर्की	-10.9122
▁दोगुन	-10.9122
▁जगदीश	-10.9122
▁शत्रु	-10.9122
▁एचआर	-10.9122
▁बेहोश	-10.9122
२	-11.055
७	-11.055
–	-11.2118
X	-11.2217
🔊	-11.2217
_	-11.2217
५	-11.4217
‘	-11.6614
>	-11.6617
	-11.6717
Z	-11.6717
ऱ	-11.6717
q	-11.6717
ï	-12.005
८	-12.005
ऋ	-12.4952
“	-12.4952
४	-12.505
�	-12.505
﻿	-13.5036
९	-13.5037
×	-13.5038
६	-13.5039
Q	-13.504
&	-13.5041
ऩ	-13.5042
[	-13.5043
*	-13.5044
̈	-13.5045
»	-13.5046
#	-13.5047
ञ	-13.5048
ृ	-13.5049
ौ	-13.505
в	-13.505
и	-13.505
л	-13.505
о	-13.505
ऌ	-13.505
^	-13.505
Ü	-13.505
=	-13.505
£	-13.505
©	-13.505
«	-13.505
Ó	-13.505
т	-13.505
я	-13.505
ل	-13.505
و	-13.505
ङ	-13.505
‎	-13.505
←	-13.505
➽	-13.505
🔵	-13.505
ا	-13.5051
ت	-13.5051
ی	-13.5051
औ	-13.5051
