<unk>	0
<s>	0
</s>	0
ال	-0
▁ال	-1
▁م	-2
▁و	-3
▁أ	-4
▁ف	-5
▁ب	-6
ية	-7
ان	-8
▁ع	-9
▁في	-10
ات	-11
▁ل	-12
▁ت	-13
▁الم	-14
ين	-15
ار	-16
▁من	-17
▁ي	-18
ام	-19
▁ك	-20
ري	-21
ون	-22
▁إ	-23
▁1	-24
لى	-25
ها	-26
را	-27
ول	-28
▁الأ	-29
▁ح	-30
▁س	-31
ير	-32
يا	-33
▁وال	-34
▁ه	-35
▁ن	-36
▁ق	-37
▁الع	-38
▁-	-39
ور	-40
دي	-41
▁الت	-42
▁ج	-43
لا	-44
لي	-45
ما	-46
ست	-47
اب	-48
▁19	-49
▁على	-50
ائ	-51
وم	-52
▁(	-53
رب	-54
اد	-55
▁الس	-56
▁الح	-57
لك	-58
سي	-59
▁ش	-60
▁الق	-61
نا	-62
وا	-63
▁لل	-64
▁أن	-65
▁الب	-66
▁ر	-67
▁د	-68
رة	-69
▁ا	-70
عد	-71
▁الج	-72
▁2	-73
يل	-74
▁إلى	-75
وب	-76
▁الك	-77
يم	-78
▁خ	-79
يد	-80
عة	-81
▁الإ	-82
▁الن	-83
▁الش	-84
في	-85
دة	-86
▁بال	-87
▁عن	-88
▁مع	-89
سم	-90
اني	-91
لم	-92
▁أو	-93
يس	-94
ود	-95
ًا	-96
بر	-97
اء	-98
اع	-99
▁الد	-100
لة	-101
هم	-102
▁الف	-103
وي	-104
▁بن	-105
وس	-106
رك	-107
اف	-108
▁ص	-109
قة	-110
▁20	-111
▁ط	-112
انت	-113
▁وت	-114
▁وم	-115
▁الر	-116
بي	-117
حم	-118
ذا	-119
قد	-120
سب	-121
رن	-122
▁غ	-123
▁عام	-124
تي	-125
صر	-126
مة	-127
وج	-128
اح	-129
▁الل	-130
▁الص	-131
تم	-132
صل	-133
▁الث	-134
▁الخ	-135
دين	-136
هر	-137
وف	-138
▁التي	-139
حد	-140
كن	-141
انية	-142
ثل	-143
كي	-144
▁ذ	-145
▁ما	-146
وت	-147
قي	-148
زي	-149
▁«	-150
بد	-151
دم	-152
▁وأ	-153
نة	-154
▁ث	-155
▁بعد	-156
▁أم	-157
▁وه	-158
الي	-159
▁أي	-160
▁الذ	-161
اري	-162
ني	-163
سا	-164
بل	-165
الم	-166
خر	-167
شر	-168
▁وي	-169
تر	-170
جم	-171
▁الط	-172
▁بين	-173
لف	-174
دينة	-175
مل	-176
اص	-177
وق	-178
ند	-179
▁آ	-180
كل	-181
عل	-182
▁المت	-183
حمد	-184
سل	-185
يات	-186
رية	-187
00	-188
▁كان	-189
يو	-190
كون	-191
ذه	-192
ارة	-193
حت	-194
وري	-195
كت	-196
مر	-197
اً	-198
ته	-199
كان	-200
اس	-201
▁ز	-202
يرة	-203
يث	-204
قل	-205
▁الا	-206
▁هو	-207
▁18	-208
من	-209
لس	-210
▁تع	-211
رف	-212
ئيس	-213
▁است	-214
قت	-215
بة	-216
مال	-217
طة	-218
▁هي	-219
وع	-220
▁هذا	-221
▁مم	-222
عض	-223
در	-224
▁الغ	-225
اط	-226
كر	-227
▁لم	-228
▁الأم	-229
▁وب	-230
▁الو	-231
راء	-232
▁الي	-233
▁مت	-234
▁مص	-235
وية	-236
ثر	-237
اه	-238
يت	-239
▁الذي	-240
وات	-241
▁ان	-242
▁وفي	-243
▁هذه	-244
▁لا	-245
▁تم	-246
▁علي	-247
لال	-248
▁عبد	-249
▁مح	-250
رق	-251
▁كل	-252
▁اله	-253
عت	-254
سة	-255
).	-256
رض	-257
نت	-258
رج	-259
▁محمد	-260
سية	-261
خت	-262
▁201	-263
وك	-264
ديد	-265
ولة	-266
▁مو	-267
▁حيث	-268
ورة	-269
اج	-270
دد	-271
شي	-272
زة	-273
غة	-274
▁تق	-275
▁200	-276
▁ض	-277
كم	-278
▁إن	-279
▁با	-280
▁الله	-281
دا	-282
▁198	-283
▁وع	-284
▁والم	-285
صب	-286
راج	-287
▁مثل	-288
▁كما	-289
حة	-290
▁3	-291
▁مدينة	-292
▁197	-293
كا	-294
▁أب	-295
طل	-296
ذلك	-297
حدة	-298
▁يت	-299
▁أيض	-300
يف	-301
اريخ	-302
ولا	-303
▁ذلك	-304
هد	-305
مي	-306
ربية	-307
▁مق	-308
الة	-309
رت	-310
فس	-311
▁المع	-312
اض	-313
▁الز	-314
▁أك	-315
َّ	-316
▁وك	-317
▁مس	-318
ياء	-319
▁بل	-320
▁أمري	-321
حي	-322
نية	-323
ادة	-324
يني	-325
وز	-326
▁199	-327
▁كانت	-328
برا	-329
صف	-330
أن	-331
ركة	-332
▁القرن	-333
إن	-334
ورية	-335
▁عند	-336
ريق	-337
▁المن	-338
خص	-339
▁وج	-340
▁ولا	-341
▁يم	-342
▁العالم	-343
▁سنة	-344
▁ين	-345
سلام	-346
▁وق	-347
▁دي	-348
رائ	-349
▁تش	-350
▁له	-351
▁أس	-352
▁كت	-353
▁ول	-354
خل	-355
▁رئيس	-356
بية	-357
عية	-358
رد	-359
عي	-360
افة	-361
▁أول	-362
با	-363
▁بم	-364
▁نظ	-365
▁وف	-366
▁196	-367
▁تح	-368
ناء	-369
▁لت	-370
كية	-371
راجع	-372
▁وقد	-373
▁تت	-374
▁قبل	-375
▁اليوم	-376
ستخ	-377
طقة	-378
▁بد	-379
رم	-380
ربي	-381
فة	-382
رات	-383
جل	-384
الية	-385
▁يع	-386
ليم	-387
▁قدم	-388
▁الآ	-389
يط	-390
نوب	-391
▁كرة	-392
▁لي	-393
كس	-394
بن	-395
▁وهي	-396
▁تأ	-397
▁ثم	-398
خرى	-399
▁وهو	-400
▁تو	-401
▁ومن	-402
▁المس	-403
ارج	-404
اق	-405
▁بي	-406
▁عدد	-407
▁بعض	-408
بات	-409
ولي	-410
▁لاع	-411
▁194	-412
▁المتحدة	-413
▁بح	-414
انيا	-415
▁مج	-416
)،	-417
لاد	-418
▁أحد	-419
فاع	-420
▁مصر	-421
▁195	-422
تى	-423
▁للم	-424
طي	-425
▁مد	-426
▁أع	-427
بع	-428
▁انت	-429
▁مست	-430
وى	-431
وان	-432
شت	-433
▁وس	-434
▁لاعب	-435
ثة	-436
▁المح	-437
▁يق	-438
جد	-439
ارت	-440
▁بت	-441
ظر	-442
وعة	-443
فر	-444
▁أش	-445
▁بر	-446
سك	-447
از	-448
عب	-449
▁4	-450
▁فرن	-451
لب	-452
▁غير	-453
▁والت	-454
▁حد	-455
▁الجز	-456
▁تن	-457
▁والأ	-458
جة	-459
▁وز	-460
اث	-461
ماء	-462
قط	-463
▁المدينة	-464
▁حتى	-465
يز	-466
ائية	-467
امة	-468
▁قد	-469
فت	-470
▁يمكن	-471
▁5	-472
وة	-473
له	-474
▁(1	-475
▁يوم	-476
▁أمريكي	-477
راق	-478
ياب	-479
▁الملك	-480
▁خلال	-481
▁الأول	-482
غير	-483
افظ	-484
▁أنه	-485
▁إس	-486
▁مي	-487
ثلة	-488
▁المص	-489
▁اب	-490
ينية	-491
▁الأو	-492
▁المج	-493
▁ممثل	-494
قا	-495
تها	-496
ئي	-497
ارات	-498
▁بش	-499
ائر	-500
▁ري	-501
جي	-502
وط	-503
اليد	-504
▁عالم	-505
▁وا	-506
▁حا	-507
ابة	-508
▁به	-509
▁سي	-510
▁17	-511
▁وإ	-512
ومة	-513
▁الإسلام	-514
عات	-515
ائي	-516
▁سيا	-517
▁فيها	-518
▁.	-519
لية	-520
▁الولا	-521
▁أف	-522
سن	-523
ضي	-524
ضع	-525
ئة	-526
▁لأ	-527
حر	-528
كو	-529
▁مؤ	-530
دام	-531
▁الأمري	-532
▁كب	-533
▁فت	-534
▁ون	-535
ائزة	-536
▁المو	-537
ثير	-538
▁مراجع	-539
جلي	-540
ندي	-541
▁193	-542
ريط	-543
▁مغ	-544
▁تحت	-545
به	-546
ظم	-547
لات	-548
▁وكان	-549
▁6	-550
▁بها	-551
▁الإن	-552
وني	-553
عم	-554
حو	-555
▁السل	-556
▁واح	-557
ارس	-558
▁الرا	-559
▁أد	-560
لسط	-561
▁عشر	-562
▁جز	-563
▁سب	-564
ارية	-565
▁تاريخ	-566
▁خارج	-567
ستخدم	-568
جر	-569
▁،	-570
جموعة	-571
▁مصري	-572
▁ألم	-573
▁فر	-574
ختلف	-575
وجد	-576
وروب	-577
▁فإن	-578
▁نوب	-579
وح	-580
سبة	-581
وار	-582
▁ولك	-583
سيس	-584
▁15	-585
ثم	-586
وقع	-587
▁أكثر	-588
امعة	-589
▁جائزة	-590
▁والتي	-591
▁مواليد	-592
غات	-593
ديم	-594
▁7	-595
▁الثاني	-596
▁كم	-597
».	-598
▁المست	-599
▁الياب	-600
ئية	-601
▁منها	-602
▁عمل	-603
▁العربية	-604
لاف	-605
▁ولكن	-606
لاح	-607
▁للت	-608
▁ات	-609
قر	-610
▁الض	-611
▁وفيات	-612
صبح	-613
قع	-614
لكة	-615
▁الحرب	-616
▁ممثلة	-617
اي	-618
سط	-619
▁14	-620
▁16	-621
مه	-622
وسط	-623
امل	-624
▁نوبل	-625
▁المد	-626
▁كتاب	-627
▁الاست	-628
▁أبو	-629
ائل	-630
شار	-631
بار	-632
▁بو	-633
ذي	-634
▁يتم	-635
▁8	-636
▁لها	-637
رح	-638
اليا	-639
▁نفس	-640
▁وح	-641
▁أيضا	-642
▁أما	-643
▁وصل	-644
اعر	-645
▁12	-646
سبب	-647
▁يكون	-648
▁اسم	-649
بال	-650
▁الرئيس	-651
▁الوط	-652
تين	-653
اصة	-654
ونات	-655
▁ابن	-656
▁سع	-657
راف	-658
ياس	-659
▁النا	-660
▁وذلك	-661
يش	-662
امي	-663
قتص	-664
▁اللغة	-665
ادي	-666
ناك	-667
ائرة	-668
▁أخرى	-669
قية	-670
ركز	-671
▁الأن	-672
▁خارجية	-673
▁الكت	-674
▁أحمد	-675
قال	-676
▁192	-677
▁منطقة	-678
وفي	-679
▁أغ	-680
▁10	-681
er	-682
سين	-683
▁عم	-684
▁الفرن	-685
افظة	-686
نوات	-687
▁النظ	-688
ابات	-689
▁والع	-690
▁بأ	-691
رس	-692
صول	-693
▁شخص	-694
▁قال	-695
جه	-696
ضم	-697
▁الأولى	-698
راد	-699
لاث	-700
▁لو	-701
▁ذات	-702
▁الإم	-703
▁ملك	-704
▁الأس	-705
انات	-706
▁191	-707
▁تص	-708
▁البر	-709
▁:	-710
▁يون	-711
▁13	-712
كة	-713
▁السيا	-714
ادر	-715
▁ولاية	-716
▁إلا	-717
براط	-718
▁تكون	-719
▁حدث	-720
▁عليه	-721
يلة	-722
▁قام	-723
سان	-724
ظمة	-725
ظهر	-726
حاد	-727
▁يُ	-728
▁المي	-729
لت	-730
روف	-731
▁أث	-732
▁للأ	-733
▁الكيم	-734
ضافة	-735
فا	-736
▁حاصل	-737
▁الشي	-738
▁تج	-739
اك	-740
قى	-741
اقة	-742
▁آخر	-743
▁تأسيس	-744
قات	-745
زياء	-746
اصمة	-747
لكتر	-748
▁الساب	-749
والي	-750
▁عمر	-751
▁الشع	-752
▁المنا	-753
an	-754
ودي	-755
▁را	-756
زب	-757
▁9	-758
▁يد	-759
ناصر	-760
▁المؤ	-761
▁العديد	-762
طف	-763
بط	-764
▁وش	-765
كومة	-766
▁الدين	-767
▁11	-768
وه	-769
▁منذ	-770
▁التح	-771
▁بشكل	-772
ديدة	-773
▁القر	-774
▁بق	-775
▁شع	-776
▁الات	-777
▁المم	-778
▁فيه	-779
▁إد	-780
▁إلي	-781
▁البي	-782
▁الثال	-783
سيم	-784
ريف	-785
سمى	-786
اة	-787
يب	-788
▁رو	-789
▁أهم	-790
عتبر	-791
ليل	-792
▁المغ	-793
▁سل	-794
اتب	-795
▁العل	-796
احة	-797
▁الولايات	-798
▁–	-799
▁ني	-800
▁درج	-801
▁الكب	-802
▁عل	-803
كرة	-804
الت	-805
بلغ	-806
زية	-807
▁لبن	-808
اته	-809
طق	-810
صد	-811
▁استخ	-812
▁التع	-813
الب	-814
▁التاريخ	-815
▁إذا	-816
مس	-817
▁التق	-818
لمة	-819
ونية	-820
هما	-821
▁وصلات	-822
ودة	-823
▁جامعة	-824
000	-825
▁الحر	-826
▁سياسي	-827
▁الدولة	-828
▁شي	-829
▁عب	-830
in	-831
أس	-832
زل	-833
طب	-834
▁دول	-835
..	-836
وغ	-837
رائيل	-838
دية	-839
▁لكن	-840
▁العام	-841
▁تر	-842
▁الفي	-843
▁حول	-844
فض	-845
الات	-846
-1	-847
طر	-848
ينة	-849
▁بع	-850
▁علم	-851
▁الوا	-852
▁نظام	-853
طلق	-854
▁ها	-855
▁بأن	-856
مو	-857
▁انظر	-858
▁طريق	-859
▁السنة	-860
جز	-861
يادة	-862
طان	-863
20	-864
▁رس	-865
▁عندما	-866
اند	-867
ليون	-868
▁الثانية	-869
ريد	-870
▁أكبر	-871
هي	-872
يمة	-873
بت	-874
▁ور	-875
▁الري	-876
ودية	-877
جار	-878
غم	-879
ربع	-880
▁جنوب	-881
▁الانت	-882
ده	-883
ينا	-884
▁بالم	-885
يسة	-886
ديمة	-887
سمية	-888
▁إم	-889
▁لأن	-890
فع	-891
▁مما	-892
ومات	-893
▁الجنوب	-894
▁قر	-895
▁جن	-896
جت	-897
▁الجن	-898
▁مجموعة	-899
اش	-900
▁خط	-901
▁مر	-902
▁تلك	-903
غي	-904
▁هناك	-905
▁حم	-906
حدث	-907
خذ	-908
▁فلسط	-909
حية	-910
▁تي	-911
ترا	-912
▁بط	-913
▁المق	-914
»،	-915
▁لإ	-916
on	-917
▁بدأ	-918
▁أيضًا	-919
▁الدول	-920
تد	-921
▁حوالي	-922
▁البل	-923
ياً	-924
قتصاد	-925
▁بار	-926
▁موا	-927
▁البحر	-928
زم	-929
▁"	-930
▁تط	-931
▁دا	-932
▁تد	-933
▁الشمال	-934
▁اليابان	-935
طار	-936
▁أبي	-937
▁باسم	-938
▁A	-939
▁إي	-940
▁قص	-941
وص	-942
نى	-943
ثال	-944
قتل	-945
▁بير	-946
وض	-947
سون	-948
▁قائ	-949
جن	-950
قدم	-951
انون	-952
شف	-953
ارل	-954
▁فرنسي	-955
▁الشيخ	-956
▁عليها	-957
▁ألف	-958
en	-959
▁نق	-960
▁العمل	-961
▁مش	-962
▁الأد	-963
▁الشرق	-964
▁ست	-965
▁أوروب	-966
خط	-967
▁C	-968
▁بالإ	-969
▁درجة	-970
خاص	-971
▁الثالث	-972
صار	-973
▁الروم	-974
ياة	-975
عمل	-976
▁فقد	-977
▁أص	-978
▁بإ	-979
امج	-980
اير	-981
ستر	-982
▁كيم	-983
▁B	-984
ندا	-985
▁لق	-986
▁أق	-987
حل	-988
▁سم	-989
عدة	-990
يدة	-991
مهورية	-992
▁مل	-993
ميع	-994
▁الأمريكية	-995
هرب	-996
واع	-997
▁أنها	-998
▁بسبب	-999
وما	-1000
سر	-1001
هل	-1002
▁يج	-1003
▁190	-1004
▁إيط	-1005
▁الإس	-1006
راً	-1007
ويل	-1008
َّة	-1009
قًا	-1010
▁شمال	-1011
يائية	-1012
▁الأع	-1013
وبر	-1014
زا	-1015
▁فرنسا	-1016
▁الأخرى	-1017
واب	-1018
ويت	-1019
▁الأرض	-1020
▁تقع	-1021
▁الموج	-1022
▁المنطقة	-1023
فن	-1024
▁جون	-1025
داية	-1026
يران	-1027
▁جميع	-1028
▁لن	-1029
عداد	-1030
▁أثناء	-1031
ارك	-1032
▁البريط	-1033
▁العراق	-1034
ثي	-1035
الد	-1036
▁والح	-1037
▁الهند	-1038
انا	-1039
▁أل	-1040
▁الأش	-1041
فق	-1042
وش	-1043
راقي	-1044
▁يست	-1045
علن	-1046
يدر	-1047
▁S	-1048
▁وص	-1049
at	-1050
▁ياب	-1051
▁الفت	-1052
▁سوري	-1053
▁وكانت	-1054
سيا	-1055
فاعل	-1056
▁إنجلي	-1057
فل	-1058
ّة	-1059
▁الوق	-1060
رير	-1061
▁الأمريكي	-1062
▁الحدي	-1063
▁العالمية	-1064
آن	-1065
▁القديمة	-1066
ضاء	-1067
▁والذي	-1068
سمي	-1069
▁الإمبراط	-1070
عضاء	-1071
al	-1072
سس	-1073
سمة	-1074
▁لد	-1075
▁عدة	-1076
بدأ	-1077
▁والن	-1078
▁ظ	-1079
زيز	-1080
وير	-1081
▁الذين	-1082
▁العثم	-1083
▁محافظة	-1084
▁واحد	-1085
ضر	-1086
لاق	-1087
▁ترك	-1088
ريل	-1089
▁لح	-1090
سكري	-1091
هاية	-1092
▁سكان	-1093
حات	-1094
▁تا	-1095
▁اخت	-1096
غل	-1097
ينات	-1098
الح	-1099
▁مدن	-1100
▁العم	-1101
▁وخ	-1102
▁حسب	-1103
شع	-1104
وسي	-1105
▁دون	-1106
ويم	-1107
ar	-1108
راك	-1109
ولوج	-1110
▁الوطني	-1111
نتاج	-1112
▁أوروبا	-1113
قم	-1114
هة	-1115
هيم	-1116
▁القط	-1117
ياد	-1118
▁حكم	-1119
▁فقط	-1120
▁ود	-1121
ريقة	-1122
اما	-1123
مان	-1124
▁اعت	-1125
▁فترة	-1126
▁استخدام	-1127
غا	-1128
▁فن	-1129
▁أيام	-1130
▁تس	-1131
▁الطبي	-1132
▁سا	-1133
▁أصل	-1134
▁يول	-1135
▁العربي	-1136
▁يش	-1137
انيون	-1138
ختلفة	-1139
▁الأخ	-1140
▁والإ	-1141
▁أيضاً	-1142
▁المسلم	-1143
▁النظام	-1144
0.	-1145
ورا	-1146
ريب	-1147
شرة	-1148
هاء	-1149
▁متر	-1150
▁الطب	-1151
صرية	-1152
▁الخام	-1153
راض	-1154
▁أشخاص	-1155
ساب	-1156
or	-1157
مع	-1158
ئاس	-1159
▁أر	-1160
ورج	-1161
▁المش	-1162
لاً	-1163
هور	-1164
رع	-1165
▁مف	-1166
▁التج	-1167
انة	-1168
وزي	-1169
تل	-1170
جمع	-1171
▁ألمانيا	-1172
حف	-1173
ارد	-1174
▁السود	-1175
▁الاتحاد	-1176
ضة	-1177
غر	-1178
صور	-1179
▁تُ	-1180
▁يناير	-1181
انب	-1182
كثر	-1183
▁تف	-1184
▁المراجع	-1185
ساوي	-1186
▁العرب	-1187
▁وزراء	-1188
▁يونيو	-1189
واء	-1190
قلال	-1191
▁يوجد	-1192
بطة	-1193
▁فل	-1194
▁نش	-1195
يه	-1196
يلي	-1197
▁بول	-1198
▁ومع	-1199
▁الشر	-1200
▁بالت	-1201
▁وجود	-1202
ئات	-1203
ماع	-1204
ونغ	-1205
▁بك	-1206
▁شاعر	-1207
▁كبير	-1208
▁مصرية	-1209
طية	-1210
▁مجلس	-1211
▁المملكة	-1212
22	-1213
خرج	-1214
كتوبر	-1215
▁الألم	-1216
▁حر	-1217
▁مارس	-1218
▁السع	-1219
لاء	-1220
▁لغة	-1221
جموع	-1222
▁إسب	-1223
▁موقع	-1224
ثار	-1225
▁إق	-1226
▁آل	-1227
لادي	-1228
▁نهر	-1229
براير	-1230
▁إسرائيل	-1231
▁للح	-1232
▁سن	-1233
▁الوز	-1234
▁/	-1235
ساء	-1236
سمبر	-1237
▁بالن	-1238
▁تب	-1239
شرين	-1240
▁منت	-1241
▁ولي	-1242
▁لغات	-1243
يون	-1244
▁هن	-1245
ليات	-1246
سطس	-1247
كتب	-1248
وال	-1249
ستان	-1250
▁الفرنسية	-1251
ch	-1252
es	-1253
▁للع	-1254
▁رم	-1255
خابات	-1256
▁البح	-1257
براهيم	-1258
▁يوليو	-1259
▁فأ	-1260
ركات	-1261
ومية	-1262
▁الساد	-1263
▁الرياض	-1264
ظيم	-1265
▁صف	-1266
اهرة	-1267
▁الحم	-1268
▁الإسلامية	-1269
لاب	-1270
▁قط	-1271
▁المصري	-1272
ورغ	-1273
▁أكتوبر	-1274
▁أعمال	-1275
لق	-1276
▁يح	-1277
▁اكت	-1278
ريقيا	-1279
▁أحداث	-1280
اعت	-1281
ريت	-1282
▁تز	-1283
▁جد	-1284
▁ضد	-1285
▁أسا	-1286
▁لع	-1287
▁189	-1288
▁نوف	-1289
▁الان	-1290
▁الثق	-1291
▁الجزائر	-1292
ابت	-1293
▁بريط	-1294
لاثة	-1295
▁مايو	-1296
▁العلم	-1297
▁البلاد	-1298
▁الغربي	-1299
▁أمريكية	-1300
▁نوع	-1301
اذ	-1302
▁ام	-1303
راسة	-1304
▁نظرية	-1305
▁الحكومة	-1306
نع	-1307
ذكر	-1308
▁وط	-1309
يائي	-1310
▁فبراير	-1311
▁السنوات	-1312
وء	-1313
▁كبيرة	-1314
▁السكان	-1315
ِّ	-1316
▁احت	-1317
▁شكل	-1318
▁مركز	-1319
▁ديسمبر	-1320
▁مك	-1321
ستخدام	-1322
▁التش	-1323
صة	-1324
اسع	-1325
▁مرة	-1326
▁الموا	-1327
▁الوقت	-1328
▁عملية	-1329
▁العزيز	-1330
درسة	-1331
▁حرب	-1332
▁الخط	-1333
▁واحدة	-1334
▁إحد	-1335
▁عبر	-1336
▁إبراهيم	-1337
▁حاليا	-1338
ابل	-1339
ورد	-1340
يين	-1341
▁نحو	-1342
▁وغير	-1343
ورك	-1344
غيرة	-1345
▁أعضاء	-1346
▁أح	-1347
▁قب	-1348
مبر	-1349
ينغ	-1350
▁ارت	-1351
▁دار	-1352
▁للإ	-1353
▁والب	-1354
▁أنواع	-1355
▁النبي	-1356
2.	-1357
▁M	-1358
▁مار	-1359
▁الحد	-1360
علام	-1361
▁طبي	-1362
كال	-1363
▁موس	-1364
▁الإلكتر	-1365
▁الاح	-1366
▁نسمة	-1367
اطعة	-1368
▁طول	-1369
▁ولم	-1370
جا	-1371
▁الأسا	-1372
▁الجيش	-1373
▁القوات	-1374
is	-1375
▁=	-1376
قرا	-1377
ياه	-1378
▁محم	-1379
▁وأن	-1380
▁القد	-1381
▁اليون	-1382
بين	-1383
▁شرق	-1384
▁الولاية	-1385
ِي	-1386
ريم	-1387
▁25	-1388
▁يس	-1389
▁ساب	-1390
▁عرف	-1391
▁الجم	-1392
▁الرس	-1393
▁أغسطس	-1394
▁أخ	-1395
▁الأمير	-1396
جرة	-1397
تمبر	-1398
▁ولد	-1399
▁دولة	-1400
غط	-1401
ومي	-1402
▁إنجليزي	-1403
نين	-1404
ائد	-1405
▁العناصر	-1406
هود	-1407
▁188	-1408
سكرية	-1409
▁حالة	-1410
▁رياض	-1411
▁المسي	-1412
▁بج	-1413
▁الكم	-1414
▁كاتب	-1415
▁القرآن	-1416
▁يؤ	-1417
▁الني	-1418
▁جي	-1419
▁حين	-1420
▁كيل	-1421
▁والس	-1422
▁الوسط	-1423
▁فيما	-1424
▁معظم	-1425
▁الفلسط	-1426
▁تعت	-1427
▁ذكر	-1428
▁الصين	-1429
▁المصرية	-1430
▁موج	-1431
▁سليم	-1432
▁فران	-1433
▁بينما	-1434
▁سنوات	-1435
▁سبتمبر	-1436
زو	-1437
شاف	-1438
▁يز	-1439
▁شركة	-1440
▁ألماني	-1441
▁اللغات	-1442
تش	-1443
تمد	-1444
▁حق	-1445
صبحت	-1446
▁والق	-1447
▁نوفمبر	-1448
▁الفرنسي	-1449
حن	-1450
عا	-1451
فظ	-1452
▁كون	-1453
▁بالإضافة	-1454
▁مُ	-1455
هاز	-1456
▁نسبة	-1457
▁العامة	-1458
▁خاصة	-1459
▁الاقتصاد	-1460
اخ	-1461
داد	-1462
وبة	-1463
▁يب	-1464
▁التن	-1465
▁بالق	-1466
1.	-1467
هار	-1468
▁(2	-1469
▁ويم	-1470
▁جورج	-1471
▁وبعد	-1472
▁العلا	-1473
جو	-1474
يام	-1475
▁عهد	-1476
واس	-1477
ليفة	-1478
▁المك	-1479
جاج	-1480
ورت	-1481
وجين	-1482
▁ضمن	-1483
▁المر	-1484
▁الحكم	-1485
▁بداية	-1486
عادة	-1487
▁المه	-1488
▁بالأ	-1489
▁ثلاث	-1490
▁وعلى	-1491
▁الكهرب	-1492
شا	-1493
▁أصبح	-1494
▁الأص	-1495
4.	-1496
فاق	-1497
ويس	-1498
طلاق	-1499
▁بما	-1500
▁دين	-1501
ناعة	-1502
▁إحدى	-1503
ندية	-1504
▁(19	-1505
▁حركة	-1506
▁الإنسان	-1507
▁بناء	-1508
▁والد	-1509
▁وهذا	-1510
▁الإنجلي	-1511
▁داخل	-1512
10	-1513
▁إذ	-1514
عمال	-1515
▁الأز	-1516
▁تعتبر	-1517
▁العاصمة	-1518
رعة	-1519
ريك	-1520
غان	-1521
▁تل	-1522
▁العصر	-1523
▁واست	-1524
يع	-1525
شاء	-1526
قيق	-1527
▁وتم	-1528
▁ويت	-1529
▁العن	-1530
▁مليون	-1531
▁نهاية	-1532
▁الرابع	-1533
رفة	-1534
▁بلغ	-1535
▁الغربية	-1536
فسير	-1537
▁والث	-1538
▁والف	-1539
ليف	-1540
▁تك	-1541
▁علا	-1542
▁الفترة	-1543
طح	-1544
بير	-1545
ائلة	-1546
5.	-1547
جاه	-1548
▁منه	-1549
▁الطاقة	-1550
باء	-1551
تون	-1552
▁30	-1553
▁وتع	-1554
واد	-1555
وجه	-1556
▁شر	-1557
▁الكيمياء	-1558
▁مقتل	-1559
▁الأرد	-1560
▁الميلادي	-1561
عدد	-1562
راضي	-1563
▁الأف	-1564
▁طب	-1565
▁مب	-1566
▁نا	-1567
كاني	-1568
▁روس	-1569
▁الخاصة	-1570
اهر	-1571
ريغ	-1572
▁حل	-1573
▁والص	-1574
▁أبريل	-1575
3.	-1576
8.	-1577
تيب	-1578
حمل	-1579
امات	-1580
▁187	-1581
▁لاح	-1582
▁الناس	-1583
▁عراقي	-1584
▁الأوروب	-1585
▁الفيزياء	-1586
▁يف	-1587
▁تست	-1588
▁جزيرة	-1589
▁الحياة	-1590
حا	-1591
▁رب	-1592
ئاسة	-1593
▁السادس	-1594
▁الحرارة	-1595
▁المسلمين	-1596
it	-1597
وسف	-1598
▁21	-1599
▁إل	-1600
▁لب	-1601
▁المب	-1602
▁المرك	-1603
كام	-1604
▁عض	-1605
▁مه	-1606
تيجة	-1607
▁يحت	-1608
▁الدولي	-1609
om	-1610
وث	-1611
امية	-1612
هولة	-1613
▁وضع	-1614
▁لويس	-1615
▁السوفي	-1616
▁فيزياء	-1617
ic	-1618
▁دم	-1619
علان	-1620
▁186	-1621
▁اليم	-1622
▁موسي	-1623
رخ	-1624
ضا	-1625
وتر	-1626
▁جم	-1627
▁دور	-1628
▁وين	-1629
▁مكان	-1630
▁عاصمة	-1631
le	-1632
قيقة	-1633
▁وما	-1634
▁بالع	-1635
اطق	-1636
حاب	-1637
ربعة	-1638
▁الرحم	-1639
أة	-1640
راز	-1641
▁لبناني	-1642
امن	-1643
▁كر	-1644
▁للك	-1645
▁للن	-1646
▁التص	-1647
▁توفي	-1648
▁الجزائ	-1649
الك	-1650
تمع	-1651
▁حيات	-1652
▁الوطنية	-1653
كار	-1654
ولد	-1655
ربون	-1656
▁الاسم	-1657
اتي	-1658
جوم	-1659
ريا	-1660
وتي	-1661
▁شهر	-1662
▁المدن	-1663
شروع	-1664
▁الخامس	-1665
ويتي	-1666
▁غرب	-1667
▁جمهورية	-1668
طن	-1669
▁لكل	-1670
▁والك	-1671
▁الإيط	-1672
▁الشهر	-1673
21	-1674
▁فه	-1675
▁هول	-1676
▁مسلم	-1677
خب	-1678
وفر	-1679
▁زي	-1680
يناء	-1681
▁كام	-1682
▁معد	-1683
ائرات	-1684
▁أشهر	-1685
▁الوسطى	-1686
▁الميلاد	-1687
حص	-1688
ارب	-1689
سام	-1690
▁لج	-1691
▁عيد	-1692
▁الجزي	-1693
▁ياباني	-1694
طفى	-1695
ورن	-1696
▁إير	-1697
▁زوج	-1698
▁هنري	-1699
الف	-1700
ربة	-1701
▁روب	-1702
▁T	-1703
ابا	-1704
لمان	-1705
▁كول	-1706
▁الشم	-1707
▁المف	-1708
تا	-1709
شق	-1710
باط	-1711
ظام	-1712
كبر	-1713
ليب	-1714
▁كن	-1715
سيمات	-1716
▁بعده	-1717
▁كلمة	-1718
ائب	-1719
ائق	-1720
خاب	-1721
غتي	-1722
▁الآن	-1723
50	-1724
▁غر	-1725
▁مرت	-1726
19	-1727
ماس	-1728
▁والج	-1729
ذج	-1730
هب	-1731
واص	-1732
▁كي	-1733
▁وتقع	-1734
▁الشمس	-1735
▁يعتبر	-1736
▁السابق	-1737
▁الكثير	-1738
ضل	-1739
▁P	-1740
است	-1741
▁كث	-1742
▁مقاطعة	-1743
7.	-1744
سخ	-1745
َن	-1746
حيط	-1747
▁الشمالية	-1748
ديب	-1749
راع	-1750
ونس	-1751
▁يص	-1752
▁خلف	-1753
▁وقت	-1754
▁الخارج	-1755
▁الرحمن	-1756
َل	-1757
ادل	-1758
▁بغ	-1759
▁بني	-1760
▁الإد	-1761
▁يبلغ	-1762
ارع	-1763
واج	-1764
جتما	-1765
▁الفر	-1766
▁مناطق	-1767
وذ	-1768
ريس	-1769
شيد	-1770
▁قا	-1771
▁أماكن	-1772
▁علماء	-1773
▁فلسطين	-1774
▁العالمي	-1775
تو	-1776
ابع	-1777
راس	-1778
▁جزء	-1779
جلترا	-1780
▁المقد	-1781
▁محمود	-1782
رى	-1783
ويورك	-1784
▁الماء	-1785
9.	-1786
ذب	-1787
قب	-1788
جات	-1789
ميم	-1790
همة	-1791
ناسب	-1792
ويات	-1793
غتيال	-1794
صوص	-1795
لسلة	-1796
▁بات	-1797
▁ليس	-1798
▁نصف	-1799
▁وسط	-1800
▁الفن	-1801
▁توجد	-1802
▁نفسه	-1803
رائيلي	-1804
▁وفقًا	-1805
▁المواد	-1806
لز	-1807
▁حزب	-1808
▁للد	-1809
▁اللا	-1810
▁إيطالي	-1811
غن	-1812
بيا	-1813
دان	-1814
▁يقوم	-1815
▁الاحت	-1816
▁الإمبراطورية	-1817
6.	-1818
▁صح	-1819
وريا	-1820
▁ينت	-1821
▁قائمة	-1822
▁معركة	-1823
▁يستخدم	-1824
غو	-1825
طات	-1826
▁حسن	-1827
▁فوق	-1828
▁ميلاد	-1829
▁الشرقية	-1830
الغ	-1831
▁بب	-1832
▁مأ	-1833
وسية	-1834
باتات	-1835
واسطة	-1836
▁إليه	-1837
▁الأح	-1838
▁أصبحت	-1839
▁وكذلك	-1840
▁التاسع	-1841
▁مث	-1842
▁بدأت	-1843
30	-1844
▁إسلام	-1845
▁الصنا	-1846
▁بواسطة	-1847
▁D	-1848
يفة	-1849
▁مض	-1850
ساعد	-1851
▁كال	-1852
▁الصح	-1853
▁تستخدم	-1854
مت	-1855
رجع	-1856
▁رؤ	-1857
▁جيم	-1858
▁عنه	-1859
▁للق	-1860
▁حسين	-1861
▁ثلاثة	-1862
▁مصطفى	-1863
▁الكويت	-1864
▁السودان	-1865
عيم	-1866
وله	-1867
يرات	-1868
▁مصطل	-1869
▁القدم	-1870
▁عسكري	-1871
▁مختلفة	-1872
▁وصف	-1873
▁2000	-1874
▁برن	-1875
▁لما	-1876
▁اللي	-1877
▁عادة	-1878
▁مجموع	-1879
بكة	-1880
▁فال	-1881
▁الجد	-1882
▁العد	-1883
▁المناطق	-1884
ol	-1885
واة	-1886
▁عد	-1887
▁جاء	-1888
▁الثلاث	-1889
رش	-1890
جال	-1891
لاس	-1892
▁وغ	-1893
▁برا	-1894
▁كتب	-1895
▁كيمياء	-1896
▁R	-1897
كمة	-1898
طفال	-1899
▁اشت	-1900
▁مرك	-1901
▁الأب	-1902
▁فع	-1903
ونيا	-1904
▁رأس	-1905
▁رقم	-1906
▁والش	-1907
▁وفاة	-1908
ريغوري	-1909
▁العدد	-1910
▁الكيميائية	-1911
▁للب	-1912
▁مساحة	-1913
▁فلسطيني	-1914
▁السعودية	-1915
ُم	-1916
كات	-1917
▁تشي	-1918
▁كار	-1919
▁الها	-1920
▁كارل	-1921
▁والخ	-1922
ولى	-1923
▁تخ	-1924
▁حي	-1925
▁مخ	-1926
▁نت	-1927
غراف	-1928
▁H	-1929
تمر	-1930
ئيسي	-1931
▁عثم	-1932
▁إضافة	-1933
شن	-1934
شو	-1935
▁I	-1936
▁أقل	-1937
▁العثمانية	-1938
جب	-1939
▁)	-1940
برت	-1941
جان	-1942
ديث	-1943
ابعة	-1944
شارة	-1945
▁المز	-1946
ion	-1947
الى	-1948
ولت	-1949
▁الدي	-1950
▁نقطة	-1951
▁طائرة	-1952
▁إنجلترا	-1953
▁التعليم	-1954
راث	-1955
يرل	-1956
▁بيت	-1957
▁محا	-1958
▁ميل	-1959
▁الصف	-1960
▁السابع	-1961
▁المعروف	-1962
لاع	-1963
▁كا	-1964
افية	-1965
راعة	-1966
ريات	-1967
▁روم	-1968
▁التأ	-1969
▁خالد	-1970
بو	-1971
باح	-1972
▁أجل	-1973
▁فقال	-1974
▁الأمم	-1975
▁جديدة	-1976
▁حياته	-1977
▁ـ	-1978
ليج	-1979
▁تتم	-1980
▁2017	-1981
▁الحل	-1982
▁الجام	-1983
▁كويتي	-1984
▁مصادر	-1985
▁d	-1986
زين	-1987
▁نف	-1988
,000	-1989
سيطة	-1990
▁بور	-1991
▁خاص	-1992
▁عين	-1993
▁أسست	-1994
▁الأر	-1995
▁المعل	-1996
▁السلام	-1997
▁s	-1998
▁لين	-1999
▁2011	-2000
▁ثابت	-2001
▁مغني	-2002
ّا	-2003
دمة	-2004
قبل	-2005
وين	-2006
▁جبل	-2007
انيين	-2008
▁السي	-2009
▁تسمى	-2010
▁الآخر	-2011
▁المغرب	-2012
▁الموسي	-2013
▁الإسلامي	-2014
هير	-2015
وائ	-2016
▁وحد	-2017
▁التر	-2018
▁الكن	-2019
▁البريطانية	-2020
ابط	-2021
فيد	-2022
كيل	-2023
ادية	-2024
▁ستي	-2025
▁عقد	-2026
▁لدى	-2027
▁يبقى	-2028
قتصادي	-2029
▁الأمر	-2030
▁ويمكن	-2031
▁السلطان	-2032
▁الجنوبية	-2033
شة	-2034
قيه	-2035
عتقد	-2036
▁100	-2037
▁جديد	-2038
▁إليها	-2039
▁سعودي	-2040
▁الموقع	-2041
he	-2042
زن	-2043
ابن	-2044
تمي	-2045
وكي	-2046
▁أهل	-2047
▁ظهر	-2048
▁يعرف	-2049
▁الحزب	-2050
▁مواقع	-2051
عى	-2052
لغة	-2053
▁آن	-2054
▁إف	-2055
ادلة	-2056
▁النق	-2057
▁التفاعل	-2058
▁بالنسبة	-2059
▁الجمهورية	-2060
أي	-2061
ائن	-2062
امت	-2063
حمر	-2064
وقي	-2065
▁23	-2066
قويم	-2067
وارد	-2068
▁الحق	-2069
▁وقال	-2070
▁24	-2071
▁لك	-2072
بورغ	-2073
▁الظ	-2074
▁1992	-2075
ولوجيا	-2076
ارا	-2077
لين	-2078
▁1980	-2079
▁2004	-2080
▁سعيد	-2081
▁وزير	-2082
ديمقرا	-2083
▁الترك	-2084
▁الكبير	-2085
مم	-2086
ادم	-2087
▁تنا	-2088
اثولي	-2089
▁البن	-2090
▁الحديثة	-2091
▁الوزراء	-2092
▁المجموعة	-2093
نف	-2094
سيد	-2095
لاة	-2096
▁بص	-2097
▁وث	-2098
سلحة	-2099
▁وتت	-2100
اليوم	-2101
▁2003	-2102
▁لذلك	-2103
▁منهم	-2104
ُّ	-2105
لام	-2106
نيف	-2107
▁184	-2108
▁آسيا	-2109
▁وحدة	-2110
▁البعض	-2111
▁صغيرة	-2112
▁الثامن	-2113
▁أفريقيا	-2114
حق	-2115
شد	-2116
▁إلكتر	-2117
▁سلطان	-2118
▁وكالة	-2119
▁اكتشاف	-2120
اضي	-2121
باب	-2122
عاب	-2123
ونة	-2124
▁22	-2125
▁27	-2126
▁سف	-2127
▁نز	-2128
ستور	-2129
▁وله	-2130
▁الأدب	-2131
▁مقد	-2132
▁1981	-2133
▁وشاعر	-2134
▁الثورة	-2135
▁الكبيسة	-2136
▁طاقة	-2137
▁المجلس	-2138
جين	-2139
غيل	-2140
▁تعد	-2141
▁سورة	-2142
▁عناصر	-2143
▁ميلادية	-2144
▁|	-2145
اهد	-2146
كتل	-2147
صابة	-2148
▁مبا	-2149
▁الأل	-2150
▁الكتاب	-2151
برى	-2152
ماد	-2153
▁بس	-2154
جهزة	-2155
▁العق	-2156
▁اللبن	-2157
▁سلسلة	-2158
▁منظمة	-2159
ابر	-2160
اتها	-2161
▁عرض	-2162
▁العب	-2163
▁يوسف	-2164
▁المنت	-2165
▁مغنية	-2166
▁اغتيال	-2167
قص	-2168
▁L	-2169
هاب	-2170
وحة	-2171
▁الحيو	-2172
▁الانتخابات	-2173
ناط	-2174
▁26	-2175
▁حض	-2176
▁محد	-2177
▁وإن	-2178
▁ومد	-2179
▁المادة	-2180
ائص	-2181
اسوب	-2182
ورات	-2183
▁برم	-2184
▁ساح	-2185
▁مجال	-2186
▁الأصل	-2187
▁E	-2188
راب	-2189
وست	-2190
▁وآ	-2191
▁جان	-2192
▁الحج	-2193
▁الحركة	-2194
▁إسبانيا	-2195
▁الرومانية	-2196
َر	-2197
▁29	-2198
▁أُ	-2199
حداث	-2200
عددة	-2201
نائي	-2202
ولية	-2203
▁عدم	-2204
▁وان	-2205
▁أمير	-2206
▁المخ	-2207
▁منصب	-2208
▁الهيدر	-2209
▁الجديدة	-2210
▁t	-2211
كين	-2212
جراء	-2213
▁سعد	-2214
▁كات	-2215
▁المُ	-2216
▁سليمان	-2217
▁الجزيرة	-2218
BC	-2219
un	-2220
ur	-2221
سع	-2222
ريش	-2223
لمات	-2224
▁لهم	-2225
▁2009	-2226
▁2015	-2227
▁كثير	-2228
▁الشخص	-2229
▁الكون	-2230
▁قانون	-2231
حب	-2232
ثيل	-2233
ذهب	-2234
هتم	-2235
موذج	-2236
▁صور	-2237
▁مات	-2238
▁نقل	-2239
▁الأمن	-2240
▁دائرة	-2241
▁الحديث	-2242
▁بقيادة	-2243
سكي	-2244
صال	-2245
ضمن	-2246
كور	-2247
▁يكن	-2248
▁2005	-2249
▁2012	-2250
▁بلاد	-2251
▁قوات	-2252
▁ماري	-2253
▁مستوى	-2254
▁الجديد	-2255
▁السياسية	-2256
▁العسكرية	-2257
▁لص	-2258
▁هم	-2259
▁حجم	-2260
ناطيس	-2261
▁جيمس	-2262
▁مدرسة	-2263
▁الكتلة	-2264
انو	-2265
طبي	-2266
عام	-2267
وبي	-2268
▁كري	-2269
▁مون	-2270
▁2010	-2271
▁كذلك	-2272
▁أعياد	-2273
▁الزمن	-2274
▁السلطة	-2275
▁إيطاليا	-2276
▁تأسيسات	-2277
شكل	-2278
تيار	-2279
▁أدى	-2280
▁افت	-2281
▁مكت	-2282
▁حساب	-2283
▁المركز	-2284
▁استقلال	-2285
▁للتقويم	-2286
▁الألمانية	-2287
25	-2288
شعاع	-2289
ينيا	-2290
▁القا	-2291
▁القب	-2292
▁رسول	-2293
▁الدولية	-2294
▁القاهرة	-2295
حيح	-2296
▁مز	-2297
▁نج	-2298
راءة	-2299
ناطي	-2300
ياسي	-2301
يمان	-2302
▁بمع	-2303
▁سطح	-2304
▁1982	-2305
▁تحتوي	-2306
▁القديم	-2307
▁القطري	-2308
▁البريطاني	-2309
َة	-2310
▁G	-2311
ديل	-2312
▁الشعبية	-2313
▁العلماء	-2314
el	-2315
▁\	-2316
مار	-2317
ويد	-2318
▁خص	-2319
جزاء	-2320
لالة	-2321
▁BBC	-2322
▁جعل	-2323
التالي	-2324
▁أج	-2325
رحلة	-2326
كتور	-2327
▁إله	-2328
▁صوت	-2329
▁هير	-2330
▁وتن	-2331
▁الدا	-2332
▁لانت	-2333
▁سوريا	-2334
▁ومناسب	-2335
الغريغوري	-2336
▁الديمقرا	-2337
كب	-2338
ادن	-2339
▁28	-2340
▁أط	-2341
▁ذو	-2342
صدار	-2343
▁ألك	-2344
▁للا	-2345
▁يصل	-2346
▁إقليم	-2347
▁الرغم	-2348
▁الشكل	-2349
▁ارتفاع	-2350
▁الحالة	-2351
▁المصادر	-2352
am	-2353
وخ	-2354
هدف	-2355
وقف	-2356
رجنت	-2357
ومتر	-2358
▁أعلى	-2359
us	-2360
هام	-2361
▁قل	-2362
لاحظ	-2363
▁تضم	-2364
▁لدي	-2365
▁ملا	-2366
▁يجب	-2367
▁2006	-2368
▁بذلك	-2369
▁يقول	-2370
▁حكومة	-2371
▁يومًا	-2372
▁الاجتما	-2373
14	-2374
قه	-2375
احب	-2376
ناة	-2377
ينو	-2378
اهدة	-2379
▁الأث	-2380
▁المل	-2381
▁النو	-2382
▁قامت	-2383
فاعلات	-2384
▁مملكة	-2385
▁ومناسبات	-2386
ac	-2387
▁خم	-2388
يرية	-2389
▁ومؤ	-2390
▁1979	-2391
▁السف	-2392
▁سعود	-2393
▁طالب	-2394
▁قياس	-2395
▁الغرب	-2396
▁التالية	-2397
▁N	-2398
بيض	-2399
يمز	-2400
▁لغ	-2401
▁(18	-2402
▁العشرين	-2403
▁c	-2404
تان	-2405
تهم	-2406
▁نم	-2407
▁النم	-2408
▁جانب	-2409
▁وكاتب	-2410
▁مأهولة	-2411
اوي	-2412
مثل	-2413
▁اس	-2414
جيات	-2415
▁حيو	-2416
▁دائ	-2417
▁فهي	-2418
▁مقر	-2419
▁ويع	-2420
▁يقع	-2421
▁الحك	-2422
ناطيسي	-2423
▁المقا	-2424
▁النسب	-2425
▁الأنباء	-2426
▁0	-2427
حلة	-2428
طلب	-2429
يته	-2430
▁عُ	-2431
▁بنت	-2432
▁سير	-2433
▁نشر	-2434
▁2008	-2435
▁2018	-2436
▁سرعة	-2437
▁قرية	-2438
▁الأسب	-2439
▁عبارة	-2440
▁معروف	-2441
▁أمريكا	-2442
▁باستخدام	-2443
احث	-2444
بنى	-2445
زاب	-2446
▁1.	-2447
▁اح	-2448
واجد	-2449
▁بحر	-2450
▁إنتاج	-2451
▁الجزء	-2452
▁لبنان	-2453
▁الأكبر	-2454
▁البيانات	-2455
▁المختلفة	-2456
نب	-2457
▁يأ	-2458
ماعة	-2459
▁شبه	-2460
▁قتل	-2461
▁2016	-2462
▁بروت	-2463
سسة	-2464
طاق	-2465
قسم	-2466
نان	-2467
يار	-2468
▁حرف	-2469
▁باست	-2470
▁والر	-2471
▁الشعب	-2472
▁المعلومات	-2473
▁الإنجليزية	-2474
12	-2475
شأ	-2476
جير	-2477
جيل	-2478
فضل	-2479
▁دو	-2480
▁لس	-2481
▁مط	-2482
يمون	-2483
▁قيمة	-2484
▁أسماء	-2485
▁تايمز	-2486
▁الرسمي	-2487
▁السياسي	-2488
لد	-2489
▁تمت	-2490
▁ماي	-2491
▁نور	-2492
ريقية	-2493
▁الهر	-2494
▁عنها	-2495
▁وعند	-2496
▁يسمى	-2497
▁المرت	-2498
▁F	-2499
أمة	-2500
▁وظ	-2501
حيان	-2502
ديات	-2503
▁رجل	-2504
▁كلا	-2505
▁يعد	-2506
▁1974	-2507
▁أمام	-2508
▁كانوا	-2509
▁الحدود	-2510
▁وو	-2511
ادرة	-2512
صلاح	-2513
ظاهر	-2514
▁بلا	-2515
▁فار	-2516
▁لهذا	-2517
▁يطلق	-2518
▁استمر	-2519
▁النوع	-2520
▁وفاته	-2521
▁البروت	-2522
▁وغيرها	-2523
et	-2524
ديس	-2525
▁آر	-2526
ولاية	-2527
▁1973	-2528
▁1990	-2529
▁2020	-2530
▁مؤلف	-2531
▁يؤدي	-2532
▁تعريف	-2533
▁الأحمر	-2534
▁القطريَّة	-2535
َم	-2536
انغ	-2537
قوط	-2538
▁يا	-2539
وانين	-2540
▁الإق	-2541
▁تقوم	-2542
▁سبيل	-2543
▁لأول	-2544
▁روبرت	-2545
▁شعراء	-2546
▁+	-2547
ابه	-2548
طيع	-2549
غال	-2550
هاد	-2551
اوية	-2552
▁بري	-2553
▁جام	-2554
▁حصل	-2555
▁خري	-2556
▁شيء	-2557
▁للش	-2558
▁1984	-2559
▁المط	-2560
▁نتيجة	-2561
▁الداخل	-2562
▁الرئيسي	-2563
▁النيويورك	-2564
جية	-2565
فاض	-2566
ولف	-2567
▁عق	-2568
▁185	-2569
ختيار	-2570
▁1978	-2571
▁1991	-2572
▁2014	-2573
▁السب	-2574
▁بحيث	-2575
▁ثاني	-2576
▁ثورة	-2577
▁مربع	-2578
▁تعالى	-2579
▁إدوارد	-2580
▁الأعداد	-2581
▁الرئيسية	-2582
23	-2583
برة	-2584
▁179	-2585
▁فهو	-2586
▁ويل	-2587
▁مادة	-2588
▁أربعة	-2589
▁الجسم	-2590
▁الفلسطيني	-2591
هن	-2592
▁%	-2593
راح	-2594
واف	-2595
ولات	-2596
▁كوب	-2597
▁أمين	-2598
▁سانت	-2599
▁البشر	-2600
▁الساح	-2601
▁مختلف	-2602
▁المتوسط	-2603
▁الإسرائيلي	-2604
18	-2605
60	-2606
أو	-2607
ابي	-2608
تاح	-2609
رمز	-2610
وتو	-2611
▁معل	-2612
▁نسب	-2613
▁وير	-2614
▁بالح	-2615
▁قائد	-2616
▁مؤسس	-2617
▁تأثير	-2618
▁إمبراط	-2619
▁الشرقي	-2620
▁المثال	-2621
▁المياه	-2622
▁سكانها	-2623
▁رياضيات	-2624
ّن	-2625
ذاك	-2626
شري	-2627
ضوع	-2628
تمال	-2629
قلاب	-2630
▁للج	-2631
ماعيل	-2632
▁1977	-2633
▁أداء	-2634
▁مستق	-2635
▁طريقة	-2636
▁الأكثر	-2637
▁العلوم	-2638
تن	-2639
هت	-2640
and	-2641
ناس	-2642
▁وض	-2643
وجود	-2644
▁لمن	-2645
▁القص	-2646
▁يعمل	-2647
▁يوما	-2648
▁الأردن	-2649
▁العراقي	-2650
▁القانون	-2651
▁الموجودة	-2652
ِن	-2653
رنت	-2654
قرأ	-2655
ماً	-2656
مية	-2657
▁فون	-2658
▁مان	-2659
نائية	-2660
▁رسام	-2661
▁صالح	-2662
▁لمدة	-2663
▁أعلام	-2664
▁المعد	-2665
▁تفسير	-2666
▁حرارة	-2667
▁والده	-2668
ذر	-2669
الع	-2670
▁مشت	-2671
▁النب	-2672
▁تمثل	-2673
▁كامل	-2674
▁موسى	-2675
▁صناعة	-2676
▁يحتوي	-2677
▁الرسول	-2678
▁انتخاب	-2679
▁الطائرة	-2680
▁بريطاني	-2681
▁اليابانية	-2682
اغ	-2683
فو	-2684
ائه	-2685
حاء	-2686
كوين	-2687
ليام	-2688
ماية	-2689
▁180	-2690
▁أور	-2691
▁دخل	-2692
▁موت	-2693
▁1989	-2694
▁النف	-2695
▁إدارة	-2696
▁إنشاء	-2697
▁ثانية	-2698
▁رئيسًا	-2699
ّر	-2700
بان	-2701
ذور	-2702
ضيق	-2703
▁تؤ	-2704
قافة	-2705
▁البط	-2706
▁الوح	-2707
▁وانت	-2708
▁الضوء	-2709
▁القدس	-2710
▁بيروت	-2711
▁دراسة	-2712
▁روسيا	-2713
▁ومنها	-2714
▁الأسود	-2715
▁التالي	-2716
▁الكبرى	-2717
as	-2718
خم	-2719
صي	-2720
اية	-2721
روي	-2722
قاً	-2723
▁نو	-2724
درجة	-2725
▁جنو	-2726
▁التك	-2727
▁وبين	-2728
▁النهر	-2729
▁توأمة	-2730
▁المحيط	-2731
▁المناخ	-2732
▁البسيطة	-2733
▁السوفيتي	-2734
▁الاقتصادية	-2735
ro	-2736
برز	-2737
خفض	-2738
يدا	-2739
جميع	-2740
غيير	-2741
▁أرض	-2742
▁جدا	-2743
▁قوة	-2744
▁تحديد	-2745
▁الدوري	-2746
▁المجال	-2747
▁الإيطالية	-2748
▁الاستقلال	-2749
▁الفلسطينية	-2750
دف	-2751
َي	-2752
...	-2753
▁لش	-2754
▁شعر	-2755
▁1987	-2756
▁بالس	-2757
▁مكون	-2758
ناطيسية	-2759
):	-2760
ضاف	-2761
قدر	-2762
لهة	-2763
ندن	-2764
▁بف	-2765
▁تغ	-2766
▁أوب	-2767
▁للس	-2768
▁هار	-2769
▁2022	-2770
▁الحض	-2771
▁تعمل	-2772
▁وقوع	-2773
▁الخلا	-2774
▁عثمان	-2775
▁الأبيض	-2776
70	-2777
هوم	-2778
▁أز	-2779
▁لف	-2780
اعات	-2781
▁أمر	-2782
▁1988	-2783
▁أديب	-2784
▁دمشق	-2785
▁البلا	-2786
▁تقريب	-2787
▁معينة	-2788
▁الأعلى	-2789
▁الجدول	-2790
▁الجوية	-2791
▁العليا	-2792
▁العسكري	-2793
▁التاريخية	-2794
ed	-2795
تب	-2796
شل	-2797
▁b	-2798
انس	-2799
جمه	-2800
واعد	-2801
قاليم	-2802
نترنت	-2803
▁فإنه	-2804
▁اتفاق	-2805
▁الأوروبي	-2806
▁الطبيعية	-2807
▁f	-2808
اكم	-2809
الأ	-2810
▁فم	-2811
▁قت	-2812
▁يه	-2813
فترة	-2814
▁183	-2815
▁معرض	-2816
▁واله	-2817
▁الرابطة	-2818
▁الأساسية	-2819
▁الألماني	-2820
صلة	-2821
هرة	-2822
قرار	-2823
▁عصر	-2824
▁قطر	-2825
▁وتق	-2826
▁وجد	-2827
▁1969	-2828
▁1976	-2829
▁باشا	-2830
▁فقيه	-2831
غرافيا	-2832
▁إعادة	-2833
▁العهد	-2834
▁المحت	-2835
▁والمع	-2836
▁التقويم	-2837
11	-2838
ضح	-2839
برية	-2840
▁أوا	-2841
▁تيم	-2842
▁لتح	-2843
▁وتح	-2844
حافظة	-2845
▁1983	-2846
▁الزي	-2847
▁سيدي	-2848
▁صلاح	-2849
▁ليست	-2850
▁الألك	-2851
▁خريجو	-2852
▁الأراضي	-2853
▁	-2854
ا	-2855
ل	-2856
ي	-2857
م	-2858
و	-2859
ن	-2860
ر	-2861
ت	-2862
ب	-2863
ة	-2864
ع	-2865
د	-2866
س	-2867
ف	-2868
ك	-2869
ه	-2870
أ	-2871
ق	-2872
ح	-2873
ج	-2874
.	-2875
،	-2876
ص	-2877
ط	-2878
ش	-2879
إ	-2880
خ	-2881
ز	-2882
ى	-2883
1	-2884
ث	-2885
غ	-2886
ذ	-2887
ض	-2888
ئ	-2889
9	-2890
0	-2891
-	-2892
2	-2893
ء	-2894
ً	-2895
(	-2896
)	-2897
ظ	-2898
8	-2899
:	-2900
5	-2901
7	-2902
3	-2903
4	-2904
6	-2905
َ	-2906
ّ	-2907
آ	-2908
ُ	-2909
e	-2910
a	-2911
«	-2912
»	-2913
ؤ	-2914
i	-2915
n	-2916
o	-2917
ِ	-2918
t	-2919
r	-2920
s	-2921
ـ	-2922
l	-2923
,	-2924
c	-2925
u	-2926
d	-2927
/	-2928
ْ	-2929
m	-2930
h	-2931
"	-2932
C	-2933
g	-2934
p	-2935
B	-2936
A	-2937
S	-2938
–	-2939
f	-2940
b	-2941
%	-2942
y	-2943
؛	-2944
H	-2945
=	-2946
ٍ	-2947
M	-2948
k	-2949
T	-2950
P	-2951
D	-2952
v	-2953
w	-2954
I	-2955
R	-2956
N	-2957
E	-2958
L	-2959
x	-2960
O	-2961
|	-2962
F	-2963
+	-2964
G	-2965
ٌ	-2966
z	-2967
'	-2968
ی	-2969
\	-2970
U	-2971
K	-2972
؟	-2973
V	-2974
W	-2975
>	-2976
<	-2977
!	-2978
*	-2979
J	-2980
;	-2981
X	-2982
]	-2983
×	-2984
j	-2985
[	-2986
{	-2987
”	-2988
}	-2989
é	-2990
°	-2991
“	-2992
٪	-2993
ک	-2994
ھ	-2995
‌	-2996
Z	-2997
_	-2998
‍	-2999
q	-3000
Y	-3001
—	-3002
í	-3003
Q	-3004
ä	-3005
ə	-3006
پ	-3007
•	-3008
گ	-3009
→	-3010
#	-3011
ü	-3012
ε	-3013
ڤ	-3014
−	-3015
?	-3016
ο	-3017
$	-3018
&	-3019
ö	-3020
י	-3021
α	-3022
ν	-3023
ς	-3024
σ	-3025
·	-3026
á	-3027
ı	-3028
ร	-3029
ó	-3030
а	-3031
ٰ	-3032
天	-3033
ι	-3034
λ	-3035
ρ	-3036
к	-3037
田	-3038
ā	-3039
ʾ	-3040
н	-3041
信	-3042
市	-3043
δ	-3044
о	-3045
﴾	-3046
﴿	-3047
^	-3048
ר	-3049
⁄	-3050
Ω	-3051
е	-3052
א	-3053
ו	-3054
ש	-3055
า	-3056
ō	-3057
代	-3058
大	-3059
武	-3060
皇	-3061
à	-3062
и	-3063
ּ	-3064
١	-3065
น	-3066
ิ	-3067
時	-3068
道	-3069
ł	-3070
π	-3071
ม	-3072
’	-3073
長	-3074
~	-3075
è	-3076
ş	-3077
ה	-3078
چ	-3079
山	-3080
日	-3081
本	-3082
ß	-3083
Σ	-3084
θ	-3085
κ	-3086
τ	-3087
ό	-3088
в	-3089
д	-3090
р	-3091
с	-3092
ִ	-3093
ᄋ	-3094
‘	-3095
′	-3096
河	-3097
神	-3098
ì	-3099
÷	-3100
ą	-3101
ę	-3102
ː	-3103
γ	-3104
η	-3105
μ	-3106
ω	-3107
ٱ	-3108
ٲ	-3109
ٳ	-3110
ܡ	-3111
ก	-3112
พ	-3113
←	-3114
織	-3115
±	-3116
ò	-3117
́	-3118
ά	-3119
А	-3120
л	-3121
ь	-3122
כ	-3123
פ	-3124
٨	-3125
٩	-3126
٬	-3127
ܐ	-3128
ท	-3129
ุ	-3130
≈	-3131
書	-3132
月	-3133
氏	-3134
源	-3135
藤	-3136
â	-3137
Ş	-3138
Π	-3139
β	-3140
ב	-3141
ל	-3142
ם	-3143
ק	-3144
ܢ	-3145
ா	-3146
ต	-3147
ั	-3148
์	-3149
原	-3150
安	-3151
川	-3152
花	-3153
£	-3154
É	-3155
Ü	-3156
ñ	-3157
ú	-3158
ǎ	-3159
ί	-3160
м	-3161
у	-3162
ד	-3163
מ	-3164
ן	-3165
٠	-3166
ܕ	-3167
ܘ	-3168
ܬ	-3169
க	-3170
ர	-3171
ส	-3172
ห	-3173
อ	-3174
เ	-3175
ᄅ	-3176
∞	-3177
南	-3178
吉	-3179
国	-3180
子	-3181
定	-3182
寺	-3183
康	-3184
徳	-3185
戦	-3186
朝	-3187
杉	-3188
東	-3189
玄	-3190
白	-3191
義	-3192
æ	-3193
ç	-3194
ô	-3195
õ	-3196
ē	-3197
ī	-3198
Δ	-3199
ώ	-3200
М	-3201
й	-3202
п	-3203
ַ	-3204
ט	-3205
נ	-3206
ע	-3207
צ	-3208
٢	-3209
ܟ	-3210
ܫ	-3211
்	-3212
ง	-3213
ธ	-3214
ย	-3215
ว	-3216
≥	-3217
ⲁ	-3218
ⲡ	-3219
し	-3220
た	-3221
の	-3222
ん	-3223
万	-3224
上	-3225
事	-3226
仁	-3227
光	-3228
利	-3229
北	-3230
参	-3231
古	-3232
和	-3233
家	-3234
後	-3235
応	-3236
新	-3237
江	-3238
海	-3239
照	-3240
物	-3241
生	-3242
秀	-3243
臣	-3244
茶	-3245
謙	-3246
豊	-3247
足	-3248
関	-3249
鳥	-3250
어	-3251
@	-3252
`	-3253
§	-3254
ŏ	-3255
ś	-3256
ū	-3257
ż	-3258
ɛ	-3259
Α	-3260
Φ	-3261
Ж	-3262
С	-3263
Ф	-3264
т	-3265
ї	-3266
ֹ	-3267
ג	-3268
ח	-3269
ס	-3270
ڠ	-3271
ڨ	-3272
ہ	-3273
ە	-3274
ܒ	-3275
ܚ	-3276
ܝ	-3277
ܠ	-3278
ܪ	-3279
ு	-3280
ช	-3281
ณ	-3282
ะ	-3283
ᄀ	-3284
ᄂ	-3285
ᄇ	-3286
‎	-3287
‡	-3288
√	-3289
ⴰ	-3290
人	-3291
士	-3292
平	-3293
式	-3294
文	-3295
桜	-3296
水	-3297
清	-3298
湯	-3299
礼	-3300
禅	-3301
筛	-3302
紀	-3303
紫	-3304
記	-3305
語	-3306
部	-3307
阪	-3308
革	-3309
頼	-3310
한	-3311
ê	-3312
î	-3313
č	-3314
Đ	-3315
ě	-3316
Ĝ	-3317
İ	-3318
ǔ	-3319
ʒ	-3320
̄	-3321
͡	-3322
Β	-3323
Γ	-3324
Ε	-3325
Θ	-3326
Κ	-3327
Λ	-3328
Ν	-3329
Υ	-3330
ή	-3331
ζ	-3332
ξ	-3333
υ	-3334
φ	-3335
ψ	-3336
Б	-3337
Г	-3338
К	-3339
П	-3340
Р	-3341
У	-3342
Я	-3343
ч	-3344
ш	-3345
я	-3346
і	-3347
ְ	-3348
ָ	-3349
ת	-3350
ٔ	-3351
٣	-3352
٤	-3353
٦	-3354
۔	-3355
ۗ	-3356
۝	-3357
ܓ	-3358
ܗ	-3359
ܙ	-3360
ܣ	-3361
ܤ	-3362
ܥ	-3363
ܩ	-3364
ઠ	-3365
த	-3366
ந	-3367
ப	-3368
ய	-3369
ி	-3370
ค	-3371
ด	-3372
ถ	-3373
ภ	-3374
ี	-3375
ᄃ	-3376
ᄆ	-3377
ᄑ	-3378
ᅡ	-3379
ᅣ	-3380
ሷ	-3381
አ	-3382
ạ	-3383
ệ	-3384
‹	-3385
›	-3386
⁬	-3387
₭	-3388
≠	-3389
ⲓ	-3390
ⲙ	-3391
ⲛ	-3392
ⲟ	-3393
ⲥ	-3394
ⲩ	-3395
ⲫ	-3396
ⵉ	-3397
ⵎ	-3398
ⵜ	-3399
ⵡ	-3400
《	-3401
》	-3402
か	-3403
げ	-3404
に	-3405
び	-3406
れ	-3407
わ	-3408
イ	-3409
中	-3410
久	-3411
井	-3412
京	-3413
侍	-3414
僕	-3415
化	-3416
合	-3417
哇	-3418
圳	-3419
太	-3420
奈	-3421
室	-3422
宮	-3423
屋	-3424
島	-3425
崇	-3426
幹	-3427
弥	-3428
戸	-3429
所	-3430
拜	-3431
撒	-3432
景	-3433
更	-3434
木	-3435
条	-3436
林	-3437
梅	-3438
泉	-3439
洋	-3440
洲	-3441
淮	-3442
深	-3443
満	-3444
町	-3445
福	-3446
私	-3447
紅	-3448
線	-3449
羽	-3450
肥	-3451
良	-3452
苏	-3453
葉	-3454
蔘	-3455
行	-3456
街	-3457
西	-3458
見	-3459
越	-3460
那	-3461
野	-3462
門	-3463
集	-3464
風	-3465
飛	-3466
魏	-3467
鲁	-3468
默	-3469
간	-3470
래	-3471
아	-3472
야	-3473
외	-3474
자	-3475
𐀆	-3476
𐀡	-3477
𐀮	-3478
¢	-3479
¥	-3480
­	-3481
Ä	-3482
Ç	-3483
Î	-3484
Ö	-3485
ã	-3486
å	-3487
ë	-3488
ï	-3489
ð	-3490
ù	-3491
Ā	-3492
ć	-3493
ĉ	-3494
Č	-3495
ĝ	-3496
ğ	-3497
ĥ	-3498
ĵ	-3499
ŋ	-3500
Ō	-3501
œ	-3502
Ŝ	-3503
ŝ	-3504
š	-3505
ŭ	-3506
ș	-3507
ɑ	-3508
ɔ	-3509
ʿ	-3510
ˁ	-3511
ˈ	-3512
ˑ	-3513
̊	-3514
Ζ	-3515
Η	-3516
Ι	-3517
Μ	-3518
Ξ	-3519
Ο	-3520
Ρ	-3521
Τ	-3522
Χ	-3523
Ψ	-3524
έ	-3525
χ	-3526
ύ	-3527
ϝ	-3528
Є	-3529
І	-3530
Ї	-3531
Љ	-3532
Њ	-3533
Ћ	-3534
Џ	-3535
В	-3536
Д	-3537
Е	-3538
З	-3539
И	-3540
Й	-3541
Л	-3542
Н	-3543
О	-3544
Т	-3545
Х	-3546
Ц	-3547
Ч	-3548
Ш	-3549
Щ	-3550
Ъ	-3551
Ы	-3552
Ь	-3553
Ю	-3554
б	-3555
з	-3556
ы	-3557
љ	-3558
Ґ	-3559
қ	-3560
ֵ	-3561
־	-3562
ׁ	-3563
ץ	-3564
ײ	-3565
״	-3566
ؐ	-3567
ٕ	-3568
٥	-3569
٧	-3570
٫	-3571
ڈ	-3572
ژ	-3573
ڢ	-3574
ۃ	-3575
ۆ	-3576
ێ	-3577
ۡ	-3578
۱	-3579
ܛ	-3580
ܦ	-3581
ܨ	-3582
फ	-3583
व	-3584
श	-3585
़	-3586
ि	-3587
ங	-3588
ச	-3589
ட	-3590
ண	-3591
ம	-3592
வ	-3593
ூ	-3594
ප	-3595
ය	-3596
ර	-3597
ල	-3598
්	-3599
ි	-3600
ු	-3601
ฑ	-3602
บ	-3603
ป	-3604
ล	-3605
ศ	-3606
ษ	-3607
ฯ	-3608
โ	-3609
้	-3610
ກ	-3611
ບ	-3612
ີ	-3613
་	-3614
ཀ	-3615
ང	-3616
ད	-3617
མ	-3618
ལ	-3619
ུ	-3620
ྲ	-3621
ᄁ	-3622
ᄄ	-3623
ᄈ	-3624
ᄉ	-3625
ᄊ	-3626
ᄌ	-3627
ᄍ	-3628
ᄎ	-3629
ᄏ	-3630
ᄐ	-3631
ᄒ	-3632
ᅢ	-3633
ᅤ	-3634
ᅥ	-3635
ᅦ	-3636
ᅧ	-3637
ᅨ	-3638
ᅩ	-3639
ᅪ	-3640
ᅫ	-3641
ᅬ	-3642
ᅭ	-3643
ᅮ	-3644
ᅯ	-3645
ᅰ	-3646
ᅱ	-3647
ᅲ	-3648
ᅳ	-3649
ᅴ	-3650
ᅵ	-3651
ል	-3652
ማ	-3653
ር	-3654
ቡ	-3655
ኛ	-3656
ደ	-3657
ዳ	-3658
ጊ	-3659
ፊ	-3660
ᒾ	-3661
ḗ	-3662
ố	-3663
ụ	-3664
ἀ	-3665
ἡ	-3666
ἴ	-3667
Ἰ	-3668
ὐ	-3669
ᾍ	-3670
ᾱ	-3671
ᾶ	-3672
ῆ	-3673
ῦ	-3674
ῶ	-3675
ῷ	-3676
⁧	-3677
⁩	-3678
₣	-3679
₮	-3680
↔	-3681
∆	-3682
≡	-3683
⋅	-3684
┒	-3685
⟶	-3686
ⴳ	-3687
ⴷ	-3688
ⴼ	-3689
ⴽ	-3690
ⵃ	-3691
ⵏ	-3692
ⵖ	-3693
ⵢ	-3694
あ	-3695
い	-3696
う	-3697
が	-3698
く	-3699
こ	-3700
せ	-3701
だ	-3702
っ	-3703
つ	-3704
は	-3705
ば	-3706
ぶ	-3707
べ	-3708
ぼ	-3709
ゆ	-3710
よ	-3711
ら	-3712
り	-3713
を	-3714
ア	-3715
ク	-3716
タ	-3717
ヌ	-3718
バ	-3719
ビ	-3720
ブ	-3721
ベ	-3722
ボ	-3723
ヶ	-3724
・	-3725
ㄅ	-3726
ㄆ	-3727
ㄇ	-3728
ㄈ	-3729
ㄉ	-3730
ㄊ	-3731
ㄋ	-3732
ㄌ	-3733
ㄍ	-3734
ㄎ	-3735
ㄏ	-3736
ㄐ	-3737
ㄑ	-3738
ㄒ	-3739
ㄓ	-3740
ㄔ	-3741
ㄕ	-3742
ㄖ	-3743
ㄗ	-3744
ㄘ	-3745
ㄙ	-3746
ㄚ	-3747
ㄛ	-3748
ㄜ	-3749
ㄝ	-3750
ㄞ	-3751
ㄟ	-3752
ㄠ	-3753
ㄡ	-3754
ㄢ	-3755
ㄣ	-3756
ㄤ	-3757
ㄥ	-3758
ㄦ	-3759
ㄧ	-3760
ㄨ	-3761
ㄩ	-3762
丁	-3763
七	-3764
三	-3765
与	-3766
世	-3767
东	-3768
丸	-3769
二	-3770
五	-3771
亳	-3772
伎	-3773
作	-3774
俺	-3775
倉	-3776
値	-3777
允	-3778
元	-3779
入	-3780
八	-3781
六	-3782
共	-3783
兵	-3784
冷	-3785
分	-3786
列	-3787
刺	-3788
加	-3789
勝	-3790
区	-3791
华	-3792
历	-3793
參	-3794
口	-3795
名	-3796
君	-3797
命	-3798
唐	-3799
场	-3800
垂	-3801
城	-3802
堀	-3803
堂	-3804
場	-3805
墨	-3806
夷	-3807
女	-3808
如	-3809
娘	-3810
孝	-3811
学	-3812
孫	-3813
宋	-3814
宾	-3815
富	-3816
将	-3817
尊	-3818
小	-3819
少	-3820
尾	-3821
居	-3822
岡	-3823
峦	-3824
峻	-3825
州	-3826
帝	-3827
广	-3828
廣	-3829
弗	-3830
弘	-3831
弾	-3832
形	-3833
得	-3834
德	-3835
徽	-3836
我	-3837
扁	-3838
扬	-3839
投	-3840
抹	-3841
振	-3842
推	-3843
摂	-3844
撲	-3845
操	-3846
改	-3847
攻	-3848
政	-3849
斯	-3850
方	-3851
施	-3852
春	-3853
智	-3854
曜	-3855
曳	-3856
曹	-3857
村	-3858
枚	-3859
枝	-3860
架	-3861
染	-3862
校	-3863
桐	-3864
梟	-3865
梧	-3866
森	-3867
楊	-3868
楷	-3869
楽	-3870
榮	-3871
横	-3872
歌	-3873
毛	-3874
民	-3875
治	-3876
法	-3877
淡	-3878
温	-3879
湖	-3880
澤	-3881
為	-3882
無	-3883
牛	-3884
特	-3885
王	-3886
盛	-3887
目	-3888
相	-3889
省	-3890
真	-3891
祯	-3892
禪	-3893
穆	-3894
立	-3895
笔	-3896
等	-3897
箏	-3898
管	-3899
節	-3900
納	-3901
絹	-3902
綱	-3903
红	-3904
纳	-3905
羅	-3906
者	-3907
而	-3908
聖	-3909
能	-3910
舞	-3911
舟	-3912
艾	-3913
芜	-3914
茅	-3915
草	-3916
莲	-3917
蕪	-3918
蘇	-3919
虎	-3920
蝦	-3921
衣	-3922
言	-3923
詮	-3924
話	-3925
読	-3926
謝	-3927
財	-3928
車	-3929
輝	-3930
车	-3931
连	-3932
速	-3933
都	-3934
里	-3935
重	-3936
銀	-3937
銭	-3938
鎌	-3939
长	-3940
閣	-3941
閥	-3942
门	-3943
阜	-3944
阳	-3945
阿	-3946
陳	-3947
隊	-3948
雄	-3949
雪	-3950
青	-3951
馆	-3952
馬	-3953
马	-3954
魯	-3955
麻	-3956
黑	-3957
龍	-3958
가	-3959
고	-3960
국	-3961
글	-3962
기	-3963
닙	-3964
대	-3965
려	-3966
말	-3967
삼	-3968
선	-3969
시	-3970
역	-3971
요	-3972
월	-3973
음	-3974
일	-3975
잎	-3976
조	-3977
표	-3978
홍	-3979
￼	-3980
𐀃	-3981
𐀚	-3982
𐀺	-3983
𐤁	-3984
𐤇	-3985
𐤋	-3986
𐤌	-3987
𐤍	-3988
𐤏	-3989
𓂋	-3990
𓅓	-3991
𓆎	-3992
𓈖	-3993
𓊖	-3994
𓏏	-3995
𓏺	-3996
