<unk>	0
<s>	0
</s>	0
▁	-3.25288
.	-3.77325
ة	-3.82562
،	-3.89132
▁ال	-3.9181
▁في	-4.07282
ي	-4.28135
ه	-4.46929
▁من	-4.48923
ية	-4.51388
▁و	-4.53111
ا	-4.64869
ت	-4.66556
▁م	-4.69969
ات	-4.70063
▁ت	-4.91108
م	-4.93029
▁-	-4.99578
▁ب	-5.0387
▁الم	-5.10186
ها	-5.11747
ين	-5.12553
▁على	-5.23865
ون	-5.25513
ن	-5.32096
▁ل	-5.34774
▁ي	-5.38157
▁(	-5.40827
د	-5.41046
▁وال	-5.46002
ع	-5.46359
و	-5.47977
:	-5.57772
ب	-5.59267
س	-5.60255
ال	-5.6031
ان	-5.61438
)	-5.61714
▁إلى	-5.64176
▁أ	-5.71463
▁لل	-5.73025
ل	-5.73411
ح	-5.74667
▁أن	-5.77105
▁أو	-5.78225
ك	-5.82639
ج	-5.84998
ر	-5.88042
ص	-5.89556
ف	-5.93068
ط	-5.95219
ق	-5.95449
وا	-6.01015
ز	-6.05183
اء	-6.05739
ما	-6.06232
▁بن	-6.08504
▁بال	-6.08919
غ	-6.13794
ض	-6.14317
▁عن	-6.14834
▁عام	-6.15967
ور	-6.18145
▁الأ	-6.19343
ًا	-6.19536
ى	-6.21809
يا	-6.25157
َ	-6.26225
ث	-6.28327
▁الت	-6.28733
هم	-6.30525
▁ف	-6.32249
▁التي	-6.32668
ش	-6.34481
اً	-6.35198
▁مع	-6.35364
ذ	-6.35481
▁ن	-6.35582
خ	-6.35815
ير	-6.36
▁«	-6.3779
▁بعد	-6.39569
يل	-6.46223
▁ك	-6.46426
ُ	-6.46731
»	-6.46972
▁وت	-6.48879
اب	-6.49237
▁ما	-6.49334
ام	-6.49427
▁إ	-6.52552
نا	-6.53579
اد	-6.54369
▁س	-6.54644
ار	-6.57389
▁هو	-6.59778
-	-6.61777
▁بين	-6.62052
وس	-6.62445
▁الع	-6.6318
أ	-6.63377
ّ	-6.6376
▁هي	-6.64402
▁كان	-6.64952
مر	-6.65073
ول	-6.65256
▁ع	-6.65986
دي	-6.66571
ئ	-6.68393
▁ح	-6.69397
يم	-6.69897
▁الذي	-6.70893
يد	-6.71417
▁الس	-6.71626
▁18	-6.73608
▁وي	-6.75484
▁الح	-6.77459
▁كل	-6.77683
▁هذا	-6.78654
▁ق	-6.788
▁وأ	-6.79572
اس	-6.79713
وم	-6.80578
ته	-6.81147
▁لا	-6.82102
لي	-6.83906
ـ	-6.84069
ِ	-6.84561
▁ش	-6.86222
بي	-6.88251
ود	-6.88487
▁الن	-6.88672
▁الب	-6.89427
▁هذه	-6.89912
لا	-6.90023
▁وم	-6.90574
وب	-6.90671
فر	-6.90771
يس	-6.91965
▁عبد	-6.92218
بر	-6.94483
▁19	-6.94553
▁محمد	-6.9554
▁ر	-6.95933
يات	-6.9925
في	-6.99293
▁الق	-7.00491
▁حيث	-7.00515
وف	-7.00786
▁مثل	-7.03904
قل	-7.0549
كر	-7.07004
وي	-7.07556
رو	-7.07675
ني	-7.07683
▁كما	-7.07777
).	-7.07861
را	-7.08789
▁لم	-7.09946
يب	-7.09972
▁الف	-7.10712
▁الله	-7.10936
▁مدينة	-7.11828
▁خ	-7.127
▁الر	-7.13221
وت	-7.13278
e	-7.14632
اح	-7.15007
يون	-7.15713
ست	-7.15739
▁ذلك	-7.1634
▁الإ	-7.17236
اف	-7.1782
جر	-7.18179
يت	-7.18466
,	-7.20417
يف	-7.20592
▁القرن	-7.21497
i	-7.22368
▁كانت	-7.22497
فا	-7.22808
a	-7.23069
شي	-7.23142
تر	-7.23536
▁عند	-7.2363
سي	-7.24883
اع	-7.25592
▁تم	-7.25605
▁ا	-7.25858
▁الج	-7.26178
▁سنة	-7.26549
▁أول	-7.26573
من	-7.2661
رب	-7.26965
كل	-7.27323
شر	-7.2855
صل	-7.28836
▁الخ	-7.28842
▁الص	-7.29403
سل	-7.29462
▁والم	-7.30395
در	-7.31143
▁قبل	-7.32157
▁ج	-7.32161
▁ط	-7.32249
▁وقد	-7.33294
▁1	-7.33311
قي	-7.33562
▁ص	-7.33953
▁رئيس	-7.34067
▁اليوم	-7.3432
كا	-7.34643
▁أي	-7.34821
ظ	-7.34937
▁قدم	-7.35476
▁الك	-7.35673
▁ه	-7.36308
جم	-7.36385
كت	-7.36619
ْ	-7.37581
▁د	-7.37871
با	-7.38242
▁ثم	-7.38386
▁وفي	-7.38573
مان	-7.38591
▁الش	-7.38799
s	-7.3909
دو	-7.39146
▁وهو	-7.39248
لف	-7.39467
يو	-7.39944
▁وهي	-7.40079
▁كرة	-7.4018
زي	-7.41078
▁ز	-7.41579
ري	-7.41614
سم	-7.42544
▁عدد	-7.42686
مل	-7.42738
اني	-7.42944
جد	-7.43289
دا	-7.43782
▁بعض	-7.43845
▁المتحدة	-7.44367
وق	-7.45118
كس	-7.45214
قر	-7.45276
▁لاعب	-7.45796
2	-7.46355
▁است	-7.46625
اق	-7.46706
o	-7.47403
t	-7.47489
▁ومن	-7.47736
لو	-7.48284
رق	-7.48458
مو	-7.496
مي	-7.50103
وز	-7.51171
َّ	-7.51337
جي	-7.51433
ائل	-7.52174
از	-7.52406
لة	-7.52673
تين	-7.53366
تها	-7.53645
جا	-7.54012
جل	-7.54081
تي	-7.55048
1	-7.55253
بة	-7.55367
اط	-7.55484
▁سي	-7.55531
▁الط	-7.55718
▁غير	-7.5644
دة	-7.57598
▁حتى	-7.57645
▁المدينة	-7.57826
▁وب	-7.57868
صر	-7.57926
▁أمريكي	-7.57935
▁عشر	-7.5799
▁له	-7.5806
▁يمكن	-7.5859
عد	-7.59314
)،	-7.59728
▁ممثل	-7.60298
نت	-7.605
▁3	-7.61009
وان	-7.61727
يز	-7.62355
▁خلال	-7.62768
سا	-7.6283
▁الملك	-7.63364
بن	-7.63776
وع	-7.63857
▁عالم	-7.64025
تو	-7.64212
▁ان	-7.64818
/	-7.64927
▁با	-7.64939
▁يوم	-7.65572
▁الأول	-7.65973
▁إن	-7.65991
رة	-7.66001
جمع	-7.66157
▁قد	-7.66911
▁مت	-7.6693
▁أس	-7.67997
عر	-7.68835
بار	-7.69235
▁يت	-7.69376
حل	-7.69495
▁المت	-7.6958
كون	-7.69715
فل	-7.70188
وري	-7.70492
ذلك	-7.72192
▁مراجع	-7.72589
▁17	-7.72996
ؤ	-7.73027
▁الد	-7.73117
كي	-7.73568
قة	-7.73614
رس	-7.73699
وج	-7.73757
c	-7.73948
بو	-7.74498
▁وكان	-7.74548
بل	-7.74663
هر	-7.74744
▁الرئيس	-7.75206
▁كتاب	-7.75594
كن	-7.75603
▁علي	-7.75714
يك	-7.75819
عاد	-7.75867
▁إي	-7.76059
دار	-7.76516
3	-7.76552
n	-7.76636
▁مر	-7.77106
شار	-7.77135
d	-7.78202
▁تاريخ	-7.78348
▁دي	-7.78379
p	-7.78983
m	-7.79
▁لي	-7.79267
يق	-7.79547
▁لت	-7.79599
مواليد	-7.79771
▁مصري	-7.79883
▁فإن	-7.79895
▁2	-7.80304
▁مصر	-7.80425
رد	-7.81165
دل	-7.81424
▁الثاني	-7.82258
▁أنه	-7.82436
غن	-7.82483
▁الحرب	-7.82877
▁للم	-7.82913
عا	-7.83093
▁أحد	-7.83204
▁أكثر	-7.83207
وية	-7.83222
▁جائزة	-7.83374
▁والأ	-7.83442
تش	-7.83661
مة	-7.83943
▁والتي	-7.84252
g	-7.84484
▁بم	-7.84526
رت	-7.84555
مثل	-7.84779
▁ابن	-7.84804
حة	-7.84834
▁سو	-7.85015
▁الغ	-7.85351
صف	-7.85472
خت	-7.85586
▁أبو	-7.8564
طر	-7.85809
▁ولكن	-7.85981
▁بها	-7.86208
▁بو	-7.86415
▁العالم	-7.86507
حر	-7.86717
ً	-7.8709
▁العربية	-7.87365
▁اليابان	-7.88524
00	-7.88688
▁أم	-7.8883
▁بل	-7.8885
▁نوبل	-7.88909
▁وفيات	-7.89027
▁وا	-7.89186
اك	-7.90093
▁رو	-7.9053
بط	-7.90661
ند	-7.90669
▁15	-7.91031
▁ممثلة	-7.9163
▁ملك	-7.9196
عرض	-7.9234
يين	-7.92383
نس	-7.92444
كو	-7.92454
▁أيضا	-7.92744
▁4	-7.93156
▁الدين	-7.93264
▁بر	-7.93459
l	-7.93602
زم	-7.9364
خل	-7.93775
▁ولا	-7.93809
▁عليه	-7.94095
▁يكون	-7.94348
».	-7.94401
▁اسم	-7.9448
▁16	-7.94731
▁14	-7.94875
▁آ	-7.94954
▁فيها	-7.95419
▁كم	-7.9599
دى	-7.96091
▁اللغة	-7.9622
قد	-7.96317
▁أخرى	-7.96588
ولي	-7.96807
ائي	-7.96814
قا	-7.96952
▁كو	-7.97039
رك	-7.97131
ذا	-7.97135
▁سياسي	-7.97214
▁كا	-7.97333
▁أحمد	-7.97521
نج	-7.97692
▁خارجية	-7.97734
▁الز	-7.97973
هما	-7.9809
يه	-7.98304
زا	-7.98355
▁طريق	-7.98942
▁منطقة	-7.99012
▁الل	-7.99072
▁10	-7.99399
لب	-7.99724
خر	-7.99808
طل	-7.99827
محافظة	-8.00157
كان	-8.0057
حا	-8.00632
▁البحر	-8.00791
رش	-8.00986
▁المن	-8.01075
ثر	-8.01365
▁الأولى	-8.01729
ضر	-8.01731
▁شخص	-8.01788
▁ذات	-8.01876
▁لها	-8.01907
عمل	-8.0228
"	-8.02487
▁حاصل	-8.02707
صدر	-8.0294
حد	-8.03347
زو	-8.03395
▁12	-8.03782
y	-8.03945
غا	-8.04045
b	-8.04084
ئة	-8.0422
شو	-8.04666
▁تحت	-8.04771
▁منها	-8.04978
▁غ	-8.05111
▁إلا	-8.05153
نو	-8.05416
h	-8.05472
▁الأس	-8.05516
▁ولاية	-8.05546
طار	-8.05553
▁قال	-8.05657
يوم	-8.05774
؛	-8.0591
غو	-8.06061
▁فر	-8.06164
رف	-8.06501
▁حدث	-8.06694
يان	-8.0689
فق	-8.07026
▁تكون	-8.07051
▁مس	-8.07376
ائية	-8.07587
روس	-8.07593
▁العديد	-8.07701
الي	-8.07885
▁تأسيس	-8.07914
▁يتم	-8.07974
▁آخر	-8.08108
▁والت	-8.08108
سو	-8.08523
شا	-8.09009
▁أر	-8.09343
▁الأم	-8.09401
▁يُ	-8.09573
6	-8.09918
▁ول	-8.10617
▁العمل	-8.10671
مت	-8.10767
▁13	-8.10947
وش	-8.10985
▁عمر	-8.11096
▁لو	-8.11331
er	-8.11404
u	-8.11479
▁الجزائر	-8.11998
صور	-8.12098
علم	-8.12223
▁الحر	-8.12364
▁بشكل	-8.12541
f	-8.1265
غير	-8.1276
▁بي	-8.1315
▁7	-8.13638
▁المح	-8.13949
اري	-8.13961
▁الثالث	-8.14027
سر	-8.14059
عم	-8.14158
▁به	-8.14191
قام	-8.14724
غل	-8.14727
▁6	-8.14759
سون	-8.14867
▁سا	-8.14871
عت	-8.14901
حت	-8.15053
يع	-8.15285
▁الولايات	-8.1545
▁جي	-8.1561
▁بت	-8.15646
▁أهم	-8.15913
▁–	-8.16208
▁وع	-8.16484
%	-8.16546
▁مح	-8.16742
▁العام	-8.17045
r	-8.17064
جار	-8.1718
بق	-8.17487
▁5	-8.17539
▁التاريخ	-8.18223
ٍ	-8.18426
▁البر	-8.18603
▁منذ	-8.18641
قال	-8.1865
لاف	-8.18792
نغ	-8.18804
حي	-8.1903
▁فرنسي	-8.19069
غر	-8.191
تا	-8.19236
▁وصلات	-8.19426
خا	-8.19824
▁آل	-8.20342
لم	-8.20504
▁قر	-8.20522
▁الدولة	-8.20781
▁تت	-8.20866
▁جامعة	-8.20945
▁حول	-8.21562
▁نا	-8.2195
تون	-8.21959
قب	-8.22023
▁لكن	-8.22506
صار	-8.22518
▁علم	-8.2276
رج	-8.22824
▁سم	-8.23057
سب	-8.23068
سام	-8.2313
دخل	-8.23135
قص	-8.23197
▁انظر	-8.23291
▁نظام	-8.23629
▁11	-8.23924
▁كر	-8.23981
▁السنة	-8.24381
ء	-8.24396
▁أكبر	-8.24426
لت	-8.2443
▁إذا	-8.24442
▁جو	-8.24982
▁20	-8.25021
تم	-8.25163
▁بأن	-8.25408
الم	-8.2555
بات	-8.25587
جه	-8.25883
اش	-8.25906
جو	-8.26408
▁عمل	-8.26641
دين	-8.26872
شب	-8.27116
وط	-8.27497
▁الثانية	-8.27648
▁لأن	-8.27816
▁جنوب	-8.27855
▁مست	-8.28031
ظهر	-8.28421
▁8	-8.28427
يش	-8.28549
اث	-8.28647
وار	-8.28706
▁هناك	-8.28998
كتب	-8.29315
▁الآ	-8.29446
نة	-8.29569
يح	-8.29794
▁مجموعة	-8.29842
انية	-8.30231
جن	-8.30369
▁تلك	-8.30483
راء	-8.30494
5	-8.30569
▁خط	-8.30671
▁الاست	-8.30689
▁مما	-8.30717
▁أيضًا	-8.30719
صب	-8.31049
خرج	-8.31551
▁شمال	-8.3157
مد	-8.31778
▁حوالي	-8.31835
▁نو	-8.31839
▁دول	-8.31865
▁الصين	-8.32166
عة	-8.32296
لق	-8.32608
بال	-8.3264
▁بأ	-8.3296
10	-8.32981
حمل	-8.3303
▁لأ	-8.33068
حق	-8.3329
علوم	-8.33316
كار	-8.33418
لاق	-8.33491
عرف	-8.33495
▁باسم	-8.33525
وض	-8.33594
▁أما	-8.33682
4	-8.33858
k	-8.34418
وك	-8.3464
زل	-8.3491
فت	-8.3498
▁مدن	-8.35179
ذر	-8.35187
بد	-8.35202
▁الشيخ	-8.35205
نقل	-8.35272
▁إسرائيل	-8.35299
▁الث	-8.35406
يار	-8.35651
رام	-8.35724
ارت	-8.35809
شير	-8.35852
زوج	-8.3593
سلم	-8.36069
▁دو	-8.3618
▁وإ	-8.36253
▁A	-8.36454
▁فقد	-8.3654
▁مو	-8.36603
▁كبير	-8.36795
نظر	-8.36914
لين	-8.37141
لك	-8.37314
قول	-8.37497
جري	-8.37498
إ	-8.37556
▁أبي	-8.37565
▁"	-8.37591
▁ألف	-8.37641
قت	-8.37744
▁عليها	-8.37779
▁دور	-8.3795
وجه	-8.38483
▁درجة	-8.38532
سن	-8.38598
▁القر	-8.38746
▁نفس	-8.38789
نتج	-8.38869
▁أل	-8.39214
خص	-8.39241
دور	-8.39423
▁بسبب	-8.39461
▁والذي	-8.39618
لح	-8.39729
فو	-8.39834
▁را	-8.39857
دن	-8.40043
فة	-8.4032
آ	-8.4066
▁الطب	-8.40679
بان	-8.4085
يط	-8.41405
▁واحد	-8.41804
شكل	-8.41825
▁قام	-8.41864
وص	-8.41909
رغم	-8.41958
▁الأمريكية	-8.42159
دير	-8.42327
اوي	-8.42661
كم	-8.42731
▁جون	-8.42857
▁الأخرى	-8.42873
▁غر	-8.43055
نفس	-8.43375
برا	-8.43507
بري	-8.43512
▁فرنسا	-8.43563
▁حر	-8.43973
▁الأرض	-8.44278
▁المنطقة	-8.44316
راد	-8.44526
▁أثناء	-8.44526
بية	-8.44546
قطع	-8.44701
▁الأمريكي	-8.44855
كب	-8.44866
طي	-8.44983
بدأ	-8.45107
زن	-8.45365
سان	-8.45397
رات	-8.45667
جز	-8.45671
▁جميع	-8.45733
▁كي	-8.45741
وح	-8.45747
▁تقع	-8.45877
بين	-8.4589
تن	-8.45976
▁وفق	-8.46036
باب	-8.4606
على	-8.46087
اض	-8.46373
▁المست	-8.46406
ادة	-8.46831
0	-8.4692
in	-8.46933
ائر	-8.47273
سبب	-8.47661
مس	-8.47804
20	-8.47811
ضي	-8.48115
▁أنها	-8.4812
ويل	-8.48337
جان	-8.4834
▁أصل	-8.48378
شع	-8.48456
ذكر	-8.4851
w	-8.48569
▁وكانت	-8.4886
▁القديمة	-8.48868
(	-8.48895
▁حم	-8.4903
an	-8.49226
▁شاعر	-8.49269
50	-8.49367
▁ياباني	-8.49463
▁9	-8.49538
▁الوطني	-8.49658
صبح	-8.49847
نان	-8.50297
▁مارس	-8.50392
لوك	-8.50433
▁غا	-8.50478
▁المع	-8.50486
▁ست	-8.50699
ترا	-8.50728
عل	-8.5077
▁عدة	-8.50803
بير	-8.50813
▁ترك	-8.50953
▁العالمية	-8.51105
وال	-8.51343
▁حل	-8.51802
فن	-8.51807
رمز	-8.51899
▁المر	-8.52082
▁تن	-8.52397
عيد	-8.52452
▁متر	-8.52453
ارة	-8.52474
▁الهند	-8.52538
▁عم	-8.52585
▁أوروبا	-8.52657
▁السكان	-8.52781
al	-8.52886
▁C	-8.52953
I	-8.5301
▁حكم	-8.53018
ليل	-8.53239
▁فقط	-8.53279
زال	-8.53318
▁حسب	-8.53358
▁النظام	-8.53577
▁استخدام	-8.53717
▁فترة	-8.53753
نز	-8.53808
▁سوري	-8.53904
▁تح	-8.54359
يدي	-8.54401
▁أيام	-8.54752
N	-8.54842
خط	-8.55023
▁العرب	-8.55062
▁الاتحاد	-8.55083
S	-8.5524
▁العراق	-8.55289
▁أيضاً	-8.55379
8	-8.5539
وضع	-8.55769
▁كثير	-8.55877
واقع	-8.55898
بس	-8.56071
هن	-8.56119
▁فل	-8.56223
▁أشخاص	-8.56239
▁العربي	-8.56263
ولا	-8.56387
اسي	-8.56407
▁دون	-8.56609
عهد	-8.56664
ستر	-8.57012
تهم	-8.57059
طلق	-8.57127
▁الشمال	-8.5715
▁حي	-8.57238
22	-8.57479
بت	-8.57531
قرب	-8.57532
▁ري	-8.57617
▁بالم	-8.57713
فض	-8.57777
عود	-8.58209
قابل	-8.58399
▁وجود	-8.58408
طب	-8.58628
دون	-8.5863
ضع	-8.58674
▁يونيو	-8.58682
يلي	-8.58827
▁جر	-8.58868
يج	-8.58874
▁يوليو	-8.58895
مدينة	-8.5894
▁المؤ	-8.58948
▁المراجع	-8.59095
▁يناير	-8.59103
طن	-8.59244
▁:	-8.59257
لام	-8.59419
قوة	-8.59441
▁لبناني	-8.59465
ar	-8.59478
كين	-8.59584
▁وزراء	-8.59586
▁ألمانيا	-8.59615
عام	-8.59741
▁الإسلام	-8.59758
▁الإنسان	-8.59891
A	-8.59896
▁ألماني	-8.60285
▁موقع	-8.60453
▁مجلس	-8.60465
▁نهر	-8.60597
اخ	-8.60754
راك	-8.60843
▁البن	-8.61157
▁يوجد	-8.61241
زر	-8.6145
▁فا	-8.61796
وسي	-8.62191
رع	-8.6239
▁إنجليزي	-8.62409
▁المملكة	-8.62548
بول	-8.62578
ندي	-8.62659
▁شر	-8.62677
C	-8.62714
مار	-8.62735
▁لغة	-8.62739
▁السابق	-8.62792
or	-8.62868
وث	-8.62873
▁الأمير	-8.62876
▁فأ	-8.63212
ظل	-8.633
▁فن	-8.63432
▁كاتب	-8.63475
رى	-8.63775
▁أد	-8.63794
خار	-8.63969
عدد	-8.6422
▁الرابع	-8.64386
▁ضد	-8.64491
يكي	-8.64536
بلغ	-8.64585
وفي	-8.6465
▁الخط	-8.64728
▁المصري	-8.64765
▁الجو	-8.64873
▁لغات	-8.64901
صالح	-8.65304
يث	-8.65311
▁وح	-8.65369
▁دا	-8.65624
▁S	-8.65644
▁سن	-8.65683
طلب	-8.65716
▁كال	-8.65739
▁شرق	-8.65792
14	-8.65861
▁مؤ	-8.65925
x	-8.66087
▁الخامس	-8.66091
ائق	-8.66104
حرف	-8.66205
لغ	-8.66213
مير	-8.6636
▁الجن	-8.66397
▁حرب	-8.66423
7	-8.66558
فعل	-8.66825
▁أكتوبر	-8.66867
▁أعمال	-8.66892
▁النبي	-8.66938
▁دين	-8.67014
28	-8.67094
▁تُ	-8.67098
▁المدن	-8.67179
عب	-8.67234
▁الفرنسية	-8.67253
▁أحداث	-8.67452
▁مركز	-8.67473
▁الغربي	-8.67505
▁عسكري	-8.67695
يَّة	-8.67797
مركب	-8.67822
رح	-8.67962
v	-8.67969
▁مايو	-8.68097
O	-8.68179
هل	-8.68245
قط	-8.68256
تغير	-8.68261
▁البلاد	-8.68325
حدث	-8.68405
▁بريطاني	-8.68444
▁مصرية	-8.6856
او	-8.68578
وحد	-8.68782
▁الإسلامية	-8.68891
ولى	-8.68994
000	-8.69171
▁فبراير	-8.69242
▁السنوات	-8.69248
ولوجي	-8.69398
▁الحكومة	-8.69528
لند	-8.69561
▁بد	-8.69576
▁نحو	-8.69675
▁ديسمبر	-8.69777
رجع	-8.69855
▁نظرية	-8.69973
هور	-8.70169
▁الدول	-8.70304
▁نوع	-8.70322
▁شكل	-8.70391
▁فو	-8.70553
▁العزيز	-8.70588
دان	-8.70641
طريق	-8.70776
نف	-8.70837
▁لإ	-8.70842
فصل	-8.7085
L	-8.70856
قيادة	-8.71127
▁الوقت	-8.71206
▁ولم	-8.71346
▁عراقي	-8.71402
▁إس	-8.71475
▁إبراهيم	-8.71674
ضرب	-8.7188
فور	-8.71935
▁كبيرة	-8.72614
وى	-8.72696
ذهب	-8.72776
حكم	-8.7283
راج	-8.72985
▁عملية	-8.73017
حاول	-8.73056
▁دار	-8.7306
▁أنواع	-8.73082
▁الأل	-8.73298
سار	-8.7337
▁بور	-8.7356
▁أعضاء	-8.7356
▁ثاني	-8.73625
ِّ	-8.73746
▁القرآن	-8.73901
▁سر	-8.74025
▁خل	-8.74082
▁بير	-8.74139
19	-8.74261
فار	-8.74277
▁ولد	-8.74295
طول	-8.74311
▁واحدة	-8.7441
طالب	-8.74411
ستخدم	-8.74412
▁نسمة	-8.74471
جب	-8.74525
دراسة	-8.74775
17	-8.74792
هام	-8.74799
غان	-8.74858
▁عبر	-8.74869
ch	-8.7499
راب	-8.7517
أخذ	-8.75242
تان	-8.75251
ظاهر	-8.75298
▁أمريكية	-8.7532
ثنائي	-8.75394
▁/	-8.75402
حصل	-8.7544
▁الجيش	-8.75445
سكو	-8.75445
عبد	-8.7562
▁بإ	-8.75706
▁M	-8.7585
شد	-8.75858
▁القوات	-8.76038
صح	-8.76127
▁الولاية	-8.76207
▁شهر	-8.76218
▁والس	-8.76248
▁شا	-8.76354
12	-8.76406
▁أغسطس	-8.76474
▁الكتاب	-8.76495
▁الشمس	-8.76556
▁بول	-8.76685
دية	-8.76725
فكر	-8.76916
▁حاليا	-8.76943
▁طول	-8.77202
▁الكم	-8.77245
آثار	-8.77371
▁الكبير	-8.77406
ولد	-8.77418
▁الجنوب	-8.77556
سيد	-8.77572
قرار	-8.77786
قسم	-8.77808
ستان	-8.77876
خدم	-8.78029
▁السودان	-8.78198
▁كون	-8.78233
ابع	-8.78254
▁الأن	-8.78299
▁السادس	-8.7847
▁جورج	-8.78525
▁=	-8.78647
▁العناصر	-8.78843
بيع	-8.78911
▁الفرنسي	-8.78914
يغ	-8.79133
اسم	-8.79213
ايت	-8.79387
يًا	-8.79391
▁بلغ	-8.79465
▁للت	-8.79705
en	-8.79746
▁البل	-8.80047
قصر	-8.80389
▁الحكم	-8.80433
▁إحد	-8.80459
فرد	-8.80504
▁حالة	-8.80511
▁دولة	-8.8065
▁معظم	-8.80701
عين	-8.80773
▁سبتمبر	-8.80836
▁سنوات	-8.80849
▁مرة	-8.80887
مثال	-8.80966
ومي	-8.80975
تبع	-8.81026
▁أب	-8.8108
▁شركة	-8.81152
▁اللغات	-8.81165
▁الفلسطيني	-8.81237
يران	-8.81267
▁داخل	-8.81368
▁نوفمبر	-8.81438
وه	-8.81821
بورغ	-8.81876
عداد	-8.82035
أخير	-8.8204
قائد	-8.82047
«	-8.82069
▁بالإضافة	-8.82114
▁إل	-8.82134
▁جن	-8.82159
▁وأن	-8.82423
▁عرف	-8.82442
▁سابق	-8.8245
▁غرب	-8.82837
▁توفي	-8.82861
عمال	-8.82893
▁وضع	-8.82908
▁بينما	-8.83013
ريك	-8.83136
▁المصرية	-8.83173
▁ذكر	-8.83177
▁ضمن	-8.83196
ِي	-8.83243
هدف	-8.83325
قدم	-8.83356
▁للأ	-8.83489
▁أخ	-8.83538
▁فال	-8.83553
باط	-8.83603
سك	-8.83629
▁العصر	-8.8377
فضل	-8.84174
شيد	-8.84234
at	-8.84285
ميل	-8.84476
▁بداية	-8.84545
▁خاصة	-8.84559
▁مليون	-8.84569
▁وبعد	-8.84629
ديد	-8.84637
ساعد	-8.84647
▁أصبح	-8.84649
حب	-8.85063
تفسير	-8.85156
▁حين	-8.85181
▁ثلاث	-8.85373
▁نيو	-8.85383
نطق	-8.8553
▁صف	-8.85558
▁نفسه	-8.8559
▁كور	-8.85682
▁والإ	-8.85783
▁وهذا	-8.85787
▁الأر	-8.85795
أن	-8.85827
نق	-8.85969
▁الرسمي	-8.86521
▁(19	-8.86631
صناعة	-8.86709
▁عهد	-8.86952
امي	-8.86977
لس	-8.87023
▁العامة	-8.87098
▁نسبة	-8.87114
ارات	-8.87189
▁تعتبر	-8.87404
▁العاصمة	-8.87561
▁حسن	-8.87593
▁الأدب	-8.87637
▁قاد	-8.87826
ائم	-8.87969
F	-8.87982
▁نهاية	-8.88076
▁المغرب	-8.88111
▁الإسرائيلي	-8.88115
▁حركة	-8.88178
يري	-8.88261
25	-8.8852
▁التفاعل	-8.888
▁30	-8.88892
60	-8.88935
▁سكان	-8.88935
▁الفترة	-8.88968
كور	-8.89012
علق	-8.89036
▁نظر	-8.89122
دري	-8.89181
▁فت	-8.89201
ضغط	-8.89287
is	-8.89362
قتل	-8.89469
راع	-8.89566
أي	-8.89698
▁مقتل	-8.89896
زيد	-8.89931
+	-8.89933
11	-8.89954
▁اعت	-8.89969
▁B	-8.89998
▁مسلم	-8.90062
▁الميلادي	-8.90091
▁صور	-8.90098
▁بناء	-8.90292
داء	-8.90317
▁الفن	-8.90347
▁مكان	-8.90348
ارك	-8.90507
▁الطاقة	-8.9056
es	-8.9056
تأثير	-8.90611
إعلان	-8.90614
غال	-8.90663
▁الكيمياء	-8.90701
كاف	-8.90713
تطور	-8.90765
15	-8.90903
مملكة	-8.90969
ائع	-8.91092
▁إذ	-8.91134
أو	-8.91214
سكي	-8.91246
كنيسة	-8.91285
on	-8.91382
ريف	-8.91408
درس	-8.91734
يعة	-8.91771
▁الغربية	-8.91788
▁حال	-8.91876
ثقافة	-8.91924
▁أبريل	-8.9193
▁هنري	-8.91974
▁ميل	-8.91998
لاحق	-8.92195
▁بار	-8.92243
▁والب	-8.92354
▁القدم	-8.92404
شهد	-8.92421
▁الأوروبي	-8.92597
▁الخاصة	-8.92681
▁الفيزياء	-8.92721
▁ماري	-8.92887
▁احت	-8.9291
▁المسلمين	-8.92941
قدر	-8.92975
▁الحرارة	-8.9299
▁مؤسس	-8.93073
▁برو	-8.93136
رئاسة	-8.93274
▁الأو	-8.93445
تقع	-8.93528
B	-8.93546
▁جزيرة	-8.93591
▁رياضي	-8.93622
▁الكويت	-8.93635
▁الدولي	-8.93716
▁والح	-8.93798
ic	-8.93828
▁إليه	-8.93835
▁إيطالي	-8.93846
▁الناس	-8.93998
▁الحياة	-8.94113
▁لويس	-8.94227
طبق	-8.94243
ريد	-8.94266
▁الحل	-8.94299
▁25	-8.94329
سور	-8.94568
صنع	-8.94596
نتيجة	-8.94646
▁مُ	-8.94844
▁لكل	-8.94851
▁فيزياء	-8.9487
رابطة	-8.95016
▁الأردن	-8.95028
▁المس	-8.95059
وصل	-8.95183
صحيح	-8.95242
ضح	-8.95326
16	-8.9542
▁الشهر	-8.95428
نشر	-8.95437
حديث	-8.95532
تميز	-8.95739
▁عاصمة	-8.95755
راس	-8.95802
▁الاسم	-8.95862
ٌ	-8.96027
▁بحر	-8.96038
▁كويتي	-8.9609
داد	-8.96239
يّة	-8.96289
ياً	-8.9633
سيطر	-8.96508
▁حزب	-8.96795
زع	-8.96808
فريق	-8.96941
نزل	-8.9713
▁فلسطين	-8.97158
علي	-8.9721
=	-8.97214
سياس	-8.97304
▁يست	-8.97366
▁الكثير	-8.97499
المعروف	-8.9752
غاز	-8.97526
يته	-8.97593
فيل	-8.97626
▁بدأ	-8.97757
لاند	-8.97807
40	-8.97939
80	-8.9796
▁الثامن	-8.98147
▁التاسع	-8.9816
حدد	-8.98243
حسن	-8.98314
يوس	-8.98483
▁عضو	-8.98575
تاج	-8.98638
جاج	-8.98729
▁كتب	-8.98782
فيد	-8.98892
▁المركز	-8.98995
أسماء	-8.99109
▁الوسطى	-8.99219
ائه	-8.99231
▁أشهر	-8.99374
▁بيت	-8.99417
▁النق	-8.99545
فان	-8.99551
تحدث	-8.9965
نشأ	-8.99748
▁وسط	-8.99775
وتر	-8.99778
▁الميلاد	-8.99784
▁الرياضي	-8.99897
9	-8.99931
▁الوطنية	-8.99952
وقف	-9.00047
▁جمهورية	-9.00148
ستعمل	-9.00169
يكو	-9.00194
إنشاء	-9.0034
▁غو	-9.00446
▁السابع	-9.00475
▁وقت	-9.00488
ايا	-9.00685
قيل	-9.00747
▁21	-9.00917
مؤسس	-9.01021
قوم	-9.01152
▁بما	-9.01158
▁واست	-9.0125
علن	-9.01475
▁حياته	-9.01631
▁الكون	-9.01706
▁ومع	-9.01712
جزء	-9.01712
عظم	-9.0182
▁الشرق	-9.01999
▁فلسطيني	-9.02118
رئيس	-9.02237
صاب	-9.0224
جامعة	-9.02254
▁العالمي	-9.02322
شك	-9.02437
عتقد	-9.02495
it	-9.02544
▁الشعب	-9.02759
▁يعتبر	-9.02817
▁البلد	-9.03142
T	-9.032
le	-9.03362
▁الآن	-9.0344
▁تشي	-9.0358
▁نصف	-9.03582
▁الرحمن	-9.03643
سلط	-9.03942
▁مقاطعة	-9.04105
▁محمود	-9.04398
غار	-9.04506
▁خلف	-9.04512
▁العدد	-9.04519
ضاف	-9.04601
رسال	-9.0464
يتش	-9.04654
70	-9.04729
وجب	-9.04759
▁يبلغ	-9.04778
ائن	-9.04785
▁كلمة	-9.04787
▁الشر	-9.04802
▁أماكن	-9.04871
▁كارل	-9.0495
▁مناطق	-9.05007
▁الشمالية	-9.05048
▁القطر	-9.05128
▁الكهربائي	-9.05157
▁عيد	-9.05209
▁الثلاث	-9.05229
▁مجال	-9.05305
▁علماء	-9.05337
جامع	-9.05397
▁صح	-9.0567
حف	-9.057
نسبة	-9.05777
عارض	-9.05783
صول	-9.05791
قاد	-9.05838
▁رأس	-9.05892
برنامج	-9.05925
▁2011	-9.05956
▁الهو	-9.0597
▁أمير	-9.06055
▁الأمر	-9.06058
ثير	-9.06127
إمام	-9.06327
▁توجد	-9.06349
▁المواد	-9.06415
أنظمة	-9.065
▁رقم	-9.06514
▁P	-9.06518
زار	-9.06569
بحث	-9.06706
عبر	-9.06719
لعب	-9.06779
وكالة	-9.06852
▁والف	-9.06891
▁الصف	-9.06922
▁أهل	-9.06957
▁كامل	-9.06968
▁اليونان	-9.06988
فاعل	-9.07204
▁البريطاني	-9.07228
جاز	-9.07239
▁يقوم	-9.07283
سيل	-9.07459
ملك	-9.07468
▁قائمة	-9.07482
▁رسمي	-9.07626
▁يستخدم	-9.07824
▁فوق	-9.07851
▁وزير	-9.08006
تكون	-9.0801
▁الإمبراطورية	-9.08012
ترجم	-9.0804
بلد	-9.08157
▁وكذلك	-9.0828
دق	-9.08362
خطوط	-9.08373
▁حسين	-9.08689
30	-9.08831
▁مجموع	-9.08878
33	-9.08902
▁جنو	-9.09018
▁معركة	-9.09031
▁بواسطة	-9.09056
تنظيم	-9.0906
حصول	-9.09138
داخل	-9.09145
▁جزء	-9.09187
▁بدأت	-9.09402
z	-9.09455
تطبيق	-9.09468
▁أصبحت	-9.09469
▁الكر	-9.09527
واجه	-9.09575
ريس	-9.09604
▁الآخر	-9.09605
P	-9.0964
▁مصطفى	-9.09855
'	-9.09855
▁سعودي	-9.09956
▁2000	-9.09987
بيض	-9.09997
يسمى	-9.10155
▁التعليم	-9.10259
▁اليهود	-9.10267
قطاع	-9.10419
عمار	-9.10442
▁وصف	-9.1055
▁الشرقية	-9.10554
▁تستخدم	-9.10564
▁الحزب	-9.10567
▁الاجتماع	-9.10659
▁المسيح	-9.11021
▁الاقتصاد	-9.1139
بعد	-9.11674
▁عادة	-9.11714
▁السلام	-9.1172
ol	-9.11789
▁مختلفة	-9.11804
ی	-9.11879
▁ليس	-9.11945
تحول	-9.12
▁الرومان	-9.1202
▁المناطق	-9.12023
▁مصطلح	-9.12134
حافظ	-9.12202
فاء	-9.12227
13	-9.12513
جيل	-9.12532
D	-9.12594
▁القانون	-9.12718
▁2004	-9.12721
▁ثلاثة	-9.12783
درجة	-9.12787
▁الشعر	-9.12891
▁خالد	-9.1313
▁D	-9.13221
▁وفاة	-9.13288
▁كيمياء	-9.13335
▁السعودية	-9.13549
▁مساحة	-9.1355
▁جاء	-9.13576
▁1992	-9.13603
وبة	-9.13689
▁وشاعر	-9.13947
▁2003	-9.13967
▁قانون	-9.13968
صاحب	-9.14037
احتمال	-9.14059
▁أقل	-9.14177
▁الكيميائية	-9.14394
▁أك	-9.14436
▁شعب	-9.14479
قبل	-9.14495
ثل	-9.14519
H	-9.14534
بور	-9.14649
إعادة	-9.14697
ترك	-9.14717
▁عثمان	-9.14786
▁2017	-9.14823
▁الطبيعي	-9.14853
▁1980	-9.14898
سرع	-9.15136
يتي	-9.15189
▁مصادر	-9.15195
▁السلطان	-9.15217
ضار	-9.15289
ليف	-9.15296
▁خاص	-9.15605
▁ذو	-9.15799
ربع	-9.15893
طور	-9.16015
▁بالأ	-9.16049
▁إنجلترا	-9.16055
▁كيميائي	-9.16056
▁ثابت	-9.16056
▁طائرة	-9.1611
هندسة	-9.16159
▁جانب	-9.16201
طبيعة	-9.16271
▁R	-9.16271
st	-9.16398
▁إضافة	-9.16432
▁مغني	-9.16502
دفع	-9.16598
▁نص	-9.16751
روح	-9.16752
اليوم	-9.16828
▁جبل	-9.1686
▁عين	-9.16901
▁آر	-9.16956
▁جديد	-9.17011
عطي	-9.17066
90	-9.17238
▁العثمانية	-9.17288
نظم	-9.17503
صغر	-9.17704
▁الموقع	-9.17728
سكن	-9.17745
▁0	-9.17837
▁سير	-9.17863
▁فقال	-9.17922
▁أجل	-9.17957
لاحظ	-9.17998
إمبراطور	-9.18
▁الذري	-9.18071
نش	-9.1816
23	-9.18226
▁نقطة	-9.18243
زراعة	-9.18258
▁قياس	-9.18297
,000	-9.18332
ناس	-9.18548
▁أسست	-9.18581
▁الإسلامي	-9.186
▁الماء	-9.1865
▁H	-9.18683
▁مقر	-9.18756
▁تسمى	-9.19095
عيش	-9.19104
▁عقد	-9.19183
▁الدو	-9.19237
برمج	-9.19338
▁تضم	-9.19424
▁جديدة	-9.19581
▁الأمم	-9.19607
▁عد	-9.19629
▁جدا	-9.19698
▁يبقى	-9.19972
▁ويمكن	-9.19979
كلمة	-9.20179
ثورة	-9.20271
29	-9.20352
جير	-9.20391
نظام	-9.20457
▁معا	-9.20458
▁وله	-9.20471
▁وكاتب	-9.20541
عنى	-9.20548
فاق	-9.2065
حسب	-9.20721
▁سعيد	-9.20731
الغريغوري	-9.20859
▁2015	-9.20896
▁1981	-9.2092
▁2010	-9.20925
▁طويل	-9.21043
R	-9.2108
وكو	-9.21083
قاع	-9.21209
مناسبات	-9.21336
▁إليها	-9.21692
▁الجنوبية	-9.21718
عالي	-9.2175
▁والق	-9.21781
▁العثماني	-9.21815
قوى	-9.21843
▁وقال	-9.21869
▁بلاد	-9.22
▁نور	-9.22033
▁البريطانية	-9.22048
▁يعرف	-9.22096
تقدم	-9.22121
▁الزمن	-9.22151
▁سلطان	-9.22231
نتخب	-9.22248
بيل	-9.22275
▁محل	-9.22319
يكا	-9.22381
▁الجمهورية	-9.2263
▁مواقع	-9.22669
فير	-9.22986
بنى	-9.23017
فع	-9.23025
لتقويم	-9.23039
▁الأصلي	-9.23046
لقب	-9.23069
▁الوزراء	-9.23125
▁المحيط	-9.23131
▁2005	-9.23144
أشجار	-9.23168
دعم	-9.23318
ائب	-9.23492
K	-9.23581
إذا	-9.23648
▁البشر	-9.23915
35	-9.24014
▁أفريقيا	-9.24042
▁آسيا	-9.24047
▁البعض	-9.24051
▁اكتشاف	-9.24083
▁وإن	-9.24119
re	-9.2419
حياة	-9.24253
سير	-9.24253
▁وحدة	-9.2441
▁اغتيال	-9.24504
▁المجموعة	-9.24508
▁2009	-9.24529
▁تعد	-9.24638
أرض	-9.24698
شعر	-9.24919
▁العراقي	-9.25015
▁المجلس	-9.2502
▁صغيرة	-9.25145
24	-9.25182
▁الحديثة	-9.25233
▁الكبيسة	-9.25437
▁السوفيتي	-9.25438
▁2012	-9.25481
ميناء	-9.25564
لفظ	-9.2578
▁لذلك	-9.2584
بعث	-9.25878
▁حساب	-9.2592
▁أمر	-9.26006
-1	-9.2616
▁ميلادية	-9.26381
▁حجم	-9.26412
▁المجال	-9.26488
▁القياس	-9.26534
هيئة	-9.26538
▁الحق	-9.26755
▁سورة	-9.26792
▁السن	-9.26804
E	-9.26837
▁2006	-9.26875
▁وبال	-9.26964
إله	-9.27025
▁خمس	-9.27137
ثلاث	-9.27273
▁قتل	-9.2731
▁1982	-9.27328
▁يوسف	-9.27365
▁1979	-9.27387
حضر	-9.2741
آن	-9.27467
▁النص	-9.27493
قف	-9.27521
▁وتم	-9.2753
▁عز	-9.27538
جسيم	-9.2756
▁الثورة	-9.27586
▁هار	-9.27609
مسرح	-9.27679
▁موسيقي	-9.2781
تغيير	-9.27814
▁السم	-9.27822
27	-9.27829
M	-9.2783
دفاع	-9.27922
ّر	-9.28004
▁لبنان	-9.28052
تجارة	-9.28148
غرب	-9.28212
▁2008	-9.28312
▁أُ	-9.28343
▁إلكترون	-9.28386
داف	-9.28454
▁عناصر	-9.28471
▁طاقة	-9.28537
ُّ	-9.28641
▁المتوسط	-9.28772
▁|	-9.28842
عقد	-9.28947
▁وصل	-9.29023
▁سلسلة	-9.29155
▁سعد	-9.29214
رفع	-9.29257
▁سليمان	-9.29257
▁سطح	-9.29271
▁1974	-9.29319
▁T	-9.29337
▁غي	-9.29549
ضيق	-9.297
▁الانتخابات	-9.29703
تحقيق	-9.29772
▁1990	-9.29854
شتهر	-9.29876
تواجد	-9.29913
حكام	-9.30048
▁منظمة	-9.3005
▁الجديد	-9.3014
لجنة	-9.30181
▁البرلمان	-9.30236
قاوم	-9.30264
▁مغنية	-9.30353
▁23	-9.304
▁المادة	-9.30493
علاج	-9.30503
▁إسبانيا	-9.30577
حظ	-9.30656
ارد	-9.30685
؟	-9.30727
جميع	-9.30741
▁24	-9.30768
▁الإمبراطور	-9.30788
نتشر	-9.30906
حقق	-9.31006
▁الرومانية	-9.31094
▁100	-9.31106
▁أساس	-9.31165
▁الأمن	-9.31183
إن	-9.31197
أجهزة	-9.31223
▁سعود	-9.31271
el	-9.31297
▁جيمس	-9.31313
▁عدم	-9.31316
ريش	-9.31317
شق	-9.31331
▁الحديث	-9.31332
▁مربع	-9.31417
▁الحركة	-9.31474
فتح	-9.31486
▁الجزيرة	-9.31491
▁كول	-9.31725
▁رسول	-9.31752
▁لما	-9.31792
▁شعر	-9.32197
▁الحدود	-9.32241
▁مستوى	-9.32271
▁قديم	-9.32335
▁بالنسب	-9.32368
▁الجديدة	-9.32468
▁الإن	-9.32474
▁منصب	-9.32542
▁القديم	-9.32559
اخر	-9.32656
أكثر	-9.32702
▁استقلال	-9.32724
▁الكتلة	-9.32734
إيطالي	-9.32906
▁أمين	-9.32951
نر	-9.3311
▁1973	-9.33227
▁أعياد	-9.33227
وخ	-9.33268
أشكال	-9.33273
▁السلطة	-9.33287
شحن	-9.33368
منطقة	-9.33371
de	-9.33527
▁إقليم	-9.3364
▁تفاعل	-9.33723
▁E	-9.33751
موضوع	-9.33774
▁2014	-9.33787
▁1984	-9.33797
▁دائرة	-9.33932
ساهم	-9.33968
▁العسكرية	-9.34025
99	-9.34059
▁كذلك	-9.34078
▁القاهرة	-9.34245
تلك	-9.34258
▁السياسية	-9.34281
▁إيطاليا	-9.34695
هيدروجين	-9.34757
▁قوات	-9.34759
▁2018	-9.34784
▁2016	-9.34797
عكس	-9.34826
09	-9.34857
07	-9.34888
▁انتخاب	-9.34899
▁يكن	-9.34899
زاوية	-9.34982
▁أف	-9.3509
▁المصادر	-9.35094
▁تحتوي	-9.351
▁يجب	-9.351
تصميم	-9.35279
▁العلماء	-9.3529
باحث	-9.35415
98	-9.35511
زيادة	-9.35517
▁الألمانية	-9.35534
▁التركي	-9.35695
▁BBC	-9.35791
▁اللبناني	-9.35793
سوف	-9.35888
▁فتح	-9.3602
▁27	-9.36085
▁مدرسة	-9.3611
ّن	-9.36133
▁الغرب	-9.36263
18	-9.36281
إصابة	-9.36401
شور	-9.36744
ربط	-9.3679
▁\	-9.36838
▁يصل	-9.36842
▁الشعبية	-9.36843
▁إد	-9.36936
▁الحالة	-9.36961
▁أمام	-9.36968
▁نسب	-9.36977
▁عُ	-9.37125
▁26	-9.37203
▁G	-9.37315
▁الديمقراطي	-9.37362
▁بلا	-9.37467
▁تونس	-9.37473
ur	-9.37597
▁رجل	-9.3761
إلكترون	-9.37664
▁سوريا	-9.37833
▁العشرين	-9.37898
▁أمريكا	-9.3791
▁تست	-9.3795
▁العلمي	-9.37972
حاد	-9.37997
▁القدس	-9.38019
▁أعلى	-9.38193
كشف	-9.38219
▁يقول	-9.383
زان	-9.38322
▁المثال	-9.38323
بيان	-9.38408
88	-9.3847
خلف	-9.38495
▁29	-9.38502
▁وفاته	-9.38507
un	-9.38575
▁جعل	-9.38693
ّل	-9.38713
▁الحالي	-9.38852
V	-9.38957
▁1991	-9.39019
▁يومًا	-9.39094
سعة	-9.39227
▁الشكل	-9.39362
03	-9.39546
▁1977	-9.39575
▁1978	-9.39582
تاريخ	-9.39626
▁قدر	-9.39641
▁الدولية	-9.39851
▁ارتفاع	-9.39935
جتمع	-9.39955
▁(2	-9.39998
▁حكومة	-9.40009
بولي	-9.40011
–	-9.40015
▁مأهولة	-9.40036
رنس	-9.40048
▁(18	-9.40068
92	-9.40087
▁يقع	-9.40203
تعبير	-9.40207
▁قامت	-9.40234
تحليل	-9.40331
جزيئات	-9.40346
▁فهي	-9.40418
37	-9.40422
U	-9.40579
▁الأنباء	-9.40581
▁اليمن	-9.40582
تسو	-9.40586
خفض	-9.40588
ro	-9.40622
أفراد	-9.40701
01	-9.4076
▁والده	-9.41014
▁التالية	-9.41045
67	-9.41125
ساس	-9.41147
▁عبارة	-9.41147
▁معروف	-9.41153
▁باستخدام	-9.41156
ri	-9.41199
▁سرعة	-9.41319
انغ	-9.41352
اوية	-9.41416
▁شبه	-9.4143
▁بذلك	-9.41443
08	-9.4149
▁السياسي	-9.41524
▁المختلفة	-9.41675
▁الأكبر	-9.41683
▁البيانات	-9.417
▁الصليب	-9.41715
▁إنتاج	-9.41749
▁1989	-9.41765
▁إله	-9.41851
مسافة	-9.41883
▁السوري	-9.41996
رأس	-9.42221
آل	-9.42228
دال	-9.4225
▁صوت	-9.42262
جماعة	-9.42266
06	-9.42288
متحف	-9.42461
▁مكتب	-9.42488
رسل	-9.42569
▁النبات	-9.42644
اقتصاد	-9.42737
ُر	-9.42794
▁المعلومات	-9.428
▁روسي	-9.43141
انتهاء	-9.4319
▁رسام	-9.43206
موسيقى	-9.43342
▁تايمز	-9.43343
▁كيلومتر	-9.43344
اختيار	-9.43349
▁الجنسي	-9.43353
▁قيمة	-9.43411
▁1988	-9.43443
ِل	-9.43461
▁وعند	-9.43509
▁وأصبح	-9.43637
▁الإنجليزية	-9.43638
تسع	-9.43706
-2	-9.43781
قود	-9.43789
▁حاكم	-9.43928
▁قطر	-9.44039
▁إسباني	-9.44097
▁سبيل	-9.44153
رمان	-9.44181
▁تعريف	-9.44478
▁الجسم	-9.44506
▁المجتمع	-9.44559
▁1967	-9.44568
▁مؤلف	-9.44615
كوك	-9.44622
عباد	-9.44821
ra	-9.44974
▁وغيرها	-9.45062
معرفة	-9.4508
us	-9.45085
▁1969	-9.45108
تخذ	-9.45152
▁قرية	-9.45176
لبرت	-9.45198
▁النووي	-9.45207
04	-9.45207
▁لهذا	-9.45299
45	-9.45344
▁اشت	-9.45399
شغل	-9.45488
▁يؤدي	-9.45612
▁الأحمر	-9.45619
48	-9.45622
ألعاب	-9.45664
▁2020	-9.45678
▁1994	-9.4569
▁المستخدم	-9.45785
▁النوع	-9.45796
ائها	-9.45837
شرطة	-9.45977
36	-9.45999
قلعة	-9.4603
▁النيويورك	-9.46183
إسماعيل	-9.46183
▁روبرت	-9.4619
▁الحسين	-9.46237
▁1987	-9.4627
شخص	-9.46278
▁للإ	-9.4629
▁مختلف	-9.46292
▁يطلق	-9.46306
قوانين	-9.46315
▁إيراني	-9.46456
رتفع	-9.46463
▁شعراء	-9.46471
▁لأول	-9.46597
▁شيء	-9.46775
▁الرسول	-9.46794
حركة	-9.46818
▁1971	-9.46824
▁1975	-9.46851
▁يهود	-9.46871
توفر	-9.46916
▁تشا	-9.46994
مدرسة	-9.47274
▁تعالى	-9.47342
▁إدوارد	-9.4735
▁بحيث	-9.47352
▁المقدس	-9.47354
▁2002	-9.47371
▁تقوم	-9.47441
85	-9.47538
▁أديب	-9.4761
▁بقي	-9.4763
05	-9.4763
89	-9.47704
شرق	-9.47716
▁الأعداد	-9.47745
تمكن	-9.47784
فعال	-9.47883
65	-9.47915
وكي	-9.48
et	-9.48036
▁فهو	-9.48046
▁ساحل	-9.48168
▁اقتصادي	-9.48214
▁يعد	-9.48337
▁العنصر	-9.48555
▁بري	-9.48608
▁خارج	-9.48669
جلس	-9.48681
▁كانوا	-9.48736
▁أطلق	-9.4877
نحو	-9.48801
▁الدوري	-9.48818
▁فكان	-9.48823
▁مارك	-9.48844
▁سانت	-9.4911
▁الأكثر	-9.49297
▁المياه	-9.493
شاب	-9.49471
▁إسلامي	-9.49507
78	-9.49612
▁الاستقلال	-9.49703
▁الصناعي	-9.49705
▁مباشر	-9.49708
تحكم	-9.49848
▁أربعة	-9.4991
▁الحديد	-9.50035
▁سكانها	-9.50259
مستقبل	-9.50278
▁أعلام	-9.50306
▁2001	-9.50333
تردد	-9.50374
▁1986	-9.50382
▁1976	-9.5039
▁1964	-9.50394
حركات	-9.50422
دعى	-9.50439
▁الكريم	-9.50552
▁عنصر	-9.50659
▁عصر	-9.50719
▁الشرقي	-9.50852
and	-9.50863
جنوب	-9.50887
▁أداء	-9.50948
إسلام	-9.50969
▁حرارة	-9.50981
▁النهر	-9.51013
لقد	-9.51148
57	-9.51167
▁الموجودة	-9.51178
CH	-9.51212
كثر	-9.51308
▁يحتوي	-9.51512
▁التالي	-9.51519
02	-9.51541
▁موسى	-9.51545
▁الطائرة	-9.51551
32	-9.51761
▁فوز	-9.51892
▁قليل	-9.5197
مركز	-9.51998
W	-9.52119
▁دمشق	-9.5212
مفهوم	-9.5213
▁إدارة	-9.52168
صنف	-9.52331
▁مادة	-9.52341
تحرك	-9.52418
▁يعمل	-9.5257
▁أعلن	-9.52684
شرف	-9.52687
97	-9.52726
▁الضوء	-9.52733
▁الكبرى	-9.52736
▁1945	-9.52837
▁المناخ	-9.52872
▁بيروت	-9.52943
قاتل	-9.53215
▁تقريبا	-9.53222
هتم	-9.53286
فورد	-9.53335
75	-9.53344
▁البسيطة	-9.5335
▁توأمة	-9.5335
وصف	-9.53369
▁الأسود	-9.53415
▁1948	-9.53455
▁آي	-9.53458
إنسان	-9.53544
▁روسيا	-9.53745
▁العسكري	-9.53796
▁رئيسًا	-9.53963
>	-9.53971
كثافة	-9.53973
64	-9.53999
▁2007	-9.54005
▁الإيطالية	-9.54025
▁تحديد	-9.54026
رمي	-9.54077
▁واسع	-9.5424
am	-9.54423
om	-9.54455
قوي	-9.54463
▁التابع	-9.54482
200	-9.54519
سجل	-9.54578
رتبة	-9.54618
لاك	-9.5462
▁1983	-9.54682
▁الإلكتروني	-9.54714
▁فلا	-9.54843
▁الألماني	-9.54961
▁الاقتصادية	-9.551
وزارة	-9.55157
▁وقوع	-9.5526
▁2022	-9.55296
▁1960	-9.55412
زهر	-9.55494
38	-9.55505
▁الأبيض	-9.5555
سقط	-9.55581
▁تمثل	-9.55649
جعل	-9.55782
آخر	-9.55802
صيد	-9.55839
▁الجدول	-9.55887
▁1972	-9.55927
▁العليا	-9.55938
▁تاي	-9.56119
▁سبع	-9.56189
▁عاش	-9.56207
▁معينة	-9.56247
قارب	-9.56333
▁الأعلى	-9.5648
▁الدستور	-9.56499
أقاليم	-9.5655
87	-9.56559
فرض	-9.56646
لكرة	-9.56749
53	-9.56804
▁لديه	-9.56953
تكوين	-9.56956
▁2021	-9.57136
▁الأساسية	-9.57147
سبان	-9.57154
▁فقيه	-9.57168
▁جهاز	-9.57172
▁صلاح	-9.57172
▁خريج	-9.57207
▁1965	-9.57242
عتبر	-9.57276
معاهدة	-9.57321
حفظ	-9.57342
أدوات	-9.5745
77	-9.5752
▁زمن	-9.57584
أمراض	-9.57685
توقع	-9.57752
▁بغداد	-9.57784
تصنيف	-9.57785
أحد	-9.5781
▁2013	-9.57822
حماية	-9.57874
▁التقويم	-9.57938
قضاء	-9.58007
▁نائب	-9.5806
▁باشا	-9.58071
إقامة	-9.58105
68	-9.58231
تناول	-9.58299
سود	-9.58316
أشعة	-9.58397
▁الأراضي	-9.58432
▁إطلاق	-9.58432
▁1998	-9.58552
قراءة	-9.5864
76	-9.5866
ظهرت	-9.5875
تعديل	-9.58756
▁أثر	-9.58791
صيف	-9.58819
صناعات	-9.59087
▁متوسط	-9.59087
▁مشروع	-9.59089
▁باللغة	-9.59098
▁الإداري	-9.5919
ارتفاع	-9.59208
▁1970	-9.5925
إقليم	-9.59268
▁جاك	-9.59367
54	-9.59539
▁سيدي	-9.59575
▁الشام	-9.59669
▁قاعدة	-9.59747
▁تعني	-9.59784
ستطيع	-9.59791
دخول	-9.59803
▁فرانك	-9.59804
▁2019	-9.59807
▁1958	-9.59823
▁1996	-9.59836
▁نادي	-9.59861
شاهد	-9.60049
▁أربع	-9.60078
▁استخدم	-9.6013
جلد	-9.60209
▁العصور	-9.60371
<	-9.60404
▁عربية	-9.60429
▁1949	-9.6049
مجموعة	-9.606
معالم	-9.60755
il	-9.60755
صرف	-9.60757
▁باريس	-9.60763
▁1946	-9.61071
▁الأقل	-9.6113
خصوص	-9.61166
صيغة	-9.61225
▁دائم	-9.61267
▁جول	-9.61513
▁تشكل	-9.61606
ميكانيكا	-9.61639
▁وهذه	-9.61746
▁الكربون	-9.6175
▁ويليام	-9.61752
▁الوحيد	-9.61753
94	-9.61843
شتق	-9.61865
▁1999	-9.61869
اكي	-9.61919
▁عباس	-9.61936
خيل	-9.61941
55	-9.61989
▁صوتي	-9.62005
درج	-9.62104
▁ليست	-9.62249
▁الخاص	-9.62301
▁وهناك	-9.6242
▁يساوي	-9.6244
▁يعود	-9.62554
▁بلدية	-9.62641
▁هنا	-9.62955
▁روابط	-9.63104
▁خليفة	-9.63107
▁بدء	-9.63178
حيوانات	-9.63203
96	-9.63301
▁الدم	-9.63316
▁الأزهر	-9.63327
▁جبال	-9.63446
جمهورية	-9.63448
منظمة	-9.63496
انتخابات	-9.6365
▁رؤساء	-9.63783
نتائج	-9.63783
▁الخليفة	-9.63786
▁متعددة	-9.63786
نقسم	-9.63797
▁أفضل	-9.63839
▁النظرية	-9.63862
▁يعلن	-9.64052
la	-9.64322
!	-9.64472
▁النسبية	-9.64502
▁حدود	-9.64513
صيب	-9.64541
تخصص	-9.64571
ed	-9.64594
52	-9.64695
بلور	-9.64709
▁تتكون	-9.64762
▁الهرم	-9.64914
طاقة	-9.64949
▁يزيد	-9.64967
▁أصول	-9.65105
غور	-9.65136
▁وبالتالي	-9.65168
▁طبيب	-9.65187
اقرأ	-9.65215
▁الساحل	-9.65224
▁1985	-9.65282
▁قيام	-9.65297
42	-9.65564
سكان	-9.65642
طائر	-9.6565
▁الحاسوب	-9.65868
ختار	-9.65906
متع	-9.65908
▁إيران	-9.65909
34	-9.66009
لدولة	-9.66111
83	-9.66169
▁فريد	-9.66385
مقاطعات	-9.6657
▁تطوير	-9.66571
▁توماس	-9.66588
▁هولندي	-9.66609
▁فرع	-9.66896
▁أغلب	-9.67259
*	-9.6728
أكاديمية	-9.6728
▁1962	-9.6728
▁جزائري	-9.6728
▁وبعض	-9.67288
▁نباتات	-9.67288
▁التسمية	-9.67303
▁حجر	-9.67333
▁1952	-9.67382
حتوى	-9.6758
81	-9.67595
معدن	-9.67874
▁الكيميائي	-9.67942
▁الخارجية	-9.67994
فلسفة	-9.68
▁وليس	-9.68054
▁لندن	-9.68069
حلول	-9.68081
▁1963	-9.68081
صاص	-9.68133
قبيلة	-9.6816
ثار	-9.68185
ساح	-9.68287
43	-9.68492
باس	-9.68528
تباع	-9.6867
▁الجغرافي	-9.68713
▁للسلام	-9.68723
▁طبيعي	-9.68751
جبهة	-9.68821
86	-9.68861
▁المسجد	-9.68862
نهار	-9.68891
قترح	-9.69102
▁روائي	-9.69333
▁للأم	-9.69356
▁جغرافي	-9.69438
▁أسترالي	-9.6944
▁الجسيمات	-9.69466
تمثيل	-9.69491
▁1956	-9.69518
▁فيليب	-9.69521
▁1997	-9.69552
حضارة	-9.69621
صعب	-9.69735
os	-9.69778
▁كيلو	-9.69851
حتى	-9.70007
▁القمر	-9.70116
▁تعليم	-9.70188
500	-9.70195
▁المستوى	-9.7023
ent	-9.70288
ing	-9.7031
▁الإنجليز	-9.70514
وارد	-9.70548
▁الأربع	-9.70569
لمدة	-9.70571
عامل	-9.70602
التهاب	-9.70623
39	-9.7068
61	-9.70774
95	-9.70799
▁الفضاء	-9.70925
▁يعني	-9.70953
▁1995	-9.71
74	-9.71096
حزب	-9.71168
▁النار	-9.71174
عقيد	-9.71241
أدب	-9.71487
▁يجعل	-9.71518
▁جنس	-9.71544
تصنيع	-9.71648
▁قصير	-9.71691
نافس	-9.71726
▁1968	-9.71755
▁طرف	-9.7185
49	-9.7211
▁اجتماع	-9.7239
حوالي	-9.72404
أصحاب	-9.72425
▁فرانس	-9.72467
▁1953	-9.72503
تحالف	-9.72647
▁الرقم	-9.72691
منظمات	-9.72812
▁الحادي	-9.72851
حيط	-9.73015
▁معدل	-9.7302
J	-9.73142
▁سقوط	-9.73144
▁(20	-9.73145
▁ليبيا	-9.73171
نقطة	-9.7328
ثبت	-9.73328
um	-9.73353
▁مستقل	-9.73561
باقي	-9.73697
to	-9.73763
;	-9.73899
▁الكاثوليك	-9.739
▁تشارلز	-9.739
تقديم	-9.74021
▁أنهار	-9.74048
▁اقت	-9.74067
توافق	-9.74079
47	-9.74101
▁بهذا	-9.74129
َلَ	-9.74152
ـ«	-9.74169
▁ويتم	-9.74299
41	-9.74395
66	-9.74395
▁الأعمال	-9.74421
▁ألب	-9.74619
X	-9.74663
▁كهربائي	-9.74663
▁لهذه	-9.74682
▁الداخلية	-9.74707
▁تحويل	-9.74748
▁1947	-9.7476
69	-9.74763
▁روماني	-9.74788
as	-9.74827
طبع	-9.74941
رصد	-9.7497
▁القومي	-9.752
خبر	-9.75202
سحب	-9.75371
-19	-9.75377
▁عديدة	-9.7545
عسكر	-9.75802
مقدار	-9.75996
▁جهة	-9.76154
▁الثقافي	-9.76208
▁التشريع	-9.76208
اتفاقية	-9.76228
▁الواحد	-9.76241
▁الإسباني	-9.76246
84	-9.76249
▁الذرات	-9.763
تنوع	-9.76451
لانتهاء	-9.76484
شهر	-9.76644
79	-9.76649
▁آنذاك	-9.76989
▁شبكة	-9.7699
▁الصباح	-9.77003
▁الحاكم	-9.77007
▁المساحة	-9.77013
تقنية	-9.77032
دائي	-9.77045
▁1938	-9.77109
دفن	-9.77165
نسب	-9.77266
جمل	-9.77382
ؤثر	-9.77643
▁إفريقيا	-9.77777
▁حمد	-9.77777
▁تعتمد	-9.77778
مقبرة	-9.77859
58	-9.77876
▁وسياسي	-9.77886
th	-9.77902
▁الجانب	-9.77934
ion	-9.77935
▁الصوت	-9.78073
▁1950	-9.78123
▁الأسرة	-9.7814
ضطر	-9.7815
▁مالك	-9.78169
ألم	-9.78323
▁الجبل	-9.78441
حارب	-9.78497
▁الفيزيائي	-9.7857
▁التحرير	-9.78572
▁ومدرب	-9.78584
▁دولار	-9.78709
▁عالية	-9.78836
سيس	-9.78857
63	-9.79077
ْر	-9.79093
▁جيش	-9.79166
93	-9.79322
▁الإنترنت	-9.7937
▁موجود	-9.79382
▁طائرات	-9.79413
إمارة	-9.79809
قوات	-9.80117
▁ترتيب	-9.80162
▁جوزيف	-9.80178
مكثف	-9.80191
▁التراث	-9.80205
▁تسمية	-9.80274
▁1954	-9.80295
يوجد	-9.80459
▁شديد	-9.80554
▁تشكيل	-9.80995
ut	-9.81188
▁صحفي	-9.81279
▁الفلك	-9.81662
▁الموسيقي	-9.81814
أستاذ	-9.81837
شتاين	-9.81847
▁أقدم	-9.8186
▁1993	-9.81908
أسلحة	-9.82
مصطلح	-9.82122
▁مسرحي	-9.82239
ad	-9.82261
▁قوله	-9.8231
▁قصة	-9.82355
رواية	-9.82632
نظائر	-9.82648
▁الخليج	-9.82648
▁اتجاه	-9.82648
▁الطائرات	-9.82659
▁1959	-9.8273
▁جسم	-9.82734
▁السري	-9.82808
▁غزو	-9.82893
مباني	-9.83087
▁الأندلس	-9.83471
▁ظهور	-9.83478
▁قناة	-9.83546
▁1961	-9.8358
▁ذرات	-9.83659
91	-9.84022
ستوطن	-9.84141
59	-9.84189
▁الجزيئي	-9.84309
▁أجزاء	-9.84312
▁الجهد	-9.84422
▁وقع	-9.84475
▁مغربي	-9.84532
تأثر	-9.84581
▁الدورة	-9.84661
26	-9.84761
▁توزيع	-9.85164
▁النمسا	-9.85217
تكامل	-9.8525
توحيد	-9.85264
▁1966	-9.85265
سهل	-9.85382
نشط	-9.85509
علامة	-9.85519
▁دوق	-9.85645
▁القطب	-9.8567
▁عمليات	-9.85719
فتاح	-9.85808
لشركة	-9.85845
▁العلاقات	-9.86017
▁العاشر	-9.86046
إعدام	-9.86062
▁المركبات	-9.86074
تجربة	-9.86156
تعامل	-9.86248
شهادة	-9.86344
كاتب	-9.8639
شمال	-9.86393
▁تجاري	-9.86443
▁أسرة	-9.86599
44	-9.86707
▁بسرعة	-9.86906
▁منتصف	-9.86957
▁شارك	-9.87118
يتكون	-9.87554
دائرة	-9.87588
com	-9.87804
تبادل	-9.8782
عناصر	-9.88068
▁هرم	-9.88132
▁دالة	-9.88247
▁1941	-9.88733
تعاون	-9.89087
56	-9.89304
▁طبقا	-9.89388
قاض	-9.89416
بطولة	-9.89426
نحن	-9.89472
▁الشهير	-9.89534
قمة	-9.89555
71	-9.89572
▁بمعنى	-9.89593
▁1951	-9.89601
خطط	-9.89619
▁1939	-9.89621
▁1943	-9.89625
▁1957	-9.89646
▁استعمال	-9.89674
▁الذرة	-9.89752
ul	-9.89896
▁ذرة	-9.89977
▁هندي	-9.90269
أحمد	-9.90351
فلاسفة	-9.90404
فترض	-9.90436
▁قلب	-9.90513
▁السويد	-9.90611
▁أساسي	-9.90628
72	-9.90723
▁الشريف	-9.90799
صدق	-9.91227
▁انتقل	-9.91311
▁حقوق	-9.91313
▁نطاق	-9.91397
▁الرياض	-9.91426
▁1940	-9.91545
▁حروف	-9.91766
▁ستيف	-9.91916
51	-9.9193
]	-9.92208
▁of	-9.92221
دعوة	-9.92225
▁المقاومة	-9.92234
شعار	-9.92235
▁درجات	-9.92262
▁الأطفال	-9.92273
▁ملحن	-9.92285
▁اعتبار	-9.9234
يوشي	-9.92373
ضعف	-9.92852
|	-9.92989
▁الانتقال	-9.93126
مقارنة	-9.93126
اختصار	-9.93135
▁زعيم	-9.93148
ميزة	-9.9317
▁اكتشف	-9.93217
لقى	-9.93244
▁1955	-9.93257
▁الدالة	-9.93308
أسر	-9.9336
▁وتعتبر	-9.93365
▁آلاف	-9.93776
▁المئت	-9.93851
▁الكلاسيكي	-9.94051
مستشفى	-9.94051
▁المسلمون	-9.94068
ation	-9.94069
▁هجوم	-9.9407
▁الإلكترونات	-9.94083
▁صغير	-9.94171
حصن	-9.9438
▁الماضي	-9.9438
▁جزر	-9.94403
▁الليبي	-9.94834
▁الحرارية	-9.95001
▁الأثرية	-9.95002
جاذب	-9.95054
▁رجال	-9.95098
تراوح	-9.95116
معالجة	-9.95389
▁الحاج	-9.95442
▁يضم	-9.95522
سأل	-9.95879
ائف	-9.95916
▁انقلاب	-9.95932
▁نشاط	-9.95941
شؤون	-9.96037
▁وحدات	-9.96147
ؤكد	-9.96175
▁السبع	-9.96272
قارة	-9.96522
أفلام	-9.96818
▁افتتاح	-9.96881
▁ريتشارد	-9.96881
▁فيلسوف	-9.96899
▁الوصول	-9.96916
▁النساء	-9.96939
▁النواب	-9.96939
▁الإشارة	-9.96941
▁1944	-9.96989
▁فلم	-9.97045
▁فيزيائي	-9.97068
▁ويعتبر	-9.97087
▁جميل	-9.97242
صادر	-9.97661
▁ضم	-9.97724
حكومة	-9.97828
×	-9.97843
▁الإغريق	-9.97843
▁تقسيم	-9.97844
تناظر	-9.97844
▁أراضي	-9.97848
▁البداية	-9.9786
▁الإنتاج	-9.97868
▁الكامل	-9.97907
▁1942	-9.97979
▁الوزن	-9.98052
▁شارل	-9.98076
▁ناصر	-9.98247
j	-9.98814
▁زلزال	-9.98819
أبحاث	-9.98819
▁انتشار	-9.98821
G	-9.98901
تزايد	-9.9894
معركة	-9.99036
مراقب	-9.99241
يًّا	-9.99384
▁الحكومية	-9.99794
▁تشغيل	-9.99794
إحصاء	-9.99796
▁الاحتلال	-9.99796
إضافة	-9.99804
▁شركات	-9.99818
توضيح	-9.99826
▁النحاس	-9.99835
▁المغناطيسي	-10.0036
عضو	-10.0043
▁الكبد	-10.0056
[	-10.0078
▁والعشرون	-10.0078
▁فؤاد	-10.0079
▁الشيوعي	-10.0079
جزيء	-10.008
مخترع	-10.0083
عوامل	-10.0095
أعضاء	-10.0096
رائد	-10.0098
▁إجراء	-10.0105
▁السورة	-10.0106
دمج	-10.0138
أفكار	-10.014
محطة	-10.0177
▁يعتمد	-10.0179
▁أبرز	-10.018
▁السيارات	-10.018
▁أردني	-10.0182
▁اتحاد	-10.0186
▁1936	-10.0195
▁1930	-10.0203
سلسلة	-10.0203
قضية	-10.0259
▁البرتغال	-10.028
▁العظيم	-10.028
▁تختلف	-10.028
▁مرتبط	-10.028
▁السويس	-10.0286
▁يونكس	-10.0287
▁1918	-10.0298
▁كندا	-10.0301
▁فكرة	-10.0317
ستخدام	-10.0363
▁وخاصة	-10.0382
▁استطاع	-10.0382
▁قبائل	-10.0383
سرطان	-10.0386
▁الوحدة	-10.0399
تسبب	-10.0415
▁الذهبي	-10.0418
▁فارس	-10.0425
تدريس	-10.044
رغب	-10.0479
سعودي	-10.0483
▁ألكسندر	-10.0485
▁الكهرومغناطيسي	-10.0485
▁المرحلة	-10.0485
▁نسخ	-10.0494
جائزة	-10.0519
خروج	-10.0545
▁اللاتينية	-10.0589
▁حادث	-10.0591
▁1937	-10.0607
سلالة	-10.0612
أبجد	-10.0635
ائط	-10.0659
▁الأرجنتين	-10.0694
▁الإشعاع	-10.0694
▁الأحداث	-10.0694
افتراض	-10.0694
أكسجين	-10.0694
▁تفجير	-10.0695
إذاعة	-10.0712
تلال	-10.0721
▁فمثلا	-10.0728
موند	-10.0768
أحزاب	-10.0801
▁برمجيات	-10.0801
▁السلطات	-10.0806
▁بطريقة	-10.0806
▁اللغوي	-10.0812
▁النواة	-10.0815
▁ديفيد	-10.0817
استمرت	-10.0851
▁%)	-10.0888
▁الجامعي	-10.0901
▁هؤلاء	-10.0908
▁التقسيم	-10.0908
▁والعشرين	-10.0908
▁باكستان	-10.0908
▁الأهلية	-10.0909
▁رموز	-10.0909
▁الأوسط	-10.091
▁الحقيقي	-10.0912
▁امتد	-10.092
موقع	-10.0936
▁ساعة	-10.0941
▁يوناني	-10.0968
جسد	-10.1001
▁الإصلاح	-10.1017
▁أنتونوف	-10.1017
▁انتقال	-10.1017
▁الكلمات	-10.1017
▁خواص	-10.1018
أساطير	-10.102
تجاوز	-10.1026
▁الكونغو	-10.1031
▁1934	-10.1032
علامات	-10.1033
▁الأفريقي	-10.1033
▁واضح	-10.1045
أحادي	-10.1073
▁وطني	-10.1082
كتشف	-10.1121
نهج	-10.1125
▁اختراع	-10.1127
مشاركة	-10.1128
▁محافظات	-10.1129
▁نيسان	-10.1132
▁انضم	-10.1143
▁1935	-10.115
▁الحملة	-10.1157
▁غالبا	-10.1159
▁الراين	-10.1162
▁والاست	-10.1206
▁الحيوان	-10.1227
أرثوذكس	-10.1238
▁تأسست	-10.1238
▁1921	-10.1238
▁الزراعية	-10.1238
▁لفترة	-10.1238
▁قواعد	-10.1238
▁القاعدة	-10.1238
▁عيسى	-10.1238
▁الاستخدام	-10.124
▁يوهان	-10.1242
▁1932	-10.1256
▁النهاية	-10.1256
ملايين	-10.1266
حمض	-10.1277
▁حدوث	-10.1351
▁صفحات	-10.1351
طابق	-10.1368
ميكانيك	-10.137
▁البابا	-10.1372
▁كلمات	-10.1384
فرنسا	-10.1427
{	-10.1464
▁التقليدية	-10.1464
▁الإعلام	-10.1464
▁معادلة	-10.1465
▁المكسيك	-10.1465
▁خليج	-10.1475
▁النهائي	-10.1488
تشابه	-10.1491
شتاء	-10.1504
جذب	-10.1505
اؤه	-10.1549
إسكندرية	-10.1579
▁اتفاقيات	-10.1579
صائد	-10.1579
▁الأنواع	-10.1579
▁الممكن	-10.1584
▁جدول	-10.1591
▁1926	-10.1592
موظف	-10.1602
أشياء	-10.1617
صادق	-10.1618
لتحديد	-10.1637
محامي	-10.1644
بالإنجليزية	-10.1695
”	-10.1695
▁كاثوليك	-10.1695
▁رمضان	-10.1695
▁الشبكة	-10.1695
▁تقريبًا	-10.1695
▁النشاط	-10.1696
▁the	-10.1696
▁انتهت	-10.1697
إدخال	-10.1697
▁الصلاة	-10.17
▁تابعة	-10.1703
لولاية	-10.1734
مقاطعة	-10.1785
عالج	-10.1785
▁أفغانستان	-10.1812
▁1931	-10.1813
▁الصحراء	-10.1813
بوابة	-10.1813
▁الأحيان	-10.1814
▁تساوي	-10.1815
▁المعادن	-10.1817
▁الشخصية	-10.1818
▁المحكمة	-10.1819
▁العباسي	-10.1819
▁الحساب	-10.182
عاصمة	-10.1823
نحدر	-10.1824
مجرد	-10.1839
▁نشأت	-10.1882
الولايات	-10.1928
هيدروكربون	-10.1932
}	-10.1932
é	-10.2297
“	-10.2677
°	-10.2677
ک	-10.3207
٪	-10.3207
ھ	-10.3344
‌	-10.3344
Z	-10.3483
_	-10.3624
‍	-10.4059
q	-10.4359
Y	-10.467
—	-10.5838
í	-10.6016
\	-10.6571
Q	-10.6572
ä	-10.716
پ	-10.7364
ə	-10.7364
•	-10.8452
گ	-10.8923
→	-10.8923
#	-10.9673
ü	-10.9673
ε	-11.2002
−	-11.2002
?	-11.3038
ο	-11.3408
$	-11.3793
ö	-11.3793
&	-11.3793
י	-11.4193
α	-11.5044
ν	-11.5499
ς	-11.5499
σ	-11.5499
·	-11.6475
á	-11.6475
ı	-11.6475
ร	-11.6475
天	-11.7001
а	-11.7001
ó	-11.7001
ٰ	-11.7001
ρ	-11.7557
ι	-11.7557
λ	-11.7557
田	-11.7557
к	-11.7557
н	-11.8145
ʾ	-11.8145
市	-11.8145
ā	-11.8145
信	-11.8145
о	-11.877
δ	-11.877
﴾	-11.877
﴿	-11.877
^	-11.9437
ר	-11.9437
е	-12.0151
า	-12.0151
א	-12.0151
ו	-12.0151
ש	-12.0151
Ω	-12.0151
大	-12.092
武	-12.092
皇	-12.092
代	-12.092
ō	-12.092
น	-12.1753
١	-12.1753
и	-12.1753
道	-12.1753
ิ	-12.1753
à	-12.1753
ม	-12.2663
長	-12.2663
ł	-12.2663
’	-12.2663
ş	-12.3663
è	-12.3663
山	-12.3663
چ	-12.3663
日	-12.3663
本	-12.3663
ה	-12.3663
~	-12.3663
Σ	-12.4774
τ	-12.4774
в	-12.4774
д	-12.4774
κ	-12.4774
ß	-12.4774
‘	-12.4774
河	-12.4774
θ	-12.4774
ό	-12.4774
р	-12.4774
ᄋ	-12.4774
′	-12.4774
神	-12.4774
с	-12.4774
ą	-12.6024
ω	-12.6024
ę	-12.6024
ܡ	-12.6024
÷	-12.6024
ٱ	-12.6024
ٲ	-12.6024
←	-12.6024
織	-12.6024
ː	-12.6024
η	-12.6024
μ	-12.6024
พ	-12.6024
ì	-12.6024
γ	-12.6024
ก	-12.6024
٨	-12.7452
л	-12.7452
כ	-12.7452
́	-12.7452
ุ	-12.7452
源	-12.7452
±	-12.7452
ά	-12.7452
פ	-12.7452
٩	-12.7452
٬	-12.7452
ܐ	-12.7452
≈	-12.7452
書	-12.7452
月	-12.7452
氏	-12.7452
藤	-12.7452
ò	-12.7452
ท	-12.7452
์	-12.9119
ל	-12.9119
ா	-12.9119
ต	-12.9119
ק	-12.9119
原	-12.9119
安	-12.9119
â	-12.9119
β	-12.9119
ם	-12.9119
ܢ	-12.9119
川	-12.9119
花	-12.9119
ב	-12.9119
ั	-12.9119
อ	-13.1119
เ	-13.1119
ส	-13.1119
白	-13.1119
É	-13.1119
ί	-13.1119
ד	-13.1119
ܘ	-13.1119
定	-13.1119
ú	-13.1119
ர	-13.1119
吉	-13.1119
康	-13.1119
東	-13.1119
ǎ	-13.1119
מ	-13.1119
ן	-13.1119
٠	-13.1119
ܬ	-13.1119
க	-13.1119
ᄅ	-13.1119
∞	-13.1119
南	-13.1119
寺	-13.1119
徳	-13.1119
朝	-13.1119
玄	-13.1119
ܕ	-13.1119
国	-13.1119
戦	-13.1119
義	-13.1119
子	-13.1119
杉	-13.1119
у	-13.1119
ַ	-13.3619
ว	-13.3619
後	-13.3619
鳥	-13.3619
æ	-13.3619
の	-13.3619
光	-13.3619
江	-13.3619
照	-13.3619
ç	-13.3619
õ	-13.3619
ܫ	-13.3619
仁	-13.3619
家	-13.3619
ī	-13.3619
ώ	-13.3619
ט	-13.3619
נ	-13.3619
צ	-13.3619
٢	-13.3619
ܟ	-13.3619
்	-13.3619
ง	-13.3619
ธ	-13.3619
ย	-13.3619
≥	-13.3619
ⲁ	-13.3619
し	-13.3619
た	-13.3619
ん	-13.3619
万	-13.3619
事	-13.3619
北	-13.3619
参	-13.3619
古	-13.3619
和	-13.3619
新	-13.3619
物	-13.3619
生	-13.3619
秀	-13.3619
臣	-13.3619
茶	-13.3619
豊	-13.3619
어	-13.3619
応	-13.3619
関	-13.3619
ⲡ	-13.3619
ע	-13.3619
ô	-13.3619
ē	-13.3619
й	-13.3619
海	-13.3619
謙	-13.3619
@	-13.6952
ช	-13.6952
С	-13.6952
т	-13.6952
革	-13.6952
‎	-13.6952
§	-13.6952
ś	-13.6952
ג	-13.6952
ܚ	-13.6952
ܠ	-13.6952
礼	-13.6952
Φ	-13.6952
式	-13.6952
清	-13.6952
`	-13.6952
ż	-13.6952
ɛ	-13.6952
ח	-13.6952
ס	-13.6952
ڨ	-13.6952
ہ	-13.6952
ܝ	-13.6952
ܪ	-13.6952
ு	-13.6952
ᄀ	-13.6952
ᄂ	-13.6952
‡	-13.6952
√	-13.6952
人	-13.6952
士	-13.6952
平	-13.6952
文	-13.6952
桜	-13.6952
湯	-13.6952
禅	-13.6952
紀	-13.6952
紫	-13.6952
記	-13.6952
語	-13.6952
部	-13.6952
阪	-13.6952
頼	-13.6952
한	-13.6952
ە	-13.6952
水	-13.6952
ŏ	-13.6952
Α	-13.6952
ะ	-13.6952
ⴰ	-13.6952
ū	-13.6952
ї	-13.6952
ณ	-13.6952
崇	-14.1952
υ	-14.1952
ш	-14.1952
ப	-14.1952
ด	-14.1952
室	-14.1952
町	-14.1952
苏	-14.1952
那	-14.1952
鲁	-14.1952
ܥ	-14.1952
ⵜ	-14.1952
に	-14.1952
れ	-14.1952
拜	-14.1952
羽	-14.1952
行	-14.1952
街	-14.1952
野	-14.1952
٣	-14.1952
井	-14.1952
ᅡ	-14.1952
ᅣ	-14.1952
ê	-14.1952
î	-14.1952
č	-14.1952
ě	-14.1952
ǔ	-14.1952
ʒ	-14.1952
͡	-14.1952
Ν	-14.1952
Υ	-14.1952
ή	-14.1952
ξ	-14.1952
φ	-14.1952
ψ	-14.1952
К	-14.1952
ч	-14.1952
я	-14.1952
і	-14.1952
ְ	-14.1952
ת	-14.1952
٤	-14.1952
۔	-14.1952
ۗ	-14.1952
ܣ	-14.1952
ܤ	-14.1952
த	-14.1952
ந	-14.1952
ி	-14.1952
ค	-14.1952
ี	-14.1952
ᄑ	-14.1952
ሷ	-14.1952
ệ	-14.1952
›	-14.1952
⁬	-14.1952
≠	-14.1952
ⲓ	-14.1952
ⲛ	-14.1952
ⲟ	-14.1952
ⲥ	-14.1952
ⲩ	-14.1952
ⲫ	-14.1952
ⵉ	-14.1952
ⵡ	-14.1952
《	-14.1952
》	-14.1952
か	-14.1952
げ	-14.1952
び	-14.1952
中	-14.1952
京	-14.1952
侍	-14.1952
化	-14.1952
宮	-14.1952
島	-14.1952
戸	-14.1952
所	-14.1952
景	-14.1952
条	-14.1952
林	-14.1952
泉	-14.1952
洋	-14.1952
洲	-14.1952
淮	-14.1952
満	-14.1952
私	-14.1952
紅	-14.1952
葉	-14.1952
蔘	-14.1952
西	-14.1952
見	-14.1952
越	-14.1952
門	-14.1952
集	-14.1952
야	-14.1952
イ	-14.1952
木	-14.1952
梅	-14.1952
아	-14.1952
İ	-14.1952
撒	-14.1952
자	-14.1952
ָ	-14.1952
ภ	-14.1952
ⵎ	-14.1952
𐀮	-15.1865
𐀡	-15.1866
𐀆	-15.1867
외	-15.1868
래	-15.1869
간	-15.187
默	-15.1871
魏	-15.1872
飛	-15.1873
風	-15.1874
良	-15.1875
肥	-15.1876
線	-15.1877
福	-15.1878
深	-15.1879
更	-15.188
弥	-15.1881
幹	-15.1882
屋	-15.1883
奈	-15.1884
太	-15.1885
圳	-15.1886
哇	-15.1887
合	-15.1888
僕	-15.1889
久	-15.189
わ	-15.1891
ⲙ	-15.1892
₭	-15.1893
‹	-15.1894
ạ	-15.1895
አ	-15.1896
ᄆ	-15.1897
ᄃ	-15.1898
ถ	-15.1899
ய	-15.19
ઠ	-15.1901
ܩ	-15.1902
ܙ	-15.1903
ܗ	-15.1904
ܓ	-15.1905
۝	-15.1906
٦	-15.1907
ٔ	-15.1908
Я	-15.1909
У	-15.191
Р	-15.1911
П	-15.1912
Г	-15.1913
Б	-15.1914
ζ	-15.1915
Λ	-15.1916
Κ	-15.1917
Θ	-15.1918
Ε	-15.1919
Γ	-15.192
Β	-15.1921
̄	-15.1922
Ĝ	-15.1923
Đ	-15.1924
筛	-15.1925
ᄇ	-15.1926
ܒ	-15.1927
ڠ	-15.1928
ֹ	-15.1929
Ф	-15.193
Ж	-15.1931
足	-15.1932
利	-15.1933
上	-15.1934
п	-15.1935
М	-15.1936
Δ	-15.1937
ห	-15.1938
м	-15.1939
ñ	-15.194
Ü	-15.1941
£	-15.1942
Π	-15.1943
Ş	-15.1944
ь	-15.1945
А	-15.1946
ٳ	-15.1947
ִ	-15.1948
π	-15.1949
時	-15.195
ּ	-15.1951
ศ	-15.1952
⁄	-15.1952
ù	-15.1952
ύ	-15.1952
ὐ	-15.1952
⟶	-15.1952
染	-15.1952
速	-15.1952
Ö	-15.1952
Č	-15.1952
ؐ	-15.1952
ێ	-15.1952
ூ	-15.1952
っ	-15.1952
与	-15.1952
学	-15.1952
峻	-15.1952
校	-15.1952
楷	-15.1952
牛	-15.1952
蕪	-15.1952
謝	-15.1952
重	-15.1952
ï	-15.1952
з	-15.1952
ፊ	-15.1952
世	-15.1952
堀	-15.1952
帝	-15.1952
淡	-15.1952
茅	-15.1952
銭	-15.1952
青	-15.1952
黑	-15.1952
조	-15.1952
𓂋	-15.1952
¢	-15.1952
¥	-15.1952
­	-15.1952
Ä	-15.1952
Ç	-15.1952
Î	-15.1952
ã	-15.1952
ë	-15.1952
ð	-15.1952
ć	-15.1952
ĉ	-15.1952
ĝ	-15.1952
ĥ	-15.1952
ĵ	-15.1952
ŋ	-15.1952
Ō	-15.1952
œ	-15.1952
Ŝ	-15.1952
ŝ	-15.1952
š	-15.1952
ŭ	-15.1952
ș	-15.1952
ɑ	-15.1952
ʿ	-15.1952
ˁ	-15.1952
ˈ	-15.1952
ˑ	-15.1952
̊	-15.1952
Ζ	-15.1952
Η	-15.1952
Ι	-15.1952
Μ	-15.1952
Ξ	-15.1952
Ο	-15.1952
Ρ	-15.1952
Τ	-15.1952
Χ	-15.1952
Ψ	-15.1952
έ	-15.1952
χ	-15.1952
ϝ	-15.1952
Є	-15.1952
І	-15.1952
Ї	-15.1952
Љ	-15.1952
Њ	-15.1952
Ћ	-15.1952
Џ	-15.1952
В	-15.1952
Д	-15.1952
Е	-15.1952
З	-15.1952
И	-15.1952
Й	-15.1952
Л	-15.1952
Н	-15.1952
О	-15.1952
Т	-15.1952
Х	-15.1952
Ц	-15.1952
Ч	-15.1952
Ш	-15.1952
Щ	-15.1952
Ъ	-15.1952
Ы	-15.1952
Ь	-15.1952
Ю	-15.1952
б	-15.1952
ы	-15.1952
љ	-15.1952
Ґ	-15.1952
қ	-15.1952
ֵ	-15.1952
־	-15.1952
ׁ	-15.1952
ץ	-15.1952
ײ	-15.1952
״	-15.1952
ٕ	-15.1952
٥	-15.1952
٧	-15.1952
٫	-15.1952
ڈ	-15.1952
ژ	-15.1952
ڢ	-15.1952
ۃ	-15.1952
ۆ	-15.1952
ۡ	-15.1952
۱	-15.1952
ܛ	-15.1952
ܦ	-15.1952
ܨ	-15.1952
फ	-15.1952
व	-15.1952
श	-15.1952
़	-15.1952
ि	-15.1952
ங	-15.1952
ச	-15.1952
ட	-15.1952
ண	-15.1952
ம	-15.1952
வ	-15.1952
ල	-15.1952
්	-15.1952
ฑ	-15.1952
บ	-15.1952
ล	-15.1952
ฯ	-15.1952
โ	-15.1952
้	-15.1952
ບ	-15.1952
་	-15.1952
ང	-15.1952
ད	-15.1952
མ	-15.1952
ལ	-15.1952
ུ	-15.1952
ᄁ	-15.1952
ᄄ	-15.1952
ᄈ	-15.1952
ᄉ	-15.1952
ᄊ	-15.1952
ᄌ	-15.1952
ᄍ	-15.1952
ᄎ	-15.1952
ᄏ	-15.1952
ᄐ	-15.1952
ᄒ	-15.1952
ᅢ	-15.1952
ᅤ	-15.1952
ᅥ	-15.1952
ᅦ	-15.1952
ᅧ	-15.1952
ᅨ	-15.1952
ᅩ	-15.1952
ᅪ	-15.1952
ᅫ	-15.1952
ᅬ	-15.1952
ᅭ	-15.1952
ᅮ	-15.1952
ᅯ	-15.1952
ᅰ	-15.1952
ᅱ	-15.1952
ᅲ	-15.1952
ᅳ	-15.1952
ᅴ	-15.1952
ᅵ	-15.1952
ል	-15.1952
ማ	-15.1952
ር	-15.1952
ቡ	-15.1952
ኛ	-15.1952
ደ	-15.1952
ዳ	-15.1952
ጊ	-15.1952
ᒾ	-15.1952
ḗ	-15.1952
ố	-15.1952
ἀ	-15.1952
ἡ	-15.1952
ἴ	-15.1952
Ἰ	-15.1952
ᾱ	-15.1952
ᾶ	-15.1952
ῦ	-15.1952
ῶ	-15.1952
ῷ	-15.1952
⁩	-15.1952
₣	-15.1952
₮	-15.1952
↔	-15.1952
∆	-15.1952
≡	-15.1952
⋅	-15.1952
┒	-15.1952
ⴳ	-15.1952
ⴷ	-15.1952
ⴼ	-15.1952
ⴽ	-15.1952
ⵏ	-15.1952
ⵖ	-15.1952
ⵢ	-15.1952
あ	-15.1952
い	-15.1952
う	-15.1952
が	-15.1952
く	-15.1952
こ	-15.1952
せ	-15.1952
だ	-15.1952
つ	-15.1952
は	-15.1952
ば	-15.1952
ぶ	-15.1952
べ	-15.1952
ぼ	-15.1952
ゆ	-15.1952
よ	-15.1952
ら	-15.1952
り	-15.1952
を	-15.1952
ア	-15.1952
ク	-15.1952
タ	-15.1952
ヌ	-15.1952
バ	-15.1952
ビ	-15.1952
ブ	-15.1952
ベ	-15.1952
ボ	-15.1952
ヶ	-15.1952
・	-15.1952
ㄅ	-15.1952
ㄆ	-15.1952
ㄇ	-15.1952
ㄈ	-15.1952
ㄉ	-15.1952
ㄊ	-15.1952
ㄋ	-15.1952
ㄌ	-15.1952
ㄍ	-15.1952
ㄎ	-15.1952
ㄏ	-15.1952
ㄐ	-15.1952
ㄑ	-15.1952
ㄒ	-15.1952
ㄓ	-15.1952
ㄔ	-15.1952
ㄕ	-15.1952
ㄖ	-15.1952
ㄗ	-15.1952
ㄘ	-15.1952
ㄙ	-15.1952
ㄚ	-15.1952
ㄛ	-15.1952
ㄜ	-15.1952
ㄝ	-15.1952
ㄞ	-15.1952
ㄟ	-15.1952
ㄠ	-15.1952
ㄡ	-15.1952
ㄢ	-15.1952
ㄣ	-15.1952
ㄤ	-15.1952
ㄥ	-15.1952
ㄦ	-15.1952
ㄧ	-15.1952
ㄨ	-15.1952
ㄩ	-15.1952
丁	-15.1952
七	-15.1952
三	-15.1952
东	-15.1952
丸	-15.1952
二	-15.1952
五	-15.1952
亳	-15.1952
伎	-15.1952
作	-15.1952
俺	-15.1952
倉	-15.1952
値	-15.1952
允	-15.1952
元	-15.1952
入	-15.1952
八	-15.1952
六	-15.1952
共	-15.1952
兵	-15.1952
冷	-15.1952
分	-15.1952
列	-15.1952
刺	-15.1952
加	-15.1952
勝	-15.1952
区	-15.1952
华	-15.1952
历	-15.1952
口	-15.1952
名	-15.1952
君	-15.1952
命	-15.1952
唐	-15.1952
场	-15.1952
垂	-15.1952
城	-15.1952
堂	-15.1952
場	-15.1952
墨	-15.1952
夷	-15.1952
女	-15.1952
如	-15.1952
娘	-15.1952
孝	-15.1952
孫	-15.1952
宋	-15.1952
宾	-15.1952
富	-15.1952
将	-15.1952
尊	-15.1952
小	-15.1952
少	-15.1952
尾	-15.1952
居	-15.1952
岡	-15.1952
峦	-15.1952
州	-15.1952
广	-15.1952
廣	-15.1952
弗	-15.1952
弘	-15.1952
弾	-15.1952
形	-15.1952
得	-15.1952
德	-15.1952
徽	-15.1952
我	-15.1952
扁	-15.1952
扬	-15.1952
投	-15.1952
抹	-15.1952
振	-15.1952
推	-15.1952
摂	-15.1952
撲	-15.1952
操	-15.1952
改	-15.1952
攻	-15.1952
政	-15.1952
斯	-15.1952
方	-15.1952
施	-15.1952
春	-15.1952
智	-15.1952
曜	-15.1952
曳	-15.1952
曹	-15.1952
村	-15.1952
枚	-15.1952
枝	-15.1952
架	-15.1952
桐	-15.1952
梟	-15.1952
梧	-15.1952
森	-15.1952
楊	-15.1952
楽	-15.1952
榮	-15.1952
横	-15.1952
歌	-15.1952
毛	-15.1952
民	-15.1952
治	-15.1952
法	-15.1952
温	-15.1952
湖	-15.1952
澤	-15.1952
無	-15.1952
王	-15.1952
盛	-15.1952
目	-15.1952
相	-15.1952
省	-15.1952
真	-15.1952
祯	-15.1952
禪	-15.1952
穆	-15.1952
立	-15.1952
笔	-15.1952
等	-15.1952
箏	-15.1952
管	-15.1952
節	-15.1952
納	-15.1952
絹	-15.1952
綱	-15.1952
红	-15.1952
纳	-15.1952
羅	-15.1952
者	-15.1952
而	-15.1952
聖	-15.1952
能	-15.1952
舞	-15.1952
舟	-15.1952
艾	-15.1952
芜	-15.1952
莲	-15.1952
蘇	-15.1952
虎	-15.1952
蝦	-15.1952
衣	-15.1952
言	-15.1952
詮	-15.1952
話	-15.1952
読	-15.1952
財	-15.1952
車	-15.1952
輝	-15.1952
车	-15.1952
连	-15.1952
都	-15.1952
里	-15.1952
鎌	-15.1952
长	-15.1952
閥	-15.1952
门	-15.1952
阜	-15.1952
阳	-15.1952
阿	-15.1952
陳	-15.1952
隊	-15.1952
雄	-15.1952
雪	-15.1952
馆	-15.1952
馬	-15.1952
马	-15.1952
魯	-15.1952
麻	-15.1952
龍	-15.1952
가	-15.1952
고	-15.1952
국	-15.1952
글	-15.1952
기	-15.1952
닙	-15.1952
려	-15.1952
말	-15.1952
삼	-15.1952
선	-15.1952
시	-15.1952
역	-15.1952
요	-15.1952
월	-15.1952
음	-15.1952
일	-15.1952
잎	-15.1952
홍	-15.1952
￼	-15.1952
𐀃	-15.1952
𐀚	-15.1952
𐤁	-15.1952
𐤇	-15.1952
𐤋	-15.1952
𐤌	-15.1952
𐤍	-15.1952
𐤏	-15.1952
𓅓	-15.1952
𓆎	-15.1952
𓈖	-15.1952
𓊖	-15.1952
𓏏	-15.1952
𓏺	-15.1952
å	-15.1952
ğ	-15.1952
ກ	-15.1952
ີ	-15.1952
ཀ	-15.1952
ྲ	-15.1952
ụ	-15.1952
ᾍ	-15.1952
⁧	-15.1952
為	-15.1952
銀	-15.1952
閣	-15.1952
Ā	-15.1952
ɔ	-15.1952
ῆ	-15.1952
ⵃ	-15.1952
草	-15.1952
대	-15.1952
표	-15.1952
𐀺	-15.1952
ප	-15.1952
ය	-15.1952
ර	-15.1952
ි	-15.1952
ු	-15.1952
ป	-15.1952
參	-15.1952
特	-15.1952
ڤ	-15.1953
ษ	-15.1953
