<unk>	0
<s>	0
</s>	0
s	-3.04551
▁	-3.32468
▁the	-3.33852
▁,	-3.44351
ed	-3.77874
▁.	-3.80608
▁of	-4.04411
▁and	-4.16796
▁a	-4.20218
y	-4.27578
e	-4.32143
▁in	-4.33525
▁to	-4.38744
ing	-4.43291
▁"	-4.72174
d	-4.78964
▁=	-4.80051
at	-4.92967
@	-4.997
▁@	-5.07042
▁was	-5.10534
ly	-5.10705
▁The	-5.13279
m	-5.18326
-	-5.19652
n	-5.20342
▁'	-5.20417
▁th	-5.21143
t	-5.24351
▁on	-5.31623
▁be	-5.31689
▁for	-5.38343
▁with	-5.39438
al	-5.50366
▁is	-5.54211
er	-5.59816
▁as	-5.64551
▁by	-5.68088
r	-5.68538
(	-5.68995
▁)	-5.69099
.	-5.69334
es	-5.71028
en	-5.76622
o	-5.78649
a	-5.83058
▁his	-5.90223
▁f	-5.90295
▁A	-5.96369
▁at	-5.96461
▁w	-5.99455
i	-6.12708
were	-6.14197
ion	-6.14241
▁it	-6.14804
▁fro	-6.15972
▁he	-6.16053
th	-6.16574
▁S	-6.17522
c	-6.17579
g	-6.20955
in	-6.21573
▁In	-6.23772
l	-6.26169
u	-6.26471
▁an	-6.28776
hich	-6.33395
had	-6.33781
or	-6.39198
on	-6.3957
it	-6.4185
▁her	-6.44053
h	-6.44297
;	-6.4447
p	-6.45763
▁C	-6.47128
st	-6.49686
▁not	-6.51645
le	-6.52293
▁are	-6.52824
ic	-6.53316
b	-6.55675
ies	-6.56775
▁F	-6.57853
▁B	-6.58627
ish	-6.58828
▁I	-6.60266
lso	-6.63917
us	-6.65759
–	-6.66371
ar	-6.67356
3	-6.69063
ce	-6.69513
▁has	-6.69815
ch	-6.70395
▁their	-6.7423
▁who	-6.74682
▁R	-6.75361
ur	-6.77418
▁but	-6.77728
4	-6.78175
k	-6.78451
▁or	-6.80004
is	-6.83511
two	-6.84081
1	-6.84159
an	-6.85149
▁one	-6.86438
▁G	-6.87826
irst	-6.88593
▁have	-6.88755
2	-6.89588
▁He	-6.90575
ra	-6.91079
▁she	-6.91274
5	-6.94358
ment	-6.95774
ve	-6.95951
▁P	-6.99059
▁its	-7.01256
▁other	-7.01628
f	-7.01939
▁M	-7.02198
▁year	-7.02413
▁after	-7.03584
ive	-7.03648
9	-7.05629
▁time	-7.08035
▁m	-7.09825
land	-7.10274
this	-7.10592
▁re	-7.11953
▁1	-7.12017
6	-7.12275
▁J	-7.12839
ers	-7.13183
▁K	-7.13624
et	-7.13961
ation	-7.14066
▁@,@	-7.15456
ri	-7.166
mber	-7.16748
▁all	-7.18782
▁over	-7.19107
more	-7.19249
▁201	-7.19569
▁E	-7.20729
w	-7.21584
7	-7.2178
▁It	-7.22085
▁200	-7.22175
▁up	-7.22253
▁D	-7.22831
▁c	-7.23119
re	-7.24441
▁W	-7.24855
se	-7.25692
8	-7.26027
during	-7.26997
▁him	-7.27399
▁play	-7.27605
▁de	-7.28004
▁man	-7.28483
la	-7.29627
▁into	-7.29797
▁p	-7.30116
id	-7.3044
able	-7.30999
uch	-7.3123
est	-7.32325
z	-7.33275
▁would	-7.33643
▁name	-7.34289
▁most	-7.35475
ty	-7.36741
▁under	-7.37122
▁un	-7.37351
▁On	-7.374
▁T	-7.37528
ern	-7.38124
ro	-7.38404
▁St	-7.3878
▁out	-7.39826
▁2	-7.39969
▁4	-7.41348
x	-7.41704
▁5	-7.4191
twee	-7.42079
▁work	-7.42346
0	-7.42837
ist	-7.42884
▁Z	-7.43291
el	-7.44384
▁album	-7.44449
▁new	-7.45065
ver	-7.45831
▁thre	-7.46334
▁H	-7.46457
ia	-7.47129
bout	-7.47464
▁ship	-7.47785
ton	-7.48779
▁game	-7.49383
▁high	-7.5
ent	-7.5118
ry	-7.51666
ir	-7.51701
il	-7.5204
▁four	-7.53234
▁cit	-7.53499
▁season	-7.54564
▁through	-7.54628
▁3	-7.54887
▁U	-7.55139
rom	-7.55502
▁Brit	-7.56738
▁later	-7.57373
out	-7.57881
▁again	-7.57933
way	-7.57991
end	-7.58268
man	-7.58499
▁number	-7.58621
ary	-7.58863
▁end	-7.58986
A	-7.58989
▁part	-7.59336
li	-7.61318
came	-7.6143
▁film	-7.6143
▁O	-7.61477
▁when	-7.61518
lo	-7.61579
ne	-7.61967
▁She	-7.62126
ical	-7.62243
▁state	-7.62625
▁199	-7.62835
ian	-7.63286
▁includ	-7.63333
▁8	-7.65216
sh	-7.65448
cause	-7.65998
▁whil	-7.66338
▁second	-7.66569
na	-7.66623
▁than	-7.6697
▁Be	-7.67273
though	-7.67577
▁New	-7.68353
▁some	-7.68873
▁6	-7.69089
▁no	-7.69116
▁being	-7.69348
▁0	-7.69864
both	-7.69952
▁John	-7.70356
▁st	-7.70642
▁war	-7.7076
son	-7.71057
▁character	-7.71099
▁show	-7.71138
▁follow	-7.71192
▁War	-7.7142
▁al	-7.72269
▁De	-7.72279
▁10	-7.72416
ul	-7.72774
ft	-7.72995
▁us	-7.73168
ant	-7.73356
▁Re	-7.73451
▁call	-7.73568
▁Unit	-7.73601
▁mad	-7.73791
▁release	-7.74325
▁L	-7.7476
▁form	-7.74872
▁9	-7.75107
▁large	-7.75137
000	-7.75533
▁can	-7.75634
▁so	-7.76841
age	-7.76953
ordan	-7.76962
and	-7.77017
▁base	-7.77639
▁where	-7.78661
▁record	-7.7894
▁god	-7.79019
well	-7.79213
▁day	-7.79773
gan	-7.80478
▁co	-7.80877
ta	-7.81469
um	-7.8151
▁di	-7.81545
▁like	-7.81545
each	-7.81805
achel	-7.81948
v	-7.82277
ose	-7.82455
▁con	-7.82647
ie	-7.83413
▁remain	-7.83653
un	-7.8424
▁Wheeler	-7.84546
ot	-7.84894
▁Me	-7.85065
as	-7.85244
▁long	-7.85452
▁To	-7.85958
ma	-7.864
▁h	-7.86568
▁there	-7.86767
▁Thi	-7.87201
ine	-7.87609
ance	-7.88121
▁use	-7.88435
if	-7.88436
op	-7.88766
▁An	-7.89189
▁Lo	-7.8935
ke	-7.89582
▁12	-7.8968
S	-7.89881
ston	-7.90961
▁could	-7.9103
▁centur	-7.91032
▁before	-7.9113
▁do	-7.91373
ill	-7.91394
iz	-7.91691
▁7	-7.91871
—	-7.91991
▁State	-7.92077
▁N	-7.92144
▁song	-7.92195
▁Pa	-7.92281
ten	-7.92469
▁sever	-7.92663
han	-7.9287
▁them	-7.9311
ol	-7.93201
▁seri	-7.9556
▁sai	-7.96003
▁main	-7.96099
▁Le	-7.96162
▁Mar	-7.96193
ous	-7.96595
vi	-7.96705
▁York	-7.96943
▁Ire	-7.97143
▁11	-7.97181
ni	-7.97254
▁North	-7.97998
tion	-7.98195
▁b	-7.98782
known	-7.98983
▁return	-7.98994
▁Al	-7.99054
ure	-7.99282
▁force	-7.99832
ge	-7.99846
▁team	-8.00036
▁German	-8.01089
▁After	-8.0109
ew	-8.01253
▁Tr	-8.01274
▁French	-8.02152
▁near	-8.0216
nother	-8.02178
▁Fe	-8.02431
im	-8.02566
▁place	-8.02605
self	-8.02911
▁list	-8.03252
hou	-8.04198
▁life	-8.04317
▁original	-8.04359
▁May	-8.04402
▁area	-8.05188
▁Ba	-8.05423
▁describ	-8.05432
ak	-8.05437
▁Howe	-8.05721
ok	-8.05947
ard	-8.06306
/	-8.06524
▁World	-8.06524
▁report	-8.07675
▁order	-8.07724
▁found	-8.0788
ever	-8.07999
ow	-8.08081
▁20	-8.08715
▁Fin	-8.08817
▁15	-8.09053
ang	-8.09502
▁t	-8.09731
▁per	-8.09832
▁V	-8.1088
▁Church	-8.11097
ll	-8.1147
C	-8.11538
round	-8.12049
▁Bo	-8.12213
▁receiv	-8.12276
ng	-8.12638
▁sam	-8.13082
▁arm	-8.13342
▁any	-8.13352
▁design	-8.13476
▁along	-8.13506
be	-8.13556
ld	-8.14125
▁le	-8.1424
▁line	-8.14262
lin	-8.1438
▁support	-8.14668
▁off	-8.15283
ac	-8.15367
▁18	-8.15446
▁may	-8.15505
▁did	-8.15893
▁White	-8.15904
▁small	-8.17123
▁home	-8.17123
ince	-8.17533
ha	-8.1766
L	-8.1766
00	-8.17992
▁militar	-8.18385
▁pre	-8.18397
▁earl	-8.18463
tic	-8.18708
▁dis	-8.19345
ter	-8.19355
▁Yue	-8.19641
▁Ma	-8.19863
▁start	-8.20199
om	-8.20555
▁17	-8.20801
▁194	-8.20835
▁go	-8.20843
▁Wh	-8.20893
$	-8.2092
▁people	-8.2092
▁point	-8.20921
▁site	-8.21048
▁des	-8.21325
▁back	-8.2138
N	-8.21479
▁For	-8.21635
▁Pol	-8.21662
▁Sh	-8.22088
ick	-8.22129
▁br	-8.22386
▁take	-8.22464
▁lead	-8.22523
by	-8.2282
co	-8.2334
ial	-8.23524
%	-8.23535
▁sign	-8.23611
▁American	-8.2373
ble	-8.238
B	-8.23873
▁human	-8.24868
▁six	-8.24917
▁ga	-8.25059
▁Co	-8.25144
ig	-8.25256
ide	-8.25675
▁south	-8.26212
▁result	-8.26219
▁scor	-8.26398
▁great	-8.26431
▁La	-8.26469
ren	-8.26621
ism	-8.26726
▁music	-8.27118
▁As	-8.27439
▁group	-8.27589
▁Jun	-8.2853
▁All	-8.28913
▁world	-8.28989
▁building	-8.28998
▁consider	-8.29005
▁sp	-8.29204
▁ba	-8.29293
▁unti	-8.29415
▁West	-8.29704
▁No	-8.30009
▁According	-8.30387
▁publish	-8.30387
▁Galve	-8.30388
▁you	-8.30393
▁career	-8.30499
▁Towns	-8.30543
▁mi	-8.30686
▁give	-8.31391
side	-8.31677
[	-8.31815
▁among	-8.31822
▁final	-8.31826
▁16	-8.32097
▁There	-8.32181
va	-8.32237
▁own	-8.32374
▁Ju	-8.32874
▁At	-8.33156
]	-8.33264
▁Nicol	-8.33266
▁Septe	-8.33269
▁193	-8.33272
▁Ro	-8.333
▁art	-8.33323
▁pro	-8.33378
▁Arm	-8.33735
ight	-8.33831
▁13	-8.33908
▁Li	-8.34086
tein	-8.34483
▁buil	-8.34725
▁previous	-8.34735
▁school	-8.34735
▁Black	-8.34735
▁191	-8.34746
▁single	-8.34749
▁direct	-8.34817
▁famil	-8.34965
▁power	-8.35156
▁Fey	-8.35303
ell	-8.35338
ting	-8.3547
▁II	-8.36035
▁Man	-8.36152
▁will	-8.36601
ober	-8.37023
▁speci	-8.37321
é	-8.37619
▁Oct	-8.37745
▁close	-8.3775
▁become	-8.37755
ut	-8.37774
▁Nove	-8.37847
▁last	-8.37887
▁set	-8.38377
▁side	-8.38773
▁public	-8.39082
▁30	-8.39083
▁You	-8.39252
▁title	-8.39283
▁book	-8.3931
▁how	-8.39332
▁Jam	-8.39848
very	-8.40111
ci	-8.40119
▁Ap	-8.40234
ness	-8.40394
ade	-8.40698
▁down	-8.40845
▁child	-8.4085
▁men	-8.41201
▁player	-8.41341
ain	-8.41386
▁make	-8.41388
▁Con	-8.4169
all	-8.41701
▁west	-8.41787
▁even	-8.41907
▁Jan	-8.41979
▁histor	-8.42199
▁Th	-8.42433
▁government	-8.42457
ril	-8.42474
▁Ross	-8.4268
▁run	-8.42828
ful	-8.43163
M	-8.43613
D	-8.43728
pp	-8.43775
ture	-8.43971
▁August	-8.44044
▁review	-8.44044
▁million	-8.44044
▁fleet	-8.44046
▁right	-8.44057
▁train	-8.44062
qui	-8.44124
▁Ca	-8.44138
rote	-8.44367
▁issue	-8.44786
▁And	-8.45052
▁class	-8.45075
▁mov	-8.45451
▁operation	-8.45781
▁Un	-8.46111
ti	-8.46598
▁Gu	-8.46657
▁often	-8.47236
▁Mo	-8.47281
▁appear	-8.47312
ab	-8.47748
▁move	-8.47753
▁Ir	-8.47792
▁real	-8.48058
ward	-8.48199
per	-8.48199
ster	-8.4822
▁wide	-8.48406
day	-8.48514
▁damage	-8.48929
▁position	-8.49045
▁service	-8.4906
▁hand	-8.49195
▁free	-8.49356
ap	-8.4955
▁writ	-8.49898
▁old	-8.49903
▁best	-8.50051
▁Sarnia	-8.50769
▁castle	-8.50831
te	-8.50965
▁air	-8.51091
▁me	-8.51338
▁writing	-8.51985
▁pa	-8.52269
▁award	-8.52348
▁episode	-8.52523
▁system	-8.52523
▁north	-8.52526
▁197	-8.52532
▁draw	-8.52536
▁Egyptian	-8.5254
▁24	-8.52898
▁way	-8.52907
▁ex	-8.52982
cent	-8.53127
▁include	-8.53142
▁NB	-8.53173
ought	-8.53225
kel	-8.53273
▁Cit	-8.53774
▁perform	-8.54281
ircraft	-8.54309
▁particular	-8.54309
▁short	-8.54309
▁Dece	-8.54612
▁see	-8.54617
▁won	-8.54651
▁mo	-8.54828
j	-8.54898
ether	-8.54943
ret	-8.55059
I	-8.55329
ba	-8.55759
ford	-8.55994
▁198	-8.56063
mp	-8.56087
▁join	-8.5613
▁rank	-8.56175
▁His	-8.56461
▁14	-8.56635
▁what	-8.56658
▁event	-8.56725
▁Ear	-8.56843
ck	-8.56904
▁plan	-8.57138
▁major	-8.57213
com	-8.57471
▁en	-8.57574
▁Command	-8.57665
▁g	-8.5789
▁195	-8.57897
ner	-8.57948
▁attempt	-8.57979
▁relationship	-8.57979
▁should	-8.57979
▁death	-8.57998
▁Universit	-8.58062
▁Jew	-8.58128
board	-8.58148
▁2010	-8.58216
less	-8.58342
▁Ra	-8.58437
▁Nat	-8.58471
▁Dur	-8.58678
▁top	-8.58705
to	-8.58785
llo	-8.58939
▁Sho	-8.59053
lu	-8.59164
▁19	-8.59312
▁general	-8.59866
▁month	-8.59869
ball	-8.60213
..	-8.60293
gu	-8.60307
▁feature	-8.60517
▁open	-8.60595
▁offer	-8.60923
ong	-8.60938
ast	-8.61073
po	-8.61092
▁live	-8.61279
▁just	-8.61452
▁construct	-8.61673
▁island	-8.61689
▁similar	-8.61789
▁period	-8.61789
▁South	-8.6179
▁eight	-8.61847
ities	-8.6185
▁deit	-8.61952
ium	-8.61954
▁Ha	-8.62104
▁goal	-8.62426
▁then	-8.62577
▁Che	-8.62763
▁los	-8.6282
▁ra	-8.62974
ho	-8.63198
▁Her	-8.63216
▁develop	-8.63609
▁suggest	-8.6375
▁Christmas	-8.6375
▁seven	-8.6375
stead	-8.6375
▁chart	-8.63754
▁various	-8.63759
▁good	-8.63771
▁say	-8.63789
▁With	-8.6386
▁km	-8.63876
▁allow	-8.63933
▁present	-8.64019
K	-8.64094
▁late	-8.64146
▁Nation	-8.64258
mm	-8.64391
ML	-8.64967
▁ten	-8.65157
▁Po	-8.65212
ice	-8.65377
▁produc	-8.65411
▁establish	-8.6565
▁attack	-8.6575
▁196	-8.65777
▁Ta	-8.65913
▁need	-8.66015
den	-8.66016
▁less	-8.66178
field	-8.66217
▁Ch	-8.66776
ence	-8.66925
▁creat	-8.67035
▁count	-8.67185
▁act	-8.67474
up	-8.67528
▁person	-8.6754
▁term	-8.67613
▁General	-8.67791
▁increase	-8.67791
▁initial	-8.67794
pa	-8.67804
▁third	-8.67805
▁role	-8.67811
▁win	-8.68089
tro	-8.68117
▁US	-8.68288
▁ha	-8.68404
▁full	-8.68444
▁po	-8.68506
▁So	-8.68561
▁50	-8.68688
ious	-8.68823
▁critic	-8.69429
▁land	-8.69505
▁earlie	-8.69872
▁project	-8.69874
▁figure	-8.69874
▁half	-8.69875
ler	-8.69885
▁track	-8.69911
▁mean	-8.70143
▁wall	-8.70197
▁different	-8.70278
ca	-8.70397
R	-8.70544
ach	-8.70561
tra	-8.70633
und	-8.70851
urther	-8.70929
gen	-8.70953
▁spac	-8.71114
▁Or	-8.71312
mark	-8.71567
▁put	-8.71774
ily	-8.71946
▁fee	-8.71976
▁192	-8.7198
gg	-8.71995
á	-8.72002
▁local	-8.72002
▁sentence	-8.72009
▁Jack	-8.72016
▁gold	-8.72056
▁help	-8.72085
▁2006	-8.72366
▁official	-8.7241
▁led	-8.72636
▁God	-8.72745
bru	-8.72884
lay	-8.73131
pite	-8.73374
▁fire	-8.73376
lor	-8.7373
▁represent	-8.74175
▁population	-8.74175
▁dollar	-8.74176
▁involv	-8.74176
▁televis	-8.74176
▁Rock	-8.7428
▁tru	-8.74338
▁due	-8.7449
▁2008	-8.74499
▁East	-8.7457
▁hav	-8.74602
▁inter	-8.74672
ka	-8.74762
▁continu	-8.74971
▁Y	-8.75241
▁fel	-8.75512
iva	-8.76277
▁Constantin	-8.76398
▁strong	-8.76398
▁week	-8.76399
▁level	-8.76402
▁kill	-8.76429
▁appearance	-8.76449
▁Nav	-8.76508
▁father	-8.76557
▁too	-8.76577
▁now	-8.76608
▁total	-8.76662
rea	-8.76888
▁post	-8.7691
erson	-8.77417
uar	-8.77944
▁head	-8.78016
▁we	-8.78246
▁Ar	-8.78271
▁ma	-8.78345
▁success	-8.78474
▁minute	-8.7867
▁Count	-8.78673
▁style	-8.78679
▁never	-8.78719
▁popular	-8.7877
▁reach	-8.788
ning	-8.79144
▁break	-8.7966
P	-8.79735
▁former	-8.79821
▁25	-8.80143
▁Tw	-8.80261
▁car	-8.80411
ling	-8.80657
▁influence	-8.81034
▁young	-8.81049
▁range	-8.81089
▁We	-8.81124
▁port	-8.81145
ite	-8.8127
av	-8.81651
▁agree	-8.81946
▁Lad	-8.82446
▁gra	-8.82685
▁action	-8.82688
ough	-8.82932
rang	-8.82956
der	-8.83286
▁female	-8.83377
▁church	-8.83378
▁arriv	-8.83379
▁save	-8.83399
▁performance	-8.83428
▁law	-8.83462
▁English	-8.83479
▁stat	-8.83505
T	-8.8367
▁27	-8.83707
rapp	-8.83756
ze	-8.83781
▁23	-8.83938
▁water	-8.84063
▁la	-8.84526
no	-8.84946
▁though	-8.85054
hind	-8.85261
ations	-8.85419
ual	-8.85441
▁archaeolog	-8.85755
ory	-8.85765
▁San	-8.85784
▁Roman	-8.85802
▁type	-8.85815
▁decid	-8.85819
▁turn	-8.85819
▁Route	-8.85823
▁Histor	-8.85839
que	-8.85894
ither	-8.86019
▁stone	-8.86778
▁every	-8.86917
wa	-8.87048
▁abo	-8.87166
▁east	-8.87284
▁India	-8.87363
ham	-8.87614
ches	-8.8785
ado	-8.87992
▁Ge	-8.88021
▁writer	-8.88041
ship	-8.88125
▁members	-8.88253
ect	-8.88271
▁battle	-8.8831
▁monument	-8.88316
▁novel	-8.88317
▁Little	-8.88324
▁Go	-8.88343
▁Mark	-8.88625
▁basi	-8.88691
ction	-8.89556
▁King	-8.9005
ground	-8.9026
▁wh	-8.90291
▁Cha	-8.90305
▁continue	-8.90392
ker	-8.90487
▁Am	-8.90493
▁Da	-8.90519
▁Europe	-8.90769
nest	-8.90773
▁material	-8.9088
▁discover	-8.90882
▁Kingdom	-8.90893
uji	-8.90895
▁born	-8.9091
▁Island	-8.90921
▁excavation	-8.90923
next	-8.90949
▁love	-8.90951
▁Lock	-8.90968
▁exist	-8.90969
▁mix	-8.91052
▁important	-8.91054
▁Park	-8.91075
▁pass	-8.91193
▁Of	-8.91206
▁town	-8.91267
▁Award	-8.91284
▁word	-8.91463
▁unit	-8.91811
▁Jo	-8.92016
ron	-8.92158
ile	-8.92167
go	-8.92293
G	-8.9252
vin	-8.92663
▁Time	-8.9276
da	-8.92941
▁Car	-8.9299
▁control	-8.93007
▁suffer	-8.93512
▁element	-8.93512
▁visit	-8.93512
▁women	-8.93513
▁Great	-8.93517
▁came	-8.93521
▁successful	-8.93538
▁Music	-8.93547
▁image	-8.93549
▁story	-8.93561
▁political	-8.93584
▁hold	-8.93587
line	-8.93728
seen	-8.94092
▁coin	-8.94142
▁Di	-8.94341
▁want	-8.94353
▁does	-8.94635
ndon	-8.94838
▁40	-8.94933
▁destroy	-8.95035
ther	-8.95044
▁GA	-8.95244
row	-8.95695
▁Have	-8.95862
tri	-8.96022
kin	-8.96068
▁Republic	-8.961
▁cha	-8.96133
▁League	-8.96214
▁common	-8.96215
▁Krak	-8.96216
▁Royal	-8.96225
▁claim	-8.96226
▁centr	-8.96306
▁production	-8.96337
▁grow	-8.96879
▁self	-8.97081
▁station	-8.9719
▁En	-8.97456
ago	-8.9747
bor	-8.97552
▁rest	-8.97944
most	-8.98252
coming	-8.98256
▁command	-8.98284
▁Whil	-8.9869
▁Dr	-8.9878
part	-8.98858
▁version	-8.98994
▁religio	-8.99006
abilit	-8.99018
▁France	-8.99029
▁trade	-8.99043
▁tower	-8.99053
▁star	-8.99272
▁Ea	-8.99288
▁director	-8.99314
▁Ne	-8.99364
ley	-8.99533
▁country	-8.99574
▁read	-8.99715
ox	-8.99729
▁change	-9.00222
▁X	-9.00328
▁house	-9.00898
▁age	-9.00919
one	-9.01387
▁bod	-9.0139
▁complete	-9.016
▁sin	-9.01724
▁son	-9.01772
vo	-9.01775
▁Cardinal	-9.01849
▁pilot	-9.01849
▁debut	-9.01849
▁modern	-9.0185
▁storm	-9.01854
▁sub	-9.01855
▁finish	-9.01856
▁rock	-9.01863
▁mother	-9.01872
▁culture	-9.01873
▁eventual	-9.01878
▁center	-9.01882
▁band	-9.01999
▁get	-9.0208
▁case	-9.02081
▁exp	-9.02127
▁Love	-9.02149
till	-9.02186
▁28	-9.0223
▁Hol	-9.02238
▁Do	-9.02349
dom	-9.0261
vali	-9.02797
▁Israel	-9.02905
▁cut	-9.0329
▁Furt	-9.03467
ich	-9.03482
▁provid	-9.03485
▁Ru	-9.03545
▁light	-9.03663
▁featur	-9.0378
▁Na	-9.04186
▁past	-9.04212
▁mak	-9.04317
ife	-9.04407
road	-9.04621
’	-9.0479
▁Africa	-9.0479
▁prais	-9.04791
▁region	-9.04793
mission	-9.04805
▁estimat	-9.04807
▁Admiral	-9.04813
▁Port	-9.04818
▁crew	-9.04847
▁camp	-9.04862
▁significant	-9.04879
tention	-9.04915
ib	-9.04937
▁development	-9.05013
▁accept	-9.05183
▁Bill	-9.05231
▁add	-9.05282
II	-9.05401
rack	-9.05539
ign	-9.05585
low	-9.05691
▁sea	-9.05731
▁ground	-9.06034
▁non	-9.06067
▁gun	-9.0607
▁provide	-9.06159
▁stand	-9.06319
▁thought	-9.06478
▁friend	-9.06489
▁consist	-9.06636
pel	-9.07247
▁come	-9.07263
▁caus	-9.0729
gar	-9.07473
▁Brita	-9.07699
▁bi	-9.07761
ood	-9.07779
&	-9.07821
▁advantage	-9.07821
▁research	-9.07821
▁defeat	-9.07821
▁depict	-9.07821
▁limit	-9.07821
▁require	-9.07821
▁connect	-9.07825
▁protect	-9.07825
▁earn	-9.07831
▁commercial	-9.07832
act	-9.08
▁national	-9.08097
ov	-9.08107
▁nav	-9.08135
▁Ex	-9.08215
▁relat	-9.08247
▁31	-9.08368
▁fl	-9.08399
read	-9.08881
▁tri	-9.09047
ja	-9.09351
▁guns	-9.09723
▁ca	-9.09852
▁Se	-9.10446
▁addition	-9.10523
town	-9.10533
work	-9.10627
▁Pro	-9.10686
ub	-9.10784
▁Pri	-9.10849
?	-9.10946
▁approach	-9.10946
▁difficult	-9.10946
▁professional	-9.10946
▁defend	-9.10946
▁refus	-9.10947
▁Robert	-9.10947
▁fail	-9.1095
▁explain	-9.10953
▁sister	-9.10956
▁entrance	-9.1096
▁activit	-9.10969
▁Villa	-9.10971
▁Soci	-9.10986
▁find	-9.10989
▁club	-9.11006
▁commandment	-9.11056
▁outside	-9.11102
▁experience	-9.11127
▁Hu	-9.11131
▁184	-9.11245
▁Chin	-9.11271
▁Sap	-9.11372
▁da	-9.11416
▁fight	-9.11574
▁date	-9.11598
▁Vi	-9.11753
▁Du	-9.11787
za	-9.1193
▁effect	-9.12228
gal	-9.1228
▁Mac	-9.12331
elli	-9.12463
▁bar	-9.12648
▁idea	-9.12979
▁serve	-9.12981
▁Han	-9.13246
▁mid	-9.13543
▁special	-9.13561
▁Ja	-9.13706
▁fir	-9.13836
▁Art	-9.13841
▁100	-9.1389
▁treat	-9.14085
▁Canada	-9.14172
▁according	-9.14172
▁appoint	-9.14172
▁introduc	-9.14172
▁language	-9.14172
▁video	-9.14172
▁museum	-9.14172
▁current	-9.14172
▁social	-9.14172
▁source	-9.14172
▁minor	-9.14178
▁shot	-9.1418
▁rating	-9.14242
▁divin	-9.14259
▁raid	-9.14313
▁cover	-9.14393
▁185	-9.14436
MS	-9.14513
upon	-9.14715
▁boat	-9.14783
▁personal	-9.14841
▁Star	-9.14914
▁Engl	-9.14915
▁mu	-9.15038
▁Final	-9.1539
▁By	-9.15475
▁Cre	-9.15686
▁leas	-9.15885
▁Some	-9.15912
▁artist	-9.16116
car	-9.16331
▁field	-9.16726
▁deal	-9.16791
olog	-9.16883
port	-9.17036
ington	-9.17362
ier	-9.17485
▁individual	-9.17505
▁capital	-9.17505
▁taking	-9.17507
▁argu	-9.17524
▁white	-9.17528
▁NH	-9.17539
▁lack	-9.17539
▁Jesu	-9.1758
▁round	-9.17614
▁Tex	-9.17873
▁statu	-9.18014
▁21	-9.18187
▁tr	-9.18418
ep	-9.1882
▁Sea	-9.19113
let	-9.19216
▁fund	-9.1949
▁Wa	-9.20073
▁toward	-9.20078
▁author	-9.20238
mate	-9.20491
hur	-9.20494
▁Bu	-9.20534
▁Bri	-9.20542
▁tour	-9.20684
▁officers	-9.20757
▁manage	-9.2087
wood	-9.2093
▁Catechism	-9.20953
▁Catholic	-9.20953
▁object	-9.20953
▁brother	-9.20953
▁availab	-9.20954
▁propos	-9.20957
▁Film	-9.20957
▁standard	-9.20991
▁hour	-9.21001
▁archaeologist	-9.2104
▁cell	-9.21145
▁186	-9.21189
▁captur	-9.21219
thing	-9.21246
▁George	-9.21321
▁Force	-9.21333
▁26	-9.21486
▁primar	-9.215
▁factor	-9.21617
▁feel	-9.21945
▁metal	-9.22091
▁But	-9.22146
tor	-9.22159
▁serv	-9.22221
▁communit	-9.22234
▁Indian	-9.22429
istic	-9.22932
▁opening	-9.23193
▁im	-9.23241
ook	-9.23281
▁Pre	-9.23512
▁bo	-9.23897
▁Australia	-9.23956
▁view	-9.24318
aught	-9.24477
▁Archaeolog	-9.24524
▁employ	-9.24525
▁interview	-9.24525
▁industr	-9.24525
▁program	-9.24525
▁vocal	-9.24525
▁Friend	-9.24525
▁process	-9.24525
▁scene	-9.24527
▁reveal	-9.24528
▁reason	-9.2453
▁remix	-9.2453
▁Blue	-9.2453
▁look	-9.24538
▁draft	-9.24541
▁evidence	-9.24544
▁sometime	-9.24565
▁convo	-9.24576
▁190	-9.24579
▁front	-9.24597
▁Other	-9.24601
▁interest	-9.24643
▁188	-9.24737
▁Tri	-9.24789
▁size	-9.24851
▁low	-9.24872
▁Charles	-9.24925
hip	-9.24979
▁bl	-9.25119
▁2005	-9.25272
▁Ni	-9.25279
ock	-9.25483
▁comed	-9.2564
vil	-9.25654
▁Sp	-9.25724
▁winn	-9.25735
▁fift	-9.25767
chan	-9.25972
▁recording	-9.26097
▁du	-9.26155
▁Er	-9.26305
▁fly	-9.26399
▁disc	-9.26614
ety	-9.26626
▁Qu	-9.267
▁complet	-9.26717
her	-9.26755
▁Dar	-9.26869
▁space	-9.26884
▁worker	-9.27105
▁antimon	-9.27559
formation	-9.27631
▁America	-9.27674
▁fu	-9.27857
▁ti	-9.28091
▁match	-9.28156
▁Michael	-9.28228
▁Valkyria	-9.28228
▁account	-9.28228
▁typical	-9.28228
▁William	-9.28229
▁launch	-9.28229
▁remov	-9.28229
▁course	-9.28229
graf	-9.2823
▁keep	-9.28231
▁teaching	-9.28231
▁Game	-9.28236
▁engag	-9.28237
▁business	-9.28238
▁comment	-9.28238
▁retir	-9.28263
▁magazine	-9.28267
▁paper	-9.28275
▁corn	-9.2828
▁operat	-9.28296
V	-9.28302
▁coast	-9.28313
▁fictional	-9.28315
▁specific	-9.28316
H	-9.28378
▁European	-9.28389
▁enter	-9.28423
▁189	-9.28501
▁my	-9.28504
▁carri	-9.28521
▁El	-9.28627
▁litt	-9.28758
▁king	-9.28766
▁believe	-9.28829
▁door	-9.28907
▁replac	-9.28952
▁cave	-9.29202
aul	-9.29211
▁text	-9.29594
▁giv	-9.29606
▁Cole	-9.29961
mph	-9.30001
▁ask	-9.30082
val	-9.30122
ev	-9.30258
▁ft	-9.30431
▁bomb	-9.30473
▁loss	-9.30475
▁Q	-9.30795
▁Ed	-9.30896
non	-9.30941
▁friends	-9.31267
for	-9.31524
▁Bar	-9.31555
▁ever	-9.31674
▁locat	-9.31855
▁surviv	-9.319
ather	-9.32019
▁Phil	-9.32028
rit	-9.32046
▁struc	-9.32053
cient	-9.32071
▁league	-9.32074
▁Soviet	-9.32075
▁black	-9.32075
▁compar	-9.32075
▁detail	-9.32075
▁double	-9.32075
▁Japan	-9.32075
▁surround	-9.32075
▁decade	-9.32076
▁cross	-9.32076
▁entire	-9.32077
▁floor	-9.32078
▁Brook	-9.32094
▁storyline	-9.32096
▁assign	-9.32102
▁sound	-9.32156
ipp	-9.32283
▁1990	-9.32401
▁Wild	-9.32463
U	-9.3248
▁Frank	-9.32546
▁22	-9.32825
▁Centr	-9.32869
▁clear	-9.33038
qua	-9.33063
lone	-9.33079
ese	-9.33238
O	-9.3344
AF	-9.33462
ina	-9.33463
▁TV	-9.33549
▁Gar	-9.33904
E	-9.34091
▁Pop	-9.34479
▁met	-9.34737
aga	-9.34887
▁Bull	-9.35184
▁Col	-9.35523
▁wor	-9.35561
▁cap	-9.35678
▁observ	-9.35772
ollow	-9.35837
cat	-9.35905
°	-9.36074
▁Chronicle	-9.36074
▁Service	-9.36074
▁Uyghur	-9.36074
▁conduct	-9.36074
▁concern	-9.36075
▁crake	-9.36075
▁adopt	-9.36076
▁quick	-9.36076
▁express	-9.36086
▁think	-9.36089
▁Christian	-9.36096
mouth	-9.36108
▁miles	-9.36123
▁night	-9.3613
▁historical	-9.36217
▁Long	-9.36312
▁stage	-9.36318
▁damag	-9.36352
hi	-9.36363
▁rais	-9.36386
▁kn	-9.36479
▁test	-9.36529
sky	-9.36638
▁nine	-9.36871
ette	-9.37016
bra	-9.37203
▁Age	-9.37238
rania	-9.37458
▁Hor	-9.37528
time	-9.37641
▁wind	-9.37805
▁cance	-9.38057
▁Min	-9.38248
▁Win	-9.38395
alway	-9.38599
ney	-9.38676
▁owner	-9.38684
hile	-9.38718
q	-9.38762
▁elect	-9.38956
put	-9.39288
▁fall	-9.39334
F	-9.39411
lub	-9.39417
econd	-9.3943
rate	-9.39562
io	-9.3963
▁mar	-9.39996
tation	-9.40057
▁MVP	-9.40241
▁determin	-9.40241
▁example	-9.40241
▁purpose	-9.40241
▁submarine	-9.40241
▁temple	-9.40241
▁College	-9.40241
▁possibl	-9.40242
▁territor	-9.40242
▁contain	-9.40242
▁adult	-9.40243
across	-9.40244
▁Week	-9.40244
▁Year	-9.40244
▁Saint	-9.40245
▁Queen	-9.40246
▁basket	-9.40249
▁sexual	-9.40251
▁share	-9.40273
▁broke	-9.40288
▁reaction	-9.40341
▁arch	-9.40356
▁slight	-9.40368
▁serious	-9.40396
▁football	-9.40411
▁Romanian	-9.40554
▁cast	-9.40556
▁1942	-9.40582
▁memor	-9.40608
▁Mont	-9.40652
▁wood	-9.40723
▁press	-9.4098
▁students	-9.41174
▁2000	-9.41229
▁Bay	-9.41254
▁produce	-9.41525
▁marri	-9.41712
▁ru	-9.41807
▁seat	-9.41973
▁Air	-9.42105
BC	-9.42274
▁ball	-9.42325
▁60	-9.42334
▁Mari	-9.42508
ire	-9.42577
ski	-9.4272
▁producer	-9.42732
unk	-9.42919
▁ches	-9.42923
bel	-9.42924
▁pop	-9.4298
▁saw	-9.43054
bon	-9.43222
▁stra	-9.43405
eath	-9.43543
cation	-9.43764
▁How	-9.43795
▁Ver	-9.43859
ference	-9.44087
▁Per	-9.44207
▁Ali	-9.44332
▁Har	-9.44344
▁hel	-9.44385
tig	-9.4443
▁Can	-9.44535
overnment	-9.44563
▁conclud	-9.44589
▁contribut	-9.44589
▁effort	-9.44589
▁execut	-9.44589
▁subject	-9.44589
▁subsequent	-9.44589
▁regular	-9.44589
▁violen	-9.4459
▁batter	-9.44591
▁Fleet	-9.44591
▁appli	-9.44592
▁begin	-9.44592
▁identifi	-9.44593
▁immediate	-9.44593
▁woman	-9.44595
▁flood	-9.44606
▁host	-9.44607
▁Angel	-9.44608
▁risk	-9.4461
latter	-9.44615
▁Bre	-9.44617
▁Gold	-9.44674
ario	-9.44687
▁kind	-9.44691
▁assist	-9.44707
▁Corp	-9.44708
▁Thom	-9.4472
▁Under	-9.44762
▁store	-9.44802
utz	-9.44818
▁flight	-9.44848
▁cur	-9.44869
▁member	-9.44909
abba	-9.44939
viation	-9.44948
▁Peter	-9.45029
▁male	-9.45101
▁ob	-9.45104
ification	-9.45121
▁rule	-9.45141
▁Sc	-9.45229
ank	-9.45269
▁soon	-9.4552
▁police	-9.45542
▁must	-9.45851
▁liv	-9.46067
▁Toni	-9.46159
jo	-9.4649
llosaur	-9.46513
▁trans	-9.46529
ifi	-9.46832
off	-9.47299
ju	-9.47373
otte	-9.47615
▁Tow	-9.4812
ude	-9.48596
▁Charl	-9.48629
▁gr	-9.48632
▁80	-9.48702
▁scholar	-9.49134
▁Academ	-9.49134
▁Arkansas	-9.49134
▁Middle	-9.49134
▁Squadron	-9.49134
▁situation	-9.49134
▁Museum	-9.49135
▁normal	-9.49135
▁Clark	-9.49135
▁education	-9.49135
▁High	-9.49135
▁jazz	-9.49135
▁societ	-9.49135
▁access	-9.49136
▁Prince	-9.49137
▁Fair	-9.49137
▁equip	-9.49139
▁credit	-9.4914
▁heavy	-9.4914
▁nucle	-9.49143
▁transport	-9.49145
▁contract	-9.49149
▁River	-9.49162
▁enem	-9.49166
▁Norman	-9.49173
▁drama	-9.492
▁Water	-9.49204
▁usual	-9.49236
aire	-9.49239
▁Wood	-9.49244
▁nation	-9.49251
▁box	-9.49272
▁Defen	-9.49282
▁sail	-9.49327
▁hop	-9.49383
▁recent	-9.49392
▁demon	-9.49395
went	-9.49413
▁might	-9.49472
▁manager	-9.49662
▁Song	-9.49745
▁Mader	-9.4975
rant	-9.49773
tan	-9.49778
▁45	-9.49985
ept	-9.50029
▁commander	-9.50151
ko	-9.50265
titude	-9.50276
▁anti	-9.50532
▁fact	-9.5066
▁imp	-9.50672
▁Mor	-9.50807
▁Stan	-9.50844
▁gre	-9.51154
▁Mi	-9.51447
olf	-9.51778
ix	-9.51864
kh	-9.52063
▁Tu	-9.52095
▁bad	-9.52133
aster	-9.52145
▁Sch	-9.52178
▁Pi	-9.52222
▁90	-9.52537
▁authorit	-9.52864
fore	-9.5287
hire	-9.53094
▁believ	-9.53127
▁Ka	-9.53358
▁create	-9.53377
▁promot	-9.53674
▁respect	-9.53805
▁achiev	-9.53895
▁Coldrum	-9.53896
▁announce	-9.53896
▁belief	-9.53896
▁decision	-9.53896
▁document	-9.53896
▁participat	-9.53896
▁School	-9.53896
▁Group	-9.53897
▁machine	-9.53897
▁cultural	-9.53897
▁charge	-9.53897
▁instrument	-9.53897
▁search	-9.53897
▁maintain	-9.53897
▁prior	-9.53898
lazer	-9.53901
▁better	-9.53908
▁David	-9.53928
▁division	-9.53929
▁180	-9.53945
▁pen	-9.53952
▁twent	-9.53953
▁Ga	-9.53972
▁hair	-9.54024
▁eastern	-9.54027
▁1960	-9.54042
▁sold	-9.54072
▁couple	-9.54083
▁1940	-9.54125
▁sport	-9.54149
▁cr	-9.5416
amp	-9.54184
▁traditional	-9.54194
▁deep	-9.54216
nell	-9.54221
▁179	-9.54232
▁poor	-9.54323
taken	-9.54375
rough	-9.54392
▁additional	-9.54551
▁rain	-9.54559
▁Cent	-9.54599
▁29	-9.54698
acre	-9.54734
▁critical	-9.54873
▁hit	-9.54953
ological	-9.55279
▁era	-9.55287
▁natural	-9.55423
▁Institut	-9.55445
play	-9.55604
iller	-9.55705
layer	-9.55742
erous	-9.55795
ara	-9.55906
ellow	-9.55995
▁try	-9.56253
▁Care	-9.56755
▁Ser	-9.57282
▁Hous	-9.57493
▁Mag	-9.57501
▁super	-9.57509
ternational	-9.57527
CO	-9.57539
▁Lu	-9.57634
▁fan	-9.57702
▁leader	-9.57725
▁Pres	-9.58055
▁Oma	-9.58438
▁Mon	-9.58487
▁combin	-9.58696
▁select	-9.58712
ouncil	-9.58815
urricane	-9.58837
▁civil	-9.58847
▁Egypt	-9.58848
uilding	-9.58861
▁Pennsylvania	-9.58896
▁Record	-9.58896
▁extreme	-9.58896
▁Office	-9.58896
▁weapon	-9.58896
▁brief	-9.58897
▁square	-9.58897
▁study	-9.58897
▁girl	-9.58897
▁Civil	-9.58897
▁Mexic	-9.58897
▁ultimate	-9.58897
▁travel	-9.58897
▁piece	-9.58897
▁village	-9.58898
▁decline	-9.58898
▁initiat	-9.58899
▁divide	-9.58901
▁learn	-9.58903
▁difference	-9.58903
▁Dominica	-9.58907
▁staff	-9.58925
SP	-9.58996
▁tomb	-9.59038
rown	-9.59042
▁relative	-9.59047
▁dock	-9.59051
▁master	-9.59076
emble	-9.59141
▁Bur	-9.59167
▁location	-9.59189
artial	-9.5922
▁Miss	-9.59221
▁Russian	-9.59231
▁referr	-9.59257
▁step	-9.5927
▁175	-9.59292
▁instruct	-9.59452
▁sell	-9.59496
▁officer	-9.59499
terior	-9.59654
▁rate	-9.59758
ception	-9.59951
▁Post	-9.59955
▁44	-9.59997
▁reali	-9.60016
ior	-9.6019
▁sent	-9.60398
▁Lin	-9.6046
▁eye	-9.60467
head	-9.6051
▁fac	-9.60523
▁fun	-9.60531
▁House	-9.6063
▁Part	-9.60853
▁care	-9.60974
▁Chic	-9.61224
▁severe	-9.61332
▁RA	-9.61378
worth	-9.61775
ung	-9.61804
resident	-9.62255
ncy	-9.62605
iston	-9.6267
amed	-9.63824
▁face	-9.63871
▁Sun	-9.6414
▁People	-9.64159
▁Victoria	-9.64159
▁condition	-9.64159
▁declar	-9.64159
▁occurr	-9.64159
▁positive	-9.64159
▁regime	-9.64159
▁studio	-9.64159
▁summer	-9.64159
▁pursu	-9.6416
▁Operation	-9.6416
▁request	-9.6416
▁spirit	-9.6416
▁problem	-9.6416
▁cruiser	-9.64161
▁equal	-9.64161
▁favor	-9.64161
▁commission	-9.64161
▁probabl	-9.64163
▁plot	-9.64163
▁job	-9.64166
▁specimen	-9.64166
lphi	-9.64173
▁soldier	-9.64176
ography	-9.64179
▁driv	-9.64186
▁beginning	-9.64187
▁perfect	-9.6419
▁pound	-9.64208
shore	-9.64214
▁broad	-9.6423
▁winter	-9.64248
▁brick	-9.64269
▁Maj	-9.64299
▁carry	-9.64308
▁rail	-9.64346
▁Gate	-9.64347
▁comic	-9.64362
▁Colon	-9.64455
▁genu	-9.64464
▁1939	-9.64488
lock	-9.64494
▁gate	-9.64518
▁farm	-9.64664
▁food	-9.64677
▁Inter	-9.64749
iff	-9.64887
▁56	-9.64967
▁35	-9.65041
▁mount	-9.65082
cit	-9.65115
▁Mos	-9.65123
▁controll	-9.6519
▁vic	-9.65197
real	-9.65292
▁Work	-9.65295
tlantic	-9.65591
▁ran	-9.65874
ison	-9.6588
W	-9.66007
AA	-9.66088
▁Up	-9.66206
▁plant	-9.66471
▁Act	-9.66781
▁separate	-9.66842
arvati	-9.66934
saw	-9.6714
▁average	-9.67209
▁plann	-9.67223
hap	-9.6733
ular	-9.67445
eign	-9.6748
▁discuss	-9.67558
anger	-9.67631
▁value	-9.67674
▁Ram	-9.67715
win	-9.67828
▁Ten	-9.68003
uda	-9.68301
▁speak	-9.68632
ricu	-9.68839
graph	-9.69035
aven	-9.69047
▁refer	-9.69341
▁office	-9.69477
▁70	-9.69609
▁cult	-9.69672
▁oppos	-9.69695
#	-9.69715
▁Associat	-9.69715
▁earthquake	-9.69715
▁hospital	-9.69715
▁hundred	-9.69715
▁institution	-9.69715
▁progress	-9.69715
▁response	-9.69715
▁shrine	-9.69715
▁Department	-9.69715
▁Captain	-9.69715
▁prevent	-9.69715
▁enjoy	-9.69716
▁murder	-9.69716
▁Hellb	-9.69716
▁goddess	-9.69716
▁birth	-9.69718
▁park	-9.69718
▁nominat	-9.69719
▁guard	-9.69719
▁Beyon	-9.69734
▁paint	-9.69735
▁route	-9.69735
▁organis	-9.69736
▁link	-9.69736
▁Critic	-9.69737
▁plat	-9.69741
▁reduc	-9.69742
▁analys	-9.69742
▁dead	-9.69742
▁Tele	-9.69747
▁window	-9.69761
▁Town	-9.6979
▁Columb	-9.69799
▁watch	-9.69811
▁radio	-9.69814
▁Minist	-9.69819
▁Thak	-9.69825
▁intend	-9.69843
▁sulf	-9.69862
▁invit	-9.69865
▁1950	-9.699
▁1970	-9.69911
fect	-9.69931
hemical	-9.69955
▁hard	-9.6996
ibar	-9.69967
▁Old	-9.69971
▁shape	-9.69985
▁rare	-9.70023
▁movement	-9.70058
icket	-9.70129
▁amount	-9.70139
spread	-9.70175
▁Twin	-9.70284
▁grass	-9.70413
▁publication	-9.70452
mental	-9.70481
▁36	-9.70491
▁Bi	-9.70532
▁engineer	-9.70653
▁leg	-9.71009
▁cost	-9.71037
▁Ko	-9.71106
▁armor	-9.71115
itz	-9.72017
▁Way	-9.72153
light	-9.72191
nel	-9.7223
form	-9.72277
like	-9.72686
▁Jer	-9.727
▁tend	-9.72836
osaur	-9.73049
▁chang	-9.73109
ula	-9.73243
▁Mu	-9.73594
▁red	-9.7368
▁Joe	-9.74951
agre	-9.75064
emorial	-9.75094
▁prov	-9.75198
cal	-9.75274
▁coup	-9.75498
▁foot	-9.75584
▁collaps	-9.75597
▁description	-9.75597
▁practice	-9.75597
▁responsibl	-9.75597
▁screen	-9.75597
▁target	-9.75597
▁settlement	-9.75598
▁abandon	-9.75598
▁secur	-9.75599
▁avoid	-9.756
▁annual	-9.756
▁extend	-9.756
▁troop	-9.75602
▁guide	-9.75604
▁dark	-9.75605
▁Four	-9.75606
▁room	-9.75608
▁sculpture	-9.75609
▁steam	-9.75609
▁Alger	-9.75614
▁heart	-9.75622
▁Barker	-9.75622
▁Chart	-9.75625
▁spore	-9.75629
▁model	-9.75646
▁conf	-9.75652
▁block	-9.75658
▁iron	-9.75672
▁expand	-9.75689
▁expos	-9.75707
▁Crusader	-9.75713
▁Priest	-9.75732
▁color	-9.75735
uff	-9.75747
▁Later	-9.75758
▁Story	-9.75792
▁1980	-9.75798
▁association	-9.75807
▁Out	-9.75817
▁musician	-9.75818
▁mention	-9.75874
▁overall	-9.7588
▁Stone	-9.75928
▁Land	-9.75945
▁hygromet	-9.75947
▁bone	-9.75967
vision	-9.75969
▁187	-9.75972
▁log	-9.76081
▁prepared	-9.76177
▁79	-9.76203
▁copi	-9.76219
agle	-9.76263
▁Var	-9.76375
▁Mad	-9.76409
▁32	-9.76635
done	-9.76657
▁bass	-9.76677
▁provinc	-9.76732
▁defense	-9.76746
▁34	-9.76759
ware	-9.76909
east	-9.77001
▁write	-9.77019
cope	-9.77194
▁preserv	-9.77206
▁international	-9.77241
▁structure	-9.77372
▁beach	-9.77409
▁alleg	-9.77429
▁seem	-9.77467
▁NS	-9.77815
historic	-9.7794
▁mone	-9.78044
▁Pu	-9.78073
▁Span	-9.78087
▁destroyer	-9.78257
▁hir	-9.78911
▁leav	-9.79203
▁Div	-9.79261
mma	-9.79413
arriage	-9.79552
▁Cor	-9.79569
▁Spa	-9.79619
sibl	-9.7971
▁except	-9.79751
▁medic	-9.80462
▁polic	-9.80491
▁Sb	-9.8079
▁engine	-9.80802
▁media	-9.80842
strict	-9.80971
▁twi	-9.81415
▁Pit	-9.81428
▁sw	-9.81573
▁defin	-9.81609
▁associat	-9.81625
company	-9.81669
▁attend	-9.81833
▁Virgin	-9.81847
+	-9.81847
▁Public	-9.81847
▁Wanderer	-9.81847
▁approximate	-9.81847
▁certain	-9.81847
▁challeng	-9.81847
▁guitar	-9.81847
▁newspaper	-9.81847
▁opponent	-9.81847
▁prominent	-9.81847
▁strength	-9.81847
▁technique	-9.81847
▁Richard	-9.81847
▁campaign	-9.81847
▁assault	-9.81848
▁question	-9.81848
▁strateg	-9.81848
▁surface	-9.81848
▁captain	-9.81848
▁qualit	-9.81848
▁length	-9.81848
▁Street	-9.81848
▁safe	-9.81849
▁parent	-9.8185
▁honor	-9.8185
▁Green	-9.81852
▁facilit	-9.81859
▁moral	-9.8187
▁escape	-9.81871
▁worship	-9.81874
▁Cull	-9.81875
▁expect	-9.81879
▁health	-9.81881
▁Wales	-9.81884
▁peak	-9.81886
▁Steve	-9.81889
▁actual	-9.81898
▁stay	-9.81902
▁recreation	-9.81921
▁organization	-9.81933
▁president	-9.81939
▁opinion	-9.81941
▁vot	-9.81959
▁respective	-9.81968
▁coach	-9.81973
▁collection	-9.81984
▁natur	-9.82024
▁physical	-9.82027
▁transferr	-9.82044
▁tell	-9.82071
▁Chap	-9.82194
▁soul	-9.8221
▁Hill	-9.82218
▁Vice	-9.82225
▁slow	-9.82227
▁solo	-9.82255
▁labor	-9.82264
strum	-9.82306
▁advanc	-9.8231
hood	-9.8235
▁Over	-9.82386
ization	-9.8239
eph	-9.82483
bound	-9.82496
▁75	-9.8257
ilit	-9.82858
▁52	-9.83067
▁deni	-9.83087
▁sole	-9.8309
▁pe	-9.83285
▁rect	-9.83321
▁far	-9.83436
▁bridge	-9.83953
▁boy	-9.84192
plan	-9.84396
RA	-9.84979
▁Mik	-9.84982
▁fam	-9.85431
▁Ya	-9.85482
WA	-9.85634
▁canno	-9.85715
house	-9.85725
▁Kai	-9.85872
utch	-9.86193
▁Jen	-9.87016
▁Anti	-9.87106
▁Jon	-9.87186
▁mine	-9.87276
▁Chris	-9.87957
▁tradition	-9.88095
ulf	-9.88366
▁distinct	-9.8842
▁300	-9.88501
drew	-9.88501
▁Campbel	-9.88514
▁Entertainment	-9.88514
▁Fernande	-9.88514
▁Stefan	-9.88514
▁Tintin	-9.88514
▁aerodrome	-9.88514
▁audience	-9.88514
▁consecutive	-9.88514
▁focus	-9.88514
▁purchase	-9.88514
▁torpedo	-9.88514
▁dialogue	-9.88514
▁encourag	-9.88514
▁vessel	-9.88514
dministrati	-9.88514
▁contrast	-9.88514
▁repair	-9.88514
▁obtain	-9.88514
▁actress	-9.88515
▁drum	-9.88515
dynast	-9.88515
▁ritual	-9.88515
▁dress	-9.88515
▁aspect	-9.88516
▁Child	-9.88516
▁regard	-9.88517
▁fault	-9.88517
▁measur	-9.88517
▁portray	-9.88518
▁talk	-9.88519
▁Carolina	-9.88522
▁bird	-9.88524
▁Division	-9.88529
▁victor	-9.88534
▁Geoff	-9.88538
▁heavi	-9.88539
▁conflict	-9.88539
▁statistic	-9.88545
▁Shao	-9.88546
mpire	-9.88552
▁sex	-9.88556
uzz	-9.88563
▁Ruler	-9.88566
▁criticism	-9.88604
▁know	-9.88641
▁rise	-9.88658
▁num	-9.8868
special	-9.88696
▁matche	-9.88715
▁reign	-9.88727
▁Bank	-9.88745
▁resembl	-9.88746
▁active	-9.88841
▁Max	-9.88846
▁Flow	-9.88847
azz	-9.88876
▁key	-9.88898
▁viewers	-9.88915
▁Hall	-9.88951
▁Book	-9.88983
▁Thre	-9.88989
oration	-9.88989
▁hall	-9.89038
▁actor	-9.8912
▁Wel	-9.89208
▁flow	-9.89275
▁Bob	-9.89375
▁cru	-9.8958
▁Australian	-9.896
idence	-9.89616
▁Commando	-9.89681
▁court	-9.89709
▁51	-9.89892
▁Kre	-9.89901
▁print	-9.89967
vill	-9.90093
mar	-9.90207
▁fill	-9.90518
▁Pet	-9.90564
▁inspir	-9.90903
▁Thir	-9.91389
▁leave	-9.91533
▁Cam	-9.91619
lev	-9.91746
▁cre	-9.91757
▁Dail	-9.91833
▁propert	-9.92172
fall	-9.92366
isation	-9.92519
▁Maria	-9.92527
ease	-9.9308
▁dut	-9.93269
▁Atlant	-9.9373
▁Bro	-9.93873
▁Dan	-9.94271
▁Tim	-9.94315
▁rec	-9.94375
rdin	-9.94752
lli	-9.94831
▁extra	-9.95092
▁Play	-9.95224
astra	-9.9524
▁inform	-9.955
▁Palestin	-9.95607
occup	-9.95609
▁indicate	-9.95619
▁column	-9.95657
▁compris	-9.95657
▁script	-9.95657
£	-9.95657
▁Director	-9.95657
▁Dynast	-9.95657
▁Governor	-9.95657
▁Imperial	-9.95657
▁Research	-9.95657
▁ceremon	-9.95657
▁fashion	-9.95657
▁frequent	-9.95657
▁opportunit	-9.95657
▁potential	-9.95657
▁reflect	-9.95657
▁Secret	-9.95657
▁Smith	-9.95657
▁daughter	-9.95657
▁studie	-9.95657
▁Antimon	-9.95658
▁journ	-9.95659
▁affect	-9.95659
▁pitch	-9.9566
▁Grand	-9.9566
▁Court	-9.95663
▁horse	-9.95663
▁squadron	-9.95663
▁meeting	-9.95663
▁belong	-9.95664
▁debate	-9.95667
▁litera	-9.95667
▁market	-9.95669
▁blue	-9.95672
▁romantic	-9.95677
▁contemporar	-9.95678
▁walk	-9.95683
▁buri	-9.95691
▁chance	-9.95708
▁Swed	-9.95732
▁leukemia	-9.95748
▁percent	-9.9575
▁Wash	-9.95777
▁Human	-9.95784
zhe	-9.95788
▁speed	-9.95822
▁metre	-9.95842
▁1920	-9.95867
▁historian	-9.95898
▁jun	-9.95915
▁promotion	-9.95998
mportan	-9.96009
▁tall	-9.96062
▁pick	-9.96068
▁myth	-9.96156
▁pair	-9.96211
creation	-9.96261
▁Will	-9.96477
▁lower	-9.9649
▁page	-9.96504
▁37	-9.9658
▁carving	-9.9682
▁Bow	-9.97074
ttle	-9.97471
▁Corn	-9.97614
▁method	-9.97653
dict	-9.97819
▁musical	-9.97977
▁incorporat	-9.9806
▁Presiden	-9.98249
▁Van	-9.98536
▁Nor	-9.98541
▁Hur	-9.98596
▁majorit	-9.98752
▁union	-9.98753
▁intensi	-9.99005
▁Far	-9.99569
▁More	-9.99762
anw	-9.99901
▁emb	-10.006
▁Mill	-10.0067
awa	-10.01
ump	-10.0131
▁Del	-10.0133
stand	-10.0144
▁architect	-10.0144
▁depend	-10.0192
▁carv	-10.0238
▁vari	-10.0239
▁spr	-10.0257
▁Allie	-10.0268
▁importan	-10.0283
hol	-10.0296
▁populari	-10.0302
▁nin	-10.0304
ootball	-10.0306
▁Naz	-10.0315
zi	-10.0324
ackground	-10.0332
ockey	-10.0334
▁Canadian	-10.0335
▁casualt	-10.0335
▁destructi	-10.0335
▁headquarter	-10.0335
▁holiday	-10.0335
▁illustrat	-10.0335
▁increasing	-10.0335
▁necessar	-10.0335
▁respond	-10.0335
▁symbol	-10.0335
▁trouble	-10.0335
ö	-10.0335
▁Review	-10.0335
▁Compan	-10.0335
▁combat	-10.0335
▁faith	-10.0335
▁legislat	-10.0335
▁Monument	-10.0335
▁missile	-10.0335
▁neutr	-10.0335
▁confirm	-10.0335
▁impress	-10.0335
▁improv	-10.0335
▁address	-10.0335
▁graduat	-10.0335
▁pregnan	-10.0335
▁dedicat	-10.0335
▁plain	-10.0335
▁silver	-10.0335
▁matter	-10.0336
▁strike	-10.0336
▁Henry	-10.0336
▁demand	-10.0336
▁Hospitaller	-10.0336
▁stopp	-10.0336
▁Revolution	-10.0337
▁Syria	-10.0337
▁Yeo	-10.0337
rzo	-10.0337
▁semi	-10.0338
▁decorat	-10.0338
▁Battle	-10.0338
▁Through	-10.0339
liber	-10.0339
▁display	-10.034
▁lyric	-10.034
▁private	-10.034
▁mint	-10.0341
howitz	-10.0342
▁Gwen	-10.0343
▁Hurricane	-10.0344
▁Plan	-10.0345
▁recognize	-10.0346
▁pressure	-10.0347
▁clock	-10.0347
▁passage	-10.0349
▁variation	-10.035
▁Guard	-10.0351
▁Writ	-10.0355
▁Night	-10.0356
▁Tree	-10.0356
▁Board	-10.0358
▁singer	-10.0359
▁combination	-10.0366
▁1988	-10.0367
▁economic	-10.0371
▁restor	-10.0372
▁Broad	-10.0373
▁establishment	-10.0374
▁observation	-10.0393
▁independent	-10.0401
▁Scott	-10.0405
▁countr	-10.0408
▁76	-10.041
▁exit	-10.041
▁variet	-10.0411
urti	-10.0415
▁table	-10.0418
▁prec	-10.0419
▁shooting	-10.042
▁72	-10.0429
▁Home	-10.0431
▁Valle	-10.0432
▁Player	-10.0436
▁Mint	-10.0441
▁sale	-10.0462
▁archi	-10.0464
▁reli	-10.0475
▁42	-10.0491
▁terr	-10.0491
▁wear	-10.0492
▁43	-10.0526
▁Top	-10.0529
▁product	-10.0533
▁Val	-10.0541
▁rul	-10.0552
▁meant	-10.0552
▁Barr	-10.0555
bod	-10.0594
cussion	-10.0646
place	-10.0652
▁universit	-10.0657
pecial	-10.0686
venture	-10.0727
▁Not	-10.0727
▁proper	-10.0738
▁Lati	-10.0742
cific	-10.0749
X	-10.0793
break	-10.0803
▁sun	-10.083
face	-10.0831
▁Israeli	-10.0858
wor	-10.0861
▁fell	-10.0908
fare	-10.0909
agreement	-10.091
arrow	-10.0911
rane	-10.095
ensive	-10.0956
▁Lord	-10.1003
▁dance	-10.1031
▁cla	-10.1039
onica	-10.1044
▁Matt	-10.1044
▁dat	-10.105
▁prefer	-10.1051
▁chi	-10.1054
▁Dor	-10.1074
▁Scot	-10.1111
▁Russia	-10.1112
▁Xin	-10.114
▁Wil	-10.1147
native	-10.1156
▁Journal	-10.1168
▁Project	-10.1168
▁attribut	-10.1168
▁bottom	-10.1168
▁exhibit	-10.1168
▁experiment	-10.1168
▁garrison	-10.1168
▁hairstyle	-10.1168
▁manufactur	-10.1168
▁maskray	-10.1168
▁recommend	-10.1168
▁supply	-10.1168
▁website	-10.1168
▁zombie	-10.1168
▁distribut	-10.1168
▁pattern	-10.1168
▁behavio	-10.1168
▁happen	-10.1168
▁Leonard	-10.1168
▁appeal	-10.1168
▁premiere	-10.1168
▁Commission	-10.1168
▁competition	-10.1168
▁Bridge	-10.1168
▁broadcast	-10.1168
▁confront	-10.1168
▁detect	-10.1168
▁peace	-10.1168
▁Dream	-10.1168
▁border	-10.1169
▁deliver	-10.1169
▁task	-10.1169
▁earth	-10.1169
▁photograph	-10.1169
▁jewel	-10.1169
▁Belgi	-10.1169
▁animal	-10.1169
▁branch	-10.1169
▁Shortl	-10.1169
▁neck	-10.1169
▁reviv	-10.1169
▁distinguish	-10.1169
stream	-10.117
▁altar	-10.117
▁tropic	-10.117
▁financial	-10.117
▁sense	-10.1171
▁Haiti	-10.1171
▁assert	-10.1172
▁river	-10.1172
▁weather	-10.1172
▁academic	-10.1173
▁pull	-10.1174
▁Palestinian	-10.1174
▁pagoda	-10.1174
eff	-10.1175
hannel	-10.1176
▁injur	-10.1176
▁agent	-10.1177
toppa	-10.1178
▁fitt	-10.1178
ín	-10.118
▁deem	-10.1181
▁Bru	-10.1184
▁sort	-10.1185
▁setting	-10.1186
mond	-10.1188
▁reference	-10.1188
▁Studio	-10.1189
anz	-10.1189
aff	-10.119
▁recon	-10.1191
▁icon	-10.1191
▁breed	-10.1191
▁accompan	-10.1192
▁slip	-10.1195
▁tree	-10.1196
▁1900	-10.1196
▁alter	-10.1197
▁teacher	-10.1198
▁Ganga	-10.12
▁lane	-10.1201
▁Bald	-10.1204
▁committe	-10.1205
▁Nazi	-10.1215
▁partial	-10.1217
aniel	-10.1221
▁176	-10.1225
▁tail	-10.1227
▁Ré	-10.1239
▁creator	-10.1242
▁legal	-10.1245
▁shell	-10.1248
▁twin	-10.1255
▁spend	-10.1271
▁starr	-10.1282
▁95	-10.1283
▁57	-10.1288
msel	-10.1293
▁39	-10.1297
▁IS	-10.13
▁49	-10.1313
▁Fant	-10.1324
▁gues	-10.1327
▁architectur	-10.138
▁entr	-10.1414
▁Lake	-10.1417
▁assum	-10.1438
▁para	-10.1446
▁span	-10.1449
▁Andr	-10.146
▁Sir	-10.1462
▁presen	-10.1504
consistent	-10.1514
nnis	-10.1562
▁Devi	-10.1574
▁Hob	-10.1593
▁Lou	-10.1632
250	-10.1671
effective	-10.1702
wis	-10.1709
issue	-10.1716
▁Par	-10.1718
▁secret	-10.1719
▁Theatr	-10.1745
▁120	-10.1746
poli	-10.1791
rik	-10.1838
▁multi	-10.1856
ficial	-10.1905
▁Der	-10.1917
nda	-10.1937
stol	-10.1976
meter	-10.1981
caust	-10.2027
▁adapt	-10.2061
▁govern	-10.2068
evelopment	-10.2074
tempo	-10.2077
▁compos	-10.2077
▁benefit	-10.2077
▁prognos	-10.2077
ä	-10.2077
▁Festival	-10.2077
▁Lieutenant	-10.2077
▁Muslim	-10.2077
▁Mysore	-10.2077
▁Original	-10.2077
▁Temple	-10.2077
▁accomplish	-10.2077
▁apparent	-10.2077
▁candidate	-10.2077
▁carbonari	-10.2077
▁dynamic	-10.2077
▁fragil	-10.2077
▁maximu	-10.2077
▁rhythm	-10.2077
▁struggle	-10.2077
▁succeed	-10.2077
▁supplie	-10.2077
▁synagogue	-10.2077
▁Buddh	-10.2077
▁accommodat	-10.2077
▁husband	-10.2077
▁Frederic	-10.2077
▁cinema	-10.2077
▁journalist	-10.2077
▁rifle	-10.2077
▁shift	-10.2077
▁Album	-10.2077
▁rapid	-10.2077
▁arrest	-10.2077
▁punish	-10.2077
▁wreck	-10.2077
▁prison	-10.2077
▁spoil	-10.2078
▁surge	-10.2078
▁Castle	-10.2078
▁crime	-10.2078
▁middle	-10.2078
▁minim	-10.2078
▁letter	-10.2078
▁Cecil	-10.2078
▁Super	-10.2078
▁promis	-10.2078
▁Adam	-10.2078
▁parish	-10.2078
▁championship	-10.2078
▁Cross	-10.2078
▁Fame	-10.2078
▁devot	-10.2078
▁assembl	-10.2078
▁burn	-10.2078
▁Spring	-10.2078
▁diagnos	-10.2079
▁install	-10.2079
▁multipl	-10.2079
▁Road	-10.2079
▁genre	-10.2079
▁section	-10.2079
▁eighteen	-10.208
▁impact	-10.208
▁composition	-10.208
▁blood	-10.208
▁recall	-10.2081
▁extensive	-10.2081
▁convers	-10.2081
▁panel	-10.2081
▁threaten	-10.2081
▁arsen	-10.2082
ía	-10.2082
load	-10.2083
▁percentage	-10.2083
▁southeast	-10.2084
▁chief	-10.2084
▁react	-10.2084
▁district	-10.2085
▁wave	-10.2085
▁mind	-10.2086
▁revers	-10.2086
▁civilian	-10.2087
▁harbo	-10.2088
siege	-10.2088
▁mountain	-10.2089
▁erect	-10.209
PS	-10.209
zzo	-10.2091
▁council	-10.2093
▁reception	-10.2093
ergy	-10.2093
▁oil	-10.2094
▁grant	-10.2094
▁gather	-10.2094
losa	-10.2095
▁billion	-10.2096
▁blow	-10.2099
egon	-10.2101
▁attract	-10.2104
▁Rail	-10.2106
▁Manage	-10.2106
▁treatment	-10.2106
▁lot	-10.2111
▁remark	-10.2115
▁cup	-10.2117
emix	-10.2119
▁hill	-10.2121
▁1918	-10.2124
▁election	-10.2128
▁afterward	-10.2129
▁Sara	-10.2132
▁soft	-10.2132
▁177	-10.2134
gua	-10.2136
▁1954	-10.2138
▁fix	-10.2138
▁GM	-10.214
▁Cub	-10.214
▁successor	-10.215
▁data	-10.2151
▁Christ	-10.2152
migration	-10.2156
▁77	-10.2159
▁Ox	-10.2162
ternal	-10.2163
alem	-10.217
▁termin	-10.2178
▁rid	-10.2179
▁biograph	-10.218
olen	-10.2184
▁agenc	-10.2185
▁mass	-10.2195
▁69	-10.2198
▁47	-10.2212
▁62	-10.2218
▁trial	-10.2225
▁Just	-10.2234
▁Cap	-10.2236
▁notabl	-10.2238
▁infl	-10.2243
▁gain	-10.2248
iris	-10.2279
▁Name	-10.2304
▁Bran	-10.2339
cock	-10.2349
▁rac	-10.2357
▁Pip	-10.2359
▁Kar	-10.2363
▁pai	-10.2401
▁Marg	-10.2415
ogue	-10.2452
IT	-10.2473
▁suitabl	-10.2498
▁Mur	-10.2533
▁via	-10.2539
cute	-10.2629
▁funn	-10.2633
hua	-10.2637
CE	-10.2674
friend	-10.2709
TV	-10.2713
Art	-10.2726
back	-10.2726
▁Range	-10.2735
stitute	-10.2752
text	-10.2761
wide	-10.2771
von	-10.2772
▁student	-10.285
▁origin	-10.2851
▁dra	-10.2856
cou	-10.2933
ilto	-10.2959
▁Fran	-10.2961
polit	-10.3001
▁demo	-10.3009
aborator	-10.3018
mbo	-10.3026
▁collect	-10.3046
▁Romania	-10.3047
▁teache	-10.3048
▁Doug	-10.3059
ronto	-10.3065
agazine	-10.3067
ophy	-10.3067
▁Even	-10.3067
ommitte	-10.3069
continent	-10.3077
conventional	-10.3077
▁Similar	-10.3077
▁Vatican	-10.3077
▁college	-10.3077
▁controvers	-10.3077
▁correspond	-10.3077
▁degree	-10.3077
▁deploy	-10.3077
▁encounter	-10.3077
▁essential	-10.3077
▁habitat	-10.3077
▁inhabit	-10.3077
▁negative	-10.3077
▁possibilit	-10.3077
▁quote	-10.3077
▁responsibilit	-10.3077
▁scientific	-10.3077
▁surrender	-10.3077
▁approv	-10.3077
▁deprecati	-10.3077
▁fresco	-10.3077
▁incident	-10.3077
▁survey	-10.3077
▁Francisc	-10.3077
▁glider	-10.3077
▁schedule	-10.3077
▁defence	-10.3077
▁earthstar	-10.3077
▁Team	-10.3077
▁accus	-10.3077
▁permanent	-10.3077
▁possess	-10.3077
▁Evans	-10.3077
▁Radio	-10.3077
▁Mathew	-10.3077
▁unique	-10.3077
▁contact	-10.3077
▁street	-10.3077
▁invasion	-10.3077
▁pleasure	-10.3077
▁gradual	-10.3077
concert	-10.3078
▁patrol	-10.3078
▁quarte	-10.3078
▁gift	-10.3078
▁gross	-10.3078
▁Zapat	-10.3078
▁jump	-10.3078
▁convert	-10.3078
▁royal	-10.3078
▁Italian	-10.3078
▁protest	-10.3078
▁skill	-10.3078
▁Observ	-10.3078
▁cloth	-10.3078
▁Tiger	-10.3078
▁elevat	-10.3078
▁recover	-10.3078
▁Giant	-10.3078
▁myelo	-10.3079
▁anchor	-10.3079
▁expedition	-10.3079
agoda	-10.3079
▁tactic	-10.3079
▁fair	-10.3079
▁Territor	-10.3079
ibilit	-10.3079
▁drug	-10.3079
▁relocat	-10.3079
▁Prime	-10.308
knowledge	-10.308
▁Turk	-10.3081
▁opposite	-10.3081
▁Cabr	-10.3081
▁Patric	-10.3081
▁provision	-10.3082
▁Lewis	-10.3083
▁loan	-10.3083
▁label	-10.3084
▁assassination	-10.3084
▁motor	-10.3084
▁occupie	-10.3084
▁danger	-10.3085
folk	-10.3086
▁graphic	-10.3086
▁Sala	-10.3086
▁Sound	-10.3086
▁else	-10.3087
▁Order	-10.3087
▁indicat	-10.3087
▁Greek	-10.3088
▁Andrew	-10.3088
▁Phoe	-10.3088
▁profi	-10.3089
▁Bloo	-10.3089
▁unlike	-10.3089
▁Treat	-10.309
▁Walk	-10.309
▁violation	-10.3091
▁spear	-10.3091
▁Hunt	-10.3092
▁fear	-10.3092
▁tank	-10.3092
▁sacr	-10.3095
▁investigation	-10.3098
▁occasional	-10.3099
▁chair	-10.31
▁Karl	-10.31
▁desire	-10.3101
▁timber	-10.3102
▁confus	-10.3103
▁Elli	-10.3106
▁chamber	-10.3109
▁Light	-10.311
circula	-10.3117
▁Master	-10.3119
▁Republican	-10.3121
▁survivor	-10.3124
▁scal	-10.3129
▁scrap	-10.3131
▁dry	-10.3133
▁Law	-10.3135
▁Angl	-10.3142
▁theatre	-10.3143
▁Dub	-10.3152
▁Classic	-10.3157
▁shop	-10.3161
▁Free	-10.3167
▁spur	-10.3167
▁182	-10.3169
lano	-10.3183
▁grace	-10.3186
▁spot	-10.3193
▁Jai	-10.3194
▁Pig	-10.3218
awi	-10.3235
▁speaker	-10.328
▁fung	-10.3301
▁concept	-10.3367
▁matur	-10.3369
▁Live	-10.3375
reek	-10.3396
▁Stran	-10.359
▁Timb	-10.3673
▁suit	-10.3695
ody	-10.3727
▁univers	-10.3733
ilitar	-10.3743
▁lie	-10.3745
▁comple	-10.3754
▁communi	-10.3758
▁mediu	-10.3784
bridge	-10.3816
NS	-10.385
bour	-10.3855
▁Luc	-10.388
▁Dav	-10.3911
▁net	-10.3937
▁defens	-10.3979
rism	-10.4056
▁Indi	-10.4056
▁shoot	-10.4064
▁800	-10.4091
ext	-10.4092
▁Hom	-10.4107
▁Lowe	-10.4129
▁investigat	-10.4166
rivate	-10.4185
▁tax	-10.4187
▁compet	-10.4188
▁symmetr	-10.4188
ü	-10.4188
▁computer	-10.4188
▁judge	-10.4188
olithic	-10.4188
sufficient	-10.4188
è	-10.4188
▁Dharm	-10.4188
▁GPU	-10.4188
▁Gregor	-10.4188
▁Industr	-10.4188
▁acclaim	-10.4188
▁agricultur	-10.4188
▁celebrate	-10.4188
▁chemotherap	-10.4188
▁collaborat	-10.4188
▁expansion	-10.4188
▁honour	-10.4188
▁interchange	-10.4188
▁interpretation	-10.4188
▁predecessor	-10.4188
▁prohibit	-10.4188
▁register	-10.4188
▁sharp	-10.4188
▁skull	-10.4188
▁speculat	-10.4188
▁sustain	-10.4188
ó	-10.4188
▁Veeru	-10.4188
▁acquire	-10.4188
▁emerge	-10.4188
▁science	-10.4188
▁Wizard	-10.4188
▁unusual	-10.4189
▁Christoph	-10.4189
▁Celtic	-10.4189
▁exchang	-10.4189
▁glass	-10.4189
▁sector	-10.4189
lotilla	-10.4189
▁prize	-10.4189
▁Dahl	-10.4189
▁Bishop	-10.4189
▁fertil	-10.4189
▁Knight	-10.4189
▁patron	-10.4189
▁representative	-10.4189
▁fresh	-10.4189
▁Hungar	-10.4189
▁orient	-10.4189
▁Championship	-10.4189
▁battlecruiser	-10.4189
▁characteristics	-10.4189
▁depth	-10.4189
▁push	-10.4189
▁wrong	-10.4189
▁permit	-10.4189
venue	-10.419
▁Watson	-10.419
▁contend	-10.419
▁Feeling	-10.419
▁spouse	-10.419
lephant	-10.419
▁expert	-10.419
umour	-10.419
▁resistan	-10.4191
▁dispatch	-10.4191
▁drop	-10.4192
▁fold	-10.4192
▁merge	-10.4193
▁Media	-10.4193
▁arrange	-10.4195
▁spoke	-10.4195
hief	-10.4195
▁Garden	-10.4195
▁battleship	-10.4195
▁wait	-10.4196
▁Morris	-10.4196
▁seventeen	-10.4196
▁disaster	-10.4197
▁Hockey	-10.4197
▁brown	-10.4198
phone	-10.4199
▁collective	-10.4199
▁channel	-10.42
▁Jeff	-10.42
▁bank	-10.42
▁boundar	-10.42
▁entit	-10.4201
▁Arab	-10.4202
▁valid	-10.4202
▁distinctive	-10.4204
▁Gael	-10.4205
▁reform	-10.4206
▁Coast	-10.4206
▁Sam	-10.4207
▁background	-10.4208
gott	-10.4208
▁stem	-10.4209
▁grand	-10.421
▁cease	-10.4212
▁Astra	-10.4213
▁tourist	-10.4214
▁therap	-10.4217
▁pier	-10.422
wich	-10.422
▁Now	-10.4221
▁Carol	-10.4222
▁Medal	-10.4223
umba	-10.4225
▁bill	-10.4225
▁Heav	-10.4227
▁Mix	-10.4228
▁brand	-10.4229
▁Father	-10.4231
▁1927	-10.4231
▁circulat	-10.4231
opper	-10.424
▁Lane	-10.4241
▁Epi	-10.425
▁absen	-10.4251
▁Eight	-10.4251
▁suburb	-10.4252
▁moment	-10.4252
▁trip	-10.4253
▁sunk	-10.4256
▁hot	-10.426
▁Cali	-10.4261
▁hang	-10.4263
▁recogni	-10.4271
▁Edit	-10.4283
▁chee	-10.4328
▁Wom	-10.4338
▁annul	-10.4343
kov	-10.4362
nfant	-10.4379
▁Mount	-10.4385
article	-10.4386
erzy	-10.4415
▁energ	-10.4446
▁weigh	-10.4487
▁Eric	-10.4504
▁Bulloc	-10.4505
▁Borea	-10.4527
hapel	-10.4539
onega	-10.4606
lternative	-10.461
▁Terri	-10.4648
▁secretar	-10.465
▁classifi	-10.4666
ndi	-10.4673
▁transfer	-10.4831
lash	-10.4897
▁spen	-10.4915
solu	-10.4942
▁Comed	-10.4944
structure	-10.5067
Q	-10.5073
▁Georg	-10.5074
J	-10.5075
power	-10.5089
fire	-10.51
differentiat	-10.5192
▁prim	-10.5239
▁Asia	-10.5248
▁recognise	-10.5328
metric	-10.5369
utter	-10.5369
nstruction	-10.5373
tract	-10.5379
▁Univers	-10.5379
▁independen	-10.5384
▁Studi	-10.5408
▁considerabl	-10.5413
▁excavat	-10.5417
▁differ	-10.5431
▁synth	-10.5434
scape	-10.5434
publica	-10.5438
▁hieroglyph	-10.5438
▁megalith	-10.5438
▁professor	-10.5438
▁reinforce	-10.5438
ş	-10.5438
μ	-10.5438
▁Additional	-10.5438
▁Communi	-10.5438
▁Congress	-10.5438
▁Cornwall	-10.5438
▁Pakistan	-10.5438
▁absolute	-10.5438
▁affair	-10.5438
▁circle	-10.5438
▁disciple	-10.5438
▁divorce	-10.5438
▁explosive	-10.5438
▁festival	-10.5438
▁hemmema	-10.5438
▁manipulat	-10.5438
▁monitor	-10.5438
▁parliament	-10.5438
▁supposed	-10.5438
▁synonym	-10.5438
▁unsuccessful	-10.5438
▁evolv	-10.5438
▁reject	-10.5438
▁sketch	-10.5438
▁substrate	-10.5438
▁withdraw	-10.5438
▁culminati	-10.5438
▁librar	-10.5438
▁remember	-10.5438
▁rescue	-10.5438
▁retreat	-10.5438
▁scatter	-10.5438
▁soundtrack	-10.5438
▁visual	-10.5438
scopic	-10.5438
▁Science	-10.5438
▁Stephen	-10.5438
▁check	-10.5439
▁temporar	-10.5439
▁Field	-10.5439
▁Croatia	-10.5439
▁courtyard	-10.5439
▁doubt	-10.5439
▁colour	-10.5439
▁constant	-10.5439
▁outlaw	-10.5439
▁frame	-10.5439
▁sleep	-10.5439
▁Draft	-10.5439
▁ambi	-10.5439
▁Julian	-10.5439
▁prompt	-10.5439
▁improvement	-10.5439
▁ornament	-10.5439
▁crash	-10.5439
▁regulat	-10.5439
▁sacrament	-10.5439
▁roof	-10.5439
▁Claw	-10.5439
▁Personal	-10.5439
▁rumor	-10.5439
▁thousand	-10.5439
▁Agust	-10.5439
▁admit	-10.5439
▁engagement	-10.5439
▁quake	-10.5439
▁melod	-10.5439
▁volu	-10.5439
▁Thai	-10.5439
cipal	-10.5439
▁certifi	-10.5439
▁Lanka	-10.5439
mographic	-10.5439
▁deriv	-10.5439
mobili	-10.544
echnolog	-10.544
▁retain	-10.544
cycle	-10.544
▁Beau	-10.544
▁transform	-10.544
▁option	-10.544
▁categori	-10.544
▁conclusion	-10.544
▁Moore	-10.5441
▁estuar	-10.5441
▁jet	-10.5441
▁brigade	-10.5441
▁desert	-10.5441
▁observator	-10.5441
▁ignor	-10.5441
▁examin	-10.5442
▁knock	-10.5442
sthetic	-10.5442
▁Health	-10.5442
▁remin	-10.5442
▁flank	-10.5442
▁consent	-10.5443
▁infra	-10.5443
vital	-10.5443
▁consequence	-10.5443
venge	-10.5443
▁Typ	-10.5444
▁Carib	-10.5445
▁bull	-10.5446
▁simpl	-10.5446
▁financ	-10.5447
▁emphasize	-10.5447
▁Kenne	-10.5447
▁magic	-10.5447
▁airport	-10.5447
ecular	-10.545
▁understand	-10.545
▁Rome	-10.545
▁Where	-10.545
▁assistance	-10.545
▁Metal	-10.545
▁interact	-10.5452
▁highlight	-10.5452
▁identi	-10.5452
ultan	-10.5454
oxide	-10.5456
timate	-10.5456
▁rebound	-10.5457
older	-10.5457
▁Qian	-10.5458
▁adaptation	-10.5461
mediate	-10.5462
ologist	-10.5464
▁bright	-10.5464
▁warship	-10.5465
▁Domin	-10.5469
▁chor	-10.547
▁strange	-10.5474
berg	-10.5477
▁Belle	-10.5477
▁Petti	-10.5481
▁medal	-10.5481
▁Vol	-10.5482
▁cris	-10.549
jian	-10.5497
▁moist	-10.5499
▁cool	-10.5503
▁isolat	-10.552
▁Moder	-10.5525
▁Merc	-10.5534
Sports	-10.554
istrict	-10.5554
patch	-10.5572
▁Emm	-10.5664
▁Georgia	-10.5673
justice	-10.5675
core	-10.5744
▁revolutionar	-10.5758
lectronic	-10.5777
▁supervis	-10.5809
▁medi	-10.5899
grad	-10.6019
rator	-10.6037
ohl	-10.6132
amine	-10.6166
▁Independen	-10.6228
bol	-10.628
ogen	-10.6318
nami	-10.633
spiration	-10.6355
▁alternat	-10.638
deck	-10.6442
▁roman	-10.6489
natural	-10.6498
clear	-10.6498
writer	-10.6501
▁revolution	-10.6517
water	-10.6531
ountain	-10.6647
where	-10.6659
median	-10.6675
130	-10.6696
weight	-10.6805
▁commit	-10.6814
▁politic	-10.6821
▁physic	-10.6824
▁opin	-10.6858
▁Seven	-10.6862
▁Hospital	-10.6865
▁fruit	-10.6867
imultaneous	-10.6867
onstitution	-10.6867
Æ	-10.6867
₹	-10.6867
▁Alexand	-10.6867
▁Croydon	-10.6867
▁Mitchell	-10.6867
▁celebrit	-10.6867
▁circumstance	-10.6867
▁commemorat	-10.6867
▁complain	-10.6867
▁component	-10.6867
▁conscious	-10.6867
▁criminal	-10.6867
▁cytogenetic	-10.6867
▁deposit	-10.6867
▁elaborat	-10.6867
▁environment	-10.6867
▁ethnic	-10.6867
▁exercis	-10.6867
▁favour	-10.6867
▁fragment	-10.6867
▁frigate	-10.6867
▁homosexual	-10.6867
▁immigrant	-10.6867
▁legitimate	-10.6867
▁perspective	-10.6867
▁preparation	-10.6867
▁resignation	-10.6867
▁submitt	-10.6867
▁substantial	-10.6867
▁tribute	-10.6867
upreme	-10.6867
▁Adorj	-10.6867
▁Survey	-10.6867
▁complicat	-10.6867
▁exhaust	-10.6867
▁merchant	-10.6867
▁microscop	-10.6867
▁swallow	-10.6867
▁compil	-10.6867
▁proportion	-10.6867
▁repris	-10.6867
▁Beginn	-10.6867
▁Period	-10.6867
▁Treasur	-10.6867
avanna	-10.6867
▁repeat	-10.6867
▁turret	-10.6867
▁Actress	-10.6867
usiness	-10.6867
munition	-10.6867
▁athlete	-10.6867
▁entertain	-10.6867
morph	-10.6867
▁narrat	-10.6867
▁Worthing	-10.6867
▁humor	-10.6867
▁integr	-10.6867
▁acknowledg	-10.6867
▁Pilot	-10.6867
▁villain	-10.6867
▁fourteen	-10.6867
▁relief	-10.6867
▁citizen	-10.6867
▁annex	-10.6867
▁dominat	-10.6867
▁galley	-10.6867
▁witness	-10.6867
▁distance	-10.6867
▁wound	-10.6868
▁clean	-10.6868
▁costume	-10.6868
▁fortification	-10.6868
▁moderat	-10.6868
▁rival	-10.6868
▁offense	-10.6868
▁Liao	-10.6868
▁Small	-10.6868
recipi	-10.6868
▁monk	-10.6868
▁render	-10.6869
▁Lemon	-10.6869
▁precept	-10.6869
▁edition	-10.6869
▁joke	-10.6869
▁philosoph	-10.6869
▁fifteen	-10.6869
▁elder	-10.6869
▁Production	-10.6869
▁flag	-10.6869
▁tube	-10.6869
bishop	-10.6869
▁magn	-10.6869
▁Antoni	-10.6869
▁electric	-10.687
▁harm	-10.687
▁battalion	-10.687
▁Marshal	-10.687
▁Arena	-10.687
▁proceed	-10.687
▁easi	-10.6871
▁Airport	-10.6871
▁narrow	-10.6871
▁persist	-10.6871
▁Commo	-10.6871
▁politician	-10.6872
▁trait	-10.6872
▁Martin	-10.6872
▁Jean	-10.6872
▁copy	-10.6873
▁guil	-10.6874
▁false	-10.6874
▁Devon	-10.6875
▁divers	-10.6875
▁fusion	-10.6876
▁variant	-10.6876
▁string	-10.6876
▁wild	-10.6876
▁translat	-10.6876
▁chose	-10.6877
▁Duck	-10.6877
▁induc	-10.6878
bury	-10.6878
▁attendant	-10.6878
▁ensure	-10.6879
▁boom	-10.6879
▁lust	-10.688
▁serialis	-10.688
▁steal	-10.688
▁rushe	-10.6883
▁bond	-10.6883
▁Head	-10.6884
▁satir	-10.6885
▁invest	-10.6887
▁teen	-10.6888
▁pack	-10.6888
▁assess	-10.6888
▁Liber	-10.6889
▁settl	-10.6891
burg	-10.6896
ndra	-10.6897
▁Massa	-10.6901
▁amphi	-10.6907
▁consum	-10.691
▁mistake	-10.6914
▁clima	-10.6921
rmament	-10.6924
▁definiti	-10.6926
▁Licen	-10.6929
▁bodie	-10.6933
lamo	-10.6943
▁conscien	-10.6948
▁slave	-10.6956
▁lai	-10.6988
owsk	-10.7019
▁funera	-10.7026
▁antiquar	-10.7096
▁Harv	-10.7145
ferr	-10.7164
ctiv	-10.7187
pear	-10.7271
▁admir	-10.7276
▁Conservati	-10.7288
▁valu	-10.7441
▁averag	-10.7575
▁separat	-10.7683
▁advent	-10.7727
▁Terr	-10.79
capa	-10.797
▁calculat	-10.7987
legation	-10.8018
Work	-10.8163
found	-10.817
space	-10.8173
print	-10.8196
ntiquari	-10.8271
▁Class	-10.84
▁significan	-10.848
▁unrest	-10.8482
▁fiction	-10.8494
▁Crusade	-10.8499
scribe	-10.8503
▁influen	-10.8506
▁organiz	-10.851
▁violat	-10.8511
▁radi	-10.8516
▁assassin	-10.8522
▁emphasi	-10.8522
xpress	-10.8529
▁Confedera	-10.853
▁squad	-10.8533
▁photo	-10.8533
ategor	-10.8534
▁Surviv	-10.8534
▁atmospher	-10.8534
appropriate	-10.8534
sophisticat	-10.8534
“	-10.8534
▁Beaufighter	-10.8534
▁Character	-10.8534
▁Parliament	-10.8534
▁accident	-10.8534
▁advocate	-10.8534
▁aggressive	-10.8534
▁audio	-10.8534
▁compound	-10.8534
▁concentration	-10.8534
▁corrupt	-10.8534
▁demolition	-10.8534
▁devastat	-10.8534
▁disappear	-10.8534
▁emperor	-10.8534
▁equivalen	-10.8534
▁escort	-10.8534
▁exclude	-10.8534
▁exclusive	-10.8534
▁helicopter	-10.8534
▁horrifi	-10.8534
▁kilometre	-10.8534
▁manuscript	-10.8534
▁microlight	-10.8534
▁neighbor	-10.8534
▁nickname	-10.8534
▁predominant	-10.8534
▁principle	-10.8534
▁recruit	-10.8534
▁resurrect	-10.8534
▁suppress	-10.8534
▁technical	-10.8534
▁trawler	-10.8534
▁volunteer	-10.8534
▁adjust	-10.8534
▁compell	-10.8534
▁decommission	-10.8534
▁dictator	-10.8534
▁drink	-10.8534
▁licence	-10.8534
▁passenger	-10.8534
▁surpass	-10.8534
▁vague	-10.8534
▁Benedict	-10.8534
▁Matthew	-10.8534
▁Return	-10.8534
▁Summer	-10.8534
▁Support	-10.8534
▁enclos	-10.8534
▁patient	-10.8534
▁potato	-10.8534
▁treasur	-10.8534
disciplin	-10.8534
▁Gambi	-10.8534
▁Rhode	-10.8534
▁compani	-10.8534
▁embark	-10.8534
▁household	-10.8534
ว	-10.8534
▁Destroy	-10.8534
▁clutch	-10.8534
▁dismiss	-10.8534
▁doctor	-10.8534
▁nineteen	-10.8534
▁vertical	-10.8534
▁Peace	-10.8534
▁implement	-10.8534
▁summar	-10.8534
▁timeslot	-10.8534
parallel	-10.8534
▁drove	-10.8534
▁activist	-10.8534
▁demonstrat	-10.8534
▁sixteen	-10.8534
▁twel	-10.8534
▁octa	-10.8534
▁pillar	-10.8534
▁McK	-10.8534
satisf	-10.8534
▁identify	-10.8534
etallurg	-10.8534
▁Sabre	-10.8534
▁Release	-10.8534
▁priest	-10.8534
▁Hudson	-10.8534
▁sitcom	-10.8534
iracle	-10.8534
▁shelter	-10.8534
▁Strong	-10.8534
▁portico	-10.8534
▁replie	-10.8534
▁precise	-10.8534
▁abuse	-10.8534
▁fruitbod	-10.8534
▁piano	-10.8534
nclave	-10.8534
▁talent	-10.8534
▁Again	-10.8534
▁facult	-10.8534
▁feud	-10.8534
▁price	-10.8534
▁contest	-10.8535
▁crops	-10.8535
▁reserv	-10.8535
▁Point	-10.8535
▁skelet	-10.8535
▁vegeta	-10.8535
▁Fashi	-10.8535
▁Comic	-10.8535
▁Power	-10.8535
▁Design	-10.8535
▁Reviv	-10.8535
efact	-10.8535
▁typewriter	-10.8536
▁temperature	-10.8536
▁reconstruct	-10.8536
otype	-10.8536
▁attach	-10.8536
▁trail	-10.8536
▁hunt	-10.8536
▁Demon	-10.8536
▁Front	-10.8536
▁donation	-10.8536
▁phase	-10.8536
▁Otta	-10.8537
▁beaut	-10.8537
▁empt	-10.8537
▁exceed	-10.8537
▁attain	-10.8537
▁Confederate	-10.8537
▁roll	-10.8538
▁tweeter	-10.8538
▁Gallia	-10.8538
▁infant	-10.8538
▁lift	-10.8538
▁Clair	-10.8538
▁idol	-10.8539
▁stylis	-10.8539
▁Glob	-10.8539
▁Regula	-10.854
▁mysteri	-10.854
▁synthesi	-10.854
▁betray	-10.854
▁vary	-10.8541
axonom	-10.8541
▁impos	-10.8542
▁Linga	-10.8542
▁Hind	-10.8544
▁Sieg	-10.8544
▁Montag	-10.8547
wealth	-10.855
▁Abb	-10.8552
▁Curr	-10.8552
▁Emil	-10.8553
pdate	-10.8555
Fisch	-10.8561
limina	-10.8561
▁Bann	-10.8562
tocra	-10.857
▁dubi	-10.8578
▁Zionis	-10.8592
▁characterize	-10.8621
▁rape	-10.8625
Vision	-10.8661
ragon	-10.8668
▁plea	-10.867
ogram	-10.8801
▁originate	-10.8859
▁danc	-10.8891
rug	-10.9058
gravi	-10.9196
▁Danc	-10.9524
▁revis	-10.9825
▁undertake	-10.9873
cott	-10.9918
mount	-10.994
▁methodologi	-10.996
▁Bomb	-11.0139
▁prehistor	-11.0153
continu	-11.0159
court	-11.0162
SN	-11.0173
direct	-11.0176
▁Concept	-11.0178
▁somewh	-11.0356
▁opera	-11.0366
dvanc	-11.0377
▁hygro	-11.0407
servation	-11.0429
▁econom	-11.0435
▁occasion	-11.0488
▁specifi	-11.0494
▁Kauf	-11.051
volution	-11.052
pector	-11.0525
onflict	-11.0526
ommercial	-11.0526
xplain	-11.0529
▁sculpt	-11.053
attalion	-11.053
istinguish	-11.0531
▁champion	-11.0532
×	-11.3034
â	-11.3034
č	-11.3034
ţ	-11.3034
”	-11.3034
⁄	-11.3034
ร	-11.3034
Z	-11.6007
ż	-11.6367
ρ	-11.6367
ي	-11.6367
ง	-11.6367
า	-11.6367
ิ	-11.6367
→	-11.6367
侗	-11.6367
王	-11.6367
ă	-11.6367
ś	-11.6367
ั	-11.6367
а	-11.6367
í	-12.1254
ø	-12.1367
Š	-12.1367
δ	-12.1367
*	-12.1367
ã	-12.1367
đ	-12.1367
ź	-12.1367
ν	-12.1367
τ	-12.1367
ี	-12.1367
่	-12.1367
์	-12.1367
♯	-12.1367
春	-12.1367
ū	-12.1367
Y	-13.101
周	-13.1346
เ	-13.1347
ก	-13.1348
م	-13.1349
К	-13.135
ï	-13.1351
Ł	-13.1352
ñ	-13.1353
อ	-13.1354
š	-13.1355
ç	-13.1356
É	-13.1357
−	-13.1358
ń	-13.1359
ł	-13.136
!	-13.1361
:	-13.1362
)	-13.1363
'	-13.1364
=	-13.1365
"	-13.1366
ล	-13.1367
Ż	-13.1367
>	-13.1367
^	-13.1367
`	-13.1367
Ö	-13.1367
Ü	-13.1367
æ	-13.1367
ë	-13.1367
ú	-13.1367
ć	-13.1367
ę	-13.1367
Ľ	-13.1367
ō	-13.1367
œ	-13.1367
ș	-13.1367
́	-13.1367
έ	-13.1367
ί	-13.1367
α	-13.1367
γ	-13.1367
ε	-13.1367
ι	-13.1367
κ	-13.1367
ξ	-13.1367
ο	-13.1367
ς	-13.1367
σ	-13.1367
ό	-13.1367
з	-13.1367
й	-13.1367
н	-13.1367
ы	-13.1367
ت	-13.1367
د	-13.1367
س	-13.1367
ช	-13.1367
ซ	-13.1367
ฐ	-13.1367
ด	-13.1367
ต	-13.1367
พ	-13.1367
ภ	-13.1367
ม	-13.1367
ย	-13.1367
ษ	-13.1367
ห	-13.1367
ึ	-13.1367
แ	-13.1367
ไ	-13.1367
้	-13.1367
ḏ	-13.1367
ṯ	-13.1367
ạ	-13.1367
ὑ	-13.1367
‘	-13.1367
€	-13.1367
♭	-13.1367
の	-13.1367
ァ	-13.1367
ア	-13.1367
キ	-13.1367
ュ	-13.1367
リ	-13.1367
ル	-13.1367
ヴ	-13.1367
七	-13.1367
世	-13.1367
云	-13.1367
人	-13.1367
傳	-13.1367
光	-13.1367
其	-13.1367
劉	-13.1367
华	-13.1367
同	-13.1367
國	-13.1367
場	-13.1367
夫	-13.1367
姚	-13.1367
孟	-13.1367
建	-13.1367
張	-13.1367
彩	-13.1367
後	-13.1367
懷	-13.1367
戦	-13.1367
明	-13.1367
李	-13.1367
清	-13.1367
湯	-13.1367
琪	-13.1367
秋	-13.1367
翠	-13.1367
肖	-13.1367
英	-13.1367
许	-13.1367
贵	-13.1367
钱	-13.1367
集	-13.1367
顯	-13.1367
�	-13.1367
ț	-13.1367
ß	-13.1367
,	-13.1367
в	-13.1367
к	-13.1367
р	-13.1367
с	-13.1367
ค	-13.1367
中	-13.1367
大	-13.1367
宋	-13.1367
岳	-13.1367
興	-13.1367
