<unk>	0
<s>	0
</s>	0
▁t	-0
he	-1
▁a	-2
in	-3
▁the	-4
er	-5
on	-6
▁,	-7
re	-8
▁s	-9
ed	-10
▁o	-11
nd	-12
▁w	-13
at	-14
▁.	-15
or	-16
it	-17
is	-18
en	-19
▁c	-20
es	-21
▁f	-22
ar	-23
▁of	-24
▁b	-25
al	-26
an	-27
▁in	-28
ing	-29
▁p	-30
▁and	-31
as	-32
ic	-33
▁to	-34
▁m	-35
▁d	-36
ou	-37
▁h	-38
ion	-39
le	-40
▁T	-41
ro	-42
▁re	-43
▁"	-44
ent	-45
▁A	-46
▁th	-47
il	-48
▁C	-49
▁=	-50
▁S	-51
▁1	-52
el	-53
st	-54
▁@	-55
▁l	-56
▁e	-57
ac	-58
om	-59
▁n	-60
ad	-61
ol	-62
ec	-63
▁The	-64
am	-65
ur	-66
▁was	-67
▁on	-68
▁g	-69
▁I	-70
▁B	-71
ly	-72
▁M	-73
▁'	-74
▁for	-75
-@	-76
▁@-@	-77
et	-78
id	-79
im	-80
ir	-81
ig	-82
iv	-83
ot	-84
▁as	-85
ith	-86
ter	-87
her	-88
us	-89
ation	-90
ow	-91
ut	-92
▁that	-93
▁with	-94
ay	-95
▁st	-96
▁W	-97
▁H	-98
▁F	-99
▁R	-100
▁is	-101
▁P	-102
▁be	-103
▁2	-104
ul	-105
▁al	-106
ch	-107
▁G	-108
ra	-109
ver	-110
em	-111
ce	-112
▁wh	-113
un	-114
th	-115
um	-116
and	-117
ist	-118
ers	-119
▁N	-120
▁D	-121
▁at	-122
est	-123
▁J	-124
▁by	-125
▁(	-126
▁L	-127
▁)	-128
▁con	-129
os	-130
ag	-131
▁19	-132
ct	-133
▁an	-134
rom	-135
av	-136
▁it	-137
od	-138
▁he	-139
ri	-140
▁E	-141
ain	-142
00	-143
▁his	-144
ies	-145
op	-146
▁from	-147
res	-148
▁de	-149
▁su	-150
▁pro	-151
if	-152
▁r	-153
▁com	-154
▁O	-155
ew	-156
ort	-157
ld	-158
pp	-159
all	-160
ere	-161
▁se	-162
oc	-163
ill	-164
ore	-165
igh	-166
ant	-167
▁were	-168
▁sh	-169
ity	-170
ich	-171
ab	-172
▁In	-173
pt	-174
▁v	-175
ate	-176
ear	-177
ess	-178
▁ex	-179
▁or	-180
▁ch	-181
gh	-182
ard	-183
ong	-184
ast	-185
ak	-186
art	-187
qu	-188
▁ar	-189
ord	-190
ber	-191
rit	-192
ated	-193
ial	-194
▁pl	-195
▁sp	-196
ame	-197
▁U	-198
ip	-199
▁are	-200
ud	-201
ish	-202
se	-203
▁Ch	-204
▁which	-205
ment	-206
▁had	-207
ov	-208
ect	-209
▁St	-210
ough	-211
ive	-212
ian	-213
red	-214
ia	-215
▁K	-216
our	-217
▁;	-218
ound	-219
ack	-220
og	-221
▁u	-222
▁not	-223
▁her	-224
ine	-225
ost	-226
▁le	-227
ue	-228
ell	-229
ical	-230
ave	-231
ight	-232
nt	-233
ap	-234
ther	-235
▁y	-236
ary	-237
ous	-238
cc	-239
ge	-240
▁k	-241
▁un	-242
ub	-243
so	-244
out	-245
ru	-246
end	-247
▁3	-248
wo	-249
▁–	-250
ran	-251
fter	-252
▁also	-253
ork	-254
ust	-255
▁20	-256
▁200	-257
▁has	-258
ould	-259
▁inc	-260
ure	-261
▁V	-262
▁their	-263
▁Y	-264
ign	-265
ult	-266
ide	-267
ory	-268
own	-269
ations	-270
▁but	-271
per	-272
irst	-273
▁ab	-274
age	-275
ire	-276
land	-277
ach	-278
▁bec	-279
▁4	-280
▁one	-281
▁per	-282
▁its	-283
.@	-284
▁@.@	-285
ome	-286
▁ad	-287
▁two	-288
▁cont	-289
▁int	-290
▁res	-291
ater	-292
▁rec	-293
▁she	-294
▁been	-295
▁:	-296
ff	-297
ition	-298
ie	-299
uring	-300
ok	-301
ence	-302
▁5	-303
▁cl	-304
▁have	-305
▁des	-306
▁who	-307
use	-308
▁this	-309
pl	-310
hed	-311
orm	-312
▁He	-313
ally	-314
ime	-315
▁whe	-316
▁j	-317
▁18	-318
▁man	-319
ite	-320
▁first	-321
are	-322
▁all	-323
ass	-324
ry	-325
▁Al	-326
ond	-327
ree	-328
▁201	-329
▁ag	-330
▁Th	-331
ke	-332
▁sc	-333
▁play	-334
▁after	-335
▁app	-336
▁off	-337
▁en	-338
▁dis	-339
act	-340
ark	-341
ely	-342
oll	-343
▁other	-344
▁ser	-345
ile	-346
▁year	-347
▁comm	-348
du	-349
iz	-350
ions	-351
ited	-352
ric	-353
ious	-354
▁pre	-355
▁Un	-356
▁im	-357
ang	-358
ces	-359
ance	-360
nder	-361
▁over	-362
int	-363
▁te	-364
ubl	-365
▁go	-366
▁part	-367
ph	-368
ib	-369
ount	-370
ild	-371
lud	-372
▁comp	-373
ey	-374
port	-375
ress	-376
able	-377
,@	-378
een	-379
old	-380
▁@,@	-381
ember	-382
man	-383
▁It	-384
▁up	-385
ice	-386
ors	-387
ft	-388
▁rem	-389
ced	-390
ons	-391
▁ev	-392
ates	-393
ents	-394
▁out	-395
ix	-396
ied	-397
wn	-398
ade	-399
▁Ar	-400
▁more	-401
ep	-402
ail	-403
ase	-404
ock	-405
ings	-406
▁ear	-407
ace	-408
inal	-409
ath	-410
▁time	-411
ng	-412
ind	-413
▁gr	-414
▁they	-415
mer	-416
▁att	-417
ction	-418
rough	-419
▁7	-420
ose	-421
▁work	-422
▁him	-423
▁cent	-424
fer	-425
▁us	-426
oy	-427
▁bet	-428
▁includ	-429
ron	-430
▁cons	-431
▁into	-432
▁during	-433
▁ne	-434
reat	-435
▁under	-436
▁Z	-437
▁tr	-438
les	-439
ased	-440
ered	-441
aw	-442
▁ro	-443
ward	-444
ular	-445
▁would	-446
▁6	-447
▁most	-448
te	-449
▁fe	-450
ities	-451
ict	-452
▁new	-453
▁only	-454
rib	-455
▁Brit	-456
oth	-457
▁rel	-458
ason	-459
olog	-460
bum	-461
one	-462
▁sec	-463
▁char	-464
▁8	-465
ilm	-466
urn	-467
ens	-468
ual	-469
▁Sh	-470
▁writ	-471
hn	-472
tern	-473
ween	-474
▁ass	-475
▁them	-476
▁co	-477
▁act	-478
▁dec	-479
orn	-480
▁album	-481
ren	-482
ters	-483
▁9	-484
▁On	-485
▁199	-486
az	-487
ake	-488
vel	-489
orld	-490
▁between	-491
▁Jo	-492
ans	-493
hes	-494
ood	-495
ved	-496
▁end	-497
▁Whe	-498
▁can	-499
▁num	-500
▁four	-501
▁Wh	-502
form	-503
▁Com	-504
▁ret	-505
▁ship	-506
▁spec	-507
oss	-508
▁fl	-509
▁we	-510
iew	-511
iss	-512
▁so	-513
ublic	-514
▁about	-515
hel	-516
tle	-517
ollow	-518
hip	-519
▁three	-520
▁Se	-521
▁bu	-522
▁sub	-523
▁through	-524
▁am	-525
▁ra	-526
▁acc	-527
ished	-528
owe	-529
▁do	-530
ays	-531
gan	-532
▁bo	-533
ern	-534
ove	-535
▁mon	-536
▁later	-537
▁produ	-538
ily	-539
▁again	-540
ational	-541
▁record	-542
elf	-543
▁kn	-544
ob	-545
ars	-546
ike	-547
other	-548
▁charac	-549
aid	-550
▁17	-551
▁form	-552
pe	-553
amp	-554
ism	-555
orth	-556
▁film	-557
▁when	-558
▁being	-559
ins	-560
ten	-561
ames	-562
▁As	-563
▁me	-564
ause	-565
▁She	-566
▁god	-567
▁than	-568
▁00	-569
ific	-570
urch	-571
▁sur	-572
▁while	-573
▁season	-574
▁def	-575
▁became	-576
▁0	-577
ick	-578
ined	-579
▁Con	-580
▁rele	-581
▁second	-582
ve	-583
arn	-584
ived	-585
▁New	-586
▁Le	-587
▁sy	-588
als	-589
ank	-590
ted	-591
ull	-592
ury	-593
oint	-594
▁both	-595
arg	-596
oup	-597
outh	-598
usic	-599
very	-600
ating	-601
▁John	-602
▁made	-603
ts	-604
ty	-605
erson	-606
though	-607
▁follow	-608
▁number	-609
ole	-610
▁Re	-611
▁pop	-612
▁such	-613
▁supp	-614
▁British	-615
ics	-616
▁10	-617
▁pr	-618
fore	-619
▁inter	-620
▁qu	-621
ener	-622
▁call	-623
ral	-624
ised	-625
▁ind	-626
▁high	-627
▁years	-628
▁United	-629
air	-630
lect	-631
▁194	-632
▁sever	-633
ae	-634
▁Bl	-635
ject	-636
▁inv	-637
▁there	-638
▁12	-639
▁An	-640
▁city	-641
▁main	-642
▁many	-643
ower	-644
▁reg	-645
ordan	-646
ife	-647
ink	-648
led	-649
▁ob	-650
▁ent	-651
▁arch	-652
▁some	-653
▁where	-654
▁Jordan	-655
der	-656
▁ac	-657
eler	-658
iel	-659
ince	-660
▁000	-661
▁Mar	-662
▁Rac	-663
▁pe	-664
vern	-665
▁sign	-666
▁Ind	-667
▁dif	-668
ather	-669
▁hist	-670
▁inst	-671
ug	-672
way	-673
▁Ad	-674
ided	-675
▁war	-676
irect	-677
ision	-678
gy	-679
rist	-680
▁Rachel	-681
▁remain	-682
ines	-683
▁mil	-684
owever	-685
io	-686
iet	-687
▁Is	-688
ures	-689
▁exp	-690
▁tra	-691
▁desc	-692
▁long	-693
gr	-694
▁bl	-695
▁War	-696
▁used	-697
▁Wheeler	-698
ale	-699
▁air	-700
▁then	-701
aj	-702
ck	-703
▁est	-704
▁mov	-705
▁This	-706
▁orig	-707
▁these	-708
▁op	-709
ican	-710
raft	-711
view	-712
▁arm	-713
▁cre	-714
▁disc	-715
ists	-716
▁Comm	-717
▁pres	-718
ording	-719
▁character	-720
erm	-721
ert	-722
rans	-723
▁pol	-724
▁could	-725
▁before	-726
▁—	-727
ble	-728
ier	-729
ros	-730
son	-731
▁Cl	-732
▁De	-733
▁em	-734
▁All	-735
▁bel	-736
▁car	-737
▁rep	-738
ments	-739
▁song	-740
ann	-741
ool	-742
▁no	-743
ement	-744
ivers	-745
▁Amer	-746
▁game	-747
▁well	-748
▁ca	-749
▁sm	-750
▁min	-751
▁set	-752
ccess	-753
erman	-754
▁prov	-755
▁11	-756
amed	-757
cept	-758
▁add	-759
▁bro	-760
▁offic	-761
▁several	-762
ful	-763
▁At	-764
oman	-765
▁dep	-766
imes	-767
ober	-768
▁York	-769
hou	-770
ared	-771
▁Ire	-772
▁var	-773
▁you	-774
ional	-775
riend	-776
aeolog	-777
▁Ireland	-778
▁perform	-779
ative	-780
▁lead	-781
▁resp	-782
▁said	-783
▁return	-784
▁series	-785
▁met	-786
velop	-787
▁show	-788
▁team	-789
▁Christ	-790
▁Ge	-791
▁bat	-792
▁col	-793
▁hum	-794
rench	-795
▁each	-796
▁After	-797
▁German	-798
▁direct	-799
▁century	-800
erv	-801
▁loc	-802
▁own	-803
▁name	-804
▁French	-805
▁because	-806
ek	-807
▁II	-808
▁ty	-809
ople	-810
▁May	-811
aking	-812
ually	-813
▁oper	-814
▁against	-815
▁success	-816
fl	-817
pr	-818
ting	-819
▁any	-820
vers	-821
▁fin	-822
▁sch	-823
itary	-824
▁conc	-825
▁prev	-826
▁trans	-827
▁called	-828
▁describ	-829
▁including	-830
au	-831
up	-832
▁/	-833
inn	-834
aged	-835
▁care	-836
▁crit	-837
▁World	-838
▁began	-839
▁music	-840
▁contin	-841
▁command	-842
ield	-843
▁Pol	-844
▁Town	-845
▁feat	-846
▁near	-847
▁sing	-848
▁found	-849
rol	-850
▁15	-851
▁Fe	-852
ball	-853
▁193	-854
▁known	-855
ane	-856
ony	-857
ized	-858
ident	-859
▁back	-860
▁stud	-861
▁Q	-862
oot	-863
oun	-864
▁dam	-865
▁div	-866
▁life	-867
▁ships	-868
leet	-869
osed	-870
raph	-871
ured	-872
▁198	-873
▁list	-874
▁rece	-875
▁Church	-876
▁develop	-877
ex	-878
ven	-879
▁Be	-880
▁And	-881
▁like	-882
▁along	-883
▁build	-884
▁count	-885
▁design	-886
vernment	-887
▁although	-888
ys	-889
ird	-890
its	-891
ired	-892
ored	-893
▁195	-894
▁Col	-895
▁For	-896
▁did	-897
▁may	-898
▁dest	-899
▁serv	-900
▁States	-901
▁public	-902
▁report	-903
ah	-904
ton	-905
ute	-906
▁art	-907
▁fam	-908
▁cast	-909
▁dist	-910
▁White	-911
▁partic	-912
ash	-913
ued	-914
▁gu	-915
ajor	-916
▁pos	-917
▁six	-918
▁Fran	-919
▁same	-920
▁small	-921
avy	-922
rum	-923
ste	-924
▁sl	-925
▁bas	-926
▁consid	-927
▁though	-928
alk	-929
alv	-930
ise	-931
bers	-932
ides	-933
▁191	-934
▁prom	-935
▁differ	-936
▁$	-937
enn	-938
▁Sc	-939
▁str	-940
▁open	-941
iation	-942
▁support	-943
▁military	-944
gg	-945
row	-946
uth	-947
▁br	-948
gypt	-949
▁Yue	-950
▁giv	-951
▁unt	-952
▁Zhou	-953
eneral	-954
▁Egypt	-955
▁early	-956
▁start	-957
▁following	-958
ik	-959
▁%	-960
▁ph	-961
ural	-962
▁Acc	-963
▁Eng	-964
▁det	-965
▁exc	-966
▁ext	-967
▁imp	-968
ences	-969
eston	-970
▁King	-971
▁point	-972
▁state	-973
▁197	-974
▁Jun	-975
ected	-976
ining	-977
▁gods	-978
▁people	-979
ook	-980
ues	-981
und	-982
▁13	-983
ible	-984
▁Mon	-985
▁Pro	-986
▁mem	-987
ution	-988
▁cult	-989
▁appear	-990
▁person	-991
▁result	-992
▁American	-993
lev	-994
▁Sp	-995
▁mat	-996
▁Roman	-997
▁const	-998
▁group	-999
▁played	-1000
▁However	-1001
▁another	-1002
▁released	-1003
▁described	-1004
elt	-1005
ilt	-1006
uch	-1007
uro	-1008
▁ep	-1009
ient	-1010
▁use	-1011
ially	-1012
wards	-1013
▁They	-1014
▁world	-1015
▁comple	-1016
uss	-1017
▁Pr	-1018
lish	-1019
ross	-1020
▁196	-1021
▁Arm	-1022
▁adv	-1023
▁day	-1024
▁ins	-1025
▁home	-1026
▁publ	-1027
illion	-1028
▁There	-1029
▁until	-1030
▁According	-1031
▁[	-1032
▁16	-1033
▁192	-1034
▁Nic	-1035
▁dra	-1036
▁eng	-1037
▁ref	-1038
▁Galv	-1039
▁Sept	-1040
▁took	-1041
ically	-1042
▁among	-1043
▁class	-1044
▁named	-1045
▁since	-1046
▁around	-1047
▁career	-1048
▁Galveston	-1049
▁archaeolog	-1050
▁]	-1051
roy	-1052
send	-1053
▁Fey	-1054
▁Nov	-1055
ately	-1056
aving	-1057
ended	-1058
ility	-1059
▁area	-1060
▁init	-1061
ission	-1062
▁belie	-1063
▁story	-1064
▁Command	-1065
▁Townsend	-1066
▁received	-1067
ax	-1068
ium	-1069
ages	-1070
▁mod	-1071
▁Euro	-1072
▁five	-1073
▁Black	-1074
▁those	-1075
▁school	-1076
▁previous	-1077
▁September	-1078
yn	-1079
ange	-1080
omin	-1081
▁dem	-1082
▁Char	-1083
▁sent	-1084
▁will	-1085
ruction	-1086
▁Nicole	-1087
any	-1088
ague	-1089
ilar	-1090
self	-1091
▁Oct	-1092
▁gun	-1093
▁med	-1094
▁tit	-1095
▁larg	-1096
▁last	-1097
▁real	-1098
▁Europe	-1099
▁species	-1100
ech	-1101
ret	-1102
▁30	-1103
used	-1104
▁Can	-1105
▁bre	-1106
▁iss	-1107
▁men	-1108
▁sim	-1109
▁sit	-1110
ittle	-1111
▁book	-1112
▁left	-1113
ograph	-1114
▁major	-1115
▁October	-1116
▁November	-1117
▁original	-1118
▁my	-1119
aced	-1120
ruct	-1121
▁Car	-1122
▁eff	-1123
▁occ	-1124
▁old	-1125
acing	-1126
ained	-1127
▁June	-1128
▁line	-1129
▁port	-1130
▁based	-1131
▁child	-1132
orp	-1133
▁We	-1134
▁ann	-1135
▁opp	-1136
▁run	-1137
▁Ross	-1138
▁even	-1139
▁estab	-1140
▁place	-1141
▁stand	-1142
▁single	-1143
ats	-1144
els	-1145
emp	-1146
urt	-1147
▁Gu	-1148
▁tw	-1149
ants	-1150
arge	-1151
ians	-1152
vent	-1153
▁Aug	-1154
▁ant	-1155
stein	-1156
▁expl	-1157
▁head	-1158
▁fleet	-1159
▁incre	-1160
▁right	-1161
▁August	-1162
▁review	-1163
▁within	-1164
▁Univers	-1165
anc	-1166
ris	-1167
▁av	-1168
▁Dec	-1169
aster	-1170
▁best	-1171
▁rest	-1172
▁North	-1173
▁appro	-1174
▁human	-1175
▁often	-1176
▁history	-1177
▁government	-1178
ll	-1179
ica	-1180
med	-1181
ode	-1182
▁NB	-1183
ript	-1184
▁His	-1185
▁soc	-1186
▁typ	-1187
ister	-1188
▁infl	-1189
▁term	-1190
riends	-1191
▁million	-1192
▁relations	-1193
uc	-1194
iod	-1195
iqu	-1196
tal	-1197
▁Go	-1198
▁Or	-1199
▁Ph	-1200
ness	-1201
stem	-1202
▁epis	-1203
▁hand	-1204
▁order	-1205
ulation	-1206
▁position	-1207
ady	-1208
ets	-1209
iam	-1210
ina	-1211
yle	-1212
ital	-1213
pped	-1214
rote	-1215
uary	-1216
▁You	-1217
▁mar	-1218
▁top	-1219
ances	-1220
craft	-1221
ified	-1222
▁Sarn	-1223
▁pass	-1224
▁very	-1225
▁eight	-1226
▁wrote	-1227
bo	-1228
xt	-1229
aim	-1230
ged	-1231
mar	-1232
▁24	-1233
▁Am	-1234
▁if	-1235
empt	-1236
side	-1237
▁Bro	-1238
▁Jan	-1239
▁win	-1240
stant	-1241
▁Aust	-1242
▁just	-1243
▁land	-1244
▁large	-1245
▁Sarnia	-1246
▁system	-1247
▁control	-1248
▁popular	-1249
▁published	-1250
..	-1251
ery	-1252
ots	-1253
▁Br	-1254
▁sk	-1255
aven	-1256
ival	-1257
over	-1258
pril	-1259
ried	-1260
▁...	-1261
▁hel	-1262
▁won	-1263
ently	-1264
ument	-1265
▁2013	-1266
▁down	-1267
ground	-1268
▁April	-1269
▁built	-1270
▁games	-1271
▁particular	-1272
ai	-1273
erc	-1274
▁14	-1275
▁dr	-1276
iers	-1277
iety	-1278
▁obs	-1279
ively	-1280
▁prof	-1281
▁rank	-1282
▁site	-1283
▁stat	-1284
resent	-1285
▁event	-1286
▁stated	-1287
▁December	-1288
ef	-1289
alf	-1290
rew	-1291
lear	-1292
oute	-1293
▁Jew	-1294
inkel	-1295
▁2010	-1296
▁much	-1297
▁death	-1298
▁Finkel	-1299
▁should	-1300
▁attempt	-1301
▁building	-1302
▁considered	-1303
▁Finkelstein	-1304
▁relationship	-1305
apt	-1306
ley	-1307
ody	-1308
omb	-1309
rop	-1310
val	-1311
ves	-1312
▁Me	-1313
▁No	-1314
ives	-1315
omet	-1316
▁Rep	-1317
▁cap	-1318
▁deb	-1319
▁fun	-1320
useum	-1321
▁City	-1322
▁auth	-1323
▁prot	-1324
▁requ	-1325
▁side	-1326
▁trad	-1327
▁March	-1328
▁exper	-1329
▁month	-1330
▁family	-1331
▁import	-1332
▁island	-1333
▁destroy	-1334
▁written	-1335
▁addition	-1336
▁X	-1337
dom	-1338
get	-1339
mas	-1340
osa	-1341
▁25	-1342
ards	-1343
▁Pal	-1344
▁less	-1345
▁great	-1346
▁polit	-1347
▁power	-1348
▁south	-1349
▁histor	-1350
▁period	-1351
▁similar	-1352
▁different	-1353
▁University	-1354
inc	-1355
osp	-1356
▁Pl	-1357
▁ed	-1358
▁km	-1359
ices	-1360
ivil	-1361
ouse	-1362
▁Ant	-1363
▁ele	-1364
▁equ	-1365
▁tak	-1366
▁way	-1367
athan	-1368
ggest	-1369
▁Army	-1370
▁earl	-1371
▁fact	-1372
▁good	-1373
▁allow	-1374
▁short	-1375
▁still	-1376
▁During	-1377
▁episode	-1378
▁suggest	-1379
▁various	-1380
▁writing	-1381
▁Christmas	-1382
arm	-1383
ize	-1384
urs	-1385
▁En	-1386
▁Im	-1387
▁Ju	-1388
▁er	-1389
ains	-1390
hest	-1391
line	-1392
omen	-1393
ones	-1394
rent	-1395
rick	-1396
▁beg	-1397
▁vis	-1398
▁base	-1399
▁camp	-1400
▁comb	-1401
▁cour	-1402
▁make	-1403
▁need	-1404
▁James	-1405
▁influ	-1406
▁attack	-1407
▁become	-1408
levision	-1409
▁included	-1410
▁returned	-1411
co	-1412
ne	-1413
oor	-1414
▁US	-1415
eter	-1416
ford	-1417
rand	-1418
▁NBA	-1419
▁fig	-1420
▁With	-1421
▁days	-1422
▁late	-1423
inning	-1424
▁third	-1425
▁castle	-1426
▁Britain	-1427
▁General	-1428
▁deities	-1429
ior	-1430
▁es	-1431
iver	-1432
uted	-1433
▁led	-1434
▁put	-1435
▁West	-1436
▁away	-1437
▁capt	-1438
▁conf	-1439
▁mark	-1440
▁post	-1441
▁wall	-1442
▁what	-1443
urther	-1444
▁track	-1445
▁author	-1446
▁January	-1447
▁project	-1448
▁aircraft	-1449
▁produced	-1450
▁throughout	-1451
eng	-1452
hen	-1453
▁Fl	-1454
abor	-1455
ches	-1456
hern	-1457
inds	-1458
oyal	-1459
ract	-1460
rael	-1461
▁God	-1462
▁beh	-1463
▁che	-1464
▁cur	-1465
▁2006	-1466
▁Cent	-1467
▁Jack	-1468
▁doll	-1469
▁gold	-1470
▁half	-1471
▁suff	-1472
▁west	-1473
ention	-1474
▁Canad	-1475
▁award	-1476
▁excav	-1477
▁moved	-1478
▁north	-1479
orthern	-1480
▁Israel	-1481
▁Republic	-1482
▁represent	-1483
app	-1484
▁Ir	-1485
▁la	-1486
ched	-1487
reed	-1488
▁fem	-1489
▁now	-1490
▁too	-1491
ience	-1492
▁2008	-1493
▁help	-1494
▁seen	-1495
▁surv	-1496
▁take	-1497
▁invol	-1498
▁title	-1499
▁Jewish	-1500
▁Constant	-1501
▁training	-1502
bs	-1503
idd	-1504
rak	-1505
▁Ex	-1506
▁jo	-1507
▁enc	-1508
▁leg	-1509
▁mag	-1510
▁2009	-1511
▁Geor	-1512
▁appe	-1513
▁kill	-1514
▁week	-1515
▁chart	-1516
▁final	-1517
▁given	-1518
▁father	-1519
▁having	-1520
▁himself	-1521
▁present	-1522
by	-1523
sk	-1524
ope	-1525
par	-1526
ense	-1527
rang	-1528
▁Her	-1529
▁Rec	-1530
▁pat	-1531
▁spe	-1532
▁conv	-1533
▁draw	-1534
▁feet	-1535
▁felt	-1536
▁poss	-1537
▁Count	-1538
▁Irish	-1539
▁South	-1540
▁level	-1541
▁never	-1542
▁noted	-1543
▁organ	-1544
▁battle	-1545
▁former	-1546
▁strong	-1547
▁Austral	-1548
▁profess	-1549
▁Although	-1550
aul	-1551
irc	-1552
ales	-1553
ling	-1554
quad	-1555
ring	-1556
sequ	-1557
▁Che	-1558
▁arr	-1559
▁par	-1560
▁ste	-1561
ights	-1562
ither	-1563
iving	-1564
▁2011	-1565
▁fire	-1566
▁view	-1567
▁times	-1568
▁young	-1569
▁Polish	-1570
▁release	-1571
▁National	-1572
▁Constantine	-1573
ald	-1574
ask	-1575
fic	-1576
iol	-1577
min	-1578
mir	-1579
ott	-1580
▁23	-1581
▁27	-1582
aper	-1583
aves	-1584
ects	-1585
ourn	-1586
reen	-1587
▁due	-1588
▁hig	-1589
▁law	-1590
▁lim	-1591
▁nov	-1592
▁ten	-1593
imony	-1594
isted	-1595
▁Rock	-1596
idence	-1597
▁These	-1598
▁gener	-1599
▁Nathan	-1600
▁English	-1601
▁damaged	-1602
▁members	-1603
▁reported	-1604
▁continued	-1605
▁television	-1606
yl	-1607
▁GA	-1608
▁mm	-1609
ader	-1610
ault	-1611
illo	-1612
pite	-1613
ploy	-1614
▁Des	-1615
▁Sch	-1616
▁gen	-1617
istic	-1618
▁Card	-1619
▁Hist	-1620
▁Navy	-1621
▁Will	-1622
▁died	-1623
▁east	-1624
▁foot	-1625
▁turn	-1626
ection	-1627
lished	-1628
▁activ	-1629
▁every	-1630
▁mater	-1631
▁forces	-1632
▁Egyptian	-1633
▁population	-1634
ado	-1635
arv	-1636
iva	-1637
ulf	-1638
yri	-1639
▁50	-1640
▁Gr	-1641
▁gl	-1642
▁Sec	-1643
▁pil	-1644
earch	-1645
▁2007	-1646
▁Arch	-1647
▁Mark	-1648
▁When	-1649
▁gave	-1650
▁proc	-1651
▁self	-1652
▁sold	-1653
▁town	-1654
astern	-1655
estern	-1656
▁India	-1657
▁Route	-1658
▁Shiva	-1659
▁elect	-1660
▁local	-1661
▁Little	-1662
▁commun	-1663
▁spacing	-1664
▁without	-1665
▁recorded	-1666
▁signific	-1667
▁operations	-1668
▁established	-1669
con	-1670
ico	-1671
omm	-1672
rag	-1673
vol	-1674
▁So	-1675
ront	-1676
▁mix	-1677
▁sex	-1678
▁tow	-1679
ached	-1680
antic	-1681
ature	-1682
field	-1683
▁July	-1684
▁Lock	-1685
▁Park	-1686
▁born	-1687
▁next	-1688
▁prop	-1689
▁repl	-1690
▁viol	-1691
▁word	-1692
▁chang	-1693
▁earth	-1694
▁refer	-1695
▁somet	-1696
▁total	-1697
▁Island	-1698
▁critic	-1699
▁female	-1700
▁origin	-1701
▁Kingdom	-1702
▁further	-1703
▁however	-1704
▁include	-1705
▁material	-1706
▁developed	-1707
▁important	-1708
br	-1709
sp	-1710
ape	-1711
bru	-1712
cer	-1713
ray	-1714
▁Af	-1715
▁Tr	-1716
adem	-1717
ores	-1718
oted	-1719
▁Air	-1720
▁One	-1721
▁ord	-1722
▁sol	-1723
▁sou	-1724
▁tre	-1725
iness	-1726
▁came	-1727
▁does	-1728
▁held	-1729
▁hold	-1730
▁role	-1731
▁vers	-1732
bruary	-1733
ensive	-1734
▁above	-1735
▁break	-1736
▁range	-1737
▁County	-1738
▁damage	-1739
▁February	-1740
▁official	-1741
▁provided	-1742
▁successful	-1743
be	-1744
azz	-1745
day	-1746
ler	-1747
▁Bu	-1748
▁Em	-1749
▁Te	-1750
▁sw	-1751
ably	-1752
ator	-1753
cent	-1754
ened	-1755
ideo	-1756
ving	-1757
▁Ang	-1758
▁Tru	-1759
▁aff	-1760
▁ter	-1761
▁tri	-1762
duced	-1763
▁2012	-1764
▁Krak	-1765
▁Haven	-1766
▁Royal	-1767
▁claim	-1768
▁ident	-1769
▁press	-1770
▁women	-1771
▁common	-1772
▁remained	-1773
▁characters	-1774
ML	-1775
aps	-1776
oid	-1777
▁By	-1778
▁Gl	-1779
▁ke	-1780
aces	-1781
cher	-1782
ounc	-1783
ster	-1784
▁dou	-1785
▁ide	-1786
▁pra	-1787
▁pri	-1788
ental	-1789
iated	-1790
inals	-1791
osaur	-1792
▁full	-1793
aching	-1794
▁relig	-1795
▁seven	-1796
▁style	-1797
▁League	-1798
▁church	-1799
▁formed	-1800
▁scored	-1801
▁country	-1802
▁Northern	-1803
▁political	-1804
▁tradition	-1805
ternational	-1806
▁construction	-1807
▁!	-1808
aby	-1809
enc	-1810
ung	-1811
▁28	-1812
▁Ac	-1813
▁UK	-1814
▁cr	-1815
▁ft	-1816
▁hy	-1817
angu	-1818
augh	-1819
tain	-1820
▁Ear	-1821
▁Two	-1822
▁bus	-1823
▁few	-1824
▁fif	-1825
▁val	-1826
ailed	-1827
atory	-1828
ising	-1829
itted	-1830
jillo	-1831
lying	-1832
miral	-1833
ounds	-1834
ronic	-1835
▁2015	-1836
▁Love	-1837
▁Russ	-1838
▁band	-1839
▁past	-1840
▁prim	-1841
▁rock	-1842
▁stru	-1843
▁Great	-1844
▁Music	-1845
▁While	-1846
▁react	-1847
▁storm	-1848
▁using	-1849
▁events	-1850
▁modern	-1851
▁mother	-1852
▁others	-1853
▁ranked	-1854
▁Trujillo	-1855
sh	-1856
uk	-1857
▁’	-1858
ner	-1859
off	-1860
rem	-1861
ude	-1862
umb	-1863
▁40	-1864
aint	-1865
echn	-1866
ells	-1867
ison	-1868
uals	-1869
▁Cat	-1870
▁Pri	-1871
▁cut	-1872
azine	-1873
ering	-1874
gress	-1875
ondon	-1876
▁Furt	-1877
▁Port	-1878
▁circ	-1879
▁crew	-1880
▁fict	-1881
▁fore	-1882
▁guns	-1883
▁plan	-1884
ration	-1885
▁Afric	-1886
▁becom	-1887
▁estim	-1888
▁London	-1889
▁accept	-1890
▁player	-1891
▁Furtado	-1892
▁earlier	-1893
▁eventually	-1894
▁significant	-1895
AA	-1896
gn	-1897
zz	-1898
▁&	-1899
ani	-1900
▁31	-1901
▁Bo	-1902
▁Cr	-1903
▁Ed	-1904
▁Pe	-1905
▁el	-1906
alth	-1907
arch	-1908
eder	-1909
most	-1910
stit	-1911
ston	-1912
▁100	-1913
▁AML	-1914
▁Jes	-1915
▁fre	-1916
▁lik	-1917
ality	-1918
atter	-1919
enced	-1920
igned	-1921
pping	-1922
urric	-1923
▁2014	-1924
▁body	-1925
▁conn	-1926
▁decl	-1927
▁defe	-1928
▁earn	-1929
▁free	-1930
▁stre	-1931
▁whom	-1932
ertain	-1933
ficult	-1934
▁assoc	-1935
▁issue	-1936
imately	-1937
ination	-1938
valiers	-1939
▁France	-1940
▁advant	-1941
▁depict	-1942
▁making	-1943
volution	-1944
▁commerc	-1945
▁director	-1946
▁Chevaliers	-1947
▁production	-1948
▁?	-1949
ael	-1950
ago	-1951
leg	-1952
omp	-1953
ont	-1954
aton	-1955
duct	-1956
hess	-1957
idge	-1958
olay	-1959
olic	-1960
rict	-1961
ruis	-1962
▁184	-1963
▁Bar	-1964
▁Div	-1965
▁Hol	-1966
▁Mat	-1967
▁Med	-1968
▁Min	-1969
▁Soc	-1970
▁mid	-1971
▁see	-1972
aying	-1973
board	-1974
iting	-1975
ories	-1976
oring	-1977
rance	-1978
round	-1979
▁Bill	-1980
▁Bull	-1981
▁Vill	-1982
▁army	-1983
▁club	-1984
▁coll	-1985
▁coup	-1986
▁love	-1987
▁pred	-1988
▁star	-1989
elling	-1990
gether	-1991
▁Eaton	-1992
▁Rober	-1993
▁field	-1994
▁intro	-1995
▁manag	-1996
▁novel	-1997
▁Sholay	-1998
▁behind	-1999
▁dollar	-2000
▁either	-2001
▁ground	-2002
▁signed	-2003
▁created	-2004
▁culture	-2005
▁players	-2006
▁service	-2007
▁special	-2008
▁Anderson	-2009
▁together	-2010
▁difficult	-2011
▁commercial	-2012
na	-2013
ara	-2014
ead	-2015
edy	-2016
ene	-2017
ett	-2018
ham	-2019
itz	-2020
ogn	-2021
ops	-2022
sen	-2023
unk	-2024
▁ce	-2025
gram	-2026
ivid	-2027
lege	-2028
medi	-2029
ways	-2030
yria	-2031
▁185	-2032
▁Atl	-2033
▁III	-2034
▁Mag	-2035
▁Red	-2036
▁Sap	-2037
▁age	-2038
▁dev	-2039
▁pur	-2040
▁son	-2041
▁Cath	-2042
▁miss	-2043
▁move	-2044
▁raid	-2045
▁sour	-2046
echism	-2047
▁First	-2048
▁civil	-2049
▁langu	-2050
▁least	-2051
▁treat	-2052
▁water	-2053
ography	-2054
quadron	-2055
▁museum	-2056
▁points	-2057
▁social	-2058
urricane	-2059
▁Admiral	-2060
▁England	-2061
▁Saprang	-2062
▁appoint	-2063
▁current	-2064
▁friends	-2065
▁instead	-2066
▁respect	-2067
▁respons	-2068
▁thought	-2069
▁Cardinal	-2070
▁appeared	-2071
▁national	-2072
▁according	-2073
▁development	-2074
MS	-2075
hy	-2076
▁21	-2077
▁Ag	-2078
▁NH	-2079
▁Ne	-2080
ades	-2081
akes	-2082
ases	-2083
▁But	-2084
▁Off	-2085
▁Tex	-2086
▁arg	-2087
▁ill	-2088
▁low	-2089
▁nec	-2090
▁sym	-2091
iddle	-2092
ology	-2093
▁Best	-2094
▁East	-2095
▁fund	-2096
▁lack	-2097
▁temp	-2098
▁upon	-2099
▁want	-2100
atural	-2101
ington	-2102
ouncil	-2103
▁Union	-2104
▁broad	-2105
▁close	-2106
▁creat	-2107
▁force	-2108
▁mount	-2109
▁shown	-2110
▁songs	-2111
▁sound	-2112
▁super	-2113
▁taken	-2114
▁Canada	-2115
▁recogn	-2116
▁decided	-2117
▁highest	-2118
▁individ	-2119
▁largest	-2120
▁outside	-2121
▁officers	-2122
▁advantage	-2123
▁performed	-2124
▁performance	-2125
acy	-2126
ama	-2127
key	-2128
opp	-2129
reg	-2130
▁26	-2131
▁Of	-2132
▁ir	-2133
aled	-2134
atic	-2135
ecut	-2136
ests	-2137
less	-2138
ogue	-2139
ying	-2140
▁186	-2141
▁Man	-2142
▁cor	-2143
▁voc	-2144
▁wat	-2145
epend	-2146
orpor	-2147
thern	-2148
ynast	-2149
▁Film	-2150
▁From	-2151
▁Mich	-2152
▁deal	-2153
▁ever	-2154
▁goal	-2155
▁hour	-2156
▁loss	-2157
ressed	-2158
▁avail	-2159
▁light	-2160
▁Awards	-2161
▁agreed	-2162
▁almost	-2163
▁center	-2164
▁forced	-2165
▁friend	-2166
▁object	-2167
▁taking	-2168
▁worked	-2169
▁History	-2170
▁brother	-2171
▁remains	-2172
▁schools	-2173
▁children	-2174
▁elements	-2175
▁entrance	-2176
▁Catechism	-2177
▁commandment	-2178
▁professional	-2179
af	-2180
com	-2181
ese	-2182
gra	-2183
van	-2184
▁Ab	-2185
▁Lo	-2186
▁Ro	-2187
▁Tw	-2188
ayer	-2189
fect	-2190
iest	-2191
ille	-2192
inct	-2193
read	-2194
wood	-2195
▁188	-2196
▁190	-2197
▁Ass	-2198
▁Ter	-2199
▁ask	-2200
▁bur	-2201
▁cal	-2202
▁del	-2203
▁fac	-2204
▁ris	-2205
▁syn	-2206
arent	-2207
asons	-2208
cient	-2209
elled	-2210
erved	-2211
oviet	-2212
▁2005	-2213
▁Cold	-2214
▁Howe	-2215
▁grow	-2216
▁live	-2217
▁look	-2218
▁once	-2219
▁read	-2220
▁reve	-2221
ishing	-2222
itions	-2223
ournal	-2224
▁Other	-2225
▁draft	-2226
▁minor	-2227
▁remix	-2228
▁white	-2229
ization	-2230
▁Indian	-2231
▁Robert	-2232
▁employ	-2233
▁indust	-2234
▁joined	-2235
▁general	-2236
▁process	-2237
▁program	-2238
▁version	-2239
▁features	-2240
▁Australia	-2241
▁interview	-2242
▁Archaeolog	-2243
▁previously	-2244
▁particularly	-2245
bl	-2246
yc	-2247
ze	-2248
aff	-2249
ief	-2250
▁Sw	-2251
elli	-2252
enth	-2253
oses	-2254
work	-2255
▁189	-2256
▁Bat	-2257
▁Que	-2258
▁bar	-2259
▁cop	-2260
▁cra	-2261
▁how	-2262
▁sum	-2263
itect	-2264
ought	-2265
▁2004	-2266
▁Cole	-2267
▁Comp	-2268
▁Lady	-2269
▁Phil	-2270
▁Valk	-2271
▁corn	-2272
▁grad	-2273
▁keep	-2274
▁laun	-2275
▁lost	-2276
▁type	-2277
▁vill	-2278
ential	-2279
etball	-2280
rought	-2281
▁coast	-2282
▁cover	-2283
▁round	-2284
ibility	-2285
ription	-2286
▁Finals	-2287
▁George	-2288
▁Palest	-2289
▁convoy	-2290
▁observ	-2291
▁proper	-2292
▁served	-2293
▁America	-2294
▁Friends	-2295
▁William	-2296
▁account	-2297
▁station	-2298
ification	-2299
▁business	-2300
▁designed	-2301
▁evidence	-2302
▁research	-2303
▁sentence	-2304
▁fictional	-2305
▁originally	-2306
hib	-2307
let	-2308
rea	-2309
▁22	-2310
▁Er	-2311
▁Mc	-2312
▁Su	-2313
▁TV	-2314
▁Uy	-2315
adio	-2316
apan	-2317
aret	-2318
chie	-2319
graf	-2320
utes	-2321
▁Act	-2322
▁Ark	-2323
▁Bel	-2324
▁Dep	-2325
▁HMS	-2326
▁aer	-2327
▁den	-2328
▁fav	-2329
▁get	-2330
▁gre	-2331
▁hon	-2332
▁mer	-2333
▁wid	-2334
ament	-2335
ander	-2336
emble	-2337
osing	-2338
usion	-2339
▁1990	-2340
▁Mont	-2341
▁Serv	-2342
▁Star	-2343
▁Wild	-2344
▁able	-2345
▁appl	-2346
▁situ	-2347
▁tour	-2348
▁wide	-2349
ective	-2350
isions	-2351
uments	-2352
▁Brook	-2353
▁Early	-2354
▁Frank	-2355
▁Japan	-2356
▁Texas	-2357
▁achie	-2358
▁black	-2359
▁exist	-2360
▁stone	-2361
▁techn	-2362
▁tower	-2363
▁video	-2364
osaurus	-2365
▁Soviet	-2366
▁action	-2367
▁always	-2368
▁entire	-2369
▁invest	-2370
▁states	-2371
▁Society	-2372
▁capital	-2373
▁central	-2374
▁collect	-2375
▁reached	-2376
▁Catholic	-2377
▁Markgraf	-2378
▁antimony	-2379
▁featured	-2380
▁specific	-2381
▁suffered	-2382
▁surround	-2383
▁Billboard	-2384
▁available	-2385
▁religious	-2386
▁underground	-2387
ma	-2388
ox	-2389
▁°	-2390
bor	-2391
▁El	-2392
▁cm	-2393
aily	-2394
ceed	-2395
ency	-2396
hing	-2397
iter	-2398
orts	-2399
play	-2400
ples	-2401
▁Dav	-2402
▁Def	-2403
▁Fei	-2404
▁Mac	-2405
▁Naz	-2406
▁San	-2407
▁Val	-2408
▁gra	-2409
▁non	-2410
▁reb	-2411
▁rul	-2412
▁sac	-2413
iring	-2414
orial	-2415
ption	-2416
riage	-2417
▁2003	-2418
▁Game	-2419
▁Long	-2420
▁Paul	-2421
▁Uygh	-2422
▁adop	-2423
▁aver	-2424
▁cost	-2425
▁cred	-2426
▁fall	-2427
▁find	-2428
▁insp	-2429
▁nine	-2430
▁wife	-2431
▁wood	-2432
ements	-2433
ending	-2434
▁Charl	-2435
▁Domin	-2436
▁Jesus	-2437
▁added	-2438
▁areas	-2439
▁clear	-2440
▁cross	-2441
▁debut	-2442
▁fight	-2443
▁night	-2444
▁paper	-2445
▁quick	-2446
▁separ	-2447
▁think	-2448
artment	-2449
ecutive	-2450
ributed	-2451
▁Follow	-2452
▁Poland	-2453
▁engine	-2454
▁figure	-2455
▁little	-2456
▁writer	-2457
▁Charles	-2458
▁Chronic	-2459
▁arrived	-2460
▁awarded	-2461
▁brought	-2462
▁concern	-2463
▁conduct	-2464
▁finally	-2465
▁leading	-2466
▁limited	-2467
▁percent	-2468
▁reviews	-2469
▁started	-2470
▁European	-2471
▁Valkyria	-2472
▁followed	-2473
▁interest	-2474
▁involved	-2475
▁language	-2476
▁monument	-2477
▁students	-2478
▁teaching	-2479
▁transfer	-2480
▁Following	-2481
▁initially	-2482
▁supported	-2483
▁appearance	-2484
▁excavation	-2485
VP	-2486
abb	-2487
hod	-2488
iec	-2489
isc	-2490
ski	-2491
ump	-2492
urb	-2493
vin	-2494
▁mi	-2495
▁ru	-2496
hips	-2497
iber	-2498
ream	-2499
rest	-2500
ulpt	-2501
▁500	-2502
▁Del	-2503
▁MVP	-2504
▁Met	-2505
▁NHL	-2506
▁Ton	-2507
▁ens	-2508
▁pot	-2509
▁saw	-2510
ansas	-2511
ators	-2512
imate	-2513
itive	-2514
▁1942	-2515
▁2000	-2516
▁2001	-2517
▁Club	-2518
▁Crus	-2519
▁Hell	-2520
▁Most	-2521
▁Penn	-2522
▁Week	-2523
▁Year	-2524
▁baby	-2525
▁ball	-2526
▁bask	-2527
▁educ	-2528
▁feel	-2529
▁pers	-2530
▁purp	-2531
▁says	-2532
▁shot	-2533
▁told	-2534
▁wind	-2535
anding	-2536
icated	-2537
▁Carol	-2538
▁house	-2539
▁match	-2540
▁means	-2541
▁miles	-2542
▁remov	-2543
ception	-2544
ilities	-2545
▁determ	-2546
▁double	-2547
▁fourth	-2548
▁league	-2549
▁promot	-2550
▁sevent	-2551
▁slight	-2552
▁submar	-2553
▁territ	-2554
▁things	-2555
▁carried	-2556
▁critics	-2557
▁initial	-2558
▁located	-2559
▁praised	-2560
▁serious	-2561
sequently	-2562
▁believed	-2563
▁football	-2564
▁magazine	-2565
▁personal	-2566
▁services	-2567
▁completed	-2568
▁estimated	-2569
▁generally	-2570
▁increased	-2571
▁sometimes	-2572
ls	-2573
sc	-2574
ait	-2575
amb	-2576
ata	-2577
het	-2578
oph	-2579
utz	-2580
▁Co	-2581
▁Je	-2582
▁To	-2583
▁di	-2584
▁lo	-2585
ails	-2586
aker	-2587
ateg	-2588
ique	-2589
rast	-2590
ries	-2591
▁Bay	-2592
▁Per	-2593
▁Tim	-2594
▁aud	-2595
▁inf	-2596
▁mot	-2597
▁rom	-2598
▁squ	-2599
▁tro	-2600
arily	-2601
erous	-2602
orary	-2603
rania	-2604
rying	-2605
▁Gold	-2606
▁Norm	-2607
▁Stud	-2608
▁come	-2609
▁cond	-2610
▁host	-2611
▁know	-2612
▁mach	-2613
▁mean	-2614
▁mult	-2615
▁must	-2616
▁phys	-2617
▁risk	-2618
▁save	-2619
▁size	-2620
▁soon	-2621
▁went	-2622
ounter	-2623
vernor	-2624
▁Angel	-2625
▁Fleet	-2626
▁Saint	-2627
▁Under	-2628
▁Young	-2629
▁fifth	-2630
▁films	-2631
▁flood	-2632
▁front	-2633
▁goals	-2634
▁pract	-2635
▁schol	-2636
▁sites	-2637
▁theat	-2638
▁trade	-2639
▁woman	-2640
ference	-2641
stitute	-2642
▁Africa	-2643
▁Second	-2644
▁Urania	-2645
▁across	-2646
▁divine	-2647
▁flying	-2648
▁immedi	-2649
▁opened	-2650
▁struck	-2651
▁Central	-2652
▁College	-2653
▁Service	-2654
▁conclud	-2655
▁despite	-2656
▁figures	-2657
▁refused	-2658
▁regular	-2659
▁subject	-2660
▁winning	-2661
▁Atlantic	-2662
▁Romanian	-2663
▁distinct	-2664
▁increase	-2665
▁marriage	-2666
▁particip	-2667
▁establish	-2668
▁Government	-2669
ez	-2670
ges	-2671
ift	-2672
igg	-2673
iná	-2674
oon	-2675
rap	-2676
▁45	-2677
▁80	-2678
▁Po	-2679
▁Qu	-2680
▁Sm	-2681
agod	-2682
blem	-2683
enty	-2684
face	-2685
ires	-2686
▁Ali	-2687
▁Pat	-2688
▁Sal	-2689
▁Sim	-2690
▁Sur	-2691
▁abs	-2692
▁bad	-2693
▁box	-2694
▁esc	-2695
▁hyg	-2696
▁nuc	-2697
▁rev	-2698
▁tom	-2699
aries	-2700
asure	-2701
ented	-2702
iding	-2703
itude	-2704
ivate	-2705
ockey	-2706
ready	-2707
▁2002	-2708
▁Area	-2709
▁Blue	-2710
▁Camp	-2711
▁Corn	-2712
▁Fair	-2713
▁High	-2714
▁Omar	-2715
▁Oper	-2716
▁Pres	-2717
▁Some	-2718
▁Song	-2719
▁That	-2720
▁Vict	-2721
▁Wood	-2722
▁clos	-2723
▁enem	-2724
▁fell	-2725
▁frag	-2726
▁hair	-2727
▁jazz	-2728
▁norm	-2729
▁prep	-2730
▁spir	-2731
▁teac	-2732
aining	-2733
istics	-2734
rapped	-2735
▁Bulls	-2736
▁Clark	-2737
▁Mader	-2738
▁Times	-2739
▁Tower	-2740
▁Water	-2741
▁Wilde	-2742
▁basis	-2743
▁chess	-2744
▁crake	-2745
▁floor	-2746
▁heavy	-2747
▁image	-2748
▁impro	-2749
▁might	-2750
▁occup	-2751
▁occur	-2752
▁offer	-2753
▁shoot	-2754
▁terms	-2755
ampions	-2756
▁Academ	-2757
▁Museum	-2758
▁Toniná	-2759
▁access	-2760
▁assist	-2761
▁inform	-2762
▁minute	-2763
▁sculpt	-2764
▁sexual	-2765
▁threat	-2766
ological	-2767
▁Coleman	-2768
▁Western	-2769
▁greater	-2770
▁minutes	-2771
▁offered	-2772
▁opening	-2773
▁smaller	-2774
▁univers	-2775
▁workers	-2776
▁working	-2777
▁Arkansas	-2778
▁approach	-2779
▁assigned	-2780
▁contract	-2781
▁directed	-2782
▁discover	-2783
▁southern	-2784
▁architect	-2785
▁attention	-2786
▁community	-2787
▁suggested	-2788
▁transport	-2789
▁Chronicles	-2790
▁basketball	-2791
▁-	-2792
ati	-2793
emb	-2794
ipp	-2795
irg	-2796
now	-2797
uan	-2798
▁29	-2799
▁60	-2800
▁Sl	-2801
▁Sy	-2802
aval	-2803
enes	-2804
hist	-2805
irth	-2806
ites	-2807
rief	-2808
road	-2809
uter	-2810
▁179	-2811
▁Bec	-2812
▁Cre	-2813
▁Jer	-2814
▁Mor	-2815
▁Reg	-2816
▁Res	-2817
▁Ste	-2818
▁Tor	-2819
▁doc	-2820
▁gar	-2821
▁imm	-2822
▁let	-2823
▁red	-2824
▁sea	-2825
▁ult	-2826
annel	-2827
asion	-2828
conom	-2829
rated	-2830
rical	-2831
uture	-2832
▁1940	-2833
▁1960	-2834
▁Care	-2835
▁Fern	-2836
▁Rich	-2837
▁Stra	-2838
▁anal	-2839
▁kind	-2840
idents	-2841
ilding	-2842
▁David	-2843
▁Group	-2844
▁Since	-2845
▁admin	-2846
▁armed	-2847
▁metal	-2848
▁prior	-2849
▁units	-2850
▁Madero	-2851
▁School	-2852
▁batter	-2853
▁belief	-2854
▁better	-2855
▁compet	-2856
▁course	-2857
▁itself	-2858
▁latter	-2859
▁member	-2860
▁nearby	-2861
▁select	-2862
▁sister	-2863
▁Coldrum	-2864
▁Michael	-2865
▁already	-2866
▁comment	-2867
▁eastern	-2868
▁instrum	-2869
▁manager	-2870
▁quickly	-2871
▁scoring	-2872
▁Villaret	-2873
▁continue	-2874
▁independ	-2875
▁starting	-2876
▁Christian	-2877
▁Institute	-2878
▁appointed	-2879
▁remaining	-2880
▁activities	-2881
▁Commandments	-2882
▁archaeological	-2883
SP	-2884
ee	-2885
▁z	-2886
eth	-2887
gal	-2888
men	-2889
rie	-2890
rif	-2891
syl	-2892
umn	-2893
▁44	-2894
▁90	-2895
▁Av	-2896
▁Du	-2897
▁ey	-2898
▁ha	-2899
atin	-2900
band	-2901
cing	-2902
dess	-2903
ends	-2904
itar	-2905
like	-2906
reek	-2907
rown	-2908
ukem	-2909
▁175	-2910
▁180	-2911
▁Dar	-2912
▁Hou	-2913
▁Mex	-2914
▁Rul	-2915
▁cas	-2916
▁emb	-2917
▁gir	-2918
▁mor	-2919
▁ren	-2920
▁sal	-2921
▁sem	-2922
▁sil	-2923
abbar	-2924
eding	-2925
flict	-2926
iston	-2927
▁1994	-2928
▁1996	-2929
▁Bark	-2930
▁Capt	-2931
▁Earn	-2932
▁Hosp	-2933
▁Many	-2934
▁Part	-2935
▁Post	-2936
▁arms	-2937
▁arts	-2938
▁case	-2939
▁cave	-2940
▁chem	-2941
▁dial	-2942
▁dock	-2943
▁door	-2944
▁give	-2945
▁hous	-2946
▁meet	-2947
▁piec	-2948
▁poor	-2949
▁prob	-2950
▁stri	-2951
▁true	-2952
▁weap	-2953
angers	-2954
artial	-2955
atings	-2956
ounced	-2957
sylvan	-2958
▁Carey	-2959
▁Civil	-2960
▁Enter	-2961
▁State	-2962
▁brief	-2963
▁indic	-2964
▁learn	-2965
▁polic	-2966
▁staff	-2967
▁takes	-2968
▁today	-2969
▁visit	-2970
▁weeks	-2971
▁Middle	-2972
▁Victor	-2973
▁caused	-2974
▁effect	-2975
▁extrem	-2976
▁groups	-2977
▁highly	-2978
▁inches	-2979
▁instit	-2980
▁mainly	-2981
▁months	-2982
▁nearly	-2983
▁placed	-2984
▁rather	-2985
▁secret	-2986
▁square	-2987
▁struct	-2988
▁unable	-2989
▁Another	-2990
▁Because	-2991
▁Council	-2992
▁Earnest	-2993
▁Houston	-2994
▁nuclear	-2995
▁critical	-2996
▁cultural	-2997
▁destroyed	-2998
▁hurricane	-2999
▁recording	-3000
▁Pennsylvan	-3001
▁historical	-3002
▁introduced	-3003
▁appearances	-3004
▁archaeology	-3005
▁traditional	-3006
▁International	-3007
ny	-3008
inf	-3009
olf	-3010
oms	-3011
pec	-3012
▁35	-3013
▁56	-3014
abit	-3015
adel	-3016
agre	-3017
aire	-3018
anta	-3019
ario	-3020
ergy	-3021
head	-3022
iant	-3023
iled	-3024
ingu	-3025
itte	-3026
ning	-3027
ogen	-3028
oice	-3029
omas	-3030
ties	-3031
utch	-3032
vert	-3033
▁Cal	-3034
▁Han	-3035
▁Hum	-3036
▁Pre	-3037
▁Ram	-3038
▁Ser	-3039
▁Sha	-3040
▁ang	-3041
▁enj	-3042
▁far	-3043
▁hor	-3044
▁job	-3045
▁mur	-3046
▁nin	-3047
▁pow	-3048
▁shr	-3049
▁tem	-3050
▁unc	-3051
▁uns	-3052
icago	-3053
inent	-3054
odrom	-3055
ortun	-3056
senal	-3057
▁1939	-3058
▁1995	-3059
▁Crit	-3060
▁Like	-3061
▁Work	-3062
▁date	-3063
▁food	-3064
▁fres	-3065
▁hosp	-3066
▁prec	-3067
▁purs	-3068
▁rail	-3069
▁thus	-3070
isters	-3071
undred	-3072
ynasty	-3073
▁China	-3074
▁Colon	-3075
▁House	-3076
▁Peter	-3077
▁River	-3078
▁adapt	-3079
▁brick	-3080
▁cruis	-3081
▁ended	-3082
▁going	-3083
▁nomin	-3084
▁parts	-3085
▁plann	-3086
▁shows	-3087
▁types	-3088
▁winds	-3089
ability	-3090
isation	-3091
▁albums	-3092
▁begins	-3093
▁killed	-3094
▁larger	-3095
▁longer	-3096
▁method	-3097
▁police	-3098
▁region	-3099
▁search	-3100
▁specim	-3101
▁wanted	-3102
▁Chicago	-3103
▁allowed	-3104
▁discuss	-3105
▁factory	-3106
▁herself	-3107
▁officer	-3108
▁problem	-3109
▁provide	-3110
▁Squadron	-3111
▁industry	-3112
▁investig	-3113
▁possible	-3114
▁slightly	-3115
▁standard	-3116
▁Entertain	-3117
▁announced	-3118
▁commander	-3119
▁conducted	-3120
▁Allosaurus	-3121
▁commission	-3122
mi	-3123
to	-3124
yt	-3125
▁#	-3126
AAF	-3127
bon	-3128
gen	-3129
hew	-3130
ids	-3131
ken	-3132
lim	-3133
met	-3134
ney	-3135
ows	-3136
pat	-3137
que	-3138
ram	-3139
ror	-3140
tar	-3141
▁36	-3142
▁BC	-3143
▁Bh	-3144
▁Ll	-3145
▁ap	-3146
▁ly	-3147
aust	-3148
azer	-3149
emon	-3150
ills	-3151
ilyn	-3152
lebr	-3153
olid	-3154
oned	-3155
ords	-3156
otte	-3157
ourt	-3158
phia	-3159
pper	-3160
rant	-3161
▁Art	-3162
▁Bey	-3163
▁Max	-3164
▁Old	-3165
▁Pet	-3166
▁asp	-3167
▁ben	-3168
▁har	-3169
▁hom	-3170
▁hop	-3171
▁pan	-3172
ample	-3173
antry	-3174
ching	-3175
ector	-3176
ernon	-3177
ipped	-3178
ittee	-3179
ously	-3180
overy	-3181
ports	-3182
ranch	-3183
▁1950	-3184
▁1970	-3185
▁Gate	-3186
▁Miss	-3187
▁Parv	-3188
▁RAAF	-3189
▁Sing	-3190
▁Thak	-3191
▁beat	-3192
▁bomb	-3193
▁cann	-3194
▁dead	-3195
▁grew	-3196
▁hard	-3197
▁king	-3198
▁link	-3199
▁park	-3200
▁phot	-3201
▁plot	-3202
▁sulf	-3203
▁vict	-3204
ashion	-3205
lement	-3206
mitted	-3207
ructed	-3208
▁Assoc	-3209
▁Queen	-3210
▁birth	-3211
▁bound	-3212
▁cause	-3213
▁demon	-3214
▁enemy	-3215
▁enjoy	-3216
▁espec	-3217
▁frequ	-3218
▁genus	-3219
▁grass	-3220
▁hands	-3221
▁labor	-3222
▁lives	-3223
▁mixed	-3224
▁moves	-3225
▁recre	-3226
▁saves	-3227
▁space	-3228
▁stage	-3229
▁study	-3230
duction	-3231
osition	-3232
▁Columb	-3233
▁Gabbar	-3234
▁Mexico	-3235
▁amount	-3236
▁comedy	-3237
▁earned	-3238
▁econom	-3239
▁future	-3240
▁giving	-3241
▁listed	-3242
▁master	-3243
▁necess	-3244
▁pilots	-3245
▁regime	-3246
▁settle	-3247
▁summer	-3248
▁twenty	-3249
adelphia	-3250
▁Despite	-3251
▁Fernand	-3252
▁Marilyn	-3253
▁Parvati	-3254
▁Russian	-3255
▁Wrapped	-3256
▁consist	-3257
▁earthqu	-3258
▁example	-3259
▁goddess	-3260
▁hundred	-3261
▁martial	-3262
▁natural	-3263
▁playing	-3264
▁records	-3265
▁results	-3266
▁society	-3267
▁underst	-3268
▁usually	-3269
▁Building	-3270
▁Clarkson	-3271
▁becoming	-3272
▁finished	-3273
▁greatest	-3274
▁progress	-3275
▁proposed	-3276
▁reaction	-3277
▁standing	-3278
▁Charlotte	-3279
▁Dominican	-3280
▁beginning	-3281
▁buildings	-3282
▁consisted	-3283
▁education	-3284
▁additional	-3285
▁especially	-3286
▁Pennsylvania	-3287
▁archaeologist	-3288
ga	-3289
wh	-3290
arl	-3291
ema	-3292
han	-3293
ify	-3294
nel	-3295
ocr	-3296
oes	-3297
rab	-3298
ume	-3299
▁32	-3300
▁34	-3301
▁70	-3302
▁79	-3303
▁NS	-3304
▁Sb	-3305
▁bi	-3306
ackn	-3307
cast	-3308
fact	-3309
iles	-3310
oric	-3311
oura	-3312
rate	-3313
reet	-3314
rong	-3315
thur	-3316
▁187	-3317
▁Age	-3318
▁Ale	-3319
▁Alg	-3320
▁Bre	-3321
▁Cup	-3322
▁Dan	-3323
▁Har	-3324
▁Hen	-3325
▁Its	-3326
▁Out	-3327
▁Rem	-3328
▁era	-3329
▁foc	-3330
▁lic	-3331
▁log	-3332
▁ran	-3333
▁und	-3334
▁vol	-3335
arian	-3336
asing	-3337
while	-3338
▁1941	-3339
▁1980	-3340
▁Chap	-3341
▁Iron	-3342
▁Land	-3343
▁Pope	-3344
▁Time	-3345
▁bass	-3346
▁boat	-3347
▁dark	-3348
▁fort	-3349
▁happ	-3350
▁iron	-3351
▁male	-3352
▁rare	-3353
▁sail	-3354
▁seem	-3355
▁targ	-3356
▁test	-3357
blazer	-3358
ederal	-3359
estion	-3360
ipment	-3361
resses	-3362
tained	-3363
ulated	-3364
▁Inter	-3365
▁Later	-3366
▁Story	-3367
▁Twins	-3368
▁aband	-3369
▁block	-3370
▁coins	-3371
▁deity	-3372
▁forms	-3373
▁heart	-3374
▁names	-3375
▁plans	-3376
▁radio	-3377
▁recon	-3378
▁walls	-3379
▁whole	-3380
▁works	-3381
acknell	-3382
▁People	-3383
▁Thomas	-3384
▁acting	-3385
▁county	-3386
▁failed	-3387
▁hygrom	-3388
▁interp	-3389
▁leukem	-3390
▁reason	-3391
▁studio	-3392
▁winter	-3393
emporary	-3394
▁actions	-3395
▁calling	-3396
▁changed	-3397
▁complet	-3398
▁counter	-3399
▁divided	-3400
▁feature	-3401
▁largely	-3402
▁matches	-3403
▁numbers	-3404
▁ordered	-3405
▁overall	-3406
▁perfect	-3407
▁product	-3408
▁related	-3409
▁reports	-3410
▁towards	-3411
▁western	-3412
▁whether	-3413
▁captured	-3414
▁combined	-3415
▁complete	-3416
▁document	-3417
▁prepared	-3418
▁probably	-3419
▁Bracknell	-3420
▁Strapping	-3421
▁influence	-3422
▁sentences	-3423
▁Department	-3424
▁Hellblazer	-3425
▁identified	-3426
de	-3427
lo	-3428
of	-3429
▁+	-3430
ini	-3431
ino	-3432
irt	-3433
ius	-3434
oty	-3435
rec	-3436
ugh	-3437
uit	-3438
urg	-3439
▁52	-3440
▁75	-3441
▁Ev	-3442
▁Up	-3443
▁Ye	-3444
▁du	-3445
▁fr	-3446
acht	-3447
aign	-3448
airs	-3449
bour	-3450
ises	-3451
onse	-3452
quar	-3453
rack	-3454
ully	-3455
ware	-3456
▁300	-3457
▁Fer	-3458
▁Gar	-3459
▁Lad	-3460
▁Mus	-3461
▁Ont	-3462
▁Sen	-3463
▁Tri	-3464
▁Way	-3465
▁boy	-3466
▁cer	-3467
▁don	-3468
▁fru	-3469
▁hit	-3470
▁neg	-3471
▁pit	-3472
▁ple	-3473
▁pun	-3474
▁tax	-3475
▁unp	-3476
anish	-3477
arded	-3478
ening	-3479
etric	-3480
irgin	-3481
lines	-3482
odies	-3483
rison	-3484
stead	-3485
ville	-3486
▁Bost	-3487
▁Conf	-3488
▁Cons	-3489
▁Cull	-3490
▁Four	-3491
▁Leon	-3492
▁Over	-3493
▁chap	-3494
▁done	-3495
▁exam	-3496
▁girl	-3497
▁idea	-3498
▁leng	-3499
▁opin	-3500
▁rate	-3501
▁rect	-3502
▁solo	-3503
▁step	-3504
▁suit	-3505
▁wors	-3506
ceeded	-3507
iative	-3508
iences	-3509
utions	-3510
▁Class	-3511
▁Georg	-3512
▁Green	-3513
▁Major	-3514
▁Press	-3515
▁Wales	-3516
▁adult	-3517
▁chall	-3518
▁money	-3519
▁newsp	-3520
▁oppon	-3521
▁pilot	-3522
aughter	-3523
etricus	-3524
lection	-3525
ression	-3526
▁Barker	-3527
▁Norman	-3528
▁Priest	-3529
▁Public	-3530
▁Virgin	-3531
▁Wander	-3532
▁academ	-3533
▁approx	-3534
▁assass	-3535
▁cancer	-3536
▁closed	-3537
▁health	-3538
▁helped	-3539
▁images	-3540
▁likely	-3541
▁moving	-3542
▁murder	-3543
▁nature	-3544
▁normal	-3545
▁parent	-3546
▁saying	-3547
▁serves	-3548
▁streng	-3549
▁troops	-3550
▁turned	-3551
▁Academy	-3552
▁Captain	-3553
▁Eastern	-3554
▁Johnson	-3555
▁Ontario	-3556
▁Spanish	-3557
▁adopted	-3558
▁artists	-3559
▁assault	-3560
▁becomes	-3561
▁certain	-3562
▁company	-3563
▁decades	-3564
▁engaged	-3565
▁highway	-3566
▁leaving	-3567
▁ratings	-3568
▁removed	-3569
▁sources	-3570
▁writers	-3571
▁Algernon	-3572
▁administ	-3573
▁allowing	-3574
▁baseball	-3575
▁compared	-3576
▁earliest	-3577
▁movement	-3578
▁observed	-3579
▁replaced	-3580
▁response	-3581
▁resulted	-3582
▁violence	-3583
▁Commander	-3584
▁Egyptians	-3585
▁President	-3586
▁concluded	-3587
▁featuring	-3588
▁operation	-3589
▁president	-3590
▁residents	-3591
▁situation	-3592
▁storyline	-3593
▁experience	-3594
▁immediately	-3595
▁responsible	-3596
▁Philadelphia	-3597
▁hygrometricus	-3598
▁international	-3599
RA	-3600
rd	-3601
zy	-3602
agn	-3603
aly	-3604
awn	-3605
bal	-3606
bre	-3607
cop	-3608
edo	-3609
iff	-3610
lee	-3611
lin	-3612
udd	-3613
usp	-3614
win	-3615
▁1.	-3616
▁51	-3617
▁Gw	-3618
▁ML	-3619
▁Mo	-3620
▁My	-3621
▁Os	-3622
▁Ty	-3623
agle	-3624
aith	-3625
arsh	-3626
eway	-3627
here	-3628
imal	-3629
just	-3630
laim	-3631
orps	-3632
rian	-3633
uing	-3634
▁Add	-3635
▁App	-3636
▁Bob	-3637
▁Bus	-3638
▁Ell	-3639
▁Hor	-3640
▁Mad	-3641
▁Mem	-3642
▁Sun	-3643
▁Tod	-3644
▁dut	-3645
▁key	-3646
▁mus	-3647
▁mut	-3648
▁nar	-3649
▁rit	-3650
▁tru	-3651
agoda	-3652
alled	-3653
allow	-3654
aring	-3655
aught	-3656
eller	-3657
heast	-3658
iller	-3659
iment	-3660
inian	-3661
thing	-3662
using	-3663
▁1997	-3664
▁1998	-3665
▁Back	-3666
▁Bank	-3667
▁Book	-3668
▁Hall	-3669
▁Stef	-3670
▁Tint	-3671
▁Vice	-3672
▁acqu	-3673
▁anti	-3674
▁batt	-3675
▁bird	-3676
▁deep	-3677
▁drum	-3678
▁farm	-3679
▁heav	-3680
▁hero	-3681
▁mask	-3682
▁myel	-3683
▁pain	-3684
▁sole	-3685
▁stra	-3686
▁talk	-3687
▁tend	-3688
▁torp	-3689
▁vess	-3690
roscop	-3691
▁Campb	-3692
▁Child	-3693
▁Chris	-3694
▁Dutch	-3695
▁Geoff	-3696
▁Mount	-3697
▁Princ	-3698
▁Short	-3699
▁alone	-3700
▁below	-3701
▁books	-3702
▁camps	-3703
▁cells	-3704
▁consc	-3705
▁drama	-3706
▁famil	-3707
▁fault	-3708
▁favor	-3709
▁lines	-3710
▁plant	-3711
▁purch	-3712
▁spent	-3713
▁teams	-3714
estival	-3715
itation	-3716
▁Battle	-3717
▁Boston	-3718
▁Cullen	-3719
▁Direct	-3720
▁Forces	-3721
▁Street	-3722
▁analys	-3723
▁broken	-3724
▁celebr	-3725
▁copies	-3726
▁couple	-3727
▁defeat	-3728
▁expand	-3729
▁	-3730
e	-3731
a	-3732
t	-3733
i	-3734
n	-3735
o	-3736
r	-3737
s	-3738
h	-3739
l	-3740
d	-3741
c	-3742
u	-3743
m	-3744
f	-3745
g	-3746
p	-3747
w	-3748
y	-3749
b	-3750
,	-3751
.	-3752
v	-3753
k	-3754
@	-3755
T	-3756
1	-3757
A	-3758
0	-3759
S	-3760
"	-3761
C	-3762
=	-3763
I	-3764
2	-3765
B	-3766
M	-3767
9	-3768
-	-3769
'	-3770
P	-3771
x	-3772
H	-3773
R	-3774
F	-3775
W	-3776
G	-3777
N	-3778
L	-3779
D	-3780
J	-3781
(	-3782
)	-3783
4	-3784
3	-3785
5	-3786
8	-3787
E	-3788
z	-3789
7	-3790
O	-3791
6	-3792
j	-3793
q	-3794
U	-3795
K	-3796
;	-3797
V	-3798
–	-3799
Y	-3800
:	-3801
Z	-3802
—	-3803
Q	-3804
/	-3805
$	-3806
é	-3807
%	-3808
[	-3809
]	-3810
X	-3811
á	-3812
!	-3813
’	-3814
&	-3815
?	-3816
°	-3817
í	-3818
#	-3819
ł	-3820
+	-3821
£	-3822
ö	-3823
ä	-3824
è	-3825
ó	-3826
ü	-3827
ń	-3828
ş	-3829
μ	-3830
Æ	-3831
₹	-3832
−	-3833
â	-3834
ว	-3835
ṯ	-3836
“	-3837
É	-3838
ç	-3839
š	-3840
×	-3841
č	-3842
ţ	-3843
ร	-3844
อ	-3845
”	-3846
⁄	-3847
ñ	-3848
ă	-3849
Ł	-3850
ś	-3851
ż	-3852
ρ	-3853
а	-3854
ي	-3855
ง	-3856
ั	-3857
า	-3858
ิ	-3859
→	-3860
侗	-3861
王	-3862
*	-3863
ã	-3864
ï	-3865
ø	-3866
đ	-3867
Š	-3868
ū	-3869
ź	-3870
δ	-3871
ν	-3872
τ	-3873
К	-3874
م	-3875
ก	-3876
ี	-3877
เ	-3878
่	-3879
์	-3880
♯	-3881
周	-3882
春	-3883
>	-3884
^	-3885
`	-3886
Ö	-3887
Ü	-3888
ß	-3889
æ	-3890
ë	-3891
ú	-3892
ć	-3893
ę	-3894
Ľ	-3895
ō	-3896
œ	-3897
Ż	-3898
ș	-3899
ț	-3900
́	-3901
έ	-3902
ί	-3903
α	-3904
γ	-3905
ε	-3906
ι	-3907
κ	-3908
ξ	-3909
ο	-3910
ς	-3911
σ	-3912
ό	-3913
в	-3914
з	-3915
й	-3916
к	-3917
н	-3918
р	-3919
с	-3920
ы	-3921
ت	-3922
د	-3923
س	-3924
ค	-3925
ช	-3926
ซ	-3927
ฐ	-3928
ด	-3929
ต	-3930
พ	-3931
ภ	-3932
ม	-3933
ย	-3934
ล	-3935
ษ	-3936
ห	-3937
ึ	-3938
แ	-3939
ไ	-3940
้	-3941
ḏ	-3942
ạ	-3943
ὑ	-3944
‘	-3945
€	-3946
♭	-3947
の	-3948
ァ	-3949
ア	-3950
キ	-3951
ュ	-3952
リ	-3953
ル	-3954
ヴ	-3955
七	-3956
世	-3957
中	-3958
云	-3959
人	-3960
傳	-3961
光	-3962
其	-3963
劉	-3964
华	-3965
同	-3966
國	-3967
場	-3968
大	-3969
夫	-3970
姚	-3971
孟	-3972
宋	-3973
岳	-3974
建	-3975
張	-3976
彩	-3977
後	-3978
懷	-3979
戦	-3980
明	-3981
李	-3982
清	-3983
湯	-3984
琪	-3985
秋	-3986
翠	-3987
肖	-3988
興	-3989
英	-3990
许	-3991
贵	-3992
钱	-3993
集	-3994
顯	-3995
�	-3996
