<unk>	0
<s>	0
</s>	0
st	-0
se	-1
▁k	-2
li	-3
ja	-4
aa	-5
ri	-6
le	-7
ni	-8
va	-9
si	-10
te	-11
oo	-12
mi	-13
▁o	-14
ta	-15
ne	-16
nd	-17
ma	-18
la	-19
▁1	-20
▁p	-21
▁a	-22
us	-23
ra	-24
me	-25
▁e	-26
ti	-27
na	-28
de	-29
▁ja	-30
▁s	-31
tu	-32
re	-33
▁v	-34
sta	-35
ga	-36
▁S	-37
▁–	-38
ks	-39
gi	-40
da	-41
uu	-42
▁K	-43
▁19	-44
▁m	-45
▁A	-46
▁on	-47
sti	-48
▁(	-49
ku	-50
▁ka	-51
▁T	-52
he	-53
id	-54
▁P	-55
gu	-56
ka	-57
▁va	-58
▁V	-59
er	-60
is	-61
nu	-62
▁t	-63
▁2	-64
ee	-65
ko	-66
▁E	-67
ar	-68
lu	-69
▁M	-70
▁j	-71
õi	-72
al	-73
▁ko	-74
▁L	-75
ng	-76
il	-77
ii	-78
ste	-79
▁te	-80
su	-81
▁R	-82
▁l	-83
▁se	-84
▁mi	-85
▁ku	-86
aasta	-87
or	-88
ge	-89
sa	-90
ha	-91
lt	-92
nna	-93
di	-94
ki	-95
00	-96
▁aasta	-97
es	-98
tsi	-99
el	-100
hi	-101
esti	-102
use	-103
▁ü	-104
▁H	-105
ro	-106
▁N	-107
▁li	-108
maa	-109
▁J	-110
▁I	-111
▁B	-112
▁ta	-113
är	-114
nud	-115
rii	-116
▁ni	-117
vi	-118
nt	-119
ndi	-120
▁i	-121
mb	-122
▁h	-123
mise	-124
ur	-125
ke	-126
tud	-127
äi	-128
▁oli	-129
sed	-130
▁sa	-131
ol	-132
du	-133
▁ra	-134
ba	-135
ju	-136
on	-137
▁G	-138
lle	-139
nda	-140
▁la	-141
▁ki	-142
▁või	-143
pi	-144
pe	-145
▁n	-146
ve	-147
tse	-148
▁C	-149
▁Eesti	-150
sid	-151
ää	-152
lise	-153
ul	-154
▁ma	-155
to	-156
eri	-157
▁-	-158
▁vä	-159
mu	-160
lik	-161
õu	-162
▁tu	-163
vad	-164
ooni	-165
bi	-166
▁18	-167
ru	-168
▁F	-169
▁maa	-170
▁"	-171
▁200	-172
rja	-173
19	-174
▁saa	-175
▁me	-176
▁U	-177
öö	-178
pa	-179
raa	-180
riigi	-181
▁esi	-182
ea	-183
▁ning	-184
▁D	-185
kse	-186
▁O	-187
lis	-188
äe	-189
▁Va	-190
▁Sa	-191
ts	-192
▁f	-193
▁3	-194
liku	-195
▁20	-196
▁aastal	-197
▁kee	-198
ngi	-199
▁al	-200
▁sõ	-201
as	-202
▁mis	-203
dus	-204
▁et	-205
os	-206
ene	-207
▁si	-208
▁suu	-209
lii	-210
ht	-211
▁199	-212
mine	-213
üü	-214
stu	-215
õr	-216
▁Ma	-217
).	-218
in	-219
▁de	-220
tas	-221
nik	-222
kt	-223
ksa	-224
hu	-225
en	-226
▁juu	-227
▁val	-228
des	-229
▁oma	-230
▁Ka	-231
▁ne	-232
▁aja	-233
ngu	-234
line	-235
▁põ	-236
mber	-237
konna	-238
▁kui	-239
▁pa	-240
▁po	-241
pp	-242
▁le	-243
▁vali	-244
▁tä	-245
ril	-246
tsiooni	-247
sse	-248
▁eesti	-249
takse	-250
mas	-251
▁ar	-252
▁esime	-253
nni	-254
▁lii	-255
et	-256
oi	-257
▁ei	-258
aani	-259
▁kes	-260
▁re	-261
tus	-262
0.	-263
lo	-264
▁ju	-265
lja	-266
je	-267
▁su	-268
▁koo	-269
▁Li	-270
1.	-271
▁mille	-272
alli	-273
),	-274
▁asu	-275
▁kuu	-276
▁pea	-277
ber	-278
▁üle	-279
ad	-280
▁Ra	-281
õt	-282
▁jär	-283
▁Ta	-284
▁pi	-285
idu	-286
tuse	-287
ndus	-288
▁riigi	-289
4.	-290
oni	-291
mis	-292
ära	-293
tis	-294
▁sü	-295
vu	-296
▁au	-297
ei	-298
▁osa	-299
5.	-300
an	-301
▁nime	-302
▁Ü	-303
loo	-304
▁vee	-305
6.	-306
▁poo	-307
mist	-308
▁lä	-309
▁kasu	-310
7.	-311
mo	-312
aal	-313
aar	-314
▁rah	-315
▁W	-316
les	-317
–1	-318
tes	-319
▁kor	-320
▁kirja	-321
▁selle	-322
oe	-323
▁u	-324
vus	-325
ist	-326
▁201	-327
▁Ko	-328
kogu	-329
val	-330
▁na	-331
2.	-332
▁mõ	-333
▁r	-334
lane	-335
suse	-336
tati	-337
nde	-338
▁loo	-339
▁Ku	-340
üm	-341
ria	-342
nn	-343
▁mä	-344
kond	-345
▁kuni	-346
tel	-347
ter	-348
fi	-349
ch	-350
▁193	-351
las	-352
▁ole	-353
▁pro	-354
▁maail	-355
▁lõ	-356
oon	-357
uri	-358
stus	-359
▁194	-360
nga	-361
kas	-362
taja	-363
nime	-364
▁Pa	-365
▁toi	-366
või	-367
nti	-368
8.	-369
▁ha	-370
side	-371
▁Talli	-372
▁näi	-373
▁sai	-374
lia	-375
▁197	-376
3.	-377
pu	-378
▁ke	-379
hk	-380
–19	-381
hel	-382
be	-383
▁4	-384
po	-385
ral	-386
▁õ	-387
res	-388
▁(1	-389
tle	-390
▁linna	-391
▁pu	-392
SA	-393
rant	-394
▁196	-395
▁Vene	-396
▁198	-397
▁Rii	-398
▁välja	-399
del	-400
▁muu	-401
▁tei	-402
ses	-403
ris	-404
ed	-405
hja	-406
▁192	-407
kti	-408
lus	-409
▁tõ	-410
▁ala	-411
▁USA	-412
▁kõr	-413
lased	-414
kus	-415
rit	-416
stas	-417
nes	-418
▁17	-419
ksi	-420
mus	-421
ndu	-422
kor	-423
9.	-424
▁saja	-425
▁5	-426
meeri	-427
uroo	-428
kku	-429
▁see	-430
▁he	-431
lg	-432
▁(19	-433
anu	-434
▁Tallinna	-435
laste	-436
▁pii	-437
▁Vii	-438
▁Ki	-439
hti	-440
▁kõi	-441
▁195	-442
▁kuulu	-443
no	-444
▁La	-445
selt	-446
ted	-447
päe	-448
rel	-449
eg	-450
ärast	-451
▁ol	-452
▁ühe	-453
▁vii	-454
▁16	-455
▁Al	-456
uroopa	-457
mad	-458
nist	-459
..	-460
▁Roo	-461
▁koh	-462
▁Au	-463
used	-464
por	-465
▁Ju	-466
▁kol	-467
▁mär	-468
elle	-469
liiti	-470
▁Sü	-471
ooli	-472
▁ise	-473
liselt	-474
▁sõja	-475
sus	-476
▁inime	-477
▁vastu	-478
▁kü	-479
sel	-480
▁jaanu	-481
pia	-482
▁15	-483
▁Saksa	-484
riik	-485
ree	-486
isa	-487
oloo	-488
nne	-489
▁Vä	-490
▁töö	-491
▁eri	-492
▁ele	-493
▁uu	-494
▁Jo	-495
▁Se	-496
õuna	-497
▁Aa	-498
▁Ar	-499
rid	-500
▁Vaba	-501
▁Tar	-502
mä	-503
▁Põ	-504
nnu	-505
▁tea	-506
gia	-507
neb	-508
reside	-509
▁Te	-510
▁loe	-511
▁Mi	-512
ns	-513
do	-514
tatud	-515
ool	-516
▁tule	-517
bru	-518
▁jä	-519
tee	-520
▁Ni	-521
▁Euroopa	-522
▁kuid	-523
▁Le	-524
▁b	-525
pal	-526
▁jalg	-527
▁6	-528
rist	-529
▁Suu	-530
▁Ro	-531
umi	-532
ndis	-533
gus	-534
▁ela	-535
▁Riigi	-536
teks	-537
kee	-538
ine	-539
liste	-540
nis	-541
▁ava	-542
meerika	-543
▁See	-544
▁tema	-545
nduse	-546
▁kogu	-547
ür	-548
tte	-549
taa	-550
est	-551
▁võ	-552
▁Venemaa	-553
▁detse	-554
õukogu	-555
jad	-556
▁Rah	-557
list	-558
kirja	-559
▁juuni	-560
▁kasuta	-561
um	-562
gas	-563
oodu	-564
▁fil	-565
ud	-566
pte	-567
▁järgi	-568
ümpia	-569
iv	-570
miseks	-571
▁poliiti	-572
idi	-573
hte	-574
ngid	-575
gust	-576
▁g	-577
▁kus	-578
▁Ja	-579
isu	-580
ove	-581
▁Ha	-582
▁kau	-583
lised	-584
▁olid	-585
aania	-586
sia	-587
▁maailma	-588
ini	-589
▁Maa	-590
20	-591
▁preside	-592
▁jõ	-593
pera	-594
▁Välis	-595
▁7	-596
ktoo	-597
võist	-598
tsus	-599
dest	-600
▁ri	-601
stel	-602
aata	-603
▁suure	-604
pril	-605
▁kir	-606
▁pe	-607
tleja	-608
▁kirjanik	-609
▁taga	-610
▁veebru	-611
ia	-612
im	-613
000	-614
▁ehk	-615
go	-616
stati	-617
▁Viited	-618
▁191	-619
▁suur	-620
lingid	-621
▁Välislingid	-622
▁loend	-623
mal	-624
▁pä	-625
▁vi	-626
▁Lii	-627
▁ro	-628
▁8	-629
ppe	-630
▁rahva	-631
▁pal	-632
ho	-633
▁Mar	-634
ser	-635
▁1.	-636
▁üks	-637
misel	-638
seks	-639
riiki	-640
ld	-641
▁Prant	-642
met	-643
▁moodu	-644
das	-645
▁väi	-646
▁ti	-647
▁aga	-648
riku	-649
▁Ba	-650
▁par	-651
▁tege	-652
▁seda	-653
vä	-654
▁jaanuar	-655
▁soo	-656
ndinud	-657
▁kuju	-658
ntsi	-659
▁april	-660
▁keele	-661
▁kuninga	-662
valt	-663
maal	-664
kk	-665
▁ve	-666
▁koos	-667
lli	-668
sika	-669
▁mida	-670
▁II	-671
▁juuli	-672
mp	-673
stik	-674
▁nove	-675
▁jalgpal	-676
co	-677
▁di	-678
stee	-679
▁oktoo	-680
▁koha	-681
tuuri	-682
vo	-683
▁Ne	-684
▁keeles	-685
it	-686
ran	-687
▁siis	-688
tsioon	-689
▁päe	-690
tuur	-691
vahe	-692
mee	-693
▁Re	-694
▁Tartu	-695
▁9	-696
▁Eestis	-697
saa	-698
▁alu	-699
niku	-700
▁ase	-701
ona	-702
▁Vaata	-703
ooks	-704
õttu	-705
▁Vi	-706
võistlu	-707
osa	-708
▁põhi	-709
▁vaba	-710
ca	-711
▁esimene	-712
▁detsember	-713
▁Si	-714
stiku	-715
▁lipp	-716
▁or	-717
og	-718
dega	-719
likult	-720
sü	-721
guse	-722
matu	-723
rik	-724
▁il	-725
▁kas	-726
nia	-727
tor	-728
▁|	-729
ääne	-730
▁d	-731
laa	-732
test	-733
▁septe	-734
▁Ale	-735
nst	-736
▁pärast	-737
vali	-738
itse	-739
bu	-740
mpera	-741
▁kesk	-742
▁pool	-743
tsu	-744
▁De	-745
▁ajal	-746
▁Jaa	-747
eva	-748
▁km	-749
▁sajandi	-750
seis	-751
▁Z	-752
hul	-753
duse	-754
▁in	-755
statud	-756
0,	-757
ole	-758
mmi	-759
kme	-760
▁Na	-761
▁kahe	-762
ot	-763
▁Põhja	-764
minist	-765
bri	-766
ver	-767
▁õi	-768
nge	-769
▁elekt	-770
▁jõu	-771
▁Suur	-772
▁and	-773
▁Pi	-774
▁vahe	-775
mat	-776
▁Me	-777
isp	-778
▁piir	-779
▁ehi	-780
eti	-781
mängu	-782
▁lu	-783
ndid	-784
htu	-785
olla	-786
▁Selle	-787
SV	-788
ard	-789
kaa	-790
".	-791
▁nii	-792
▁Rootsi	-793
▁hu	-794
uule	-795
üha	-796
nglise	-797
nder	-798
aja	-799
▁kon	-800
▁Tu	-801
tori	-802
▁toimu	-803
▁190	-804
▁Kes	-805
▁vene	-806
▁Liidu	-807
ina	-808
▁Ühe	-809
istri	-810
pea	-811
▁kä	-812
vat	-813
▁maailmas	-814
tab	-815
▁abi	-816
▁Saksamaa	-817
▁Kar	-818
gra	-819
▁rahvus	-820
▁läbi	-821
ck	-822
lad	-823
▁mu	-824
oome	-825
ss	-826
roo	-827
tei	-828
oori	-829
taalia	-830
dal	-831
▁vähe	-832
▁Vabariigi	-833
par	-834
▁tähe	-835
▁Nõukogu	-836
▁poliitik	-837
che	-838
▁kul	-839
tada	-840
▁Lõuna	-841
▁veebruar	-842
▁Tš	-843
▁jää	-844
▁Ca	-845
▁näitleja	-846
ndri	-847
▁Po	-848
kord	-849
▁vahel	-850
▁Esi	-851
▁ter	-852
mia	-853
otsi	-854
▁palju	-855
ce	-856
▁Ga	-857
muse	-858
tme	-859
vuse	-860
▁Kui	-861
▁Pe	-862
▁nende	-863
▁põhja	-864
ment	-865
sest	-866
▁toimus	-867
konda	-868
▁kaa	-869
dele	-870
reeka	-871
lma	-872
▁ai	-873
▁võib	-874
▁kii	-875
▁saare	-876
▁eest	-877
vas	-878
▁Bo	-879
ner	-880
ühi	-881
▁aa	-882
▁14	-883
▁Val	-884
▁iseseis	-885
200	-886
▁too	-887
ski	-888
lid	-889
eeri	-890
▁Par	-891
ssi	-892
oola	-893
▁mängi	-894
▁Sündinud	-895
▁10	-896
ut	-897
▁elu	-898
oloogia	-899
llu	-900
mbes	-901
▁Prantsus	-902
väe	-903
▁vald	-904
▁Lo	-905
▁°	-906
▁kohta	-907
▁Saa	-908
",	-909
usa	-910
▁Gu	-911
▁hi	-912
▁korda	-913
stab	-914
dis	-915
▁keel	-916
rika	-917
likku	-918
sõ	-919
keel	-920
mused	-921
ispaania	-922
▁mere	-923
tš	-924
erge	-925
▁mil	-926
tasid	-927
▁Su	-928
▁ena	-929
kul	-930
▁kokku	-931
▁Ch	-932
▁von	-933
kraa	-934
vate	-935
▁sur	-936
▁Ri	-937
ümpiamängu	-938
▁Aust	-939
ov	-940
▁st	-941
▁mai	-942
▁korral	-943
▁aastast	-944
▁Ge	-945
▁valitsus	-946
sik	-947
▁maja	-948
▁NSV	-949
▁sajand	-950
▁189	-951
▁all	-952
▁raja	-953
ci	-954
ilje	-955
lugu	-956
stuse	-957
▁kind	-958
Kr	-959
tar	-960
raafi	-961
▁aprill	-962
▁päri	-963
▁poole	-964
▁prant	-965
▁ees	-966
his	-967
maja	-968
aldus	-969
▁lähe	-970
▁kirju	-971
▁märts	-972
▁hul	-973
aasi	-974
äära	-975
▁pee	-976
▁ette	-977
▁saar	-978
jõu	-979
nike	-980
▁Sur	-981
alt	-982
tsa	-983
▁19.	-984
▁raa	-985
▁kaks	-986
▁Rahva	-987
▁12	-988
▁Lu	-989
rae	-990
▁arvu	-991
▁Mo	-992
▁võt	-993
▁kale	-994
▁ajaloo	-995
▁november	-996
nts	-997
oone	-998
▁võitis	-999
▁nad	-1000
▁täna	-1001
▁Esime	-1002
▁Ameerika	-1003
▁Nõukogude	-1004
▁Aasta	-1005
▁+	-1006
rah	-1007
iljem	-1008
last	-1009
...	-1010
kki	-1011
▁000	-1012
▁Pu	-1013
▁käi	-1014
päeva	-1015
▁pai	-1016
ir	-1017
joni	-1018
aadi	-1019
▁188	-1020
▁mitme	-1021
pordi	-1022
▁Soome	-1023
koo	-1024
▁Joha	-1025
▁sõda	-1026
rea	-1027
luse	-1028
tatakse	-1029
kü	-1030
for	-1031
▁sõl	-1032
tsuse	-1033
mperatuur	-1034
ll	-1035
tri	-1036
▁järg	-1037
▁Tei	-1038
linna	-1039
tja	-1040
usu	-1041
▁ob	-1042
riti	-1043
▁lai	-1044
▁filmi	-1045
1,	-1046
||	-1047
kka	-1048
▁vaid	-1049
▁saksa	-1050
▁oktoober	-1051
ega	-1052
ruu	-1053
▁2.	-1054
likoo	-1055
tanni	-1056
mendi	-1057
▁umbes	-1058
vis	-1059
▁Wil	-1060
▁president	-1061
ala	-1062
▁hõ	-1063
▁võr	-1064
▁alla	-1065
▁Aja	-1066
▁tee	-1067
port	-1068
▁raj	-1069
▁kõige	-1070
▁kõrge	-1071
▁vasta	-1072
▁Prantsusmaa	-1073
hhi	-1074
–18	-1075
konnas	-1076
▁Š	-1077
tt	-1078
mbril	-1079
riikide	-1080
▁täi	-1081
▁Loo	-1082
rü	-1083
▁eKr	-1084
▁saab	-1085
▁liikme	-1086
▁jooks	-1087
hke	-1088
sis	-1089
▁nä	-1090
bert	-1091
nk	-1092
mme	-1093
▁13	-1094
▁20.	-1095
▁Surnud	-1096
britanni	-1097
▁valitse	-1098
▁prantsuse	-1099
eru	-1100
tamise	-1101
▁august	-1102
äike	-1103
maati	-1104
maks	-1105
▁tõttu	-1106
▁september	-1107
▁eel	-1108
▁Aleksa	-1109
▁He	-1110
▁sõna	-1111
▁Mu	-1112
▁Fran	-1113
▁luule	-1114
kkus	-1115
duste	-1116
mised	-1117
▁aastat	-1118
▁To	-1119
▁tagasi	-1120
▁hää	-1121
▁linn	-1122
▁Y	-1123
18	-1124
tava	-1125
▁esimese	-1126
th	-1127
wa	-1128
▁187	-1129
▁kiriku	-1130
▁Suurbritanni	-1131
tele	-1132
▁And	-1133
2,	-1134
meti	-1135
▁määra	-1136
▁Da	-1137
lasi	-1138
▁mitte	-1139
▁poolt	-1140
▁järel	-1141
istrivõistlu	-1142
▁viima	-1143
▁kõ	-1144
osoo	-1145
▁asub	-1146
hn	-1147
ras	-1148
son	-1149
▁laul	-1150
▁Co	-1151
▁...	-1152
▁lõuna	-1153
lisi	-1154
risti	-1155
▁sümb	-1156
▁Tallinnas	-1157
▁Tema	-1158
stada	-1159
▁ainu	-1160
mata	-1161
▁Ber	-1162
▁sest	-1163
töö	-1164
▁puu	-1165
▁sel	-1166
▁oo	-1167
▁Hispaania	-1168
▁3.	-1169
päev	-1170
tega	-1171
▁(18	-1172
▁füü	-1173
▁olnud	-1174
ili	-1175
▁5.	-1176
adus	-1177
▁Bar	-1178
▁amet	-1179
nsti	-1180
▁kao	-1181
▁Itaalia	-1182
rim	-1183
vaa	-1184
▁kelle	-1185
sk	-1186
▁Pär	-1187
▁kalendri	-1188
▁X	-1189
▁Car	-1190
▁jõgi	-1191
▁Lääne	-1192
▁näiteks	-1193
▁Nor	-1194
▁are	-1195
▁mõju	-1196
▁võima	-1197
bia	-1198
lase	-1199
▁väga	-1200
mokraa	-1201
▁kasutuse	-1202
isi	-1203
mma	-1204
gani	-1205
nevad	-1206
▁lisa	-1207
▁vana	-1208
ndmused	-1209
mik	-1210
mär	-1211
▁tõl	-1212
aduse	-1213
likud	-1214
▁seal	-1215
ry	-1216
▁4.	-1217
▁6.	-1218
▁186	-1219
▁iga	-1220
rus	-1221
sen	-1222
iina	-1223
rem	-1224
▁Ühend	-1225
▁Suurbritannia	-1226
tiiv	-1227
stest	-1228
▁mee	-1229
▁uuri	-1230
lai	-1231
▁Tä	-1232
▁võimu	-1233
vel	-1234
▁seo	-1235
▁kuningas	-1236
seid	-1237
▁kinni	-1238
ndas	-1239
▁17.	-1240
kes	-1241
▁ühi	-1242
▁Sündmused	-1243
ome	-1244
▁12.	-1245
ndise	-1246
tused	-1247
au	-1248
like	-1249
▁13.	-1250
▁18.	-1251
▁riik	-1252
5,	-1253
aat	-1254
mid	-1255
▁7.	-1256
II	-1257
▁valiti	-1258
▁inimest	-1259
▁Poola	-1260
zi	-1261
▁heli	-1262
did	-1263
▁mõi	-1264
3,	-1265
ron	-1266
▁Pärast	-1267
4,	-1268
▁kerge	-1269
99	-1270
dee	-1271
▁inglise	-1272
▁kodu	-1273
kva	-1274
▁No	-1275
pool	-1276
▁olu	-1277
rand	-1278
dina	-1279
mala	-1280
rich	-1281
vere	-1282
▁Lee	-1283
rooni	-1284
muti	-1285
set	-1286
▁14.	-1287
▁valla	-1288
dab	-1289
▁Rahvus	-1290
▁aastatel	-1291
oom	-1292
pii	-1293
pro	-1294
▁10.	-1295
▁21.	-1296
mel	-1297
võt	-1298
▁Ala	-1299
▁hiljem	-1300
7,	-1301
▁rahu	-1302
▁Kesk	-1303
aas	-1304
▁of	-1305
nstnik	-1306
ра	-1307
gis	-1308
▁aato	-1309
▁juba	-1310
näi	-1311
aril	-1312
▁15.	-1313
▁Kon	-1314
▁Maail	-1315
võ	-1316
lee	-1317
▁Kirja	-1318
jel	-1319
▁Ho	-1320
man	-1321
▁8.	-1322
▁rü	-1323
eritud	-1324
kirjanik	-1325
▁maailmame	-1326
likooli	-1327
▁Di	-1328
▁ainult	-1329
bo	-1330
mees	-1331
ск	-1332
isri	-1333
▁Kee	-1334
▁c	-1335
öör	-1336
▁jalgpallikoo	-1337
▁to	-1338
gune	-1339
vale	-1340
▁11	-1341
▁Ol	-1342
▁sõjaväe	-1343
▁Ti	-1344
▁ho	-1345
▁arva	-1346
▁kasutatakse	-1347
temperatuur	-1348
ue	-1349
▁16.	-1350
▁presidendi	-1351
jär	-1352
ton	-1353
▁pü	-1354
▁Vana	-1355
deti	-1356
nkti	-1357
tavad	-1358
vasta	-1359
▁kõik	-1360
▁veel	-1361
▁andme	-1362
6,	-1363
▁alates	-1364
iri	-1365
kooli	-1366
▁0	-1367
▁Ing	-1368
▁võist	-1369
hju	-1370
▁Gre	-1371
pingu	-1372
▁klas	-1373
▁küla	-1374
▁liiku	-1375
▁mo	-1376
rite	-1377
▁jäi	-1378
▁parla	-1379
▁laulja	-1380
▁sajandil	-1381
so	-1382
nid	-1383
▁avati	-1384
ood	-1385
▁tuli	-1386
▁So	-1387
deks	-1388
frika	-1389
ngus	-1390
▁31.	-1391
▁asutati	-1392
hta	-1393
ppi	-1394
▁9.	-1395
▁tü	-1396
▁auto	-1397
▁11.	-1398
▁Por	-1399
▁Geor	-1400
▁lõpu	-1401
▁Rooma	-1402
▁ameerika	-1403
der	-1404
uro	-1405
beli	-1406
▁ring	-1407
▁täht	-1408
–20	-1409
▁("	-1410
▁kar	-1411
mar	-1412
▁hä	-1413
tust	-1414
▁nagu	-1415
▁maailmasõ	-1416
kra	-1417
▁202	-1418
▁lennu	-1419
ret	-1420
mbri	-1421
ndab	-1422
ster	-1423
▁lõpe	-1424
▁filosoo	-1425
malt	-1426
ääri	-1427
tamine	-1428
▁Lä	-1429
▁is	-1430
oonia	-1431
▁hoo	-1432
miste	-1433
▁Püha	-1434
steemi	-1435
▁Õ	-1436
▁(2	-1437
kkas	-1438
▁kil	-1439
stasid	-1440
minister	-1441
per	-1442
▁enda	-1443
ere	-1444
▁ameti	-1445
▁rea	-1446
▁algu	-1447
▁vära	-1448
▁miljoni	-1449
tav	-1450
za	-1451
sele	-1452
nim	-1453
tia	-1454
▁ümber	-1455
ime	-1456
nte	-1457
▁jalgpallu	-1458
ua	-1459
ze	-1460
▁'	-1461
its	-1462
tta	-1463
▁2003	-1464
▁lõpp	-1465
miselt	-1466
▁kultuuri	-1467
mmu	-1468
▁Mõ	-1469
▁algas	-1470
▁rajoon	-1471
vee	-1472
▁Üle	-1473
tanud	-1474
▁tava	-1475
stavad	-1476
dia	-1477
dud	-1478
looja	-1479
▁päev	-1480
▁erine	-1481
ntud	-1482
oor	-1483
▁25.	-1484
▁juunil	-1485
▁esimest	-1486
mm	-1487
kud	-1488
▁Asu	-1489
oloogi	-1490
öde	-1491
▁Tõ	-1492
mum	-1493
stis	-1494
▁sta	-1495
eiser	-1496
adlane	-1497
▁võttis	-1498
8,	-1499
palli	-1500
tuste	-1501
▁endi	-1502
lva	-1503
▁Bra	-1504
wi	-1505
▁28.	-1506
▁Juu	-1507
▁juhti	-1508
–16	-1509
jate	-1510
▁23.	-1511
▁uue	-1512
▁Holla	-1513
oto	-1514
illa	-1515
▁nelja	-1516
▁valge	-1517
▁kaitse	-1518
lit	-1519
tide	-1520
▁har	-1521
▁jao	-1522
▁tra	-1523
lla	-1524
▁vallu	-1525
▁Jõ	-1526
koha	-1527
▁Fri	-1528
ktiiv	-1529
▁kolm	-1530
mes	-1531
▁Kuu	-1532
otsiaal	-1533
01	-1534
hma	-1535
etri	-1536
▁nõu	-1537
▁lipu	-1538
raafia	-1539
▁kont	-1540
▁võeti	-1541
mõ	-1542
▁nu	-1543
tege	-1544
▁Mal	-1545
▁Hu	-1546
▁Ida	-1547
▁mees	-1548
maid	-1549
osas	-1550
▁ära	-1551
▁teine	-1552
▁märtsi	-1553
▁ge	-1554
▁The	-1555
▁tar	-1556
juhti	-1557
▁Juli	-1558
▁aval	-1559
misest	-1560
▁Kreeka	-1561
ürgi	-1562
▁haldus	-1563
▁keisri	-1564
▁helilooja	-1565
naa	-1566
▁Sel	-1567
▁tal	-1568
ktsiooni	-1569
10	-1570
▁lau	-1571
▁lei	-1572
mitee	-1573
▁Karl	-1574
▁kuna	-1575
▁andis	-1576
jas	-1577
oli	-1578
mate	-1579
▁mate	-1580
▁tegu	-1581
üüd	-1582
▁Ad	-1583
▁Kõi	-1584
▁hakkas	-1585
jä	-1586
bur	-1587
sal	-1588
tuu	-1589
▁vär	-1590
▁puna	-1591
nus	-1592
via	-1593
▁Sõ	-1594
nenud	-1595
▁koosse	-1596
▁Niko	-1597
leht	-1598
misega	-1599
▁Johan	-1600
mumtemperatuur	-1601
eli	-1602
kati	-1603
lles	-1604
▁22.	-1605
▁kõrg	-1606
▁otsu	-1607
▁väike	-1608
▁punkti	-1609
tik	-1610
▁184	-1611
fa	-1612
od	-1613
▁24.	-1614
▁Kol	-1615
▁õpe	-1616
▁sama	-1617
▁Taani	-1618
▁30.	-1619
▁Austria	-1620
har	-1621
üks	-1622
▁as	-1623
▁era	-1624
▁olla	-1625
stanti	-1626
50	-1627
hha	-1628
▁Mä	-1629
levi	-1630
▁Briti	-1631
lev	-1632
▁2002	-1633
uru	-1634
▁27.	-1635
▁toe	-1636
▁tegi	-1637
▁surma	-1638
▁sellest	-1639
▁Pea	-1640
▁vaa	-1641
▁kasva	-1642
▁kohtu	-1643
▁mängu	-1644
▁keiser	-1645
red	-1646
▁Os	-1647
▁Inglis	-1648
▁Ajalugu	-1649
rahu	-1650
ister	-1651
ndatud	-1652
▁luuletaja	-1653
ori	-1654
▁Har	-1655
▁2000	-1656
Aa	-1657
Roo	-1658
nal	-1659
eris	-1660
–200	-1661
▁Ste	-1662
▁tähi	-1663
ritoori	-1664
▁do	-1665
gori	-1666
tuga	-1667
▁eral	-1668
▁Gusta	-1669
▁August	-1670
▁Vil	-1671
▁teo	-1672
▁väl	-1673
▁lahi	-1674
ruusia	-1675
▁provi	-1676
▁millest	-1677
–199	-1678
▁roo	-1679
▁2004	-1680
▁nimi	-1681
3)	-1682
bra	-1683
▁Ant	-1684
▁Hel	-1685
▁mur	-1686
▁kasutusele	-1687
vii	-1688
▁30	-1689
▁Bu	-1690
▁Ru	-1691
isko	-1692
▁augu	-1693
▁maad	-1694
▁kolme	-1695
sete	-1696
▁26.	-1697
▁majandus	-1698
▁29.	-1699
▁Jär	-1700
ndati	-1701
▁viis	-1702
▁Linna	-1703
hh	-1704
▁In	-1705
▁Her	-1706
▁tuge	-1707
9,	-1708
kj	-1709
nas	-1710
lekt	-1711
lust	-1712
mises	-1713
▁teiste	-1714
▁sise	-1715
kuju	-1716
kadee	-1717
▁kos	-1718
▁keemi	-1719
▁rohke	-1720
▁ä	-1721
gip	-1722
tama	-1723
▁Bal	-1724
▁levi	-1725
▁Pärnu	-1726
▁seisu	-1727
one	-1728
pul	-1729
tur	-1730
▁Ke	-1731
▁Hen	-1732
▁Tše	-1733
etrit	-1734
ий	-1735
kau	-1736
tal	-1737
tre	-1738
var	-1739
–17	-1740
mann	-1741
hulgas	-1742
▁Leedu	-1743
▁kaasa	-1744
▁kirjandus	-1745
▁nimetatakse	-1746
он	-1747
aali	-1748
pani	-1749
▁100	-1750
▁Gar	-1751
▁sar	-1752
▁2001	-1753
▁Tea	-1754
▁pere	-1755
rekord	-1756
linn	-1757
▁Paul	-1758
▁päeva	-1759
▁sisse	-1760
7)	-1761
kke	-1762
aari	-1763
ktor	-1764
vaid	-1765
▁isa	-1766
▁ras	-1767
▁üld	-1768
5)	-1769
jev	-1770
▁Do	-1771
nduste	-1772
▁kergejõu	-1773
ndia	-1774
▁koht	-1775
▁lääne	-1776
mokraat	-1777
vid	-1778
ladi	-1779
riks	-1780
dust	-1781
vust	-1782
äili	-1783
▁185	-1784
▁lõi	-1785
jooks	-1786
▁Mari	-1787
▁enne	-1788
▁abiel	-1789
tsid	-1790
▁aine	-1791
Ko	-1792
bli	-1793
hku	-1794
jao	-1795
▁ab	-1796
▁arv	-1797
ooria	-1798
▁aega	-1799
▁mõiste	-1800
▁oktoob	-1801
jaa	-1802
rdi	-1803
▁Ed	-1804
vene	-1805
▁Saare	-1806
▁põllu	-1807
▁Tallinn	-1808
▁Prantsuse	-1809
kar	-1810
▁ula	-1811
▁teise	-1812
2)	-1813
esi	-1814
▁Pro	-1815
▁eks	-1816
seeri	-1817
▁progra	-1818
▁kuulutas	-1819
tub	-1820
▁Vee	-1821
▁ast	-1822
▁Norra	-1823
▁milles	-1824
▁olümpia	-1825
cha	-1826
chi	-1827
olo	-1828
ten	-1829
▁ра	-1830
dala	-1831
tika	-1832
▁Uus	-1833
▁hea	-1834
▁pri	-1835
▁need	-1836
nõukogu	-1837
1)	-1838
ph	-1839
gid	-1840
kuu	-1841
▁Bel	-1842
▁Pee	-1843
▁raud	-1844
baania	-1845
▁Hiina	-1846
vkj	-1847
oodi	-1848
▁välis	-1849
▁rohkem	-1850
olümpiamängu	-1851
30	-1852
olf	-1853
▁hü	-1854
leja	-1855
raal	-1856
▁Kas	-1857
ndada	-1858
▁samuti	-1859
▁korralda	-1860
Ma	-1861
aan	-1862
lasti	-1863
▁Peter	-1864
tä	-1865
xi	-1866
ldi	-1867
▁Nar	-1868
▁Pal	-1869
▁tõe	-1870
oloog	-1871
rde	-1872
rei	-1873
▁säili	-1874
ff	-1875
▁hõbe	-1876
▁mõne	-1877
▁tunnu	-1878
▁saanud	-1879
▁rahvusvahe	-1880
lau	-1881
ring	-1882
ümne	-1883
▁neid	-1884
▁territoori	-1885
jal	-1886
lan	-1887
mäe	-1888
ümn	-1889
tolu	-1890
▁New	-1891
▁jät	-1892
▁teki	-1893
▁Vabariik	-1894
hol	-1895
▁lk	-1896
pära	-1897
volu	-1898
▁sõi	-1899
tuses	-1900
▁Liit	-1901
▁jaga	-1902
päeval	-1903
▁loodus	-1904
▁Ühendriikide	-1905
jõ	-1906
ren	-1907
ühe	-1908
gist	-1909
ning	-1910
▁vara	-1911
▁võit	-1912
▁Aleksander	-1913
6)	-1914
aeg	-1915
vaks	-1916
▁Mon	-1917
▁ida	-1918
▁pole	-1919
▁aatomi	-1920
▁kuulub	-1921
▁linnad	-1922
▁Gruusia	-1923
▁bi	-1924
lubi	-1925
▁eda	-1926
guste	-1927
nikud	-1928
idus	-1929
▁=	-1930
muu	-1931
▁III	-1932
▁Mos	-1933
▁teda	-1934
▁peale	-1935
ise	-1936
med	-1937
berg	-1938
kivi	-1939
vaba	-1940
▁Iraa	-1941
statakse	-1942
▁toimusid	-1943
▁Kal	-1944
▁Näi	-1945
▁vesi	-1946
▁kuber	-1947
8)	-1948
nen	-1949
hite	-1950
lar	-1951
▁Er	-1952
kide	-1953
ruse	-1954
▁Per	-1955
▁Vor	-1956
▁vapp	-1957
▁puhul	-1958
ani	-1959
hni	-1960
jus	-1961
üri	-1962
laid	-1963
saar	-1964
üüdi	-1965
▁jõe	-1966
▁John	-1967
▁liige	-1968
▁valmi	-1969
▁Gregori	-1970
▁päritolu	-1971
kad	-1972
sto	-1973
▁0,	-1974
▁ba	-1975
▁uus	-1976
siooni	-1977
▁saavu	-1978
▁elektri	-1979
tti	-1980
▁Võ	-1981
ский	-1982
▁vaja	-1983
▁jooksul	-1984
60	-1985
▁|-	-1986
▁minu	-1987
satsiooni	-1988
gne	-1989
tusi	-1990
Rooma	-1991
menti	-1992
ngari	-1993
hvi	-1994
idž	-1995
▁Han	-1996
▁hõi	-1997
oleku	-1998
meenia	-1999
ratsiooni	-2000
▁tuu	-2001
saare	-2002
▁1999	-2003
▁Ilma	-2004
▁juhi	-2005
▁talu	-2006
▁Aastal	-2007
▁miljonit	-2008
▁rä	-2009
▁käsi	-2010
▁luba	-2011
▁olümpiamängu	-2012
pol	-2013
йон	-2014
tion	-2015
▁end	-2016
landi	-2017
▁enam	-2018
kaitse	-2019
raalia	-2020
▁район	-2021
▁elanik	-2022
▁Kirjandus	-2023
dio	-2024
gru	-2025
rts	-2026
väär	-2027
▁Töö	-2028
▁Nobeli	-2029
▁aastani	-2030
▁alustas	-2031
▁lähedal	-2032
14	-2033
ler	-2034
▁Või	-2035
▁vai	-2036
▁prae	-2037
▁osale	-2038
▁maakonna	-2039
hü	-2040
▁25	-2041
▁Gi	-2042
etud	-2043
▁õhu	-2044
▁1994	-2045
▁said	-2046
▁kohal	-2047
▁augusti	-2048
▁elektro	-2049
▁toimunud	-2050
▁Inglismaa	-2051
ngo	-2052
mani	-2053
mini	-2054
▁elas	-2055
▁väikse	-2056
▁võimalik	-2057
peri	-2058
▁Portuga	-2059
rd	-2060
pai	-2061
▁the	-2062
▁alga	-2063
▁peab	-2064
▁raha	-2065
▁suri	-2066
▁Liivi	-2067
▁puudu	-2068
▁valitsuse	-2069
ile	-2070
▁183	-2071
▁Riik	-2072
▁para	-2073
▁Fried	-2074
juhtide	-2075
põ	-2076
–15	-2077
▁us	-2078
nada	-2079
stes	-2080
▁180	-2081
vastaja	-2082
▁Tartus	-2083
▁kirjel	-2084
▁tegutse	-2085
ev	-2086
pus	-2087
▁Kü	-2088
land	-2089
▁San	-2090
▁pol	-2091
▁anti	-2092
▁asus	-2093
▁lahe	-2094
▁suuri	-2095
▁Partei	-2096
▁olemas	-2097
▁millega	-2098
bel	-2099
mba	-2100
tin	-2101
▁nr	-2102
asse	-2103
ilia	-2104
▁ede	-2105
▁paik	-2106
era	-2107
jää	-2108
▁Sch	-2109
▁nor	-2110
ressi	-2111
▁Vali	-2112
▁tead	-2113
▁sisal	-2114
▁Gregoriuse	-2115
mast	-2116
eriti	-2117
▁sõlmi	-2118
▁inimese	-2119
25	-2120
40	-2121
all	-2122
kat	-2123
pil	-2124
▁St	-2125
htis	-2126
▁kal	-2127
järel	-2128
▁1998	-2129
▁Carl	-2130
koolide	-2131
▁jalgpallur	-2132
dam	-2133
gua	-2134
▁lo	-2135
▁so	-2136
vide	-2137
▁Ser	-2138
▁üht	-2139
▁sport	-2140
▁Hi	-2141
▁es	-2142
dada	-2143
küla	-2144
desse	-2145
▁2008	-2146
▁ooke	-2147
▁Riigikogu	-2148
▁Q	-2149
olu	-2150
▁Bi	-2151
▁Or	-2152
▁||	-2153
lova	-2154
▁1940	-2155
▁kiire	-2156
▁suurim	-2157
Ka	-2158
em	-2159
and	-2160
puu	-2161
▁(16	-2162
▁Char	-2163
▁tunni	-2164
den	-2165
ger	-2166
lil	-2167
itsi	-2168
rina	-2169
▁Koo	-2170
stele	-2171
▁ligi	-2172
▁läks	-2173
▁mäle	-2174
▁pare	-2175
▁kirik	-2176
▁Robert	-2177
▁jaanuaril	-2178
▁1,	-2179
▁eba	-2180
▁paa	-2181
maani	-2182
▁kehte	-2183
▁teadus	-2184
▁Juliuse	-2185
cel	-2186
juht	-2187
▁Kul	-2188
▁Sta	-2189
▁aeg	-2190
▁ühis	-2191
▁Parii	-2192
▁Gustav	-2193
etš	-2194
ust	-2195
posi	-2196
▁müü	-2197
▁keha	-2198
▁kauba	-2199
▁kosmo	-2200
▁kuning	-2201
4)	-2202
▁teha	-2203
äikese	-2204
▁lõppes	-2205
▁1:	-2206
▁ee	-2207
mere	-2208
▁Vai	-2209
ndust	-2210
misele	-2211
raabia	-2212
▁alguse	-2213
▁muusika	-2214
▁Friedrich	-2215
▁matemaati	-2216
▁aru	-2217
lises	-2218
▁Jaan	-2219
▁püha	-2220
▁sugu	-2221
kraina	-2222
▁eriti	-2223
▁järje	-2224
▁neist	-2225
▁esinda	-2226
▁kunsti	-2227
▁provintsi	-2228
▁valitsusjuhtide	-2229
hed	-2230
kal	-2231
▁Et	-2232
▁suh	-2233
▁usu	-2234
▁2006	-2235
▁sage	-2236
▁põhju	-2237
▁raamatu	-2238
▁jalgpalli	-2239
meda	-2240
toni	-2241
vane	-2242
vara	-2243
suusa	-2244
▁1919	-2245
▁jagu	-2246
▁Suure	-2247
▁tõlki	-2248
liam	-2249
▁Muu	-2250
stani	-2251
▁täie	-2252
▁pinda	-2253
▁tulemuse	-2254
70	-2255
fe	-2256
juu	-2257
▁Tal	-2258
▁(199	-2259
▁vane	-2260
▁väed	-2261
▁käigus	-2262
▁saared	-2263
▁elanike	-2264
▁maakond	-2265
misi	-2266
▁mitu	-2267
▁taas	-2268
▁juulil	-2269
▁Nikolai	-2270
▁osariigi	-2271
▁peamiselt	-2272
9)	-2273
hus	-2274
otsia	-2275
ridus	-2276
mistel	-2277
▁laeva	-2278
liseeri	-2279
ya	-2280
lin	-2281
deme	-2282
ninga	-2283
komitee	-2284
▁Rahvusvahe	-2285
11	-2286
▁/	-2287
ell	-2288
iss	-2289
leb	-2290
▁Bur	-2291
▁lahu	-2292
likuks	-2293
▁Monte	-2294
▁Loodus	-2295
▁kõrgkoolide	-2296
▁cm	-2297
▁Nee	-2298
▁ema	-2299
▁vor	-2300
▁2009	-2301
▁Saar	-2302
▁seas	-2303
keelne	-2304
▁liidu	-2305
▁massi	-2306
▁esimesed	-2307
▁peetakse	-2308
22	-2309
egu	-2310
idid	-2311
sist	-2312
▁kül	-2313
Eesti	-2314
▁Egip	-2315
▁ilmu	-2316
▁Teine	-2317
▁Valge	-2318
▁teada	-2319
75	-2320
kis	-2321
▁Wa	-2322
beri	-2323
gede	-2324
iste	-2325
ress	-2326
▁kat	-2327
ndeid	-2328
nniku	-2329
▁1990	-2330
▁1991	-2331
▁kuld	-2332
▁maha	-2333
liseks	-2334
▁sarna	-2335
▁eesmär	-2336
▁juures	-2337
▁Esimene	-2338
▁filosoof	-2339
han	-2340
ille	-2341
liit	-2342
▁2005	-2343
▁suhte	-2344
▁Asulad	-2345
▁William	-2346
▁maailmasõda	-2347
üna	-2348
▁Be	-2349
ltsi	-2350
▁Hor	-2351
rikas	-2352
▁kehti	-2353
▁tuleb	-2354
▁keeled	-2355
▁organi	-2356
▁spordi	-2357
näitleja	-2358
▁märtsil	-2359
▁oblasti	-2360
▁raudtee	-2361
▁Hollandi	-2362
▁mängijad	-2363
▁Ülikooli	-2364
▁iseseisvus	-2365
▁kergejõustik	-2366
istrivõistlused	-2367
21	-2368
78	-2369
die	-2370
▁An	-2371
▁Uni	-2372
aalne	-2373
davad	-2374
stanud	-2375
▁oleks	-2376
▁sõltu	-2377
▁klassi	-2378
▁š	-2379
▁El	-2380
▁Fa	-2381
sust	-2382
▁Kor	-2383
▁hääl	-2384
stunud	-2385
▁India	-2386
▁edasi	-2387
▁George	-2388
▁tähtsa	-2389
▁Eestimaa	-2390
gal	-2391
ruk	-2392
ener	-2393
▁2007	-2394
▁kõne	-2395
▁maksi	-2396
likunstnik	-2397
fia	-2398
▁Is	-2399
teid	-2400
▁Sal	-2401
nesid	-2402
▁1995	-2403
▁Lisa	-2404
▁auhi	-2405
▁kuulus	-2406
▁protse	-2407
▁[	-2408
gro	-2409
plo	-2410
pti	-2411
▁178	-2412
▁Šve	-2413
dakse	-2414
▁1992	-2415
▁eksi	-2416
▁rake	-2417
▁hulka	-2418
%,	-2419
-,	-2420
ов	-2421
gor	-2422
▁179	-2423
▁Pre	-2424
▁sea	-2425
talli	-2426
▁1939	-2427
▁ilma	-2428
▁kaudu	-2429
▁laulu	-2430
▁krooni	-2431
▁osales	-2432
▁Albaania	-2433
bis	-2434
helm	-2435
siku	-2436
▁Ger	-2437
▁oku	-2438
▁kooli	-2439
tegelane	-2440
▁oktoobril	-2441
▁Austraalia	-2442
fil	-2443
ino	-2444
stid	-2445
▁Kau	-2446
▁pil	-2447
▁var	-2448
stitu	-2449
▁Jüri	-2450
kadeemia	-2451
rekordid	-2452
▁Konstanti	-2453
qu	-2454
käi	-2455
▁rõ	-2456
kate	-2457
salu	-2458
▁kom	-2459
▁piira	-2460
▁piisko	-2461
▁alguses	-2462
Sa	-2463
kon	-2464
▁Cha	-2465
▁Con	-2466
▁Fer	-2467
▁1996	-2468
▁endine	-2469
ograafia	-2470
")	-2471
goo	-2472
ked	-2473
buri	-2474
stia	-2475
jekti	-2476
▁kilome	-2477
▁Aleksand	-2478
▁Maailmas	-2479
13	-2480
bus	-2481
▁2:	-2482
dama	-2483
▁Nii	-2484
▁ruu	-2485
▁1993	-2486
▁peri	-2487
▁piiri	-2488
▁sünni	-2489
lovakki	-2490
▁Näiteks	-2491
▁kindral	-2492
▁sotsiaal	-2493
▁parlamendi	-2494
poli	-2495
▁Mär	-2496
▁Pii	-2497
▁koda	-2498
▁võrd	-2499
▁muutu	-2500
konnast	-2501
▁mängis	-2502
▁partei	-2503
▁taasta	-2504
▁sõjaväelane	-2505
80	-2506
nur	-2507
▁lää	-2508
steem	-2509
▁Läti	-2510
▁Narva	-2511
▁Alates	-2512
ditsiooni	-2513
▁Johannes	-2514
▁nimetati	-2515
▁moodustati	-2516
▁tavaliselt	-2517
▁veebruaril	-2518
▁At	-2519
▁Lou	-2520
▁alg	-2521
▁hal	-2522
manda	-2523
mbris	-2524
▁ener	-2525
▁inim	-2526
▁mail	-2527
▁Haldus	-2528
▁hakati	-2529
▁territooriumi	-2530
lat	-2531
ley	-2532
pse	-2533
▁fa	-2534
oolu	-2535
▁Seda	-2536
▁minuti	-2537
▁seotud	-2538
▁Konstantin	-2539
▁ajakirjanik	-2540
12	-2541
17	-2542
dati	-2543
rahv	-2544
▁Gra	-2545
▁Vol	-2546
▁ain	-2547
▁mõt	-2548
▁rää	-2549
▁tsi	-2550
▁vür	-2551
▁juht	-2552
▁suve	-2553
▁talle	-2554
Aafrika	-2555
▁Maailma	-2556
▁ajakirja	-2557
ntu	-2558
▁edu	-2559
peade	-2560
▁toot	-2561
▁õnne	-2562
▁leidu	-2563
▁rajati	-2564
▁füüsika	-2565
▁tähendab	-2566
▁maalikunstnik	-2567
ean	-2568
stõ	-2569
▁Ab	-2570
õrge	-2571
▁Haa	-2572
▁pää	-2573
konnad	-2574
▁hakka	-2575
▁riiki	-2576
▁hukkus	-2577
▁juurde	-2578
▁filminäitleja	-2579
45	-2580
biil	-2581
kiri	-2582
liima	-2583
▁1938	-2584
jaotus	-2585
▁mõisa	-2586
▁millel	-2587
▁põhise	-2588
▁koosseisu	-2589
vitš	-2590
▁|1.	-2591
loomu	-2592
▁1997	-2593
▁tihe	-2594
▁väär	-2595
nduses	-2596
▁Türgi	-2597
▁hinna	-2598
▁saarel	-2599
▁ülikooli	-2600
fo	-2601
rin	-2602
ilja	-2603
üüpi	-2604
▁eta	-2605
▁tur	-2606
dused	-2607
keele	-2608
likke	-2609
▁arhite	-2610
."	-2611
jo	-2612
–2	-2613
ide	-2614
kov	-2615
mil	-2616
||(	-2617
▁Du	-2618
▁herts	-2619
▁hoone	-2620
eeriumi	-2621
▁ookeani	-2622
▁ö	-2623
onis	-2624
▁anna	-2625
▁süsi	-2626
▁pealinna	-2627
▁novembril	-2628
▁peaminister	-2629
hal	-2630
pan	-2631
▁kg	-2632
nuse	-2633
▁Kri	-2634
▁Nime	-2635
▁üles	-2636
▁pärit	-2637
stamine	-2638
▁Christi	-2639
▁abiellus	-2640
▁Ilmarekordid	-2641
15	-2642
▁†	-2643
▁Ve	-2644
▁ide	-2645
datud	-2646
▁(200	-2647
▁Lond	-2648
▁leid	-2649
▁neli	-2650
tamist	-2651
▁Mihha	-2652
▁Pühad	-2653
▁alles	-2654
▁kodus	-2655
▁saadi	-2656
ünastia	-2657
▁suurem	-2658
▁Charles	-2659
76	-2660
še	-2661
kte	-2662
▁ega	-2663
aaegu	-2664
negro	-2665
▁jõud	-2666
▁lühi	-2667
▁poeg	-2668
▁ilmus	-2669
▁sümbo	-2670
lovakkia	-2671
▁Wilhelm	-2672
▁itaalia	-2673
▁koosneb	-2674
▁Šveitsi	-2675
▁septembril	-2676
RO	-2677
we	-2678
▁2,	-2679
kuse	-2680
▁Sto	-2681
inaal	-2682
▁kuul	-2683
▁ülem	-2684
▁Vladi	-2685
▁tekki	-2686
▁hooaja	-2687
▁kaotas	-2688
tõ	-2689
loe	-2690
kool	-2691
▁Era	-2692
▁Maja	-2693
▁Täna	-2694
▁elab	-2695
▁sini	-2696
▁(1901	-2697
▁Brasi	-2698
▁loodi	-2699
▁arvuti	-2700
▁siiski	-2701
▁Aafrika	-2702
▁liikmed	-2703
▁omavali	-2704
▁Aastatel	-2705
liga	-2706
liik	-2707
vast	-2708
▁Mee	-2709
korda	-2710
▁Iiri	-2711
▁küsi	-2712
▁mõis	-2713
▁seni	-2714
▁võim	-2715
▁Balti	-2716
▁kõigi	-2717
▁miini	-2718
▁Gardie	-2719
▁esimees	-2720
▁lepingu	-2721
▁andmetel	-2722
▁augustil	-2723
▁sealhulgas	-2724
▁moodustavad	-2725
gaa	-2726
jaks	-2727
▁hoi	-2728
kvara	-2729
▁1918	-2730
▁üksi	-2731
aastal	-2732
▁tuntud	-2733
▁Jaapani	-2734
▁Mihhail	-2735
▁kunstnik	-2736
▁haldusüks	-2737
gar	-2738
gen	-2739
▁püü	-2740
masti	-2741
▁tali	-2742
▁soovi	-2743
▁alusel	-2744
▁lõpetas	-2745
▁piirkond	-2746
▁põllumaja	-2747
▁tänapäeva	-2748
▁24	-2749
lipp	-2750
piir	-2751
tari	-2752
▁Rei	-2753
Korea	-2754
▁õppe	-2755
oolika	-2756
▁2004.	-2757
inglise	-2758
▁Moskva	-2759
▁sündis	-2760
▁ehitati	-2761
ig	-2762
iti	-2763
mir	-2764
▁On	-2765
pole	-2766
▁tor	-2767
▁ver	-2768
stamise	-2769
▁ametlik	-2770
▁poolest	-2771
by	-2772
ves	-2773
mbia	-2774
nide	-2775
reid	-2776
vaar	-2777
▁ali	-2778
▁imp	-2779
▁noo	-2780
▁abil	-2781
▁jääb	-2782
▁viie	-2783
partei	-2784
▁hääle	-2785
▁seadus	-2786
▁pindala	-2787
▁detsembril	-2788
Vi	-2789
cia	-2790
tra	-2791
99).	-2792
anus	-2793
male	-2794
uuri	-2795
▁Osa	-2796
▁Tor	-2797
detud	-2798
etšee	-2799
▁ordu	-2800
▁keelt	-2801
▁liiki	-2802
▁pikku	-2803
süsteemi	-2804
▁Peterburi	-2805
La	-2806
ono	-2807
▁Sc	-2808
▁ää	-2809
jaid	-2810
rolli	-2811
▁mõle	-2812
▁pöör	-2813
▁Kõige	-2814
▁jaoks	-2815
–2099).	-2816
▁Lisaks	-2817
▁jõudis	-2818
▁punktiga	-2819
volutsiooni	-2820
cus	-2821
fta	-2822
lal	-2823
ssa	-2824
▁rii	-2825
liidu	-2826
▁1970	-2827
▁kutsu	-2828
▁soome	-2829
▁vaimu	-2830
▁jaanua	-2831
▁Olümpia	-2832
▁aprillil	-2833
▁iseloomu	-2834
positsiooni	-2835
32	-2836
38	-2837
bü	-2838
ose	-2839
poe	-2840
poo	-2841
rek	-2842
sõna	-2843
välja	-2844
▁1945	-2845
▁2011	-2846
▁metsa	-2847
▁asuvad	-2848
▁meetri	-2849
▁Portugali	-2850
▁.	-2851
her	-2852
min	-2853
nõu	-2854
▁Za	-2855
▁Ema	-2856
lisel	-2857
▁Rein	-2858
▁euro	-2859
▁liit	-2860
▁üldi	-2861
▁Nende	-2862
▁astus	-2863
▁krist	-2864
▁süüdi	-2865
▁taime	-2866
▁Kiriku	-2867
▁Peeter	-2868
cki	-2869
sil	-2870
▁MM	-2871
engu	-2872
▁mõõ	-2873
happe	-2874
▁otse	-2875
lisest	-2876
▁Silla	-2877
▁auton	-2878
▁Johann	-2879
▁jumala	-2880
tamiseks	-2881
bid	-2882
rat	-2883
sas	-2884
▁Je	-2885
blee	-2886
kute	-2887
▁1941	-2888
▁kest	-2889
▁pidi	-2890
▁korra	-2891
▁tütar	-2892
▁Serbia	-2893
▁madala	-2894
▁riigis	-2895
▁kuuluvad	-2896
▁Montenegro	-2897
▁Haldusjaotus	-2898
36	-2899
cu	-2900
nev	-2901
old	-2902
juti	-2903
ksid	-2904
tule	-2905
muste	-2906
▁Ülem	-2907
teadlane	-2908
▁dünastia	-2909
▁mälestus	-2910
istrivõistlustel	-2911
ie	-2912
iiu	-2913
oti	-2914
▁Eli	-2915
▁kri	-2916
aalis	-2917
korra	-2918
▁1934	-2919
▁järve	-2920
▁peaaegu	-2921
44	-2922
ou	-2923
bor	-2924
gee	-2925
lami	-2926
lipu	-2927
ming	-2928
otoo	-2929
▁Iis	-2930
▁Raa	-2931
kordi	-2932
stide	-2933
▁1920	-2934
▁medi	-2935
▁tasa	-2936
celona	-2937
▁Elekt	-2938
▁Mauri	-2939
▁Põllu	-2940
▁valda	-2941
▁kõrval	-2942
16	-2943
kir	-2944
lav	-2945
äär	-2946
▁fu	-2947
▁Nad	-2948
▁Tho	-2949
▁Var	-2950
▁Rich	-2951
▁hävi	-2952
▁õige	-2953
▁mingi	-2954
▁Napole	-2955
▁füüsik	-2956
▁saarte	-2957
▁Ukraina	-2958
▁riikide	-2959
▁kasutada	-2960
▁Barcelona	-2961
▁rahvastiku	-2962
57	-2963
hid	-2964
kob	-2965
mor	-2966
▁50	-2967
▁mü	-2968
chel	-2969
pida	-2970
▁rüü	-2971
▁1971	-2972
meeste	-2973
▁hõlma	-2974
▁raske	-2975
▁Horvaa	-2976
▁ülestõ	-2977
sündinud	-2978
▁energia	-2979
);	-2980
lide	-2981
▁Cor	-2982
▁Edu	-2983
▁Oma	-2984
▁Too	-2985
▁Yor	-2986
tajad	-2987
▁tuha	-2988
▁kindla	-2989
▁rajooni	-2990
▁koduleht	-2991
%.	-2992
gos	-2993
kil	-2994
klo	-2995
rak	-2996
▁	-2997
a	-2998
i	-2999
e	-3000
s	-3001
t	-3002
l	-3003
u	-3004
n	-3005
o	-3006
r	-3007
k	-3008
d	-3009
m	-3010
v	-3011
g	-3012
j	-3013
p	-3014
.	-3015
h	-3016
,	-3017
1	-3018
ä	-3019
õ	-3020
b	-3021
9	-3022
0	-3023
ü	-3024
2	-3025
–	-3026
S	-3027
K	-3028
A	-3029
8	-3030
T	-3031
-	-3032
V	-3033
P	-3034
(	-3035
)	-3036
E	-3037
M	-3038
3	-3039
5	-3040
7	-3041
6	-3042
4	-3043
L	-3044
f	-3045
R	-3046
c	-3047
I	-3048
ö	-3049
"	-3050
N	-3051
H	-3052
B	-3053
J	-3054
C	-3055
G	-3056
:	-3057
y	-3058
F	-3059
O	-3060
D	-3061
U	-3062
z	-3063
w	-3064
š	-3065
'	-3066
W	-3067
Ü	-3068
|	-3069
;	-3070
%	-3071
x	-3072
а	-3073
о	-3074
ž	-3075
/	-3076
и	-3077
é	-3078
н	-3079
р	-3080
с	-3081
X	-3082
Z	-3083
е	-3084
+	-3085
к	-3086
°	-3087
й	-3088
Y	-3089
Š	-3090
в	-3091
q	-3092
л	-3093
ó	-3094
á	-3095
т	-3096
=	-3097
í	-3098
Õ	-3099
д	-3100
у	-3101
Q	-3102
!	-3103
м	-3104
я	-3105
ë	-3106
г	-3107
]	-3108
?	-3109
ł	-3110
[	-3111
ā	-3112
б	-3113
†	-3114
ы	-3115
ь	-3116
ø	-3117
п	-3118
С	-3119
å	-3120
“	-3121
č	-3122
−	-3123
ç	-3124
è	-3125
ī	-3126
ă	-3127
К	-3128
>	-3129
*	-3130
„	-3131
з	-3132
ч	-3133
”	-3134
ć	-3135
Ö	-3136
×	-3137
Р	-3138
П	-3139
Ä	-3140
ō	-3141
х	-3142
<	-3143
ш	-3144
ñ	-3145
#	-3146
É	-3147
ц	-3148
Ž	-3149
ж	-3150
ū	-3151
А	-3152
Н	-3153
э	-3154
і	-3155
М	-3156
В	-3157
ý	-3158
ė	-3159
ã	-3160
ο	-3161
Å	-3162
Г	-3163
ё	-3164
‘	-3165
ς	-3166
Б	-3167
ş	-3168
ș	-3169
α	-3170
ú	-3171
’	-3172
И	-3173
О	-3174
ē	-3175
Т	-3176
‎	-3177
â	-3178
ń	-3179
æ	-3180
ż	-3181
ا	-3182
ρ	-3183
З	-3184
→	-3185
·	-3186
τ	-3187
ъ	-3188
μ	-3189
ν	-3190
Д	-3191
_	-3192
Л	-3193
ф	-3194
}	-3195
σ	-3196
&	-3197
Č	-3198
ı	-3199
ß	-3200
ț	-3201
λ	-3202
{	-3203
­	-3204
à	-3205
ô	-3206
ř	-3207
ι	-3208
У	-3209
ю	-3210
ḩ	-3211
‰	-3212
ę	-3213
م	-3214
′	-3215
Á	-3216
ŏ	-3217
π	-3218
⟨	-3219
⟩	-3220
ě	-3221
κ	-3222
ر	-3223
ي	-3224
ś	-3225
щ	-3226
ل	-3227
î	-3228
η	-3229
İ	-3230
ə	-3231
ա	-3232
́	-3233
ε	-3234
ό	-3235
‒	-3236
~	-3237
ï	-3238
ŭ	-3239
γ	-3240
ј	-3241
`	-3242
ð	-3243
δ	-3244
υ	-3245
Ш	-3246
«	-3247
»	-3248
đ	-3249
ţ	-3250
Е	-3251
Ч	-3252
Ḩ	-3253
—	-3254
§	-3255
ą	-3256
ň	-3257
θ	-3258
Ф	-3259
ة	-3260
Ś	-3261
ά	-3262
Х	-3263
Ц	-3264
ن	-3265
ų	-3266
ί	-3267
ب	-3268
د	-3269
ა	-3270
Ø	-3271
Ş	-3272
Э	-3273
Я	-3274
​	-3275
ő	-3276
ў	-3277
ב	-3278
ح	-3279
ი	-3280
Ł	-3281
Ż	-3282
έ	-3283
φ	-3284
Ю	-3285
ق	-3286
و	-3287
Ā	-3288
ļ	-3289
ή	-3290
β	-3291
ω	-3292
ն	-3293
א	-3294
한	-3295
Ē	-3296
ğ	-3297
ź	-3298
ʻ	-3299
ː	-3300
Σ	-3301
ל	-3302
ص	-3303
ع	-3304
대	-3305
^	-3306
Ð	-3307
Ú	-3308
Đ	-3309
ņ	-3310
Ō	-3311
χ	-3312
ր	-3313
ה	-3314
י	-3315
\	-3316
Ç	-3317
Í	-3318
ò	-3319
ǎ	-3320
Ș	-3321
Ω	-3322
ز	-3323
ك	-3324
ḑ	-3325
•	-3326
우	-3327
이	-3328
하	-3329
$	-3330
Ó	-3331
ê	-3332
ʿ	-3333
ˈ	-3334
Α	-3335
Ε	-3336
Κ	-3337
Π	-3338
Њ	-3339
Ж	-3340
ћ	-3341
բ	-3342
ե	-3343
ج	-3344
≤	-3345
리	-3346
ì	-3347
ù	-3348
ħ	-3349
ķ	-3350
̠	-3351
͍	-3352
Ы	-3353
յ	-3354
ռ	-3355
ت	-3356
்	-3357
ე	-3358
ლ	-3359
ồ	-3360
⁄	-3361
€	-3362
⊃	-3363
╞	-3364
국	-3365
나	-3366
동	-3367
세	-3368
은	-3369
주	-3370
@	-3371
±	-3372
Î	-3373
ÿ	-3374
ŋ	-3375
ɡ	-3376
ʑ	-3377
ˑ	-3378
̞	-3379
̧	-3380
Δ	-3381
Λ	-3382
Ν	-3383
Χ	-3384
Ղ	-3385
ի	-3386
ղ	-3387
מ	-3388
ר	-3389
ש	-3390
س	-3391
ه	-3392
ى	-3393
ப	-3394
ვ	-3395
შ	-3396
∈	-3397
州	-3398
道	-3399
남	-3400
도	-3401
시	-3402
제	-3403
¡	-3404
Æ	-3405
Þ	-3406
Ħ	-3407
Œ	-3408
ů	-3409
Ə	-3410
ǔ	-3411
ɪ	-3412
ɾ	-3413
ʝ	-3414
̊	-3415
Γ	-3416
Θ	-3417
ξ	-3418
ώ	-3419
ї	-3420
љ	-3421
ҳ	-3422
Լ	-3423
ո	-3424
տ	-3425
ւ	-3426
ָ	-3427
ת	-3428
ش	-3429
ض	-3430
ட	-3431
ி	-3432
ბ	-3433
፡	-3434
ḯ	-3435
ệ	-3436
ἄ	-3437
∙	-3438
∩	-3439
∪	-3440
≡	-3441
る	-3442
五	-3443
北	-3444
南	-3445
大	-3446
孔	-3447
形	-3448
旗	-3449
朝	-3450
東	-3451
治	-3452
海	-3453
金	-3454
韓	-3455
가	-3456
고	-3457
구	-3458
기	-3459
김	-3460
두	-3461
로	-3462
무	-3463
보	-3464
사	-3465
산	-3466
선	-3467
성	-3468
을	-3469
일	-3470
조	-3471
태	-3472
학	-3473
£	-3474
¿	-3475
À	-3476
Ñ	-3477
û	-3478
þ	-3479
Ġ	-3480
ġ	-3481
ģ	-3482
ơ	-3483
ư	-3484
ǒ	-3485
ɛ	-3486
ʁ	-3487
ʎ	-3488
ΐ	-3489
Ι	-3490
Μ	-3491
Ρ	-3492
ψ	-3493
ύ	-3494
Ј	-3495
Щ	-3496
Қ	-3497
ү	-3498
ӧ	-3499
ו	-3500
ם	-3501
נ	-3502
צ	-3503
ء	-3504
ث	-3505
ग	-3506
ा	-3507
ு	-3508
ზ	-3509
მ	-3510
რ	-3511
ქ	-3512
ძ	-3513
ხ	-3514
ᄀ	-3515
ᄁ	-3516
ᄃ	-3517
ᄄ	-3518
ᄇ	-3519
ᄈ	-3520
ᄊ	-3521
ᄌ	-3522
ᄍ	-3523
ᄎ	-3524
ᄏ	-3525
ᄐ	-3526
ᄑ	-3527
ᄒ	-3528
ᅡ	-3529
ᅢ	-3530
ᅣ	-3531
ᅤ	-3532
ᅥ	-3533
ᅦ	-3534
ᅧ	-3535
ᅨ	-3536
ᅩ	-3537
ᅪ	-3538
ᅫ	-3539
ᅬ	-3540
ᅭ	-3541
ᅮ	-3542
ᅯ	-3543
ᅰ	-3544
ᅱ	-3545
ᅲ	-3546
ᅳ	-3547
ᅴ	-3548
ᅵ	-3549
ላ	-3550
ራ	-3551
ብ	-3552
ክ	-3553
ዊ	-3554
ያ	-3555
ዴ	-3556
Ḥ	-3557
ḥ	-3558
ṗ	-3559
ọ	-3560
ố	-3561
↓	-3562
が	-3563
さ	-3564
り	-3565
ん	-3566
カ	-3567
ス	-3568
ナ	-3569
區	-3570
國	-3571
城	-3572
子	-3573
字	-3574
安	-3575
尹	-3576
尼	-3577
師	-3578
泰	-3579
流	-3580
漢	-3581
濟	-3582
盧	-3583
红	-3584
行	-3585
銀	-3586
鮮	-3587
강	-3588
건	-3589
과	-3590
광	-3591
교	-3592
군	-3593
노	-3594
달	-3595
라	-3596
람	-3597
록	-3598
만	-3599
민	-3600
바	-3601
북	-3602
삼	-3603
상	-3604
서	-3605
안	-3606
원	-3607
윤	-3608
으	-3609
전	-3610
천	-3611
치	-3612
해	-3613
행	-3614
호	-3615
화	-3616
	-3617
	-3618
Â	-3619
Ã	-3620
È	-3621
Ë	-3622
Ò	-3623
Ô	-3624
Ù	-3625
Ă	-3626
Ą	-3627
Ć	-3628
ď	-3629
Ī	-3630
Ń	-3631
Ő	-3632
œ	-3633
Ţ	-3634
ǐ	-3635
ɕ	-3636
ɣ	-3637
ɨ	-3638
ɯ	-3639
ɴ	-3640
ɸ	-3641
ʃ	-3642
ʊ	-3643
ʾ	-3644
̔	-3645
̺	-3646
Ζ	-3647
Ο	-3648
ζ	-3649
ϊ	-3650
Й	-3651
є	-3652
њ	-3653
џ	-3654
Ѳ	-3655
қ	-3656
ң	-3657
ҭ	-3658
ҷ	-3659
Ө	-3660
ө	-3661
Ա	-3662
Ե	-3663
Հ	-3664
Ս	-3665
գ	-3666
թ	-3667
խ	-3668
կ	-3669
պ	-3670
ց	-3671
փ	-3672
ְ	-3673
ֶ	-3674
ַ	-3675
ּ	-3676
ד	-3677
ז	-3678
ח	-3679
ך	-3680
ק	-3681
أ	-3682
إ	-3683
ئ	-3684
خ	-3685
ذ	-3686
ط	-3687
ف	-3688
ی	-3689
ं	-3690
न	-3691
म	-3692
य	-3693
ु	-3694
ச	-3695
த	-3696
ந	-3697
ம	-3698
ய	-3699
ல	-3700
ழ	-3701
வ	-3702
ா	-3703
კ	-3704
ნ	-3705
ო	-3706
ჟ	-3707
ს	-3708
უ	-3709
ღ	-3710
ᄂ	-3711
ᄅ	-3712
ᄆ	-3713
ᄉ	-3714
ᄋ	-3715
ሊ	-3716
ሌ	-3717
ሞ	-3718
ሥ	-3719
ረ	-3720
ሪ	-3721
ሲ	-3722
ሴ	-3723
ት	-3724
ኃ	-3725
ኢ	-3726
የ	-3727
ይ	-3728
ዮ	-3729
ገ	-3730
ጵ	-3731
ፌ	-3732
ፐ	-3733
Ḑ	-3734
ṅ	-3735
ṟ	-3736
ṣ	-3737
ṯ	-3738
ẕ	-3739
ẖ	-3740
ạ	-3741
ấ	-3742
ầ	-3743
ẫ	-3744
ế	-3745
ễ	-3746
ỏ	-3747
ổ	-3748
ứ	-3749
ự	-3750
ỹ	-3751
ἀ	-3752
Ἀ	-3753
Ἄ	-3754
ἑ	-3755
ἔ	-3756
ἤ	-3757
Ἥ	-3758
ἰ	-3759
ἱ	-3760
Ἴ	-3761
ὁ	-3762
ὔ	-3763
ὖ	-3764
ὠ	-3765
ὰ	-3766
ὸ	-3767
ῆ	-3768
ῖ	-3769
ῦ	-3770
Ῥ	-3771
‏	-3772
‐	-3773
⇌	-3774
∞	-3775
≈	-3776
≠	-3777
⊆	-3778
⋅	-3779
☰	-3780
☲	-3781
☵	-3782
☷	-3783
え	-3784
お	-3785
す	-3786
な	-3787
に	-3788
ひ	-3789
ら	-3790
れ	-3791
キ	-3792
グ	-3793
サ	-3794
タ	-3795
ノ	-3796
ハ	-3797
マ	-3798
ラ	-3799
レ	-3800
ロ	-3801
ワ	-3802
ー	-3803
三	-3804
世	-3805
丘	-3806
中	-3807
九	-3808
乱	-3809
乾	-3810
仮	-3811
仲	-3812
伟	-3813
佐	-3814
先	-3815
光	-3816
全	-3817
公	-3818
別	-3819
利	-3820
厥	-3821
叔	-3822
取	-3823
号	-3824
合	-3825
名	-3826
善	-3827
嘉	-3828
圭	-3829
地	-3830
坎	-3831
坤	-3832
夏	-3833
天	-3834
太	-3835
夫	-3836
学	-3837
宣	-3838
家	-3839
崔	-3840
市	-3841
帝	-3842
建	-3843
思	-3844
想	-3845
愚	-3846
愛	-3847
成	-3848
承	-3849
振	-3850
政	-3851
斗	-3852
新	-3853
日	-3854
昊	-3855
昌	-3856
星	-3857
晩	-3858
暴	-3859
月	-3860
本	-3861
朴	-3862
李	-3863
杨	-3864
柔	-3865
株	-3866
業	-3867
極	-3868
歌	-3869
正	-3870
武	-3871
水	-3872
江	-3873
泳	-3874
浩	-3875
潽	-3876
火	-3877
煥	-3878
熙	-3879
父	-3880
爺	-3881
特	-3882
状	-3883
王	-3884
琢	-3885
益	-3886
磨	-3887
神	-3888
突	-3889
納	-3890
考	-3891
者	-3892
聖	-3893
職	-3894
自	-3895
至	-3896
致	-3897
興	-3898
舟	-3899
莽	-3900
萬	-3901
藤	-3902
虫	-3903
表	-3904
褒	-3905
語	-3906
路	-3907
達	-3908
郎	-3909
郡	-3910
鉉	-3911
門	-3912
離	-3913
高	-3914
黄	-3915
ꜜ	-3916
감	-3917
갑	-3918
거	-3919
계	-3920
곤	-3921
공	-3922
괴	-3923
궁	-3924
규	-3925
극	-3926
길	-3927
높	-3928
느	-3929
늘	-3930
님	-3931
다	-3932
단	-3933
닳	-3934
데	-3935
듯	-3936
랑	-3937
려	-3938
령	-3939
루	-3940
르	-3941
른	-3942
름	-3943
마	-3944
맘	-3945
목	-3946
문	-3947
물	-3948
박	-3949
밝	-3950
백	-3951
변	-3952
별	-3953
불	-3954
소	-3955
슴	-3956
승	-3957
식	-3958
심	-3959
애	-3960
없	-3961
에	-3962
여	-3963
역	-3964
영	-3965
울	-3966
위	-3967
읍	-3968
의	-3969
익	-3970
입	-3971
자	-3972
저	-3973
정	-3974
종	-3975
중	-3976
즐	-3977
직	-3978
창	-3979
철	-3980
최	-3981
충	-3982
통	-3983
특	-3984
판	-3985
편	-3986
필	-3987
할	-3988
함	-3989
향	-3990
험	-3991
현	-3992
환	-3993
활	-3994
흥	-3995
희	-3996
