<unk>	0
<s>	0
</s>	0
▁	-3.11487
.	-3.56564
s	-3.59915
,	-3.65584
i	-4.00598
t	-4.30192
e	-4.30325
l	-4.35642
d	-4.44941
▁ja	-4.4919
▁–	-4.66657
a	-4.67439
▁on	-4.91048
u	-4.93882
st	-4.97832
le	-4.98413
▁(	-5.17166
-	-5.17274
r	-5.19
id	-5.23066
te	-5.23253
)	-5.27031
b	-5.4267
ga	-5.43825
ti	-5.47803
ks	-5.50732
ne	-5.53812
n	-5.55383
▁ka	-5.56086
na	-5.5723
m	-5.58299
se	-5.60302
o	-5.62925
ma	-5.68601
da	-5.71707
h	-5.73091
is	-5.74528
k	-5.74955
ja	-5.78606
ri	-5.82958
de	-5.87586
la	-5.87622
va	-5.88259
re	-5.91784
us	-5.98873
▁oli	-6.0141
ka	-6.01627
:	-6.022
▁A	-6.03527
ni	-6.04914
ta	-6.04927
p	-6.06334
▁S	-6.08476
▁ta	-6.09179
ra	-6.09699
y	-6.13808
ku	-6.14413
▁E	-6.14469
li	-6.16518
▁18	-6.19355
▁-	-6.22926
el	-6.25087
"	-6.26121
ning	-6.2634
ü	-6.2676
gi	-6.28289
v	-6.28514
▁"	-6.28567
▁Eesti	-6.28929
as	-6.3191
ide	-6.32056
vi	-6.33247
ar	-6.36178
er	-6.36897
▁aasta	-6.38369
▁I	-6.38592
me	-6.40691
g	-6.41328
tu	-6.41626
tud	-6.42398
en	-6.45102
vad	-6.45382
▁aastal	-6.45579
si	-6.45736
nud	-6.45924
▁mis	-6.45932
in	-6.50838
an	-6.53078
sid	-6.54699
es	-6.5558
hi	-6.55732
ki	-6.56775
ba	-6.57056
il	-6.57577
f	-6.5931
c	-6.59312
▁või	-6.59916
al	-6.59961
lt	-6.60179
sa	-6.61138
ke	-6.62343
ro	-6.63464
ge	-6.63557
▁et	-6.65827
mi	-6.67889
'	-6.68429
ru	-6.69129
▁Ta	-6.69551
or	-6.69595
).	-6.71088
ia	-6.7205
on	-6.72624
▁kui	-6.72972
▁eesti	-6.73005
▁Ka	-6.74861
ed	-6.75052
nd	-6.75127
pi	-6.75133
di	-6.75638
▁ei	-6.76237
mise	-6.77144
▁F	-6.78499
▁Ma	-6.78617
ve	-6.79362
sse	-6.79955
he	-6.83318
use	-6.84113
it	-6.84935
▁oma	-6.85223
ha	-6.85508
gu	-6.85632
mine	-6.86083
im	-6.87265
▁K	-6.8768
▁k	-6.88242
ur	-6.88301
maa	-6.89353
ud	-6.90437
ju	-6.90571
;	-6.90861
eri	-6.92486
ist	-6.93276
ndi	-6.93758
–	-6.94207
lo	-6.96671
▁p	-6.97023
ä	-6.97417
),	-6.97455
õ	-6.97487
lu	-6.9789
S	-6.98517
nda	-6.99678
z	-7.00245
du	-7.02407
des	-7.03074
▁mille	-7.0315
ik	-7.03408
▁sai	-7.0451
▁T	-7.04598
▁üle	-7.04646
ter	-7.04844
I	-7.05281
tus	-7.05323
▁riigi	-7.05609
C	-7.08208
mist	-7.11272
ol	-7.12879
ng	-7.13804
A	-7.1416
▁osa	-7.14324
▁P	-7.15095
ad	-7.15105
▁D	-7.15644
▁selle	-7.15822
ina	-7.16099
–19	-7.16376
bi	-7.16601
▁a	-7.16643
▁O	-7.183
▁La	-7.18752
et	-7.1955
▁nime	-7.19916
▁välja	-7.20133
▁C	-7.2139
line	-7.21659
lik	-7.21697
nu	-7.22382
to	-7.23306
pe	-7.24006
▁1	-7.24015
ul	-7.24142
▁pa	-7.249
▁2	-7.25411
▁USA	-7.25693
P	-7.26348
▁kes	-7.26513
w	-7.26891
▁la	-7.27112
▁H	-7.27198
at	-7.27458
mis	-7.28696
▁17	-7.29208
▁m	-7.29369
▁U	-7.29854
ko	-7.29905
laste	-7.29955
▁G	-7.30578
2	-7.31761
lased	-7.31885
hu	-7.33053
▁va	-7.34012
liku	-7.34827
pa	-7.35291
▁see	-7.35389
lise	-7.35398
em	-7.35659
x	-7.35834
dus	-7.35962
T	-7.36167
▁Sa	-7.36312
konna	-7.36781
est	-7.36906
▁Le	-7.37143
▁16	-7.37219
▁maa	-7.37229
▁Ra	-7.37233
▁saa	-7.37781
▁Va	-7.37817
j	-7.37983
▁B	-7.38008
▁pi	-7.38051
no	-7.3844
▁Ko	-7.38464
▁vastu	-7.38828
▁linna	-7.40121
š	-7.40259
ch	-7.40741
▁Li	-7.4087
▁ma	-7.42037
▁pea	-7.42172
os	-7.42241
takse	-7.42384
▁ko	-7.42443
▁su	-7.42728
▁kuid	-7.44279
mo	-7.4444
▁(19	-7.4447
▁15	-7.4505
K	-7.45347
L	-7.4606
▁ole	-7.46437
tatud	-7.46497
mb	-7.46506
▁3	-7.46603
tuse	-7.46849
sed	-7.47032
00	-7.47312
tsi	-7.47577
▁ju	-7.47625
V	-7.47894
▁Te	-7.49237
M	-7.4979
nna	-7.49889
▁M	-7.50738
je	-7.51474
▁Euroopa	-7.51817
ust	-7.52022
pu	-7.53682
ab	-7.5456
val	-7.54694
tel	-7.54739
ho	-7.54858
▁tema	-7.56025
pp	-7.56325
▁kus	-7.56374
mu	-7.56507
▁Ro	-7.57836
▁Venemaa	-7.57887
▁Vi	-7.57917
ini	-7.58123
%	-7.58295
vä	-7.58582
▁kirjanik	-7.58588
tas	-7.58921
um	-7.59176
▁Me	-7.59507
oni	-7.59668
iga	-7.59909
▁Tartu	-7.59962
aal	-7.59993
nt	-7.60193
▁sa	-7.60326
ega	-7.60422
go	-7.6059
sta	-7.60927
ö	-7.60965
▁de	-7.61224
▁jaanuar	-7.61396
▁järgi	-7.61481
selt	-7.62312
▁Ha	-7.62555
▁keel	-7.63003
▁R	-7.63157
R	-7.64053
▁üks	-7.64663
un	-7.64719
▁Re	-7.64807
▁loend	-7.65476
▁f	-7.65503
co	-7.65708
▁sü	-7.66526
lla	-7.66546
ing	-7.66627
▁Mi	-7.66857
▁kogu	-7.67408
▁Ba	-7.67447
osa	-7.67927
▁Al	-7.67952
kond	-7.67961
/	-7.68514
E	-7.68979
▁J	-7.68996
▁olid	-7.69554
▁Pa	-7.69625
test	-7.69892
ndus	-7.70117
▁ehk	-7.71317
stus	-7.71341
▁Viited	-7.71428
▁Välislingid	-7.71656
▁mai	-7.71869
▁töö	-7.72265
öö	-7.72371
mm	-7.72415
ani	-7.72671
ste	-7.72929
ir	-7.73258
nä	-7.73281
▁Tallinna	-7.73296
ngu	-7.73382
▁Si	-7.74048
▁Ku	-7.74232
nn	-7.74568
eks	-7.75504
▁Ar	-7.75727
lli	-7.75829
B	-7.76021
3	-7.76271
▁re	-7.76271
iku	-7.76494
son	-7.76573
▁keeles	-7.7661
ali	-7.77266
aja	-7.77307
do	-7.77338
▁See	-7.77352
del	-7.77446
N	-7.77644
▁Pi	-7.77662
▁seda	-7.77968
▁aga	-7.77995
▁pro	-7.78219
tes	-7.78324
ak	-7.78397
19	-7.7858
am	-7.78693
▁ühe	-7.78825
▁Ju	-7.79299
▁1.	-7.7952
ut	-7.79678
umi	-7.80279
▁vald	-7.80372
▁mida	-7.80659
▁nii	-7.81124
▁Mar	-7.81398
▁kasuta	-7.81462
▁koos	-7.81538
ala	-7.81759
▁sõja	-7.82489
võ	-7.83289
rk	-7.83567
▁Ni	-7.83596
▁Ja	-7.83618
ele	-7.83773
о	-7.83998
▁Ke	-7.84578
▁V	-7.84982
▁Na	-7.85339
ver	-7.85958
▁lipp	-7.86153
▁poliitik	-7.86651
H	-7.86889
▁ha	-7.86973
▁esimene	-7.87024
▁detsember	-7.87289
per	-7.87421
▁Se	-7.88252
é	-7.8859
▁Vaata	-7.88933
seadus	-7.89086
nik	-7.89275
1	-7.89314
▁h	-7.89549
▁Saksamaa	-7.8959
ade	-7.89665
0	-7.89771
▁juuni	-7.90137
kas	-7.90476
sk	-7.90577
▁pärast	-7.90614
▁sajandi	-7.90636
▁4	-7.907
miseks	-7.90844
▁kesk	-7.91541
▁ajal	-7.91834
▁Ho	-7.91851
▁veebruar	-7.91874
po	-7.92224
aar	-7.92429
е	-7.92485
▁suur	-7.92541
▁ala	-7.92728
liste	-7.9276
▁Selle	-7.92798
▁km	-7.92839
asu	-7.93162
▁kuni	-7.93302
ck	-7.93325
▁mu	-7.93389
4	-7.93528
▁De	-7.93549
rist	-7.93787
taja	-7.93854
▁Eestis	-7.94342
▁Liidu	-7.9435
▁Põhja	-7.95477
▁Po	-7.95635
▁vahel	-7.95708
ski	-7.95975
ub	-7.96186
▁juuli	-7.96321
▁Ne	-7.96657
▁Su	-7.96668
misel	-7.96687
be	-7.96785
kt	-7.96966
mad	-7.97099
▁Pe	-7.97205
vo	-7.97405
äär	-7.97427
▁esi	-7.97476
▁Val	-7.97556
O	-7.97743
▁Mo	-7.97821
ber	-7.97838
lis	-7.98003
▁Co	-7.98055
mus	-7.98253
mas	-7.98285
▁tõ	-7.98477
▁10	-7.98545
ika	-7.98913
ori	-7.99021
ring	-7.99262
▁aprill	-7.99296
▁esimese	-8.00093
▁märts	-8.00165
▁all	-8.00178
▁Rootsi	-8.00217
tele	-8.00631
ev	-8.00792
▁läbi	-8.00826
▁põhi	-8.01029
iv	-8.01101
▁tea	-8.01143
▁ra	-8.01156
▁si	-8.01351
▁Riigi	-8.01406
▁Bo	-8.01437
av	-8.02181
uuri	-8.02582
F	-8.02908
▁Mu	-8.03313
▁W	-8.03423
▁vene	-8.03553
roo	-8.0376
lised	-8.03945
▁To	-8.04075
▁näitleja	-8.0408
▁nende	-8.04084
bo	-8.04229
oo	-8.04435
▁elu	-8.04517
ig	-8.04739
tš	-8.04797
▁teise	-8.04952
aadi	-8.05018
▁Vabariigi	-8.05189
▁Lõuna	-8.05509
kon	-8.05546
valt	-8.05644
tava	-8.06127
D	-8.06234
▁siis	-8.06333
met	-8.06563
▁õ	-8.06651
и	-8.06828
▁me	-8.07211
tri	-8.07248
▁põhja	-8.07609
ima	-8.07808
list	-8.079
▁vii	-8.0834
▁kuu	-8.0844
▁vee	-8.08481
▁eest	-8.08505
▁Lu	-8.08545
th	-8.0858
▁toimus	-8.08593
а	-8.08964
▁5	-8.08977
▁pool	-8.08991
ündinud	-8.09028
▁kahe	-8.09084
man	-8.09235
port	-8.09352
▁järg	-8.09495
tis	-8.09695
tsiooni	-8.09795
ci	-8.09873
5	-8.10395
▁võib	-8.11127
▁An	-8.11148
▁mere	-8.11229
▁N	-8.11627
▁Z	-8.1166
▁tee	-8.11683
▁loo	-8.11684
fi	-8.11958
uri	-8.12016
ää	-8.1205
ots	-8.12172
▁kuju	-8.12177
▁kohta	-8.12301
▁Kui	-8.12409
op	-8.1245
▁to	-8.1296
aani	-8.13003
iks	-8.13024
lane	-8.13055
and	-8.13118
▁rahva	-8.13125
▁L	-8.1316
▁in	-8.13201
sen	-8.13225
▁Prantsusmaa	-8.13319
tada	-8.13613
tra	-8.13713
bu	-8.13737
▁august	-8.13857
▁vasta	-8.13891
liselt	-8.13998
▁°	-8.14091
võistlus	-8.1416
dest	-8.14216
▁korda	-8.14279
▁linn	-8.14417
▁kaks	-8.14541
its	-8.14877
ent	-8.15039
6	-8.15132
▁6	-8.15371
jad	-8.15372
▁maailma	-8.16014
▁sel	-8.1664
▁von	-8.16894
▁II	-8.1692
ov	-8.16986
▁kõik	-8.17301
▁eri	-8.17399
ot	-8.17435
nes	-8.17463
kirja	-8.17494
".	-8.17652
temperatuur	-8.17766
▁saab	-8.1796
▁aja	-8.18458
aasta	-8.18475
▁Kesk	-8.18649
▁NSV	-8.18827
▁14	-8.18854
10	-8.19053
17	-8.19117
sus	-8.19187
kogu	-8.19191
▁000	-8.19252
par	-8.1988
▁Pu	-8.19911
▁o	-8.19934
▁sama	-8.20156
▁keele	-8.20261
stik	-8.20282
▁eel	-8.20287
▁too	-8.20549
pea	-8.20636
||	-8.20674
▁kiriku	-8.21095
oloogia	-8.21345
nts	-8.21527
▁valla	-8.21627
ce	-8.21828
▁Ameerika	-8.22204
▁19.	-8.22362
ca	-8.22567
–20	-8.22658
▁12	-8.2274
▁aastast	-8.22768
р	-8.22938
▁tule	-8.22998
▁november	-8.23119
▁Mä	-8.23534
▁au	-8.23611
▁president	-8.23692
wa	-8.23847
▁Ki	-8.23877
rik	-8.23895
▁He	-8.23931
▁võitis	-8.23932
▁Nõukogude	-8.24333
aeg	-8.2436
dega	-8.24556
mees	-8.2468
▁nad	-8.24687
▁Maa	-8.24819
▁ava	-8.24943
▁riik	-8.24965
50	-8.25111
ment	-8.25344
lus	-8.25501
▁mitme	-8.25826
ama	-8.2587
tamise	-8.26114
tega	-8.26501
▁Soome	-8.26622
▁+	-8.26691
ast	-8.26719
kord	-8.26873
tati	-8.27219
▁juht	-8.2732
sõ	-8.2789
▁7	-8.27894
neb	-8.27906
▁Itaalia	-8.28203
maks	-8.28783
–18	-8.28838
▁määra	-8.29017
▁Ga	-8.29516
päev	-8.29689
20	-8.29754
▁arv	-8.29814
▁oktoober	-8.29821
▁ve	-8.2989
unud	-8.3008
▁sõda	-8.30229
▁umbe	-8.3024
▁palju	-8.30386
▁ela	-8.30434
▁0	-8.30487
▁saksa	-8.30591
▁Bu	-8.30678
tab	-8.30834
töö	-8.30887
▁Hispaania	-8.31052
J	-8.31102
▁di	-8.31167
▁vaid	-8.31555
▁auto	-8.31581
ek	-8.31734
▁kirjuta	-8.31824
riik	-8.31938
ilise	-8.32091
▁kõige	-8.32234
▁tagasi	-8.32259
▁vi	-8.32586
▁alla	-8.32789
▁kolm	-8.32892
▁järel	-8.33132
used	-8.33194
▁So	-8.33236
ati	-8.33268
▁In	-8.33526
ari	-8.33542
▁eKr	-8.3356
ult	-8.33851
▁prantsuse	-8.34196
▁Surnud	-8.34199
▁rajoon	-8.34224
▁El	-8.34534
▁jää	-8.34548
ell	-8.34678
▁rahvus	-8.34711
liit	-8.34845
▁kalendri	-8.35052
▁aastat	-8.35388
▁september	-8.35483
▁kokku	-8.35485
▁mitte	-8.3592
ise	-8.35975
zi	-8.36069
▁vahe	-8.36143
▁tõttu	-8.36372
▁seal	-8.36627
▁20.	-8.36644
▁suu	-8.3682
rg	-8.36857
ž	-8.37058
▁2004	-8.37248
▁tä	-8.37348
sugu	-8.37434
aat	-8.37463
▁suure	-8.37601
▁sõna	-8.38014
▁Suurbritannia	-8.38283
▁2003	-8.38351
▁Ri	-8.38444
▁poolt	-8.38484
tar	-8.3858
▁Poola	-8.38777
vara	-8.38858
▁Tu	-8.38907
▁2.	-8.38969
der	-8.39202
▁(18	-8.39232
7	-8.3938
▁asub	-8.39493
▁lai	-8.39737
▁mo	-8.39781
▁vaba	-8.39919
ood	-8.40164
▁taas	-8.40192
▁...	-8.40338
▁lõuna	-8.40346
▁asus	-8.40537
vus	-8.4057
25	-8.40578
▁rahu	-8.41024
stiku	-8.41027
mar	-8.41074
▁Tallinnas	-8.41201
▁Lääne	-8.41256
ooni	-8.4131
▁Ti	-8.4131
▁Tema	-8.41465
60	-8.41481
▁Vä	-8.4157
päeva	-8.41624
▁lisa	-8.41657
▁li	-8.41666
▁Ca	-8.42183
▁olnud	-8.42665
▁Saksa	-8.42769
gen	-8.42846
▁majandus	-8.42906
▁po	-8.43101
▁kelle	-8.43121
pool	-8.4317
▁Br	-8.43256
G	-8.43416
▁kirjandus	-8.43567
▁2002	-8.43603
▁moodusta	-8.43673
▁jäi	-8.44038
▁Ol	-8.44272
▁võimu	-8.44354
8	-8.44515
aalse	-8.44524
▁jõgi	-8.44624
á	-8.44744
▁väga	-8.4479
▁Rooma	-8.44944
usega	-8.45083
▁näiteks	-8.45163
▁Lo	-8.45259
ava	-8.45323
▁sest	-8.45328
▁vana	-8.45441
▁põ	-8.45624
▁20	-8.45728
▁inimest	-8.4585
ktor	-8.45963
▁Rahva	-8.46175
▁Jo	-8.46185
▁ajaloo	-8.46231
ile	-8.46292
atsiooni	-8.46319
nime	-8.46618
▁2000	-8.46727
ard	-8.46884
▁9	-8.4693
▁alg	-8.46997
▁kodu	-8.47062
▁5.	-8.47182
tamine	-8.47312
с	-8.47367
40	-8.47437
ude	-8.47506
▁Vene	-8.47541
▁Ve	-8.47641
▁õigus	-8.47714
tlus	-8.47856
▁algas	-8.47923
riigi	-8.47953
nge	-8.48038
▁Sündmuse	-8.48114
meetri	-8.48137
vel	-8.48319
loo	-8.48423
oloog	-8.48525
12	-8.48596
▁Hu	-8.48606
jär	-8.4868
▁vali	-8.48809
▁inimese	-8.49123
fa	-8.49134
lase	-8.49164
olu	-8.49261
13	-8.49269
▁kuningas	-8.49347
om	-8.49374
▁hakkas	-8.49597
eg	-8.49951
likult	-8.50084
X	-8.5009
▁Pära	-8.50092
▁3.	-8.50186
▁valiti	-8.50291
▁al	-8.50295
▁6.	-8.50345
▁tuli	-8.50359
▁pär	-8.50499
ton	-8.50581
Aafrika	-8.50593
▁hiljem	-8.51096
▁13	-8.51349
▁4.	-8.51541
=	-8.51855
kk	-8.51909
▁Di	-8.52014
23	-8.52029
л	-8.5211
▁13.	-8.52326
▁päeva	-8.52354
lasi	-8.52358
kivi	-8.52369
▁var	-8.52449
▁iga	-8.52484
süsteemi	-8.52613
enda	-8.52652
ran	-8.52826
н	-8.52826
tav	-8.53012
iste	-8.53016
▁12.	-8.53057
▁8	-8.5309
sel	-8.532
▁valitsus	-8.53329
▁7.	-8.53351
21	-8.53353
▁uue	-8.53425
▁inglise	-8.53427
▁August	-8.53651
▁21.	-8.53779
üh	-8.53962
▁suhte	-8.54181
▁aastatel	-8.54201
т	-8.54429
í	-8.5469
▁esimest	-8.54694
90	-8.54744
▁Aasta	-8.54775
eli	-8.54784
ür	-8.54799
▁loodus	-8.54819
11	-8.5483
berg	-8.54862
99	-8.5491
hal	-8.55016
▁of	-8.55271
70	-8.55352
▁soo	-8.55914
mon	-8.56002
▁raja	-8.56123
▁valitse	-8.56287
asutati	-8.56348
▁ees	-8.56636
koha	-8.56748
▁koha	-8.56962
▁jõe	-8.5724
seks	-8.57291
ainult	-8.57296
▁14.	-8.57344
▁kuul	-8.57439
▁Be	-8.57982
U	-8.58126
lin	-8.58403
▁üld	-8.58428
vate	-8.58478
ug	-8.58589
▁kultuuri	-8.58691
▁17.	-8.58742
▁10.	-8.58869
▁laulja	-8.59011
▁Kir	-8.59093
▁kasutatakse	-8.59093
oon	-8.59195
30	-8.5942
che	-8.59464
ah	-8.59509
▁2001	-8.59539
mann	-8.59774
22	-8.59786
▁8.	-8.59982
▁Vana	-8.59997
rand	-8.6006
võim	-8.60128
▁alates	-8.60458
aator	-8.60487
suse	-8.6052
▁veel	-8.60694
matu	-8.6077
jate	-8.60868
▁keisri	-8.60892
rdi	-8.60972
▁Mõ	-8.61009
linna	-8.61014
▁Ch	-8.61048
uks	-8.61421
▁ümber	-8.6145
▁Har	-8.61473
liikme	-8.61721
▁Do	-8.61787
ry	-8.61793
hulgas	-8.6183
▁Kuu	-8.61909
niku	-8.62038
▁teiste	-8.62059
mata	-8.62092
puu	-8.62116
bel	-8.62121
▁saare	-8.62332
▁kor	-8.62354
▁muu	-8.62399
▁Je	-8.62434
▁and	-8.62479
sõit	-8.62636
alt	-8.62664
▁31.	-8.6268
▁Go	-8.62715
▁käi	-8.62841
–16	-8.62966
mõ	-8.62973
▁taga	-8.63222
gra	-8.63291
likku	-8.63301
▁Ru	-8.63345
land	-8.63501
▁he	-8.6367
▁ameerika	-8.63713
▁lipu	-8.63832
▁mängu	-8.63837
tavad	-8.63841
▁Par	-8.63863
nder	-8.63941
nduse	-8.63976
▁sajandil	-8.64001
80	-8.64135
koht	-8.64266
▁ise	-8.64605
▁kom	-8.64634
lõ	-8.64789
▁X	-8.64866
▁päev	-8.64888
▁15.	-8.6493
▁nagu	-8.64966
lü	-8.65159
kool	-8.65272
▁iseseisvus	-8.65413
▁liig	-8.65536
▁11	-8.65828
▁Kreeka	-8.65893
▁lääne	-8.66235
▁poole	-8.66422
▁11.	-8.66427
▁9.	-8.66433
▁muutu	-8.66481
▁arvu	-8.6672
ograafia	-8.67111
27	-8.67111
▁viis	-8.67138
uste	-8.67143
▁Õ	-8.67151
▁Ühendriikide	-8.67207
9	-8.67452
ant	-8.67521
▁Paul	-8.67576
tegevus	-8.67585
▁And	-8.67607
iline	-8.67701
uni	-8.67797
▁1990	-8.67803
og	-8.67965
teks	-8.67968
▁kirja	-8.68008
jo	-8.68163
aine	-8.68215
18	-8.68276
▁jalgpallur	-8.68699
▁2006	-8.68725
▁30	-8.68901
24	-8.69264
up	-8.69287
Ü	-8.69338
▁mä	-8.69339
pan	-8.69377
teadus	-8.69454
mer	-8.69496
rühm	-8.69558
▁2008	-8.69628
▁16.	-8.69825
▁valmis	-8.69943
▁vähe	-8.69954
avati	-8.69969
▁Suur	-8.70233
▁("	-8.70655
▁25.	-8.70689
▁enda	-8.70702
ill	-8.70875
▁tõe	-8.70963
kä	-8.71067
ata	-8.71094
▁1999	-8.71137
lisi	-8.71402
▁Kar	-8.71466
▁võttis	-8.71488
▁lõpeta	-8.71507
▁ida	-8.7153
▁ette	-8.71632
hoone	-8.71869
▁hea	-8.72034
▁Austria	-8.72064
ismi	-8.72179
▁mõju	-8.72245
▁Pärnu	-8.72394
korra	-8.72414
▁28.	-8.72491
mäe	-8.72718
▁kü	-8.72779
▁23.	-8.72845
96	-8.72855
▁küla	-8.72883
ara	-8.72963
▁nelja	-8.73006
▁valge	-8.73029
▁pan	-8.73091
lä	-8.73101
ze	-8.73375
▁juunil	-8.73377
▁Gu	-8.73426
poli	-8.73608
▁pe	-8.73625
▁helilooja	-8.73631
▁värava	-8.73641
ner	-8.73712
var	-8.74108
▁(20	-8.74238
sest	-8.74446
▁Pea	-8.74503
dele	-8.74557
▁1994	-8.74585
▁enam	-8.74677
▁Võ	-8.74751
▁Sõ	-8.74823
juht	-8.749
▁võeti	-8.74904
ino	-8.75205
▁väike	-8.75224
▁Y	-8.7523
▁võimalik	-8.75424
▁Karl	-8.75478
eeritud	-8.75486
▁ära	-8.75609
▁kee	-8.75653
▁Ida	-8.75762
▁teine	-8.75882
▁2009	-8.75896
▁võt	-8.75932
▁kaitse	-8.75937
luse	-8.75949
▁ehita	-8.76167
▁uus	-8.76189
vere	-8.76506
98	-8.76867
▁kohal	-8.76924
kuju	-8.77096
▁välis	-8.77154
▁andis	-8.7735
ven	-8.77392
▁korralda	-8.77415
tööstus	-8.77527
seid	-8.77579
ose	-8.77607
▁Mari	-8.77673
д	-8.77825
07	-8.77831
den	-8.77841
ff	-8.78401
▁nimi	-8.78473
▁Briti	-8.7851
rahu	-8.7856
und	-8.78727
▁kolme	-8.78917
▁nõu	-8.79025
к	-8.79131
▁kõ	-8.79161
▁levi	-8.7921
keskus	-8.79368
▁Or	-8.79413
▁1998	-8.79488
▁so	-8.79494
▁Han	-8.79541
26	-8.79725
▁maakonna	-8.79774
▁Leedu	-8.7985
▁2005	-8.79855
või	-8.79961
▁22.	-8.79984
za	-8.80078
▁surma	-8.80185
kke	-8.80232
▁kuninga	-8.80451
75	-8.80485
▁suurema	-8.80659
▁Ber	-8.80701
teadlane	-8.8081
min	-8.80851
kiri	-8.80877
▁24.	-8.8098
ron	-8.81061
▁valluta	-8.81178
▁2007	-8.81209
09	-8.81223
▁van	-8.81302
▁saar	-8.81363
liidu	-8.81423
▁Taani	-8.81456
▁täht	-8.81488
14	-8.81556
▁olla	-8.81734
▁lennu	-8.81762
32	-8.81786
koo	-8.81793
uur	-8.81799
▁kuulutas	-8.81863
▁erineva	-8.81917
kiir	-8.81999
ingi	-8.82011
mik	-8.82092
28	-8.82103
▁aatomi	-8.82129
ami	-8.8257
akti	-8.82663
▁27.	-8.82696
в	-8.82854
▁tegi	-8.8288
▁keiser	-8.82894
kka	-8.82965
45	-8.8311
78	-8.83112
▁presidendi	-8.83167
31	-8.83184
▁Ajalugu	-8.83241
lepingu	-8.83252
spordi	-8.83445
▁1991	-8.83591
02	-8.83722
kla	-8.83733
joon	-8.83735
ok	-8.83757
ica	-8.83884
last	-8.83911
▁luuletaja	-8.83963
▁noor	-8.84001
▁lõi	-8.84034
maja	-8.84069
▁Liit	-8.84345
kooli	-8.84506
▁30.	-8.84514
у	-8.84642
04	-8.8475
▁Sch	-8.84763
▁Kon	-8.84777
▁tähe	-8.85121
29	-8.85245
▁eks	-8.85261
oot	-8.85455
92	-8.85474
▁kasutusele	-8.85557
▁jät	-8.85708
▁sise	-8.85832
misest	-8.85859
▁maailmas	-8.86061
▁1996	-8.86065
85	-8.86154
▁Bi	-8.86287
▁No	-8.86304
tor	-8.86374
▁Julius	-8.86464
▁har	-8.86541
▁sellest	-8.86573
▁Pro	-8.86595
▁Tõ	-8.866
nõukogu	-8.86698
▁1992	-8.86783
▁2011	-8.86812
▁26.	-8.86919
▁Linna	-8.86949
▁jalgpalli	-8.86969
arvu	-8.87034
▁29.	-8.87272
▁ühenda	-8.87363
▁vapp	-8.87392
▁Uus	-8.87446
95	-8.87586
▁San	-8.87679
▁lõpu	-8.87945
▁teadus	-8.88107
▁ametlik	-8.88215
▁Inglismaa	-8.88233
▁Vo	-8.88408
oodi	-8.88744
ó	-8.88979
▁koosseisu	-8.88998
gramm	-8.89044
97	-8.89049
▁väl	-8.89117
68	-8.89128
▁100	-8.89199
▁Aa	-8.89241
▁mil	-8.8925
83	-8.89321
▁John	-8.89341
▁millest	-8.90007
võrd	-8.9014
▁tähista	-8.90183
▁Norra	-8.90218
▁linnad	-8.90284
▁end	-8.90301
▁nimetatakse	-8.90525
▁õhu	-8.90642
hel	-8.90665
▁kohtu	-8.90786
▁avalda	-8.90838
liik	-8.90873
▁isa	-8.90912
(	-8.90971
▁mõne	-8.91235
kri	-8.91467
mäng	-8.91471
eeni	-8.91488
raamat	-8.91492
▁jõu	-8.91499
pro	-8.91697
▁Bar	-8.91845
▁saarte	-8.91911
▁juhi	-8.91986
▁sisse	-8.9199
05	-8.92184
▁Kol	-8.92299
35	-8.92341
likud	-8.92363
▁Sel	-8.92427
▁mõiste	-8.92529
▁elektri	-8.92536
▁Gruusia	-8.9272
▁tänapäeva	-8.9272
ium	-8.92792
▁kuulus	-8.92896
tust	-8.93128
tatakse	-8.93139
misega	-8.93245
küla	-8.93266
Ma	-8.93337
▁alustas	-8.93393
van	-8.93457
▁Tallinn	-8.93479
▁1993	-8.93489
▁enne	-8.93708
laulu	-8.93758
▁klassi	-8.93766
burg	-8.93826
!	-8.93874
vkj	-8.93877
▁1940	-8.93877
kra	-8.93879
ranniku	-8.93913
▁2010	-8.9392
▁esine	-8.94024
▁mõis	-8.94112
37	-8.94238
▁Kirjandus	-8.94262
▁1995	-8.94263
94	-8.94376
38	-8.9445
▁Carl	-8.94529
dž	-8.94555
▁piir	-8.94565
▁Krist	-8.94596
oor	-8.94635
▁sõlmi	-8.94651
▁puudu	-8.94676
▁üht	-8.94677
▁Jaan	-8.94692
▁raamatu	-8.9479
mehe	-8.9491
ajal	-8.95021
▁Prantsuse	-8.95041
▁Vabariik	-8.95041
▁rohkem	-8.95043
▁lähe	-8.95051
▁need	-8.95225
▁aega	-8.9525
15	-8.95308
–15	-8.95375
sõda	-8.95481
sõidu	-8.95534
like	-8.95651
▁ameti	-8.95729
88	-8.95766
▁maailmameistri	-8.95844
▁ulatu	-8.95862
jooksu	-8.96067
65	-8.96116
Korea	-8.96123
leht	-8.96185
▁Hel	-8.96298
▁Koo	-8.96325
▁lõppes	-8.96411
landi	-8.96432
▁Suure	-8.96433
01	-8.9648
W	-8.96618
▁Esimese	-8.96619
▁Per	-8.96653
57	-8.96774
tasid	-8.96896
ow	-8.96911
▁Hiina	-8.97027
36	-8.97192
93	-8.97524
76	-8.97551
ang	-8.97638
64	-8.97657
▁Var	-8.97787
69	-8.97797
▁otsusta	-8.97822
▁element	-8.97824
▁samuti	-8.97886
Rooma	-8.97895
ger	-8.97973
anne	-8.98448
bra	-8.98643
kümne	-8.98655
42	-8.98769
м	-8.99034
▁aine	-8.99047
▁lähedal	-8.99051
ühend	-8.99135
jev	-8.99274
▁1997	-8.99444
▁koht	-8.99492
laid	-8.99565
89	-8.99658
▁neid	-8.99806
tuste	-8.99833
positsioon	-8.99874
▁Sta	-8.99966
▁New	-9.00051
pöör	-9.001
▁saanud	-9.00248
▁läks	-9.0029
71	-9.00379
wi	-9.00444
77	-9.00482
53	-9.00778
haridus	-9.0099
▁Aleksander	-9.01091
klubi	-9.01124
▁keemili	-9.01151
82	-9.01161
55	-9.01207
üli	-9.01222
▁para	-9.01333
44	-9.01359
assi	-9.01365
stati	-9.01439
atsioon	-9.01492
▁ühine	-9.0151
")	-9.01547
▁pole	-9.01558
▁kuulub	-9.01568
▁piirkond	-9.01677
▁piirkonna	-9.01719
▁Gustav	-9.01932
▁Ühe	-9.01939
▁viimase	-9.01956
91	-9.01967
ism	-9.02001
▁lk	-9.02115
▁Saar	-9.02513
▁lange	-9.02514
ph	-9.02583
▁tund	-9.02607
tsioon	-9.02707
▁Partei	-9.02798
66	-9.02892
▁III	-9.02976
vik	-9.02986
▁Her	-9.03004
lgpallikoondise	-9.03006
▁elas	-9.03024
▁filosoof	-9.03089
▁kõrval	-9.03194
▁parem	-9.03319
▁suri	-9.03396
▁teda	-9.03462
86	-9.03533
keelse	-9.03614
▁1939	-9.03619
▁maakond	-9.03667
33	-9.03713
nike	-9.03936
▁päritolu	-9.04061
▁India	-9.04097
▁kaasa	-9.04101
▁(1	-9.04156
▁pikk	-9.04204
▁puhul	-9.04541
post	-9.04677
▁toimusid	-9.04771
▁Ge	-9.04834
▁lahku	-9.04911
▁The	-9.04935
ster	-9.05057
72	-9.05272
▁ülikooli	-9.05339
▁tulemus	-9.05511
aalne	-9.057
ский	-9.05773
▁jooksul	-9.05838
hääl	-9.0585
chi	-9.06084
tanud	-9.06138
hoo	-9.06158
▁|-	-9.0623
▁miljonit	-9.06294
▁elektron	-9.06345
41	-9.06376
56	-9.06395
▁peale	-9.06444
ping	-9.06506
▁kõigi	-9.06656
▁Üle	-9.06722
▁Tä	-9.06757
▁(16	-9.0681
81	-9.06819
▁sõjaväe	-9.07062
▁Gregorius	-9.07089
än	-9.0717
aegse	-9.07227
energia	-9.07532
▁1920	-9.07535
▁Riigikogu	-9.07612
▁kooli	-9.07684
suu	-9.07991
▁min	-9.08032
▁luba	-9.08048
39	-9.08231
▁Gi	-9.08288
▁район	-9.08422
süsteem	-9.08438
▁alguses	-9.08464
▁piiri	-9.08512
▁Wi	-9.08614
kuu	-9.08689
▁Vil	-9.08756
▁poolsaar	-9.08825
▁osales	-9.08827
▁Teise	-9.0885
▁Nobeli	-9.08871
kreeka	-9.08872
▁Loodus	-9.08928
han	-9.09019
03	-9.09067
rak	-9.09112
▁liige	-9.09117
▁Töö	-9.09217
▁Hollandi	-9.09322
▁raha	-9.09462
48	-9.09551
▁Sal	-9.09562
sion	-9.09575
keel	-9.09575
г	-9.09774
eerimis	-9.09849
▁toimunud	-9.09914
asutus	-9.09984
79	-9.10117
74	-9.10316
haru	-9.10473
49	-9.10596
▁Austraalia	-9.10685
rekord	-9.10685
▁Moskva	-9.10685
ren	-9.10883
34	-9.10903
▁Või	-9.10971
▁Ülikooli	-9.10996
▁Aleksandr	-9.11143
▁liht	-9.11159
▁Š	-9.11172
▁Robert	-9.11195
▁inim	-9.11215
tung	-9.1131
▁partei	-9.11401
sõna	-9.11432
soo	-9.11465
märk	-9.11543
▁oleks	-9.11549
▁kunsti	-9.11557
teooria	-9.11606
▁kont	-9.11613
▁euro	-9.11645
▁valitsuse	-9.11724
vanem	-9.11746
63	-9.11827
+	-9.11878
▁the	-9.11921
linn	-9.12042
▁tegutse	-9.12067
▁1938	-9.12069
▁kutsu	-9.12083
rin	-9.12165
tants	-9.12231
▁aastani	-9.12402
õigus	-9.12467
▁riikide	-9.12644
▁lahe	-9.12731
oleku	-9.12802
▁riigipea	-9.12805
▁usu	-9.12815
kaalu	-9.12858
▁kirik	-9.12943
▁anti	-9.13026
▁suurim	-9.13038
kõ	-9.13132
▁kohalik	-9.13181
▁müü	-9.1338
ker	-9.13408
▁Gra	-9.136
▁andme	-9.13612
torn	-9.1362
87	-9.13644
põ	-9.13758
▁nr	-9.13806
58	-9.13864
06	-9.13867
▁peab	-9.14001
▁tü	-9.14027
loom	-9.14101
sündinud	-9.14175
seisu	-9.14182
▁Toom	-9.14217
08	-9.14445
:1	-9.1463
▁sajand	-9.14642
▁Pri	-9.14876
]	-9.14891
▁kur	-9.14891
kaitse	-9.14901
67	-9.15082
▁parlamendi	-9.15369
▁laeva	-9.15467
▁kõrge	-9.15576
▁Ger	-9.15598
koda	-9.15624
▁eba	-9.15724
%)	-9.15807
▁saavuta	-9.15851
▁keha	-9.15961
▁juures	-9.16008
▁muusika	-9.16043
▁millega	-9.1614
▁Narva	-9.1634
47	-9.16364
▁Sama	-9.16426
▁jaanuaril	-9.16727
▁Friedrich	-9.16819
▁kehti	-9.1682
que	-9.16845
▁Rahvus	-9.16903
jooks	-9.16972
tori	-9.17029
▁abi	-9.1723
form	-9.17371
▁(17	-9.17495
?	-9.17797
▁Pariisi	-9.17798
väärtus	-9.17861
sideme	-9.17934
nov	-9.18057
▁soovi	-9.18179
▁Albaania	-9.18289
▁1970	-9.18293
▁Asula	-9.18294
▁edasi	-9.18299
▁2015	-9.18317
▁2014	-9.18321
▁massi	-9.1834
62	-9.18385
▁jõud	-9.18402
saare	-9.18473
poolse	-9.185
komitee	-9.18603
59	-9.18628
▁Läti	-9.18652
51	-9.18661
Ka	-9.18709
▁Rein	-9.18739
▁valitsusjuhtide	-9.18784
▁1980	-9.18787
▁seas	-9.18828
tiivse	-9.18883
graaf	-9.18904
mini	-9.18987
▁teha	-9.1905
43	-9.19084
▁poeg	-9.19315
▁elanike	-9.19318
teos	-9.19338
▁saarel	-9.1943
▁esita	-9.19479
▁territooriumi	-9.19493
pär	-9.19693
▁provintsi	-9.19782
▁hoi	-9.19783
Ungari	-9.19786
▁oblasti	-9.19864
jõu	-9.1997
▁neist	-9.19977
▁Jaapani	-9.20149
▁ajakirjanik	-9.2026
evolutsioon	-9.20295
▁toimu	-9.20308
▁püha	-9.20314
▁paikne	-9.20354
16	-9.20373
Eesti	-9.2048
61	-9.2057
▁tegele	-9.20606
bert	-9.2061
▁filmi	-9.20613
▁Kõ	-9.20661
▁eriti	-9.20783
▁1918	-9.20792
▁1919	-9.20797
▁Nii	-9.20826
▁mitu	-9.20932
▁peamisel	-9.21125
▁Cha	-9.21191
pra	-9.21217
ā	-9.21297
▁käigus	-9.21304
keelne	-9.21306
▁pikkus	-9.21355
▁mõisa	-9.21557
52	-9.21699
▁Nikolai	-9.21807
73	-9.22025
ovi	-9.22086
▁laht	-9.22137
keele	-9.22253
▁osariigi	-9.22489
valimised	-9.22571
ppe	-9.22595
▁väed	-9.22733
84	-9.22793
54	-9.2282
▁kinni	-9.22861
mägi	-9.22993
▁Lin	-9.23193
▁kõrgkoolide	-9.23354
▁ookeani	-9.23354
ation	-9.23386
▁asja	-9.23532
▁alus	-9.23545
▁kõne	-9.23597
▁seis	-9.23687
minister	-9.23837
▁Põ	-9.23856
▁William	-9.23874
▁Johannes	-9.24124
▁korral	-9.2415
▁saared	-9.24235
ham	-9.24305
▁Eestimaa	-9.24362
▁kindla	-9.24399
▁peetakse	-9.244
▁1941	-9.244
▁2012	-9.24445
▁cm	-9.2463
▁avasta	-9.24632
▁We	-9.24662
kin	-9.24713
▁Rahvusvaheli	-9.24833
▁Saare	-9.24921
▁mängis	-9.24951
▁Teine	-9.2498
vabariigi	-9.25042
kohus	-9.25142
▁ühis	-9.25212
▁ilma	-9.25306
meeste	-9.25367
▁Esimene	-9.25453
mõõt	-9.25533
▁märtsil	-9.2563
▁Pal	-9.25727
▁lõpp	-9.25756
▁füüsika	-9.25819
▁tähtsa	-9.25841
Ameerika	-9.2589
▁kõrg	-9.25903
▁Kor	-9.25934
|	-9.2594
▁maailmasõda	-9.26025
46	-9.2616
▁tõus	-9.26185
tsu	-9.26253
▁maha	-9.26438
▁Egiptus	-9.2652
▁1945	-9.26523
protsess	-9.26524
▁1950	-9.26525
▁Jüri	-9.26525
▁mängijad	-9.26555
▁valimis	-9.26642
▁juulil	-9.26669
meel	-9.26753
alad	-9.26831
▁puh	-9.26874
▁ülem	-9.26874
▁pindala	-9.27063
▁Wa	-9.27074
mendi	-9.27105
▁Türgi	-9.27125
org	-9.27203
▁Ül	-9.27394
enti	-9.27611
▁kaota	-9.27615
▁Portugali	-9.27643
rant	-9.27748
▁Anton	-9.27765
▁tuleb	-9.27782
õp	-9.27822
▁keeled	-9.27862
▁esma	-9.27992
aegu	-9.2805
▁kunstnik	-9.28111
▁1944	-9.28144
kindlus	-9.28154
vene	-9.2818
▁piira	-9.28266
kki	-9.28279
õpetaja	-9.28426
▁rahvusvahelis	-9.28464
tamiseks	-9.2855
▁esimesed	-9.2859
▁kehtesta	-9.28688
järv	-9.28789
▁Maailma	-9.28964
▁lend	-9.28969
▁Tor	-9.29136
hä	-9.29163
metall	-9.29175
▁ilmus	-9.29232
ndatud	-9.29233
▁pidi	-9.29526
▁nõ	-9.29591
▁toeta	-9.29594
▁[	-9.29654
▁Car	-9.29678
▁George	-9.29691
iivne	-9.29694
kaubandus	-9.29715
▁sotsiaal	-9.29792
▁krooni	-9.29794
▁1960	-9.29795
▁kaudu	-9.2985
ов	-9.29853
vorm	-9.29985
▁meistrivõistlus	-9.30064
▁hulka	-9.30111
rge	-9.3034
†	-9.30346
▁hukkus	-9.30346
▁sisalda	-9.30346
▁On	-9.30403
muuseum	-9.30407
võistlused	-9.30642
▁oktoobril	-9.30794
q	-9.30794
▁Bra	-9.30814
▁Jan	-9.30828
kergejõustiklane	-9.30904
▁elemendi	-9.30907
▁1988	-9.30907
▁asemel	-9.30907
meister	-9.30926
udel	-9.31091
▁lahingu	-9.31235
▁Püha	-9.31373
▁Loo	-9.31396
▁luule	-9.31432
eeris	-9.31465
▁piiskop	-9.31466
erakond	-9.31489
▁kuna	-9.31697
▁endine	-9.32048
õõ	-9.32056
▁2013	-9.32082
▁kuuluv	-9.32121
▁poolest	-9.32248
▁alguse	-9.3233
▁juurde	-9.32601
allika	-9.3275
võistlustel	-9.32958
Viru	-9.33017
▁kõrgus	-9.33068
mängu	-9.33139
▁kilomeetri	-9.33171
▁Näiteks	-9.33171
▁1989	-9.33173
mootor	-9.33232
▁teatri	-9.33312
▁Riik	-9.33458
partei	-9.33577
vool	-9.33665
film	-9.33676
▁filminäitleja	-9.33745
▁1972	-9.33748
▁1968	-9.33748
▁Rahvastik	-9.33757
▁Kanada	-9.33764
▁sõjaväelane	-9.33786
▁liitu	-9.33876
punkt	-9.33918
▁Sü	-9.33933
▁veebruaril	-9.33958
▁arvuti	-9.34278
▁maalikunstnik	-9.34324
▁1934	-9.34326
▁tavaliselt	-9.34331
oom	-9.34351
▁nimetati	-9.34554
▁pidas	-9.34585
stiil	-9.34712
▁Wilhelm	-9.34905
treener	-9.34908
▁hakati	-9.34911
lugu	-9.35
▁liiki	-9.35113
▁kaotas	-9.35235
▁Seda	-9.35402
▁moodustati	-9.3541
▁Ben	-9.35487
ы	-9.3549
▁seotud	-9.35491
▁Pan	-9.35533
▁neil	-9.35553
pall	-9.35601
vabariik	-9.35755
reform	-9.35868
aldusjaotus	-9.36078
▁kosmose	-9.36078
▁1971	-9.3608
▁1937	-9.36081
▁1975	-9.36081
umine	-9.3614
kraadi	-9.36151
▁Alate	-9.36166
▁Georg	-9.36203
▁talle	-9.36331
▁endise	-9.36438
▁Gal	-9.36488
siooni	-9.36505
▁Maailmas	-9.36506
rah	-9.36651
▁abiellus	-9.3667
▁tähendab	-9.3667
▁1936	-9.36672
▁sündis	-9.367
lmarekordid	-9.37122
▁muut	-9.37201
▁ilmu	-9.37368
▁Kä	-9.37398
koor	-9.37602
▁rajati	-9.37723
▁hõlma	-9.37864
й	-9.37864
▁|1	-9.37865
▁Mer	-9.37942
märgi	-9.37969
organ	-9.38096
▁pärit	-9.38375
ø	-9.38466
▁vürst	-9.38467
▁2016	-9.38493
▁madala	-9.38515
▁hinna	-9.38518
▁Malta	-9.38601
▁seni	-9.38651
▁inimeste	-9.38784
▁suurem	-9.39071
▁Charles	-9.39072
▁matemaatik	-9.39081
dakse	-9.39354
▁neli	-9.39646
▁olümpia	-9.3968
▁hertsog	-9.39682
▁Gardie	-9.39683
▁1973	-9.39684
▁toime	-9.39719
▁Pühad	-9.39789
▁suurima	-9.39816
▁laiu	-9.39829
▁kuld	-9.39855
▁jumala	-9.39883
inglise	-9.4001
▁novembril	-9.40187
▁raudtee	-9.40292
▁peaminister	-9.40369
▁andmetel	-9.40512
▁alusel	-9.40803
▁talu	-9.40847
▁iseseisva	-9.40913
▁kirjelda	-9.40913
▁sünni	-9.40923
▁Fa	-9.40929
koja	-9.41135
▁vesi	-9.41166
▁Ala	-9.41267
я	-9.4128
▁Mihhail	-9.41534
turniir	-9.41534
liikumis	-9.41578
▁septembril	-9.42073
Q	-9.42117
▁Šveitsi	-9.42159
▁itaalia	-9.42159
▁hooaja	-9.42194
▁Balti	-9.4224
voolu	-9.42245
▁koosneb	-9.42291
▁alles	-9.42352
▁pealinna	-9.42639
ь	-9.42788
▁püsi	-9.42812
▁õppe	-9.42843
▁2017	-9.42863
▁Oma	-9.42886
▁Nor	-9.42968
▁füüsik	-9.43023
▁(15	-9.43142
laeva	-9.43143
▁kg	-9.4319
▁omadus	-9.4323
rahva	-9.43255
praegu	-9.43383
▁maailmasõja	-9.43421
▁Louis	-9.43432
▁Nende	-9.43461
▁liikmed	-9.43538
▁armee	-9.43539
▁Jean	-9.43865
▁siiski	-9.44001
▁loodi	-9.44024
▁Nu	-9.44037
▁maksimum	-9.44058
▁1982	-9.4406
▁London	-9.44061
▁muude	-9.44168
▁järve	-9.44276
▁ainu	-9.44392
▁moodustavad	-9.44497
mur	-9.44652
▁augustil	-9.44662
▁Brasiilia	-9.44699
▁haldusüksus	-9.44699
▁Belgia	-9.44699
▁tuntud	-9.447
▁ordu	-9.44789
roll	-9.44791
▁Kiriku	-9.44819
▁elab	-9.44897
▁tuuma	-9.44907
▁viie	-9.44925
▁varem	-9.44984
▁vähem	-9.45042
▁põhjus	-9.45102
▁Tri	-9.45118
▁Johan	-9.45176
▁miinimum	-9.45344
▁põllumajandus	-9.45347
▁Tur	-9.45349
▁Pla	-9.45465
välja	-9.45547
▁lahus	-9.45573
▁töötas	-9.45626
medal	-9.45704
▁küll	-9.45867
▁abil	-9.46002
▁valgus	-9.46004
kov	-9.4618
▁Selts	-9.46212
meistri	-9.46295
▁kiire	-9.46346
ooli	-9.46478
▁oblast	-9.4654
▁Johann	-9.46544
▁uurimis	-9.46585
▁(1901–	-9.46652
▁raske	-9.46681
▁ehitati	-9.46879
▁suurus	-9.46935
▁500	-9.47226
▁400	-9.47277
rää	-9.47284
▁1948	-9.47307
▁1963	-9.47307
▁punkti	-9.47331
▁häält	-9.47422
▁hääle	-9.47464
▁kuulutat	-9.47508
pü	-9.47511
jää	-9.47586
▁detsembril	-9.47626
korraldus	-9.47786
▁Peterburi	-9.47967
▁Serbia	-9.47967
▁1930	-9.47973
5%	-9.48158
▁kogudus	-9.48182
▁tuu	-9.48484
▁Liivimaa	-9.48633
▁1967	-9.48636
▁Kõige	-9.48637
▁Lisaks	-9.48639
▁käsi	-9.48648
▁jääb	-9.48704
mani	-9.48743
▁juhtimis	-9.4882
kirju	-9.48839
▁jaoks	-9.48921
nnis	-9.48959
auto	-9.49049
▁punktiga	-9.49085
▁jõudis	-9.49152
▁dünastia	-9.49305
▁parlament	-9.49305
▁mõlema	-9.49306
▁molekul	-9.49313
▁väe	-9.49364
▁taime	-9.49543
▁tugeva	-9.49578
▁esindaja	-9.49679
▁soome	-9.49813
▁tütar	-9.50019
▁aprillil	-9.50042
2099	-9.50118
▁kõrgeim	-9.50398
pärast	-9.50506
tegelane	-9.50588
demokraatlik	-9.50661
▁1969	-9.50664
▁Peeter	-9.50667
▁olevat	-9.51132
▁asuvad	-9.51186
▁1946	-9.51348
▁1976	-9.51349
▁1922	-9.5135
▁Väike	-9.51357
▁kerge	-9.51371
koondis	-9.51532
▁loobu	-9.51569
üüdi	-9.5159
liini	-9.51701
▁MM	-9.51795
▁otse	-9.51848
С	-9.52035
▁Montenegro	-9.52035
▁Vladimir	-9.52035
▁1979	-9.52038
▁1924	-9.5204
▁asula	-9.52145
▁kuuluvad	-9.52149
▁vähemal	-9.52298
maade	-9.52475
tugev	-9.52531
▁1959	-9.52732
▁1917	-9.52736
▁Martin	-9.52815
▁rahvastiku	-9.52829
▁Aastate	-9.52848
▁Ver	-9.52851
ühiku	-9.52911
▁ringkond	-9.52911
▁keskel	-9.53051
▁vanema	-9.53133
▁mingi	-9.53294
å	-9.53429
ë	-9.53429
▁mälestus	-9.5343
▁karika	-9.53595
▁olulise	-9.53642
▁hulga	-9.53889
ränd	-9.54049
▁tähendus	-9.54102
▁Tšehhi	-9.54133
▁tunnusta	-9.54133
▁1961	-9.54136
▁1962	-9.54136
▁tekkis	-9.54136
▁1964	-9.54136
▁1928	-9.54137
▁1921	-9.54138
▁Kur	-9.54184
▁2018	-9.54186
üür	-9.54283
▁juudi	-9.54296
▁vapi	-9.54324
▁värvi	-9.5433
▁muusik	-9.54736
▁püüd	-9.54755
▁käe	-9.54836
▁Barcelona	-9.54842
▁Napoleon	-9.54842
▁Ukraina	-9.54842
▁1932	-9.54846
ск	-9.54887
б	-9.55557
▁abielu	-9.55586
▁koduleht	-9.55595
▁Henri	-9.55636
ré	-9.55772
▁aru	-9.55882
ruumi	-9.5589
peeti	-9.56067
▁ajakirja	-9.5616
vaheline	-9.56194
“	-9.56276
▁arengu	-9.56279
alade	-9.56313
▁asuva	-9.56364
▁paljude	-9.56462
▁elektro	-9.56777
▁kasutada	-9.56785
valitsus	-9.56908
ра	-9.56964
▁tegel	-9.56972
▁ülestõus	-9.57001
▁1981	-9.57004
▁1935	-9.57004
karjäär	-9.57005
▁krahv	-9.57005
▁Jumala	-9.57009
▁seisuga	-9.57034
▁asutas	-9.57169
▁Kogu	-9.5723
▁teatas	-9.57553
poliitika	-9.57588
▁Need	-9.57684
▁Araabia	-9.57731
▁ÜRO	-9.57731
▁James	-9.5779
▁kohaselt	-9.57876
▁poja	-9.58165
valitseja	-9.58441
▁Horvaatia	-9.58466
▁sümboliseeri	-9.58466
liigaastal	-9.58466
probleem	-9.58466
▁võimalda	-9.58466
▁Sotsiaal	-9.58467
▁1987	-9.58469
▁Majandus	-9.58472
▁rootsi	-9.58479
küsimus	-9.58479
▁ajalugu	-9.5851
▁näht	-9.58546
amuti	-9.58584
▁relva	-9.58638
jon	-9.58987
▁Vee	-9.5906
▁sageli	-9.5921
▁Mont	-9.59216
▁lõpuks	-9.59316
▁puhke	-9.59406
▁mõni	-9.59553
▁looma	-9.59645
jalgpallikoondis	-9.59892
struktuur	-9.59953
▁1952	-9.59956
▁1966	-9.59956
▁Wal	-9.60117
värv	-9.60171
essi	-9.60504
▁koll	-9.60615
▁sea	-9.60693
näiteks	-9.60884
▁meri	-9.61032
▁roh	-9.6111
–14	-9.61426
▁tekita	-9.61456
č	-9.61462
п	-9.61463
▁punane	-9.61463
▁eralda	-9.61463
▁1927	-9.61467
▁silma	-9.61561
▁katse	-9.61654
▁lask	-9.61839
ła	-9.61844
▁võidu	-9.61994
▁meele	-9.62086
lavastaja	-9.62217
▁Vormel	-9.62226
▁Iraagi	-9.62226
▁leidub	-9.62227
▁Jakob	-9.62228
▁1933	-9.62229
▁Seal	-9.62424
ühendus	-9.62436
▁teose	-9.62791
serva	-9.62866
▁ütle	-9.63007
▁Albert	-9.63089
▁ligi	-9.63173
▁perioodi	-9.6327
▁200	-9.63427
▁tänava	-9.63458
▁Kõrg	-9.6357
▁Krimmi	-9.6377
▁perekonna	-9.63771
▁1986	-9.63774
▁paavst	-9.63774
▁viimane	-9.63779
▁omavalitsus	-9.63793
▁tunnista	-9.63797
▁2020	-9.63856
lennu	-9.64345
−	-9.64551
▁Richard	-9.64552
▁1956	-9.64555
▁1977	-9.64555
▁1953	-9.64555
▁1929	-9.64555
meetod	-9.64559
▁presidendiks	-9.64717
▁kinnitas	-9.64822
▁Konstantin	-9.65339
▁1974	-9.65342
▁Cor	-9.65525
▁kunagi	-9.65612
▁Van	-9.65619
▁Kalev	-9.66031
mängija	-9.66103
ón	-9.66108
è	-9.66132
▁1984	-9.66135
▁enamasti	-9.66136
▁1983	-9.66136
materjal	-9.66144
oksiid	-9.66159
▁naiste	-9.66224
▁päikese	-9.66353
Euroopa	-9.66573
▁pealinn	-9.6661
▁Tšetšeeni	-9.66932
kongress	-9.66933
▁1949	-9.66936
▁1942	-9.66936
▁Keemili	-9.66946
▁põhjusta	-9.67233
Aasia	-9.67354
▁nüüd	-9.67781
▁tipp	-9.67932
▁alevi	-9.67978
rüü	-9.67993
▁löö	-9.6813
▁täis	-9.68516
▁Iisraeli	-9.68552
▁hõiva	-9.68552
▁1943	-9.68555
▁1958	-9.68555
▁1925	-9.68559
▁meeskonna	-9.68564
▁lapse	-9.68599
▁Saint	-9.68707
▁oktoobri	-9.68714
▁väiksema	-9.68763
▁vangi	-9.69197
▁Riia	-9.69308
▁foto	-9.69326
grupi	-9.69355
ī	-9.69372
▁Jõhvi	-9.69372
▁abikaasa	-9.69372
▁sümboolika	-9.69372
▁kontrolli	-9.69372
▁vägede	-9.69372
▁nafta	-9.69373
▁peetud	-9.6938
▁kolmanda	-9.69381
ndeid	-9.6944
▁taeva	-9.69627
▁suhe	-9.69713
nce	-9.69944
▁Akadeemia	-9.70198
▁Michael	-9.70198
▁1965	-9.70202
▁1978	-9.70202
▁enamik	-9.70225
▁Qu	-9.70254
▁arene	-9.70265
▁seejärel	-9.70268
plat	-9.70847
▁risti	-9.7096
kett	-9.70979
▁rahvaarv	-9.71002
▁seitsme	-9.71032
tunni	-9.71092
ovitš	-9.71133
▁luge	-9.71133
▁huvi	-9.71134
▁Osa	-9.7115
▁neem	-9.71247
▁algul	-9.71325
▁arhitekt	-9.71383
sarja	-9.71662
▁temperatuuri	-9.71737
ministri	-9.71826
▁Christian	-9.71872
▁tõlkija	-9.71872
▁kliima	-9.71873
▁vasak	-9.71965
▁olümpiamängud	-9.72186
sekretär	-9.72719
▁rahvaloenduse	-9.72719
▁ümbritse	-9.72719
▁pääse	-9.72722
▁1923	-9.72725
▁Isiklik	-9.72727
tehnika	-9.72729
▁seose	-9.72789
valimiste	-9.72805
▁Raamat	-9.72852
Kü	-9.7288
▁Foto	-9.7298
kondade	-9.73002
▁kasutusel	-9.73076
▁Lipu	-9.73305
▁1947	-9.73577
▁1985	-9.73578
▁finaal	-9.73581
▁Valitsus	-9.73584
▁sõltumatu	-9.73604
alism	-9.73752
▁mõjuta	-9.73948
▁Alg	-9.73952
ă	-9.74436
▁Adolf	-9.74436
▁1957	-9.7444
▁sadama	-9.74466
▁üksik	-9.74493
▁2019	-9.74593
püha	-9.74635
hari	-9.74709
tõlge	-9.74742
▁kaheksa	-9.74751
igeusu	-9.74779
isegi	-9.7478
▁ranna	-9.74961
ianus	-9.75032
▁kujuta	-9.75285
К	-9.75305
meditsiin	-9.75306
▁diplomaat	-9.75306
▁leiu	-9.7547
▁ametisse	-9.75588
▁kõrgema	-9.75744
▁sõltu	-9.76153
▁Lä	-9.76164
▁suveolümpiamäng	-9.76183
▁kindral	-9.76183
▁1931	-9.76188
▁1926	-9.76188
▁Kongo	-9.76319
▁keskmise	-9.76438
▁tüüpi	-9.76485
▁Nõukogu	-9.76774
põlv	-9.76908
>	-9.77067
Makedoonia	-9.77068
Meremaa	-9.77068
▁Tänapäeva	-9.77068
▁peaministri	-9.77133
iseseisvu	-9.77163
▁isiku	-9.77215
viisi	-9.77342
ajaloo	-9.77428
▁õpi	-9.77847
maatika	-9.77948
▁Argentina	-9.7796
▁Francis	-9.7796
*	-9.77961
▁hümn	-9.77961
▁Praegu	-9.77962
▁David	-9.77964
▁jaguneb	-9.77966
▁Otto	-9.77975
▁ääres	-9.78063
▁külasta	-9.78646
▁arst	-9.78663
▁Hiljem	-9.78861
▁Lihula	-9.78864
liikumine	-9.78893
▁koondise	-9.79131
на	-9.79332
▁teki	-9.79511
üll	-9.7956
||(18	-9.79771
з	-9.79771
▁võõr	-9.79774
▁eduka	-9.79779
eerida	-9.79781
▁ametlikult	-9.79836
▁kuninganna	-9.79922
▁ralli	-9.802
loomulik	-9.80223
õhk	-9.80541
CO	-9.80579
pedagoog	-9.80688
▁Mehhiko	-9.80688
▁programmi	-9.80705
sfäär	-9.80727
▁uut	-9.8078
▁täit	-9.80794
õpetus	-9.80859
▁antud	-9.80915
paik	-9.81215
▁kaht	-9.81302
▁miljoni	-9.81435
▁Lõ	-9.81598
▁Frank	-9.81616
▁1955	-9.81618
teenistus	-9.81626
▁Üks	-9.81671
▁septembri	-9.81741
▁meeskond	-9.8175
▁alusta	-9.81972
mmer	-9.82067
vahetus	-9.8207
▁Uue	-9.82076
▁Viini	-9.82244
piiri	-9.82429
▁prints	-9.82546
▁Aserbaidžaan	-9.82548
▁Thomas	-9.82549
▁kätte	-9.8255
▁lagune	-9.82565
▁võimalus	-9.82577
▁maailmameister	-9.82597
▁esinda	-9.82682
staadion	-9.82721
▁jne	-9.82749
▁kujunes	-9.82841
▁liikumise	-9.82918
kondensaator	-9.83492
Demokraatlik	-9.83492
▁Edward	-9.83492
▁Eduard	-9.83493
▁1904	-9.83497
▁inimene	-9.83509
▁Riiklik	-9.83518
▁novembri	-9.83659
▁Saaremaa	-9.8371
▁valimistel	-9.83735
▁tootmis	-9.83862
▁filosoofia	-9.83884
▁hulk	-9.83915
▁olümpiamängudel	-9.84092
happe	-9.84431
▁föderaal	-9.84444
▁kuberner	-9.84444
▁rõhu	-9.84445
▁mõtte	-9.84447
▁Fääri	-9.84466
▁lähi	-9.84471
▁säilinud	-9.84519
▁praeguse	-9.84525
▁vormi	-9.84547
▁gaasi	-9.84567
▁kuhu	-9.84574
▁Juuni	-9.8462
▁reisi	-9.84725
Kreeka	-9.84888
▁Auto	-9.84997
pärase	-9.85021
taseme	-9.85055
reaktsioon	-9.85332
▁olümpiavõitja	-9.85406
kriitik	-9.85415
▁räägi	-9.85418
▁arenda	-9.85462
pommi	-9.85525
▁vajalik	-9.85619
▁ajaloolise	-9.85643
▁lahing	-9.85809
nurk	-9.85927
▁lõpuni	-9.86045
nõu	-9.86064
ч	-9.86377
”	-9.86377
▁hispaania	-9.86377
▁põllu	-9.86379
▁1954	-9.8638
▁vilja	-9.86406
▁Seetõttu	-9.86416
▁reaktsiooni	-9.86454
▁Juhan	-9.86479
▁metalli	-9.86715
▁erista	-9.86744
▁keda	-9.86883
▁vanim	-9.86947
▁väikse	-9.87105
▁säilita	-9.87134
kaart	-9.87196
ć	-9.87357
▁Liechtenstein	-9.87357
▁annab	-9.87365
▁loodud	-9.87371
▁ühiskonna	-9.87476
▁Kõik	-9.87556
▁Musta	-9.87637
▁minutil	-9.87668
eetika	-9.87673
▁vabasta	-9.87943
▁joo	-9.8799
mõisa	-9.88036
▁monarh	-9.88348
▁Inglise	-9.88349
▁Jaanuar	-9.88353
▁Nä	-9.88608
▁keskkonna	-9.88806
▁Noor	-9.88879
vastu	-9.88926
▁okupatsioon	-9.89347
▁vaimulik	-9.89348
▁kaugusel	-9.89348
▁uuesti	-9.8945
avaldus	-9.89602
juures	-9.90051
ин	-9.90155
ovski	-9.90158
eerimine	-9.90308
Ö	-9.90357
▁Tšehhoslovakkia	-9.90357
konflikt	-9.90357
Nõmme	-9.90357
komisjon	-9.90359
▁trooni	-9.90361
▁raadio	-9.90361
▁1912	-9.90365
▁polnud	-9.9037
▁venna	-9.90752
vahelise	-9.90753
▁detsembri	-9.90881
▁külm	-9.91298
▁Bulgaaria	-9.91378
▁dollari	-9.91378
▁Bosnia	-9.91378
▁1951	-9.91382
▁Caesar	-9.91383
▁1905	-9.91383
▁Ivan	-9.91438
▁romaani	-9.91619
tõlk	-9.91758
▁paari	-9.92189
press	-9.92331
föderatsioon	-9.92409
▁Parlamendi	-9.92409
rünnak	-9.92411
▁briti	-9.92415
temp	-9.92417
▁staatus	-9.9243
▁eesmärgi	-9.92442
▁teisi	-9.92463
geograaf	-9.92512
funktsioon	-9.9345
▁Joseph	-9.93451
▁sündmus	-9.93452
tähe	-9.93481
▁sunni	-9.93511
eesti	-9.93585
▁Port	-9.93891
▁tegevuse	-9.94222
▁organisatsiooni	-9.94335
hõbe	-9.94499
▁Hiiumaa	-9.94503
▁Ülemnõukogu	-9.94503
▁loetle	-9.94503
▁islami	-9.94514
▁mandri	-9.94525
▁etapi	-9.94543
▁Täht	-9.94548
▁alagrupi	-9.94551
▁edela	-9.94554
▁keemik	-9.94564
▁krai	-9.9457
nurga	-9.94663
tõttu	-9.95368
▁vär	-9.95377
▁Armeenia	-9.95567
▁suurvürst	-9.95567
▁Valgevene	-9.95567
▁pärineb	-9.95569
▁rakenda	-9.95575
▁näide	-9.95646
majandus	-9.95657
▁Enne	-9.9566
▁õpeta	-9.95916
▁800	-9.96035
▁aladel	-9.96112
ан	-9.9651
▁lühike	-9.96641
▁Rumeenia	-9.96642
▁Veebruar	-9.96642
▁isotoop	-9.96642
▁Etioopia	-9.96642
▁Jugoslaavia	-9.96642
▁Postimees	-9.96642
▁esimeheks	-9.96642
▁ründa	-9.96643
hüppe	-9.96647
sõduri	-9.96648
▁Finaal	-9.96648
▁1900	-9.96664
firma	-9.96707
▁Juuli	-9.96711
▁2021	-9.96736
▁teksti	-9.96782
liolümpiamängud	-9.9687
augu	-9.97552
▁ühtlas	-9.97646
ministeerium	-9.97729
П	-9.97729
▁Colombia	-9.97729
härra	-9.97732
ettevõte	-9.97741
▁kirde	-9.97761
▁eesmärk	-9.97774
minuti	-9.97806
▁riigitegelane	-9.9787
plaani	-9.97916
▁hävita	-9.97988
▁taht	-9.98032
▁Petr	-9.98562
▁Sillamäe	-9.98828
▁omakorda	-9.98833
▁2022	-9.98918
▁Erakond	-9.9893
▁info	-9.98957
piirkond	-9.99
tüüp	-9.99592
Ä	-9.99939
▁koloonia	-9.99939
▁hõbemedal	-9.99939
▁järjest	-9.99941
▁hästi	-9.99942
▁maantee	-9.99942
▁hõbeda	-9.99957
▁Andres	-9.99984
▁Euro	-10.0004
▁täpse	-10.0012
▁koosnev	-10.0047
periood	-10.0071
▁Boliivia	-10.0106
▁Schumacher	-10.0106
trükk	-10.0106
▁lähtu	-10.0106
▁sarnane	-10.0106
▁norra	-10.0106
▁seetõttu	-10.0113
▁kauba	-10.0139
▁liikmete	-10.015
kohtunik	-10.0203
Osseetia	-10.022
ō	-10.022
▁operatsiooni	-10.022
kommunist	-10.022
▁Spordi	-10.022
▁auhinna	-10.022
▁elanikku	-10.022
▁Helsingi	-10.022
▁süüdista	-10.022
▁Yorgi	-10.022
▁tehti	-10.0221
nõunik	-10.0223
loogiliselt	-10.0231
▁aatom	-10.0291
▁kinnitat	-10.0302
kloor	-10.0309
liiklus	-10.0322
konverents	-10.0335
▁Pihkva	-10.0335
▁Uruguay	-10.0335
▁poliitilise	-10.0335
▁maavärin	-10.0335
▁Alekse	-10.0336
▁Tuglas	-10.0336
▁oluline	-10.0337
▁Riigipead	-10.0339
kalda	-10.0399
▁hävi	-10.0425
▁Heinrich	-10.0451
▁Alfred	-10.0451
ettevõtte	-10.0451
▁Ernst	-10.0451
aadress	-10.0451
▁Kultuur	-10.0453
▁Vaikse	-10.0453
▁murde	-10.047
organisatsioon	-10.047
klassi	-10.0496
saksa	-10.0504
▁püü	-10.0512
▁sisu	-10.0548
▁Aprill	-10.0569
х	-10.0569
▁Fidži	-10.0569
▁Philip	-10.0569
▁Henry	-10.0569
▁ooperi	-10.0569
▁Ajaloo	-10.0569
▁liideti	-10.0569
▁1913	-10.057
▁põgene	-10.057
▁Berliini	-10.0571
▁toidu	-10.058
seadme	-10.0581
▁terve	-10.0589
kõige	-10.0607
▁tänav	-10.0622
norm	-10.0623
▁objekti	-10.0639
vahend	-10.065
<	-10.0688
▁reageeri	-10.0688
▁likvideer	-10.0688
▁Karjala	-10.0688
▁filmirežissöör	-10.0688
▁Looming	-10.0688
▁tütre	-10.0689
▁arvatud	-10.0689
▁omavahel	-10.0704
▁karja	-10.0705
jõe	-10.0738
▁õige	-10.0764
▁Päikese	-10.0808
▁kuningriigi	-10.0808
▁kuningriik	-10.0808
demokraatia	-10.0808
▁kasvas	-10.0813
ametnik	-10.0816
▁väide	-10.0819
Saksamaa	-10.0859
elektri	-10.0868
▁olemasolu	-10.093
ш	-10.093
▁hollandi	-10.093
▁eraldi	-10.093
▁õppis	-10.093
▁leidis	-10.0932
▁kiiresti	-10.0935
▁sõitis	-10.0938
▁suunas	-10.0941
▁kitsa	-10.0942
▁elaniku	-10.0943
▁Stockholmi	-10.0944
täht	-10.098
maailma	-10.0989
omanik	-10.1037
teater	-10.105
ñ	-10.1054
▁ümbrus	-10.1054
▁artikli	-10.1054
volikogu	-10.1054
▁ligikaud	-10.1054
▁1914	-10.1054
▁projekt	-10.1055
▁tsaar	-10.1057
efekt	-10.1062
▁vägi	-10.1064
,3%	-10.1065
ight	-10.1076
jõgi	-10.1118
Vene	-10.1127
gümnaasium	-10.1179
▁Jõgeva	-10.1179
▁iseloomusta	-10.1179
▁kindralkuberner	-10.1179
▁füüsili	-10.1179
▁okupeeri	-10.1179
▁Teaduste	-10.1179
▁Viljandi	-10.1179
▁võetud	-10.1179
▁väljenda	-10.1179
▁astronoom	-10.1179
▁Enamik	-10.1179
sportlane	-10.118
▁turism	-10.118
▁lään	-10.1218
▁alista	-10.1239
°	-10.1249
▁Pär	-10.1292
professor	-10.1305
referendum	-10.1305
õnnetus	-10.1305
▁paiguta	-10.1306
▁mässu	-10.1306
▁juhul	-10.1307
▁käsitle	-10.1307
▁tulemusena	-10.1307
▁Jõe	-10.1308
olev	-10.1308
▁istung	-10.131
▁arutlus	-10.131
,2%	-10.1318
▁soorita	-10.1318
▁toetus	-10.1324
korpus	-10.1338
▁Adam	-10.134
▁surnu	-10.137
▁Jalgpall	-10.1433
#	-10.1433
É	-10.1433
▁Vahemere	-10.1433
ц	-10.1433
ohvri	-10.1434
▁Ateena	-10.1434
▁ainsa	-10.1434
▁eemal	-10.1434
▁Tuvalu	-10.1435
▁inimesi	-10.1435
▁perekond	-10.1436
▁Paljud	-10.1437
▁võitnud	-10.1441
üüm	-10.1461
▁asuv	-10.1515
tehnoloogia	-10.1563
▁Haapsalu	-10.1563
Р	-10.1563
Guinea	-10.1564
▁Tõnis	-10.1567
▁kasvata	-10.1573
▁kaardi	-10.1584
mägede	-10.1585
▁jumal	-10.1606
ая	-10.1617
territoorium	-10.1639
▁Põllu	-10.1695
François	-10.1695
akadeemia	-10.1695
Ž	-10.1695
ж	-10.1695
▁kergejõustiku	-10.1695
▁Riigilipu	-10.1695
▁Sergei	-10.1695
▁eksisteeri	-10.1695
▁tiheda	-10.1695
▁1908	-10.1695
▁vaatlus	-10.1696
▁Päts	-10.1697
▁pidada	-10.1697
▁pöördu	-10.1707
▁külg	-10.1731
üksus	-10.1733
ford	-10.1743
▁hind	-10.1751
Karabahhi	-10.1828
▁Olümpiamängud	-10.1828
suguvõsa	-10.1828
▁tõkkejooks	-10.1828
grupp	-10.1829
romaan	-10.1829
▁1910	-10.183
võistleja	-10.183
▁Oslo	-10.1834
▁enese	-10.1836
▁Umbe	-10.1844
Z	-10.192
▁registreeri	-10.1963
▁Sotsialistlik	-10.1963
▁kihelkonna	-10.1963
▁tihti	-10.1964
▁filmilavastaja	-10.1965
▁meistriks	-10.1967
▁Katari	-10.1974
laulja	-10.208
▁Apollo	-10.21
▁Tšiili	-10.21
▁tegemist	-10.21
▁tuhande	-10.21
▁varasema	-10.2101
▁Pierre	-10.2101
standard	-10.2101
▁Kunsti	-10.2101
reklaam	-10.2102
▁tutvu	-10.2102
▁suudme	-10.2102
▁normaal	-10.2103
▁saadeti	-10.2103
▁vesiniku	-10.2105
▁oht	-10.2131
▁kulg	-10.2135
jõudude	-10.2167
ł	-10.217
▁pronksmedal	-10.2239
▁tekkinud	-10.2239
▁ülejäänud	-10.2239
võrgu	-10.2241
▁Kokku	-10.2241
▁sinine	-10.2241
▁kahju	-10.2243
▁saadud	-10.2244
Pärsia	-10.2253
▁lahuta	-10.2255
ehitis	-10.2268
kaitsja	-10.227
▁Kuig	-10.229
kandja	-10.2325
füüsika	-10.2371
ū	-10.238
▁Clemens	-10.238
▁Detsember	-10.238
▁Liibüa	-10.238
▁September	-10.238
▁Sloveenia	-10.238
▁võrreldes	-10.238
▁teadaolev	-10.238
▁püstita	-10.238
▁tehtud	-10.238
▁tühista	-10.2381
Jõesuu	-10.2381
▁Põlva	-10.2381
▁leitud	-10.2383
▁Haridus	-10.2384
,1%	-10.2387
qui	-10.2401
täielik	-10.2401
▁Angel	-10.2431
versioon	-10.244
ajastu	-10.246
Y	-10.2518
Soome	-10.2519
▁Punaarmee	-10.2523
▁defineeri	-10.2523
▁loetakse	-10.2523
▁külje	-10.2523
▁tiitli	-10.2523
▁Klubi	-10.2524
▁liidumaa	-10.2529
▁lühi	-10.2529
▁lõplik	-10.2531
eejärel	-10.2533
▁raua	-10.2589
surnud	-10.2624
▁aadli	-10.2639
▁Oktoober	-10.2668
А	-10.2668
Н	-10.2668
▁Esimest	-10.2668
▁Muusika	-10.2668
▁eraldu	-10.2668
▁kasvab	-10.2668
▁mõrva	-10.2669
▁käsu	-10.267
▁toimi	-10.2677
▁juhata	-10.2686
▁Stein	-10.2706
urkina	-10.2718
▁Vabadussõja	-10.2815
▁Vormsi	-10.2815
orbitaal	-10.2815
э	-10.2815
і	-10.2815
▁Novgorod	-10.2815
▁Osmanite	-10.2815
Järve	-10.2815
▁Isamaa	-10.2816
▁Iraani	-10.2816
▁tasandi	-10.2818
▁ajalehe	-10.2818
kunstnik	-10.2823
▁üheksa	-10.2828
kasvatus	-10.2842
▁jõustu	-10.2875
М	-10.2964
▁Galicia	-10.2964
▁November	-10.2964
▁moodustu	-10.2964
▁tulekahju	-10.2964
▁roheline	-10.2964
germaani	-10.2964
▁1906	-10.2965
õrv	-10.2974
▁hobu	-10.2975
▁Peruu	-10.2978
kunsti	-10.2991
▁Constantinus	-10.3116
▁Saavutuse	-10.3116
▁Slovakkia	-10.3116
▁Venezuela	-10.3116
▁araabia	-10.3116
▁edetabel	-10.3116
▁jälle	-10.3116
▁Gabriel	-10.3116
▁täielikult	-10.3116
▁Tunnust	-10.3116
▁rakendus	-10.3116
▁Põllumajandus	-10.3116
▁maletaja	-10.3116
▁Samoa	-10.3118
▁tunne	-10.3118
kiirgus	-10.3131
▁Faso	-10.3135
näitus	-10.3146
▁põhilisel	-10.316
objekt	-10.3179
▁Trans	-10.3183
▁Berlusconi	-10.327
▁näitekirjanik	-10.327
▁peapiiskop	-10.327
režiim	-10.327
▁Magnus	-10.327
▁reegli	-10.327
▁1901	-10.327
▁Krahv	-10.327
▁1911	-10.3271
▁ülesande	-10.3271
udolf	-10.3272
▁soojus	-10.3283
▁arvesta	-10.3289
▁Lepik	-10.3306
▁talupoegade	-10.3426
▁tennisist	-10.3426
В	-10.3426
▁Komitee	-10.3426
▁XII	-10.3426
▁merepinna	-10.3426
▁tunnuse	-10.3426
▁kandideeri	-10.3426
▁mõtle	-10.3426
kandidaat	-10.3426
▁1916	-10.3426
▁räni	-10.3427
▁esialg	-10.344
pikkus	-10.3476
analüüs	-10.3585
ė	-10.3585
ý	-10.3585
▁kalmistu	-10.3585
▁seitse	-10.3585
▁kasvu	-10.3586
▁Gogh	-10.3588
▁Andrus	-10.3588
▁Kuninga	-10.3596
▁Artur	-10.3596
▁viimast	-10.36
tähtede	-10.3601
koosolek	-10.367
arhitektuur	-10.3678
▁Alexander	-10.3746
▁Vespasianus	-10.3746
▁definitsioon	-10.3746
▁kokkuleppe	-10.3746
▁Kliima	-10.3746
▁1903	-10.3747
▁suutnud	-10.3748
▁Kaitse	-10.3752
haigla	-10.3753
tähis	-10.3786
hüü	-10.3844
×	-10.391
ã	-10.391
ο	-10.391
▁programmeerimis	-10.391
▁hukati	-10.391
▁kapten	-10.391
mõõdu	-10.391
▁tulnud	-10.3911
▁Ambla	-10.3911
▁kristlik	-10.3918
takistus	-10.3929
ajakirjanik	-10.3972
▁Hertsegoviina	-10.4076
▁aksioom	-10.4076
▁konstitutsiooni	-10.4076
▁Elektri	-10.4076
▁kardinal	-10.4076
▁Madridi	-10.4076
▁1915	-10.4077
▁hooaeg	-10.4077
▁pakku	-10.4081
juhtivus	-10.4097
õhtu	-10.4128
▁Ülikool	-10.4131
▁Adžaaria	-10.4246
▁Bonaparte	-10.4246
▁Saakašvili	-10.4246
▁esietendus	-10.4246
▁stabiilse	-10.4246
▁Kuressaare	-10.4246
▁skulptor	-10.4246
▁domineeri	-10.4246
▁jälg	-10.4246
▁ROK	-10.4246
▁Oblast	-10.4246
▁mööda	-10.4246
▁Daniel	-10.4246
▁ekspordi	-10.4247
▁José	-10.4247
vabrik	-10.4254
1,5	-10.4316
vastase	-10.4372
Å	-10.4418
▁Füüsika	-10.4418
▁Voldemar	-10.4418
▁tagajärjel	-10.4418
Г	-10.4594
‘	-10.4594
ς	-10.4772
Б	-10.4954
α	-10.5139
ș	-10.5139
ş	-10.5139
ç	-10.5716
ú	-10.5716
’	-10.5716
И	-10.5916
О	-10.5916
ē	-10.6121
Т	-10.6542
‎	-10.6759
æ	-10.7679
ا	-10.7679
Õ	-10.7725
ρ	-10.8173
→	-10.8429
З	-10.8429
τ	-10.8693
·	-10.8693
ъ	-10.8693
μ	-10.8963
ν	-10.8963
Д	-10.8963
_	-10.9241
Л	-10.9241
σ	-10.9526
}	-10.9526
ı	-10.982
&	-10.9821
Č	-10.9821
λ	-11.0124
ß	-11.0124
ț	-11.0124
ё	-11.0436
­	-11.0759
ř	-11.1092
ι	-11.1092
У	-11.1092
ю	-11.1092
‰	-11.1092
à	-11.1092
ô	-11.1092
ḩ	-11.1092
م	-11.1437
ę	-11.1437
′	-11.1437
π	-11.2164
⟩	-11.2164
κ	-11.2549
ر	-11.2549
ي	-11.2549
ě	-11.2549
ф	-11.2549
Š	-11.2923
щ	-11.2949
ل	-11.2949
ś	-11.2949
η	-11.3366
î	-11.3366
ա	-11.38
İ	-11.38
ə	-11.38
ε	-11.4255
ό	-11.4255
‒	-11.4255
́	-11.4255
~	-11.4731
ï	-11.4731
ŭ	-11.4731
γ	-11.4731
ј	-11.4731
υ	-11.6313
`	-11.6313
δ	-11.6313
ð	-11.6313
Ш	-11.6313
[	-11.6454
»	-11.6901
ţ	-11.6901
—	-11.6901
đ	-11.6901
Е	-11.6901
Ч	-11.6901
Ḩ	-11.6901
θ	-11.7526
§	-11.7526
ą	-11.7526
ň	-11.7526
ة	-11.7526
Ф	-11.7526
ά	-11.8193
Ц	-11.8193
Ś	-11.8193
ن	-11.8193
Х	-11.8193
ა	-11.8907
ί	-11.8907
ب	-11.8907
ų	-11.8907
د	-11.8907
​	-11.9676
Ş	-11.9676
Э	-11.9676
Я	-11.9676
Ø	-11.9676
ő	-12.051
ح	-12.051
ў	-12.051
ი	-12.051
ב	-12.051
و	-12.1419
έ	-12.1419
ق	-12.1419
Ю	-12.1419
ή	-12.2419
ω	-12.2419
Ā	-12.2419
β	-12.2419
한	-12.2419
ն	-12.2419
א	-12.2419
Σ	-12.353
ğ	-12.353
ʻ	-12.353
ל	-12.353
ع	-12.353
대	-12.353
ː	-12.353
ص	-12.353
χ	-12.478
^	-12.478
ņ	-12.478
ה	-12.478
Ō	-12.478
ր	-12.478
י	-12.478
\	-12.6208
Í	-12.6208
ك	-12.6208
ò	-12.6208
ǎ	-12.6208
Ș	-12.6208
Ω	-12.6208
ز	-12.6208
우	-12.6208
이	-12.6208
하	-12.6208
Ç	-12.6208
ḑ	-12.6209
•	-12.6209
ћ	-12.7875
ج	-12.7875
$	-12.7875
ʿ	-12.7875
ˈ	-12.7875
≤	-12.7875
리	-12.7875
ê	-12.7875
ե	-12.7875
յ	-12.9875
ķ	-12.9875
동	-12.9875
ì	-12.9875
ù	-12.9875
͍	-12.9875
Ы	-12.9875
ռ	-12.9875
்	-12.9875
ლ	-12.9875
⊃	-12.9875
╞	-12.9875
국	-12.9875
나	-12.9875
세	-12.9875
은	-12.9875
주	-12.9875
ت	-12.9875
̠	-12.9875
Δ	-13.2375
ه	-13.2375
시	-13.2375
ˑ	-13.2375
州	-13.2375
±	-13.2375
ÿ	-13.2375
ŋ	-13.2375
ɡ	-13.2375
Ν	-13.2375
ի	-13.2375
מ	-13.2375
س	-13.2375
ى	-13.2375
ப	-13.2375
შ	-13.2375
∈	-13.2375
道	-13.2375
남	-13.2375
도	-13.2375
제	-13.2375
ʑ	-13.2375
ש	-13.2375
̞	-13.2375
ר	-13.2375
፡	-13.5708
金	-13.5708
조	-13.5708
љ	-13.5708
東	-13.5708
ξ	-13.5708
ώ	-13.5708
ض	-13.5708
五	-13.5708
大	-13.5708
학	-13.5708
ҳ	-13.5708
기	-13.5708
로	-13.5708
성	-13.5708
ů	-13.5708
ǔ	-13.5708
ɪ	-13.5708
ʝ	-13.5708
̊	-13.5708
ட	-13.5708
ி	-13.5708
ḯ	-13.5708
∙	-13.5708
≡	-13.5708
る	-13.5708
南	-13.5708
形	-13.5708
治	-13.5708
韓	-13.5708
가	-13.5708
고	-13.5708
구	-13.5708
김	-13.5708
두	-13.5708
무	-13.5708
보	-13.5708
사	-13.5708
산	-13.5708
선	-13.5708
을	-13.5708
일	-13.5708
태	-13.5708
∪	-13.5708
Ħ	-13.5709
旗	-13.5709
朝	-13.5709
海	-13.5709
ָ	-13.5709
北	-13.5709
Œ	-13.5709
ɾ	-13.5709
ת	-13.5709
Լ	-13.5709
տ	-13.5709
ያ	-14.0708
ላ	-14.0708
ራ	-14.0708
ክ	-14.0708
ዴ	-14.0708
ṗ	-14.0708
ύ	-14.0708
ү	-14.0708
ו	-14.0708
안	-14.0708
ӧ	-14.0708
字	-14.0708
강	-14.0708
윤	-14.0708
치	-14.0708
£	-14.0708
À	-14.0708
û	-14.0708
ġ	-14.0708
ǒ	-14.0708
ʁ	-14.0708
ʎ	-14.0708
ם	-14.0708
צ	-14.0708
ء	-14.0708
ग	-14.0708
ा	-14.0708
ு	-14.0708
მ	-14.0708
რ	-14.0708
ქ	-14.0708
ხ	-14.0708
ᄀ	-14.0708
ᄁ	-14.0708
ᄃ	-14.0708
ᄄ	-14.0708
ᄇ	-14.0708
ᄈ	-14.0708
ᄊ	-14.0708
ᄌ	-14.0708
ᄍ	-14.0708
ᄎ	-14.0708
ᄏ	-14.0708
ᄐ	-14.0708
ᄑ	-14.0708
ᄒ	-14.0708
ᅪ	-14.0708
ᅫ	-14.0708
ᅬ	-14.0708
ᅭ	-14.0708
ᅯ	-14.0708
ᅰ	-14.0708
ᅱ	-14.0708
ᅲ	-14.0708
ᅴ	-14.0708
ብ	-14.0708
ḥ	-14.0708
ố	-14.0708
↓	-14.0708
が	-14.0708
さ	-14.0708
り	-14.0708
ん	-14.0708
カ	-14.0708
區	-14.0708
國	-14.0708
子	-14.0708
尹	-14.0708
尼	-14.0708
師	-14.0708
泰	-14.0708
漢	-14.0708
红	-14.0708
건	-14.0708
과	-14.0708
교	-14.0708
군	-14.0708
라	-14.0708
람	-14.0708
록	-14.0708
만	-14.0708
삼	-14.0708
서	-14.0708
원	-14.0708
으	-14.0708
전	-14.0708
천	-14.0708
호	-14.0708
화	-14.0708
盧	-14.0709
북	-14.0709
ɛ	-14.0709
Μ	-14.0709
ọ	-14.0709
城	-14.0709
流	-14.0709
바	-14.0709
ス	-14.0709
ナ	-14.0709
행	-15.0612
해	-15.0613
상	-15.0614
민	-15.0615
달	-15.0616
노	-15.0617
광	-15.0618
鮮	-15.0619
銀	-15.062
行	-15.0621
濟	-15.0622
安	-15.0623
Ḥ	-15.0624
ዊ	-15.0625
ᅵ	-15.0626
ᅳ	-15.0627
ᅮ	-15.0628
ᅩ	-15.0629
ᅨ	-15.063
ᅧ	-15.0631
ᅦ	-15.0632
ᅥ	-15.0633
ᅤ	-15.0634
ᅣ	-15.0635
ᅢ	-15.0636
ᅡ	-15.0637
ძ	-15.0638
ზ	-15.0639
ث	-15.064
נ	-15.0641
Қ	-15.0642
Щ	-15.0643
Ј	-15.0644
ψ	-15.0645
Ρ	-15.0646
Ι	-15.0647
ΐ	-15.0648
ư	-15.0649
ơ	-15.065
ģ	-15.0651
Ġ	-15.0652
þ	-15.0653
Ñ	-15.0654
¿	-15.0655
孔	-15.0656
∩	-15.0657
ἄ	-15.0658
ệ	-15.0659
ბ	-15.066
ش	-15.0661
ւ	-15.0662
ո	-15.0663
ї	-15.0664
Θ	-15.0665
Γ	-15.0666
Ə	-15.0667
Þ	-15.0668
Æ	-15.0669
¡	-15.067
ვ	-15.0671
ղ	-15.0672
Ղ	-15.0673
Χ	-15.0674
Λ	-15.0675
̧	-15.0676
Î	-15.0677
@	-15.0678
€	-15.0679
⁄	-15.068
ồ	-15.0681
ე	-15.0682
ħ	-15.0683
բ	-15.0684
Ж	-15.0685
Њ	-15.0686
Π	-15.0687
Κ	-15.0688
Ε	-15.0689
Α	-15.069
Ó	-15.0691
Đ	-15.0692
Ú	-15.0693
Ð	-15.0694
ź	-15.0695
Ē	-15.0696
ļ	-15.0697
φ	-15.0698
Ż	-15.0699
Ł	-15.07
«	-15.0701
⟨	-15.0702
ŏ	-15.0703
Á	-15.0704
{	-15.0705
ż	-15.0706
ń	-15.0707
â	-15.0708
ሞ	-15.0708
ሲ	-15.0708
ት	-15.0708
ዮ	-15.0708
ጵ	-15.0708
ፐ	-15.0708
Հ	-15.0708
ს	-15.0708
Ī	-15.0708
ϊ	-15.0708
қ	-15.0708
Ө	-15.0708
ღ	-15.0708
Ἄ	-15.0708
ἤ	-15.0708
ἰ	-15.0708
杨	-15.0708
特	-15.0708
神	-15.0708
舟	-15.0708
門	-15.0708
입	-15.0708
흥	-15.0708
	-15.0708
Ţ	-15.0708
ἔ	-15.0708
伟	-15.0708
괴	-15.0708
문	-15.0708
애	-15.0708
익	-15.0708
창	-15.0708
ổ	-15.0708
Â	-15.0708
Ã	-15.0708
È	-15.0708
Ë	-15.0708
Ò	-15.0708
Ô	-15.0708
Ù	-15.0708
Ą	-15.0708
ď	-15.0708
Ń	-15.0708
Ő	-15.0708
œ	-15.0708
ǐ	-15.0708
ɕ	-15.0708
ɣ	-15.0708
ɴ	-15.0708
ɸ	-15.0708
ʃ	-15.0708
ʊ	-15.0708
ʾ	-15.0708
̔	-15.0708
̺	-15.0708
Ο	-15.0708
ζ	-15.0708
Й	-15.0708
є	-15.0708
њ	-15.0708
Ѳ	-15.0708
ң	-15.0708
ҭ	-15.0708
ҷ	-15.0708
ө	-15.0708
Ա	-15.0708
Ե	-15.0708
գ	-15.0708
թ	-15.0708
խ	-15.0708
պ	-15.0708
ց	-15.0708
ֶ	-15.0708
ּ	-15.0708
ד	-15.0708
ז	-15.0708
ח	-15.0708
ך	-15.0708
ק	-15.0708
إ	-15.0708
ئ	-15.0708
خ	-15.0708
ذ	-15.0708
ط	-15.0708
ف	-15.0708
ی	-15.0708
ं	-15.0708
न	-15.0708
म	-15.0708
य	-15.0708
ु	-15.0708
த	-15.0708
ய	-15.0708
ல	-15.0708
வ	-15.0708
ா	-15.0708
კ	-15.0708
ნ	-15.0708
ო	-15.0708
ჟ	-15.0708
უ	-15.0708
ᄂ	-15.0708
ᄅ	-15.0708
ᄆ	-15.0708
ᄉ	-15.0708
ᄋ	-15.0708
ሊ	-15.0708
ሌ	-15.0708
ሥ	-15.0708
ረ	-15.0708
ሪ	-15.0708
ሴ	-15.0708
ኃ	-15.0708
ኢ	-15.0708
የ	-15.0708
ይ	-15.0708
ገ	-15.0708
ፌ	-15.0708
Ḑ	-15.0708
ṣ	-15.0708
ṯ	-15.0708
ẕ	-15.0708
ẖ	-15.0708
ạ	-15.0708
ấ	-15.0708
ầ	-15.0708
ẫ	-15.0708
ế	-15.0708
ễ	-15.0708
ỏ	-15.0708
ứ	-15.0708
ự	-15.0708
ỹ	-15.0708
ἀ	-15.0708
ἑ	-15.0708
ἱ	-15.0708
ὁ	-15.0708
ὔ	-15.0708
ὖ	-15.0708
ὠ	-15.0708
ὰ	-15.0708
ὸ	-15.0708
ῖ	-15.0708
ῦ	-15.0708
‏	-15.0708
‐	-15.0708
⇌	-15.0708
∞	-15.0708
≈	-15.0708
≠	-15.0708
⊆	-15.0708
⋅	-15.0708
☰	-15.0708
☲	-15.0708
☵	-15.0708
☷	-15.0708
え	-15.0708
お	-15.0708
す	-15.0708
な	-15.0708
に	-15.0708
ひ	-15.0708
ら	-15.0708
れ	-15.0708
キ	-15.0708
グ	-15.0708
サ	-15.0708
タ	-15.0708
ノ	-15.0708
レ	-15.0708
ロ	-15.0708
ー	-15.0708
三	-15.0708
世	-15.0708
丘	-15.0708
中	-15.0708
九	-15.0708
乱	-15.0708
乾	-15.0708
仮	-15.0708
仲	-15.0708
佐	-15.0708
先	-15.0708
光	-15.0708
全	-15.0708
公	-15.0708
別	-15.0708
利	-15.0708
厥	-15.0708
叔	-15.0708
取	-15.0708
号	-15.0708
合	-15.0708
名	-15.0708
善	-15.0708
嘉	-15.0708
圭	-15.0708
地	-15.0708
坎	-15.0708
坤	-15.0708
夏	-15.0708
天	-15.0708
太	-15.0708
夫	-15.0708
学	-15.0708
宣	-15.0708
家	-15.0708
崔	-15.0708
市	-15.0708
帝	-15.0708
建	-15.0708
思	-15.0708
想	-15.0708
愚	-15.0708
成	-15.0708
承	-15.0708
振	-15.0708
政	-15.0708
斗	-15.0708
新	-15.0708
日	-15.0708
昊	-15.0708
昌	-15.0708
星	-15.0708
晩	-15.0708
暴	-15.0708
月	-15.0708
本	-15.0708
朴	-15.0708
李	-15.0708
柔	-15.0708
株	-15.0708
業	-15.0708
極	-15.0708
歌	-15.0708
正	-15.0708
武	-15.0708
水	-15.0708
江	-15.0708
泳	-15.0708
浩	-15.0708
潽	-15.0708
火	-15.0708
煥	-15.0708
熙	-15.0708
父	-15.0708
爺	-15.0708
状	-15.0708
王	-15.0708
琢	-15.0708
益	-15.0708
磨	-15.0708
突	-15.0708
納	-15.0708
考	-15.0708
者	-15.0708
聖	-15.0708
職	-15.0708
自	-15.0708
至	-15.0708
致	-15.0708
莽	-15.0708
萬	-15.0708
藤	-15.0708
虫	-15.0708
表	-15.0708
褒	-15.0708
語	-15.0708
路	-15.0708
郎	-15.0708
郡	-15.0708
鉉	-15.0708
離	-15.0708
高	-15.0708
黄	-15.0708
감	-15.0708
갑	-15.0708
거	-15.0708
곤	-15.0708
공	-15.0708
궁	-15.0708
규	-15.0708
극	-15.0708
길	-15.0708
높	-15.0708
느	-15.0708
늘	-15.0708
님	-15.0708
다	-15.0708
단	-15.0708
닳	-15.0708
데	-15.0708
듯	-15.0708
랑	-15.0708
려	-15.0708
령	-15.0708
르	-15.0708
른	-15.0708
름	-15.0708
마	-15.0708
맘	-15.0708
목	-15.0708
물	-15.0708
박	-15.0708
밝	-15.0708
백	-15.0708
변	-15.0708
별	-15.0708
불	-15.0708
소	-15.0708
슴	-15.0708
승	-15.0708
심	-15.0708
없	-15.0708
에	-15.0708
여	-15.0708
역	-15.0708
영	-15.0708
울	-15.0708
위	-15.0708
읍	-15.0708
의	-15.0708
자	-15.0708
저	-15.0708
정	-15.0708
종	-15.0708
중	-15.0708
즐	-15.0708
직	-15.0708
철	-15.0708
최	-15.0708
충	-15.0708
통	-15.0708
특	-15.0708
편	-15.0708
필	-15.0708
할	-15.0708
함	-15.0708
향	-15.0708
험	-15.0708
현	-15.0708
환	-15.0708
활	-15.0708
희	-15.0708
	-15.0709
Ć	-15.0709
أ	-15.0709
ṅ	-15.0709
Ἥ	-15.0709
Ἴ	-15.0709
ῆ	-15.0709
愛	-15.0709
達	-15.0709
Ă	-15.0709
ɨ	-15.0709
Ζ	-15.0709
џ	-15.0709
ְ	-15.0709
ַ	-15.0709
ṟ	-15.0709
Ἀ	-15.0709
Ῥ	-15.0709
マ	-15.0709
興	-15.0709
계	-15.0709
루	-15.0709
식	-15.0709
판	-15.0709
ɯ	-15.0709
Ս	-15.0709
կ	-15.0709
փ	-15.0709
ச	-15.0709
ந	-15.0709
ம	-15.0709
ழ	-15.0709
„	-15.0709
ハ	-15.0709
ラ	-15.0709
ワ	-15.0709
ꜜ	-15.0709
