<unk>	0
<s>	0
</s>	0
en	-0
in	-1
ta	-2
is	-3
an	-4
al	-5
▁k	-6
ja	-7
on	-8
ti	-9
el	-10
▁s	-11
▁1	-12
it	-13
la	-14
et	-15
▁m	-16
er	-17
▁v	-18
es	-19
▁p	-20
uu	-21
sa	-22
uo	-23
ik	-24
▁ja	-25
il	-26
inen	-27
as	-28
ar	-29
▁(	-30
at	-31
us	-32
ol	-33
ks	-34
tä	-35
un	-36
▁–	-37
▁19	-38
to	-39
ka	-40
▁j	-41
im	-42
▁S	-43
ut	-44
▁l	-45
ää	-46
os	-47
▁K	-48
te	-49
ala	-50
▁h	-51
ko	-52
ia	-53
ul	-54
▁on	-55
ir	-56
▁n	-57
aa	-58
le	-59
▁M	-60
▁r	-61
▁y	-62
ty	-63
iv	-64
▁ta	-65
▁A	-66
tu	-67
or	-68
ys	-69
▁2	-70
▁P	-71
▁T	-72
den	-73
alainen	-74
em	-75
jä	-76
▁L	-77
uom	-78
ur	-79
▁H	-80
▁jo	-81
▁o	-82
yt	-83
ki	-84
hd	-85
▁V	-86
än	-87
een	-88
all	-89
si	-90
ista	-91
▁ol	-92
lä	-93
▁E	-94
▁a	-95
▁J	-96
kuu	-97
ri	-98
aan	-99
00	-100
tel	-101
sä	-102
▁18	-103
ksi	-104
▁R	-105
uv	-106
▁t	-107
alta	-108
▁I	-109
op	-110
ih	-111
ist	-112
ke	-113
▁N	-114
ään	-115
am	-116
jo	-117
ita	-118
yö	-119
vat	-120
iin	-121
▁al	-122
ili	-123
isen	-124
issa	-125
lainen	-126
äyt	-127
▁B	-128
om	-129
▁e	-130
kuuta	-131
mä	-132
tiin	-133
uk	-134
▁ka	-135
kin	-136
ans	-137
▁se	-138
▁C	-139
▁suom	-140
onn	-141
▁la	-142
id	-143
äl	-144
ot	-145
▁to	-146
ak	-147
assa	-148
oh	-149
äh	-150
iden	-151
yn	-152
hdys	-153
valta	-154
pa	-155
ma	-156
ev	-157
▁va	-158
uks	-159
uh	-160
uol	-161
ien	-162
▁vuo	-163
▁G	-164
▁en	-165
▁20	-166
▁suomalainen	-167
unn	-168
essa	-169
um	-170
▁F	-171
taa	-172
▁el	-173
taja	-174
taan	-175
ann	-176
ra	-177
up	-178
hdysvalta	-179
▁myö	-180
ilija	-181
▁sa	-182
ok	-183
▁kir	-184
kä	-185
eri	-186
alla	-187
itä	-188
uonn	-189
iik	-190
iset	-191
ing	-192
esta	-193
oit	-194
ät	-195
va	-196
eh	-197
pp	-198
li	-199
uus	-200
▁oli	-201
man	-202
ina	-203
istä	-204
▁D	-205
▁O	-206
▁mu	-207
re	-208
hdysvaltalainen	-209
utta	-210
▁myös	-211
erk	-212
ne	-213
uonna	-214
ell	-215
illa	-216
ella	-217
▁per	-218
▁Y	-219
▁kes	-220
▁si	-221
▁17	-222
tti	-223
oin	-224
vi	-225
▁val	-226
rit	-227
▁ma	-228
▁te	-229
ro	-230
▁as	-231
asta	-232
▁W	-233
▁Suom	-234
▁muu	-235
▁pää	-236
ana	-237
ettiin	-238
tö	-239
usta	-240
▁käyt	-241
▁ovat	-242
lan	-243
▁201	-244
äs	-245
ch	-246
uot	-247
▁et	-248
iit	-249
ises	-250
▁200	-251
▁ko	-252
▁vo	-253
isti	-254
isto	-255
är	-256
▁kun	-257
▁es	-258
kko	-259
▁suu	-260
jen	-261
tiet	-262
ky	-263
ian	-264
ed	-265
iel	-266
isi	-267
its	-268
▁ar	-269
),	-270
ari	-271
ue	-272
ten	-273
ivat	-274
teli	-275
inn	-276
kk	-277
min	-278
▁ra	-279
kaan	-280
sim	-281
iksi	-282
oll	-283
▁197	-284
▁198	-285
▁d	-286
tan	-287
▁194	-288
ille	-289
ud	-290
ii	-291
▁näyt	-292
▁f	-293
▁tai	-294
▁196	-295
yh	-296
ön	-297
▁b	-298
pi	-299
ter	-300
▁199	-301
▁joka	-302
jan	-303
od	-304
og	-305
äiv	-306
▁U	-307
▁vuonna	-308
teen	-309
▁ku	-310
enn	-311
19	-312
ossa	-313
elm	-314
isesti	-315
luv	-316
▁3	-317
▁maa	-318
tin	-319
vel	-320
mp	-321
▁yh	-322
▁195	-323
täv	-324
he	-325
mm	-326
▁tä	-327
▁kirja	-328
ill	-329
elle	-330
▁pa	-331
▁193	-332
▁tul	-333
▁ei	-334
▁192	-335
isia	-336
ein	-337
ika	-338
simmä	-339
telijä	-340
täjä	-341
rin	-342
▁16	-343
issä	-344
▁kuu	-345
▁läh	-346
ssa	-347
yys	-348
mi	-349
ansk	-350
ula	-351
ee	-352
▁-	-353
▁näyttelijä	-354
isten	-355
sin	-356
ip	-357
▁Se	-358
lo	-359
enä	-360
ettu	-361
▁toim	-362
aal	-363
io	-364
tuu	-365
tam	-366
ikko	-367
ap	-368
uksen	-369
▁perus	-370
▁kans	-371
▁er	-372
eksi	-373
illä	-374
ll	-375
▁pol	-376
ran	-377
isuu	-378
▁us	-379
▁sen	-380
teet	-381
ek	-382
jär	-383
tää	-384
ellä	-385
6)	-386
▁An	-387
joit	-388
2)	-389
av	-390
▁sekä	-391
▁mutta	-392
ton	-393
3)	-394
0)	-395
▁vi	-396
mis	-397
▁pr	-398
tikko	-399
5)	-400
ynty	-401
8)	-402
4)	-403
ha	-404
1)	-405
▁Ka	-406
ikk	-407
ob	-408
essä	-409
ulla	-410
▁191	-411
▁Suomen	-412
▁vuoden	-413
yy	-414
▁15	-415
▁ensimmä	-416
7)	-417
▁kirjailija	-418
upun	-419
▁tar	-420
ksen	-421
▁puol	-422
asti	-423
tr	-424
ihe	-425
ic	-426
▁nim	-427
mat	-428
so	-429
jes	-430
ua	-431
uuta	-432
0-	-433
▁että	-434
isä	-435
elin	-436
kun	-437
▁tu	-438
▁so	-439
yv	-440
▁ti	-441
osta	-442
▁var	-443
van	-444
9)	-445
lanti	-446
ike	-447
▁saks	-448
▁suur	-449
kon	-450
nn	-451
eli	-452
iten	-453
alais	-454
tta	-455
ali	-456
▁sä	-457
▁pal	-458
▁Mar	-459
uod	-460
isin	-461
▁kul	-462
unnan	-463
▁kor	-464
vo	-465
ilm	-466
ard	-467
ihin	-468
ad	-469
▁saa	-470
▁jäl	-471
tion	-472
uko	-473
▁kal	-474
olog	-475
▁kiel	-476
▁ty	-477
etta	-478
and	-479
ent	-480
▁ha	-481
▁kuning	-482
uro	-483
män	-484
tio	-485
ulu	-486
yr	-487
▁Ta	-488
läinen	-489
▁Al	-490
▁hän	-491
ikka	-492
▁4	-493
uku	-494
▁mukaan	-495
▁Joh	-496
▁kut	-497
▁yle	-498
ui	-499
▁190	-500
ine	-501
pan	-502
allis	-503
etty	-504
rik	-505
▁5	-506
men	-507
ho	-508
eis	-509
▁väl	-510
ikuuta	-511
▁os	-512
▁suo	-513
▁joh	-514
▁kesk	-515
▁eli	-516
yl	-517
las	-518
ang	-519
▁ransk	-520
▁(”	-521
ohjo	-522
uots	-523
▁189	-524
▁alue	-525
alle	-526
äär	-527
ös	-528
▁seur	-529
ity	-530
▁noin	-531
▁päiv	-532
▁Ma	-533
olla	-534
).	-535
per	-536
uva	-537
▁aik	-538
▁vas	-539
▁hall	-540
lantilainen	-541
pah	-542
keen	-543
▁tiet	-544
▁g	-545
▁kuningas	-546
▁jul	-547
yky	-548
oilija	-549
etään	-550
kka	-551
▁po	-552
▁osa	-553
▁En	-554
ivät	-555
▁In	-556
ussa	-557
ras	-558
val	-559
me	-560
pal	-561
▁keh	-562
iitikko	-563
erkiksi	-564
▁saksalainen	-565
▁ranskalainen	-566
▁ed	-567
one	-568
”),	-569
▁Ch	-570
ritti	-571
▁oh	-572
▁ker	-573
▁mar	-574
tum	-575
▁Läh	-576
äkuuta	-577
kir	-578
son	-579
▁vir	-580
▁van	-581
▁voi	-582
oks	-583
▁La	-584
uun	-585
uroop	-586
1.	-587
ess	-588
▁pit	-589
▁kuin	-590
ber	-591
esiden	-592
▁6	-593
▁merk	-594
aja	-595
tyi	-596
alis	-597
▁valta	-598
ve	-599
▁liit	-600
kö	-601
00-	-602
▁188	-603
20	-604
ino	-605
▁eng	-606
ite	-607
ansa	-608
uden	-609
▁mat	-610
of	-611
▁poliitikko	-612
lut	-613
iä	-614
▁lo	-615
▁sam	-616
–1	-617
▁jon	-618
ilijä	-619
kim	-620
▁ih	-621
000	-622
▁ne	-623
ven	-624
tiete	-625
▁Sa	-626
▁sija	-627
▁lop	-628
▁sävel	-629
iseen	-630
▁yks	-631
ck	-632
▁ul	-633
▁liik	-634
▁9	-635
ig	-636
▁kehit	-637
var	-638
▁par	-639
yd	-640
▁8	-641
mer	-642
▁jälkeen	-643
llä	-644
iko	-645
▁rak	-646
▁ni	-647
▁kol	-648
▁Suomessa	-649
ilman	-650
▁uu	-651
itta	-652
▁mon	-653
vät	-654
▁14	-655
▁kaupun	-656
anta	-657
▁tut	-658
▁tunn	-659
tun	-660
▁kuiten	-661
eta	-662
▁säveltäjä	-663
tyy	-664
nyt	-665
arl	-666
▁its	-667
ulaja	-668
▁esim	-669
▁Lähteet	-670
ikki	-671
2.	-672
inta	-673
▁yhte	-674
▁eri	-675
maan	-676
▁Vuonna	-677
▁hyv	-678
ohjois	-679
▁Ar	-680
▁presiden	-681
uto	-682
▁ole	-683
tui	-684
uotsalainen	-685
puol	-686
▁san	-687
eet	-688
hti	-689
idaan	-690
–19	-691
▁II	-692
▁muod	-693
▁lä	-694
asi	-695
isiä	-696
▁kas	-697
▁000	-698
emmin	-699
▁7	-700
kinn	-701
▁186	-702
▁jär	-703
▁jonka	-704
▁saan	-705
atti	-706
ies	-707
kiel	-708
se	-709
kki	-710
sta	-711
▁yli	-712
▁muualla	-713
kil	-714
▁pi	-715
▁nä	-716
▁britti	-717
isty	-718
▁run	-719
tus	-720
▁vä	-721
▁10	-722
▁alk	-723
▁englantilainen	-724
▁”	-725
uvos	-726
kaa	-727
▁Ne	-728
sk	-729
▁pien	-730
iheesta	-731
▁187	-732
▁use	-733
minen	-734
kais	-735
▁sis	-736
tettiin	-737
3.	-738
gin	-739
▁siir	-740
▁saanut	-741
▁Aiheesta	-742
vall	-743
maa	-744
▁Jo	-745
▁jot	-746
ria	-747
▁met	-748
▁an	-749
ert	-750
▁esimerkiksi	-751
ope	-752
isteri	-753
▁To	-754
▁kos	-755
tieteilijä	-756
atto	-757
ous	-758
kap	-759
▁yhd	-760
tol	-761
▁ver	-762
unta	-763
ikä	-764
org	-765
▁vain	-766
atta	-767
ento	-768
jestel	-769
istö	-770
elä	-771
yks	-772
istel	-773
itys	-774
▁synty	-775
▁voidaan	-776
estä	-777
ensä	-778
▁joulu	-779
uhti	-780
oja	-781
▁nyky	-782
▁taid	-783
▁tamm	-784
▁kuv	-785
▁kuten	-786
▁jal	-787
kinnon	-788
uor	-789
elit	-790
▁keis	-791
▁kanssa	-792
ov	-793
ug	-794
▁Hel	-795
usiik	-796
▁vuos	-797
▁Kiin	-798
▁syys	-799
ab	-800
▁Nob	-801
▁in	-802
oitti	-803
▁kar	-804
luvulla	-805
▁brittiläinen	-806
ori	-807
▁puh	-808
▁kuitenkin	-809
uon	-810
▁jossa	-811
ong	-812
into	-813
▁(19	-814
▁maan	-815
itali	-816
▁käs	-817
▁jotka	-818
▁kuul	-819
▁maalis	-820
▁na	-821
▁he	-822
atso	-823
▁touko	-824
iti	-825
joh	-826
alue	-827
▁185	-828
uolle	-829
▁Nobelin	-830
ittä	-831
▁Euroop	-832
din	-833
isuus	-834
▁loka	-835
osof	-836
▁ollut	-837
han	-838
ehti	-839
▁muun	-840
▁pes	-841
▁Ko	-842
▁har	-843
enteri	-844
isäksi	-845
▁koko	-846
▁itali	-847
▁ilm	-848
itsi	-849
▁kalenteri	-850
ern	-851
▁kä	-852
mista	-853
▁de	-854
kuussa	-855
lann	-856
▁Kir	-857
ikut	-858
▁elok	-859
tua	-860
▁202	-861
▁hein	-862
isiin	-863
ag	-864
▁Le	-865
pahtum	-866
ier	-867
entti	-868
▁huhti	-869
isk	-870
▁luo	-871
▁kil	-872
ale	-873
▁tarko	-874
▁väh	-875
stä	-876
▁käyttö	-877
jän	-878
▁keske	-879
etti	-880
vä	-881
▁helm	-882
▁olivat	-883
osa	-884
lin	-885
yty	-886
ttuu	-887
▁presidentti	-888
jel	-889
▁Pa	-890
▁elo	-891
tikk	-892
▁lev	-893
iseksi	-894
▁tammikuuta	-895
iste	-896
▁tuli	-897
▁marras	-898
esk	-899
▁joulukuuta	-900
▁sisäl	-901
ep	-902
luvun	-903
▁lö	-904
yp	-905
aaja	-906
ich	-907
▁min	-908
▁muassa	-909
ona	-910
uta	-911
▁ensimmäinen	-912
▁teh	-913
ker	-914
iaan	-915
jelm	-916
▁laulaja	-917
kunta	-918
▁olev	-919
▁ruotsalainen	-920
▁italialainen	-921
▁Per	-922
▁Hän	-923
ologi	-924
▁sijaits	-925
alaiset	-926
tien	-927
▁mää	-928
ion	-929
▁maaliskuuta	-930
kunnan	-931
▁hen	-932
ohja	-933
pahtumia	-934
aj	-935
ata	-936
ymp	-937
emm	-938
ueen	-939
▁jää	-940
her	-941
▁elä	-942
▁Kar	-943
▁pel	-944
▁"	-945
▁sel	-946
oma	-947
tia	-948
▁ään	-949
▁toukokuuta	-950
▁alko	-951
una	-952
▁Venä	-953
▁mil	-954
▁syyskuuta	-955
etaan	-956
▁artikk	-957
iem	-958
kit	-959
▁lokakuuta	-960
neet	-961
▁ihm	-962
neitä	-963
▁Z	-964
luku	-965
▁Yhdysvalta	-966
▁huhtikuuta	-967
ssä	-968
▁vanh	-969
elta	-970
▁korke	-971
empi	-972
▁pro	-973
▁sai	-974
istori	-975
▁oike	-976
eks	-977
ema	-978
▁ulko	-979
5.	-980
ers	-981
▁("	-982
▁taidem	-983
össä	-984
aav	-985
▁helmikuuta	-986
▁marraskuuta	-987
onnan	-988
▁Tapahtumia	-989
▁Synty	-990
kirja	-991
kapall	-992
▁aikana	-993
ministeri	-994
oa	-995
ub	-996
▁Tä	-997
uoto	-998
ime	-999
tto	-1000
▁Kuolle	-1001
▁Sam	-1002
▁talo	-1003
mään	-1004
▁jalkapall	-1005
ila	-1006
ie	-1007
lle	-1008
ukko	-1009
järjestel	-1010
pä	-1011
mies	-1012
mät	-1013
itti	-1014
▁keskeiset	-1015
▁John	-1016
▁artikkelit	-1017
▁vall	-1018
että	-1019
tila	-1020
▁vasta	-1021
▁c	-1022
▁Ed	-1023
aalari	-1024
ons	-1025
▁Ruot	-1026
▁Seul	-1027
▁Kuolleita	-1028
▁venä	-1029
▁kirjoit	-1030
▁Seulonnan	-1031
▁Vuo	-1032
▁Yhdysvaltain	-1033
emp	-1034
▁Syntyneitä	-1035
erg	-1036
kuun	-1037
ry	-1038
▁X	-1039
▁määrit	-1040
▁saar	-1041
▁Katso	-1042
kia	-1043
▁Jos	-1044
kan	-1045
ikan	-1046
▁lää	-1047
uusikko	-1048
▁mer	-1049
istu	-1050
▁usein	-1051
▁sitä	-1052
enne	-1053
▁Tur	-1054
▁kiin	-1055
▁voim	-1056
johtaja	-1057
▁taidemaalari	-1058
imp	-1059
mmen	-1060
kaus	-1061
äärä	-1062
▁tal	-1063
tinen	-1064
▁heinäkuuta	-1065
▁Hen	-1066
uja	-1067
hden	-1068
intu	-1069
uksia	-1070
päiv	-1071
▁koh	-1072
▁elokuuta	-1073
▁runoilija	-1074
▁kesäkuuta	-1075
▁hyö	-1076
▁ensimmäisen	-1077
9.	-1078
riä	-1079
▁vuod	-1080
▁184	-1081
odan	-1082
ac	-1083
ank	-1084
▁Etel	-1085
▁Ro	-1086
8.	-1087
▁Har	-1088
▁Suu	-1089
▁Pohjois	-1090
▁maailman	-1091
ojen	-1092
▁sota	-1093
ant	-1094
ilosof	-1095
▁esiin	-1096
ius	-1097
▁(1	-1098
▁1.	-1099
▁13	-1100
▁tarkoit	-1101
▁muut	-1102
ins	-1103
▁183	-1104
imm	-1105
asto	-1106
▁pys	-1107
kseen	-1108
väl	-1109
omet	-1110
▁kom	-1111
▁muodos	-1112
▁käytetään	-1113
voit	-1114
7.	-1115
▁12	-1116
▁kat	-1117
▁Ransk	-1118
▁Ra	-1119
▁is	-1120
▁op	-1121
▁Ale	-1122
▁ken	-1123
palkinnon	-1124
iva	-1125
ähkö	-1126
▁kem	-1127
▁olla	-1128
▁Etelä	-1129
▁Ha	-1130
▁Val	-1131
4.	-1132
▁päivä	-1133
tom	-1134
▁vaikut	-1135
▁ymp	-1136
ken	-1137
▁Fran	-1138
▁or	-1139
▁re	-1140
uis	-1141
nen	-1142
tään	-1143
▁ter	-1144
ib	-1145
▁tutkim	-1146
▁il	-1147
0.	-1148
da	-1149
▁rakenn	-1150
uksi	-1151
▁aihe	-1152
▁vaih	-1153
istoria	-1154
na	-1155
isuuden	-1156
▁taistel	-1157
▁Ge	-1158
▁yksi	-1159
▁He	-1160
▁Va	-1161
▁ky	-1162
▁ur	-1163
po	-1164
hdoll	-1165
6.	-1166
▁av	-1167
▁pros	-1168
for	-1169
di	-1170
▁niin	-1171
sing	-1172
▁kaup	-1173
▁luonn	-1174
ota	-1175
risti	-1176
osi	-1177
ris	-1178
iam	-1179
▁suomen	-1180
estö	-1181
voim	-1182
mpö	-1183
itte	-1184
▁kuts	-1185
▁Es	-1186
olloin	-1187
kunn	-1188
▁kaksi	-1189
▁Kiinan	-1190
▁järjes	-1191
▁valti	-1192
ilä	-1193
kas	-1194
ppi	-1195
▁jolloin	-1196
mo	-1197
▁179	-1198
unk	-1199
▁itä	-1200
▁%	-1201
lais	-1202
ukka	-1203
▁men	-1204
▁ves	-1205
lannin	-1206
arin	-1207
kot	-1208
▁maailm	-1209
▁182	-1210
tävä	-1211
▁180	-1212
jalainen	-1213
vuo	-1214
ukset	-1215
ara	-1216
nnit	-1217
ässä	-1218
▁Ruotsin	-1219
▁yleensä	-1220
ce	-1221
▁alkoi	-1222
ivi	-1223
▁poik	-1224
kea	-1225
▁As	-1226
enter	-1227
▁Lo	-1228
▁filosof	-1229
erin	-1230
elleen	-1231
ren	-1232
▁pid	-1233
ustaja	-1234
▁eivät	-1235
th	-1236
▁Sen	-1237
uut	-1238
▁Os	-1239
▁hyvin	-1240
jon	-1241
pää	-1242
ura	-1243
▁Th	-1244
▁Helsing	-1245
ittiin	-1246
▁Myö	-1247
▁vastaan	-1248
▁om	-1249
▁jos	-1250
eg	-1251
▁von	-1252
paa	-1253
vaa	-1254
▁lu	-1255
eseen	-1256
yk	-1257
sit	-1258
valla	-1259
▁musiik	-1260
red	-1261
ros	-1262
▁Mon	-1263
kilö	-1264
▁meta	-1265
▁kok	-1266
▁Yhdys	-1267
▁Var	-1268
▁kenra	-1269
▁merkit	-1270
iet	-1271
▁mahdoll	-1272
ulun	-1273
alaisen	-1274
▁Eng	-1275
öö	-1276
▁Is	-1277
ilta	-1278
▁Nor	-1279
▁kap	-1280
▁tasa	-1281
▁181	-1282
isyys	-1283
")	-1284
alan	-1285
▁muusikko	-1286
ero	-1287
essori	-1288
▁hal	-1289
oissa	-1290
telev	-1291
▁lisäksi	-1292
ow	-1293
ssi	-1294
▁tied	-1295
▁sillä	-1296
ff	-1297
unut	-1298
jat	-1299
kul	-1300
▁jalkapalloilija	-1301
dyn	-1302
otto	-1303
ym	-1304
▁vuotta	-1305
▁hä	-1306
▁li	-1307
joon	-1308
eja	-1309
ela	-1310
uri	-1311
▁nel	-1312
▁kunn	-1313
▁Nä	-1314
▁las	-1315
▁uud	-1316
uttaa	-1317
kkit	-1318
tävät	-1319
ea	-1320
via	-1321
▁paik	-1322
ji	-1323
tis	-1324
imen	-1325
utui	-1326
▁myöh	-1327
▁prof	-1328
▁tuot	-1329
▁hi	-1330
▁lento	-1331
▁kansan	-1332
200	-1333
ron	-1334
▁Euroopan	-1335
▁11	-1336
▁kana	-1337
▁keisari	-1338
▁hänen	-1339
▁tek	-1340
kaupun	-1341
ind	-1342
▁venäläinen	-1343
ei	-1344
ani	-1345
saar	-1346
▁Por	-1347
▁kirkko	-1348
sen	-1349
▁of	-1350
▁jat	-1351
▁histori	-1352
vir	-1353
yyn	-1354
▁El	-1355
▁ro	-1356
▁kaikki	-1357
▁Ensimmä	-1358
▁julkais	-1359
ito	-1360
▁tietok	-1361
▁miljoon	-1362
onen	-1363
estari	-1364
▁Georg	-1365
ansain	-1366
▁rauh	-1367
ör	-1368
▁kann	-1369
II	-1370
ineen	-1371
▁sähkö	-1372
▁pääministeri	-1373
olf	-1374
tiiv	-1375
▁vaa	-1376
ieh	-1377
▁yl	-1378
ytä	-1379
▁And	-1380
utti	-1381
▁fyys	-1382
gen	-1383
iitto	-1384
▁piir	-1385
ittaja	-1386
▁kre	-1387
▁kalenter	-1388
tit	-1389
▁Rob	-1390
isuutta	-1391
uud	-1392
▁Er	-1393
▁esit	-1394
isa	-1395
und	-1396
opim	-1397
uksessa	-1398
▁professori	-1399
ni	-1400
tal	-1401
▁nope	-1402
▁Ranskan	-1403
utus	-1404
▁päät	-1405
▁ohjelm	-1406
▁perustettiin	-1407
▁kuuluv	-1408
vin	-1409
▁Kun	-1410
ira	-1411
berg	-1412
net	-1413
▁nous	-1414
oni	-1415
▁suk	-1416
▁aina	-1417
emaa	-1418
oike	-1419
▁yrit	-1420
▁km	-1421
▁perin	-1422
ku	-1423
viä	-1424
▁nor	-1425
▁sijaitsee	-1426
esty	-1427
äsen	-1428
rke	-1429
▁Il	-1430
▁työ	-1431
▁niiden	-1432
ulta	-1433
▁itsenä	-1434
▁Johann	-1435
201	-1436
▁Juh	-1437
▁ympär	-1438
ansainväl	-1439
ide	-1440
▁län	-1441
▁Will	-1442
uvostol	-1443
▁alueella	-1444
iir	-1445
▁kapp	-1446
allinen	-1447
▁elokuva	-1448
▁178	-1449
alin	-1450
uvat	-1451
isuud	-1452
elmä	-1453
▁Itä	-1454
▁tur	-1455
▁jota	-1456
▁filosofi	-1457
▁tuo	-1458
▁palvel	-1459
iss	-1460
use	-1461
▁lis	-1462
▁kolm	-1463
▁prosentti	-1464
uper	-1465
▁Maa	-1466
▁The	-1467
▁ennen	-1468
yttä	-1469
sas	-1470
▁ilma	-1471
▁Q	-1472
▁Tam	-1473
utaan	-1474
co	-1475
ästä	-1476
▁etelä	-1477
▁jäsen	-1478
eb	-1479
▁Kor	-1480
▁kon	-1481
ohjaaja	-1482
dio	-1483
pel	-1484
▁Ad	-1485
ustaa	-1486
▁tapah	-1487
tettu	-1488
▁erity	-1489
▁kunnan	-1490
▁pohjois	-1491
▁aika	-1492
eng	-1493
oman	-1494
▁kuol	-1495
▁fyysikko	-1496
kee	-1497
allisuus	-1498
▁henkilö	-1499
innan	-1500
misen	-1501
nä	-1502
olle	-1503
▁Venäjän	-1504
ija	-1505
ikir	-1506
isessa	-1507
▁seurak	-1508
▁hallitsi	-1509
▁Te	-1510
▁vah	-1511
pol	-1512
▁kulttuu	-1513
eva	-1514
evat	-1515
iikan	-1516
▁käyttä	-1517
▁prosenttia	-1518
▁Sh	-1519
kat	-1520
joen	-1521
▁ryh	-1522
▁tun	-1523
ilu	-1524
alaisten	-1525
anin	-1526
▁Kes	-1527
▁Vir	-1528
▁talous	-1529
sal	-1530
▁III	-1531
▁arkkit	-1532
▁William	-1533
Suom	-1534
kiin	-1535
▁Br	-1536
inä	-1537
kkä	-1538
▁ajan	-1539
▁lään	-1540
oid	-1541
▁eaa	-1542
isista	-1543
järven	-1544
▁Na	-1545
ielä	-1546
isessä	-1547
▁koska	-1548
▁viime	-1549
ean	-1550
▁For	-1551
▁vuoksi	-1552
oi	-1553
järvi	-1554
▁lähes	-1555
kie	-1556
▁177	-1557
ola	-1558
▁Van	-1559
sar	-1560
▁Kaar	-1561
esi	-1562
hall	-1563
ikkö	-1564
▁joista	-1565
tron	-1566
▁Myös	-1567
▁ruo	-1568
▁Carl	-1569
ellinen	-1570
▁maailmans	-1571
jall	-1572
▁por	-1573
tieteen	-1574
öt	-1575
oim	-1576
▁lyh	-1577
▁tähti	-1578
pe	-1579
–18	-1580
▁kr	-1581
▁hyvä	-1582
▁Vuoden	-1583
att	-1584
tim	-1585
▁Helsingin	-1586
▁myöhemmin	-1587
▁huom	-1588
▁siitä	-1589
ksia	-1590
▁käyttää	-1591
ald	-1592
toim	-1593
uel	-1594
▁Pet	-1595
▁teki	-1596
▁välillä	-1597
▁syö	-1598
▁yleis	-1599
änä	-1600
▁vastaa	-1601
▁Kos	-1602
▁suh	-1603
talo	-1604
immat	-1605
▁suurin	-1606
▁2.	-1607
▁Yle	-1608
laiset	-1609
uole	-1610
▁kunin	-1611
▁epä	-1612
tojen	-1613
▁arvi	-1614
▁avulla	-1615
▁kaik	-1616
▁kirkon	-1617
sio	-1618
ksiä	-1619
▁lämpö	-1620
▁päivää	-1621
jö	-1622
▁Par	-1623
itsem	-1624
▁Aleks	-1625
▁Li	-1626
▁Lu	-1627
hde	-1628
ise	-1629
pu	-1630
käri	-1631
teki	-1632
äänn	-1633
vallan	-1634
de	-1635
imo	-1636
jia	-1637
yyd	-1638
▁Am	-1639
ikin	-1640
▁siv	-1641
isena	-1642
▁tärke	-1643
tar	-1644
tann	-1645
ympia	-1646
▁Nyky	-1647
▁arkkitehti	-1648
jet	-1649
itus	-1650
koma	-1651
▁.	-1652
lla	-1653
▁valtion	-1654
dan	-1655
kus	-1656
tilas	-1657
▁suunnit	-1658
▁3.	-1659
frik	-1660
piir	-1661
▁176	-1662
hdisty	-1663
▁Robert	-1664
▁kilomet	-1665
hi	-1666
▁Un	-1667
▁le	-1668
sina	-1669
▁Car	-1670
kerta	-1671
▁mikä	-1672
▁käsit	-1673
▁joukko	-1674
▁tutkimus	-1675
tie	-1676
ööri	-1677
▁Maan	-1678
▁määrä	-1679
ts	-1680
äm	-1681
▁Vä	-1682
akka	-1683
asem	-1684
eissa	-1685
▁miel	-1686
▁useita	-1687
tod	-1688
inne	-1689
▁laa	-1690
▁tan	-1691
▁vuosina	-1692
län	-1693
ull	-1694
kos	-1695
ispa	-1696
urin	-1697
▁Esim	-1698
▁luku	-1699
iteilija	-1700
▁ihmistä	-1701
▁saat	-1702
isesta	-1703
kirjailija	-1704
tug	-1705
▁matemaa	-1706
hta	-1707
▁4.	-1708
kija	-1709
isestä	-1710
era	-1711
▁2017	-1712
▁elokuvaohjaaja	-1713
0,	-1714
▁jopa	-1715
▁talv	-1716
▁Johan	-1717
▁keisar	-1718
tor	-1719
eita	-1720
▁kautta	-1721
öl	-1722
reg	-1723
iipp	-1724
▁sur	-1725
oilla	-1726
mit	-1727
uin	-1728
ver	-1729
äänty	-1730
▁Sch	-1731
ettel	-1732
teita	-1733
kiekko	-1734
▁vielä	-1735
kien	-1736
▁yliop	-1737
▁miljoonaa	-1738
oista	-1739
jien	-1740
▁raken	-1741
▁matemaatikko	-1742
aksa	-1743
ustr	-1744
uuden	-1745
▁vapa	-1746
▁lintu	-1747
▁paljon	-1748
voittaja	-1749
▁kaupungin	-1750
iaa	-1751
▁San	-1752
vasti	-1753
▁ohja	-1754
todoks	-1755
ilainen	-1756
▁kenraali	-1757
ca	-1758
▁Ab	-1759
▁Mo	-1760
tori	-1761
▁keskus	-1762
ällä	-1763
ympiavoittaja	-1764
nin	-1765
rak	-1766
▁ot	-1767
imet	-1768
▁olle	-1769
▁joita	-1770
yi	-1771
ppo	-1772
▁sää	-1773
dynasti	-1774
▁vuodesta	-1775
kar	-1776
mon	-1777
kesk	-1778
▁2016	-1779
▁rann	-1780
kään	-1781
▁Fred	-1782
kauden	-1783
2,	-1784
ames	-1785
liit	-1786
▁alussa	-1787
▁yhteis	-1788
har	-1789
aavi	-1790
▁tuom	-1791
▁neljä	-1792
amp	-1793
▁hava	-1794
▁viik	-1795
telija	-1796
▁jääkiekko	-1797
▁Charl	-1798
▁sar	-1799
▁valmis	-1800
land	-1801
emmän	-1802
helm	-1803
rich	-1804
▁mur	-1805
▁Kaarle	-1806
▁kuuluu	-1807
▁Re	-1808
▁kier	-1809
aap	-1810
▁Jap	-1811
televisi	-1812
don	-1813
len	-1814
▁mun	-1815
laisia	-1816
▁yhteen	-1817
▁Lisäksi	-1818
tein	-1819
▁6.	-1820
tied	-1821
▁toimin	-1822
▁väestö	-1823
▁käyttöön	-1824
▁ortodoks	-1825
uan	-1826
▁8.	-1827
utum	-1828
miseen	-1829
▁kilpa	-1830
old	-1831
▁Mu	-1832
▁25.	-1833
iston	-1834
puolella	-1835
ujen	-1836
▁10.	-1837
olm	-1838
äyttö	-1839
tamaan	-1840
▁Län	-1841
istus	-1842
opper	-1843
▁sisä	-1844
▁mieh	-1845
▁kolme	-1846
met	-1847
▁Ba	-1848
oita	-1849
ointi	-1850
▁yksil	-1851
▁toimii	-1852
kylä	-1853
▁Mat	-1854
▁arv	-1855
▁muoto	-1856
car	-1857
kuv	-1858
mun	-1859
▁perustaja	-1860
osia	-1861
▁Wil	-1862
▁kuva	-1863
ret	-1864
▁24.	-1865
▁lopp	-1866
▁japan	-1867
raf	-1868
äis	-1869
▁kär	-1870
▁Saks	-1871
▁Tämä	-1872
▁elin	-1873
iläinen	-1874
▁olevan	-1875
▁Historia	-1876
▁Gu	-1877
toja	-1878
▁15.	-1879
▁Pyh	-1880
▁sul	-1881
▁joiden	-1882
▁5.	-1883
▁175	-1884
jana	-1885
▁23.	-1886
▁Her	-1887
▁pain	-1888
est	-1889
▁vet	-1890
▁espan	-1891
teis	-1892
▁18.	-1893
▁vaan	-1894
gn	-1895
▁21.	-1896
▁Sal	-1897
▁kunta	-1898
▁voivat	-1899
▁kansainväl	-1900
ima	-1901
▁17.	-1902
mällä	-1903
tanut	-1904
▁arme	-1905
▁liitty	-1906
▁Bri	-1907
▁fys	-1908
▁Pr	-1909
neen	-1910
vien	-1911
ohjan	-1912
▁seuraa	-1913
ga	-1914
▁ir	-1915
alli	-1916
▁12.	-1917
▁asuk	-1918
uksena	-1919
▁muita	-1920
▁pohjo	-1921
ollisuus	-1922
▁tarkoittaa	-1923
iky	-1924
ole	-1925
ust	-1926
▁Ja	-1927
▁Bar	-1928
▁julk	-1929
▁Englannin	-1930
oli	-1931
▁Kr	-1932
ästi	-1933
▁Rad	-1934
▁erot	-1935
▁nuor	-1936
teiden	-1937
▁James	-1938
▁kieli	-1939
▁Charles	-1940
▁lähtien	-1941
▁kys	-1942
▁oma	-1943
ley	-1944
▁Ah	-1945
▁Dav	-1946
mistä	-1947
▁joissa	-1948
▁luonnon	-1949
▁13.	-1950
▁pak	-1951
▁Ni	-1952
▁Ul	-1953
eltä	-1954
▁Thom	-1955
▁Inter	-1956
▁lääkäri	-1957
▁televisi	-1958
▁ala	-1959
▁20.	-1960
herra	-1961
▁Espan	-1962
▁tulee	-1963
ens	-1964
▁alka	-1965
▁kanad	-1966
▁omina	-1967
toa	-1968
urg	-1969
▁9.	-1970
joittaja	-1971
änn	-1972
ukot	-1973
▁kyl	-1974
▁rat	-1975
▁Neuvostol	-1976
▁ki	-1977
▁14.	-1978
st	-1979
öll	-1980
▁7.	-1981
esti	-1982
▁Lap	-1983
telee	-1984
miä	-1985
▁174	-1986
▁Tal	-1987
▁josta	-1988
keh	-1989
ram	-1990
▁Co	-1991
ihen	-1992
▁alle	-1993
▁metsä	-1994
toon	-1995
▁rav	-1996
▁eikä	-1997
▁suuri	-1998
▁valtio	-1999
▁sotilas	-2000
yden	-2001
▁pyr	-2002
ustan	-2003
▁olisi	-2004
▁alueen	-2005
zz	-2006
▁Nim	-2007
▁vih	-2008
asiassa	-2009
SB	-2010
hen	-2011
oon	-2012
▁Po	-2013
▁16.	-2014
▁sil	-2015
▁laiv	-2016
▁pitkä	-2017
hin	-2018
▁22.	-2019
▁28.	-2020
▁koos	-2021
▁valm	-2022
▁ihmis	-2023
▁avar	-2024
▁koul	-2025
ittain	-2026
ore	-2027
uka	-2028
▁Pal	-2029
▁Ensimmäinen	-2030
▁un	-2031
mien	-2032
tuna	-2033
äivä	-2034
oksen	-2035
▁suun	-2036
attori	-2037
stö	-2038
tyä	-2039
▁tod	-2040
päivä	-2041
▁2019	-2042
▁Viit	-2043
ukseen	-2044
▁Ol	-2045
▁aino	-2046
▁elokuv	-2047
mar	-2048
osti	-2049
▁26.	-2050
▁hel	-2051
▁sat	-2052
▁2015	-2053
ikymmen	-2054
▁Henrik	-2055
äjä	-2056
tand	-2057
▁yksin	-2058
▁tietokone	-2059
qu	-2060
▁19.	-2061
aatio	-2062
▁Paul	-2063
▁opet	-2064
▁taas	-2065
ruotsalainen	-2066
iso	-2067
▁uh	-2068
▁2018	-2069
▁Mich	-2070
▁rauta	-2071
ollinen	-2072
aali	-2073
▁Jul	-2074
▁johtaja	-2075
kel	-2076
uista	-2077
▁2009	-2078
▁asti	-2079
▁elek	-2080
▁johd	-2081
▁verk	-2082
▁palkinnon	-2083
▁Mer	-2084
▁main	-2085
kielinen	-2086
▁=	-2087
▁Bo	-2088
kkin	-2089
▁laj	-2090
anner	-2091
▁lask	-2092
▁lääke	-2093
▁Viitteet	-2094
mia	-2095
ittu	-2096
▁11.	-2097
▁kan	-2098
▁pan	-2099
▁kahd	-2100
udella	-2101
ellisen	-2102
▁perusta	-2103
▁Esimerkiksi	-2104
iha	-2105
kor	-2106
tys	-2107
oitta	-2108
tekijä	-2109
▁lähet	-2110
mestari	-2111
▁kymmen	-2112
▁alkuper	-2113
▁kaupung	-2114
jallisuus	-2115
▁itävalta	-2116
onin	-2117
eiden	-2118
▁pappi	-2119
▁sodan	-2120
▁taaja	-2121
▁toimittaja	-2122
ylä	-2123
joki	-2124
▁kruun	-2125
järjestelmä	-2126
-1	-2127
kiv	-2128
kke	-2129
yyt	-2130
▁IV	-2131
san	-2132
▁27.	-2133
ustus	-2134
▁jääkiekkoilija	-2135
opp	-2136
utu	-2137
▁Or	-2138
sien	-2139
ulle	-2140
▁Lev	-2141
upuol	-2142
▁New	-2143
▁Ter	-2144
▁aja	-2145
▁kev	-2146
tunut	-2147
▁selv	-2148
▁suosit	-2149
▁Lud	-2150
valtio	-2151
▁Gusta	-2152
▁aloitti	-2153
▁kemisti	-2154
▁edelleen	-2155
emies	-2156
tynyt	-2157
▁Rich	-2158
isissa	-2159
▁kuoli	-2160
▁kutsutaan	-2161
lor	-2162
▁Ur	-2163
▁tav	-2164
▁uus	-2165
tivat	-2166
▁pitä	-2167
▁tarv	-2168
▁tehd	-2169
▁toimi	-2170
▁yhtä	-2171
▁esiintyy	-2172
lad	-2173
rat	-2174
▁hyväks	-2175
▁siirto	-2176
ham	-2177
bert	-2178
eden	-2179
kset	-2180
liik	-2181
ympär	-2182
koon	-2183
▁29.	-2184
▁Vil	-2185
tisen	-2186
▁jälj	-2187
▁määr	-2188
uss	-2189
ynn	-2190
jalla	-2191
▁2010	-2192
▁muka	-2193
▁Franc	-2194
▁Oscar	-2195
▁jolla	-2196
▁espanjalainen	-2197
50	-2198
ena	-2199
okka	-2200
▁mel	-2201
▁tekn	-2202
▁valtiop	-2203
koa	-2204
istin	-2205
▁kasv	-2206
isella	-2207
▁radio	-2208
yntyinen	-2209
tely	-2210
▁Puol	-2211
▁paavi	-2212
▁riipp	-2213
▁Toinen	-2214
▁oopper	-2215
edustaja	-2216
allisesti	-2217
”.	-2218
▁100	-2219
▁30.	-2220
▁pala	-2221
mää	-2222
▁bi	-2223
östä	-2224
▁2020	-2225
▁Karl	-2226
▁itse	-2227
▁pian	-2228
astaan	-2229
▁kielen	-2230
▁seuraav	-2231
ge	-2232
art	-2233
eph	-2234
jal	-2235
tut	-2236
▁171	-2237
▁lap	-2238
allon	-2239
ikkaa	-2240
regor	-2241
▁1980	-2242
▁alan	-2243
▁linn	-2244
tetaan	-2245
▁julka	-2246
▁keksi	-2247
uksesta	-2248
▁poliit	-2249
▁kanadalainen	-2250
bi	-2251
anna	-2252
ried	-2253
▁sin	-2254
▁kään	-2255
▁valko	-2256
▁muiden	-2257
ystä	-2258
▁Kuu	-2259
▁Mic	-2260
euvos	-2261
itaan	-2262
▁1979	-2263
▁voit	-2264
▁johta	-2265
tandard	-2266
imä	-2267
▁Seur	-2268
hy	-2269
raa	-2270
aika	-2271
utuu	-2272
yhti	-2273
–200	-2274
ankum	-2275
▁eten	-2276
▁vapaa	-2277
▁kokona	-2278
▁Ä	-2279
▁Jac	-2280
▁Ste	-2281
▁the	-2282
kittu	-2283
▁1981	-2284
▁saksalais	-2285
▁norjalainen	-2286
laa	-2287
yksen	-2288
ytänn	-2289
essaan	-2290
▁kanta	-2291
▁toinen	-2292
▁kansallis	-2293
ec	-2294
olin	-2295
ottu	-2296
tävän	-2297
uodesta	-2298
▁Thomas	-2299
istettiin	-2300
▁w	-2301
ipl	-2302
ente	-2303
▁auto	-2304
▁pinta	-2305
▁siihen	-2306
atom	-2307
sija	-2308
▁pesii	-2309
▁muodosta	-2310
▁pääkaupun	-2311
▁pu	-2312
iini	-2313
▁Pää	-2314
▁lin	-2315
emaan	-2316
usten	-2317
tuksen	-2318
▁vaikka	-2319
▁Hein	-2320
▁nimi	-2321
estaan	-2322
▁joten	-2323
alaisia	-2324
▁Venäjä	-2325
oksi	-2326
uttu	-2327
ologia	-2328
▁liitto	-2329
ast	-2330
▁Ki	-2331
▁ylä	-2332
ootto	-2333
▁1945	-2334
▁2008	-2335
▁2021	-2336
▁vuoro	-2337
attu	-2338
merk	-2339
▁her	-2340
▁ruu	-2341
uilla	-2342
▁suorit	-2343
miin	-2344
isenä	-2345
▁tote	-2346
▁Fredrik	-2347
▁hallinn	-2348
öin	-2349
▁Pi	-2350
▁em	-2351
▁pur	-2352
▁dipl	-2353
▁matk	-2354
iemmin	-2355
palvel	-2356
▁Turun	-2357
▁mitta	-2358
▁japanilainen	-2359
sti	-2360
usi	-2361
onta	-2362
telu	-2363
uaal	-2364
▁168	-2365
▁tuh	-2366
istaa	-2367
▁rauhan	-2368
rad	-2369
trö	-2370
▁(18	-2371
▁2003	-2372
▁ilman	-2373
▁saakka	-2374
jun	-2375
ott	-2376
▁toisen	-2377
▁erityisesti	-2378
amm	-2379
ois	-2380
▁Mc	-2381
ikon	-2382
teil	-2383
▁Kul	-2384
▁1973	-2385
▁aine	-2386
▁löyd	-2387
kautta	-2388
▁niitä	-2389
▁sopim	-2390
▁George	-2391
rans	-2392
▁Met	-2393
▁Pol	-2394
▁1969	-2395
▁kohd	-2396
järjes	-2397
▁energ	-2398
▁yhden	-2399
mentaja	-2400
▁kaupunki	-2401
▁ortodoksinen	-2402
tek	-2403
▁30	-2404
▁31.	-2405
▁kertaa	-2406
▁vuoteen	-2407
orn	-2408
én	-2409
mann	-2410
yllä	-2411
unnat	-2412
▁1970	-2413
▁Tämän	-2414
kailija	-2415
▁aiheutta	-2416
ay	-2417
▁So	-2418
▁173	-2419
terin	-2420
▁tapa	-2421
ler	-2422
tav	-2423
ttä	-2424
mansa	-2425
▁1968	-2426
▁kesä	-2427
uksissa	-2428
▁Vi	-2429
▁pe	-2430
emin	-2431
▁Ver	-2432
▁Jean	-2433
ittäin	-2434
1,	-2435
umin	-2436
▁Täl	-2437
▁amm	-2438
▁sit	-2439
äivät	-2440
▁sijoit	-2441
▁yksilö	-2442
▁fysiikan	-2443
▁kalenterin	-2444
por	-2445
res	-2446
teja	-2447
▁Osa	-2448
ämeen	-2449
▁1944	-2450
▁1948	-2451
▁1978	-2452
▁2004	-2453
▁2013	-2454
▁Tiet	-2455
▁diploma	-2456
▁käytössä	-2457
▁Yhdysvall	-2458
▁merkittäv	-2459
bo	-2460
jaa	-2461
ikas	-2462
tian	-2463
yrit	-2464
▁ras	-2465
omaan	-2466
vallat	-2467
▁tunnet	-2468
▁järjestel	-2469
atar	-2470
utun	-2471
▁Mor	-2472
ander	-2473
ister	-2474
poika	-2475
tuvat	-2476
▁metall	-2477
▁alankoma	-2478
ire	-2479
iina	-2480
kaas	-2481
▁len	-2482
iikka	-2483
▁1980-	-2484
▁katol	-2485
▁vaale	-2486
▁Saksan	-2487
▁piispa	-2488
regoriaan	-2489
▁huomatta	-2490
▁yliopisto	-2491
jallisuutta	-2492
▁Me	-2493
▁cm	-2494
▁mm	-2495
▁Kan	-2496
aakko	-2497
▁aset	-2498
▁jouk	-2499
▁laaj	-2500
▁pääs	-2501
▁Keski	-2502
▁alkaa	-2503
▁kuole	-2504
▁olleet	-2505
▁itävaltalainen	-2506
▁kansanedustaja	-2507
ba	-2508
ump	-2509
▁Oy	-2510
▁Lin	-2511
▁2005	-2512
ettuja	-2513
onstan	-2514
▁sisäll	-2515
syntyinen	-2516
▁käytetty	-2517
▁kuitenkaan	-2518
-,	-2519
▁1991	-2520
▁2007	-2521
▁tuho	-2522
taminen	-2523
ympäristö	-2524
ikirjoittaja	-2525
gar	-2526
olan	-2527
▁169	-2528
rosof	-2529
▁1974	-2530
▁2006	-2531
▁hert	-2532
▁1800-	-2533
▁Ruots	-2534
ologian	-2535
▁Kaupun	-2536
▁aikaan	-2537
▁tavall	-2538
▁Euroopassa	-2539
▁ä	-2540
kes	-2541
aras	-2542
inna	-2543
enteen	-2544
,5	-2545
▁luk	-2546
▁opp	-2547
▁plan	-2548
▁Radio	-2549
▁metal	-2550
emmissa	-2551
▁perinte	-2552
▁elektron	-2553
▁valtakunnan	-2554
amen	-2555
iinä	-2556
ikta	-2557
elius	-2558
▁säil	-2559
emassa	-2560
iselle	-2561
▁johon	-2562
oitsija	-2563
▁Yhdisty	-2564
▁taistelu	-2565
▁up	-2566
▁170	-2567
istön	-2568
▁1975	-2569
▁näky	-2570
▁eläin	-2571
▁kahden	-2572
▁Microsof	-2573
▁lääketieteen	-2574
–3	-2575
yör	-2576
▁ak	-2577
heim	-2578
▁Aug	-2579
veits	-2580
▁sarja	-2581
▁keksijä	-2582
olympiavoittaja	-2583
ekk	-2584
uussa	-2585
▁Suur	-2586
▁kerran	-2587
▁käytet	-2588
▁Richard	-2589
hu	-2590
istan	-2591
kylän	-2592
▁1964	-2593
▁1982	-2594
teessa	-2595
▁kuvan	-2596
▁laajen	-2597
▁yhteyd	-2598
palkittu	-2599
▁Vuodesta	-2600
▁näytelmä	-2601
fi	-2602
gi	-2603
yä	-2604
vet	-2605
▁De	-2606
aste	-2607
atri	-2608
auto	-2609
okuv	-2610
▁164	-2611
ityks	-2612
uhtin	-2613
uutta	-2614
▁1995	-2615
▁2011	-2616
▁David	-2617
emi	-2618
otta	-2619
▁Jär	-2620
▁Kas	-2621
iiton	-2622
▁1994	-2623
▁Afrik	-2624
▁seura	-2625
▁julkaistiin	-2626
▁valtiopäivä	-2627
laisen	-2628
▁musta	-2629
kirjoit	-2630
▁joskus	-2631
▁kilometriä	-2632
end	-2633
▁()	-2634
uori	-2635
▁kup	-2636
▁Tamper	-2637
▁alkaen	-2638
▁varsin	-2639
▁alankomaalainen	-2640
–2	-2641
par	-2642
▁Ku	-2643
esim	-2644
▁Cla	-2645
▁ehd	-2646
meren	-2647
▁1965	-2648
▁2000	-2649
▁kone	-2650
▁lain	-2651
▁vaik	-2652
ohjelm	-2653
▁Anton	-2654
▁tämän	-2655
inneisyys	-2656
▁historia	-2657
▁gregoriaan	-2658
toi	-2659
▁St	-2660
emok	-2661
heil	-2662
ysan	-2663
▁1967	-2664
▁Kana	-2665
attiin	-2666
▁myötä	-2667
▁valmista	-2668
▁tutkimusmat	-2669
je	-2670
pit	-2671
ves	-2672
ital	-2673
▁Mik	-2674
▁kiv	-2675
▁mik	-2676
aston	-2677
ettua	-2678
▁1977	-2679
▁vahv	-2680
▁tansk	-2681
ityksen	-2682
ellisesti	-2683
ida	-2684
▁Em	-2685
▁Sc	-2686
▁172	-2687
▁and	-2688
▁juu	-2689
▁funk	-2690
▁muuta	-2691
uhtinas	-2692
▁kulttuuri	-2693
nim	-2694
atin	-2695
eria	-2696
ivan	-2697
yhte	-2698
▁1963	-2699
▁1986	-2700
▁2012	-2701
▁Kans	-2702
dynastian	-2703
▁vallankum	-2704
▁vuosikymmen	-2705
▁tähtitieteilijä	-2706
OS	-2707
ile	-2708
▁ap	-2709
ehto	-2710
ijan	-2711
tivät	-2712
▁koti	-2713
Suomen	-2714
▁Fried	-2715
▁kommun	-2716
▁valittiin	-2717
▁Ph	-2718
alit	-2719
oitu	-2720
teella	-2721
▁nousi	-2722
▁siten	-2723
▁asukasta	-2724
ölj	-2725
innä	-2726
itin	-2727
▁sop	-2728
▁2014	-2729
▁Liik	-2730
Euroop	-2731
▁Länsi	-2732
▁Kustaa	-2733
▁kielet	-2734
▁enemmän	-2735
▁,	-2736
juo	-2737
ood	-2738
arvo	-2739
siin	-2740
laulaja	-2741
▁karkaus	-2742
▁jäljellä	-2743
yhdysvaltalainen	-2744
ael	-2745
gyp	-2746
uton	-2747
▁tap	-2748
▁1949	-2749
▁1988	-2750
▁luon	-2751
▁vähen	-2752
ituksen	-2753
▁Joseph	-2754
▁asukka	-2755
▁nimellä	-2756
▁maailmansota	-2757
▁Kirjallisuutta	-2758
vil	-2759
–199	-2760
oihin	-2761
▁1919	-2762
▁enää	-2763
▁esiinty	-2764
kut	-2765
ski	-2766
▁Pe	-2767
aksi	-2768
maal	-2769
osin	-2770
▁Hal	-2771
yyden	-2772
▁1971	-2773
▁1972	-2774
▁1989	-2775
▁lyhy	-2776
ettelo	-2777
▁hyökkä	-2778
▁kemian	-2779
▁Johannes	-2780
▁Yhdysvalloissa	-2781
-2	-2782
▁Gr	-2783
iemi	-2784
▁pop	-2785
▁syn	-2786
▁vel	-2787
▁1976	-2788
▁1983	-2789
▁2002	-2790
▁Kesk	-2791
▁Koko	-2792
▁täys	-2793
▁muuto	-2794
▁Portug	-2795
▁joukot	-2796
rd	-2797
▁i	-2798
etun	-2799
▁Kal	-2800
tiaan	-2801
▁1961	-2802
▁1900-	-2803
▁Hänen	-2804
▁runsa	-2805
▁sitten	-2806
▁diplomaatti	-2807
▁Si	-2808
irja	-2809
tekn	-2810
ttoa	-2811
–201	-2812
▁Dan	-2813
▁1956	-2814
▁tyyp	-2815
isellä	-2816
▁aloit	-2817
▁sosia	-2818
allisen	-2819
▁luokit	-2820
▁kehittä	-2821
▁markkin	-2822
▁25	-2823
▁Alf	-2824
▁Rav	-2825
▁Ros	-2826
▁vil	-2827
▁1990	-2828
▁alkua	-2829
▁minkä	-2830
▁pääsi	-2831
▁lopulla	-2832
tuks	-2833
▁Haa	-2834
▁kuk	-2835
▁mor	-2836
▁muist	-2837
▁ensimmäisenä	-2838
ah	-2839
ij	-2840
▁&	-2841
ate	-2842
▁Aur	-2843
emmat	-2844
uteen	-2845
▁1985	-2846
▁1997	-2847
▁kaas	-2848
▁läpi	-2849
▁sata	-2850
▁viit	-2851
▁Louis	-2852
▁takia	-2853
▁syntyi	-2854
▁päättyi	-2855
▁nykyisin	-2856
äi	-2857
hte	-2858
luo	-2859
äli	-2860
▁Ben	-2861
▁ann	-2862
▁2001	-2863
▁saav	-2864
▁pitää	-2865
▁saman	-2866
▁uuden	-2867
▁kappal	-2868
▁oikeus	-2869
▁pituus	-2870
kem	-2871
urn	-2872
tröm	-2873
▁juh	-2874
▁jät	-2875
imman	-2876
ukana	-2877
▁1962	-2878
▁1999	-2879
▁taka	-2880
▁lähte	-2881
▁seurakunta	-2882
ML	-2883
ass	-2884
idän	-2885
ward	-2886
▁amp	-2887
ikaan	-2888
kausi	-2889
▁1966	-2890
▁Hall	-2891
▁lait	-2892
▁lisä	-2893
▁ydin	-2894
uroopp	-2895
▁paino	-2896
▁kesken	-2897
▁samalla	-2898
ath	-2899
kejä	-2900
tali	-2901
verk	-2902
istun	-2903
jelma	-2904
omies	-2905
emokra	-2906
llikkö	-2907
▁Bysan	-2908
▁voitti	-2909
▁yhteydessä	-2910
pro	-2911
▁no	-2912
▁1941	-2913
▁2022	-2914
▁help	-2915
itystä	-2916
▁	-2917
a	-2918
i	-2919
n	-2920
t	-2921
e	-2922
s	-2923
l	-2924
o	-2925
u	-2926
k	-2927
r	-2928
ä	-2929
m	-2930
v	-2931
j	-2932
y	-2933
p	-2934
h	-2935
.	-2936
,	-2937
1	-2938
d	-2939
9	-2940
0	-2941
–	-2942
)	-2943
(	-2944
2	-2945
g	-2946
ö	-2947
S	-2948
8	-2949
-	-2950
K	-2951
7	-2952
M	-2953
A	-2954
5	-2955
6	-2956
3	-2957
P	-2958
T	-2959
4	-2960
b	-2961
c	-2962
L	-2963
H	-2964
f	-2965
I	-2966
V	-2967
E	-2968
J	-2969
R	-2970
N	-2971
B	-2972
:	-2973
C	-2974
G	-2975
F	-2976
D	-2977
O	-2978
”	-2979
Y	-2980
W	-2981
w	-2982
z	-2983
U	-2984
"	-2985
x	-2986
é	-2987
X	-2988
/	-2989
š	-2990
Z	-2991
%	-2992
q	-2993
á	-2994
;	-2995
'	-2996
Q	-2997
’	-2998
­	-2999
|	-3000
=	-3001
+	-3002
ü	-3003
Ä	-3004
ó	-3005
å	-3006
ō	-3007
í	-3008
&	-3009
~	-3010
[	-3011
]	-3012
!	-3013
ž	-3014
<	-3015
Ö	-3016
ç	-3017
−	-3018
>	-3019
°	-3020
è	-3021
?	-3022
Å	-3023
*	-3024
Š	-3025
→	-3026
ā	-3027
É	-3028
ł	-3029
ć	-3030
ū	-3031
Á	-3032
ø	-3033
ī	-3034
#	-3035
·	-3036
ã	-3037
ú	-3038
×	-3039
ñ	-3040
õ	-3041
ș	-3042
•	-3043
—	-3044
ë	-3045
à	-3046
ì	-3047
{	-3048
}	-3049
æ	-3050
č	-3051
Ž	-3052
帝	-3053
α	-3054
ń	-3055
ē	-3056
е	-3057
â	-3058
а	-3059
о	-3060
с	-3061
§	-3062
ô	-3063
′	-3064
周	-3065
и	-3066
王	-3067
μ	-3068
$	-3069
⁄	-3070
\	-3071
ò	-3072
ě	-3073
λ	-3074
н	-3075
ǎ	-3076
π	-3077
р	-3078
_	-3079
“	-3080
ο	-3081
ý	-3082
ǔ	-3083
φ	-3084
@	-3085
ê	-3086
ù	-3087
ă	-3088
ř	-3089
к	-3090
€	-3091
ə	-3092
ᅵ	-3093
†	-3094
ǐ	-3095
ʻ	-3096
ρ	-3097
т	-3098
ا	-3099
子	-3100
î	-3101
ï	-3102
л	-3103
Ø	-3104
ı	-3105
ņ	-3106
ŋ	-3107
Ə	-3108
Δ	-3109
γ	-3110
ᄋ	-3111
ß	-3112
ð	-3113
ś	-3114
ς	-3115
τ	-3116
в	-3117
й	-3118
у	-3119
±	-3120
Æ	-3121
ş	-3122
́	-3123
м	-3124
ل	-3125
南	-3126
β	-3127
ي	-3128
Đ	-3129
ő	-3130
ɡ	-3131
ε	-3132
ν	-3133
σ	-3134
г	-3135
ь	-3136
≤	-3137
中	-3138
太	-3139
家	-3140
部	-3141
^	-3142
Ó	-3143
Ō	-3144
Ω	-3145
ι	-3146
я	-3147
ᅡ	-3148
ᅥ	-3149
‐	-3150
丁	-3151
国	-3152
民	-3153
甲	-3154
đ	-3155
İ	-3156
Ł	-3157
Ş	-3158
κ	-3159
б	-3160
ч	-3161
ب	-3162
ن	-3163
ᅩ	-3164
ᅮ	-3165
‎	-3166
人	-3167
县	-3168
小	-3169
文	-3170
省	-3171
级	-3172
道	-3173
ę	-3174
ğ	-3175
ŏ	-3176
ŭ	-3177
η	-3178
υ	-3179
Р	-3180
С	-3181
з	-3182
п	-3183
א	-3184
ו	-3185
ح	-3186
ễ	-3187
​	-3188
三	-3189
化	-3190
区	-3191
君	-3192
字	-3193
安	-3194
庚	-3195
月	-3196
都	-3197
音	-3198
Î	-3199
Ú	-3200
ÿ	-3201
Ā	-3202
Č	-3203
ǒ	-3204
ɑ	-3205
ά	-3206
ί	-3207
ό	-3208
д	-3209
х	-3210
ы	-3211
ر	-3212
ᅢ	-3213
ᅦ	-3214
ệ	-3215
‘	-3216
上	-3217
乙	-3218
史	-3219
唐	-3220
國	-3221
村	-3222
祖	-3223
自	-3224
辛	-3225
음	-3226
`	-3227
Ð	-3228
Ü	-3229
Þ	-3230
œ	-3231
ż	-3232
ǟ	-3233
ʒ	-3234
Ε	-3235
ή	-3236
Г	-3237
М	-3238
П	-3239
ш	-3240
ל	-3241
מ	-3242
ت	-3243
و	-3244
ᄀ	-3245
ᄂ	-3246
ᄅ	-3247
ᄆ	-3248
ᄉ	-3249
ᄒ	-3250
ᅳ	-3251
ḥ	-3252
ế	-3253
ọ	-3254
≈	-3255
二	-3256
兵	-3257
大	-3258
平	-3259
旗	-3260
日	-3261
星	-3262
木	-3263
東	-3264
汉	-3265
法	-3266
秦	-3267
苏	-3268
語	-3269
里	-3270
»	-3271
Ç	-3272
Í	-3273
Õ	-3274
û	-3275
þ	-3276
ħ	-3277
ļ	-3278
ŗ	-3279
Ś	-3280
ů	-3281
ư	-3282
ɣ	-3283
ʂ	-3284
ʹ	-3285
ː	-3286
έ	-3287
θ	-3288
ω	-3289
Е	-3290
К	-3291
Л	-3292
ф	-3293
ц	-3294
э	-3295
і	-3296
י	-3297
ת	-3298
ف	-3299
م	-3300
ُ	-3301
ᄃ	-3302
ᄇ	-3303
ᄌ	-3304
ᄎ	-3305
ᄏ	-3306
ᄐ	-3307
ᄑ	-3308
ᅣ	-3309
ᅤ	-3310
ᅧ	-3311
ᅨ	-3312
ᅪ	-3313
ᅫ	-3314
ᅬ	-3315
ᅭ	-3316
ᅯ	-3317
ᅰ	-3318
ᅱ	-3319
ᅲ	-3320
ᅴ	-3321
ḑ	-3322
ạ	-3323
←	-3324
∈	-3325
≡	-3326
下	-3327
东	-3328
主	-3329
乡	-3330
五	-3331
会	-3332
使	-3333
元	-3334
地	-3335
士	-3336
外	-3337
天	-3338
委	-3339
孙	-3340
孫	-3341
宗	-3342
定	-3343
居	-3344
州	-3345
市	-3346
府	-3347
律	-3348
御	-3349
德	-3350
政	-3351
方	-3352
晉	-3353
曜	-3354
武	-3355
殷	-3356
治	-3357
百	-3358
相	-3359
语	-3360
韓	-3361
饭	-3362
魏	-3363
﻿	-3364
¡	-3365
¤	-3366
À	-3367
È	-3368
÷	-3369
ą	-3370
ė	-3371
ķ	-3372
ţ	-3373
Ż	-3374
ơ	-3375
ǜ	-3376
ț	-3377
ȯ	-3378
ɛ	-3379
ɸ	-3380
ɻ	-3381
ʋ	-3382
̄	-3383
̈	-3384
Γ	-3385
Κ	-3386
Μ	-3387
Φ	-3388
Χ	-3389
Ψ	-3390
δ	-3391
А	-3392
Б	-3393
В	-3394
Д	-3395
Ж	-3396
Н	-3397
О	-3398
Т	-3399
Ф	-3400
Я	-3401
ж	-3402
щ	-3403
ъ	-3404
Ӓ	-3405
ӓ	-3406
ӣ	-3407
Ӧ	-3408
ט	-3409
פ	-3410
ة	-3411
ج	-3412
د	-3413
ع	-3414
ు	-3415
า	-3416
้	-3417
ᄁ	-3418
ᄄ	-3419
ᄈ	-3420
ᄊ	-3421
ᄍ	-3422
ẽ	-3423
ị	-3424
⇒	-3425
∞	-3426
♦	-3427
。	-3428
《	-3429
》	-3430
一	-3431
义	-3432
书	-3433
代	-3434
令	-3435
公	-3436
分	-3437
刺	-3438
十	-3439
司	-3440
后	-3441
吳	-3442
吴	-3443
员	-3444
土	-3445
壬	-3446
夫	-3447
头	-3448
奴	-3449
她	-3450
妈	-3451
孟	-3452
尚	-3453
川	-3454
恩	-3455
慎	-3456
成	-3457
我	-3458
战	-3459
戰	-3460
承	-3461
族	-3462
春	-3463
是	-3464
書	-3465
朝	-3466
松	-3467
林	-3468
楚	-3469
水	-3470
汤	-3471
沃	-3472
河	-3473
海	-3474
漢	-3475
烈	-3476
燕	-3477
田	-3478
电	-3479
疏	-3480
盟	-3481
盤	-3482
督	-3483
社	-3484
策	-3485
简	-3486
節	-3487
组	-3488
義	-3489
藩	-3490
行	-3491
话	-3492
趙	-3493
车	-3494
辖	-3495
镇	-3496
阳	-3497
陽	-3498
难	-3499
馆	-3500
體	-3501
鸭	-3502
齊	-3503
아	-3504
응	-3505
이	-3506
¢	-3507
£	-3508
¥	-3509
¦	-3510
©	-3511
«	-3512
¬	-3513
®	-3514
¶	-3515
¿	-3516
Â	-3517
Ã	-3518
Ê	-3519
Ë	-3520
Ì	-3521
Ï	-3522
Ñ	-3523
Ò	-3524
Ô	-3525
Ù	-3526
Û	-3527
Ý	-3528
ĉ	-3529
Ē	-3530
ĝ	-3531
Ġ	-3532
ġ	-3533
ĥ	-3534
Ħ	-3535
Ī	-3536
į	-3537
ĵ	-3538
Ķ	-3539
Ļ	-3540
Ņ	-3541
ň	-3542
Ő	-3543
Ŗ	-3544
ŝ	-3545
Ţ	-3546
ť	-3547
Ū	-3548
ź	-3549
Ǟ	-3550
ǩ	-3551
Ș	-3552
Ȭ	-3553
ȭ	-3554
Ȯ	-3555
Ȱ	-3556
ȱ	-3557
ɕ	-3558
ɟ	-3559
ɢ	-3560
ɱ	-3561
ɲ	-3562
ʁ	-3563
ʃ	-3564
ʌ	-3565
ʎ	-3566
ʏ	-3567
ʕ	-3568
ʼ	-3569
̧	-3570
͡	-3571
Α	-3572
Β	-3573
Ζ	-3574
Σ	-3575
ζ	-3576
ξ	-3577
ύ	-3578
ώ	-3579
Ϝ	-3580
Ё	-3581
І	-3582
Ј	-3583
З	-3584
И	-3585
Й	-3586
У	-3587
Х	-3588
Ц	-3589
Ч	-3590
Ш	-3591
Щ	-3592
Ъ	-3593
Ы	-3594
Ь	-3595
Э	-3596
Ю	-3597
ю	-3598
ё	-3599
ј	-3600
ў	-3601
Ѣ	-3602
ѣ	-3603
Ҍ	-3604
ҍ	-3605
Ҏ	-3606
ҏ	-3607
ү	-3608
Ӆ	-3609
ӆ	-3610
Ӈ	-3611
ӈ	-3612
Ӊ	-3613
ӊ	-3614
Ӎ	-3615
ӎ	-3616
Ӣ	-3617
ӧ	-3618
Ӭ	-3619
ӭ	-3620
ִ	-3621
ַ	-3622
ָ	-3623
ׁ	-3624
ב	-3625
ג	-3626
ה	-3627
ח	-3628
נ	-3629
ר	-3630
ש	-3631
أ	-3632
إ	-3633
خ	-3634
ز	-3635
س	-3636
ظ	-3637
غ	-3638
ه	-3639
ً	-3640
ِ	-3641
ْ	-3642
थ	-3643
द	-3644
र	-3645
व	-3646
ा	-3647
े	-3648
గ	-3649
త	-3650
ల	-3651
ె	-3652
ค	-3653
ง	-3654
ต	-3655
ม	-3656
ห	-3657
อ	-3658
ํ	-3659
ᄝ	-3660
ᄫ	-3661
ᄬ	-3662
ᅀ	-3663
ᅌ	-3664
ᅗ	-3665
ᅘ	-3666
ᅙ	-3667
ᆞ	-3668
ᆡ	-3669
ᐃ	-3670
ᑦ	-3671
ᓄ	-3672
ᔭ	-3673
Ḑ	-3674
ṇ	-3675
ṣ	-3676
ẓ	-3677
ẗ	-3678
ả	-3679
ấ	-3680
ầ	-3681
ắ	-3682
ồ	-3683
ỗ	-3684
ộ	-3685
ờ	-3686
ợ	-3687
ứ	-3688
ữ	-3689
ỳ	-3690
ἄ	-3691
ὠ	-3692
ῶ	-3693
‒	-3694
‰	-3695
√	-3696
≠	-3697
≥	-3698
⎓	-3699
♠	-3700
♣	-3701
♥	-3702
、	-3703
「	-3704
」	-3705
『	-3706
』	-3707
は	-3708
へ	-3709
を	-3710
゙	-3711
゚	-3712
丙	-3713
丝	-3714
丢	-3715
两	-3716
丶	-3717
九	-3718
井	-3719
交	-3720
京	-3721
亳	-3722
亶	-3723
亻	-3724
仲	-3725
伊	-3726
休	-3727
儒	-3728
全	-3729
六	-3730
兰	-3731
共	-3732
冀	-3733
冈	-3734
册	-3735
切	-3736
刑	-3737
力	-3738
動	-3739
匡	-3740
华	-3741
卷	-3742
卿	-3743
历	-3744
原	-3745
去	-3746
友	-3747
受	-3748
口	-3749
台	-3750
吃	-3751
合	-3752
吏	-3753
和	-3754
員	-3755
唇	-3756
商	-3757
啟	-3758
喉	-3759
嘎	-3760
嘗	-3761
嚣	-3762
囂	-3763
四	-3764
圆	-3765
圻	-3766
均	-3767
块	-3768
基	-3769
堅	-3770
契	-3771
女	-3772
好	-3773
威	-3774
孔	-3775
宇	-3776
宋	-3777
宰	-3778
察	-3779
寺	-3780
尔	-3781
尹	-3782
岡	-3783
岭	-3784
崱	-3785
嶺	-3786
工	-3787
己	-3788
师	-3789
師	-3790
席	-3791
广	-3792
康	-3793
廣	-3794
廩	-3795
开	-3796
式	-3797
影	-3798
役	-3799
後	-3800
微	-3801
心	-3802
志	-3803
急	-3804
患	-3805
悼	-3806
惠	-3807
戊	-3808
戶	-3809
户	-3810
护	-3811
拼	-3812
指	-3813
散	-3814
敬	-3815
新	-3816
无	-3817
旦	-3818
旬	-3819
时	-3820
明	-3821
昨	-3822
显	-3823
時	-3824
晋	-3825
晏	-3826
晚	-3827
普	-3828
景	-3829
曆	-3830
曾	-3831
朋	-3832
期	-3833
末	-3834
查	-3835
案	-3836
桓	-3837
楊	-3838
横	-3839
橫	-3840
正	-3841
母	-3842
毛	-3843
気	-3844
注	-3845
津	-3846
洲	-3847
湯	-3848
满	-3849
火	-3850
爱	-3851
牙	-3852
牛	-3853
特	-3854
猫	-3855
申	-3856
男	-3857
略	-3858
番	-3859
病	-3860
症	-3861
的	-3862
皮	-3863
盐	-3864
监	-3865
監	-3866
看	-3867
石	-3868
礼	-3869
禮	-3870
禺	-3871
秋	-3872
空	-3873
管	-3874
簡	-3875
粉	-3876
粵	-3877
紂	-3878
紧	-3879
經	-3880
縣	-3881
縱	-3882
繁	-3883
红	-3884
纵	-3885
经	-3886
老	-3887
考	-3888
者	-3889
聊	-3890
联	-3891
肚	-3892
脑	-3893
膑	-3894
臏	-3895
臺	-3896
舌	-3897
航	-3898
节	-3899
芬	-3900
英	-3901
荀	-3902
莊	-3903
落	-3904
蘇	-3905
血	-3906
街	-3907
衣	-3908
襄	-3909
西	-3910
角	-3911
訓	-3912
詩	-3913
論	-3914
諸	-3915
護	-3916
论	-3917
诸	-3918
谁	-3919
豚	-3920
貞	-3921
贏	-3922
贞	-3923
赢	-3924
赧	-3925
赫	-3926
赵	-3927
起	-3928
跟	-3929
路	-3930
迁	-3931
进	-3932
通	-3933
進	-3934
遷	-3935
邢	-3936
郡	-3937
釐	-3938
鎮	-3939
针	-3940
門	-3941
關	-3942
门	-3943
闭	-3944
陈	-3945
陳	-3946
陵	-3947
隞	-3948
隶	-3949
隸	-3950
雍	-3951
雙	-3952
靈	-3953
靓	-3954
靚	-3955
面	-3956
鞅	-3957
韩	-3958
韻	-3959
頃	-3960
頭	-3961
顯	-3962
馬	-3963
马	-3964
高	-3965
魯	-3966
鹰	-3967
黎	-3968
鼠	-3969
齐	-3970
齒	-3971
가	-3972
글	-3973
나	-3974
다	-3975
된	-3976
러	-3977
린	-3978
모	-3979
선	-3980
설	-3981
순	-3982
시	-3983
싱	-3984
쌍	-3985
여	-3986
옛	-3987
읗	-3988
자	-3989
조	-3990
치	-3991
키	-3992
한	-3993
헬	-3994
후	-3995
히	-3996
