<unk>	0
<s>	0
</s>	0
▁	-3.04635
n	-3.42704
.	-3.4901
,	-3.59609
a	-3.77483
s	-4.06791
t	-4.26898
▁ja	-4.32904
)	-4.47012
▁(	-4.48835
i	-4.54617
▁–	-4.56078
k	-4.63257
in	-4.70079
-	-4.80069
en	-4.87719
u	-5.03796
▁on	-5.0432
e	-5.13568
o	-5.15966
an	-5.26296
r	-5.35994
y	-5.38337
ta	-5.39296
ä	-5.3932
h	-5.41574
ssa	-5.42411
ja	-5.43691
sta	-5.44811
si	-5.48102
l	-5.59285
nen	-5.64331
la	-5.67112
:	-5.72616
na	-5.74802
ri	-5.77469
te	-5.8035
ko	-5.8105
us	-5.8719
ti	-5.91113
ka	-5.91691
lla	-5.92865
▁18	-5.94367
vi	-6.00758
d	-6.02076
to	-6.02495
ma	-6.05342
re	-6.08282
ksi	-6.08369
▁A	-6.08802
lle	-6.09721
is	-6.10314
li	-6.12818
ki	-6.14621
m	-6.14681
va	-6.1646
lo	-6.17309
ne	-6.17443
on	-6.17638
▁S	-6.19501
▁suomalainen	-6.20292
tu	-6.2537
tä	-6.2613
le	-6.27644
ra	-6.30085
tti	-6.31053
▁E	-6.32233
ista	-6.34323
g	-6.34718
▁oli	-6.39506
ro	-6.40928
ni	-6.42841
c	-6.43924
mi	-6.45808
yhdysvaltalainen	-6.46229
▁myös	-6.47056
ty	-6.48769
inen	-6.48875
et	-6.49683
issa	-6.51126
▁I	-6.52443
vat	-6.55028
sa	-6.55384
▁17	-6.56067
ke	-6.56131
▁ovat	-6.58692
p	-6.59408
ssä	-6.59419
er	-6.60482
ku	-6.61563
kin	-6.61717
se	-6.64206
jä	-6.6587
sti	-6.67254
▁tai	-6.67731
–	-6.68656
f	-6.70553
di	-6.70913
stä	-6.71261
no	-6.73516
ö	-6.73745
it	-6.74276
ve	-6.7497
ng	-6.75446
tta	-6.7663
▁se	-6.767
el	-6.76901
mo	-6.77461
▁jo	-6.79043
pa	-6.8056
v	-6.81901
nä	-6.82863
iden	-6.83029
man	-6.83735
ha	-6.84348
▁joka	-6.84549
ho	-6.86487
▁vuonna	-6.86524
▁Ka	-6.8792
▁Ma	-6.89145
▁K	-6.91929
▁O	-6.92142
▁C	-6.92558
mä	-6.92591
illa	-6.92891
pu	-6.93154
▁F	-6.94363
me	-6.94808
de	-6.95236
ar	-6.96094
▁ei	-6.96197
un	-6.96453
llä	-6.96918
kä	-6.97328
än	-6.97779
ita	-6.99463
lä	-6.99517
pi	-7.00765
vät	-7.01255
S	-7.03197
▁näyttelijä	-7.03758
kka	-7.0417
▁pää	-7.05461
jo	-7.0557
he	-7.06282
▁16	-7.08416
os	-7.08947
w	-7.09088
z	-7.10045
ut	-7.10856
al	-7.10876
da	-7.11505
b	-7.11791
sen	-7.11809
jen	-7.11957
että	-7.12019
▁ka	-7.13055
ten	-7.14172
▁la	-7.14679
im	-7.15565
▁sekä	-7.16946
▁mutta	-7.16947
maan	-7.17207
▁P	-7.17629
▁M	-7.18299
▁ku	-7.18447
ll	-7.19543
vo	-7.20224
▁pa	-7.20592
A	-7.21203
▁o	-7.21521
▁Se	-7.22016
▁Suomen	-7.2212
vä	-7.22199
▁ha	-7.22424
pe	-7.22439
hi	-7.22488
▁vuoden	-7.22731
ia	-7.23999
ille	-7.24068
▁kirjailija	-7.24143
do	-7.24494
▁voi	-7.24657
▁Sa	-7.24693
ur	-7.24812
lta	-7.24901
▁eli	-7.25439
▁ko	-7.26027
or	-7.26094
ttu	-7.26111
ru	-7.26308
2	-7.26366
P	-7.26506
▁La	-7.26703
▁ra	-7.26742
▁15	-7.2736
nsa	-7.29524
C	-7.29578
van	-7.29727
M	-7.29948
▁sen	-7.30288
at	-7.305
▁maa	-7.31763
x	-7.32324
▁sa	-7.32853
essa	-7.33082
▁Ta	-7.337
▁ma	-7.33759
lainen	-7.34564
istä	-7.34623
po	-7.35461
sto	-7.36662
ihin	-7.37127
aali	-7.37557
▁To	-7.38586
▁Ra	-7.38703
kki	-7.39035
▁saa	-7.39223
▁T	-7.39249
minen	-7.39389
aan	-7.39671
ran	-7.40174
▁pi	-7.40588
T	-7.40686
taa	-7.40791
▁G	-7.41274
isen	-7.41546
ssi	-7.41767
ju	-7.41856
▁1	-7.42207
kunta	-7.42642
▁mukaan	-7.4272
luku	-7.42792
lan	-7.43027
tus	-7.4333
▁U	-7.43997
nut	-7.4406
ton	-7.44083
▁va	-7.44142
▁Jo	-7.44337
▁he	-7.4434
▁Ko	-7.44507
ch	-7.44679
▁B	-7.44708
ter	-7.4543
”)	-7.45713
ttä	-7.46219
tto	-7.46339
su	-7.47387
▁Pa	-7.47464
mm	-7.47546
taan	-7.47784
maa	-7.47805
▁Ju	-7.4788
lu	-7.47986
teen	-7.48255
▁osa	-7.48629
▁J	-7.48679
1	-7.48692
▁(”	-7.48978
19	-7.4966
ttiin	-7.499
▁ranskalai	-7.50209
llis	-7.5024
▁Ku	-7.50422
▁W	-7.50534
itä	-7.50588
ään	-7.50719
▁kuningas	-7.52562
sia	-7.52576
son	-7.52739
▁ke	-7.52954
▁Mar	-7.53144
neet	-7.53365
il	-7.53618
ck	-7.5411
L	-7.54558
ga	-7.54652
I	-7.54741
3	-7.54844
mat	-7.54844
▁Mi	-7.55229
▁ole	-7.5527
min	-7.55385
tettiin	-7.55601
▁-	-7.5617
▁Ha	-7.56821
kko	-7.57099
▁Li	-7.57168
N	-7.57341
vu	-7.57808
▁saksalainen	-7.57836
ba	-7.58062
ver	-7.58081
▁al	-7.58577
tys	-7.59132
▁muut	-7.59899
▁L	-7.60814
▁Le	-7.61085
▁Si	-7.61167
▁Y	-7.61219
io	-7.61348
▁Ro	-7.61354
op	-7.6145
mu	-7.61631
▁Ja	-7.61783
▁val	-7.62097
▁Al	-7.62589
hde	-7.63052
han	-7.63436
ol	-7.63815
4	-7.63842
ste	-7.6414
mp	-7.64171
▁An	-7.64785
▁kuin	-7.64813
co	-7.65335
bi	-7.65372
llinen	-7.65977
lin	-7.66123
ina	-7.66176
▁kun	-7.66184
▁eri	-7.66445
00	-7.67119
ot	-7.67362
▁poliitikko	-7.6786
▁su	-7.68543
▁luo	-7.69612
▁noi	-7.70154
oi	-7.70239
es	-7.70341
sten	-7.7074
ge	-7.70743
R	-7.70769
D	-7.70903
▁Ni	-7.70957
▁Mo	-7.71311
essä	-7.71558
é	-7.71593
mer	-7.71901
ön	-7.72035
ry	-7.72121
rin	-7.72574
▁Pi	-7.72636
K	-7.73278
▁kalenteri	-7.73328
ul	-7.73528
▁Va	-7.73579
▁jälkeen	-7.73662
kon	-7.73699
issä	-7.74305
ologi	-7.74608
▁Suomessa	-7.74898
isti	-7.75463
utu	-7.75801
mis	-7.75805
▁säveltäjä	-7.76291
ce	-7.76879
▁Lähteet	-7.77152
sä	-7.77608
uksen	-7.77769
▁2	-7.78312
yy	-7.78371
j	-7.79126
▁hän	-7.79159
elle	-7.79383
/	-7.79518
▁tu	-7.79575
▁Vi	-7.79664
▁Vuon	-7.79913
lais	-7.80028
▁mu	-7.80245
▁He	-7.80278
▁000	-7.80503
–19	-7.80674
▁14	-7.81155
▁tuli	-7.82065
jonka	-7.82505
”	-7.82581
20	-7.82729
▁yli	-7.82912
▁muualla	-7.83501
ing	-7.84611
▁3	-7.84718
iset	-7.85046
▁esi	-7.8542
E	-7.85439
ää	-7.85744
7	-7.85767
▁vii	-7.85945
▁englantilainen	-7.86307
▁Ar	-7.8698
H	-7.87078
nyt	-7.87423
▁f	-7.87678
▁Ki	-7.88424
men	-7.88543
▁Aihee	-7.88709
▁Me	-7.88933
tty	-7.89003
▁saanut	-7.89496
▁käy	-7.89581
▁V	-7.90289
▁toi	-7.90948
▁Ke	-7.91051
▁D	-7.91226
▁Pe	-7.91402
tö	-7.91473
B	-7.91602
▁jotk	-7.9161
▁”	-7.9179
▁esimerkiksi	-7.91855
▁väli	-7.92024
▁de	-7.92149
"	-7.92278
ude	-7.92333
▁Na	-7.92619
0	-7.92651
ker	-7.92748
ji	-7.92904
vel	-7.93068
▁Re	-7.93813
ala	-7.93845
▁asu	-7.93947
▁hi	-7.93954
▁Mu	-7.9425
▁li	-7.94423
▁voidaan	-7.94514
30	-7.94517
▁p	-7.94591
▁vain	-7.94636
set	-7.94767
ikka	-7.94816
▁R	-7.94869
▁toimi	-7.95259
▁So	-7.95337
itti	-7.95678
den	-7.96111
luvulla	-7.96182
▁kuten	-7.96316
▁sisä	-7.96391
gi	-7.96432
ly	-7.96496
ir	-7.96732
▁kanssa	-7.96745
▁kuu	-7.96977
kku	-7.97011
▁no	-7.97238
mista	-7.97325
je	-7.97358
▁muun	-7.97371
▁brittiläinen	-7.97653
isia	-7.97905
ika	-7.97994
uuden	-7.98139
▁Nobel	-7.98187
var	-7.98305
▁kuitenkin	-7.98314
▁päivä	-7.98382
tettu	-7.98459
pp	-7.98605
▁keisari	-7.98615
ys	-7.98898
hti	-7.98908
▁Te	-7.9892
via	-7.99145
hu	-7.99298
tar	-7.99374
▁so	-7.99498
kke	-7.99863
▁jossa	-7.99916
lloin	-7.99985
▁ollut	-8.00239
▁Hi	-8.00403
utta	-8.00716
iksi	-8.00766
tte	-8.00833
▁Su	-8.00835
ltä	-8.00901
estä	-8.00947
laiset	-8.01167
mpi	-8.01807
▁valta	-8.02033
▁Bo	-8.02052
▁po	-8.02052
kunnan	-8.02129
▁e	-8.02213
▁vasta	-8.03191
▁valtio	-8.03338
th	-8.03707
pan	-8.03896
luvun	-8.04331
O	-8.04383
ca	-8.04528
du	-8.04588
pä	-8.04764
osa	-8.04786
▁ilma	-8.04989
▁italialai	-8.05161
▁koko	-8.05182
ellä	-8.05464
▁yksi	-8.05496
▁presidentti	-8.05963
▁seura	-8.06167
iä	-8.06929
▁sai	-8.06936
kseen	-8.07238
ili	-8.07334
▁nimi	-8.07403
misen	-8.07671
▁Ne	-8.07777
usta	-8.07791
mia	-8.07962
ike	-8.08068
▁nime	-8.08383
tuu	-8.08433
V	-8.08533
neen	-8.08847
▁olivat	-8.08989
ella	-8.09144
tyy	-8.09339
▁Per	-8.09572
▁lu	-8.09722
her	-8.09912
rä	-8.10027
▁tammikuuta	-8.10147
johtaja	-8.10229
ky	-8.10291
▁joulukuuta	-8.10457
ise	-8.10763
tun	-8.11141
▁pe	-8.11167
taja	-8.11197
din	-8.1147
▁tie	-8.11495
▁muassa	-8.11684
go	-8.11707
ikko	-8.12089
▁ensimmäinen	-8.1216
peli	-8.12226
▁laulaja	-8.1227
▁Ca	-8.12524
isi	-8.12552
▁Ho	-8.12627
▁ruotsalainen	-8.129
uksia	-8.13071
▁7	-8.13697
kaa	-8.1374
alue	-8.13884
▁Ba	-8.13975
▁4	-8.14247
ska	-8.14387
▁maaliskuuta	-8.14401
▁Co	-8.14812
kuu	-8.14955
▁le	-8.15073
▁alue	-8.15253
tiin	-8.15499
ava	-8.15819
itta	-8.16022
id	-8.16053
ell	-8.16102
▁sy	-8.16149
tie	-8.16541
ppa	-8.16761
G	-8.16809
bo	-8.16911
kaan	-8.17074
tava	-8.17135
illä	-8.17184
▁Lo	-8.17233
▁toukokuuta	-8.17367
▁yleis	-8.17715
fi	-8.17857
▁syyskuuta	-8.18245
▁Hän	-8.18332
▁aikana	-8.18359
▁kuva	-8.1856
▁työ	-8.18628
▁De	-8.18691
mies	-8.18764
▁lokakuuta	-8.19247
▁Ru	-8.19276
")	-8.19364
▁mo	-8.19543
▁Ga	-8.19693
▁huhtikuuta	-8.19879
ulu	-8.20579
▁H	-8.20877
dy	-8.21166
per	-8.21188
▁vaikut	-8.21652
▁11	-8.21892
▁sano	-8.22005
▁marraskuuta	-8.22106
esta	-8.22125
▁helmikuuta	-8.22161
▁Tapahtumi	-8.22183
▁keskeise	-8.22241
talo	-8.22471
be	-8.22513
50	-8.22686
▁Ri	-8.227
▁Pu	-8.22761
▁John	-8.22816
ic	-8.22827
▁("	-8.23217
▁"	-8.23228
isten	-8.23468
▁ulko	-8.23775
▁Tu	-8.23973
onnan	-8.24008
een	-8.2432
9	-8.24323
ven	-8.24525
yntyneitä	-8.24581
tui	-8.24666
6	-8.24699
▁ero	-8.2481
▁Suo	-8.24812
▁Z	-8.24813
ttää	-8.24836
isto	-8.25002
▁Be	-8.25011
▁alkoi	-8.25023
yö	-8.25119
ld	-8.25157
vin	-8.25356
▁kaksi	-8.25415
der	-8.2542
▁sota	-8.25533
▁kar	-8.25791
▁artikkelit	-8.25984
▁Po	-8.26052
▁Da	-8.26494
▁Seul	-8.26542
▁Kuolleita	-8.26545
▁tuo	-8.26761
▁Yhdysvaltain	-8.2683
▁maan	-8.26919
F	-8.27024
pin	-8.27225
▁Katso	-8.27258
isiin	-8.27289
▁itse	-8.27335
▁ne	-8.27382
▁10	-8.27494
▁Pohjois	-8.27544
▁taidemaalari	-8.27544
isesti	-8.27811
tila	-8.28202
▁var	-8.28525
▁Hu	-8.28557
järjestelmä	-8.28619
tur	-8.28819
ed	-8.28834
▁sitä	-8.28883
eksi	-8.29178
▁b	-8.29205
▁runoilija	-8.29425
▁heinäkuuta	-8.2943
▁par	-8.29516
▁II	-8.29588
▁usein	-8.29627
um	-8.29644
ilu	-8.29665
uus	-8.29773
▁ihmis	-8.29837
nsä	-8.29838
▁Har	-8.2989
▁elokuuta	-8.30011
▁kesäkuuta	-8.30164
▁muodo	-8.30514
ura	-8.30613
är	-8.30614
▁ase	-8.30733
▁kasv	-8.30862
ie	-8.30924
kone	-8.31336
▁Etelä	-8.31347
▁suur	-8.31451
tro	-8.31636
yn	-8.31651
ski	-8.31651
ttava	-8.3205
ian	-8.32154
ris	-8.32744
omi	-8.32774
auto	-8.33089
▁Johan	-8.33255
täjä	-8.33342
vuo	-8.33433
miseen	-8.33548
malla	-8.33687
▁suuri	-8.33692
▁Ti	-8.33899
ettiin	-8.34074
▁käytetään	-8.34077
don	-8.34132
▁kieli	-8.34377
my	-8.34524
lm	-8.34786
wa	-8.35493
ikan	-8.36146
▁synty	-8.36161
▁olla	-8.36634
kas	-8.36662
▁Kar	-8.37055
ger	-8.37067
▁vir	-8.37116
ff	-8.3712
▁lähe	-8.37151
oitu	-8.3719
▁lii	-8.37205
á	-8.37326
teet	-8.37432
and	-8.37536
▁Lu	-8.37832
▁Ve	-8.37833
rd	-8.37979
rake	-8.38007
tään	-8.38369
stö	-8.38708
▁alku	-8.38852
▁Val	-8.39211
met	-8.39333
▁määrä	-8.39356
ivat	-8.39422
mään	-8.39595
mmin	-8.39716
vien	-8.39947
▁ky	-8.3995
▁me	-8.39996
60	-8.4001
▁kaikki	-8.40134
tuksen	-8.40202
ske	-8.40868
▁yhteis	-8.41042
10	-8.41154
;	-8.41359
▁niin	-8.41429
aste	-8.41527
J	-8.41665
▁oma	-8.41811
val	-8.41873
kesk	-8.4211
▁12	-8.42567
▁kirja	-8.4281
päivä	-8.42912
▁Maa	-8.4305
tieteilijä	-8.43117
▁Kiinan	-8.43143
aika	-8.43305
pää	-8.43624
llisuus	-8.43976
▁moni	-8.44524
▁vo	-8.44841
80	-8.44998
▁Di	-8.45123
▁%	-8.45143
kään	-8.4528
▁Kun	-8.45373
▁pu	-8.45426
ivi	-8.45615
'	-8.45733
ori	-8.45746
järvi	-8.45747
▁vai	-8.45799
mar	-8.45873
▁etelä	-8.4591
keskus	-8.46064
▁yleensä	-8.46078
eli	-8.46107
▁X	-8.46229
▁pohjois	-8.46423
oli	-8.46589
▁Do	-8.46641
oma	-8.46867
em	-8.47124
tori	-8.472
mmi	-8.4734
▁keski	-8.47469
▁re	-8.47471
U	-8.47582
puolella	-8.47595
40	-8.47645
▁Tämä	-8.47736
sesti	-8.47851
▁Ruotsin	-8.47904
massa	-8.48095
▁hyvin	-8.48196
▁eivät	-8.48239
▁kolme	-8.48355
llo	-8.48389
aatio	-8.48482
for	-8.48484
▁kirjoit	-8.48513
▁filosofi	-8.48616
▁tila	-8.48736
▁sähkö	-8.48877
▁maailman	-8.49072
kiele	-8.49075
kieli	-8.49077
▁historia	-8.49278
▁Itä	-8.49346
oppi	-8.49432
kylä	-8.49528
▁5	-8.49634
▁vastaan	-8.49916
berg	-8.49924
Saksa	-8.49977
mur	-8.50165
▁pääministeri	-8.50185
▁6	-8.50333
▁jää	-8.50338
▁pal	-8.5106
▁1.	-8.51077
▁vie	-8.51128
ikki	-8.51247
▁perus	-8.51415
ner	-8.51507
levy	-8.5161
▁lento	-8.52014
tor	-8.52856
eseen	-8.52975
▁lisäksi	-8.52984
▁Kir	-8.53012
yttä	-8.53386
asema	-8.53433
▁sillä	-8.53496
▁jalkapalloilija	-8.53793
▁muusikko	-8.53856
lia	-8.53865
▁vuotta	-8.54168
uutta	-8.54349
▁Han	-8.545
12	-8.54796
om	-8.54902
iini	-8.54911
mmat	-8.54912
▁hu	-8.54962
itte	-8.55087
▁Ky	-8.55119
▁per	-8.55171
mb	-8.55497
’	-8.55669
▁pitkä	-8.55896
­	-8.5605
isin	-8.56053
25	-8.56256
peri	-8.56533
▁kie	-8.56681
ud	-8.56874
py	-8.56888
▁13	-8.56979
▁Euroopan	-8.57023
š	-8.57332
▁venäläinen	-8.57587
▁koska	-8.57793
ettu	-8.57938
tele	-8.58086
X	-8.58193
▁of	-8.5823
tiivi	-8.58335
llisesti	-8.58502
poli	-8.58633
oksi	-8.58659
▁kor	-8.58694
ksen	-8.58829
▁ar	-8.58962
▁hänen	-8.59101
saari	-8.59384
kirjailija	-8.59399
▁No	-8.59484
metri	-8.59573
▁Tä	-8.59577
valta	-8.59618
seen	-8.59773
▁kau	-8.59896
kirja	-8.59987
▁professori	-8.60136
mus	-8.60202
aine	-8.60244
▁käsi	-8.60487
▁Vä	-8.60511
ard	-8.61049
nes	-8.61267
200	-8.61354
telu	-8.6162
tää	-8.61655
▁ala	-8.61666
▁puol	-8.61714
▁pro	-8.62197
▁tieto	-8.6236
▁henkilö	-8.62388
llisen	-8.62479
kea	-8.62756
▁neljä	-8.62958
▁perustu	-8.63421
tetaan	-8.63662
▁9	-8.63729
puoli	-8.63769
▁kal	-8.63827
▁kaupunki	-8.6393
ryhmä	-8.64016
▁perustettiin	-8.64042
▁Go	-8.64178
▁Gu	-8.64206
nnan	-8.64238
▁har	-8.64266
liitto	-8.64339
tavat	-8.64511
ukka	-8.64625
öy	-8.64808
▁kenraali	-8.64811
▁tutki	-8.65163
▁Ranskan	-8.65229
toja	-8.6553
ttävä	-8.65756
piste	-8.65846
▁arvo	-8.66063
▁aina	-8.66078
uksessa	-8.66252
▁sijaitsee	-8.66279
isiä	-8.66326
▁tapahtu	-8.66351
mitta	-8.66431
ohjelma	-8.66519
ov	-8.66623
▁km	-8.66653
▁ensimmäisen	-8.6668
paikka	-8.66855
▁1970	-8.66917
▁niiden	-8.66971
iva	-8.66973
teli	-8.67087
ppi	-8.67252
sarja	-8.67288
kset	-8.67293
tra	-8.67499
▁1990	-8.67557
▁2017	-8.67995
luo	-8.67997
▁pieni	-8.68038
▁alueella	-8.68042
▁johta	-8.68059
ttua	-8.68472
määrä	-8.68481
▁koulu	-8.68673
11	-8.68879
isä	-8.68904
vallan	-8.69005
neuvos	-8.69063
itse	-8.69139
kö	-8.69268
voima	-8.695
mien	-8.69515
mme	-8.69673
lö	-8.69826
land	-8.69836
▁Nä	-8.70205
gen	-8.70347
kel	-8.70362
▁uusi	-8.70363
▁ennen	-8.70377
kuva	-8.7042
ukset	-8.70626
imen	-8.70657
▁mikä	-8.70762
mistä	-8.70793
▁poika	-8.70901
gr	-8.71029
piiri	-8.71041
▁käyttö	-8.71081
▁jäsen	-8.71297
koske	-8.71501
tetty	-8.71589
liikenne	-8.71799
▁lähes	-8.71929
▁Q	-8.71931
▁2016	-8.7194
ppu	-8.71961
▁Carl	-8.72057
▁laske	-8.72087
dynastia	-8.7215
▁jota	-8.72175
70	-8.72287
ilija	-8.72305
ole	-8.72601
miin	-8.72682
▁fyysikko	-8.72824
▁suosi	-8.72879
syntyi	-8.72915
▁aja	-8.73591
sivat	-8.7367
ius	-8.73735
tunut	-8.73738
▁kan	-8.74526
▁prosenttia	-8.74663
pel	-8.74683
86	-8.74716
15	-8.74773
empi	-8.74923
tojen	-8.74945
▁vesi	-8.75095
vää	-8.75113
Kiina	-8.75281
▁laaj	-8.75308
▁puu	-8.75477
ope	-8.75561
▁Bi	-8.75567
▁Venäjän	-8.75727
▁William	-8.75799
▁Myös	-8.75803
▁III	-8.75883
▁Tur	-8.75886
▁suure	-8.75944
▁kaupungin	-8.75955
90	-8.76052
kohta	-8.76086
und	-8.76354
▁aika	-8.76415
työ	-8.76596
kaasu	-8.76611
▁elokuva	-8.76689
ilta	-8.76711
taso	-8.76898
▁Jos	-8.76973
laji	-8.77098
▁eaa	-8.77179
▁aiheutta	-8.77224
ber	-8.77346
▁vuoksi	-8.77459
joki	-8.77629
88	-8.77739
ment	-8.77743
▁Robert	-8.77938
▁epä	-8.78097
▁tietokone	-8.78202
75	-8.78251
▁Sy	-8.78304
sel	-8.78332
▁tapa	-8.78337
▁teo	-8.78344
▁Hel	-8.78464
valtio	-8.78712
väli	-8.78715
▁Suuri	-8.78717
▁For	-8.78955
▁2000	-8.78971
–18	-8.78983
▁kuuluva	-8.79245
hy	-8.7936
mpia	-8.79445
ite	-8.79595
siä	-8.79722
97	-8.79729
väestö	-8.80071
▁vuosi	-8.801
▁joista	-8.80234
▁kulttuuri	-8.80276
▁päivää	-8.80289
▁Helsingin	-8.80313
W	-8.80452
suo	-8.80537
▁myöhemmin	-8.80557
▁lääni	-8.8057
vuoti	-8.80641
oksen	-8.80745
tion	-8.80925
▁Wa	-8.81026
▁siitä	-8.81121
amma	-8.81313
▁Her	-8.81319
▁käyttää	-8.81358
▁radio	-8.81364
▁puhu	-8.81375
▁The	-8.81632
har	-8.8187
▁kunnan	-8.81921
kaupungi	-8.82112
▁korke	-8.82172
▁Vuoden	-8.82263
▁välillä	-8.82306
ltaan	-8.82318
▁valmis	-8.82398
▁Bu	-8.82517
▁1960	-8.82529
▁joukko	-8.8283
▁syö	-8.82981
lke	-8.83486
▁muist	-8.83507
yhtiö	-8.8353
16	-8.83622
▁laji	-8.8393
ympäristö	-8.83974
ile	-8.83997
oikeus	-8.84058
▁kanna	-8.84151
etta	-8.84218
bu	-8.84286
▁avulla	-8.84288
iseen	-8.84348
▁San	-8.84425
oja	-8.84705
rad	-8.84724
▁liitty	-8.84774
arvo	-8.8484
▁Kä	-8.84874
94	-8.84885
▁suku	-8.84922
▁pala	-8.85192
emi	-8.85252
▁sana	-8.85455
▁2010	-8.85576
etaan	-8.85583
ojen	-8.85665
64	-8.85677
▁kansan	-8.85705
▁arkkitehti	-8.85808
luvu	-8.85996
▁Sen	-8.86072
65	-8.86089
▁ajan	-8.86132
laisten	-8.86241
mere	-8.86245
kauden	-8.86333
merkki	-8.86528
ito	-8.86556
▁2018	-8.86594
▁2019	-8.86642
kunti	-8.86718
▁2015	-8.86858
ttelu	-8.87324
par	-8.87365
▁voima	-8.87407
▁suurin	-8.87425
ivo	-8.87465
▁vanha	-8.87493
elämä	-8.87525
▁Historia	-8.87883
▁2009	-8.87885
▁vara	-8.87898
▁Mat	-8.88012
elli	-8.88018
13	-8.88078
▁Kaarle	-8.88147
ium	-8.88232
▁meri	-8.88303
▁vuosina	-8.88326
tusta	-8.88416
▁Fa	-8.88501
iri	-8.88638
iseksi	-8.88729
▁syy	-8.88756
pallo	-8.88863
▁seuraava	-8.88986
▁useita	-8.89039
tiede	-8.89063
▁hy	-8.89096
kar	-8.89098
▁Par	-8.8917
21	-8.89313
taiteilija	-8.89472
ira	-8.89604
ide	-8.89604
22	-8.8961
14	-8.89632
viä	-8.89711
▁ihmistä	-8.89825
▁Vir	-8.8997
▁sää	-8.90233
ismi	-8.90286
▁kirkko	-8.90361
▁miljoonaa	-8.90436
▁elokuvaohjaaja	-8.90539
▁Mer	-8.9057
78	-8.90634
br	-8.90811
▁kappale	-8.90827
▁lintu	-8.90888
▁levi	-8.90894
▁ohja	-8.90932
Y	-8.90933
uun	-8.91106
85	-8.91141
perä	-8.91357
▁20	-8.91433
▁kautta	-8.91485
▁kehittä	-8.91778
siirto	-8.91896
ministeri	-8.91953
ps	-8.91972
▁vielä	-8.92038
armeija	-8.92168
▁Lisä	-8.92185
tz	-8.92304
▁paino	-8.92304
fo	-8.92419
▁Nu	-8.92542
▁taistelu	-8.92546
ation	-8.92663
▁matemaatikko	-8.92716
▁tämä	-8.92789
▁paljon	-8.92996
esi	-8.93045
ola	-8.93122
▁Kau	-8.93224
▁1945	-8.9327
▁Kor	-8.93355
8	-8.93383
▁Fi	-8.93495
▁loppu	-8.93559
17	-8.93594
ula	-8.93607
mman	-8.93666
▁Ed	-8.93811
olympiavoittaja	-8.93823
▁2.	-8.93892
kit	-8.93999
ajan	-8.94011
▁Car	-8.94078
ohj	-8.94208
joen	-8.94268
▁8	-8.94295
ialainen	-8.94312
utui	-8.94376
che	-8.94481
virta	-8.94485
tävä	-8.94556
▁suomalais	-8.94591
chi	-8.94623
▁saman	-8.94633
▁vuodesta	-8.94661
▁1930	-8.94668
5	-8.94743
verkko	-8.94881
ster	-8.94968
▁ensi	-8.95063
▁pari	-8.95099
str	-8.95222
by	-8.95226
▁metsä	-8.9523
▁joita	-8.95267
59	-8.95278
▁musiikki	-8.95294
kausi	-8.95296
▁alussa	-8.95522
▁2020	-8.95554
▁luonnon	-8.95568
tš	-8.95595
▁raja	-8.95728
koulu	-8.95745
za	-8.95765
▁1950	-8.95795
▁Sch	-8.95838
toiminta	-8.95851
45	-8.95887
olo	-8.95892
▁1980	-8.96108
▁aine	-8.96469
▁Vuo	-8.96471
▁au	-8.96503
laisen	-8.96517
isessa	-8.96596
▁oleva	-8.96642
▁1940	-8.96648
▁2003	-8.96658
udu	-8.9676
▁3.	-8.96878
▁Ge	-8.96906
▁tulo	-8.97107
▁puoli	-8.9719
▁suomen	-8.97246
iste	-8.97358
riko	-8.97516
tteli	-8.97527
esti	-8.97538
▁4.	-8.97542
▁Ber	-8.97596
▁kuuluu	-8.97745
▁sama	-8.97784
▁näyt	-8.97822
tutkija	-8.97885
▁esiinty	-8.97978
oita	-8.97998
▁huo	-8.98132
▁itsenäis	-8.98436
illi	-8.98611
lliset	-8.98725
▁käyttöön	-8.98738
0-	-8.98822
▁muu	-8.98822
uudessa	-8.98828
▁kaa	-8.9893
▁saksalais	-8.9896
jia	-8.98993
▁paavi	-8.99004
▁pois	-8.99117
▁lau	-8.9913
ksel	-8.99141
▁kii	-8.99162
▁ortodoksi	-8.99253
▁yliopisto	-8.99253
▁perustaja	-8.9943
55	-8.99444
▁25.	-8.99477
aari	-8.99493
lehti	-8.99538
kehitys	-8.99588
▁kansallis	-8.99627
77	-8.99644
▁kehitty	-8.99662
ler	-8.99968
lasku	-9.00104
▁2006	-9.00152
isuus	-9.00192
▁merkit	-9.0027
ph	-9.00363
wi	-9.00369
▁kir	-9.00404
lämpö	-9.00433
▁1944	-9.00437
muoto	-9.00548
▁1979	-9.00734
▁sotilas	-9.0074
▁2008	-9.00745
▁yksilö	-9.00779
▁asia	-9.0084
linna	-9.0084
▁2013	-9.01048
järjes	-9.01213
▁nyky	-9.01254
▁Je	-9.01303
35	-9.01364
▁Keski	-9.01419
32	-9.01579
ero	-9.01606
▁1973	-9.01632
▁2007	-9.01644
▁2004	-9.01644
▁olevan	-9.0166
83	-9.0184
▁Kuu	-9.01982
▁24.	-9.02076
▁Ste	-9.02076
del	-9.02137
▁muoto	-9.02191
▁1918	-9.02236
halli	-9.02257
▁Sta	-9.02364
▁suun	-9.02395
▁8.	-9.0246
▁lääkäri	-9.02537
moottori	-9.02537
miehi	-9.02547
▁Bar	-9.02569
▁toimii	-9.02636
▁perusta	-9.02689
▁tuho	-9.02712
+	-9.0284
Euroopassa	-9.02841
energia	-9.02841
▁1948	-9.02843
▁2005	-9.03159
versio	-9.032
▁nuor	-9.03209
tke	-9.03278
▁23.	-9.03285
▁julki	-9.03452
▁tark	-9.03552
▁joiden	-9.03584
Britannia	-9.03758
ley	-9.03989
▁Sal	-9.04044
▁1981	-9.04068
▁koti	-9.04123
▁6.	-9.04198
▁21.	-9.0424
▁kutsu	-9.04323
▁Ruotsi	-9.04534
suu	-9.04549
aatti	-9.05006
▁euro	-9.05006
▁voivat	-9.05008
▁suora	-9.0506
iki	-9.05061
18	-9.05121
99	-9.05266
▁1969	-9.05308
▁2012	-9.05332
▁Du	-9.05336
95	-9.05567
▁piene	-9.05626
▁pol	-9.05643
tyksen	-9.05648
▁muita	-9.05686
aattori	-9.05731
piir	-9.05781
66	-9.05828
▁tarkoittaa	-9.05927
▁tulee	-9.05941
▁2021	-9.0595
▁2011	-9.05955
24	-9.06074
vuori	-9.0617
▁määri	-9.06243
▁Charles	-9.06246
▁James	-9.06255
▁Englannin	-9.06301
▁10.	-9.06332
▁lähtien	-9.06495
▁Pyhä	-9.06562
▁kanta	-9.06744
▁Ur	-9.06761
laisia	-9.06806
▁suori	-9.07025
▁vaan	-9.07281
▁ruu	-9.0744
57	-9.07495
▁2002	-9.07855
▁Paul	-9.07868
malli	-9.08028
lly	-9.08069
27	-9.08119
▁Espanja	-9.08154
▁1991	-9.08156
▁palvelu	-9.08157
▁Cha	-9.08196
84	-9.08279
liikke	-9.08289
▁olisi	-9.08316
teiden	-9.08351
▁televisio	-9.08391
▁joissa	-9.08417
▁5.	-9.08443
elta	-9.08605
▁kielen	-9.0863
mpaa	-9.08705
▁talous	-9.08718
▁valo	-9.0876
▁puolue	-9.08801
▁ääni	-9.08818
▁Wi	-9.08962
▁korkea	-9.08963
▁kuoli	-9.08983
▁kanadalai	-9.09448
▁Ol	-9.095
▁kunta	-9.09607
järven	-9.09757
▁Ver	-9.09788
▁Nor	-9.09835
mäki	-9.10072
▁espanjalai	-9.10099
▁japanilai	-9.10112
kielinen	-9.10157
76	-9.10255
jopa	-9.10308
tetään	-9.10479
▁Tie	-9.10525
ehto	-9.10562
▁1941	-9.10756
▁tal	-9.10792
hallitsija	-9.10982
▁lisää	-9.11002
79	-9.11065
▁1968	-9.11088
suunta	-9.11101
llise	-9.11304
01	-9.11407
▁12.	-9.11452
org	-9.11543
▁pappi	-9.11552
54	-9.11768
23	-9.11786
56	-9.11994
▁tavoi	-9.1212
▁28.	-9.12218
▁kauppa	-9.12273
▁22.	-9.12273
tekijä	-9.12354
zz	-9.1236
▁20.	-9.12415
▁edusta	-9.12442
▁korva	-9.12499
▁kerto	-9.12564
▁myy	-9.12618
▁13.	-9.12655
▁Ensimmäinen	-9.12753
▁1995	-9.12756
▁1978	-9.12756
pal	-9.12791
81	-9.129
▁enti	-9.13087
▁1942	-9.13089
▁2001	-9.1311
▁alueen	-9.13235
kulma	-9.13304
vaara	-9.13342
ü	-9.13427
▁1982	-9.13429
▁1963	-9.13429
▁läpi	-9.13469
▁musta	-9.13721
funktio	-9.13766
tiikka	-9.13773
▁koostu	-9.13838
▁Venäjä	-9.13952
46	-9.13962
▁9.	-9.14016
▁1967	-9.14106
▁Henrik	-9.14107
▁26.	-9.14234
▁Länsi	-9.1445
▁2014	-9.14468
▁pesä	-9.14499
▁Var	-9.14521
hal	-9.14654
▁josta	-9.14744
▁lait	-9.14774
▁pysty	-9.14798
▁Rooma	-9.15
nnin	-9.1506
▁1994	-9.15137
▁2022	-9.15154
69	-9.15172
▁kesä	-9.15181
▁vaati	-9.15233
68	-9.15273
▁tasa	-9.15277
gon	-9.15333
▁taas	-9.15351
52	-9.15364
▁George	-9.15438
▁asti	-9.15452
▁siir	-9.15478
▁1974	-9.15479
▁1975	-9.15482
▁19.	-9.15551
▁Or	-9.15819
▁1928	-9.15827
▁1977	-9.15828
▁lyhy	-9.15828
ääri	-9.15847
31	-9.15902
▁lisä	-9.1599
▁kasvi	-9.15991
▁koo	-9.1602
▁katso	-9.16178
▁Yle	-9.1618
▁kuului	-9.1631
34	-9.16311
▁nope	-9.16456
▁sil	-9.16488
▁Viitteet	-9.16521
▁Iso	-9.16537
44	-9.16648
▁muodostu	-9.16708
▁Th	-9.1675
eikä	-9.16868
▁Esimerkiksi	-9.1687
▁sijaitseva	-9.1687
▁1946	-9.16873
▁1976	-9.16873
▁1997	-9.16874
▁usei	-9.17027
▁väri	-9.17041
▁Nyky	-9.17197
▁1949	-9.17223
▁kymmen	-9.17234
▁alkuperä	-9.17252
lje	-9.17422
▁1988	-9.17577
▁1920	-9.17583
▁Nimi	-9.17587
▁vapaa	-9.17601
eet	-9.17762
ointi	-9.17768
51	-9.17788
▁Pro	-9.17799
▁1989	-9.17928
▁1956	-9.17929
▁Ala	-9.17978
ytö	-9.18106
palvelu	-9.18171
▁asema	-9.18224
▁itävaltalai	-9.18282
▁1983	-9.18284
▁tote	-9.18285
▁palkinnon	-9.18378
myö	-9.18426
▁jääkiekkoilija	-9.18641
▁pinta	-9.18653
▁toimittaja	-9.18717
▁IV	-9.1873
▁27.	-9.18804
▁anta	-9.18809
▁sodan	-9.18903
miseksi	-9.18986
▁1943	-9.18994
▁usko	-9.18995
▁iso	-9.19084
▁100	-9.19115
▁=	-9.19124
58	-9.19128
seura	-9.19142
▁ensimmäise	-9.19216
seksi	-9.1932
▁1929	-9.19355
▁kemisti	-9.19355
▁1965	-9.19356
▁kuulu	-9.19555
73	-9.19595
▁New	-9.19612
pre	-9.19641
▁1972	-9.19712
▁edelleen	-9.19712
▁1986	-9.19716
▁Lap	-9.1992
▁perin	-9.19932
▁aloitti	-9.19984
kirjo	-9.2001
▁Pal	-9.20076
▁1999	-9.20076
▁1985	-9.20077
▁Ranska	-9.2008
Intia	-9.2009
lääk	-9.20111
▁kutsutaan	-9.20146
▁jouko	-9.20169
uksesta	-9.20239
▁pohja	-9.2035
53	-9.20385
▁Oscar	-9.20435
▁1926	-9.20438
▁1964	-9.20439
48	-9.20481
▁Kosk	-9.20568
28	-9.20574
llista	-9.20635
▁josk	-9.20772
▁1939	-9.20801
▁ylä	-9.21003
lintu	-9.21356
▁esiintyy	-9.21378
▁metalli	-9.21409
▁1966	-9.21533
tuottaja	-9.21567
05	-9.21612
▁the	-9.2177
61	-9.21833
hallinto	-9.21921
▁29.	-9.22036
06	-9.22394
▁teki	-9.22654
▁hä	-9.2288
port	-9.2292
uudesta	-9.22968
36	-9.23087
▁1987	-9.23384
▁riippu	-9.23395
gar	-9.23465
▁Karl	-9.23608
▁suomenruotsalai	-9.23757
▁1947	-9.23759
▁1961	-9.23759
pol	-9.23818
mällä	-9.23876
ttöm	-9.23905
▁jolla	-9.23989
teollis	-9.24098
▁Andr	-9.24098
▁1952	-9.24136
▁Wal	-9.24152
läinen	-9.2417
▁kirkon	-9.24182
Italia	-9.24206
▁(20	-9.2435
ó	-9.2451
▁1971	-9.2451
,5	-9.24605
maailma	-9.24606
eläin	-9.24664
neiden	-9.24701
▁Sam	-9.24839
▁toisen	-9.24984
å	-9.25269
▁Pää	-9.25355
▁muiden	-9.25394
▁Eli	-9.25453
38	-9.25607
hallinno	-9.25676
▁Fredrik	-9.26034
▁norjalain	-9.26035
▁pysy	-9.26038
toimi	-9.26044
▁1962	-9.26418
▁pesii	-9.26444
▁hyväksy	-9.26805
▁Thomas	-9.26805
bb	-9.26808
▁lähte	-9.2681
▁Ter	-9.2698
yksiä	-9.27137
oikeuden	-9.27192
▁1992	-9.27195
98	-9.27217
▁Jean	-9.27223
▁Radio	-9.27325
▁usea	-9.27438
▁1984	-9.27584
▁1922	-9.27585
ved	-9.27612
33	-9.27818
▁siihen	-9.27972
▁kokonais	-9.28055
saaren	-9.28167
kilpailu	-9.28221
kunnat	-9.28287
ō	-9.28364
▁1957	-9.28367
▁kertaa	-9.28394
muka	-9.28451
▁Gra	-9.28503
▁toinen	-9.28523
isuuden	-9.28534
63	-9.2865
92	-9.28678
▁Osa	-9.28748
▁1993	-9.28758
▁1936	-9.28761
▁puna	-9.28801
▁Hä	-9.28856
▁nousi	-9.28868
▁yhtä	-9.28869
▁taide	-9.28989
▁nais	-9.29036
▁1938	-9.29156
▁vaikka	-9.29227
pankki	-9.29227
▁alle	-9.29483
▁Hy	-9.29491
08	-9.29553
▁1925	-9.29555
29	-9.29561
uksissa	-9.29642
26	-9.29673
ensä	-9.29951
▁länsi	-9.29956
▁merkittävä	-9.29968
alis	-9.30002
47	-9.30028
▁halu	-9.30224
▁tuomi	-9.30289
▁Por	-9.3033
▁käytössä	-9.30348
▁1933	-9.30351
▁piispa	-9.30351
▁joten	-9.30433
▁erä	-9.30721
▁1996	-9.30752
▁1932	-9.30753
91	-9.30922
kari	-9.30961
▁Ab	-9.31112
▁sijoit	-9.31156
▁1917	-9.31157
▁vahv	-9.31169
▁neuvosto	-9.312
▁Turun	-9.31378
▁nykyise	-9.31555
í	-9.31558
juna	-9.31564
▁hyvä	-9.31583
mieli	-9.31648
▁teho	-9.31731
misesta	-9.31733
ineen	-9.3209
▁erilaisi	-9.32251
▁1924	-9.32376
▁erityisesti	-9.32383
puisto	-9.32423
toon	-9.32424
ida	-9.32522
▁Sii	-9.32587
▁saakka	-9.32604
▁pur	-9.32627
39	-9.32636
kunnassa	-9.32672
▁1953	-9.32785
▁1931	-9.32786
▁pela	-9.328
▁niitä	-9.32839
▁kulu	-9.32856
▁perusti	-9.32903
37	-9.32905
▁sopi	-9.32926
tynyt	-9.32978
▁(18	-9.33155
▁1959	-9.33198
▁yhden	-9.33198
▁Puola	-9.33281
▁vuoteen	-9.33615
03	-9.33671
▁ympäri	-9.33693
voimi	-9.33756
uuteen	-9.33778
▁31.	-9.33789
gel	-9.33906
▁vaale	-9.34062
q	-9.34171
alisti	-9.34351
▁1958	-9.34442
▁1954	-9.34442
yksikkö	-9.34447
istus	-9.34514
isella	-9.34601
▁juo	-9.34667
▁vähä	-9.34674
▁aihe	-9.34831
▁1937	-9.3486
▁1951	-9.3486
vuoro	-9.34915
49	-9.34927
llisia	-9.34953
▁yhdiste	-9.35174
yyli	-9.3527
opettaja	-9.3528
▁1955	-9.35281
numero	-9.35331
▁Koko	-9.3562
järjestö	-9.35761
▁valtakunnan	-9.35878
▁aloit	-9.35885
▁perintei	-9.35893
▁metal	-9.36124
yhtye	-9.36124
▁Ilma	-9.36174
▁Euro	-9.36201
suom	-9.36359
vasti	-9.36379
▁mahdollis	-9.36554
▁Fo	-9.36721
▁Mor	-9.36734
▁kansanedustaja	-9.36976
vuosikymmen	-9.36976
Tampere	-9.36977
▁1998	-9.36979
▁Vuode	-9.37223
▁alkaa	-9.37234
▁ääne	-9.37265
poika	-9.37311
päivät	-9.37381
▁alankomaalai	-9.37405
▁tunnus	-9.37417
juhla	-9.37419
vuosi	-9.37514
▁Sha	-9.37538
▁hallitsi	-9.37542
▁kuitenk	-9.37761
▁cm	-9.378
irjallisuutta	-9.37841
▁kerran	-9.37853
▁tarjo	-9.37855
▁laaja	-9.37864
pelaaja	-9.38169
urheilu	-9.38269
▁olleet	-9.38274
yrityks	-9.38354
▁Luo	-9.38389
▁tuke	-9.38546
▁elektroni	-9.38608
▁Gi	-9.38609
▁näytelmä	-9.38704
▁käytetty	-9.38778
tyyppi	-9.38811
▁1980-	-9.39093
käsikirjoittaja	-9.39141
tieteen	-9.39241
ukseen	-9.39325
&	-9.39579
▁1800-	-9.39591
▁maailmansota	-9.39594
rj	-9.39619
▁Kustaa	-9.39719
82	-9.3982
Afrika	-9.39866
▁keksijä	-9.40022
▁näky	-9.40057
▁Krist	-9.40387
palkittu	-9.40462
▁1914	-9.40467
ep	-9.40748
▁mene	-9.40754
▁kansa	-9.40777
viljel	-9.40779
▁diplomaatti	-9.40907
▁johti	-9.4096
▁johon	-9.40968
▁aikaan	-9.40985
▁keskusta	-9.41098
04	-9.41113
Suomen	-9.41121
▁elo	-9.41122
museo	-9.41132
teoria	-9.41258
▁tode	-9.41258
▁Microsoft	-9.41353
▁lääketieteen	-9.41353
▁taajama	-9.41356
▁1923	-9.41357
ström	-9.41357
▁kahden	-9.41375
07	-9.41626
ltään	-9.41676
kuvernööri	-9.41801
▁turva	-9.41859
89	-9.42033
▁Kol	-9.42109
▁Richard	-9.42252
▁tärkei	-9.42252
tuotanto	-9.4226
▁varsin	-9.4237
ioni	-9.42683
Ä	-9.42703
▁säily	-9.42705
grafi	-9.42708
▁tunnettu	-9.42763
▁puoliso	-9.4278
vaihe	-9.42783
96	-9.42891
kirjoitus	-9.42956
▁1934	-9.43162
▁David	-9.43163
▁ehdo	-9.43207
ryhmi	-9.43208
▁tutkimus	-9.43223
▁minkä	-9.43339
▁etu	-9.43443
▁julkaistiin	-9.43616
teatteri	-9.43616
▁Tanska	-9.43628
▁Haapa	-9.43638
pyör	-9.43719
▁paikallis	-9.43936
valmentaja	-9.44075
▁kilometriä	-9.44086
llään	-9.44231
tely	-9.44537
säännö	-9.44543
▁alkaen	-9.4455
02	-9.44721
▁Pel	-9.4474
▁lämpötila	-9.45
avaruus	-9.45003
vaihto	-9.45061
▁vastaava	-9.45065
▁rajoi	-9.4516
▁kilpa	-9.45167
▁Pol	-9.45375
▁yhteen	-9.45415
päällikkö	-9.45463
▁myötä	-9.45475
▁Yksi	-9.45554
suunnitel	-9.45569
lento	-9.4559
▁Tuo	-9.4575
|	-9.45915
▁1927	-9.45934
vali	-9.46094
uksista	-9.46268
rakennus	-9.46404
▁suoj	-9.46583
irlantilai	-9.46872
▁tähtitieteilijä	-9.46893
puolue	-9.4691
▁Maria	-9.46911
▁ilmesty	-9.46932
ham	-9.4728
Yhdysvallat	-9.47346
▁päättyi	-9.4735
▁valittiin	-9.47356
luvulta	-9.47548
▁nimellä	-9.47786
▁1921	-9.47827
▁asukasta	-9.47828
▁1912	-9.47828
▁tähti	-9.47843
▁siten	-9.48104
dor	-9.48181
öljy	-9.483
▁Aleksanteri	-9.483
▁enemmän	-9.483
▁gregoriaanise	-9.483
▁Bri	-9.48308
▁liike	-9.48445
▁kielet	-9.4849
▁linja	-9.48522
▁kaiki	-9.48536
hallitukse	-9.48675
▁Bal	-9.48735
gg	-9.48748
▁jäljellä	-9.48781
▁1935	-9.48785
▁arvioi	-9.48875
▁kyse	-9.48947
rata	-9.48976
▁Joseph	-9.49264
▁merkittävi	-9.49269
▁Leo	-9.49284
▁väh	-9.4951
mmät	-9.49627
▁vero	-9.49709
▁August	-9.4975
tieteelli	-9.4976
▁1919	-9.49769
▁Yli	-9.50161
▁Yhdysvalloissa	-9.50237
▁1913	-9.50242
▁Johannes	-9.50314
▁ydin	-9.50345
tkimusmatkailija	-9.50727
▁pituus	-9.50741
uudet	-9.50857
▁kiinalai	-9.50885
väki	-9.5098
radio	-9.51158
säteily	-9.5122
▁sitten	-9.51235
▁Louis	-9.51253
pro	-9.51452
▁mainit	-9.51482
▁Bro	-9.51506
▁Uude	-9.51536
▁Hall	-9.51546
historioitsija	-9.51715
▁sosiaali	-9.51717
▁herttua	-9.5172
▁osallistu	-9.51732
▁selvi	-9.51809
niemi	-9.51859
▁taka	-9.51962
▁1900-	-9.51992
▁1916	-9.52218
▁siirtyi	-9.52402
▁lopulla	-9.52441
▁edu	-9.52443
▁Portugali	-9.52713
teitä	-9.52817
▁tunnetu	-9.52986
joukot	-9.53142
▁takia	-9.53233
▁nykyisin	-9.53254
▁helpo	-9.53725
solu	-9.53771
▁ensimmäisenä	-9.53966
bert	-9.53978
▁saavut	-9.53985
rakente	-9.54216
▁pyrki	-9.54228
▁kreivi	-9.54228
lähinnä	-9.54307
▁rii	-9.54325
▁pitää	-9.54374
kohd	-9.54399
koski	-9.54435
▁soi	-9.54517
kanava	-9.5455
käsitte	-9.54666
▁suurimma	-9.54674
▁maakunta	-9.54802
ehd	-9.54811
▁ruoka	-9.54849
~	-9.55251
▁yhteydessä	-9.55251
▁1910	-9.55259
▁kuolema	-9.55261
▁samalla	-9.55488
▁pitä	-9.55719
fysiikanpalkinno	-9.55766
▁Wilhelm	-9.55766
▁1908	-9.5577
▁1911	-9.55773
seutu	-9.56341
avu	-9.56358
ohjelmi	-9.56432
IS	-9.56524
▁VI	-9.5658
▁Ensimmäise	-9.56805
▁hyökkä	-9.57091
▁voitti	-9.5725
paino	-9.57301
▁kruunu	-9.57329
kaudella	-9.57346
▁saattaa	-9.57362
▁johtu	-9.57512
▁erittä	-9.57541
yksikö	-9.57676
▁lähellä	-9.57747
▁yhdessä	-9.57855
▁ulottu	-9.57857
▁1907	-9.57858
▁tasavallan	-9.57881
▁liikemies	-9.57887
▁tunnetaan	-9.57898
laulaja	-9.57912
burg	-9.57964
▁1900	-9.58107
▁missä	-9.58108
▁hävi	-9.58366
▁Väestö	-9.58385
▁1901	-9.58389
▁mukana	-9.58422
käyttö	-9.58442
▁nykyään	-9.58483
▁Tra	-9.58522
▁koira	-9.58609
raha	-9.58827
▁lähi	-9.58894
▁Gustaf	-9.58918
yyden	-9.59052
▁vapaut	-9.59095
▁taistelussa	-9.59253
tuott	-9.59268
▁täysi	-9.59466
väylä	-9.59466
aikaise	-9.59604
▁Muut	-9.59988
▁julkaisi	-9.59989
▁Anders	-9.60002
▁Filip	-9.60073
▁Bra	-9.60121
▁viime	-9.60511
standardi	-9.60529
▁Luettelo	-9.60529
▁valtiopäivämies	-9.60529
▁Muita	-9.60529
▁pidetään	-9.60529
ruhtina	-9.6053
▁Laji	-9.60536
▁saira	-9.60571
▁liikku	-9.60711
huone	-9.60782
▁500	-9.60786
▁mahdollista	-9.60855
▁tuki	-9.61067
lahden	-9.61214
▁Francis	-9.61619
[	-9.61619
▁Friedrich	-9.61619
DOS	-9.61621
▁1904	-9.61622
▁johdo	-9.61628
ight	-9.61713
▁valmistui	-9.6202
▁talvi	-9.62149
▁kuningatar	-9.62169
▁sijaan	-9.62176
▁erityis	-9.62289
happo	-9.62353
▁Usei	-9.62431
▁skotlantilai	-9.62721
▁1905	-9.62725
87	-9.62779
▁veden	-9.62809
▁kivi	-9.62965
▁Näi	-9.63015
Oulu	-9.6322
▁aiemmin	-9.63277
▁hyödy	-9.63277
▁tuleva	-9.63339
que	-9.63339
▁kirjallisuus	-9.63352
▁käytännö	-9.63835
▁kolmi	-9.63904
puhelin	-9.63911
harjoit	-9.6396
▁viimeinen	-9.64007
▁olemassa	-9.64012
maksu	-9.6404
▁Peter	-9.6418
hoito	-9.64271
▁jalkapallo	-9.64381
▁Internet	-9.64397
▁kemianpalkinno	-9.64401
▁kokonaan	-9.64419
▁teologi	-9.64492
yttö	-9.64533
▁pyy	-9.64779
oksidi	-9.64822
▁valmistu	-9.64924
upseeri	-9.64962
▁Yhdistyne	-9.64962
▁ainoa	-9.64962
▁1906	-9.64966
▁1915	-9.64969
▁Henry	-9.64973
▁pääkaupunki	-9.65023
▁Albert	-9.65026
aktiivi	-9.65029
▁kulje	-9.65093
▁osavaltio	-9.65102
historia	-9.65388
musiikki	-9.65389
▁siirty	-9.65462
insinööri	-9.6553
▁perusteella	-9.6553
▁vanhemmissa	-9.65592
▁valtiomies	-9.65675
▁erikois	-9.65729
hard	-9.65864
▁Georg	-9.65878
▁Australia	-9.66102
▁etenkin	-9.66104
liikenteen	-9.66224
jakso	-9.66341
▁siis	-9.66531
karkausvuonna	-9.66676
▁kalentereissa	-9.66676
▁pohjoissaamen	-9.66677
hahmo	-9.66759
▁jäi	-9.66811
kirjasto	-9.66964
▁merkitys	-9.66982
▁Cor	-9.67087
▁puolalai	-9.67132
]	-9.67254
▁voimakkaa	-9.67281
▁oikea	-9.67317
▁varten	-9.67695
laitos	-9.67799
▁Bysantin	-9.67836
▁tehdä	-9.67849
▁surmansa	-9.67902
▁Voi	-9.67989
uksella	-9.68078
▁Mc	-9.68084
▁käytettiin	-9.6815
pommi	-9.68294
▁1890	-9.68501
▁1898	-9.68819
▁Lind	-9.68854
▁pitki	-9.68859
▁Yleis	-9.68889
▁1899	-9.68917
▁sveitsiläi	-9.69009
▁Helsinki	-9.69009
▁kerro	-9.69071
▁Heikki	-9.6914
laiva	-9.69205
maailmanmestari	-9.69227
The	-9.69316
▁pop	-9.6933
▁mitä	-9.6937
▁uudis	-9.69433
▁saadaan	-9.69607
muodo	-9.69639
▁elää	-9.69645
▁Com	-9.69842
▁Martin	-9.69885
alueilla	-9.70095
▁lopu	-9.70165
!	-9.70196
▁ISBN	-9.70196
▁kuvanveistäjä	-9.70196
▁Israel	-9.70196
▁yksinkert	-9.70197
▁siinä	-9.70214
▁kupari	-9.70222
▁Valtio	-9.70336
▁vaali	-9.70389
▁silmä	-9.70654
heimo	-9.7071
▁presidentin	-9.70794
▁IBM	-9.70795
▁1903	-9.70798
vaunu	-9.70848
llisten	-9.70885
▁1892	-9.71198
▁Kemi	-9.71395
ž	-9.71397
▁tanskalainen	-9.71397
▁1909	-9.71397
▁katolinen	-9.71397
▁seitsemä	-9.71402
▁uskonno	-9.71407
<	-9.72003
▁tärkeä	-9.72003
▁Mikkeli	-9.72007
lauluntekijä	-9.72008
▁Pluto	-9.7201
sodan	-9.72167
▁joutui	-9.72293
▁Otto	-9.72388
▁suurempi	-9.72445
▁lopussa	-9.72461
▁Michael	-9.72613
kehit	-9.72616
▁rautatie	-9.72651
▁toimiva	-9.7272
▁kohti	-9.73078
neuvo	-9.73199
▁kommunisti	-9.73226
▁uudelleen	-9.73226
▁talvehti	-9.73226
▁teksti	-9.73229
▁Wil	-9.73399
paikoi	-9.73403
▁puhe	-9.73494
sopimus	-9.7375
merkkejä	-9.738
▁Windows	-9.73843
▁hieman	-9.73849
▁viera	-9.739
alueet	-9.73963
▁1895	-9.74365
▁Konstantin	-9.74465
Amerikan	-9.7447
uuri	-9.74898
▁yhtenä	-9.7509
▁Levinneisyys	-9.7509
▁löyty	-9.75098
▁York	-9.75145
ominaisuuksi	-9.75209
▁kohte	-9.75284
▁Ludvig	-9.75719
▁ranniko	-9.7572
▁laivasto	-9.75723
▁nopeasti	-9.75724
▁selkä	-9.7582
▁lämm	-9.7586
▁ominais	-9.76248
▁puolestaan	-9.76352
▁Ravinto	-9.76353
▁käyttämä	-9.76387
▁rauhan	-9.76423
=	-9.76756
muusikko	-9.76756
▁Edward	-9.76988
▁Vaasa	-9.77049
sota	-9.77118
▁ajoi	-9.77212
▁menesty	-9.77341
▁Christ	-9.77596
▁lopulta	-9.77708
rvey	-9.77806
▁Ham	-9.77867
paikall	-9.78002
palkinnon	-9.78087
ksessä	-9.78142
▁melko	-9.7828
▁unioni	-9.78284
▁1887	-9.78583
aalto	-9.78773
toimittaja	-9.78785
joukko	-9.78788
▁pääasiassa	-9.78924
▁risti	-9.78933
▁runsa	-9.78964
rauha	-9.79076
▁alueelle	-9.79157
mestari	-9.79415
▁surma	-9.7953
▁kapellimestari	-9.79578
▁Maailman	-9.79578
▁tehty	-9.7958
▁vanhin	-9.79584
liikente	-9.79584
▁Str	-9.79622
▁vesistö	-9.79645
alueita	-9.80125
▁Erik	-9.80218
ç	-9.80235
▁rakennettiin	-9.80235
▁Pietari	-9.80236
▁juuri	-9.8024
▁ravinto	-9.80241
▁avattiin	-9.80253
▁virallise	-9.80256
uksiin	-9.80345
▁Norjan	-9.80378
−	-9.80898
▁Kanada	-9.80906
▁onnistu	-9.80978
▁musiikin	-9.81049
▁yksityis	-9.81087
▁hiili	-9.81154
▁ilmoitti	-9.81564
▁tavataan	-9.81592
kesäkuu	-9.8165
Korea	-9.81918
▁Hol	-9.8214
suunnittelija	-9.82236
▁Neuvostoliiton	-9.82236
▁kulkee	-9.82237
||	-9.8225
▁viiden	-9.82758
musiiki	-9.82764
▁varsinai	-9.82892
▁seurauksena	-9.82917
▁maailmansodan	-9.82934
▁kuninkaan	-9.82942
▁Linnu	-9.8306
ttänyt	-9.83113
–17	-9.83281
▁1882	-9.83318
linnut	-9.83379
▁kirkkoherra	-9.83592
▁rauta	-9.83709
roomalaise	-9.83712
ajien	-9.83749
▁laulu	-9.83937
Kalifornia	-9.84276
▁Kaupungi	-9.84276
▁ruotsi	-9.84277
▁pianisti	-9.8428
video	-9.84609
liiton	-9.84711
▁1902	-9.8497
▁monet	-9.8502
▁alkuaine	-9.85081
elokuva	-9.85139
▁Uusi	-9.85143
▁Bru	-9.85169
▁Adolf	-9.8566
▁julkaistu	-9.8566
▁venäläis	-9.8566
▁Seuraava	-9.85661
▁1893	-9.85661
▁neliö	-9.85665
alismi	-9.85871
keino	-9.86039
▁keskitty	-9.86147
joulukuu	-9.86343
syyskuu	-9.86357
>	-9.8636
▁Lisääntymi	-9.8636
▁sisältää	-9.86361
markkinoi	-9.86362
kuljettaja	-9.86367
▁yhä	-9.86368
Unkari	-9.86458
▁käyttävä	-9.86511
▁kansalais	-9.8652
Suomessa	-9.86587
▁syntyneet	-9.86601
taloustieteilijä	-9.86614
▁1896	-9.8677
kreik	-9.86876
maaliskuu	-9.87042
▁muutama	-9.87048
°	-9.87064
▁Sähkö	-9.87064
▁miljardi	-9.87064
▁ilme	-9.87215
suojelu	-9.87224
▁1889	-9.87477
ikot	-9.87585
▁viimeise	-9.87616
▁syksy	-9.87774
▁muodostavat	-9.87778
▁2023	-9.87807
▁niistä	-9.87888
poliitikko	-9.88074
▁kansainvälise	-9.88078
ministeriö	-9.88105
▁asukkai	-9.88329
▁Egypti	-9.88488
▁määritelmä	-9.88488
▁hyönteis	-9.88488
▁kärsi	-9.88491
▁ritari	-9.88496
▁verran	-9.88521
▁termi	-9.88581
▁järjestä	-9.88734
saame	-9.88959
▁pinna	-9.89046
▁yhdistä	-9.89207
▁siellä	-9.89337
▁teokse	-9.89339
▁Vanha	-9.89392
▁kemia	-9.89676
▁kahdeksa	-9.89932
▁Yrjö	-9.89932
▁tehtävä	-9.89932
▁Hämeen	-9.89933
▁mikro	-9.89934
▁Ahven	-9.89939
▁rooli	-9.89975
▁antoi	-9.89983
▁pienempi	-9.90014
engl	-9.90241
tekniika	-9.90379
▁sini	-9.9042
▁ooppera	-9.90655
▁Kansainväli	-9.90662
liittolainen	-9.90885
▁lokakuu	-9.90913
▁1891	-9.91142
▁mitat	-9.91227
▁etsi	-9.91369
demokraatti	-9.91397
▁pesimä	-9.91437
kyky	-9.91607
misestä	-9.91658
▁Berg	-9.91717
▁polttoaine	-9.92138
kenttä	-9.92329
▁miljoona	-9.92425
▁istu	-9.9246
laitokse	-9.92811
heinäkuu	-9.92861
▁kitaristi	-9.92884
è	-9.92884
amiraali	-9.92884
▁koomikko	-9.92884
▁osoitta	-9.92885
▁Daniel	-9.92887
tekniikka	-9.9292
kuninka	-9.92923
aktivisti	-9.93636
prosess	-9.93716
▁saapui	-9.93721
▁alusta	-9.94047
▁tumma	-9.94251
▁tunte	-9.94273
▁Alfred	-9.94393
kauppias	-9.94394
albumi	-9.94413
vaikuttaja	-9.94478
tekni	-9.94491
tarkast	-9.945
teltiin	-9.95027
saaret	-9.95071
▁harmaa	-9.95152
virran	-9.95153
▁Mannerheim	-9.95157
▁australialai	-9.95157
▁Jyväskylä	-9.95157
▁1600-	-9.95163
▁rauhanpalkinnon	-9.95163
omistaja	-9.95212
▁Vanhi	-9.95219
▁tunne	-9.9558
luonno	-9.95864
▁Tällöin	-9.95926
Mongolia	-9.95926
▁kuninkaaksi	-9.95926
▁kuukautta	-9.95927
▁tehtiin	-9.95927
▁Samuel	-9.95928
puheenjohtaja	-9.95931
▁ettei	-9.95936
▁matkustaja	-9.95938
hjelm	-9.95988
▁hallitus	-9.95989
▁yhteensä	-9.96007
▁aluksi	-9.96179
tietokone	-9.96674
▁ruotsalais	-9.96701
sivusto	-9.96705
▁1700-	-9.96713
▁Intel	-9.96726
sodassa	-9.96731
▁kirkonkylä	-9.96743
▁varhais	-9.96779
▁toimintaa	-9.96972
vyöhykke	-9.97482
▁ensimmäistä	-9.97482
▁ulkonäkö	-9.97482
▁kiinni	-9.97508
▁maksa	-9.97517
▁Pohjan	-9.97986
tulk	-9.97987
yhteis	-9.98217
▁Gabriel	-9.9827
valtuusto	-9.98272
▁Lähi	-9.98275
▁tavallisesti	-9.98275
ilmiö	-9.98278
▁tanssi	-9.98286
▁Christian	-9.98313
sääntö	-9.98316
▁Pariisi	-9.98316
▁Frank	-9.98337
▁huomattavasti	-9.98347
▁jonkin	-9.98393
▁kilometrin	-9.98408
▁800	-9.98449
Ö	-9.99063
▁hallitse	-9.99064
reaktori	-9.99064
▁useimmi	-9.99184
▁esitetty	-9.99208
▁oik	-9.99822
luutnantti	-9.99863
▁vähintään	-9.99864
tiheys	-9.99866
Aasiassa	-9.99867
▁osuus	-9.99906
▁yleisesti	-9.99951
kulttuuri	-10.0016
nopeus	-10.0046
▁synny	-10.0071
▁ammatti	-10.0071
▁tavalla	-10.0076
päätöks	-10.0078
▁jakautu	-10.0083
▁vastusta	-10.0093
▁Afrikan	-10.0095
pääosin	-10.0104
kasvu	-10.014
▁Kristiina	-10.0149
▁oopperalaulaja	-10.0149
▁Jaakko	-10.015
lause	-10.0152
kaupunki	-10.016
▁Suure	-10.0161
suhtei	-10.0173
pohja	-10.0177
ksesta	-10.0194
▁Liikenne	-10.023
▁kolmanne	-10.023
▁Naaras	-10.023
▁tytär	-10.0231
▁runsaasti	-10.0231
▁edeltä	-10.0233
▁metriä	-10.0239
(	-10.0255
▁meteor	-10.0288
▁yhdisty	-10.0311
▁tullut	-10.0313
▁Metsä	-10.0314
▁ohjelmisto	-10.0314
▁määritellä	-10.0316
▁salli	-10.0317
vyys	-10.0325
media	-10.0389
▁Vilhelm	-10.0396
▁valloitti	-10.0396
▁Elinympäristö	-10.0396
▁vuodel	-10.0397
luterilai	-10.0398
Vietnam	-10.0398
▁matala	-10.0406
▁rock	-10.0406
metalli	-10.0439
▁unkarilainen	-10.048
▁vallankumoukse	-10.048
▁löysi	-10.048
▁puolustus	-10.048
laakso	-10.0482
▁kehitti	-10.0483
▁takaisin	-10.0484
käsittely	-10.0487
sopimuksen	-10.0553
?	-10.0565
julkaisu	-10.0565
▁Helsingissä	-10.0565
▁vaakuna	-10.0565
▁USB	-10.0565
▁kuollee	-10.0565
▁Jumala	-10.057
▁johto	-10.058
▁lentä	-10.0581
▁Aadolf	-10.065
▁Ferdinand	-10.065
▁julisti	-10.0651
▁Keskus	-10.0652
▁näkö	-10.0653
▁Aluee	-10.0657
▁kunnia	-10.0667
kulku	-10.0673
käyttöjärjestelm	-10.0705
tiedot	-10.0726
▁Kulttuuri	-10.0737
▁yhdysvaltalais	-10.0737
▁vuosittain	-10.0738
▁liittyvä	-10.0783
jalka	-10.0795
liitetty	-10.0809
▁kolmas	-10.0824
poliittise	-10.0825
tavissa	-10.0877
▁Emil	-10.088
kilometri	-10.0894
▁Napoleon	-10.0911
▁ottamatta	-10.0911
Å	-10.0911
▁heidän	-10.0911
▁Varsinais	-10.0911
▁Osmani	-10.0911
talouden	-10.0913
sihteeri	-10.1
▁seksuaali	-10.1
▁viulisti	-10.1
▁Nikolai	-10.1001
▁arabi	-10.1001
niemen	-10.1006
lehden	-10.1017
ongelmi	-10.1065
lentäjä	-10.1074
▁alumiini	-10.1089
▁galaksi	-10.1089
▁yrittä	-10.1092
kunnasta	-10.1101
Pohjanmaa	-10.1122
▁West	-10.1129
Norja	-10.1153
reuna	-10.1169
▁Alexander	-10.1179
▁sulttaani	-10.1179
▁ansiosta	-10.1179
▁normaali	-10.1179
▁mennessä	-10.1179
▁1874	-10.1179
▁peräisin	-10.118
▁ainoastaan	-10.118
▁naaras	-10.118
tiedosto	-10.118
▁kulkeva	-10.1181
▁Itse	-10.1197
kirkko	-10.1258
▁rakennettu	-10.127
▁vaihtelee	-10.127
▁Mikael	-10.1271
▁Jakob	-10.1272
▁solmi	-10.1272
▁poliisi	-10.1276
Aasian	-10.1278
vastus	-10.13
uhta	-10.1317
▁portugalilai	-10.132
toiminnan	-10.1345
urheilija	-10.1362
miehen	-10.1364
▁tasavalta	-10.1367
▁Nykyisin	-10.1368
tarpee	-10.1373
▁kiertä	-10.1376
▁Tapahtu	-10.14
▁roomalai	-10.1439
▁Yhdysvaltoj	-10.1454
▁belgialai	-10.1454
▁Edvard	-10.1455
▁viittaa	-10.1459
▁muinais	-10.146
virasto	-10.1461
▁siiv	-10.1466
▁kreikkalais	-10.1548
▁taloudelli	-10.1548
▁Neuvostoliitto	-10.1549
▁Eerik	-10.1553
yhteys	-10.1642
reaktio	-10.1642
▁Smith	-10.1643
artisti	-10.1648
▁Inari	-10.1661
Lontoo	-10.1703
Savon	-10.1731
*	-10.1738
▁argentiinalai	-10.1738
▁toisistaan	-10.1738
▁maaherra	-10.1738
▁jumala	-10.1738
▁tekee	-10.1738
▁Pierre	-10.1738
▁uraani	-10.1741
▁luonnolli	-10.1764
▁huolimatta	-10.1834
▁myrky	-10.1834
tekijöi	-10.1834
▁jälleen	-10.1834
▁mukaisesti	-10.1834
▁Talous	-10.1835
esimerkiksi	-10.1848
▁Aleksandr	-10.1931
▁HTML	-10.1931
▁Aurinko	-10.1931
▁1867	-10.1931
▁eversti	-10.1931
▁osittain	-10.1931
▁kääntäjä	-10.1931
▁Monet	-10.1942
▁lähti	-10.1955
kaltai	-10.2001
projekti	-10.2029
▁vuodessa	-10.2029
element	-10.2031
▁tuottaa	-10.2032
▁Kansallis	-10.2032
▁lapsi	-10.2038
tuomari	-10.2052
▁seuraavi	-10.2054
ook	-10.208
eettinen	-10.2098
suomalais	-10.2125
marraskuu	-10.2126
▁arkkipiispa	-10.2128
▁digitaali	-10.2128
▁selvästi	-10.2128
ratkaisu	-10.2128
▁sävel	-10.2129
▁tekemä	-10.2132
▁Lauri	-10.2137
Karjala	-10.2172
kriitikko	-10.2228
▁sotamarsalkka	-10.2228
▁virkamies	-10.2228
▁Poikase	-10.2229
▁kierto	-10.2229
sekoit	-10.2258
kriisi	-10.228
▁vaihd	-10.2293
▁Ptolemaios	-10.2329
▁Washington	-10.2329
▁tarkoitetaan	-10.2329
▁Adam	-10.2332
▁saaristo	-10.2333
▁Simon	-10.2353
Š	-10.2431
▁Myöhemmin	-10.2431
todennäköi	-10.2431
▁urkuri	-10.2431
▁ohella	-10.2432
omponent	-10.2433
▁uima	-10.2443
%	-10.2476
vahvist	-10.2522
materiaali	-10.2534
menetelmä	-10.2534
häiriö	-10.2534
▁yleinen	-10.2534
▁pidettiin	-10.2534
hoitaja	-10.2537
▁munii	-10.2538
▁neutr	-10.2547
ketju	-10.2552
▁edelli	-10.2559
▁naapuri	-10.2567
▁Web	-10.2567
▁tammikuu	-10.259
käynti	-10.2596
▁virolai	-10.2618
▁keskimäärin	-10.2638
▁rengastettu	-10.2638
▁XII	-10.2638
lyhenne	-10.2638
kapteeni	-10.2638
Gregor	-10.2638
tehdas	-10.2639
▁pääsiäis	-10.2642
kokoelma	-10.2655
▁Tällai	-10.2673
piirtei	-10.2677
→	-10.2743
▁Oulunkylä	-10.2743
▁tarkoitettu	-10.2743
▁terveys	-10.2743
sosialisti	-10.2744
▁huomio	-10.2753
kauppa	-10.2807
ā	-10.285
▁Eisenhower	-10.285
▁Ludwig	-10.285
▁GNU	-10.285
▁1872	-10.285
▁aikaisemmin	-10.285
näyttelijä	-10.2918
▁Lintumies	-10.2957
▁koripalloilija	-10.2957
▁verrattuna	-10.2957
▁VIII	-10.2957
signaali	-10.2957
oikeudet	-10.2957
▁tarkoitukse	-10.2957
▁1871	-10.2957
▁uhka	-10.296
▁Meksiko	-10.296
▁ollessa	-10.2961
ävy	-10.2975
▁Petr	-10.2999
▁kansainvälis	-10.3019
International	-10.3066
Yhdistynyt	-10.3066
▁kansainvälinen	-10.3066
▁poliittinen	-10.3066
▁pyrstö	-10.3066
▁markkina	-10.3066
▁juutalais	-10.3066
▁kielten	-10.3066
▁hopea	-10.3067
▁matkust	-10.3068
kaupan	-10.3159
uhlapäiviä	-10.3176
▁evankelis	-10.3176
▁löydetty	-10.3176
▁vallankumous	-10.3176
saarnaaja	-10.3176
▁prinssi	-10.3176
▁Päivä	-10.3176
▁muistuttaa	-10.3176
▁kaikke	-10.3177
pääsky	-10.318
▁velje	-10.3211
▁kirjaime	-10.3213
▁intialai	-10.3234
▁huhtikuu	-10.3239
steroid	-10.3244
henkilö	-10.3263
▁Vladimir	-10.3287
▁Einstein	-10.3287
▁Theodor	-10.3287
merkistö	-10.3287
▁Moskova	-10.3287
▁rehtori	-10.3287
▁itsenäistyi	-10.3288
▁uutis	-10.3297
▁kaupalli	-10.3305
▁sittem	-10.3315
▁tšekkiläi	-10.3399
▁diktaattori	-10.3399
▁senttimetriä	-10.3399
▁poikkea	-10.3399
Afrikka	-10.3399
▁Arthur	-10.3399
▁välein	-10.34
▁Jacob	-10.34
▁suhteen	-10.34
▁Victor	-10.34
▁aikuis	-10.34
▁Viime	-10.3402
▁romaani	-10.3402
juontaja	-10.3403
▁Gustav	-10.3412
qui	-10.3459
▁helmikuu	-10.3465
olympiamitalisti	-10.3513
▁Heinrich	-10.3513
▁Iisalme	-10.3513
▁Preussi	-10.3513
▁1809	-10.3513
▁arvioidaan	-10.3513
▁1862	-10.3513
poikkeuks	-10.3513
▁väkiluku	-10.3514
matriisi	-10.3515
▁kestää	-10.3515
▁Viktor	-10.3516
Uudenmaan	-10.3521
▁mahdollisest	-10.3538
tunnukse	-10.3567
kappale	-10.3621
▁määritelty	-10.3628
▁tarvitse	-10.3628
▁vähemmän	-10.3628
persoona	-10.3628
symboli	-10.3628
▁sosiologi	-10.3628
taajuus	-10.3628
pitois	-10.363
▁tarkoitta	-10.363
▁vähentä	-10.3633
▁tyhj	-10.3639
▁tarvitt	-10.3639
Q	-10.3742
▁yhdys	-10.3744
▁tällöin	-10.3744
É	-10.3744
▁ongelma	-10.3748
▁kartano	-10.3752
▁kerää	-10.3776
▁yksittäi	-10.3785
▁käyttäyty	-10.3862
▁prinsessa	-10.3862
▁tennispelaaja	-10.3862
▁Irlanni	-10.3862
▁aurinko	-10.3862
vaihtelu	-10.3863
▁tappio	-10.3863
▁Scott	-10.3863
▁elävä	-10.3869
▁niemimaa	-10.3873
hyökkäyks	-10.3916
tuote	-10.3955
▁pyhimys	-10.3981
teknologia	-10.3981
▁vanhempi	-10.3981
kansleri	-10.3981
▁ruskea	-10.3981
▁kiinnost	-10.3982
yhdistys	-10.3984
tunturi	-10.3989
ohjelmointi	-10.4008
▁siirrettiin	-10.4101
▁tähän	-10.4102
▁tehdy	-10.4102
▁järjestettiin	-10.4102
▁autonomi	-10.4103
▁merkitykse	-10.4105
▁edes	-10.4191
molekyyli	-10.4223
▁Englanti	-10.4223
▁Jacques	-10.4223
▁dokument	-10.4223
▁suhteellise	-10.4223
▁vuorokautta	-10.4223
▁Ernst	-10.4223
▁toimitusjohtaja	-10.4223
▁käytettävä	-10.4223
▁määrittele	-10.4223
joukkue	-10.4223
▁kiinteä	-10.4224
▁helium	-10.4224
▁ehkä	-10.4224
▁tarkoitus	-10.4224
mpänä	-10.4226
▁Michel	-10.4231
▁Ihmis	-10.426
järjestykse	-10.4265
▁Giovanni	-10.4347
▁luettelo	-10.4347
protokolla	-10.4347
▁lähtö	-10.4347
▁ihminen	-10.4347
▁noudat	-10.4347
▁aakkos	-10.4348
▁Philip	-10.4351
Z	-10.4638
ł	-10.4856
ū	-10.5256
ć	-10.5256
Á	-10.5393
ø	-10.5393
ī	-10.5816
#	-10.6563
·	-10.7039
ã	-10.7039
ú	-10.7711
×	-10.901
ñ	-10.901
•	-10.9414
õ	-10.9414
—	-10.9622
ë	-11.0734
ì	-11.0972
à	-11.0972
}	-11.1986
{	-11.1986
æ	-11.1986
č	-11.3114
Ž	-11.3114
帝	-11.3417
α	-11.3729
е	-11.4385
ē	-11.4385
а	-11.473
о	-11.473
с	-11.473
â	-11.473
′	-11.5087
周	-11.5087
§	-11.5087
ô	-11.5087
и	-11.5457
王	-11.5457
μ	-11.6242
$	-11.6659
н	-11.7548
ě	-11.7548
ò	-11.7548
λ	-11.7548
\	-11.7548
р	-11.8024
ǎ	-11.8024
π	-11.8024
_	-11.8524
ο	-11.905
ǔ	-11.9606
φ	-11.9606
ý	-11.9606
к	-12.0194
ř	-12.0194
ă	-12.0194
€	-12.0194
@	-12.0194
ê	-12.0194
ù	-12.0194
ə	-12.0819
ᅵ	-12.0819
†	-12.0819
ǐ	-12.1486
ρ	-12.1486
子	-12.1486
ʻ	-12.1486
т	-12.1486
ا	-12.1486
ï	-12.22
л	-12.22
î	-12.22
ņ	-12.2969
ŋ	-12.2969
Δ	-12.2969
γ	-12.2969
ı	-12.2969
Ø	-12.2969
у	-12.3803
й	-12.3803
ð	-12.3803
ß	-12.3803
ς	-12.3803
в	-12.3803
м	-12.4712
±	-12.4712
ș	-12.4712
́	-12.4712
ل	-12.4712
南	-12.4712
ş	-12.4712
Æ	-12.4712
ي	-12.5712
β	-12.5712
г	-12.6823
ε	-12.6823
ő	-12.6823
ɡ	-12.6823
σ	-12.6823
≤	-12.6823
中	-12.6823
太	-12.6823
家	-12.6823
部	-12.6823
ν	-12.6823
ь	-12.6823
ι	-12.8073
я	-12.8073
民	-12.8073
Ω	-12.8073
丁	-12.8073
国	-12.8073
甲	-12.8073
Ō	-12.8073
^	-12.8073
Ó	-12.8073
б	-12.9502
ч	-12.9502
小	-12.9502
ب	-12.9502
ᅩ	-12.9502
ᅮ	-12.9502
‎	-12.9502
人	-12.9502
文	-12.9502
级	-12.9502
道	-12.9502
đ	-12.9502
县	-12.9502
省	-12.9502
κ	-12.9502
ن	-12.9502
υ	-13.1168
Р	-13.1168
з	-13.1168
ŏ	-13.1168
三	-13.1168
安	-13.1168
ğ	-13.1168
ŭ	-13.1168
区	-13.1168
君	-13.1168
庚	-13.1168
月	-13.1168
音	-13.1168
η	-13.1168
С	-13.1168
ح	-13.1168
字	-13.1168
都	-13.1168
п	-13.1168
ę	-13.1168
א	-13.1168
ά	-13.3168
х	-13.3168
ы	-13.3168
Ā	-13.3168
村	-13.3168
自	-13.3168
Î	-13.3168
ɑ	-13.3168
ᅢ	-13.3168
ᅦ	-13.3168
上	-13.3168
乙	-13.3168
史	-13.3168
唐	-13.3168
國	-13.3168
辛	-13.3168
음	-13.3168
ǒ	-13.3168
ÿ	-13.3168
ί	-13.3168
ر	-13.3168
‘	-13.3168
д	-13.3168
Ú	-13.3168
œ	-13.5668
ż	-13.5668
ή	-13.5668
Г	-13.5668
ш	-13.5668
Þ	-13.5668
平	-13.5668
`	-13.5668
ǟ	-13.5668
ᄀ	-13.5668
ᄂ	-13.5668
ᄆ	-13.5668
ᄉ	-13.5668
ᄒ	-13.5668
ᅳ	-13.5668
ế	-13.5668
ọ	-13.5668
≈	-13.5668
兵	-13.5668
大	-13.5668
旗	-13.5668
日	-13.5668
星	-13.5668
木	-13.5668
法	-13.5668
秦	-13.5668
苏	-13.5668
語	-13.5668
Ð	-13.5668
東	-13.5668
汉	-13.5668
ʒ	-13.5668
ت	-13.5668
ḥ	-13.5668
Ε	-13.5668
מ	-13.5668
Ü	-13.5668
ф	-13.9002
э	-13.9002
і	-13.9002
ُ	-13.9002
ʹ	-13.9002
德	-13.9002
»	-13.9002
ħ	-13.9002
ļ	-13.9002
ů	-13.9002
ɣ	-13.9002
ʂ	-13.9002
ː	-13.9002
έ	-13.9002
ف	-13.9002
م	-13.9002
ᄃ	-13.9002
ᄇ	-13.9002
ᄌ	-13.9002
ᄎ	-13.9002
ᄏ	-13.9002
ᄐ	-13.9002
ᄑ	-13.9002
ᅣ	-13.9002
ᅤ	-13.9002
ᅧ	-13.9002
ᅨ	-13.9002
ᅪ	-13.9002
ᅫ	-13.9002
ᅬ	-13.9002
ᅭ	-13.9002
ᅯ	-13.9002
ᅰ	-13.9002
ᅱ	-13.9002
ᅲ	-13.9002
ᅴ	-13.9002
ḑ	-13.9002
ạ	-13.9002
←	-13.9002
∈	-13.9002
≡	-13.9002
下	-13.9002
东	-13.9002
主	-13.9002
乡	-13.9002
会	-13.9002
使	-13.9002
元	-13.9002
士	-13.9002
外	-13.9002
委	-13.9002
孙	-13.9002
宗	-13.9002
居	-13.9002
州	-13.9002
市	-13.9002
府	-13.9002
律	-13.9002
政	-13.9002
方	-13.9002
晉	-13.9002
武	-13.9002
相	-13.9002
语	-13.9002
韓	-13.9002
饭	-13.9002
魏	-13.9002
ư	-13.9002
地	-13.9002
ŗ	-13.9002
ω	-13.9002
θ	-13.9002
ц	-13.9002
天	-13.9002
Õ	-13.9002
þ	-13.9002
י	-13.9002
ת	-13.9002
Í	-13.9002
Ç	-13.9002
û	-13.9002
ķ	-14.4002
Μ	-14.4002
В	-14.4002
ж	-14.4002
分	-14.4002
组	-14.4002
ą	-14.4002
河	-14.4002
阳	-14.4002
¤	-14.4002
À	-14.4002
ė	-14.4002
ţ	-14.4002
ț	-14.4002
ȯ	-14.4002
ɛ	-14.4002
ɸ	-14.4002
ʋ	-14.4002
Γ	-14.4002
Φ	-14.4002
Ψ	-14.4002
Б	-14.4002
Ж	-14.4002
Н	-14.4002
щ	-14.4002
ъ	-14.4002
ӓ	-14.4002
ӣ	-14.4002
Ӧ	-14.4002
ة	-14.4002
د	-14.4002
ع	-14.4002
ు	-14.4002
า	-14.4002
้	-14.4002
ᄁ	-14.4002
ᄄ	-14.4002
ᄈ	-14.4002
ᄊ	-14.4002
ᄍ	-14.4002
ẽ	-14.4002
⇒	-14.4002
∞	-14.4002
♦	-14.4002
。	-14.4002
》	-14.4002
一	-14.4002
义	-14.4002
书	-14.4002
代	-14.4002
令	-14.4002
公	-14.4002
刺	-14.4002
十	-14.4002
后	-14.4002
吴	-14.4002
土	-14.4002
壬	-14.4002
头	-14.4002
奴	-14.4002
妈	-14.4002
孟	-14.4002
恩	-14.4002
成	-14.4002
我	-14.4002
承	-14.4002
春	-14.4002
書	-14.4002
朝	-14.4002
松	-14.4002
林	-14.4002
楚	-14.4002
水	-14.4002
汤	-14.4002
海	-14.4002
漢	-14.4002
烈	-14.4002
燕	-14.4002
田	-14.4002
电	-14.4002
盟	-14.4002
盤	-14.4002
社	-14.4002
策	-14.4002
節	-14.4002
義	-14.4002
行	-14.4002
话	-14.4002
趙	-14.4002
车	-14.4002
辖	-14.4002
镇	-14.4002
陽	-14.4002
难	-14.4002
鸭	-14.4002
齊	-14.4002
아	-14.4002
Я	-14.4002
司	-14.4002
Κ	-14.4002
ج	-14.4002
¡	-14.4002
È	-14.4002
÷	-14.4002
이	-15.3924
응	-15.3925
體	-15.3926
馆	-15.3927
藩	-15.3928
简	-15.3929
督	-15.393
疏	-15.3931
沃	-15.3932
是	-15.3933
族	-15.3934
戰	-15.3935
战	-15.3936
慎	-15.3937
川	-15.3938
尚	-15.3939
她	-15.394
夫	-15.3941
员	-15.3942
吳	-15.3943
《	-15.3944
ị	-15.3945
פ	-15.3946
ט	-15.3947
Ӓ	-15.3948
Ф	-15.3949
Т	-15.395
О	-15.3951
Д	-15.3952
А	-15.3953
δ	-15.3954
Χ	-15.3955
̈	-15.3956
̄	-15.3957
ɻ	-15.3958
ǜ	-15.3959
ơ	-15.396
Ż	-15.3961
﻿	-15.3962
百	-15.3963
治	-15.3964
殷	-15.3965
曜	-15.3966
御	-15.3967
定	-15.3968
孫	-15.3969
五	-15.397
Л	-15.3971
К	-15.3972
Е	-15.3973
Ś	-15.3974
里	-15.3975
二	-15.3976
ᄅ	-15.3977
و	-15.3978
ל	-15.3979
П	-15.398
М	-15.3981
祖	-15.3982
ệ	-15.3983
ό	-15.3984
Č	-15.3985
化	-15.3986
​	-15.3987
ễ	-15.3988
ו	-15.3989
Ş	-15.399
Ł	-15.3991
İ	-15.3992
‐	-15.3993
ᅥ	-15.3994
ᅡ	-15.3995
Đ	-15.3996
τ	-15.3997
ś	-15.3998
ᄋ	-15.3999
Ə	-15.4
“	-15.4001
І	-15.4001
į	-15.4001
ʁ	-15.4001
Σ	-15.4001
ׁ	-15.4001
ב	-15.4001
ג	-15.4001
ר	-15.4001
ً	-15.4001
ْ	-15.4001
थ	-15.4001
ᐃ	-15.4001
ᑦ	-15.4001
ᔭ	-15.4001
ὠ	-15.4001
力	-15.4001
動	-15.4001
志	-15.4001
散	-15.4001
略	-15.4001
린	-15.4001
여	-15.4001
히	-15.4001
Ħ	-15.4002
ү	-15.4002
ồ	-15.4002
纵	-15.4002
門	-15.4002
關	-15.4002
门	-15.4002
선	-15.4002
조	-15.4002
Ϝ	-15.4002
♥	-15.4002
旬	-15.4002
毛	-15.4002
¢	-15.4002
£	-15.4002
¥	-15.4002
¦	-15.4002
©	-15.4002
«	-15.4002
¬	-15.4002
®	-15.4002
¶	-15.4002
¿	-15.4002
Â	-15.4002
Ï	-15.4002
Ñ	-15.4002
Ý	-15.4002
ĉ	-15.4002
Ē	-15.4002
ĝ	-15.4002
ġ	-15.4002
ĥ	-15.4002
Ī	-15.4002
ĵ	-15.4002
Ļ	-15.4002
Ņ	-15.4002
ň	-15.4002
Ő	-15.4002
Ŗ	-15.4002
ŝ	-15.4002
Ţ	-15.4002
Ū	-15.4002
ź	-15.4002
Ǟ	-15.4002
ǩ	-15.4002
Ȭ	-15.4002
ȭ	-15.4002
Ȯ	-15.4002
Ȱ	-15.4002
ȱ	-15.4002
ɕ	-15.4002
ɟ	-15.4002
ɢ	-15.4002
ɱ	-15.4002
ɲ	-15.4002
ʃ	-15.4002
ʌ	-15.4002
ʎ	-15.4002
ʕ	-15.4002
ʼ	-15.4002
̧	-15.4002
͡	-15.4002
Α	-15.4002
ζ	-15.4002
ξ	-15.4002
ύ	-15.4002
ώ	-15.4002
Ё	-15.4002
Ј	-15.4002
З	-15.4002
И	-15.4002
Й	-15.4002
У	-15.4002
Х	-15.4002
Ц	-15.4002
Ч	-15.4002
Ш	-15.4002
Щ	-15.4002
Ъ	-15.4002
Ы	-15.4002
Ь	-15.4002
Э	-15.4002
Ю	-15.4002
ю	-15.4002
ё	-15.4002
ј	-15.4002
ў	-15.4002
Ѣ	-15.4002
ѣ	-15.4002
Ҍ	-15.4002
ҍ	-15.4002
Ҏ	-15.4002
ҏ	-15.4002
Ӆ	-15.4002
ӆ	-15.4002
Ӈ	-15.4002
ӈ	-15.4002
Ӊ	-15.4002
ӊ	-15.4002
Ӎ	-15.4002
ӎ	-15.4002
Ӣ	-15.4002
ӧ	-15.4002
Ӭ	-15.4002
ӭ	-15.4002
ִ	-15.4002
ַ	-15.4002
ָ	-15.4002
ח	-15.4002
נ	-15.4002
ש	-15.4002
أ	-15.4002
إ	-15.4002
خ	-15.4002
ز	-15.4002
س	-15.4002
ظ	-15.4002
غ	-15.4002
ه	-15.4002
ِ	-15.4002
द	-15.4002
र	-15.4002
व	-15.4002
ा	-15.4002
े	-15.4002
గ	-15.4002
త	-15.4002
ల	-15.4002
ె	-15.4002
ค	-15.4002
ง	-15.4002
ต	-15.4002
ม	-15.4002
ห	-15.4002
อ	-15.4002
ํ	-15.4002
ᄝ	-15.4002
ᄫ	-15.4002
ᄬ	-15.4002
ᅀ	-15.4002
ᅌ	-15.4002
ᅗ	-15.4002
ᅘ	-15.4002
ᅙ	-15.4002
ᆞ	-15.4002
ᆡ	-15.4002
ᓄ	-15.4002
Ḑ	-15.4002
ṇ	-15.4002
ṣ	-15.4002
ẓ	-15.4002
ẗ	-15.4002
ả	-15.4002
ấ	-15.4002
ầ	-15.4002
ắ	-15.4002
ỗ	-15.4002
ộ	-15.4002
ợ	-15.4002
ứ	-15.4002
ữ	-15.4002
ỳ	-15.4002
ῶ	-15.4002
‒	-15.4002
‰	-15.4002
≠	-15.4002
≥	-15.4002
⎓	-15.4002
♠	-15.4002
♣	-15.4002
、	-15.4002
「	-15.4002
」	-15.4002
『	-15.4002
』	-15.4002
は	-15.4002
へ	-15.4002
を	-15.4002
゙	-15.4002
゚	-15.4002
丙	-15.4002
丢	-15.4002
两	-15.4002
丶	-15.4002
九	-15.4002
井	-15.4002
交	-15.4002
京	-15.4002
亳	-15.4002
亶	-15.4002
亻	-15.4002
仲	-15.4002
伊	-15.4002
休	-15.4002
儒	-15.4002
全	-15.4002
六	-15.4002
兰	-15.4002
共	-15.4002
冀	-15.4002
冈	-15.4002
册	-15.4002
切	-15.4002
刑	-15.4002
匡	-15.4002
华	-15.4002
卷	-15.4002
卿	-15.4002
历	-15.4002
原	-15.4002
友	-15.4002
受	-15.4002
口	-15.4002
台	-15.4002
吃	-15.4002
合	-15.4002
吏	-15.4002
和	-15.4002
員	-15.4002
唇	-15.4002
商	-15.4002
啟	-15.4002
喉	-15.4002
嘎	-15.4002
嘗	-15.4002
嚣	-15.4002
囂	-15.4002
圆	-15.4002
圻	-15.4002
块	-15.4002
基	-15.4002
堅	-15.4002
契	-15.4002
女	-15.4002
好	-15.4002
威	-15.4002
孔	-15.4002
宇	-15.4002
宋	-15.4002
宰	-15.4002
察	-15.4002
寺	-15.4002
尔	-15.4002
尹	-15.4002
岡	-15.4002
岭	-15.4002
崱	-15.4002
嶺	-15.4002
工	-15.4002
己	-15.4002
师	-15.4002
師	-15.4002
席	-15.4002
广	-15.4002
康	-15.4002
廣	-15.4002
廩	-15.4002
开	-15.4002
式	-15.4002
影	-15.4002
役	-15.4002
後	-15.4002
微	-15.4002
心	-15.4002
急	-15.4002
患	-15.4002
悼	-15.4002
惠	-15.4002
戊	-15.4002
戶	-15.4002
户	-15.4002
护	-15.4002
拼	-15.4002
敬	-15.4002
新	-15.4002
无	-15.4002
旦	-15.4002
时	-15.4002
明	-15.4002
显	-15.4002
時	-15.4002
晋	-15.4002
晏	-15.4002
普	-15.4002
景	-15.4002
曆	-15.4002
曾	-15.4002
朋	-15.4002
期	-15.4002
末	-15.4002
查	-15.4002
案	-15.4002
桓	-15.4002
楊	-15.4002
横	-15.4002
橫	-15.4002
正	-15.4002
母	-15.4002
気	-15.4002
注	-15.4002
津	-15.4002
洲	-15.4002
湯	-15.4002
满	-15.4002
火	-15.4002
爱	-15.4002
牙	-15.4002
牛	-15.4002
特	-15.4002
申	-15.4002
男	-15.4002
番	-15.4002
病	-15.4002
症	-15.4002
的	-15.4002
盐	-15.4002
监	-15.4002
監	-15.4002
看	-15.4002
石	-15.4002
礼	-15.4002
禮	-15.4002
禺	-15.4002
秋	-15.4002
空	-15.4002
管	-15.4002
簡	-15.4002
粵	-15.4002
紂	-15.4002
紧	-15.4002
經	-15.4002
縣	-15.4002
縱	-15.4002
红	-15.4002
经	-15.4002
老	-15.4002
考	-15.4002
者	-15.4002
聊	-15.4002
肚	-15.4002
脑	-15.4002
膑	-15.4002
臏	-15.4002
臺	-15.4002
舌	-15.4002
航	-15.4002
节	-15.4002
芬	-15.4002
英	-15.4002
荀	-15.4002
莊	-15.4002
街	-15.4002
衣	-15.4002
襄	-15.4002
西	-15.4002
角	-15.4002
訓	-15.4002
詩	-15.4002
論	-15.4002
諸	-15.4002
護	-15.4002
论	-15.4002
诸	-15.4002
谁	-15.4002
豚	-15.4002
貞	-15.4002
贏	-15.4002
贞	-15.4002
赢	-15.4002
赧	-15.4002
赫	-15.4002
赵	-15.4002
起	-15.4002
跟	-15.4002
路	-15.4002
迁	-15.4002
进	-15.4002
通	-15.4002
進	-15.4002
遷	-15.4002
邢	-15.4002
郡	-15.4002
釐	-15.4002
鎮	-15.4002
针	-15.4002
闭	-15.4002
陈	-15.4002
陳	-15.4002
陵	-15.4002
隞	-15.4002
隶	-15.4002
隸	-15.4002
雍	-15.4002
雙	-15.4002
靈	-15.4002
靓	-15.4002
靚	-15.4002
面	-15.4002
鞅	-15.4002
韩	-15.4002
韻	-15.4002
頃	-15.4002
頭	-15.4002
顯	-15.4002
馬	-15.4002
马	-15.4002
高	-15.4002
魯	-15.4002
鹰	-15.4002
黎	-15.4002
鼠	-15.4002
齐	-15.4002
齒	-15.4002
가	-15.4002
글	-15.4002
나	-15.4002
다	-15.4002
된	-15.4002
러	-15.4002
모	-15.4002
설	-15.4002
순	-15.4002
시	-15.4002
싱	-15.4002
쌍	-15.4002
옛	-15.4002
읗	-15.4002
자	-15.4002
치	-15.4002
키	-15.4002
한	-15.4002
헬	-15.4002
후	-15.4002
⁄	-15.4002
Ķ	-15.4002
Β	-15.4002
Ζ	-15.4002
Ġ	-15.4002
ť	-15.4002
Ș	-15.4002
ờ	-15.4002
√	-15.4002
均	-15.4002
指	-15.4002
猫	-15.4002
皮	-15.4002
繁	-15.4002
联	-15.4002
蘇	-15.4002
ʏ	-15.4002
丝	-15.4002
四	-15.4002
粉	-15.4002
落	-15.4002
血	-15.4002
ה	-15.4002
ἄ	-15.4002
去	-15.4002
昨	-15.4002
晚	-15.4002
Ã	-15.4002
Ò	-15.4002
Ô	-15.4002
Ù	-15.4002
Û	-15.4002
Ê	-15.4003
Ë	-15.4003
Ì	-15.4003
ń	-15.4003
