<unk>	0
<s>	0
</s>	0
▁	-3.35266
ი	-3.47464
.	-3.48441
,	-3.5551
ს	-3.59575
ა	-3.8434
▁და	-4.20944
ის	-4.21268
▁—	-4.3734
-	-4.50278
▁:	-4.65945
▁(	-4.72099
)	-4.90679
ში	-4.91098
მ	-4.95901
დ	-4.97319
გ	-5.06583
ო	-5.15498
თ	-5.18417
ები	-5.19665
მა	-5.28019
ე	-5.38799
რ	-5.42254
ც	-5.43801
თა	-5.51859
ნი	-5.61942
▁სა	-5.68062
:	-5.68449
ლ	-5.7421
ტ	-5.76622
კ	-5.76756
ზე	-5.79302
უ	-5.82303
ვ	-5.82427
ული	-5.82735
▁„	-5.83853
ად	-5.85508
ების	-5.86189
▁18	-5.87933
და	-5.90212
▁-	-5.91387
ტი	-5.93202
ნ	-5.94567
რი	-5.95308
ხ	-5.96174
▁მ	-5.98289
ნა	-6.00674
▁მო	-6.06013
დი	-6.06255
სა	-6.09753
ან	-6.10451
წ	-6.11106
▁გა	-6.13428
“	-6.13464
რა	-6.13546
ვა	-6.16267
ელი	-6.17095
ულ	-6.17533
▁შე	-6.17995
▁ა	-6.18493
ზ	-6.18507
ურ	-6.19394
ლი	-6.20422
▁ქართველი	-6.248
ური	-6.25192
ით	-6.25955
19	-6.26156
ყ	-6.26812
▁ამ	-6.28038
ლა	-6.31457
ებს	-6.32779
▁წელს	-6.33554
ენ	-6.34375
▁მე	-6.40055
ბა	-6.40315
ვე	-6.41826
ღ	-6.42022
შ	-6.42588
▁საქართველოს	-6.43803
).	-6.4686
ქ	-6.47765
ვი	-6.48996
;	-6.49183
▁იყო	-6.49568
▁ე	-6.49808
ება	-6.5118
o	-6.52127
ეს	-6.52813
▁უ	-6.53626
▁წლის	-6.53967
ნე	-6.55891
ლო	-6.56051
ია	-6.56559
კა	-6.56841
ელ	-6.57156
არ	-6.58074
ძ	-6.59225
ტა	-6.60539
e	-6.60649
ას	-6.60893
),	-6.61755
▁გამო	-6.62309
ფ	-6.62827
ბ	-6.63662
▁17	-6.6509
a	-6.65435
ერ	-6.65553
▁მი	-6.66199
s	-6.66466
ონ	-6.66949
▁შემდეგ	-6.67124
რო	-6.67993
▁მოღვაწე	-6.69104
მო	-6.69715
პ	-6.70048
რე	-6.71052
ტო	-6.7111
▁გ	-6.71162
▁I	-6.71689
ლე	-6.71888
მე	-6.73386
კი	-6.7388
ნის	-6.75567
▁ლიტერატურა	-6.75764
▁ან	-6.77157
მი	-6.7783
ცი	-6.77851
▁მეფე	-6.78092
ინ	-6.78454
▁არ	-6.79572
u	-6.796
ტე	-6.81096
ზი	-6.82031
▁წ	-6.82442
▁დღე	-6.83304
ამ	-6.83335
▁მისი	-6.84023
ჩ	-6.85508
თან	-6.86091
იდან	-6.8639
▁ერთ	-6.868
კო	-6.87753
▁ნა	-6.89672
▁სი	-6.90693
გა	-6.90805
ნო	-6.90828
ერი	-6.90964
ლის	-6.91274
ჭ	-6.91665
▁1	-6.94949
▁რომ	-6.95436
აში	-6.95985
დე	-6.96251
▁იანვარი	-6.97098
ობა	-6.97161
▁II	-6.97677
რის	-6.98506
ავ	-6.99032
i	-6.99139
▁მწერალი	-7.00251
–	-7.00945
▁მარტი	-7.02153
t	-7.02909
n	-7.02935
▁სახელმწიფო	-7.0344
ხა	-7.03661
▁წლებში	-7.04172
ჟ	-7.05494
▁თებერვალი	-7.05524
ობის	-7.05617
▁16	-7.0613
▁პირველი	-7.07137
ახ	-7.07944
ორ	-7.08113
▁გიორგი	-7.08784
ონი	-7.09168
▁გან	-7.09598
დო	-7.09603
მარ	-7.10901
ებით	-7.12035
y	-7.12076
▁რა	-7.12908
ებული	-7.13009
▁რომელიც	-7.15
g	-7.16841
ბი	-7.17185
გან	-7.17224
ფი	-7.18365
▁2	-7.19279
▁გადა	-7.19458
ილ	-7.19494
▁მას	-7.19741
▁გარდაცვლილი	-7.20708
უს	-7.20884
ალ	-7.21493
▁ჩა	-7.22626
▁სხვა	-7.2327
ემ	-7.23837
▁იგი	-7.24145
▁კი	-7.24326
▁15	-7.24389
ოს	-7.24461
ჰ	-7.24616
▁სამხედრო	-7.24714
▁დაბადებული	-7.25307
▁ტ	-7.25655
აშვილი	-7.26219
l	-7.26547
იან	-7.27077
ალი	-7.27255
უნ	-7.29004
ჯ	-7.29438
დან	-7.29446
წერ	-7.29685
ანი	-7.30225
ებში	-7.30258
▁დიდი	-7.30885
ზა	-7.31013
2	-7.31282
▁აგრეთვე	-7.3235
5	-7.32379
ძე	-7.32467
"	-7.33182
▁აღ	-7.33388
m	-7.34579
▁–	-7.3475
p	-7.34862
▁ო	-7.35096
▁მარ	-7.35366
b	-7.3554
ბო	-7.35895
▁3	-7.36883
▁ქ	-7.36893
ილი	-7.37301
▁ალ	-7.37456
▁10	-7.37789
▁აშშ	-7.38015
▁ბა	-7.38329
▁მსახიობი	-7.38331
h	-7.3889
▁რესურსები	-7.39221
▁ქართული	-7.39789
იანი	-7.40268
▁აპრილი	-7.41502
▁დღეს	-7.41615
▁ინტერნეტში	-7.42067
“,	-7.42442
სტი	-7.42443
en	-7.42612
▁გერმანელი	-7.4298
ვის	-7.43001
▁ამერიკელი	-7.43686
ვალ	-7.43799
er	-7.43874
▁აგვისტო	-7.44199
▁ჰა	-7.44346
▁მა	-7.44638
4	-7.44958
წყ	-7.45406
▁გახდა	-7.46415
▁მის	-7.4687
▁დ	-7.47097
▁დე	-7.47716
▁ივლისი	-7.48298
კის	-7.49553
კე	-7.49983
▁მაისი	-7.51927
თი	-7.5226
▁რუსეთის	-7.52398
ერთ	-7.52436
▁ყ	-7.52685
k	-7.52995
▁ხ	-7.53127
ხი	-7.53192
▁პა	-7.53443
or	-7.54067
▁ოქტომბერი	-7.5416
ირ	-7.5428
▁საუკუნის	-7.54972
▁ლა	-7.55288
▁სამხრეთ	-7.55784
▁რე	-7.55907
ეთის	-7.56329
r	-7.56885
▁სამ	-7.56916
▁შ	-7.56979
ვან	-7.5707
ვარ	-7.5744
ar	-7.57755
მის	-7.57798
გო	-7.5826
▁ივნისი	-7.58905
ბერ	-7.60053
▁კო	-7.60184
▁პ	-7.60266
ტან	-7.60388
▁ას	-7.6049
f	-7.61044
პი	-7.61584
▁4	-7.61683
▁სქოლიო	-7.61687
и	-7.61687
შა	-7.61797
▁მან	-7.61898
▁ნოემბერი	-7.62122
უმ	-7.62686
▁შორის	-7.62784
▁როგორც	-7.63439
▁სახელი	-7.63483
აძე	-7.63987
▁14	-7.64048
ხე	-7.64679
▁S	-7.64834
▁"	-7.64973
▁საბჭოთა	-7.65226
▁სექტემბერი	-7.65448
ებულ	-7.65494
სთან	-7.65574
იშვილი	-7.65694
▁პრეზიდენტი	-7.66092
ლებ	-7.66154
ველ	-7.66236
პო	-7.66347
▁ფეხბურთელი	-7.66357
არი	-7.66373
▁პოლიტიკური	-7.66378
ერთი	-7.66706
▁დეკემბერი	-7.6681
▁დავით	-7.66906
მდე	-7.66938
▁ლი	-7.67084
ფა	-7.67161
ებ	-7.67417
▁ეს	-7.67465
▁არა	-7.67613
▁A	-7.67941
▁მიერ	-7.68406
▁ზო	-7.68671
▁კა	-7.68809
ისა	-7.68914
აც	-7.69677
▁მსოფლიო	-7.69695
ებმა	-7.69765
ევ	-7.69955
▁ყველა	-7.70304
▁ალექსანდრე	-7.70654
კვ	-7.70725
▁III	-7.70842
▁P	-7.71015
ბრ	-7.71116
▁5	-7.71697
ცა	-7.72316
▁12	-7.72377
ლები	-7.72762
ოდ	-7.72901
მან	-7.73261
▁პოეტი	-7.73441
▁9	-7.73685
al	-7.73791
ტის	-7.73884
▁ძე	-7.74103
▁მათ	-7.74228
▁იმ	-7.7448
an	-7.74563
v	-7.75493
ბე	-7.75546
ჯი	-7.75764
პირ	-7.76003
▁საქართველოში	-7.76134
▁8	-7.76364
ტერ	-7.77855
▁of	-7.77926
დება	-7.78062
▁კრ	-7.78139
▁დროს	-7.78167
ტრი	-7.78804
▁რომის	-7.79057
▁B	-7.79066
ჩი	-7.79381
re	-7.79554
c	-7.79785
8	-7.80131
▁სამეფო	-7.80514
ჯა	-7.80678
▁ეკლესია	-7.81401
ეთი	-7.8141
▁ინ	-7.81812
ნგ	-7.82072
es	-7.82329
▁ფრანგი	-7.82658
▁ორ	-7.82747
7	-7.82785
რუ	-7.82828
▁იხილე	-7.82895
▁6	-7.83305
ოლოგი	-7.83467
მენ	-7.83616
ყოფ	-7.83714
▁20	-7.84212
▁V	-7.84297
კარ	-7.85213
ათ	-7.85644
▁არის	-7.85703
w	-7.85892
იძე	-7.86046
▁წარმო	-7.86442
დენ	-7.86873
о	-7.86986
-19	-7.87472
▁ბე	-7.87494
▁ტა	-7.87646
▁კონ	-7.87802
▁ბო	-7.87803
▁გენერალ	-7.87938
▁თბ	-7.88081
▁პოლიტიკოსი	-7.8813
▁კარ	-7.88663
а	-7.88674
▁7	-7.88822
უსი	-7.89034
ტურ	-7.89298
on	-7.89857
▁ვა	-7.91562
▁სტ	-7.91729
0	-7.92669
თვის	-7.93137
პა	-7.93149
▁ლო	-7.93268
00	-7.93282
ხვ	-7.93528
▁M	-7.93591
▁წმინდა	-7.93936
შე	-7.9407
▁ჩრდილოეთ	-7.94108
ვენ	-7.94365
▁ბრ	-7.94485
ქვ	-7.94905
▁ხოლო	-7.95229
▁საზოგადო	-7.95247
ობდა	-7.95451
კურ	-7.95662
▁თე	-7.9569
▁მოვლენები	-7.95894
დგენ	-7.96034
▁დი	-7.96129
▁ბუ	-7.96146
▁რუსი	-7.96508
▁11	-7.96539
ტუ	-7.9658
in	-7.9673
▁ისტორია	-7.97001
▁მეორე	-7.97004
▁ქალაქ	-7.97057
ცია	-7.97121
▁13	-7.97194
რულ	-7.97368
▁აღმოსავლეთ	-7.97494
▁ენა	-7.97602
▁ჭ	-7.97611
▁C	-7.97876
ობ	-7.98041
▁დასავლეთ	-7.98393
კუ	-7.98444
е	-7.98824
12	-7.98897
ველი	-7.99074
▁კლ	-7.99076
▁ერთად	-7.9947
▁საფრანგეთის	-7.99813
“.	-8.0068
▁ბი	-8.00807
ri	-8.00816
▁ქართლის	-8.00819
ციის	-8.0107
პრ	-8.0109
▁|	-8.01924
I	-8.02299
▁ლე	-8.02338
▁პრემი	-8.02618
▁იქნა	-8.0284
ფე	-8.0292
▁ზ	-8.02943
3	-8.0332
▁თბილისის	-8.03592
ებზე	-8.04084
ra	-8.04169
▁ბარ	-8.04382
საც	-8.04508
ch	-8.05007
▁შემო	-8.05033
▁წინააღმდეგ	-8.05377
დნენ	-8.0554
▁ფა	-8.06383
ქს	-8.06439
▁სე	-8.06831
▁აქ	-8.07456
ეტ	-8.0758
ფორ	-8.08382
▁ფ	-8.08418
უდ	-8.08553
▁პი	-8.08608
ავს	-8.09042
ტარ	-8.09176
d	-8.09681
▁მთავარი	-8.09867
▁საკუთარი	-8.09904
ქა	-8.10032
▁პირ	-8.10062
▁ხელ	-8.10094
ლია	-8.10193
▁შეიძლება	-8.10197
▁ინგლისელი	-8.10306
14	-8.10454
▁წლიდან	-8.10552
▁T	-8.10702
le	-8.11278
▁რო	-8.1148
ლად	-8.11735
C	-8.1216
▁რი	-8.12265
ვარი	-8.12362
▁კომ	-8.12476
ქი	-8.12551
is	-8.12705
ოლი	-8.13027
პე	-8.13357
შვილ	-8.13395
▁გერმანიის	-8.13424
▁ფი	-8.1353
▁H	-8.1379
at	-8.14036
ტორი	-8.1405
▁ჰი	-8.14281
ბურ	-8.14359
ალური	-8.14371
▁წევრი	-8.14446
▁კუ	-8.15166
▁მოსახლეობა	-8.15277
▁კე	-8.15369
▁ასევე	-8.15635
დეს	-8.15759
▁დიდ	-8.15764
it	-8.15836
us	-8.1589
▁G	-8.15982
▁კვ	-8.16706
▁ღ	-8.16759
▁პო	-8.16805
ობით	-8.16942
z	-8.17134
▁ფონ	-8.17459
▁პრო	-8.17462
6	-8.17491
გუ	-8.17642
ჩა	-8.17654
თე	-8.1803
ვო	-8.18153
S	-8.18335
▁კომპოზიტორი	-8.18658
▁გვ	-8.18983
ყო	-8.18985
ლუ	-8.18987
50	-8.19089
▁იმპერატორი	-8.19121
▁IV	-8.1946
ფრ	-8.19533
▁ნე	-8.19869
▁ხან	-8.2004
60	-8.20083
ეთ	-8.20088
▁ქალაქი	-8.20115
კონ	-8.20298
▁დაიწყო	-8.20597
▁ჰო	-8.20691
შვილი	-8.20745
ოსი	-8.21285
▁ცნობილი	-8.21425
▁D	-8.21789
90	-8.22269
შვ	-8.22566
▁მიხეილ	-8.22573
▁იოანე	-8.22574
ნდა	-8.22669
ტები	-8.22675
▁ნი	-8.22892
▁ფრ	-8.22957
▁საერთაშორის	-8.22972
ლავ	-8.23071
ოვი	-8.23569
ღა	-8.23578
ic	-8.24463
ოდა	-8.24585
▁მომღერალი	-8.24588
▁ვერ	-8.24722
▁სამეფოს	-8.24986
▁მაგრამ	-8.24998
▁მხარე	-8.25004
▁აქვს	-8.25017
▁იუ	-8.25361
ტრა	-8.25405
ტრ	-8.25518
A	-8.25649
▁სო	-8.25682
ჰა	-8.25718
▁მიხედვით	-8.25818
ნგი	-8.2582
▁()	-8.25898
ესი	-8.26571
▁კმ	-8.26631
ქო	-8.26863
ხარ	-8.26922
▁ვახტანგ	-8.27063
▁გო	-8.27363
▁თბილისი	-8.27633
-10	-8.27674
მინისტრი	-8.27678
ბუ	-8.2773
1	-8.281
9	-8.28118
იერ	-8.28123
▁ერ	-8.28288
▁კან	-8.28296
ვინ	-8.28438
უბ	-8.28515
▁რუ	-8.2854
ამდე	-8.28781
▁%	-8.29023
▁მიიღო	-8.29173
▁ომი	-8.29193
ტრო	-8.29273
▁N	-8.29397
ზის	-8.29513
▁სადაც	-8.29623
შენ	-8.29698
40	-8.2975
▁მდინარე	-8.29963
მუ	-8.30146
▁ეროვნული	-8.30221
▁ბოლო	-8.30223
98	-8.30265
▁პე	-8.30303
მინ	-8.3042
▁გი	-8.30449
ძის	-8.30735
▁თუმცა	-8.30893
▁ბიოგრაფია	-8.30894
მოქმედ	-8.30897
დუ	-8.31038
▁ძვ	-8.3126
▁კათოლიკოს	-8.31328
▁რ	-8.31702
la	-8.31765
▁E	-8.31835
რეს	-8.31844
რება	-8.31894
70	-8.32588
▁the	-8.32648
▁(18	-8.3273
▁F	-8.32788
არს	-8.32845
20	-8.32912
▁დაბადებულ	-8.33113
ნელი	-8.33347
▁მეცნიერ	-8.3351
li	-8.33599
▁მართლმადიდებელი	-8.33711
▁თავის	-8.33804
ოგრაფი	-8.33823
ელები	-8.33912
ნუ	-8.33964
▁პედაგოგი	-8.33977
▁ციხე	-8.34041
11	-8.34069
▁ფე	-8.34117
▁ნაწილი	-8.34182
ჯერ	-8.34267
წოდებ	-8.34312
▁ორი	-8.34374
80	-8.344
▁ათასი	-8.34438
პერ	-8.34492
ორი	-8.34739
ტონი	-8.3499
▁ვი	-8.35074
▁მეფის	-8.3553
▁30	-8.35735
ed	-8.35779
▁შესახებ	-8.3624
н	-8.36514
15	-8.36562
▁რომლის	-8.36765
▁The	-8.36842
დრო	-8.37043
უშ	-8.37332
ტური	-8.37413
ოვანი	-8.37457
▁გე	-8.37479
პრეზიდენტ	-8.37684
▁ბერ	-8.37775
აზე	-8.37944
13	-8.38048
▁(10	-8.38303
ვით	-8.38536
კავშირ	-8.38662
კენ	-8.39021
▁ომის	-8.39881
ქვეყნ	-8.39893
▁ბ	-8.39906
18	-8.40276
ვდა	-8.40359
▁L	-8.40507
ფერ	-8.40811
▁თავ	-8.40889
▁ნიკოლოზ	-8.40924
▁მდებარეობს	-8.40933
ბის	-8.40985
р	-8.41007
ხან	-8.41034
▁სსრკ	-8.4109
17	-8.41297
ტონ	-8.41436
▁პრემიერ	-8.41625
78	-8.41749
ელთა	-8.41842
10	-8.41963
▁დო	-8.41982
▁ნიუ	-8.41998
▁ჩე	-8.42417
იკური	-8.42419
▁ფო	-8.42677
▁ნობელი	-8.42887
▁დრო	-8.43023
ენტი	-8.43454
▁რამდენიმე	-8.43844
▁ხალხ	-8.44077
▁ისტორიკოსი	-8.44137
▁ადამიანი	-8.44321
▁კუნძულ	-8.44339
▁იმპერიის	-8.44339
▁ევროპის	-8.4434
▁ნო	-8.4435
▁რეგიონ	-8.44427
▁დღესასწაულები	-8.44474
შო	-8.44525
პარ	-8.44612
ეტი	-8.44683
ებენ	-8.44839
▁W	-8.44988
▁სახელ	-8.45102
პორტ	-8.45246
▁ცენტრი	-8.45267
▁ახალი	-8.45333
▁K	-8.45343
ჩე	-8.4555
▁პირველ	-8.4569
99	-8.4571
▁დღის	-8.45849
▁ჯა	-8.45997
მონ	-8.46515
▁and	-8.46656
▁22	-8.46937
▁25	-8.47066
გე	-8.47106
▁ვ	-8.47269
16	-8.47369
96	-8.47499
▁მამ	-8.47517
45	-8.47761
ელსაც	-8.47909
ტორ	-8.48145
▁თარიღი	-8.4839
▁ჩამო	-8.48466
▁ახალ	-8.48604
ლენ	-8.48733
გრე	-8.4895
ობს	-8.4918
ნება	-8.49472
/	-8.49673
▁ჩი	-8.49851
el	-8.49944
▁რეჟისორი	-8.49976
▁შუა	-8.5002
ებელი	-8.50084
▁წა	-8.5029
▁კორ	-8.50403
▁სარ	-8.50443
▁სულ	-8.50451
ოვ	-8.50456
▁აღნიშნავდეს	-8.50479
▁გრიგოლ	-8.50479
▁პერ	-8.50611
გორ	-8.50731
95	-8.50774
st	-8.50814
▁ჯგუფ	-8.5089
რების	-8.51161
ხელ	-8.51231
▁მუ	-8.51261
▁სუ	-8.51558
▁ჯ	-8.51644
▁კავშირის	-8.51653
ებთან	-8.52222
▁იმერეთის	-8.52345
უხ	-8.52376
ნარ	-8.52533
88	-8.52587
30	-8.5265
▁ფერ	-8.52691
▁პარ	-8.52969
'	-8.53153
▁გარდა	-8.5317
ქტ	-8.53314
მუშ	-8.53384
ლაძე	-8.53569
▁ბალ	-8.53609
▁არმიის	-8.53709
ანის	-8.53842
ნები	-8.53853
გენ	-8.54066
▁მთა	-8.54159
▁აღნიშნავს	-8.54243
ხო	-8.54393
ბლ	-8.54421
▁ქართულ	-8.54495
ისთვის	-8.54598
მანი	-8.54874
▁გარდაცვლილ	-8.54928
ლობა	-8.55225
▁შა	-8.55427
ხის	-8.55554
▁ლუ	-8.55764
▁ბრძოლა	-8.55775
76	-8.5581
▁სოფელ	-8.55871
▁ბოლომდე	-8.55961
92	-8.56085
▁კალ	-8.56245
▁ქალაქები	-8.56509
▁თურქ	-8.56892
▁შედეგად	-8.57021
▁თავისი	-8.57143
ავი	-8.57537
▁მხატვარი	-8.57549
22	-8.57701
ქსი	-8.57799
▁კარლ	-8.57885
▁პაპი	-8.5789
▁პირველად	-8.57938
▁ლუი	-8.58017
▁26	-8.58025
ლინ	-8.58266
▁რუსეთ	-8.58488
ur	-8.58598
▁23	-8.58716
▁გრიგორიანულ	-8.58726
▁დარჩენილი	-8.58726
▁მეთაურ	-8.58817
დელ	-8.59147
65	-8.59276
л	-8.59297
▁ხსენების	-8.593
▁ქვეყნის	-8.59391
61	-8.59407
▁თო	-8.59408
კოსი	-8.59423
▁რაც	-8.59862
ლების	-8.5992
ებოდა	-8.59957
.18	-8.60196
ულად	-8.60317
▁მამა	-8.60396
▁იაპონიის	-8.6046
▁კალენდრის	-8.6046
▁ჯონ	-8.60471
ბრუნ	-8.60521
▁არსებ	-8.6053
▁(1	-8.60533
un	-8.60943
▁პიროვნებათაგანს	-8.61045
▁თუ	-8.61214
▁მხოლოდ	-8.61633
91	-8.61815
ჩინ	-8.61984
▁ათ	-8.62031
▁ცი	-8.62047
▁აგ	-8.62078
в	-8.62186
▁უცნობია	-8.62224
▁სერ	-8.62313
ნაკიან	-8.62318
ეული	-8.62349
▁სან	-8.62565
▁VI	-8.62859
იზმი	-8.62872
▁ლევან	-8.6296
ვლის	-8.62967
▁რესპუბლიკა	-8.6304
▁მონ	-8.63274
ეულ	-8.63284
ავე	-8.63354
▁ამერიკის	-8.63419
▁თვეები	-8.63419
▁ფეოდალ	-8.63424
co	-8.63435
▁ფართობი	-8.63481
▁რომან	-8.63549
ისათვის	-8.63688
▁იტალიელი	-8.64021
▁გერმანია	-8.64023
as	-8.64036
ტენ	-8.64047
გრაფ	-8.64056
▁21	-8.64067
ებდა	-8.64191
nd	-8.64216
▁ბრძოლაში	-8.64227
%	-8.64232
▁მცირე	-8.6463
ნდო	-8.64675
83	-8.64795
ტერი	-8.64959
რებული	-8.64985
▁ადმინისტრაციული	-8.65046
ქრ	-8.6513
23	-8.65173
▁ერისთავი	-8.6546
იორკ	-8.65675
ge	-8.6578
35	-8.65804
უზ	-8.6585
▁კონსტანტინე	-8.6585
▁ჰარ	-8.65963
▁O	-8.66073
▁უფრო	-8.66243
97	-8.66505
თხოვ	-8.66609
აცია	-8.667
▁ზა	-8.66879
▁გერ	-8.66891
03	-8.66948
▁ხუ	-8.67008
▁ქუ	-8.67011
▁მნიშვნელოვანი	-8.67108
am	-8.67193
ობას	-8.67225
ეთში	-8.67288
ლერ	-8.6739
პოლ	-8.6747
▁ფარ	-8.67553
სახლ	-8.67661
▁ჟან	-8.67773
85	-8.67902
▁ჰე	-8.67948
▁ეკლესიის	-8.67962
N	-8.68012
55	-8.68273
▁მეცნიერებათა	-8.68343
63	-8.68462
ბარ	-8.68578
▁ქართლ	-8.68899
д	-8.68975
▁შავ	-8.68982
▁ვალ	-8.68984
ro	-8.68994
▁წყალ	-8.69067
▁გეოგრაფი	-8.69184
▁უნდა	-8.69262
ta	-8.69264
di	-8.69374
=	-8.69612
▁აჯანყებ	-8.69612
▁წმინდანების	-8.69653
▁ცა	-8.69831
ing	-8.70041
—	-8.70041
რად	-8.70225
▁2008	-8.70281
▁კახეთის	-8.70331
72	-8.7039
48	-8.70462
▁X	-8.70715
ბილ	-8.7072
ქე	-8.70804
te	-8.70855
▁საბჭოს	-8.70973
68	-8.71327
ზმ	-8.71496
!	-8.71548
▁ჯორჯ	-8.71548
▁ივანე	-8.71555
04	-8.71621
ნაწილ	-8.71649
25	-8.71814
▁სხვადასხვა	-8.72202
▁სახალხო	-8.72202
▁de	-8.72266
ებისა	-8.72396
81	-8.72421
კან	-8.72659
▁თვით	-8.72889
▁წინა	-8.73072
67	-8.73142
th	-8.73145
ბად	-8.73259
E	-8.73414
54	-8.73488
01	-8.73489
▁დედა	-8.73585
il	-8.73845
პლ	-8.7386
▁შტატი	-8.73871
▁27	-8.73909
უფ	-8.73934
29	-8.74167
▁შეიქმნა	-8.74188
56	-8.74239
▁ვარ	-8.74321
66	-8.74325
▁ინგლისის	-8.74396
ებლად	-8.74401
▁ხო	-8.7455
▁სოფ	-8.74641
000	-8.747
74	-8.74761
▁ტომ	-8.74906
ter	-8.74965
ევი	-8.75074
-18	-8.75099
▁გარდაიცვალა	-8.75111
▁გამოც	-8.75364
58	-8.75437
▁შემდეგი	-8.75559
▁რომელთა	-8.7568
42	-8.75758
რებ	-8.75865
24	-8.75995
▁ძველი	-8.76091
▁კინო	-8.76101
75	-8.76219
▁ცენტრალურ	-8.7623
მაიორი	-8.76282
▁28	-8.76499
▁ცხ	-8.76542
▁რესპუბლიკის	-8.76634
ბულ	-8.76784
▁ჰქონდა	-8.769
▁იქ	-8.77254
39	-8.77377
▁ინგლის	-8.77416
▁შესა	-8.77445
x	-8.7759
▁ოფიციალური	-8.7759
41	-8.77593
▁წიგნ	-8.776
▁ხდება	-8.77771
კვე	-8.77848
ფარ	-8.77952
to	-8.78045
82	-8.78073
▁გვარ	-8.78101
▁გამ	-8.78209
▁ბაგრატ	-8.78257
▁ქრისტიან	-8.78284
▁რომლებიც	-8.78286
▁უნივერსიტეტის	-8.78308
▁კოლ	-8.78406
21	-8.78728
▁უმაღლესი	-8.78775
▁მაგ	-8.78821
▁საბა	-8.78976
▁2005	-8.78985
▁2004	-8.79029
ღვი	-8.79108
▁ანტონ	-8.79122
37	-8.79297
კერ	-8.79528
▁მარტ	-8.7986
▁გაუ	-8.79929
89	-8.80059
▁საუკუნეში	-8.80219
ომი	-8.8024
j	-8.80397
▁პერიოდში	-8.80397
▁ქვეყანა	-8.80397
კლა	-8.80503
პან	-8.80769
კაცი	-8.81034
▁ფიზიკოსი	-8.81112
ti	-8.81308
▁ერთი	-8.81433
ნების	-8.81579
ლევ	-8.8164
რევ	-8.81738
31	-8.81741
▁თანამედროვე	-8.81831
▁რომელმაც	-8.81831
▁მათი	-8.81995
ურად	-8.82137
▁ია	-8.82142
ქტი	-8.82413
▁შემდგომ	-8.82557
▁1945	-8.82565
▁შაჰ	-8.82677
▁როდე	-8.8306
86	-8.8313
▁29	-8.8327
▁საეკლესიო	-8.83286
▁ხელოვნების	-8.83286
▁ტერმინ	-8.83289
ჩხ	-8.83365
ne	-8.83435
▁J	-8.83451
ნდი	-8.83474
▁ქალ	-8.8355
с	-8.83994
▁ცხოვრება	-8.84022
ia	-8.84097
32	-8.84199
▁სიმონ	-8.84207
▁რაიონ	-8.84226
იზმის	-8.84338
▁ფრინველ	-8.84489
ათვის	-8.84591
თავისუფლ	-8.84597
▁გარდაიცვალნენ	-8.84762
▁დაიბადნენ	-8.84762
▁ბაგრატიონ	-8.84791
ცხოვ	-8.84871
ვიდა	-8.85056
▁(17	-8.85067
▁წერეთელი	-8.85508
▁ზღვის	-8.85509
პატრიარქი	-8.85572
ჰო	-8.85802
um	-8.85911
▁წარ	-8.86021
▁24	-8.86149
ფეხბურთ	-8.86251
46	-8.86474
X	-8.86509
ლექ	-8.86574
▁გუ	-8.86602
71	-8.86706
27	-8.86736
47	-8.87138
93	-8.8714
ტული	-8.87209
▁გვარები	-8.8726
▁თეატრ	-8.87316
53	-8.87589
т	-8.87766
▁აირჩიეს	-8.87781
▁სახელობის	-8.87916
ოვნებ	-8.88085
T	-8.8819
▁ბრიტანეთის	-8.88449
ბელ	-8.88474
▁(200	-8.88517
▁დაამთავრა	-8.8855
▁დიმიტრი	-8.8855
▁2010	-8.88614
64	-8.88745
▁დაახლოებით	-8.89004
ნათ	-8.89114
▁სხვ	-8.89444
რომ	-8.89578
▁XI	-8.89666
კინ	-8.89777
▁გარე	-8.89844
59	-8.89889
▁d	-8.89894
უქ	-8.89935
ხურ	-8.90067
36	-8.90083
▁გავრცელებული	-8.90106
09	-8.90121
▁ორდენი	-8.90308
-17	-8.90378
▁მიუ	-8.90443
-16	-8.90446
▁ტერიტორია	-8.90584
▁თბილისში	-8.90894
▁ნახევარ	-8.90895
▁სახელწოდება	-8.90895
წყვ	-8.90964
▁თავი	-8.91201
▁ხეობ	-8.91308
მინისტრ	-8.91346
ვარდ	-8.91406
▁ცნობ	-8.91448
et	-8.91519
77	-8.91603
▁ოჯახ	-8.91671
▁გაიხსნა	-8.9169
▁ნაწარმოებ	-8.91691
▁ქედი	-8.91719
▁ლექს	-8.9186
ie	-8.91952
▁სურ	-8.9203
▁მსოფლიოს	-8.92134
44	-8.92146
ll	-8.92209
ფო	-8.92261
▁ყოფილი	-8.92329
▁ეპისკოპოს	-8.92487
▁პეტრე	-8.9249
▁მაღალ	-8.92509
▁(„	-8.92559
▁ქალაქის	-8.92571
ჭარ	-8.92732
არტ	-8.92755
ჯე	-8.92828
ბელი	-8.92861
▁ისტორიული	-8.93129
▁მუნიციპალიტეტის	-8.93205
ებრივ	-8.9368
▁in	-8.93977
▁ჩემპიონ	-8.94071
▁აკადემიის	-8.94107
▁სომხეთ	-8.94107
▁მლნ	-8.94124
nt	-8.9425
▁ენის	-8.94253
38	-8.94309
▁პოლ	-8.94324
▁ფილოსოფოსი	-8.94484
26	-8.94621
▁საქართველო	-8.94687
ir	-8.94711
▁სახლ	-8.94743
▁იმპერია	-8.94927
▁მოსახლეობის	-8.94951
se	-8.9523
▁იაპონელი	-8.95753
▁ისტორიის	-8.95771
69	-8.9601
28	-8.96049
43	-8.96185
▁ხელმძღვანელ	-8.96558
▁ესპანელ	-8.96592
▁მონაწილე	-8.9665
▁ტერიტორიაზე	-8.96915
к	-8.97412
▁ლაურეატი	-8.97427
▁ფილმ	-8.97434
▁ოთხ	-8.97461
▁ჯუ	-8.97789
▁უნივერსიტეტ	-8.97978
▁თეო	-8.9808
▁p	-8.98181
ებად	-8.98192
ალურ	-8.98209
-20	-8.98221
▁კინორეჟისორი	-8.98274
▁ძმა	-8.98495
▁ოს	-8.98507
▁რეჟ	-8.9864
ლობის	-8.98676
49	-8.9887
ნაკ	-8.99017
P	-8.99117
▁უკრაინ	-8.99129
▁ზურაბ	-8.99129
▁მუსიკოსი	-8.99129
▁1990	-8.99143
▁2014	-8.99225
ul	-8.99274
▁მოძრაობის	-8.99301
▁გორ	-8.99503
51	-8.99568
▁პოლი	-8.99575
ლობ	-8.99599
ვილ	-8.99827
▁საქმე	-9.00008
ტყე	-9.00255
▁შვილი	-9.00419
▁თავად	-9.00471
ტების	-9.00504
ვერი	-9.00838
▁გამოცხადდა	-9.0086
▁დამოუკიდებლობა	-9.0086
▁VIII	-9.00887
▁ლეონ	-9.01013
34	-9.01125
▁ომ	-9.01161
▁მაკ	-9.01172
33	-9.01658
▁მიენიჭა	-9.01738
ტალი	-9.01868
ce	-9.01932
ობები	-9.01996
ადგილ	-9.02307
▁ძირითადი	-9.02334
ლიტერატურ	-9.02366
ss	-9.02371
ation	-9.02381
▁სსრ	-9.02409
▁აზია	-9.02465
ხალ	-9.0255
▁ბრაზილი	-9.02623
▁პუბლიცისტი	-9.02623
▁სამთავრო	-9.02623
▁თანამდებობ	-9.02623
▁წლამდე	-9.02624
▁1946	-9.0263
▁1941	-9.02631
▁დაარსდა	-9.02632
▁1992	-9.02633
▁2006	-9.02659
▁2012	-9.02734
▁ადრე	-9.02774
▁მიღებ	-9.02996
▁ჰერ	-9.03015
79	-9.03054
ბურგი	-9.03055
ძვ	-9.03059
▁მრავალ	-9.03078
ha	-9.03343
▁სამეცნიერო	-9.03515
▁სისტემა	-9.03516
▁XIX	-9.03532
▁მუშაობდა	-9.03544
R	-9.03706
na	-9.03709
ფლ	-9.03727
▁0	-9.03742
▁Re	-9.03978
▁R	-9.03979
ზან	-9.04015
ტომ	-9.04076
▁ენები	-9.04118
ბრძოლ	-9.0423
▁პარლამენტის	-9.04315
▁ინჟინერ	-9.04416
▁საუკეთესო	-9.04416
▁1991	-9.04426
▁მხარის	-9.04433
▁2007	-9.04455
▁მწერლები	-9.04731
ძალ	-9.0478
73	-9.04794
▁U	-9.04805
▁ჯერ	-9.05208
▁დამოუკიდებლობის	-9.05325
▁მათემატიკოსი	-9.05325
▁სტატუსი	-9.05325
▁რობერტ	-9.05328
▁მხატვრ	-9.05338
▁პრეზიდენტად	-9.05346
▁მონაწილეობდა	-9.05364
▁მეცნიერი	-9.05366
ჩუ	-9.05522
ლანდი	-9.05538
▁ინსტიტუტ	-9.05573
უელ	-9.06029
ნიშნა	-9.06181
კავკასი	-9.06186
▁ქვემო	-9.06244
▁1980	-9.06257
▁ბატონიშვილი	-9.06426
M	-9.06537
▁წყარო	-9.06579
▁ბორ	-9.06664
ოზ	-9.06684
▁თანა	-9.07131
]	-9.07169
▁°	-9.07181
▁შვედ	-9.07197
▁/	-9.07664
ჩენ	-9.08037
ma	-9.0812
▁კულტურის	-9.08186
▁თამარ	-9.08229
ჭირ	-9.08479
ებიდან	-9.08553
▁ქალი	-9.08895
▁კამ	-9.08917
”	-9.09047
▁აზერბაიჯან	-9.09047
▁მონასტერ	-9.09048
გრძელ	-9.09055
▁ავტო	-9.09071
▁2009	-9.09096
os	-9.091
▁მიმართ	-9.09118
ab	-9.09262
ხვა	-9.09562
რჩევ	-9.09597
▁ხელი	-9.09754
▁2000	-9.09851
ვილი	-9.09983
▁შექმნა	-9.09999
▁ბრიტანელ	-9.09999
▁უილიამ	-9.1
▁თავმჯდომარე	-9.10002
▁1960	-9.10015
▁აქტიურ	-9.10057
▁ივ	-9.10071
▁არმია	-9.10128
▁31	-9.10283
▁მოკლე	-9.1032
52	-9.10406
▁იო	-9.10437
XIII	-9.10484
ყარა	-9.10485
ისაგან	-9.10824
ნენ	-9.10934
м	-9.10961
▁პოლონეთ	-9.10964
ist	-9.10964
▁1942	-9.1097
▁გზა	-9.11091
▁ფრანგულ	-9.11105
▁ქარ	-9.11404
▁ავტორი	-9.11488
▁გულ	-9.11754
▁არქიტექტორი	-9.11839
▁ბენ	-9.11859
▁საშუალო	-9.11932
▁1918	-9.11945
▁დადიანი	-9.11953
07	-9.11965
94	-9.1207
▁მრავალი	-9.12413
▁გმირი	-9.1244
იანე	-9.12875
▁ვლადიმერ	-9.12912
▁უდიდესი	-9.12912
08	-9.12984
▁ადამიანის	-9.13004
87	-9.13021
02	-9.13103
ცენტრ	-9.13171
▁ხშირ	-9.13196
▁ჰუ	-9.13266
დასავლეთ	-9.13424
B	-9.13442
▁საფრანგეთ	-9.13583
▁საუკუნე	-9.1378
▁მუნიციპალიტეტში	-9.13902
▁იტალიის	-9.13904
▁1966	-9.13912
▁სინ	-9.13945
▁[	-9.14062
▁არიან	-9.14098
si	-9.14335
▁ევროპა	-9.14398
▁ბუნ	-9.14542
ფუძ	-9.14578
▁გაერთიანებ	-9.146
▁ჰაინრიხ	-9.14902
▁1930	-9.14914
▁1999	-9.14915
▁1940	-9.14918
▁დუ	-9.15048
პონ	-9.15201
06	-9.15278
▁ადგილი	-9.1528
▁მეფეები	-9.15322
▁ჩრდილო	-9.15393
D	-9.1541
▁ფინ	-9.15505
▁ზედა	-9.15645
საქართველო	-9.15655
▁უფლებ	-9.15682
ებელ	-9.1569
დებოდა	-9.15743
у	-9.15912
▁ექიმი	-9.15913
▁ცხოვრების	-9.15913
▁1921	-9.15922
▁ბაზ	-9.15966
▁იმავე	-9.16016
ბალ	-9.16083
▁მთელი	-9.16266
▁ნინო	-9.16308
▁ევ	-9.16535
O	-9.16562
ერო	-9.16582
პოლიტიკურ	-9.16829
▁პაპ	-9.16861
▁დედოფალ	-9.16932
▁ფერმწერი	-9.16932
▁1953	-9.16942
▁იტალია	-9.16943
▁1968	-9.16943
ებდნენ	-9.17114
ტიკა	-9.17276
▁ფორმა	-9.17409
კლე	-9.17425
L	-9.17575
▁ბავშვ	-9.17756
з	-9.17963
▁განმავლობაში	-9.17963
▁დაიბადა	-9.17967
▁1973	-9.17971
▁2001	-9.18027
▁მუნიციპალიტეტი	-9.18077
▁წლების	-9.18233
▁საუკუნეების	-9.18285
▁თავს	-9.18298
▁ქართველ	-9.18732
▁რეგიონი	-9.18821
de	-9.18838
▁სიგრძე	-9.19005
▁ლათინურ	-9.19005
▁მესამე	-9.19011
▁1994	-9.19012
თმცოდნე	-9.19037
▁უნივერსიტეტი	-9.19336
რელი	-9.1944
▁XX	-9.19508
ებრ	-9.19558
▁ოპერა	-9.19662
ფაშა	-9.1986
▁ასული	-9.19885
საბჭო	-9.19923
დემოკრატ	-9.20048
▁სპორტსმენი	-9.20058
▁ქუთაისი	-9.20063
▁1934	-9.20066
▁1937	-9.20068
▁1967	-9.20068
▁1955	-9.20069
▁2002	-9.20104
–18	-9.20258
▁გამგე	-9.20393
▁განსაკუთრებ	-9.20394
▁დედაქალაქი	-9.20415
▁ბიზანტიის	-9.20548
▁პრე	-9.20633
▁ვაჟი	-9.2072
▁შუ	-9.20907
▁ილია	-9.21026
ობენ	-9.21033
სწავლებ	-9.21117
―	-9.21122
▁ISBN	-9.21122
▁ქიმიკოსი	-9.21122
▁არგენტინ	-9.21122
▁1956	-9.21132
▁1970	-9.21138
▁სკოლა	-9.21198
200	-9.2148
▁ოქ	-9.21755
საგან	-9.21838
я	-9.22197
▁1944	-9.22206
▁1963	-9.22208
ho	-9.22214
▁ძირითადად	-9.22268
▁საზოგადოების	-9.22433
▁სმ	-9.22602
▁იმპერატორ	-9.2306
й	-9.23284
ჲ	-9.23284
▁სანაპირო	-9.23284
▁მოწვევი	-9.23284
▁ფეხბურთელები	-9.23285
▁1975	-9.23295
▁თამაშ	-9.23304
▁საერთო	-9.23307
▁სკოლ	-9.23337
▁ვასილ	-9.23338
▁ლიდერ	-9.23397
▁უკანასკნელი	-9.23426
▁აკ	-9.23471
-3	-9.23485
▁მინ	-9.23515
▁შარ	-9.23613
▁კავშირი	-9.23892
▁მიე	-9.23942
ქალაქ	-9.24078
ბილი	-9.24105
▁ძველ	-9.24132
▁გამარჯვებ	-9.24383
ca	-9.24391
▁1958	-9.24394
▁1981	-9.24394
▁ტახტი	-9.24409
▁წევრები	-9.24526
▁მნიშვნელობა	-9.24644
▁სკ	-9.24896
▁მუზეუმი	-9.25044
▁ჯარ	-9.25166
▁ჰამ	-9.25345
▁დიპლომატი	-9.25494
▁ირაკლი	-9.25494
▁მეუღლე	-9.25494
▁ოლქი	-9.25497
▁1964	-9.25503
▁1972	-9.25505
▁1983	-9.25506
▁მუშა	-9.2553
▁VII	-9.25609
▁ირან	-9.25692
▁(16	-9.2577
▁წოდება	-9.25813
▁მდებარე	-9.25973
თქმ	-9.26105
მატებ	-9.26119
-6	-9.26125
-15	-9.26172
▁სიკვდილ	-9.26408
▁მოღვაწეობა	-9.26573
▁პროფესორ	-9.26617
▁სასულიერო	-9.26617
▁ჩო	-9.26726
▁ისტორიულ	-9.26849
▁სრული	-9.27064
▁რუსულ	-9.27088
ts	-9.27142
▁ოსმალეთის	-9.2746
▁Ma	-9.27631
H	-9.27748
▁დრამატურგი	-9.27754
▁წარმომადგენელი	-9.27754
▁სოლომონ	-9.27754
დემოკრატიული	-9.27764
▁ოჯახის	-9.2788
ებისთვის	-9.27936
me	-9.28263
▁ესპანეთის	-9.28369
ლობით	-9.28443
▁ინსტიტუტის	-9.2859
ry	-9.28659
▁მემკვიდრე	-9.28903
▁რაოდენობა	-9.28903
▁დარგში	-9.28906
▁ადგილობრივ	-9.28911
▁1938	-9.28913
▁1977	-9.28913
(	-9.28949
▁იოსებ	-9.29004
▁გაზეთ	-9.29048
▁მთავრობა	-9.29056
სენი	-9.29069
▁მეტი	-9.2907
da	-9.29341
▁ფაქტ	-9.29355
▁თეატრის	-9.29646
▁ფუ	-9.29813
▁სამსახურ	-9.29844
▁მერ	-9.29973
▁გამოაცხადა	-9.30066
▁1965	-9.3008
▁არსებობს	-9.30109
▁წითელი	-9.30162
▁ცე	-9.30395
▁ურთიერთ	-9.31106
▁ბან	-9.3111
ld	-9.31129
ы	-9.31242
▁მიუხედავად	-9.31242
▁1997	-9.31255
▁ისრაელ	-9.31256
▁ოქროს	-9.31268
აღმოსავლეთ	-9.31351
მოქალაქო	-9.3139
▁IX	-9.31433
არქ	-9.31992
▁ინგლისურ	-9.32028
დგომ	-9.3209
▁ომში	-9.32327
▁სასამართლო	-9.32433
▁ჯეიმზ	-9.32433
▁1962	-9.32433
▁ოდიშის	-9.32434
▁იაკობ	-9.32436
▁პროცეს	-9.32438
▁1926	-9.32443
▁1939	-9.32444
ოგზაურ	-9.32474
▁ჯე	-9.327
▁როლ	-9.3274
ოლდ	-9.32755
გერმ	-9.32831
▁საფრანგეთი	-9.32862
კოვ	-9.32945
ლოგი	-9.33318
▁ჟურნალ	-9.33628
▁ერეკლე	-9.33638
▁შემოქმედება	-9.33639
▁1987	-9.33646
▁ჟურნალისტი	-9.33648
▁ღმერთ	-9.33653
კრძალ	-9.33664
▁ტელე	-9.33764
▁აზ	-9.3378
im	-9.33807
he	-9.34054
▁ირანის	-9.34072
▁უფროსი	-9.34096
ხედ	-9.3425
▁შტო	-9.34256
id	-9.34292
ებისათვის	-9.34307
მამულ	-9.34455
აციო	-9.34649
▁მფლობელ	-9.34857
▁ცხოვრობდა	-9.34857
▁გვხვდება	-9.34857
▁რიცხვ	-9.34858
▁ალექსი	-9.34861
▁კიდევ	-9.34863
▁ღირს	-9.34865
▁რომელში	-9.34869
▁1950	-9.34878
გერი	-9.34969
▁წევრ	-9.3497
▁ზემო	-9.35015
▁ლიტერატურის	-9.3509
▁თურქეთ	-9.35144
▁საიტი	-9.35204
▁დადიან	-9.35245
▁გარდაცვალების	-9.35392
▁1989	-9.35626
▁ექს	-9.35689
ხასიათ	-9.36076
▁ქსე	-9.36088
▁ეკუთვნის	-9.36092
▁ლაურეატები	-9.36092
▁ფსიქოლოგი	-9.36092
▁განათლების	-9.36092
▁ზღვა	-9.36098
▁1978	-9.36109
▁მოხდა	-9.36112
▁ფილოლოგი	-9.36119
▁პარიზი	-9.36156
მტკიცე	-9.36167
▁2003	-9.36174
▁მალ	-9.36176
▁სოციალური	-9.36275
▁ადამ	-9.36334
ჰე	-9.36353
ba	-9.3643
ot	-9.36573
▁XII	-9.36761
▁ინდოეთის	-9.37007
კეთებ	-9.37085
მცენარე	-9.37342
▁ნიდერლანდ	-9.37342
▁1933	-9.37351
▁1943	-9.37352
▁პარტიის	-9.37353
▁ენაზე	-9.37382
▁დაინიშნა	-9.37406
▁აბას	-9.37495
მთავრებ	-9.37692
▁მოსკოვის	-9.37767
ლანდ	-9.38398
▁ჯილდო	-9.38608
▁დასრულდა	-9.38608
▁პატარა	-9.38614
▁XVIII	-9.38638
▁ახლო	-9.3867
▁1919	-9.38759
კულტურ	-9.39587
ოლოგ	-9.39709
ბერგი	-9.39774
▁ავტონომიურ	-9.3989
▁თეიმურაზ	-9.3989
▁თითქმის	-9.3989
▁საღვთ	-9.3989
▁სიტყვა	-9.39996
▁ერთეული	-9.40153
ad	-9.40186
and	-9.40307
▁გურიელი	-9.40872
-9	-9.41089
»	-9.41188
▁ავსტრალი	-9.41188
▁ტრადიცი	-9.41189
▁კომიტეტ	-9.41189
▁არაგვის	-9.41191
▁1924	-9.41201
▁ნაკრებ	-9.41256
▁2013	-9.41301
▁ფილოსოფოსები	-9.41329
▁ბრიტანეთ	-9.4136
ve	-9.41481
ზაფხულ	-9.41642
▁წელი	-9.41707
გეგმ	-9.41788
▁Ch	-9.42058
პრო	-9.42073
▁1928	-9.42233
▁100	-9.42335
ich	-9.42359
სამშობლო	-9.42504
▁თანახმად	-9.42504
▁დიალექტ	-9.42505
▁ეთნო	-9.42507
▁სასახლე	-9.4251
▁1979	-9.42514
▁1947	-9.42516
▁1961	-9.42519
▁1912	-9.42532
ქვეშ	-9.42603
▁2011	-9.42624
▁ბორის	-9.4265
▁პოსტ	-9.42766
მსახურე	-9.42951
▁არსენ	-9.43005
ხევი	-9.43008
▁დამოუკიდებელი	-9.43056
▁მოძრაობ	-9.43569
ფრანგ	-9.43649
▁ნორ	-9.43667
▁ძლიერ	-9.4373
fe	-9.43766
▁შტატები	-9.43837
б	-9.43837
г	-9.43838
▁1957	-9.43838
▁დაიღუპა	-9.43838
▁მოგვიანებით	-9.43838
▁რევოლუციის	-9.43838
▁ფრიდრიხ	-9.43838
▁იურისტი	-9.43841
▁გაეროს	-9.4385
▁1982	-9.43851
▁1948	-9.43851
▁1917	-9.43856
▁1920	-9.43858
▁ფრანკ	-9.43864
ქცევ	-9.43926
▁წინ	-9.4394
▁2015	-9.43953
ოვან	-9.43977
▁ფართო	-9.44028
▁მილ	-9.44062
▁გაერთიანებული	-9.44244
ძლე	-9.44305
▁ეროვნულ	-9.44584
▁ქართველები	-9.4467
▁კახ	-9.44895
▁გადმო	-9.45044
▁ოჯახში	-9.45074
▁აფხაზეთის	-9.45189
▁ზაქარია	-9.45189
▁ლორთქიფანიძე	-9.45189
▁სწავლობდა	-9.45189
п	-9.45189
▁განვითარების	-9.45191
▁1932	-9.45201
▁მაქს	-9.45202
▁1925	-9.45203
▁1922	-9.45205
ჰარ	-9.45217
▁ფილიპ	-9.45223
პინ	-9.45326
ber	-9.45348
▁კოლონი	-9.45376
▁აბდ	-9.45377
▁სახეობა	-9.4548
▁მალე	-9.45642
▁ჩვენ	-9.45709
ver	-9.45805
▁ოსმალ	-9.46033
▁სოციალ	-9.46356
▁ნაპოლეონ	-9.46559
▁არქეოლოგი	-9.46559
▁არჩევნებში	-9.4656
▁XVII	-9.46569
▁1959	-9.46571
▁1931	-9.46572
▁1929	-9.46573
▁1985	-9.46573
▁1923	-9.46574
ст	-9.46585
▁კვლავ	-9.46665
▁სერბ	-9.46686
▁An	-9.46881
უთვნ	-9.4692
ნობა	-9.47163
ამერიკელი	-9.47302
ტოლოგი	-9.47448
▁ევროპაში	-9.47595
XI	-9.47619
pe	-9.4772
▁სრულ	-9.47917
▁აღწევს	-9.47948
▁უძველესი	-9.47948
▁ჯავახიშვილი	-9.47948
▁კათედრ	-9.47948
▁შრომის	-9.4795
▁1951	-9.47959
▁1995	-9.47965
▁დონიდან	-9.48052
▁ჯო	-9.48261
▁უკვე	-9.48288
▁მარკ	-9.4872
▁ერისთავ	-9.48842
▁ძალები	-9.4894
sch	-9.49084
სიტყვ	-9.49146
▁მთარგმნელი	-9.49356
▁იაპონია	-9.49356
▁მოქალაქე	-9.49358
▁შალვა	-9.49359
▁რადგან	-9.4937
▁1914	-9.49382
▁ბერლინი	-9.49416
▁გურიის	-9.49426
▁ისინი	-9.49464
ობრივი	-9.4963
ion	-9.49656
tion	-9.49715
XV	-9.50114
▁მთავრ	-9.50132
ck	-9.50365
▁მნიშვნელობ	-9.50446
▁ჰან	-9.50495
▁საკუთარ	-9.50544
რთული	-9.50549
ორგანიზაცი	-9.5056
ian	-9.50586
▁აღსანიშნავია	-9.50785
▁კონსტიტუცი	-9.50785
ფუნქცი	-9.50785
▁გურამ	-9.50795
▁1976	-9.50802
▁შემადგენლობაში	-9.50816
▁ბევრ	-9.50871
ოვსკი	-9.51126
▁გოგი	-9.51255
▁ვერსი	-9.51281
▁ეპი	-9.51523
▁კრებული	-9.51526
ü	-9.52234
▁ვაშინგტონ	-9.52234
▁თავდაპირველად	-9.52234
▁თხზულება	-9.52234
▁სამეგრელო	-9.52234
▁შემთხვევ	-9.52234
▁ელექტრო	-9.52234
▁პროვინცია	-9.52234
▁ბულგარ	-9.52234
▁პარიზში	-9.52234
▁გალერეა	-9.52234
▁ავსტრიელ	-9.52234
▁პავლე	-9.52238
▁ჩინეთის	-9.52239
▁1954	-9.52249
▁ჩემპიონატი	-9.52299
▁ბრძოლის	-9.52366
ძირ	-9.52395
წითელ	-9.5265
▁ქართველთა	-9.52829
▁შინა	-9.53166
F	-9.53221
▁2019	-9.53287
▁კახეთ	-9.53333
our	-9.53385
▁შეისწავლ	-9.53704
▁დაამარცხა	-9.53705
▁მოიცავს	-9.53705
▁ელემენტ	-9.53705
▁სამცხე	-9.53706
▁1906	-9.53714
▁1949	-9.53716
▁1993	-9.53717
▁1927	-9.53718
▁1971	-9.53718
▁1974	-9.53719
▁სულთანი	-9.53733
V	-9.53747
▁კავკასიის	-9.53796
▁მიწა	-9.54048
▁იქვე	-9.54066
▁სენ	-9.54517
მდინარე	-9.54609
▁ჯან	-9.5465
The	-9.54784
▁ეკონომიკა	-9.55197
▁ენათმეცნიერი	-9.55197
▁იყვნენ	-9.55197
▁კრიტიკოსი	-9.55197
▁აფრიკა	-9.55197
▁მუსიკის	-9.55199
▁1952	-9.55208
▁1986	-9.55211
▁1935	-9.55213
▁1996	-9.55216
▁1900	-9.55232
▁სათავე	-9.55237
ოდნენ	-9.55325
▁2020	-9.55336
▁მილიონ	-9.55345
ხერხ	-9.55508
▁ბაკურ	-9.55563
▁რუსეთში	-9.55627
▁საკითხებ	-9.55634
▁St	-9.56064
▁ნახ	-9.56142
▁1898	-9.56155
▁აკადემია	-9.56712
▁მიწისძვრა	-9.56712
▁New	-9.56712
▁პერიოდი	-9.56714
▁საბერძნეთ	-9.5672
▁დაბრუნდა	-9.56724
▁1969	-9.56724
▁1936	-9.56725
▁საზღვრ	-9.56747
▁ნაწილში	-9.56772
▁კატა	-9.56781
▁მარიამ	-9.56793
ов	-9.56811
▁2016	-9.5683
▁ჯარები	-9.56837
ka	-9.56874
რდის	-9.57523
▁ბიზანტი	-9.57537
მოწამე	-9.57889
U	-9.57911
▁აცხადებს	-9.58251
▁ეკონომისტი	-9.58251
▁ჰერცოგ	-9.58251
▁ტაძარი	-9.58251
▁წარმოშობის	-9.58251
▁იწყება	-9.58252
▁გლეხ	-9.5826
▁1903	-9.58267
ბერძნ	-9.58378
სადმი	-9.58512
ივნ	-9.58567
ფრონტ	-9.58679
▁1889	-9.58881
▁ესპანეთ	-9.58973
ci	-9.59048
▁ირანში	-9.59292
თეთრი	-9.59681
▁XVI	-9.59781
ბრძანებ	-9.59807
▁ამჟამად	-9.59813
▁განათლება	-9.59813
▁დემეტრე	-9.59813
▁შეთანხმებ	-9.59813
სელჩუკ	-9.59813
▁წარმოადგენს	-9.59813
▁კომპანია	-9.59813
▁ვიქტორ	-9.59814
▁იბნ	-9.59851
▁შარლ	-9.59866
სებრნი	-9.59932
ძიებ	-9.59961
▁გადავიდა	-9.59982
▁თვალ	-9.60005
▁ჯარი	-9.60172
▁დონ	-9.60264
რჩეულ	-9.60505
▁ხალხური	-9.60751
ნდერ	-9.609
ers	-9.61082
pan	-9.6133
▁ევრო	-9.61383
Z	-9.614
é	-9.614
▁დირიჟორი	-9.614
▁კვერცხს	-9.614
▁ლუდვიგ	-9.614
▁მითრიდატე	-9.614
▁ოლიმპიურ	-9.614
▁ფუძემდებელი	-9.614
▁სტეფან	-9.61401
▁ჩატარდა	-9.61402
▁რიგისა	-9.61404
▁ძეგლები	-9.61408
▁1913	-9.61423
▁შოთა	-9.61472
▁მთავრობის	-9.61504
▁შენობა	-9.61676
▁Ar	-9.61813
ფენ	-9.61905
▁უკან	-9.61938
▁ლექსები	-9.62013
▁მდინარეები	-9.62129
▁გმირ	-9.62265
man	-9.62455
▁დევ	-9.6254
х	-9.63013
▁მოქანდაკე	-9.63013
▁განყოფილებ	-9.63013
▁მუსიკალური	-9.63014
▁თავისუფალ	-9.63015
▁ეწოდა	-9.63015
▁არჩილ	-9.63033
▁1998	-9.63038
▁ყოველ	-9.63096
▁მსახურ	-9.63174
▁სტილი	-9.63185
ხორც	-9.63496
▁გენერალურ	-9.64125
▁Ro	-9.64251
▁დაწყებ	-9.64359
ard	-9.64474
VII	-9.64563
▁შექმნილ	-9.64653
<	-9.64653
ოფიციალურად	-9.64653
▁დინასტიის	-9.64653
▁ზამთარ	-9.64653
▁ტყვე	-9.64657
▁განვითარება	-9.64658
▁ყოფილ	-9.64796
▁ხატ	-9.64908
▁მდგომარეობ	-9.66319
▁რევოლუციური	-9.66319
▁ჩამოყალიბდა	-9.66319
▁ქვედა	-9.66326
▁განსაზღვრ	-9.6633
▁აკაკი	-9.66336
▁1901	-9.66336
▁მუსიკა	-9.66337
▁სტატი	-9.66399
▁თხ	-9.66772
ton	-9.66863
▁ამირა	-9.67155
▁შოტლანდ	-9.67964
კახეთის	-9.68011
▁ფაკულტეტი	-9.68014
▁ჰყავდა	-9.68014
▁ვილჰელმ	-9.68014
▁სპარსეთ	-9.68015
▁ათაბაგ	-9.68015
▁გაბრიელ	-9.68015
▁პარტიული	-9.68017
▁გაბაშვილი	-9.6802
▁1911	-9.6804
მრავლ	-9.68094
კლუბ	-9.68133
▁გეოლოგი	-9.68171
▁საზოგადოება	-9.68869
▁დასაწყისში	-9.69738
▁იოსელიანი	-9.69738
▁რევოლუციონერ	-9.69738
▁ტახტზე	-9.69738
▁ქაიხოსრო	-9.69738
▁მიზნით	-9.69739
▁შედგება	-9.69739
▁შეადგენს	-9.69739
▁ხელნაწერ	-9.69739
▁საკმაო	-9.69744
▁ორგანო	-9.69745
▁XIV	-9.69755
▁თეოდორ	-9.69759
▁1910	-9.69762
ск	-9.69769
▁დაცვის	-9.69829
▁2017	-9.69882
▁აზიის	-9.6995
▁კულტურულ	-9.70014
od	-9.70089
მაღლ	-9.70322
▁ფრენ	-9.7066
რითაც	-9.70757
ბეკ	-9.709
ნსკი	-9.70977
▁ბატონ	-9.71044
▁ორდენით	-9.71158
▁ტრანს	-9.71481
▁University	-9.71493
▁აფრიკის	-9.71493
▁გადაწყვეტილებ	-9.71493
პოლკოვნიკ	-9.71493
▁მოკავშირე	-9.71498
▁დაკრძალული	-9.715
▁ამიტომ	-9.71508
▁1988	-9.71515
▁ოთარ	-9.71537
G	-9.71607
▁სიტყვები	-9.71619
▁მიმდინარე	-9.71659
▁პარლამენტ	-9.7169
▁სოფლის	-9.71796
▁ტიტული	-9.71841
სიმღერ	-9.72722
▁ვაჟ	-9.72826
▁ადოლფ	-9.73279
▁დემოგრაფია	-9.73279
▁ცხოვრობს	-9.73279
▁ბერძენი	-9.73281
▁ჰენრი	-9.73281
▁საპატი	-9.73285
წლიანი	-9.7332
▁სახით	-9.73344
▁წარწერ	-9.73445
▁ამერიკელ	-9.73792
▁1894	-9.73806
▁კანონი	-9.73867
▁კაპ	-9.74106
▁ისევ	-9.74378
▁საკითხ	-9.74567
ექტორ	-9.74635
▁ტიტ	-9.74865
?	-9.75096
Y	-9.75097
Graph	-9.75097
emica	-9.75097
▁ლაშქრობა	-9.75097
▁საგვარეულო	-9.75097
▁ჭავჭავაძე	-9.75097
▁გავლენა	-9.75097
▁რელიგიურ	-9.75097
▁ლონდონის	-9.75097
▁შედიოდა	-9.75099
▁პროექტ	-9.75102
▁მოხელე	-9.75105
▁საოპერ	-9.75107
▁ძეგლი	-9.75135
▁დროშის	-9.75193
კითხვ	-9.75259
ისწყალი	-9.75271
▁მეფობ	-9.75309
ობდნენ	-9.75554
▁ადმინისტრაციულ	-9.75671
▁ნიკო	-9.75974
ოზეფ	-9.76002
პუტ	-9.76503
▁შეიარაღებულ	-9.76578
▁დინ	-9.76619
М	-9.76949
▁მღვდელ	-9.76949
▁ხელისუფლება	-9.76949
▁ბაქრაძე	-9.76949
▁საგარეო	-9.76949
▁1905	-9.76949
▁აიღო	-9.7695
▁ხარისხი	-9.7695
▁მთლიან	-9.7695
უნგრეთ	-9.76955
▁რევაზ	-9.76956
▁1904	-9.76968
იბერიის	-9.77057
▁საუკუნეებში	-9.77077
▁გრან	-9.77157
წარმო	-9.77303
▁გუნდ	-9.77343
▁მუშაობა	-9.77366
▁vo	-9.77435
ყოფილი	-9.7781
▁ალექსანდრ	-9.77892
▁იმერეთ	-9.77901
▁(201	-9.77914
▁როკ	-9.78013
ბომბ	-9.78814
▁ხელისუფლების	-9.78835
▁იძულებული	-9.78835
▁მკვლევარ	-9.78835
▁მმართველობა	-9.78835
▁ფოლკლორ	-9.78835
პეტერბურგი	-9.78836
▁ასაკში	-9.78836
▁ფიზიკა	-9.78836
▁პოეტები	-9.78839
აღმოჩენ	-9.78841
ახლანდელ	-9.78845
▁ნოდარ	-9.78848
▁ქსნის	-9.78902
▁პარტია	-9.78908
▁გამოვიდა	-9.79195
▁ასეთი	-9.79307
▁მონაწილეობა	-9.79487
▁ფრინველები	-9.79541
▁ფილ	-9.79937
’	-9.80758
▁Press	-9.80758
▁მედიცინა	-9.80758
▁მწვრთნელი	-9.80758
▁სავაჭრო	-9.80758
▁შემორჩენილი	-9.80758
▁ჩარლზ	-9.80758
>	-9.80759
▁გრაფიკოსი	-9.80759
▁პრუსიის	-9.80759
▁სამედიც	-9.80759
▁მოიხსენიე	-9.8076
▁ევროპულ	-9.8077
▁ლენინ	-9.80962
გონებ	-9.80978
▁ბიოლოგი	-9.81024
▁La	-9.81241
▁1887	-9.81325
▁შევიდა	-9.81328
არჩევნ	-9.81384
მუზეუმ	-9.81558
▁ხელოვნება	-9.82417
პატრიარქ	-9.8255
ment	-9.82575
▁იერუსალიმ	-9.82719
▁კომპიუტერ	-9.82719
В	-9.82719
▁კომპლექს	-9.82719
▁მმართველობის	-9.82719
▁ობიექტ	-9.82719
▁უმრავლესობა	-9.82719
▁ქირურგი	-9.82719
▁წელიწადში	-9.82719
▁მონღოლ	-9.8272
▁კერძო	-9.8272
▁პიანისტი	-9.8272
▁კურორტ	-9.82721
▁მსხვილ	-9.82721
▁სამართლ	-9.82721
▁სოციალისტურ	-9.82736
▁ბასილი	-9.82754
▁მშვიდობის	-9.82815
▁ურთიერთობა	-9.82948
ვლით	-9.83087
ქართული	-9.83321
ხსნა	-9.83462
▁შვილებ	-9.8356
▁შტატ	-9.83682
ოსანი	-9.83794
მშვიდობ	-9.84524
ახალგაზრდა	-9.84719
▁ედუარდ	-9.84719
▁ითვლება	-9.84719
▁ლიპარიტ	-9.84719
▁ნუსხურ	-9.84719
▁გაიმართა	-9.8472
▁სომეხი	-9.8472
▁1907	-9.84733
▁ადამიანები	-9.84749
▁აღიარებ	-9.84791
▁არაბულ	-9.84945
▁რომაელ	-9.84968
▁თეთრ	-9.85069
▁ცნობით	-9.85283
დღე	-9.85337
land	-9.85345
უკანასკნელ	-9.86492
▁ადარნასე	-9.8676
▁ბაღდადის	-9.8676
▁დამწერლობა	-9.8676
▁პროფესიონალ	-9.8676
▁ცოლად	-9.86761
▁დამსახურებულ	-9.86761
▁სიმაღლე	-9.86761
▁მარშალი	-9.86766
▁ხორვატ	-9.86771
▁წყლის	-9.86836
ен	-9.86914
▁ჯვარი	-9.86916
▁ერთადერთი	-9.8708
▁მთის	-9.8732
den	-9.87734
▁ეგვიპტის	-9.88843
▁მოლაპარაკე	-9.88843
▁წარმოადგენდა	-9.88843
ä	-9.88843
▁ლაშქარ	-9.88843
▁ლეჩხუმ	-9.88843
▁მოსკოვში	-9.88843
▁დოქტორი	-9.88844
▁მითოლოგია	-9.88844
ტერიტორიულ	-9.88853
▁შტაბ	-9.88858
ზამთრ	-9.88867
შტაინ	-9.88869
▁1915	-9.88874
▁მამაკაცი	-9.889
▁თასი	-9.88944
▁გარემო	-9.89219
▁უფლებების	-9.89439
rom	-9.89906
ყვანა	-9.90836
&	-9.90971
სამეურნეო	-9.90971
▁რიჩარდ	-9.90971
▁ხელშეკრულება	-9.90971
ö	-9.90971
▁ახალციხის	-9.90971
მორჩილებ	-9.90971
▁მკვლელ	-9.90971
▁ბუნებრივი	-9.90972
▁ადამიანს	-9.90975
▁ელენე	-9.90983
▁მონაცემებით	-9.91016
▁სიუნი	-9.91039
▁ძმის	-9.91041
▁ხელმძღვანელობით	-9.91045
▁კაპიტ	-9.91155
▁ბერიძე	-9.91175
▁სიკვდილით	-9.91372
qu	-9.91374
▁კვირი	-9.91505
▁ზაფხული	-9.92388
▁განსაკუთრებულ	-9.92477
▁შვეიცარ	-9.92929
თიანეთ	-9.93144
▁აღმოაჩინა	-9.93145
▁აღნიშნული	-9.93145
▁თარგმნ	-9.93145
▁მწვერვალ	-9.93145
▁პოპულარულ	-9.93145
▁ბორჯომ	-9.93145
▁მცხოვრებ	-9.93145
▁ვანანდი	-9.93146
▁ქიმია	-9.93148
▁ნახევრ	-9.93149
მოციქულ	-9.93153
▁ქმნის	-9.93157
▁1908	-9.9316
▁კიევის	-9.9317
▁შოტლანდიის	-9.93211
▁მეთაურობით	-9.93255
▁გვერდ	-9.93285
▁წყაროებში	-9.9331
ძალიან	-9.9335
▁ცხოველ	-9.93381
▁დაყოფა	-9.93452
▁ნიკოლა	-9.94049
▁რადიო	-9.94325
▁ძალა	-9.94456
ар	-9.9482
▁დანიელ	-9.95234
საზღვაო	-9.95367
▁ბენედიქტ	-9.95367
▁გავრცელების	-9.95367
▁იკვებება	-9.95367
▁კინომსახიობი	-9.95367
▁მშენებლობა	-9.95367
▁ყიფიანი	-9.95367
▁სისტემის	-9.95367
მგზავრ	-9.95367
▁გადმოცემ	-9.95368
▁ჭელიძე	-9.95369
▁დაიკავა	-9.9537
▁აშოტ	-9.95381
▁აღწერის	-9.95382
▁ბერძნული	-9.95384
▁ეგვიპტე	-9.95389
▁1916	-9.95396
▁თემურ	-9.9542
▁კასტ	-9.95473
▁ინდიელ	-9.95486
▁მაზრ	-9.95571
კონტროლ	-9.95603
▁იდეა	-9.9566
▁სუბ	-9.96014
▁აბსოლუტურ	-9.9764
▁დაჯილდოებ	-9.9764
▁კაკაბაძე	-9.9764
▁ლუარსაბ	-9.9764
▁მომხდარ	-9.9764
▁სამყაროს	-9.9764
ინდუსტრი	-9.9764
▁ფრედერიკ	-9.9764
▁მუდმივ	-9.9764
▁მძიმე	-9.9764
▁გარკვეულ	-9.9764
▁დიზაინი	-9.9764
▁პაკისტან	-9.9764
▁ნიშნავს	-9.97641
▁ამერიკულ	-9.97641
▁ტოკიო	-9.97642
მხრივ	-9.97643
▁საბრძოლო	-9.97646
პრობლემ	-9.97647
▁კლასიკურ	-9.97648
▁გამოფენა	-9.97649
▁ბრძანებით	-9.97652
▁1902	-9.97656
▁ოსტატ	-9.97672
ედინ	-9.97673
▁მაშინ	-9.97738
▁მშვიდობა	-9.97752
▁2021	-9.97773
▁ნიმუშ	-9.97824
▁ქალიშვილი	-9.97868
▁გურიელ	-9.98232
▁აჭარის	-9.98453
საქმ	-9.99086
▁ციხის	-9.9922
▁კონფლიქტ	-9.99965
▁უმთავრეს	-9.99965
ч	-9.99965
ლეიტენანტი	-9.99965
▁ალფრედ	-9.99965
▁დაწესებულებ	-9.99965
▁კათოლიკე	-9.99965
▁კილომეტრ	-9.99965
▁ნამუშევრები	-9.99965
▁რევოლუცია	-9.99965
▁რუსთაველი	-9.99965
▁სწორედ	-9.99965
▁უზბეკეთი	-9.99965
▁საფუძველი	-9.99966
▁იოჰან	-9.99967
▁ჯაყელი	-9.99968
▁აქედან	-9.99969
▁თამაზ	-9.9997
▁იღებს	-9.99972
▁გადადგა	-9.99979
▁ოპერის	-9.99982
▁1909	-9.99986
▁მერაბ	-10.0001
▁რკინიგზის	-10.0001
▁ანდრე	-10.0002
▁დატოვა	-10.0005
▁ფიზიოლოგია	-10.0006
▁ამგვარ	-10.0009
ер	-10.0013
▁ორგანიზაცია	-10.0033
მდებარე	-10.0037
▁თავისუფლების	-10.0051
ინგლ	-10.0073
ive	-10.0105
წგნ	-10.0116
▁დედაქალაქ	-10.0135
წყარო	-10.0136
ბეგი	-10.0189
ფიზიოლოგი	-10.0226
▁ხორ	-10.0226
▁ფრანც	-10.0234
ენციკლოპედი	-10.0235
▁თანამშრომლ	-10.0235
▁კავალრები	-10.0235
▁კათოლიკურ	-10.0235
▁კიკნაძე	-10.0235
▁ლონდონში	-10.0235
▁მყინვარ	-10.0235
▁პორტუგალიის	-10.0235
▁სასოფლო	-10.0235
▁ტერიტორიის	-10.0235
▁მონასტრის	-10.0235
▁სცენარისტი	-10.0235
▁ვრცელ	-10.0235
▁ქიმიურ	-10.0235
▁სოციოლოგ	-10.0235
▁დაკავშირებული	-10.0235
▁დააარსა	-10.0235
▁ანდრია	-10.0235
▁ფარსმან	-10.0236
▁ალბერტ	-10.0238
▁პოლიტიკა	-10.0238
▁ფლოტ	-10.024
▁თეორია	-10.0241
log	-10.0243
▁ჯაფარ	-10.0244
▁კვირიკე	-10.0245
ბავშვო	-10.0283
▁ხაზი	-10.0293
▁სიმღერებ	-10.031
▁მოსკოვი	-10.0396
▁მწერალ	-10.0411
▁გერმანელ	-10.0413
ლამაზ	-10.0427
ტექნიკურ	-10.0479
▁აღმოაჩინეს	-10.0479
▁ბალანჩივაძ	-10.0479
▁ბიბლიოთეკ	-10.0479
▁გამყრელიძე	-10.0479
▁დამაარსებელი	-10.0479
▁ეწეოდა	-10.0479
▁იბრძოდა	-10.0479
▁მოხაზულობა	-10.0479
▁უმნიშვნელოვანეს	-10.0479
▁დახმარებით	-10.0479
▁ესაზღვრება	-10.0479
▁კოსმოსურ	-10.0479
▁მომხრე	-10.0479
▁შეთქმულებ	-10.0479
გრძნობ	-10.0479
▁სამუშაო	-10.0479
▁კავკასიონის	-10.0479
▁გამოქვეყნდა	-10.0479
▁გრძელდება	-10.0479
▁აზრით	-10.0479
▁არტისტი	-10.048
▁კარიერა	-10.048
▁ვიცე	-10.048
▁აღწერა	-10.0482
▁სარდალ	-10.049
▁მიქელ	-10.0493
▁არჩევნები	-10.0502
წამებ	-10.0532
▁სულიერ	-10.0537
▁პირობებ	-10.0588
▁Di	-10.0594
▁საუდი	-10.0622
▁დღესასწაულ	-10.066
á	-10.0729
▁ასტრონომ	-10.0729
▁ბეღურასნაირ	-10.0729
▁გამომცემლობა	-10.0729
▁მიეკუთვნება	-10.0729
▁მოახდინა	-10.0729
▁მოხსენიებული	-10.0729
▁პროგრამა	-10.0729
▁თრიალეთ	-10.0729
▁ირლანდიის	-10.0729
▁უზენაეს	-10.0729
▁ფედერალურ	-10.0729
▁ქობულეთ	-10.0729
ნამდვილი	-10.0729
▁სტუდენტ	-10.0729
▁ვულკან	-10.0729
▁იანვარს	-10.0729
▁დასახლებული	-10.0729
▁სფერო	-10.0729
▁ლეგენდ	-10.073
▁დასახლება	-10.073
▁აქვთ	-10.0731
▁დაბლობ	-10.0737
▁კომუნისტურ	-10.0741
▁წლიურ	-10.0765
▁ვარსკვლავი	-10.0785
ვითარებ	-10.0795
▁მთიან	-10.0798
▁საკვებ	-10.081
▁ისტორიკოს	-10.0832
▁რომანოვ	-10.0837
▁ბუდობ	-10.0884
▁სენატ	-10.0897
▁ვირჯინი	-10.0985
▁კურსდამთავრებულ	-10.0985
▁დედოფლის	-10.0985
▁ვახუშტი	-10.0985
▁მახლობლად	-10.0985
▁მიაღწია	-10.0985
▁ოქტომბერს	-10.0985
▁პანთეონში	-10.0985
▁პოლიტიკოსები	-10.0985
▁საერისთავო	-10.0985
▁საქმიანობა	-10.0985
ц	-10.0985
▁დინასტია	-10.0985
▁ავსტრია	-10.0985
▁Com	-10.0985
რედაქტორ	-10.0985
სასვლელ	-10.0985
▁კეთილი	-10.0986
▁არამედ	-10.0986
▁ნალექები	-10.0987
▁რესპუბლიკ	-10.099
▁ყვავი	-10.0991
▁ფლორ	-10.0996
▁ბექა	-10.1016
დებიან	-10.1037
▁კონცე	-10.1045
▁ნაციონალ	-10.1085
▁ოსმალეთ	-10.1128
▁მოვლენ	-10.114
W	-10.1167
q	-10.1198
აზნაურ	-10.1227
▁მნიშვნელოვ	-10.124
რკინიგზ	-10.1243
А	-10.1248
▁ბოლქვაძე	-10.1248
▁დაამტკიცა	-10.1248
▁დამახასიათებელი	-10.1248
▁დეკემბერს	-10.1248
▁ეკონომიკის	-10.1248
▁ვიეტნამ	-10.1248
▁მანძილზე	-10.1248
▁მრეწველ	-10.1248
▁ქეთევან	-10.1248
▁ჩხეიძე	-10.1248
▁აბაშიძე	-10.1248
▁ამიერკავკასი	-10.1248
▁განვითარებული	-10.1248
▁მხედრულ	-10.1248
▁მონარქები	-10.1248
▁ხალიფა	-10.1248
▁გურგენ	-10.1248
▁ბლოკი	-10.1248
▁რაიხს	-10.1249
▁გახდნენ	-10.1249
▁გეორგ	-10.1249
▁გამოჩენილ	-10.1249
▁ფორმის	-10.125
▁მიზანი	-10.1252
▁ისლამ	-10.1259
ღალატ	-10.1263
▁შვეიცარიელ	-10.1274
▁მოდელი	-10.1274
ბირთვ	-10.1296
▁მთელ	-10.1439
გეოგრაფიულ	-10.1445
ვნებ	-10.1481
▁რომაელებ	-10.1507
რეჟისორ	-10.1516
კალათბურთ	-10.1518
▁ავღანეთ	-10.1518
▁ვიკიპედი	-10.1518
▁იმსხვერპლა	-10.1518
▁ორკესტრ	-10.1518
▁საფუძველზე	-10.1518
▁ყაზბეგ	-10.1518
▁შესართავ	-10.1518
▁შეუძლია	-10.1518
ვერმახტის	-10.1518
▁სიმფონი	-10.1518
იყვანეს	-10.1518
▁კოლუმბი	-10.1518
▁საჰაერო	-10.1518
▁გამოაქვეყნა	-10.1518
▁საპარლამე	-10.1518
▁მეოთხე	-10.1518
#	-10.1518
▁პოლიტიკის	-10.1518
▁სვანეთის	-10.1518
▁მეგობრ	-10.1519
▁ტერიტორიები	-10.1519
მაჰმად	-10.1519
▁საუკუნიდან	-10.1519
▁მდიდარ	-10.1519
▁მანქანა	-10.1519
▁ავსტრიის	-10.1519
▁მოადგილე	-10.1519
▁იანვრ	-10.1519
▁ტიპის	-10.152
▁ბალეტის	-10.152
▁სპეციალურ	-10.152
▁კვირა	-10.1531
▁ეკლესი	-10.1576
ვერდ	-10.1705
ჩვენებ	-10.1707
J	-10.1733
▁პრეზიდიუმ	-10.1796
Г	-10.1796
კლარჯეთის	-10.1796
სტრუქტურ	-10.1796
▁History	-10.1796
▁ანდრონიკაშვილ	-10.1796
▁გაუქმდა	-10.1796
▁დამფუძნებელი	-10.1796
▁თავდაცვის	-10.1796
▁მეურნეობის	-10.1796
▁ნაცვლად	-10.1796
▁პროდიუსერი	-10.1796
▁უფლისწულ	-10.1796
▁შესრულებული	-10.1796
П	-10.1796
▁მცხეთა	-10.1796
▁ინდოეთში	-10.1796
▁მოსაზრებ	-10.1796
▁უმეტეს	-10.1796
▁წვლილი	-10.1796
▁ირლანდიელ	-10.1796
საკუთრ	-10.1796
▁ებრაელი	-10.1796
▁იარაღი	-10.1796
▁ბიზნესმენი	-10.1796
▁გაატარა	-10.1796
▁ნავთობ	-10.1796
▁პოლონელი	-10.1796
▁ბრალდებ	-10.1796
გადასახად	-10.1797
▁ზომიერ	-10.1797
▁ფინანს	-10.1798
▁ადგილზე	-10.18
▁უშიშ	-10.1801
სანქტ	-10.1809
▁კორეა	-10.1828
▁დელტ	-10.1935
ж	-10.2082
წინასწარმეტყველ	-10.2082
▁გაიმარჯვა	-10.2082
▁დედამიწის	-10.2082
▁იხსენიება	-10.2082
▁სანტიაგო	-10.2082
▁სტამბოლ	-10.2082
▁ფერდინანდ	-10.2082
▁ცდილობდა	-10.2082
▁World	-10.2082
▁ალექსეი	-10.2082
▁აპრილს	-10.2082
▁დირექტორი	-10.2082
▁თარგმან	-10.2082
▁კურაპალატ	-10.2082
▁ღოღობერიძე	-10.2082
▁შედარებით	-10.2082
▁შექმნის	-10.2082
▁ბესარიონ	-10.2082
▁გენერლ	-10.2082
▁მოქმედებდა	-10.2082
▁მთიულ	-10.2083
▁დაავადებ	-10.2084
▁ღრმა	-10.2084
▁სამინისტრო	-10.2084
▁დარჩა	-10.2087
მოთხრ	-10.2088
▁სტალინ	-10.2089
ექსპ	-10.2103
ალისტურ	-10.2249
▁მოსახლე	-10.2356
+	-10.2376
საათაბაგო	-10.2376
▁ადრინდელ	-10.2376
▁ვასპურაკანი	-10.2376
▁იშვიათად	-10.2376
▁მარცხენა	-10.2376
▁მარჯვენა	-10.2376
▁მელქისედეკ	-10.2376
▁მოჰყვა	-10.2376
▁ნორვეგიის	-10.2376
▁სამხატვრო	-10.2376
▁ფორმულა	-10.2376
▁ქორწინებ	-10.2376
▁მიიღეს	-10.2376
▁ეთნიკურ	-10.2376
▁მკურნალ	-10.2376
▁ინტერეს	-10.2376
მძლავრ	-10.2376
▁მოვალეობ	-10.2376
▁სააკაშვილ	-10.2377
მახარაძე	-10.2377
▁ლატვი	-10.2377
▁მომდევ	-10.2377
▁მონარქი	-10.2377
▁ივნისს	-10.2377
ль	-10.2377
▁ალბომ	-10.2379
▁შენობის	-10.238
▁სპორტულ	-10.2381
▁აშენებ	-10.2417
▁ჟუ	-10.2469
▁ემილ	-10.2473
▁на	-10.2474
ზუსტ	-10.252
▁გაგზავნ	-10.2648
▁არქიტექტურა	-10.2679
▁გამოიყენება	-10.2679
▁გამოიწვია	-10.2679
▁გამოუცხადა	-10.2679
▁დასახლებები	-10.2679
▁ელისაბედ	-10.2679
▁ვლადიმირ	-10.2679
▁იკვებებიან	-10.2679
▁კეკელიძე	-10.2679
▁ყურადღება	-10.2679
▁ცინცაძე	-10.2679
▁დანიშნულ	-10.2679
▁მჭიდრო	-10.2679
▁გუსტავ	-10.2679
▁ილარიონ	-10.2679
▁საამირო	-10.2679
▁ტაძრის	-10.2679
▁ვიწრო	-10.2679
▁ესტონეთი	-10.2679
▁უნგრელ	-10.268
▁სისხლი	-10.268
▁სერგეი	-10.268
▁ფიზიკურ	-10.268
▁ბავარიის	-10.268
▁ივლისს	-10.2682
▁ტრანსპორტი	-10.2682
▁გადასახლებ	-10.2685
▁კარგად	-10.2685
ვიზიო	-10.272
მაგისტრ	-10.2778
კუთხ	-10.2849
▁ბატონიშვილ	-10.2937
ქართველ	-10.2963
И	-10.2992
▁აკურთხეს	-10.2992
▁აღმოჩნდა	-10.2992
▁დაიპყრო	-10.2992
▁კონსტანტინოპოლ	-10.2992
▁მოცეკვავე	-10.2992
▁მოწყობილ	-10.2992
▁პროვინციები	-10.2992
▁სახალიფო	-10.2992
▁ფარგლებში	-10.2992
▁ღვთაება	-10.2992
▁ყაზახეთ	-10.2992
▁ჟორჟ	-10.2992
▁ფრაზები	-10.2992
▁იურიდიულ	-10.2992
რედაქცი	-10.2992
სნაირთა	-10.2992
▁მუსლიმ	-10.2992
▁რკინის	-10.2992
▁მწერებით	-10.2992
▁ესპანურ	-10.2993
▁სპეც	-10.2994
▁აღდგენა	-10.2995
▁სარგებ	-10.2996
▁ვადით	-10.2996
▁მამამისი	-10.2999
▁აპოლო	-10.3018
▁მწერლ	-10.3056
აღმოსავლეთმცოდნე	-10.309
▁კონტინენტ	-10.3133
მცოდნე	-10.3153
▁სახეობ	-10.326
საფრანგეთი	-10.3311
▁ღირსშესანიშნაობ	-10.3314
პეტერბურგში	-10.3314
▁York	-10.3314
▁ავთანდილ	-10.3314
▁ანთროპოლოგი	-10.3314
▁ბინადრობს	-10.3314
▁ბიოქიმიკოსი	-10.3314
▁გამოყენება	-10.3314
▁დაიპყრეს	-10.3314
▁თებერვალს	-10.3314
▁თვალსაჩინო	-10.3314
▁კავაბატა	-10.3314
▁მეტრეველი	-10.3314
▁მოწაფე	-10.3314
▁მოწინააღმდეგ	-10.3314
▁ნოემბერს	-10.3314
▁საავტომობილო	-10.3314
▁სამკურნალო	-10.3314
▁საშუალება	-10.3314
▁სიმბოლო	-10.3314
▁უდაბნო	-10.3314
▁ფილოსოფია	-10.3314
▁ხელშეკრულებები	-10.3314
▁მიუნხენი	-10.3314
▁შეხედულებ	-10.3314
▁მდინარის	-10.3314
▁კალიგრაფი	-10.3314
▁შეიცავს	-10.3314
rows	-10.3314
▁ეპარქი	-10.3314
▁რელიგია	-10.3314
▁რელიგიებ	-10.3314
▁ღვალაძე	-10.3314
▁ადამიანთა	-10.3314
მესხიშვილი	-10.3314
▁სიცოცხლის	-10.3314
▁პირდაპირ	-10.3314
▁1884	-10.3314
▁რუმინეთი	-10.3314
▁დასაწყისი	-10.3314
▁ორბელიან	-10.3315
▁საფლავი	-10.3315
▁საჯარო	-10.3315
▁ჰოლანდიელ	-10.3315
▁ურბან	-10.3315
▁მაინც	-10.3316
▁გაგიკ	-10.3316
▁კუთხე	-10.3316
▁დაწერილი	-10.3317
▁აფრო	-10.3317
▁წელში	-10.3318
▁ატომურ	-10.332
▁წყვილ	-10.3325
▁უელსი	-10.334
ნაციონალური	-10.3518
შემოდგომ	-10.3545
ინიშნება	-10.3583
მხატვრულ	-10.3643
°	-10.3643
K	-10.3643
▁გამომგონებელი	-10.3647
▁გუბერნატორ	-10.3647
▁დამარცხდა	-10.3647
▁ზესტაფონ	-10.3647
▁ნახევარსფერო	-10.3647
▁პორტუგალიელ	-10.3647
▁პრაქტიკ	-10.3647
▁რეზიდენცია	-10.3647
▁სულაკაური	-10.3647
▁ფილოსოფიის	-10.3647
▁ხანგრძლივი	-10.3647
▁ასამბლე	-10.3647
▁ნაცისტური	-10.3647
▁სასაფლაო	-10.3647
▁გრამატიკ	-10.3647
▁დომინიკ	-10.3647
▁შეცვალა	-10.3647
▁პროდუქტ	-10.3647
▁უკავშირდება	-10.3647
▁სპარსელ	-10.3648
▁თქვენ	-10.3648
▁როსტომ	-10.3648
▁გადაეცა	-10.3648
▁ევგენი	-10.3648
▁პოზიცი	-10.3648
კანდიდატ	-10.3648
▁კვლევის	-10.3649
სამტრედ	-10.3649
▁კოშკ	-10.3656
▁საქსონ	-10.3656
▁ფილიპინებ	-10.3659
▁წალკ	-10.3672
▁პრიმ	-10.3741
ჰერეთი	-10.3887
ახალგაზრდობ	-10.3992
▁ბელგრად	-10.3992
▁ბრინჯაოს	-10.3992
▁თვითმფრინავ	-10.3992
▁ითვლებოდა	-10.3992
▁მაკინტოშ	-10.3992
▁მანუჩარ	-10.3992
▁მეხუთე	-10.3992
▁მიღწევ	-10.3992
▁საყოველთაო	-10.3992
▁ჩვეულებრივ	-10.3992
▁ასრულებდა	-10.3992
▁მასშტაბ	-10.3992
▁სიღნაღ	-10.3992
▁ფილადელფი	-10.3992
▁მოიპოვა	-10.3992
▁პუნქტი	-10.3992
▁ალბანეთ	-10.3992
▁ისტორიიდან	-10.3992
▁წარმოშობით	-10.3992
▁ევროკავშირის	-10.3992
▁სააკაძე	-10.3992
▁დღევანდელ	-10.3992
წესრიგ	-10.3992
▁დანარჩენ	-10.3992
▁გელოვანი	-10.3992
▁1857	-10.3993
▁იწყებს	-10.3993
▁ბათუმი	-10.3993
▁მკაცრ	-10.3993
▁ყირიმ	-10.3993
▁შედეგებ	-10.3993
▁არაბთა	-10.3993
▁დაკავშირებით	-10.3993
მარცვლ	-10.3993
▁მაქსიმე	-10.3993
▁კოლეჯ	-10.3995
▁ახასიათებ	-10.3997
▁ნაკლებ	-10.3998
▁შრომები	-10.4002
▁შვიდ	-10.4022
▁გურდი	-10.4034
0.000	-10.427
საგარეჯო	-10.4349
სუბტროპიკ	-10.4349
▁ამარცხებს	-10.4349
▁ასომთავრულ	-10.4349
▁ბეკჰემ	-10.4349
▁ბრწყინვალე	-10.4349
▁გამარჯობა	-10.4349
▁ემიგრანტ	-10.4349
▁იყენებენ	-10.4349
▁კონფერენცია	-10.4349
▁ლიხტენშტაინ	-10.4349
▁მთაწმინდ	-10.4349
▁სასწავლებელში	-10.4349
▁ქავთარაძე	-10.4349
▁ღვთისმშობლის	-10.4349
▁შეუერთდა	-10.4349
▁წამყვან	-10.4349
▁კათალიკოს	-10.4349
▁სავარაუდო	-10.4349
▁ცეცხლი	-10.4349
▁ალფონს	-10.4349
▁მცხეთის	-10.4349
▁შეირთო	-10.4349
▁ოფიცერ	-10.4349
▁თენგიზ	-10.4349
▁ხომალდ	-10.4349
▁გუბერნი	-10.4349
▁ნიადაგ	-10.435
color	-10.435
▁წვრილ	-10.435
▁სამცხის	-10.435
▁ოკეანე	-10.435
მდგარი	-10.435
დროინდელ	-10.435
▁ეკოლოგი	-10.435
▁ნოტიო	-10.4351
▁ქვეყნებში	-10.4351
▁ტბებ	-10.4403
▁გარდაცვალებ	-10.4557
ь	-10.4718
▁მორწმუნე	-10.472
▁(1012-10	-10.472
▁აღმსარებელი	-10.472
▁ახვლედიანი	-10.472
▁გაემგზავრა	-10.472
▁გარშემო	-10.472
▁იუგოსლავიის	-10.472
▁ლაშქრობებ	-10.472
▁მაგალითად	-10.472
▁მედიცინის	-10.472
▁მეშვეობით	-10.472
▁მეწარმე	-10.472
▁მიტროპოლიტ	-10.472
▁ოქტომბრი	-10.472
▁სტრატეგიულ	-10.472
▁შესაძლებელი	-10.472
▁დოკუმენტ	-10.472
▁მომდინარეობს	-10.472
▁ჯეფერსონ	-10.472
▁სლოვენი	-10.472
▁მექსიკელ	-10.472
▁style	-10.472
▁ქუთაისში	-10.472
▁გამოირჩევა	-10.472
▁რადამისტ	-10.472
▁ღვთის	-10.472
▁ბელგია	-10.472
▁ატარებდა	-10.472
▁რეაქცი	-10.472
▁აერთიანებ	-10.472
▁ნაშრომი	-10.472
▁1862	-10.472
▁სასწავლებელი	-10.472
▁მღვიმე	-10.472
▁მინერალურ	-10.472
▁მფარველ	-10.472
▁ახმეტ	-10.472
▁ატარებს	-10.472
▁მოთხრობა	-10.472
▁საწარმოები	-10.4721
▁ვიდრე	-10.4721
▁კოალიცი	-10.4721
დედაქალაქი	-10.4755
გიორგი	-10.4756
▁მსახიობ	-10.4778
მოყვან	-10.4903
ვარსკვლავ	-10.5018
▁ბიზნეს	-10.5104
Б	-10.5104
ემიგრაცი	-10.5104
▁გაჩეჩილაძე	-10.5104
▁გეგეჭკორი	-10.5104
▁დამარცხების	-10.5104
▁დიდგვაროვან	-10.5104
▁ვაჩნაძე	-10.5104
▁ზეგავლენ	-10.5104
▁ინიციატივით	-10.5104
▁ლერმონტოვი	-10.5104
▁ნარკვევები	-10.5104
▁ნახვამდის	-10.5104
▁პატივსაცემად	-10.5104
▁სექტემბერს	-10.5104
▁ქორეპისკოპოსი	-10.5104
▁ყვარყვარე	-10.5104
▁ჩამოაყალიბა	-10.5104
▁ჭიაურელი	-10.5104
Q	-10.5104
ı	-10.5104
▁კონსერვატორი	-10.5104
▁მორაგბე	-10.5104
▁პატიმრობ	-10.5104
▁სპეციალისტ	-10.5104
▁უზრუნველ	-10.5104
▁წარმატებით	-10.5104
ცოცხალ	-10.5104
▁აჰმედ	-10.5104
▁საფუძვლ	-10.5104
▁გვიანდელ	-10.5104
▁უკავია	-10.5104
▁სპარსულ	-10.5104
ackground	-10.5105
ჭიათურ	-10.5105
▁კონგრესი	-10.5105
▁მეთოდი	-10.5105
▁მოკლულ	-10.5105
▁სეზონ	-10.5106
დანაშაულ	-10.5108
ანგარიშ	-10.5109
▁ღაზნევიდებ	-10.5112
▁კანადელ	-10.5124
▁მხატვარ	-10.513
გზავნა	-10.5144
ოსმალეთის	-10.5154
nivers	-10.5193
1928)	-10.5199
ამზადებ	-10.527
მწერლობის	-10.5367
▁Uni	-10.5419
კომუნისტ	-10.5487
▁მონაცემ	-10.5496
საუკუნ	-10.5496
თვალისწინებ	-10.5504
▁გააჩნია	-10.5504
▁დაამარცხეს	-10.5504
▁დაქორწინდა	-10.5504
▁კერესელიძე	-10.5504
▁მარჯვნივ	-10.5504
▁მეურნეობა	-10.5504
▁მიწისქვეშ	-10.5504
▁მოიცავდა	-10.5504
▁ნადირაძე	-10.5504
▁საინტერესო	-10.5504
▁უახლესი	-10.5504
▁ღლონტი	-10.5504
▁ცხოვრობენ	-10.5504
▁წულუკიძე	-10.5504
▁ჯანდაცვის	-10.5504
▁ჰომოსექსუალ	-10.5504
Т	-10.5504
▁German	-10.5504
▁გააუქმა	-10.5504
▁ინდონეზი	-10.5504
▁ნაშრომები	-10.5504
▁ოზურგეთ	-10.5504
▁სეისმოგრაფი	-10.5504
▁შეესაბამებ	-10.5504
ight	-10.5504
▁სემინარი	-10.5504
▁საყდარი	-10.5504
▁ებრძოდ	-10.5504
▁განთქმული	-10.5504
▁ნაწილობრივ	-10.5505
▁ხაზში	-10.5505
▁წარმატებულ	-10.5505
▁სცენა	-10.5505
▁ფორმები	-10.5506
▁ბოტანიკ	-10.5506
▁უოლტ	-10.5506
▁დაფუძნებ	-10.5507
▁სარდლობ	-10.5518
▁ცხრილ	-10.5518
▁ძმებ	-10.5521
▁არქიტექტორ	-10.5543
1989)	-10.567
▁ინტერნეტ	-10.5847
▁ავადმყოფ	-10.5921
▁აკადემიკოს	-10.5921
ш	-10.5921
მწიგნობარი	-10.5921
ჭყონდიდ	-10.5921
▁ანასტასი	-10.5921
▁გადაწყვიტა	-10.5921
▁გავრცელდა	-10.5921
▁გეთაყვა	-10.5921
▁ერთმანეთს	-10.5921
▁თანავარსკვლავედ	-10.5921
▁კალიფორნია	-10.5921
▁მუხრანბატონ	-10.5921
▁მშობლიურ	-10.5921
▁რაოდენობით	-10.5921
▁საკრებულო	-10.5921
▁სებასტიან	-10.5921
▁ტყიბულ	-10.5921
ф	-10.5921
▁დაკრძალულები	-10.5921
▁პარაგვაი	-10.5921
▁რელიგიის	-10.5921
▁სუმბატ	-10.5921
▁ტერორისტ	-10.5921
▁მწვანე	-10.5921
▁რუსუდან	-10.5921
▁აეროპორტ	-10.5921
▁კაპანაძე	-10.5921
▁(1019-10	-10.5921
▁ირლანდია	-10.5921
▁ფაბრიკ	-10.5921
▁გავლენის	-10.5921
▁დარბაზ	-10.5922
▁პროტესტანტ	-10.5922
ოფიცრ	-10.5923
▁წერტილ	-10.5923
▁იტალიურ	-10.5923
▁ინდოეთი	-10.6035
მოღვაწ	-10.6276
К	-10.6356
ography	-10.6356
საკანონმდებლო	-10.6356
▁(998-10	-10.6356
▁ასწავლიდა	-10.6356
▁აღმოსავლურ	-10.6356
▁გადააყენა	-10.6356
▁გამსახურდია	-10.6356
▁გმადლობთ	-10.6356
▁ეკატერინე	-10.6356
▁ექვთიმე	-10.6356
▁ზუგდიდ	-10.6356
▁თავისებურებები	-10.6356
▁იაროსლავ	-10.6356
▁მასაჩუსეტსი	-10.6356
▁მეტყველებ	-10.6356
▁მსგავსად	-10.6356
▁მუჰამედ	-10.6356
▁ნორვეგიელ	-10.6356
▁პორტუგალია	-10.6356
▁სამრეწველო	-10.6356
▁სატრანსპორტო	-10.6356
ю	-10.6356
▁განაგრძო	-10.6356
▁ხუნდაძე	-10.6356
▁აღმაშენებ	-10.6356
▁გაიქცა	-10.6356
▁ეტიმოლოგი	-10.6356
▁მშობლებ	-10.6356
▁შეასრულა	-10.6356
▁უცხოურ	-10.6356
▁რეკორდ	-10.6356
▁სიდიდით	-10.6356
▁წარმოიშვა	-10.6356
▁მალაქია	-10.6356
▁მკვეთრ	-10.6356
▁კავალერი	-10.6356
▁სიცოცხლე	-10.6356
▁სიტუაცი	-10.6356
ანმათავისუფლებელ	-10.6356
▁ორაკულ	-10.6356
▁ქედები	-10.6357
უდოლფ	-10.6357
▁გამართულ	-10.6359
▁წარჩინებ	-10.6359
▁ტოვებ	-10.637
▁უმაღლეს	-10.6489
▁გენშტაბ	-10.681
è	-10.681
ë	-10.681
О	-10.681
მთავარეპისკოპოსი	-10.681
▁ავგუსტ	-10.681
▁არქიტექტურის	-10.681
▁ატლანტი	-10.681
▁გეოფიზიკ	-10.681
▁გურჯიევი	-10.681
▁დეკლარაცია	-10.681
▁დეპარტამენტ	-10.681
▁დიზაინერი	-10.681
▁თანამშრომელ	-10.681
▁მეტალურგი	-10.681
▁მოპოვება	-10.681
▁სამონასტრო	-10.681
▁სამფლობელო	-10.681
▁ფილოსოფიურ	-10.681
▁ქვანახშირის	-10.681
▁ყოველწლიურ	-10.681
▁შენგელაია	-10.681
▁ძალაუფლება	-10.681
▁წერეთლის	-10.681
▁ჭუმბურიძე	-10.681
▁ჰიტლერის	-10.681
▁აღნიშნავდა	-10.681
▁ქრისტეს	-10.681
▁ჟვანია	-10.681
▁ჰუსეინ	-10.681
▁Paris	-10.681
▁კლემენტ	-10.681
▁პროვინციის	-10.681
▁ნაბოკოვ	-10.681
კრიტიკულ	-10.681
▁ჯანელიძე	-10.681
▁ნაყოფიერ	-10.681
▁ასათიანი	-10.681
▁State	-10.6811
ხევსურ	-10.6811
▁თებერვლი	-10.6811
▁ვენეცი	-10.6811
▁მასწავლებელ	-10.6813
შემოსავლ	-10.6878
▁ძირითად	-10.6932
Р	-10.7287
fficial	-10.7287
ბუნებისმეტყველ	-10.7287
გინეკოლოგი	-10.7287
მათემატიკის	-10.7287
▁Dictionary	-10.7287
▁John	-10.7287
▁ასოციაცია	-10.7287
▁ბოლშევიკი	-10.7287
▁განაპირობა	-10.7287
▁განსხვავდებ	-10.7287
▁გიტარისტი	-10.7287
▁დააპატიმრეს	-10.7287
▁დამთავრდა	-10.7287
▁დეპუტატები	-10.7287
▁დეპუტატი	-10.7287
▁ეგზისტენცი	-10.7287
▁ინკუბაცი	-10.7287
▁ლუქსემბურგ	-10.7287
▁მაჰმუდ	-10.7287
▁მელიქიშვილი	-10.7287
▁მთავარსარდლ	-10.7287
▁მოთხოვნით	-10.7287
▁მსგავსი	-10.7287
▁მჭედლი	-10.7287
▁სწრაფა	-10.7287
▁ფაკულტეტზე	-10.7287
▁ფედერაციის	-10.7287
▁შეეძინა	-10.7287
▁შენარჩუნებ	-10.7287
▁ხელშეკრულების	-10.7287
▁აგრონომ	-10.7287
ú	-10.7787
­	-10.8313
ó	-10.8313
ş	-10.8313
à	-10.8868
ο	-10.8868
í	-10.8868
ا	-10.9457
|	-10.9733
Ü	-11.0082
십	-11.0082
æ	-11.0082
Н	-11.0748
ν	-11.1463
ō	-11.1463
α	-11.1463
Д	-11.1463
ι	-11.2232
*	-11.2232
ñ	-11.2232
ý	-11.2232
ჳ	-11.2232
ل	-11.2232
ε	-11.3065
ё	-11.3065
â	-11.3065
Л	-11.3065
ç	-11.3974
十	-11.3974
„	-11.4533
ž	-11.4974
국	-11.4974
ς	-11.4974
_	-11.4974
λ	-11.6085
ρ	-11.6085
å	-11.6085
요	-11.6085
τ	-11.7335
ù	-11.7335
ò	-11.7335
χ	-11.8764
س	-11.8764
ã	-11.8764
ň	-11.8764
щ	-11.8764
ر	-11.8764
오	-11.8764
ā	-11.8764
З	-11.8764
č	-11.8764
ē	-11.8764
ʻ	-11.8764
ו	-12.0431
י	-12.0431
ن	-12.0431
−	-12.0431
ô	-12.0431
У	-12.0431
니	-12.0431
ό	-12.0431
ق	-12.0431
و	-12.0431
王	-12.0431
다	-12.0431
이	-12.0431
μ	-12.0431
†	-12.0431
[	-12.2081
ร	-12.243
Х	-12.2431
ˈ	-12.2431
Я	-12.2431
İ	-12.2431
ɑ	-12.2431
ω	-12.2431
시	-12.2431
하	-12.2431
ě	-12.2431
일	-12.2431
Ç	-12.2431
î	-12.2431
ت	-12.2431
ع	-12.2431
一	-12.2431
子	-12.2431
É	-12.2431
ί	-12.2431
‎	-12.2431
η	-12.2431
ː	-12.4931
ه	-12.4931
ū	-12.4931
人	-12.4931
말	-12.4931
Ş	-12.4931
ì	-12.4931
ř	-12.4931
γ	-12.4931
ჱ	-12.4931
ჴ	-12.4931
二	-12.4931
朝	-12.4931
나	-12.4931
사	-12.4931
}	-12.4931
Ö	-12.4931
δ	-12.4931
親	-12.4931
φ	-12.4931
ท	-12.8264
ง	-12.8264
ל	-12.8264
া	-12.8264
্	-12.8264
র	-12.8264
σ	-12.8264
ə	-12.8264
ب	-12.8264
~	-12.8264
ŏ	-12.8264
œ	-12.8264
마	-12.8264
ê	-12.8264
β	-12.8264
κ	-12.8264
ъ	-12.8264
і	-12.8264
מ	-12.8264
ة	-12.8264
ي	-12.8264
ी	-12.8264
ন	-12.8264
Ⴁ	-12.8264
Ⴂ	-12.8264
Ⴉ	-12.8264
Ⴊ	-12.8264
ⴁ	-12.8264
ⴂ	-12.8264
ⴉ	-12.8264
ⴊ	-12.8264
国	-12.8264
海	-12.8264
道	-12.8264
주	-12.8264
히	-12.8264
삼	-12.8264
د	-12.8264
ی	-12.8264
覚	-12.8264
ɔ	-12.8264
ห	-13.3264
ð	-13.3264
Τ	-13.3264
ศ	-13.3264
ั	-13.3264
ή	-13.3264
ŋ	-13.3264
ג	-13.3264
ত	-13.3264
ż	-13.3264
ز	-13.3264
ੰ	-13.3264
จ	-13.3264
藤	-13.3264
ï	-13.3264
둘	-13.3264
\	-13.3264
`	-13.3264
û	-13.3264
ċ	-13.3264
ś	-13.3264
Š	-13.3264
ų	-13.3264
υ	-13.3264
ώ	-13.3264
ת	-13.3264
م	-13.3264
ম	-13.3264
স	-13.3264
ি	-13.3264
Ⴇ	-13.3264
Ⴈ	-13.3264
Ⴋ	-13.3264
Ⴌ	-13.3264
Ⴎ	-13.3264
Ⴏ	-13.3264
Ⴑ	-13.3264
Ⴓ	-13.3264
Ⴕ	-13.3264
Ⴖ	-13.3264
Ⴗ	-13.3264
Ⴚ	-13.3264
Ⴛ	-13.3264
Ⴠ	-13.3264
ố	-13.3264
‏	-13.3264
‐	-13.3264
‘	-13.3264
⁄	-13.3264
ⴇ	-13.3264
ⴈ	-13.3264
ⴋ	-13.3264
ⴌ	-13.3264
ⴎ	-13.3264
ⴏ	-13.3264
ⴑ	-13.3264
ⴓ	-13.3264
ⴕ	-13.3264
ⴖ	-13.3264
ⴗ	-13.3264
ⴚ	-13.3264
ⴛ	-13.3264
ⴠ	-13.3264
み	-13.3264
ー	-13.3264
上	-13.3264
仁	-13.3264
元	-13.3264
千	-13.3264
号	-13.3264
島	-13.3264
沅	-13.3264
法	-13.3264
百	-13.3264
語	-13.3264
구	-13.3264
깊	-13.3264
라	-13.3264
백	-13.3264
섯	-13.3264
실	-13.3264
야	-13.3264
용	-13.3264
육	-13.3264
은	-13.3264
자	-13.3264
제	-13.3264
천	-13.3264
칠	-13.3264
팔	-13.3264
έ	-13.3264
江	-13.3264
흔	-13.3264
{	-13.3264
ط	-13.3264
ُ	-13.3264
≈	-13.3264
の	-13.3264
女	-13.3264
ɛ	-13.3264
ύ	-13.3264
예	-14.3206
韓	-14.3207
赤	-14.3208
山	-14.3209
國	-14.321
四	-14.3211
六	-14.3212
八	-14.3213
五	-14.3214
九	-14.3215
三	-14.3216
七	-14.3217
€	-14.3218
ะ	-14.3219
े	-14.322
व	-14.3221
द	-14.3222
ק	-14.3223
ב	-14.3224
Κ	-14.3225
Ä	-14.3226
Â	-14.3227
열	-14.3228
고	-14.3229
田	-14.323
庭	-14.3231
ش	-14.3232
Э	-14.3233
Ж	-14.3234
ī	-14.3235
Č	-14.3236
þ	-14.3237
ø	-14.3238
Æ	-14.3239
여	-14.324
세	-14.3241
서	-14.3242
가	-14.3243
Ю	-14.3244
Δ	-14.3245
안	-14.3246
녕	-14.3247
ج	-14.3248
̃	-14.3249
조	-14.325
선	-14.3251
한	-14.3252
아	-14.3253
э	-14.3254
Ш	-14.3255
Ф	-14.3256
ß	-14.3257
어	-14.3258
Е	-14.3259
š	-14.326
Ц	-14.3261
$	-14.3262
С	-14.3263
ป	-14.3263
พ	-14.3263
ว	-14.3263
ส	-14.3263
า	-14.3263
เ	-14.3263
โ	-14.3263
่	-14.3263
์	-14.3263
ʃ	-14.3264
ʊ	-14.3264
ס	-14.3264
আ	-14.3264
জ	-14.3264
แ	-14.3264
ἔ	-14.3264
新	-14.3264
电	-14.3264
話	-14.3264
際	-14.3264
電	-14.3264
Å	-14.3264
Ε	-14.3264
א	-14.3264
ד	-14.3264
נ	-14.3264
ئ	-14.3264
ک	-14.3264
ۇ	-14.3264
দ	-14.3264
প	-14.3264
ল	-14.3264
ূ	-14.3264
ਗ	-14.3264
ਚ	-14.3264
ਡ	-14.3264
ੀ	-14.3264
ੜ	-14.3264
ા	-14.3264
ュ	-14.3264
ル	-14.3264
兼	-14.3264
塞	-14.3264
尔	-14.3264
柱	-14.3264
덟	-14.3264
맙	-14.3264
습	-14.3264
올	-14.3264
홉	-14.3264
환	-14.3264
£	-14.3264
§	-14.3264
Ў	-14.3264
Ⴍ	-14.3264
Ⴣ	-14.3264
ị	-14.3264
Ọ	-14.3264
寛	-14.3264
清	-14.3264
知	-14.3264
@	-14.3264
·	-14.3264
À	-14.3264
È	-14.3264
Ê	-14.3264
Þ	-14.3264
ć	-14.3264
đ	-14.3264
ė	-14.3264
į	-14.3264
Ň	-14.3264
Ō	-14.3264
ţ	-14.3264
ů	-14.3264
ǎ	-14.3264
ɐ	-14.3264
ɪ	-14.3264
ɵ	-14.3264
ʁ	-14.3264
ʌ	-14.3264
ʒ	-14.3264
̂	-14.3264
̯	-14.3264
Π	-14.3264
Υ	-14.3264
ά	-14.3264
θ	-14.3264
ξ	-14.3264
π	-14.3264
ψ	-14.3264
қ	-14.3264
ҟ	-14.3264
ҷ	-14.3264
ә	-14.3264
Է	-14.3264
Տ	-14.3264
Ր	-14.3264
ח	-14.3264
ט	-14.3264
ם	-14.3264
ן	-14.3264
פ	-14.3264
ר	-14.3264
ש	-14.3264
ث	-14.3264
غ	-14.3264
ف	-14.3264
ك	-14.3264
ى	-14.3264
ې	-14.3264
ं	-14.3264
ग	-14.3264
च	-14.3264
ड	-14.3264
ढ	-14.3264
़	-14.3264
ং	-14.3264
অ	-14.3264
ক	-14.3264
গ	-14.3264
ব	-14.3264
য	-14.3264
ো	-14.3264
ਜ	-14.3264
ਪ	-14.3264
ਬ	-14.3264
ਹ	-14.3264
ਾ	-14.3264
੍	-14.3264
ગ	-14.3264
જ	-14.3264
ત	-14.3264
ર	-14.3264
ી	-14.3264
ુ	-14.3264
ଆ	-14.3264
ଓ	-14.3264
ଡ	-14.3264
଼	-14.3264
ି	-14.3264
ู	-14.3264
ใ	-14.3264
ል	-14.3264
ስ	-14.3264
ቢ	-14.3264
ክ	-14.3264
የ	-14.3264
ያ	-14.3264
Ბ	-14.3264
Გ	-14.3264
Თ	-14.3264
Ი	-14.3264
Კ	-14.3264
Ლ	-14.3264
Მ	-14.3264
Ნ	-14.3264
Პ	-14.3264
Ჟ	-14.3264
Ს	-14.3264
Უ	-14.3264
Ქ	-14.3264
Ღ	-14.3264
Ყ	-14.3264
Ც	-14.3264
Ძ	-14.3264
Ჰ	-14.3264
ḍ	-14.3264
ạ	-14.3264
ế	-14.3264
ệ	-14.3264
ọ	-14.3264
Ủ	-14.3264
ủ	-14.3264
ὁ	-14.3264
​	-14.3264
‚	-14.3264
←	-14.3264
→	-14.3264
≤	-14.3264
あ	-14.3264
う	-14.3264
じ	-14.3264
ど	-14.3264
ほ	-14.3264
む	-14.3264
ゅ	-14.3264
ん	-14.3264
ク	-14.3264
ジ	-14.3264
セ	-14.3264
・	-14.3264
之	-14.3264
予	-14.3264
修	-14.3264
兵	-14.3264
列	-14.3264
勝	-14.3264
勧	-14.3264
北	-14.3264
区	-14.3264
吉	-14.3264
名	-14.3264
喜	-14.3264
孫	-14.3264
寺	-14.3264
岐	-14.3264
帝	-14.3264
府	-14.3264
彦	-14.3264
恒	-14.3264
水	-14.3264
洋	-14.3264
源	-14.3264
澳	-14.3264
番	-14.3264
秀	-14.3264
継	-14.3264
縣	-14.3264
臣	-14.3264
表	-14.3264
覧	-14.3264
讃	-14.3264
话	-14.3264
豊	-14.3264
賢	-14.3264
邊	-14.3264
長	-14.3264
門	-14.3264
际	-14.3264
鮮	-14.3264
간	-14.3264
강	-14.3264
곱	-14.3264
기	-14.3264
까	-14.3264
네	-14.3264
넷	-14.3264
는	-14.3264
닙	-14.3264
단	-14.3264
든	-14.3264
로	-14.3264
룡	-14.3264
른	-14.3264
리	-14.3264
믄	-14.3264
바	-14.3264
번	-14.3264
봉	-14.3264
뿌	-14.3264
샘	-14.3264
셀	-14.3264
셋	-14.3264
순	-14.3264
숫	-14.3264
쉰	-14.3264
스	-14.3264
식	-14.3264
영	-14.3264
옛	-14.3264
온	-14.3264
우	-14.3264
워	-14.3264
유	-14.3264
으	-14.3264
의	-14.3264
인	-14.3264
전	-14.3264
즈	-14.3264
차	-14.3264
카	-14.3264
크	-14.3264
타	-14.3264
파	-14.3264
합	-14.3264
호	-14.3264
화	-14.3264
×	-14.3264
ĝ	-14.3264
ჿ	-14.3264
መ	-14.3264
ግ	-14.3264
伊	-14.3264
州	-14.3264
松	-14.3264
蘇	-14.3264
鎮	-14.3264
音	-14.3264
ɰ	-14.3264
ζ	-14.3264
І	-14.3264
ј	-14.3264
џ	-14.3264
Қ	-14.3264
أ	-14.3264
ठ	-14.3264
म	-14.3264
र	-14.3264
ा	-14.3264
倉	-14.3264
日	-14.3264
部	-14.3264
高	-14.3264
물	-14.3264
«	-14.3264
ˌ	-14.3264
分	-14.3264
秋	-14.3264
