<unk>	0
<s>	0
</s>	0
ის	-0
ლი	-1
ებ	-2
▁მ	-3
და	-4
არ	-5
ან	-6
ერ	-7
▁ს	-8
▁და	-9
▁გ	-10
▁ა	-11
რი	-12
▁სა	-13
▁1	-14
ელ	-15
ენ	-16
▁ი	-17
ში	-18
ელი	-19
რო	-20
ავ	-21
ები	-22
▁—	-23
▁კ	-24
ტი	-25
▁პ	-26
რა	-27
ეს	-28
ობ	-29
ოს	-30
ონ	-31
ალ	-32
▁(	-33
ეთ	-34
▁წ	-35
ამ	-36
▁შ	-37
ად	-38
ვი	-39
▁:	-40
ინ	-41
ული	-42
ემ	-43
ას	-44
▁ბ	-45
▁19	-46
ორ	-47
▁დ	-48
▁თ	-49
ურ	-50
▁ქ	-51
ულ	-52
ართ	-53
▁ფ	-54
ომ	-55
ერი	-56
ების	-57
ვა	-58
ნი	-59
ოლ	-60
ია	-61
ილ	-62
ახ	-63
ატ	-64
გი	-65
▁მო	-66
ური	-67
მა	-68
თა	-69
ედ	-70
ება	-71
ლის	-72
▁რ	-73
▁2	-74
ველ	-75
ცი	-76
ევ	-77
▁ნ	-78
ანი	-79
▁უ	-80
ალი	-81
არი	-82
▁ხ	-83
▁რო	-84
ორი	-85
▁მე	-86
▁მი	-87
ზე	-88
უს	-89
იდ	-90
▁ტ	-91
▁სამ	-92
▁გა	-93
▁არ	-94
ექ	-95
▁ლ	-96
ისტ	-97
▁ქართ	-98
ველი	-99
ირ	-100
ვე	-101
ძე	-102
ერთ	-103
ეთის	-104
ათ	-105
ოფ	-106
ეკ	-107
ოვ	-108
▁ამ	-109
▁18	-110
დე	-111
▁რომ	-112
უნ	-113
▁I	-114
▁-	-115
ისი	-116
ეტ	-117
იმ	-118
▁ჩ	-119
▁გამ	-120
▁„	-121
ოდ	-122
ებული	-123
ით	-124
ოლი	-125
ობა	-126
00	-127
▁ჰ	-128
ურა	-129
ნა	-130
რე	-131
▁სახ	-132
ცხ	-133
იკ	-134
▁ინ	-135
ტერ	-136
▁შემ	-137
შვი	-138
ართველ	-139
▁საქ	-140
დან	-141
ებს	-142
აქ	-143
ოგ	-144
19	-145
ელს	-146
▁ჯ	-147
აკ	-148
იტ	-149
▁დღ	-150
▁შე	-151
ილი	-152
▁აღ	-153
▁საქართველ	-154
▁ო	-155
ბერი	-156
▁ლი	-157
მი	-158
უკ	-159
ონი	-160
თავ	-161
აგ	-162
ყო	-163
▁ვ	-164
დი	-165
▁ზ	-166
რან	-167
ობის	-168
ვის	-169
ოსი	-170
ავლ	-171
▁ქართველი	-172
ტიკ	-173
▁გარ	-174
ებში	-175
ოლო	-176
მო	-177
ებით	-178
▁ც	-179
აზ	-180
▁მარ	-181
რის	-182
▁გან	-183
).	-184
წერ	-185
ენტ	-186
▁წელს	-187
ერმ	-188
▁გამო	-189
არე	-190
▁რა	-191
▁ერთ	-192
ვნ	-193
▁ყ	-194
აპ	-195
შვილი	-196
აც	-197
▁ან	-198
აში	-199
აბ	-200
▁ძ	-201
დეგ	-202
თან	-203
სახ	-204
▁საქართველოს	-205
▁იმ	-206
ცვ	-207
ენი	-208
),	-209
▁გარდა	-210
▁მეფ	-211
ღვა	-212
ისა	-213
ვით	-214
II	-215
▁ალ	-216
▁აგ	-217
რობ	-218
▁თავ	-219
ვარი	-220
▁დაბ	-221
▁წლის	-222
ემბერი	-223
ესი	-224
წე	-225
ალაქ	-226
▁რუს	-227
ეთი	-228
უმ	-229
ლე	-230
ტერატ	-231
▁იყო	-232
▁20	-233
▁სახელ	-234
▁ლიტერატ	-235
▁პირ	-236
▁მოღვა	-237
რძ	-238
▁17	-239
ექს	-240
ეფ	-241
▁ას	-242
▁მოღვაწე	-243
კი	-244
▁სამხ	-245
უბ	-246
ვლ	-247
▁მა	-248
ექტ	-249
er	-250
▁200	-251
ანდ	-252
ნიშ	-253
▁ე	-254
▁გერმ	-255
▁შემდეგ	-256
an	-257
-1	-258
იფ	-259
ოდა	-260
▁რე	-261
უთ	-262
აწ	-263
იზ	-264
▁მხ	-265
ორის	-266
▁პოლი	-267
▁3	-268
ქტ	-269
▁მწერ	-270
რაფ	-271
▁სხ	-272
▁საბ	-273
ეხ	-274
▁ლიტერატურა	-275
▁წლ	-276
▁ეკ	-277
მინ	-278
ობი	-279
ერიკ	-280
რეთ	-281
▁(1	-282
ტან	-283
▁საუკ	-284
▁გადა	-285
ბურ	-286
▁იან	-287
არს	-288
ლო	-289
ინა	-290
▁თბ	-291
ებულ	-292
დგ	-293
არა	-294
▁ერ	-295
ვალი	-296
როს	-297
▁პოლიტიკ	-298
ნის	-299
▁მუ	-300
ებელი	-301
▁მისი	-302
ქმ	-303
▁(19	-304
▁გარდაცვ	-305
ღვ	-306
▁მეფე	-307
ისტორი	-308
იის	-309
▁ენ	-310
▁X	-311
▁გი	-312
▁ნი	-313
▁194	-314
▁რეს	-315
▁დაბად	-316
▁მონ	-317
ანის	-318
▁ისტორი	-319
▁წარ	-320
ნენ	-321
▁დღე	-322
ერს	-323
▁დიდ	-324
▁ეს	-325
წყ	-326
▁196	-327
▁საკ	-328
▁ხელ	-329
▁კომ	-330
▁199	-331
▁ამერიკ	-332
▁საუკუნ	-333
▁კონ	-334
▁ქალაქ	-335
ეგ	-336
ეტი	-337
მწ	-338
ებერ	-339
▁იანვარი	-340
▁თებერ	-341
▁გარდაცვლი	-342
▁II	-343
▁პრო	-344
▁დას	-345
▁მას	-346
ზიდ	-347
ატი	-348
▁საფ	-349
on	-350
აშ	-351
ნე	-352
▁მწერალი	-353
▁ახ	-354
ედრო	-355
გან	-356
▁დღეს	-357
მწიფ	-358
უფ	-359
▁16	-360
▁მარტი	-361
en	-362
▁197	-363
▁სახელმწიფ	-364
▁193	-365
▁გერმან	-366
▁195	-367
▁წლებში	-368
▁ივ	-369
▁სხვა	-370
▁ორ	-371
ოლოგი	-372
▁სი	-373
▁198	-374
ოგრაფ	-375
▁თებერვალი	-376
ურს	-377
▁მოს	-378
რეზიდ	-379
აძე	-380
იან	-381
▁პირველი	-382
ედა	-383
▁ის	-384
ენტი	-385
ოში	-386
▁გიორ	-387
ადგ	-388
▁ვა	-389
▁192	-390
▁დაი	-391
ალური	-392
▁აქ	-393
აზე	-394
არის	-395
ონის	-396
▁სტ	-397
ელიც	-398
ებლ	-399
▁201	-400
in	-401
or	-402
აღ	-403
▁V	-404
▁პო	-405
პერ	-406
he	-407
▁მს	-408
ოკ	-409
ბურთ	-410
ar	-411
▁ავ	-412
აფ	-413
რულ	-414
რდ	-415
▁რომელიც	-416
ეტში	-417
ორე	-418
ირი	-419
ნობ	-420
▁აპ	-421
▁თბილ	-422
ტის	-423
ავში	-424
▁ფრან	-425
ინი	-426
აცი	-427
▁აშ	-428
ნავ	-429
▁ვი	-430
▁გიორგი	-431
▁პრეზიდ	-432
▁სახელმწიფო	-433
▁15	-434
ცა	-435
ელის	-436
▁ღ	-437
ცნი	-438
▁ინგ	-439
▁გარდაცვლილი	-440
ვარ	-441
.,	-442
როპ	-443
▁ევ	-444
▁4	-445
▁მათ	-446
▁ნო	-447
▁მდ	-448
▁დამ	-449
es	-450
▁მსახ	-451
▁ომ	-452
▁პრ	-453
▁საზ	-454
ლები	-455
▁საბჭ	-456
▁თან	-457
▁იგი	-458
▁დაბადებული	-459
▁ჟ	-460
▁ინტერ	-461
▁სამხედრო	-462
▁ჭ	-463
რილი	-464
ეხბურთ	-465
▁ინგლის	-466
▁შეი	-467
მის	-468
ოვნ	-469
ებას	-470
ხე	-471
▁შეს	-472
სი	-473
▁გახ	-474
აი	-475
▁ცხ	-476
▁მთავ	-477
კის	-478
უშ	-479
ანე	-480
ვეყ	-481
▁ად	-482
ურის	-483
▁მომ	-484
მოს	-485
▁მის	-486
ცია	-487
იობი	-488
უდ	-489
▁–	-490
ედი	-491
▁სამეფ	-492
ოტ	-493
რეთვე	-494
ადა	-495
▁აგრეთვე	-496
“,	-497
ტორი	-498
▁დიდი	-499
ობდა	-500
▁ალექს	-501
ლება	-502
ავლეთ	-503
ოზ	-504
▁5	-505
al	-506
პი	-507
ეთა	-508
▁დეკ	-509
▁191	-510
ყოფ	-511
▁ადა	-512
▁რი	-513
▁ოქტ	-514
▁A	-515
▁ბი	-516
▁თე	-517
▁ინტერნ	-518
at	-519
▁პი	-520
▁პარ	-521
▁ოქტომ	-522
ობს	-523
▁10	-524
▁აშშ	-525
▁ნაწ	-526
რამ	-527
▁მან	-528
▁რესურს	-529
▁ფეხბურთ	-530
▁მსახიობი	-531
ადო	-532
ვისტ	-533
▁ეკლ	-534
▁ფილ	-535
▁ივლის	-536
▁ქართული	-537
დება	-538
is	-539
სტ	-540
▁რესურსები	-541
▁ინტერნეტში	-542
▁S	-543
ვალ	-544
ილო	-545
ისის	-546
ოფლი	-547
▁გერმანელი	-548
▁აპრილი	-549
▁ამერიკელი	-550
ბერ	-551
დო	-552
რანგ	-553
▁მსოფლი	-554
ic	-555
ოთა	-556
▁აგვისტ	-557
▁ბრძ	-558
ეთში	-559
თვის	-560
ასი	-561
ენის	-562
თხ	-563
ებმა	-564
▁გენ	-565
▁8	-566
დის	-567
▁გახდა	-568
▁P	-569
▁მთ	-570
▁წყ	-571
იაში	-572
▁იქ	-573
▁9	-574
▁T	-575
▁კი	-576
გორ	-577
▁სექტ	-578
კო	-579
იკოსი	-580
▁ივნ	-581
ტო	-582
▁მამ	-583
▁უკ	-584
▁6	-585
არგ	-586
უბლი	-587
▁აკ	-588
ცნიერ	-589
▁პრემ	-590
რები	-591
აშვილი	-592
▁რუსეთის	-593
▁სქ	-594
▁სას	-595
▁ივლისი	-596
▁საფრანგ	-597
ტუ	-598
▁იხ	-599
▁ძე	-600
▁კომპ	-601
▁ოქტომბერი	-602
▁აბ	-603
▁C	-604
ერთი	-605
▁წმინ	-606
▁მაისი	-607
იდან	-608
▁190	-609
▁ალექსანდ	-610
▁საუკუნის	-611
▁სპ	-612
ოგადო	-613
▁აგვისტო	-614
▁14	-615
▁როგორ	-616
▁ქვეყ	-617
0-	-618
▁7	-619
ადგენ	-620
▁საზოგადო	-621
▁აღნიშ	-622
ეტის	-623
it	-624
ოგი	-625
▁189	-626
რიგ	-627
18	-628
▁ადამი	-629
ენა	-630
▁ივნისი	-631
დნენ	-632
▁"	-633
▁ცი	-634
ისტი	-635
ალა	-636
ვერ	-637
▁უფ	-638
ობას	-639
პერატ	-640
ალხ	-641
ოლიო	-642
▁სქოლიო	-643
▁ბრძოლ	-644
▁ნოემბერი	-645
ავი	-646
▁M	-647
ანა	-648
რინ	-649
▁დარ	-650
ობით	-651
▁ევროპ	-652
▁როგორც	-653
დეს	-654
▁გენერ	-655
▁ჩრდ	-656
▁ყველ	-657
ადი	-658
▁12	-659
▁დი	-660
▁აზ	-661
▁წევ	-662
▁სახელი	-663
▁ათ	-664
▁საბჭოთა	-665
▁შორის	-666
კა	-667
ურად	-668
▁სექტემბერი	-669
სა	-670
▁პოლიტიკური	-671
▁სიმ	-672
ინარე	-673
არდ	-674
ტალი	-675
▁დეკემბერი	-676
▁ფეხბურთელი	-677
▁დავით	-678
ელთა	-679
მე	-680
▁o	-681
▁მოსახ	-682
▁მაგ	-683
▁მიერ	-684
ნიშვნ	-685
უძ	-686
ყვ	-687
▁ცხოვ	-688
▁ჩრდილო	-689
ჩი	-690
ანს	-691
ობაში	-692
მინისტ	-693
დენ	-694
მად	-695
▁III	-696
▁ბერ	-697
▁წარმო	-698
ებოდა	-699
უხ	-700
ოვანი	-701
▁შტ	-702
ნიშვნელ	-703
▁188	-704
გის	-705
ილია	-706
ებათა	-707
რად	-708
▁კალ	-709
▁კარ	-710
▁იტალი	-711
▁მოსახლე	-712
ნივ	-713
ელები	-714
▁ცენტ	-715
კე	-716
ლა	-717
▁B	-718
მარ	-719
▁აფ	-720
▁ოს	-721
▁აღნიშნავ	-722
5)	-723
იხ	-724
ქი	-725
▁კათ	-726
▁შედ	-727
შა	-728
▁ცნობ	-729
ოგრაფია	-730
▁დროს	-731
▁მუს	-732
▁საქართველოში	-733
ერის	-734
▁რომის	-735
იღ	-736
რების	-737
0)	-738
ავს	-739
ციის	-740
ებულია	-741
▁of	-742
▁იაპ	-743
▁t	-744
ერიტორი	-745
ისუფ	-746
▁პოეტი	-747
ზი	-748
ჩენ	-749
ციპ	-750
▁თანამ	-751
ონომ	-752
ლების	-753
▁სოფ	-754
იგ	-755
ამდე	-756
▁ალექსანდრე	-757
▁სს	-758
ულის	-759
ქალაქ	-760
▁G	-761
პერი	-762
რატი	-763
ათვის	-764
ჟის	-765
წავლ	-766
▁აღმოს	-767
ტა	-768
▁ბრი	-769
ენები	-770
▁სამხრეთ	-771
▁ბოლ	-772
▁იხილ	-773
გზ	-774
▁საკუთ	-775
▁მეცნიერ	-776
იერ	-777
ნივერს	-778
“.	-779
უსი	-780
ილე	-781
ღერ	-782
ელმა	-783
▁პრეზიდენტი	-784
▁გრიგ	-785
▁იხილეთ	-786
▁პირველ	-787
▁ფრანგი	-788
ულები	-789
▁ტერიტორი	-790
კოს	-791
▁არს	-792
▁უნივერს	-793
დას	-794
ლან	-795
▁ერთად	-796
▁კავში	-797
გრ	-798
ავა	-799
▁კლ	-800
ებები	-801
▁მართ	-802
ლად	-803
▁მოვლ	-804
ვს	-805
▁კინ	-806
ასწ	-807
▁საუკუნე	-808
უა	-809
პან	-810
ესია	-811
ოლოგ	-812
▁არის	-813
▁წინა	-814
▁ელ	-815
01	-816
ულტ	-817
იანი	-818
▁დამო	-819
▁მნიშვნელ	-820
ნელი	-821
▁კონს	-822
აღმ	-823
პუბლი	-824
▁მუნი	-825
▁უნივერსიტ	-826
ალიტ	-827
▁წარმ	-828
▁იმპერატ	-829
▁მუნიციპ	-830
▁მოხ	-831
▁წლი	-832
▁პოლიტიკოსი	-833
▁13	-834
▁რესპუბლი	-835
2)	-836
იმე	-837
▁მუნიციპალიტ	-838
რუნ	-839
ევის	-840
ოფი	-841
▁იო	-842
უკიდ	-843
4)	-844
ევი	-845
ებდა	-846
▁186	-847
▁მსოფლიო	-848
▁d	-849
ევე	-850
ოლუ	-851
▁L	-852
▁სან	-853
აღმდეგ	-854
აპი	-855
ნდა	-856
▁ტი	-857
აყ	-858
el	-859
and	-860
წოდ	-861
▁დედა	-862
ემა	-863
-19	-864
III	-865
დაც	-866
ებზე	-867
▁ფიზ	-868
ებარე	-869
1)	-870
▁სო	-871
▁მეტ	-872
თი	-873
ინის	-874
კვ	-875
ოვი	-876
▁ბრიტან	-877
▁ჩამ	-878
▁მხატ	-879
▁დამოუკიდ	-880
▁ხოლო	-881
▁ეკლესია	-882
▁H	-883
▁იმპერი	-884
6)	-885
9)	-886
ion	-887
ავე	-888
ორტ	-889
▁საფრანგეთის	-890
▁ლე	-891
რივი	-892
▁კათოლი	-893
აძ	-894
▁N	-895
ენდ	-896
▁გე	-897
ლესი	-898
▁მრ	-899
▁კოლ	-900
▁კომპოზ	-901
▁სამეფო	-902
▁11	-903
ანიის	-904
▁სსრ	-905
ch	-906
რც	-907
▁კან	-908
იღო	-909
ქმედ	-910
▁ლა	-911
▁ურ	-912
▁რუსი	-913
▁D	-914
▁არქ	-915
▁დაამ	-916
7)	-917
8)	-918
▁მინ	-919
▁187	-920
ლამ	-921
ჯახ	-922
▁ქართლის	-923
ორმ	-924
პირ	-925
ოგრაფი	-926
▁ლუ	-927
▁ჰა	-928
ულია	-929
▁ეროვნ	-930
ხედ	-931
▁უმ	-932
▁ნახ	-933
▁მოვლენები	-934
▁სკ	-935
▁ში	-936
▁კახ	-937
▁|	-938
▁თბილისის	-939
რალ	-940
3)	-941
▁(2	-942
ჟისორი	-943
▁ნიკ	-944
▁შეიძ	-945
▁ერის	-946
ol	-947
▁R	-948
▁ესპან	-949
re	-950
▁დე	-951
▁დემ	-952
▁XI	-953
▁ფილოს	-954
▁ახალ	-955
▁მდებარე	-956
წყო	-957
▁იქნა	-958
ებენ	-959
ერთა	-960
კოსი	-961
▁კავ	-962
▁რეგი	-963
ნო	-964
ქს	-965
იცვ	-966
რატ	-967
▁დაკ	-968
▁პრეზიდენტ	-969
არჯ	-970
ემო	-971
ლია	-972
▁პოლ	-973
▁წინააღმდეგ	-974
ra	-975
un	-976
ძღვ	-977
ჯან	-978
-10	-979
▁მეორე	-980
რეს	-981
▁ეპ	-982
▁შემო	-983
us	-984
რება	-985
▁წმინდა	-986
▁ბაგ	-987
ალის	-988
რაცი	-989
▁კომპოზიტ	-990
▁ოჯახ	-991
▁მდინარე	-992
ro	-993
▁გვ	-994
▁ვახ	-995
▁საკუთარი	-996
▁გარდაიცვ	-997
▁()	-998
▁მონაწ	-999
▁შეიძლება	-1000
▁ინგლისელი	-1001
წვ	-1002
ტიტუ	-1003
ცხად	-1004
▁წლიდან	-1005
ტიის	-1006
▁თურ	-1007
▁E	-1008
ატრი	-1009
ებისა	-1010
▁განს	-1011
უტ	-1012
უნი	-1013
▁სულ	-1014
▁მთავარი	-1015
as	-1016
დიდ	-1017
მან	-1018
ურნ	-1019
▁მმ	-1020
ციალური	-1021
ხვ	-1022
ტონ	-1023
აცია	-1024
რცელ	-1025
▁მონაწილე	-1026
დგომ	-1027
▁გერმანიის	-1028
ვილი	-1029
▁წერ	-1030
▁ფილოსოფ	-1031
არდა	-1032
შვილის	-1033
▁ასევე	-1034
▁W	-1035
ლობ	-1036
ევოლუ	-1037
▁დაიბ	-1038
როვნ	-1039
▁წევრი	-1040
▁დრო	-1041
▁ხალხ	-1042
აჩ	-1043
▁ფონ	-1044
▁ეკონომ	-1045
ვინ	-1046
▁ორი	-1047
შორის	-1048
▁პერი	-1049
▁მართლ	-1050
კვლ	-1051
▁ოფი	-1052
იც	-1053
კლ	-1054
▁ბალ	-1055
▁გენერალ	-1056
▁მიმ	-1057
▁რამ	-1058
▁სამეფოს	-1059
▁ყველაზე	-1060
▁კომპოზიტორი	-1061
▁IV	-1062
რული	-1063
▁ყოფ	-1064
შორისო	-1065
▁მომღერ	-1066
ასტ	-1067
ზის	-1068
მაღ	-1069
▁XV	-1070
▁პეტ	-1071
il	-1072
ბი	-1073
შვ	-1074
ისში	-1075
ციალ	-1076
მადიდ	-1077
▁აღმოსავლეთ	-1078
ერო	-1079
ატის	-1080
წერი	-1081
▁იყ	-1082
▁დაიწყო	-1083
▁რევოლუ	-1084
▁მართლმადიდ	-1085
ითხ	-1086
▁საგ	-1087
▁სომ	-1088
უნძ	-1089
▁მიხე	-1090
რომ	-1091
ედაგ	-1092
ულად	-1093
▁არჩ	-1094
▁თამ	-1095
▁თუმ	-1096
▁ფართ	-1097
▁თავის	-1098
▁საერთა	-1099
ეი	-1100
▁ქუ	-1101
არო	-1102
ასწა	-1103
რობა	-1104
▁გავ	-1105
▁ერისთავ	-1106
▁საერთაშორისო	-1107
▁F	-1108
ურე	-1109
–19	-1110
აგან	-1111
▁პედაგ	-1112
▁მომღერალი	-1113
ბა	-1114
არტ	-1115
იმი	-1116
▁აქვს	-1117
▁მაგრამ	-1118
▁მიხეილ	-1119
ანული	-1120
▁ქართველ	-1121
▁იმპერატორი	-1122
რონ	-1123
შის	-1124
ცემ	-1125
▁184	-1126
ტანტი	-1127
▁მიხედ	-1128
▁მოსახლეობა	-1129
ვიდ	-1130
▁არმი	-1131
▁იმერ	-1132
▁დღესასწა	-1133
▁%	-1134
უმი	-1135
ვიდა	-1136
▁ავსტ	-1137
ენების	-1138
ევს	-1139
▁ენა	-1140
▁სერ	-1141
▁ვახტან	-1142
▁პერიოდ	-1143
▁ადმინისტ	-1144
▁კმ	-1145
▁აკად	-1146
▁იოანე	-1147
▁ქალაქი	-1148
არქ	-1149
▁დასავლეთ	-1150
▁ჩრდილოეთ	-1151
მალ	-1152
უალ	-1153
▁მიხედვით	-1154
▁დამოუკიდებლ	-1155
-2	-1156
am	-1157
გვი	-1158
ესტ	-1159
აჰ	-1160
ღი	-1161
▁მიწ	-1162
ერთიან	-1163
ოლოგია	-1164
ტიკოსი	-1165
▁სადაც	-1166
▁ეროვნული	-1167
ჯი	-1168
.19	-1169
ამი	-1170
ასა	-1171
▁(9	-1172
▁22	-1173
ანია	-1174
▁(18	-1175
▁ვერ	-1176
▁მუშა	-1177
▁ძირი	-1178
▁მიიღო	-1179
▁აკადემ	-1180
იკა	-1181
არცხ	-1182
▁ადგ	-1183
▁კულტ	-1184
▁მრავ	-1185
▁თბილისი	-1186
▁ისტორია	-1187
ექმ	-1188
▁25	-1189
▁ემ	-1190
▁ომი	-1191
▁ბიოგრაფია	-1192
ოთ	-1193
კოვ	-1194
▁ბატ	-1195
▁თუმცა	-1196
▁ეკლესი	-1197
▁პიროვნ	-1198
▁შენ	-1199
ორო	-1200
ონიის	-1201
ed	-1202
▁the	-1203
▁ხელოვნ	-1204
გუფ	-1205
იხს	-1206
შენ	-1207
ცენ	-1208
ავდა	-1209
განი	-1210
▁185	-1211
ამე	-1212
ლებ	-1213
▁ბიზ	-1214
▁ადგილ	-1215
▁მართლმადიდებელი	-1216
ოპ	-1217
უღ	-1218
რივ	-1219
▁ნაწილ	-1220
ur	-1221
ვენ	-1222
ორჯ	-1223
ეული	-1224
▁ჩემ	-1225
ასთან	-1226
▁პედაგოგი	-1227
▁ადმინისტრაცი	-1228
▁გური	-1229
რებული	-1230
ლავ	-1231
რიხ	-1232
▁ხს	-1233
▁მეთა	-1234
▁შესახ	-1235
ისკო	-1236
▁სიტ	-1237
▁ირან	-1238
▁შექმ	-1239
▁გავრცელ	-1240
ასკ	-1241
▁The	-1242
ვითარ	-1243
▁რამდენ	-1244
▁რომლის	-1245
▁შესახებ	-1246
▁დაბადებულ	-1247
უპ	-1248
შვილ	-1249
▁ჩამო	-1250
▁ათასი	-1251
et	-1252
წმ	-1253
▁მოძ	-1254
▁ომის	-1255
უგ	-1256
▁s	-1257
ონს	-1258
რობის	-1259
ინგ	-1260
ლანდ	-1261
▁ნობ	-1262
▁შედეგ	-1263
ამბ	-1264
აშქ	-1265
ქონ	-1266
▁26	-1267
ელში	-1268
▁ინს	-1269
ლანდი	-1270
▁თარი	-1271
ინო	-1272
▁საპ	-1273
ებაში	-1274
▁ლექს	-1275
იტექტ	-1276
▁ნიკოლო	-1277
▁კონსტანტი	-1278
ონში	-1279
▁სსრკ	-1280
ჩენილია	-1281
▁მდებარეობს	-1282
ანდა	-1283
▁მეფის	-1284
კას	-1285
▁ტყ	-1286
▁უზ	-1287
▁პრემიერ	-1288
ზა	-1289
ოდი	-1290
ხვა	-1291
▁23	-1292
▁ანდ	-1293
ატები	-1294
▁ახალი	-1295
▁იაპონ	-1296
iv	-1297
ხმ	-1298
რედ	-1299
ხის	-1300
▁ექ	-1301
არმო	-1302
ისკოპ	-1303
▁არქიტექტ	-1304
▁ატ	-1305
ურნალ	-1306
▁აღმო	-1307
▁კუნძ	-1308
▁ძვ	-1309
აციის	-1310
▁ინდო	-1311
▁ლაურე	-1312
▁ნახევ	-1313
▁კათოლიკოს	-1314
რთ	-1315
ეოდა	-1316
▁დადი	-1317
▁რამდენიმე	-1318
▁K	-1319
დომ	-1320
რია	-1321
▁ოლ	-1322
დეგი	-1323
▁ლევ	-1324
▁იმპერიის	-1325
გა	-1326
ელა	-1327
იძე	-1328
▁and	-1329
▁პრემიის	-1330
▁წმინდან	-1331
▁ისტორიკოსი	-1332
ფი	-1333
დებ	-1334
▁ფერ	-1335
ებლად	-1336
▁თვით	-1337
▁ოსმალ	-1338
▁ნობელის	-1339
▁დღესასწაულები	-1340
ვან	-1341
▁თვე	-1342
▁მეს	-1343
ებთან	-1344
რებით	-1345
▁21	-1346
▁ზე	-1347
▁ავტ	-1348
ელსაც	-1349
▁დღის	-1350
▁ინსტიტუ	-1351
▁მმართველ	-1352
ნგ	-1353
▁30	-1354
ორმა	-1355
▁წინ	-1356
▁პროფ	-1357
▁U	-1358
ებია	-1359
▁დედ	-1360
▁ხან	-1361
▁ევროპის	-1362
არია	-1363
ცნობ	-1364
ემბ	-1365
მძღვ	-1366
▁183	-1367
მძღვან	-1368
▁მოძრა	-1369
▁ჩემპი	-1370
▁ნაწილი	-1371
▁ვახტანგ	-1372
▁ნიკოლოზ	-1373
▁კავშირის	-1374
შობ	-1375
▁ბრა	-1376
▁მემ	-1377
ლამენტ	-1378
დილ	-1379
▁ჩა	-1380
▁ჯგუფ	-1381
▁ადამიანი	-1382
▁რეჟისორი	-1383
▁აღნიშნავდეს	-1384
le	-1385
იათ	-1386
▁ირ	-1387
▁(10	-1388
რისტი	-1389
ძის	-1390
ოლის	-1391
▁საშ	-1392
▁გვარ	-1393
▁ფრინ	-1394
ოკრატი	-1395
▁გაერთიან	-1396
▁იმერეთის	-1397
▁რომელსაც	-1398
78	-1399
რუ	-1400
ეთს	-1401
განს	-1402
▁ჩინ	-1403
ent	-1404
ლომ	-1405
ონდ	-1406
ცოდ	-1407
▁თურქ	-1408
▁თავისი	-1409
ნეს	-1410
უსტ	-1411
ოლოდ	-1412
ომდე	-1413
▁შემდეგი	-1414
om	-1415
▁ღვ	-1416
ჯანყ	-1417
▁უკან	-1418
ისტური	-1419
▁გამოი	-1420
▁აღნიშნავს	-1421
პყ	-1422
ხი	-1423
არჩ	-1424
▁ხე	-1425
▁ვალ	-1426
▁ნაკ	-1427
ელიძე	-1428
ოსები	-1429
▁სისტ	-1430
▁მუსიკ	-1431
▁მხარე	-1432
▁O	-1433
ist	-1434
ურგი	-1435
▁არმიის	-1436
▁კალენდ	-1437
ჯერ	-1438
▁თხ	-1439
არგმ	-1440
ურული	-1441
▁სომხ	-1442
ცნიერი	-1443
▁ბოლომდე	-1444
▁გრიგორი	-1445
▁ცხოვრობ	-1446
.18	-1447
000	-1448
▁182	-1449
▁თეატ	-1450
▁რელი	-1451
.)	-1452
ენს	-1453
ლნი	-1454
▁აირ	-1455
▁მით	-1456
ცოდნე	-1457
▁დასახ	-1458
▁წარმომ	-1459
ers	-1460
▁არაბ	-1461
▁წერეთ	-1462
▁განვითარ	-1463
ia	-1464
ტია	-1465
ნაკი	-1466
ნების	-1467
ალების	-1468
▁მხატვარი	-1469
0,	-1470
76	-1471
ვლი	-1472
▁ცნობილი	-1473
უქ	-1474
–1	-1475
ნიკ	-1476
ორა	-1477
ახლო	-1478
უთვნ	-1479
▁181	-1480
▁დინ	-1481
▁ნამ	-1482
▁თარიღი	-1483
▁ხსენების	-1484
▁ზღ	-1485
▁ვას	-1486
▁ნიუ	-1487
წოდება	-1488
▁ბუნ	-1489
▁მაკ	-1490
▁გრიგოლ	-1491
▁ქვეყნის	-1492
▁კალენდრის	-1493
უდა	-1494
ურო	-1495
▁202	-1496
▁მცი	-1497
▁რაც	-1498
სახურ	-1499
ებათაგანს	-1500
▁პირველად	-1501
▁გრიგორიანული	-1502
▁პიროვნებათაგანს	-1503
ძნ	-1504
▁27	-1505
ქმნა	-1506
▁კრი	-1507
ონები	-1508
▁აჯანყ	-1509
▁უცნობ	-1510
▁მხოლოდ	-1511
▁იაპონიის	-1512
▁ეთ	-1513
ოვან	-1514
▁ბარ	-1515
▁გაბ	-1516
▁კვი	-1517
▁უცნობია	-1518
უმბ	-1519
▁28	-1520
▁VI	-1521
▁ქვ	-1522
ებად	-1523
▁ქართულ	-1524
▁ქიმ	-1525
▁უმაღ	-1526
▁ფეოდა	-1527
▁ბრძოლაში	-1528
▁ხელმძღვან	-1529
ყენ	-1530
ხაზ	-1531
▁მოწ	-1532
▁სიკ	-1533
მცოდნე	-1534
▁იტალიელი	-1535
▁ადმინისტრაციული	-1536
ძვ	-1537
ჯა	-1538
ყვა	-1539
▁24	-1540
▁178	-1541
▁თვეები	-1542
▁ამერიკის	-1543
3,	-1544
წერა	-1545
▁მაღ	-1546
▁ტახ	-1547
განიზ	-1548
▁ერთი	-1549
▁დაარს	-1550
▁საშუალ	-1551
▁დარჩენილია	-1552
▁დაბადებულნი	-1553
▁გარდაცვლილნი	-1554
ვად	-1555
▁ქს	-1556
▁ლაშქ	-1557
ნაკიან	-1558
▁შედეგად	-1559
ნია	-1560
▁პაპი	-1561
▁ციხე	-1562
la	-1563
ტე	-1564
ტკი	-1565
▁29	-1566
▁ედ	-1567
▁ჰერ	-1568
▁ჰქონ	-1569
ig	-1570
გში	-1571
ლოს	-1572
▁179	-1573
▁ბიზან	-1574
▁განათ	-1575
▁ბრძოლა	-1576
▁მინისტ	-1577
▁ქალაქები	-1578
ჭა	-1579
▁J	-1580
დად	-1581
ესო	-1582
ალხო	-1583
▁არსებ	-1584
▁კახეთის	-1585
▁მეცნიერებათა	-1586
id	-1587
აქს	-1588
აკუთ	-1589
▁გად	-1590
▁ვლად	-1591
▁პარი	-1592
▁უნდა	-1593
▁გამოს	-1594
▁წარმომადგენ	-1595
2,	-1596
um	-1597
ing	-1598
ქვა	-1599
▁იბ	-1600
არქი	-1601
ლობა	-1602
▁მიღ	-1603
▁ნაპ	-1604
▁ტრა	-1605
ავლეთი	-1606
▁სწავლ	-1607
▁ფრანგ	-1608
▁ეკლესიის	-1609
▁წმინდანების	-1610
4,	-1611
60	-1612
ლს	-1613
ხმარ	-1614
▁ბელ	-1615
▁პორ	-1616
▁აქტი	-1617
აკი	-1618
ბერტ	-1619
უმის	-1620
▁გაზ	-1621
▁მიზ	-1622
▁ტომ	-1623
▁ფორმ	-1624
▁საბჭოს	-1625
ეზ	-1626
თო	-1627
ურგ	-1628
იკური	-1629
ცხადა	-1630
▁წყალ	-1631
დასხვა	-1632
▁პოლონ	-1633
მენი	-1634
ation	-1635
▁მცირე	-1636
▁სხვადასხვა	-1637
5,	-1638
ეპ	-1639
ანიძე	-1640
არული	-1641
1,	-1642
-18	-1643
იორ	-1644
მეტ	-1645
რდა	-1646
დელი	-1647
▁არა	-1648
▁მათი	-1649
▁ჯორჯ	-1650
ებიდან	-1651
▁ძველი	-1652
ნით	-1653
ჟინ	-1654
▁ოქ	-1655
აზღვ	-1656
ცხოვ	-1657
▁ბავ	-1658
▁ორგანიზ	-1659
2-	-1660
st	-1661
უც	-1662
ანიშ	-1663
▁მალ	-1664
▁ჯონ	-1665
▁ქრისტი	-1666
▁სახალხო	-1667
▁შეიქმნა	-1668
▁გარდაიცვალა	-1669
▁b	-1670
▁f	-1671
▁v	-1672
დამ	-1673
ოლა	-1674
არში	-1675
ურობ	-1676
▁გალ	-1677
▁მია	-1678
▁შუა	-1679
ლებიც	-1680
▁ბოლო	-1681
ობრივი	-1682
▁ბატონი	-1683
▁შემოქმედ	-1684
▁უნივერსიტეტის	-1685
ლში	-1686
ოვა	-1687
შვიდ	-1688
▁იოს	-1689
▁აფრი	-1690
▁ივანე	-1691
ახლოებით	-1692
▁ცენტრალ	-1693
▁პარლამენტ	-1694
7,	-1695
ჟი	-1696
▁p	-1697
თის	-1698
ფერ	-1699
რალი	-1700
ტონი	-1701
▁დედოფ	-1702
▁ცენტრი	-1703
▁ჰქონდა	-1704
▁რესპუბლიკის	-1705
▁0	-1706
▁ტა	-1707
▁ფინ	-1708
▁ქვე	-1709
▁წიგ	-1710
▁რომან	-1711
▁ხდება	-1712
▁მათემა	-1713
▁ოფიციალური	-1714
ვია	-1715
▁წით	-1716
რებულ	-1717
▁2008	-1718
დინარე	-1719
▁ფართობი	-1720
▁ინგლისის	-1721
▁რომლებიც	-1722
▁მნიშვნელოვანი	-1723
უზ	-1724
ულა	-1725
წინ	-1726
▁ფრი	-1727
ეკლესი	-1728
▁უმაღლესი	-1729
ge	-1730
ut	-1731
მაი	-1732
კვიდ	-1733
▁ორდ	-1734
▁ოპერ	-1735
ელების	-1736
▁ბაგრატი	-1737
▁საუკუნეში	-1738
5-	-1739
დერ	-1740
ეიმ	-1741
▁სტი	-1742
▁ტაძ	-1743
პატრი	-1744
▁ქალი	-1745
▁ქუთა	-1746
▁გამომ	-1747
მინისტრი	-1748
▁განსაკუთ	-1749
▁პერიოდში	-1750
..	-1751
გალი	-1752
ნები	-1753
ოდენ	-1754
ელმაც	-1755
ედროვე	-1756
▁სპორტ	-1757
▁რევოლუცი	-1758
▁ფიზიკოსი	-1759
ie	-1760
რაკ	-1761
რძალ	-1762
▁ვან	-1763
▁რაი	-1764
▁რომელმაც	-1765
კარ	-1766
▁უბ	-1767
ნაირ	-1768
რანს	-1769
როსი	-1770
▁გას	-1771
▁შაჰ	-1772
▁ძეგ	-1773
ადნენ	-1774
ასიათ	-1775
▁(194	-1776
ებრივი	-1777
▁პუბლი	-1778
▁პროვინ	-1779
▁ჟურნალ	-1780
▁შემდგომ	-1781
▁დედაქალაქ	-1782
8,	-1783
ჩა	-1784
ედიც	-1785
ოვის	-1786
▁არი	-1787
▁კორ	-1788
▁ლუი	-1789
▁ნიშ	-1790
ატარა	-1791
▁სიკვ	-1792
▁ტერმ	-1793
ეკლესიო	-1794
▁თავისუფ	-1795
▁რომელთა	-1796
▁გამოცხად	-1797
▁მსოფლიოს	-1798
▁საეკლესიო	-1799
▁ბრიტანეთის	-1800
ჩხ	-1801
აზი	-1802
დგა	-1803
დელ	-1804
ლეს	-1805
▁მლ	-1806
▁მოკ	-1807
▁სხვ	-1808
თიერთ	-1809
▁დრამ	-1810
▁ლევან	-1811
▁ურთიერთ	-1812
▁ქალაქის	-1813
▁ერისთავი	-1814
ab	-1815
ათა	-1816
ერე	-1817
ავის	-1818
ებსა	-1819
იმიტ	-1820
▁ექს	-1821
ალნენ	-1822
ობები	-1823
▁დაიბადნენ	-1824
▁გარდაიცვალნენ	-1825
გე	-1826
რით	-1827
▁in	-1828
▁ლონდ	-1829
▁სამე	-1830
▁არჩევ	-1831
▁ზღვის	-1832
▁ყველა	-1833
▁ძირით	-1834
▁ვლადიმ	-1835
▁თანამედროვე	-1836
იქ	-1837
ულო	-1838
▁ით	-1839
აროს	-1840
▁ხელშ	-1841
▁დიმიტ	-1842
▁მოსკოვ	-1843
▁დაამთავ	-1844
▁წერეთელი	-1845
▁კონსტანტინე	-1846
ოქ	-1847
მდე	-1848
▁მფ	-1849
ჯდომ	-1850
▁180	-1851
▁კაპ	-1852
▁კოს	-1853
▁სარ	-1854
▁ღირ	-1855
▁შეთ	-1856
▁სახე	-1857
▁უფრო	-1858
ანებით	-1859
ებდნენ	-1860
▁მხატვ	-1861
75	-1862
ot	-1863
თე	-1864
ცე	-1865
არლ	-1866
ონა	-1867
ედის	-1868
ჩიეს	-1869
▁აფხაზ	-1870
▁აირჩიეს	-1871
▁სახელობის	-1872
4-	-1873
ემი	-1874
ომი	-1875
▁31	-1876
ილდო	-1877
დესაც	-1878
▁(195	-1879
▁გაიხს	-1880
▁როდესაც	-1881
▁უკანასკ	-1882
▁დაამთავრა	-1883
▁დაახლოებით	-1884
9,	-1885
▁c	-1886
პორ	-1887
▁ბე	-1888
▁კო	-1889
გზავ	-1890
ესტი	-1891
▁კერ	-1892
▁ქალ	-1893
ოლოგიის	-1894
▁პუბლიც	-1895
▁რაოდენ	-1896
▁ძალ	-1897
▁2004	-1898
▁განმ	-1899
▁წყარო	-1900
▁ბაგრატ	-1901
▁ყოფილი	-1902
▁მარტ	-1903
▁მუზე	-1904
▁სამო	-1905
▁მიწის	-1906
ოლოგიური	-1907
▁გვარები	-1908
▁ეპისკოპ	-1909
▁თბილისში	-1910
ხა	-1911
აფხ	-1912
მაგ	-1913
ალიფ	-1914
ამის	-1915
▁წელი	-1916
▁სპარს	-1917
▁გაიხსნა	-1918
▁დიმიტრი	-1919
▁ნაწარმო	-1920
▁ისტორიული	-1921
▁ხელოვნების	-1922
66	-1923
im	-1924
ახი	-1925
ერბ	-1926
ლით	-1927
რში	-1928
▁(„	-1929
ილის	-1930
▁ჟან	-1931
▁(200	-1932
▁ავსტრი	-1933
▁დრამატ	-1934
▁კინორე	-1935
ნელ	-1936
▁თით	-1937
▁კვლ	-1938
▁ენის	-1939
ადგენს	-1940
▁დინას	-1941
▁მრავალ	-1942
▁მუნიციპალიტეტის	-1943
ul	-1944
▁უნ	-1945
ადის	-1946
ნება	-1947
▁მლნ	-1948
▁ჯარ	-1949
მჯდომ	-1950
ორები	-1951
▁უდიდ	-1952
▁სიმონ	-1953
▁აკადემიის	-1954
3-	-1955
შტ	-1956
იტი	-1957
ართა	-1958
ლერი	-1959
▁პალ	-1960
▁პან	-1961
▁2005	-1962
▁ჰაინ	-1963
▁საკითხ	-1964
▁ფილოსოფოსი	-1965
▁მოსახლეობის	-1966
",	-1967
6,	-1968
▁სწ	-1969
▁ბენ	-1970
▁დაც	-1971
▁იაპონელი	-1972
▁რესპუბლიკა	-1973
▁ხელმძღვანელ	-1974
70	-1975
ir	-1976
ეში	-1977
ოცხ	-1978
ტეს	-1979
დარი	-1980
▁ბან	-1981
▁ლორ	-1982
ყოველ	-1983
▁არაგ	-1984
▁ინჟინ	-1985
▁პარტი	-1986
▁მოქმედ	-1987
▁სოციალ	-1988
▁თავმჯდომ	-1989
▁დემოკრატი	-1990
▁ტერიტორიაზე	-1991
71	-1992
98	-1993
ერა	-1994
ზულ	-1995
ათინ	-1996
ონია	-1997
ურნე	-1998
უსის	-1999
▁გვი	-2000
▁მდი	-2001
▁წოდ	-2002
▁ზურა	-2003
▁სტატ	-2004
▁გამარჯ	-2005
▁დაბრუნ	-2006
▁სისტემ	-2007
▁ადამიან	-2008
▁ლაურეატი	-2009
68	-2010
▁მწ	-2011
ალიბ	-2012
▁გაუ	-2013
▁ხელი	-2014
▁მიენი	-2015
▁სამთავ	-2016
▁მოძრაობის	-2017
▁სახელწოდება	-2018
ad	-2019
აწყ	-2020
ტენ	-2021
▁ბურ	-2022
▁მახ	-2023
დაპირ	-2024
▁ზოგი	-2025
▁უკრა	-2026
▁შტატი	-2027
▁რელიგი	-2028
▁კინორეჟისორი	-2029
30	-2030
თქ	-2031
ჰა	-2032
თაც	-2033
ტზე	-2034
ინიშ	-2035
წყვე	-2036
▁აღს	-2037
▁პაპ	-2038
▁რეჟ	-2039
ეკრულ	-2040
▁მარი	-2041
აცხადა	-2042
▁კავკას	-2043
▁წარმოშ	-2044
▁ფრინველ	-2045
დევ	-2046
ეულ	-2047
▁1,	-2048
▁Un	-2049
▁კრ	-2050
▁მტ	-2051
არაღ	-2052
გვიპ	-2053
ერია	-2054
იკის	-2055
იური	-2056
▁მერ	-2057
▁ნაც	-2058
▁ფარ	-2059
▁ჯან	-2060
▁ფილი	-2061
მაიორი	-2062
▁მშვიდ	-2063
▁პორტუ	-2064
▁შვილი	-2065
▁დასრულ	-2066
▁ჩემპიონ	-2067
▁მუსიკოსი	-2068
▁გამოცხადდა	-2069
72	-2070
▁/	-2071
▁(;	-2072
▁ოთხ	-2073
▁ფედ	-2074
▁ჯერ	-2075
▁VIII	-2076
▁ბრაზ	-2077
▁კარლ	-2078
▁თხზულ	-2079
▁მეცნიერი	-2080
ac	-2081
ენე	-2082
ესა	-2083
ვილ	-2084
სამ	-2085
ესის	-2086
პლომ	-2087
▁შავ	-2088
▁2010	-2089
▁რომა	-2090
ცნიერო	-2091
▁ეგვიპ	-2092
▁მონასტ	-2093
▁წლამდე	-2094
▁დაარსდა	-2095
▁თანამდებ	-2096
▁ძირითადი	-2097
▁ხელშეკრულ	-2098
ბეკ	-2099
ზმი	-2100
რას	-2101
სკი	-2102
▁ებ	-2103
▁XIX	-2104
▁ვარ	-2105
▁წამ	-2106
▁ფერმ	-2107
ტიკური	-2108
▁ისტორიის	-2109
▁მუშაობდა	-2110
▁ცხოვრება	-2111
▁სამეცნიერო	-2112
▁პარლამენტის	-2113
ეშ	-2114
ess	-2115
ამთ	-2116
ელე	-2117
სიქ	-2118
ღუპ	-2119
▁XX	-2120
▁შვ	-2121
▁არგ	-2122
▁ნორ	-2123
▁გრაფ	-2124
▁კარი	-2125
▁პეტრე	-2126
ანიშნავ	-2127
▁საუკეთ	-2128
▁ხელისუფ	-2129
ებისათვის	-2130
61	-2131
74	-2132
os	-2133
იდა	-2134
ილა	-2135
▁თუ	-2136
ექტი	-2137
კინი	-2138
უბერ	-2139
▁სინ	-2140
ერბაი	-2141
ილიამ	-2142
ლიანი	-2143
▁პრინ	-2144
▁მხარის	-2145
▁მიენიჭა	-2146
ოგრაფიული	-2147
▁პრეზიდენტად	-2148
▁მათემატიკოსი	-2149
▁მონაწილეობდა	-2150
▁დამოუკიდებლობის	-2151
▁°	-2152
გრძ	-2153
ებრ	-2154
ცის	-2155
▁ალბ	-2156
▁1945	-2157
▁გავლ	-2158
▁სამხრ	-2159
▁დიპლომ	-2160
▁კუნძულ	-2161
▁პორტუგალი	-2162
▁საქართველო	-2163
50	-2164
საქ	-2165
▁გზ	-2166
ნილი	-2167
სენი	-2168
▁იწყ	-2169
▁პერ	-2170
▁სოლ	-2171
ყალიბ	-2172
▁ადრე	-2173
▁საფუძ	-2174
▁დაკრძალ	-2175
▁პუბლიცისტი	-2176
31	-2177
▁m	-2178
სის	-2179
▁ბუ	-2180
▁უძ	-2181
▁ასო	-2182
▁ფაქ	-2183
ევები	-2184
ნებში	-2185
▁(198	-2186
▁მეუღ	-2187
▁მოთხ	-2188
▁ქვემო	-2189
პატრიარქი	-2190
6-	-2191
7-	-2192
ეჩ	-2193
ეხი	-2194
ცხო	-2195
ხან	-2196
▁ოდი	-2197
▁შეუ	-2198
ამართ	-2199
▁ამის	-2200
▁დანი	-2201
▁მაქს	-2202
▁მილი	-2203
▁აზერბაი	-2204
▁მრავალი	-2205
40	-2206
გნ	-2207
ძი	-2208
ელო	-2209
ოლფ	-2210
ორჩ	-2211
ზმის	-2212
ორცი	-2213
უშევ	-2214
▁გრძ	-2215
▁სენ	-2216
▁ყაზ	-2217
▁შოტ	-2218
▁ჯავ	-2219
არაძე	-2220
▁თავი	-2221
▁ფსიქ	-2222
▁მეფეები	-2223
▁ადამიანის	-2224
22	-2225
ზმ	-2226
კაც	-2227
▁ვე	-2228
ომის	-2229
ყოფა	-2230
▁დასახლ	-2231
▁ეკუთვნ	-2232
▁უილიამ	-2233
▁მწერლები	-2234
▁საუკეთესო	-2235
op	-2236
წეს	-2237
▁კვ	-2238
აცემ	-2239
ტკიც	-2240
▁აღმ	-2241
▁ინდ	-2242
▁კატ	-2243
▁კიდ	-2244
▁ჩატ	-2245
▁ჰამ	-2246
▁1991	-2247
▁მკვლ	-2248
▁სპორტს	-2249
▁არქიტექტორი	-2250
65	-2251
und	-2252
აშა	-2253
გაზ	-2254
ონტ	-2255
▁სმ	-2256
კასი	-2257
მირი	-2258
ურმა	-2259
▁ბაზ	-2260
▁იდე	-2261
▁პოპ	-2262
▁ხში	-2263
▁2007	-2264
▁მოიც	-2265
▁ბერლი	-2266
▁გამოც	-2267
▁მიმართ	-2268
▁ესპანელი	-2269
▁შემადგენ	-2270
10	-2271
▁[	-2272
ern	-2273
▁ტიტ	-2274
ებაზე	-2275
ველად	-2276
▁არიან	-2277
▁სათავ	-2278
▁ფილიპ	-2279
▁იტალიის	-2280
▁მუნიციპალიტეტში	-2281
79	-2282
იპ	-2283
ეის	-2284
ნას	-2285
ოზი	-2286
▁St	-2287
მანი	-2288
ნაძე	-2289
▁ზოგ	-2290
▁მთა	-2291
ატორი	-2292
▁თვალ	-2293
▁პირი	-2294
▁შედგ	-2295
▁დასაწყ	-2296
▁რობერტ	-2297
▁უდიდესი	-2298
▁ჰაინრიხ	-2299
▁უნივერსიტეტი	-2300
24	-2301
ეჭ	-2302
კან	-2303
უნა	-2304
▁იკ	-2305
▁ილ	-2306
ანეს	-2307
გრძე	-2308
ერთო	-2309
ირის	-2310
▁რიგ	-2311
▁ჰარ	-2312
▁2012	-2313
▁თავს	-2314
▁თეოდ	-2315
▁მთელი	-2316
▁ცხოვრების	-2317
▁სახელმწიფოს	-2318
25	-2319
29	-2320
SB	-2321
ივ	-2322
ავთ	-2323
ვეს	-2324
ისს	-2325
ებელ	-2326
ვაში	-2327
ტური	-2328
ულმა	-2329
ქმის	-2330
▁ბაღ	-2331
▁კამ	-2332
▁ლომ	-2333
▁მოქ	-2334
▁ტემ	-2335
▁ტექ	-2336
თადად	-2337
▁ზამთ	-2338
▁იმავე	-2339
▁ლათინ	-2340
▁სასახ	-2341
ავლეთის	-2342
ავლობაში	-2343
▁ნამუშევ	-2344
▁ფერმწერი	-2345
რს	-2346
▁e	-2347
SBN	-2348
გარ	-2349
ეგი	-2350
ოლე	-2351
ქართ	-2352
▁გურ	-2353
▁მიი	-2354
ერბურ	-2355
ეტები	-2356
▁2009	-2357
▁2014	-2358
▁ექიმი	-2359
▁სამცხ	-2360
თავისუფ	-2361
▁ავტორი	-2362
▁ტერმინ	-2363
ებისთვის	-2364
▁დაიბადა	-2365
▁სტატუსი	-2366
▁ვლადიმერ	-2367
▁კულტურის	-2368
▁ჩამოყალიბ	-2369
▁განმავლობაში	-2370
28	-2371
უნქ	-2372
კური	-2373
▁100	-2374
▁175	-2375
▁იაკ	-2376
▁ოლი	-2377
▁სპე	-2378
▁სულთ	-2379
ემბერს	-2380
▁ტრანს	-2381
▁სიგრძე	-2382
საქართველ	-2383
▁ტერიტორია	-2384
▁საუკუნეების	-2385
უნდ	-2386
ფუძ	-2387
–18	-2388
▁ბრ	-2389
ანდი	-2390
ეთმა	-2391
ონტი	-2392
ავალი	-2393
ასრულ	-2394
▁2006	-2395
▁პროგ	-2396
▁ანტონ	-2397
▁საშუალო	-2398
▁სპორტსმენი	-2399
og	-2400
ოხ	-2401
▁l	-2402
ica	-2403
დინ	-2404
▁ჰყ	-2405
ვლის	-2406
ყვარ	-2407
▁ბულ	-2408
▁ნათ	-2409
ivers	-2410
▁ISBN	-2411
▁მოწვ	-2412
▁საზღვ	-2413
▁ფეოდალ	-2414
▁არგენტი	-2415
▁ბრაზილი	-2416
▁გენერალი	-2417
▁დაამარცხ	-2418
▁ქიმიკოსი	-2419
▁ბიზანტიის	-2420
▁მუნიციპალიტეტი	-2421
▁―	-2422
ბაგ	-2423
იზა	-2424
ჟამ	-2425
წავ	-2426
▁In	-2427
▁Re	-2428
▁ხმ	-2429
▁VII	-2430
▁ბაქ	-2431
▁დომ	-2432
▁შრო	-2433
▁(199	-2434
▁1918	-2435
▁1990	-2436
▁ზურაბ	-2437
▁უზბეკ	-2438
▁წლების	-2439
▁ძირითადად	-2440
14	-2441
ვთ	-2442
rap	-2443
ოდგ	-2444
▁Pr	-2445
აპარ	-2446
ეთრი	-2447
ვეიც	-2448
▁გეგ	-2449
ებითი	-2450
ისტები	-2451
▁გმირი	-2452
▁დანიშ	-2453
▁სანაპი	-2454
▁ოსმალეთის	-2455
▁ფეხბურთელები	-2456
ქვ	-2457
იდი	-2458
ირა	-2459
▁აჭ	-2460
ანში	-2461
ატიმ	-2462
გვარ	-2463
ვერპ	-2464
▁ველ	-2465
▁მწვ	-2466
▁ხაზ	-2467
ლობის	-2468
▁(193	-2469
▁სამი	-2470
ურისტი	-2471
▁ამავე	-2472
▁სრული	-2473
▁შემოს	-2474
▁აღმოაჩ	-2475
▁შექმნა	-2476
▁გამარჯვ	-2477
▁მემკვიდ	-2478
▁შოტლანდი	-2479
▁ესპანეთის	-2480
▁ცენტრალური	-2481
63	-2482
ap	-2483
ჩის	-2484
▁მძ	-2485
▁ღმ	-2486
მთავ	-2487
▁ელი	-2488
▁თემ	-2489
▁მეთ	-2490
▁მოლ	-2491
ლებით	-2492
ობრივ	-2493
ქტორი	-2494
▁1946	-2495
▁ადგი	-2496
▁გაიმ	-2497
▁ირაკ	-2498
▁პროც	-2499
არსკვლ	-2500
ულიერო	-2501
▁თეატრის	-2502
▁მოწვევის	-2503
▁დიპლომატი	-2504
ew	-2505
ზად	-2506
▁An	-2507
▁de	-2508
ადმი	-2509
რავლ	-2510
წოდა	-2511
▁არტ	-2512
▁ბუდ	-2513
▁დან	-2514
ერიძე	-2515
▁ვაჟი	-2516
▁იყოს	-2517
▁მოკლ	-2518
▁მომხ	-2519
▁რიცხ	-2520
▁ჯეიმ	-2521
▁სასულიერო	-2522
▁აღსანიშნავ	-2523
ri	-2524
გო	-2525
▁ნე	-2526
▁ფლ	-2527
არეს	-2528
ემდე	-2529
ობენ	-2530
წმუნ	-2531
▁ამბ	-2532
▁ბაკ	-2533
ელებს	-2534
ობაზე	-2535
ურები	-2536
▁ფრიდ	-2537
ელიანი	-2538
ინიშნა	-2539
ონიდან	-2540
▁სოლომ	-2541
▁ავტონომ	-2542
▁ირლანდი	-2543
▁კავშირი	-2544
▁ინსტიტუტის	-2545
▁თავმჯდომარე	-2546
▁საზოგადოების	-2547
▁განსაკუთრებით	-2548
▁წარმომადგენელი	-2549
45	-2550
ich	-2551
ity	-2552
აბი	-2553
▁დო	-2554
▁ქმ	-2555
ეკლე	-2556
▁გაი	-2557
▁მატ	-2558
▁შვი	-2559
უხედა	-2560
▁1921	-2561
▁დიალ	-2562
▁ილია	-2563
▁კორე	-2564
▁ასული	-2565
▁თავად	-2566
▁ფედერ	-2567
▁დარგში	-2568
▁ირაკლი	-2569
▁მესამე	-2570
▁ქრისტიან	-2571
53	-2572
62	-2573
99	-2574
oc	-2575
რმა	-2576
ტრი	-2577
▁იძ	-2578
▁ნა	-2579
▁ოკ	-2580
▁ფი	-2581
-102	-2582
ავად	-2583
ინეს	-2584
▁ალფ	-2585
▁დეპ	-2586
▁ფან	-2587
აღმოს	-2588
▁1941	-2589
▁1992	-2590
▁ენათ	-2591
ახეთის	-2592
წყვეტი	-2593
თმცოდნე	-2594
▁წითელი	-2595
▁ხშირად	-2596
▁მიუხედა	-2597
▁არსებობს	-2598
▁გამოაცხადა	-2599
მონ	-2600
ოკი	-2601
ქის	-2602
▁IX	-2603
დგენ	-2604
ჩნდა	-2605
▁ალი	-2606
▁მოჰ	-2607
▁პოს	-2608
▁რის	-2609
▁ფაკ	-2610
ყოფილ	-2611
▁1960	-2612
▁ინდი	-2613
▁ისრა	-2614
▁ომში	-2615
ველესი	-2616
▁ბავშვ	-2617
▁ოქროს	-2618
▁ყოველ	-2619
▁შვეიც	-2620
▁პრემია	-2621
▁ქვეყან	-2622
▁სასწავლ	-2623
▁მიუხედავად	-2624
ay	-2625
▁ბა	-2626
ვნენ	-2627
კაში	-2628
რამა	-2629
რაძე	-2630
▁დაუ	-2631
▁ნაშ	-2632
▁1966	-2633
▁განი	-2634
▁ითვლ	-2635
▁კონტ	-2636
▁ნინო	-2637
▁ძველ	-2638
▁ელექტ	-2639
▁ადგილი	-2640
▁ენათმე	-2641
▁პროფეს	-2642
▁შესრულ	-2643
▁მიწისძვ	-2644
▁სამხრეთი	-2645
▁სასამართ	-2646
▁დრამატურგი	-2647
▁უკანასკნელი	-2648
▁n	-2649
-15	-2650
გამ	-2651
▁იღ	-2652
ანტი	-2653
ასის	-2654
ეროს	-2655
კოვი	-2656
ციას	-2657
▁ზაქ	-2658
▁მუხ	-2659
▁ფუძ	-2660
ემენტ	-2661
ოდნენ	-2662
ორწინ	-2663
▁1940	-2664
▁არქე	-2665
▁გვხვ	-2666
დებოდა	-2667
▁ბერძნ	-2668
▁თეორი	-2669
▁შესაძ	-2670
დერლანდ	-2671
▁საერთო	-2672
▁ფაკულტ	-2673
▁წევრები	-2674
▁საფრანგეთი	-2675
ჰმ	-2676
200	-2677
დილი	-2678
ედია	-2679
ლებს	-2680
ტები	-2681
წმინ	-2682
▁სატ	-2683
▁ძმა	-2684
▁ხორ	-2685
▁ზემო	-2686
▁მამა	-2687
▁მეტი	-2688
ქალაქო	-2689
▁მფლობ	-2690
▁საიტი	-2691
ცხადებს	-2692
▁დახმარ	-2693
▁მთარგმ	-2694
▁ოდიშის	-2695
▁რომელში	-2696
▁სოლომონ	-2697
▁გვხვდება	-2698
▁ცხოვრობდა	-2699
▁გარდაცვალების	-2700
69	-2701
77	-2702
ary	-2703
ran	-2704
ათი	-2705
ატა	-2706
▁2,	-2707
ტიკა	-2708
▁დელ	-2709
▁ძლი	-2710
ებებს	-2711
ვერცხ	-2712
▁1980	-2713
▁2002	-2714
▁პავლ	-2715
▁სტეფ	-2716
▁წერი	-2717
კინიგზ	-2718
▁ენაზე	-2719
▁ენები	-2720
▁თვითმ	-2721
▁ნორვე	-2722
▁პოპულ	-2723
ონალური	-2724
▁ირანის	-2725
▁სოფელი	-2726
▁დაკავში	-2727
▁დამარცხ	-2728
▁ეკუთვნის	-2729
▁ინდოეთის	-2730
▁სოციალური	-2731
▁განათლების	-2732
▁ბატონიშვილი	-2733
ec	-2734
em	-2735
ოც	-2736
აკა	-2737
უან	-2738
ამედ	-2739
წევს	-2740
▁XII	-2741
▁გორ	-2742
▁გრი	-2743
▁ვილ	-2744
▁მსხ	-2745
▁ტერ	-2746
▁შალ	-2747
არათა	-2748
▁1953	-2749
▁1968	-2750
▁1994	-2751
▁2000	-2752
▁მოახ	-2753
▁საღვ	-2754
▁სცენ	-2755
▁გადმო	-2756
▁თამაშ	-2757
▁კიდევ	-2758
▁მოხდა	-2759
▁ორდენ	-2760
▁ჯეიმზ	-2761
▁კავკასი	-2762
▁დაინიშნა	-2763
▁თავდაპირ	-2764
▁რომელშიც	-2765
▁რაოდენობა	-2766
▁ლაურეატები	-2767
▁სამოქალაქო	-2768
.1	-2769
42	-2770
th	-2771
ეკი	-2772
მეტყ	-2773
რებს	-2774
▁ბას	-2775
▁იკვ	-2776
▁ნარ	-2777
▁ფრა	-2778
▁ქარ	-2779
იმურა	-2780
▁1919	-2781
▁2001	-2782
▁იანვ	-2783
▁ოლიმ	-2784
▁პერს	-2785
ებელია	-2786
ელებმა	-2787
ლობაში	-2788
▁XVIII	-2789
▁კომიტ	-2790
▁მედიც	-2791
▁ტრადი	-2792
▁პატარა	-2793
▁წარმატ	-2794
▁წოდება	-2795
▁დასრულდა	-2796
▁ცნობილია	-2797
21	-2798
67	-2799
89	-2800
ian	-2801
ალდ	-2802
ვანი	-2803
ობილ	-2804
ჟორი	-2805
შრომ	-2806
▁არმ	-2807
▁იერ	-2808
▁კილ	-2809
▁მეგ	-2810
▁სალ	-2811
▁სელ	-2812
▁1955	-2813
▁1956	-2814
▁1964	-2815
▁1972	-2816
▁1999	-2817
▁ატარ	-2818
▁კურს	-2819
▁სამყ	-2820
▁ფიზი	-2821
▁მოგვი	-2822
▁პარიზ	-2823
▁ერეკლე	-2824
▁საღვთო	-2825
▁თეიმურა	-2826
▁თითქმის	-2827
▁ნიდერლანდ	-2828
▁ლიტერატურის	-2829
▁დამოუკიდებლობა	-2830
35	-2831
ანო	-2832
ბის	-2833
გია	-2834
ეგრ	-2835
კენ	-2836
პოლ	-2837
▁სუ	-2838
არმა	-2839
ვარე	-2840
თქიფ	-2841
▁დის	-2842
▁ლუდ	-2843
▁მორ	-2844
▁სია	-2845
▁შეე	-2846
▁1937	-2847
▁1942	-2848
▁1967	-2849
▁1973	-2850
▁ვერს	-2851
▁მარჯ	-2852
ებების	-2853
ებლობა	-2854
▁თანახ	-2855
▁ბარათა	-2856
▁დაიღუპ	-2857
▁ევროპა	-2858
▁საგარე	-2859
▁არაგვის	-2860
▁ახალგაზ	-2861
▁პროფესი	-2862
თქიფანიძე	-2863
▁დედოფალი	-2864
▁მოსკოვის	-2865
▁ბრიტანელი	-2866
▁ჟურნალისტი	-2867
20	-2868
27	-2869
ბო	-2870
პრ	-2871
დემ	-2872
ელმ	-2873
ტინ	-2874
უდი	-2875
გრაფ	-2876
ლისა	-2877
ორედ	-2878
ურამ	-2879
უშავ	-2880
▁დაშ	-2881
▁კლი	-2882
▁სუბ	-2883
ტიკის	-2884
▁1983	-2885
▁დიზა	-2886
▁მცენ	-2887
ამერიკ	-2888
▁ბორის	-2889
▁ვასილ	-2890
▁სოფელ	-2891
ეხბურთო	-2892
▁პარტიის	-2893
▁ისტორიულ	-2894
▁მოღვაწეები	-2895
▁საფეხბურთო	-2896
64	-2897
90	-2898
ak	-2899
ub	-2900
ავჭ	-2901
ჯის	-2902
▁ოთ	-2903
ქვეყ	-2904
▁გულ	-2905
▁მელ	-2906
▁პრი	-2907
ანდის	-2908
▁1958	-2909
▁1977	-2910
▁იოსებ	-2911
▁პატრი	-2912
▁გაეროს	-2913
▁კვერცხ	-2914
▁მაღალი	-2915
▁მეუღლე	-2916
▁ოჯახში	-2917
▁ჯავახი	-2918
▁დაიღუპა	-2919
▁იურისტი	-2920
▁ფრიდრიხ	-2921
▁მემკვიდრე	-2922
▁რევოლუციის	-2923
▁მოგვიანებით	-2924
▁ფილოსოფოსები	-2925
▁დამოუკიდებელი	-2926
.:	-2927
▁g	-2928
ემდ	-2929
ვირ	-2930
საც	-2931
▁პლ	-2932
ნული	-2933
რისტ	-2934
▁აღი	-2935
▁დაჯ	-2936
▁ინფ	-2937
▁ლენ	-2938
▁მილ	-2939
▁მიქ	-2940
▁ცალ	-2941
ეულის	-2942
ონერი	-2943
▁კოლხ	-2944
▁ხანძ	-2945
აპარაკ	-2946
▁ამჟამ	-2947
▁სიტყვ	-2948
▁გალერე	-2949
▁რუსეთი	-2950
▁სიმღერ	-2951
▁მოქალაქ	-2952
▁რეგიონი	-2953
▁აფხაზეთის	-2954
▁ისტორიაში	-2955
▁სწავლობდა	-2956
▁მნიშვნელობა	-2957
▁ლორთქიფანიძე	-2958
1-	-2959
91	-2960
ст	-2961
▁«	-2962
▁“	-2963
აგო	-2964
ანგ	-2965
დეკ	-2966
ოზე	-2967
ოლდ	-2968
შტა	-2969
▁თა	-2970
▁უშ	-2971
აკში	-2972
▁ანგ	-2973
▁დაა	-2974
▁ნატ	-2975
ებიან	-2976
რიდან	-2977
▁1962	-2978
▁1975	-2979
▁XVII	-2980
▁აბას	-2981
▁დირი	-2982
▁კალი	-2983
▁კლას	-2984
არისტი	-2985
ებამდე	-2986
ჩენილი	-2987
▁გადას	-2988
▁თამარ	-2989
▁ნაპოლე	-2990
▁ოჯახის	-2991
▁Univers	-2992
▁გადასახ	-2993
▁გიორგის	-2994
▁ერთეული	-2995
▁იმპერია	-2996
▁ორდენის	-2997
▁ევროპაში	-2998
▁არჩევნებში	-2999
▁გაერთიანებული	-3000
55	-3001
“-	-3002
▁Y	-3003
ბლი	-3004
გონ	-3005
თამ	-3006
ტომ	-3007
ტში	-3008
▁Ch	-3009
ალურ	-3010
ანხმ	-3011
დგან	-3012
ვაძე	-3013
ილახ	-3014
ლიან	-3015
ფერი	-3016
შინგ	-3017
▁170	-3018
▁ასტ	-3019
▁გელ	-3020
▁ეთნ	-3021
▁ლიდ	-3022
▁რეფ	-3023
▁ჯაყ	-3024
istor	-3025
ენცია	-3026
ლებში	-3027
▁1934	-3028
▁1989	-3029
▁ბერძ	-3030
▁განხ	-3031
▁შეის	-3032
▁შვედ	-3033
▁ჭავჭ	-3034
▁ბოლოს	-3035
▁კათედ	-3036
▁კვლავ	-3037
▁უფლებ	-3038
იაშვილი	-3039
▁ალექსი	-3040
▁აღწევს	-3041
▁დონიდან	-3042
▁მონაცემ	-3043
▁უძველესი	-3044
▁ფრინველი	-3045
ce	-3046
ტს	-3047
▁h	-3048
ამა	-3049
გზა	-3050
დრო	-3051
ულს	-3052
▁ფრ	-3053
ელოს	-3054
ოსის	-3055
რიდა	-3056
▁ჰენ	-3057
ადგურ	-3058
▁1965	-3059
▁1997	-3060
▁ებრა	-3061
▁იყენ	-3062
▁კონფ	-3063
▁მარშ	-3064
▁უწოდ	-3065
▁ჰერც	-3066
ნაირთა	-3067
▁თარგმ	-3068
▁ისინი	-3069
▁შემთხ	-3070
▁ვაშინგ	-3071
▁ოქტომბ	-3072
▁რადგან	-3073
▁უმრავლ	-3074
▁უფროსი	-3075
▁ფუძემდ	-3076
▁შრომის	-3077
▁მუზეუმი	-3078
▁გერმანია	-3079
▁თანახმად	-3080
▁კონსტიტუ	-3081
▁მეთაურობ	-3082
საქართველოს	-3083
▁დედაქალაქი	-3084
▁მთარგმნელი	-3085
84	-3086
ვო	-3087
ახლ	-3088
ღვი	-3089
▁მკ	-3090
ენტო	-3091
იორკ	-3092
მიან	-3093
ულში	-3094
▁ბევ	-3095
▁რუმ	-3096
▁ფოლ	-3097
▁ციხ	-3098
ებინა	-3099
▁1926	-3100
▁1944	-3101
▁1963	-3102
▁ზაფხ	-3103
▁ზედა	-3104
▁მშენ	-3105
▁რედა	-3106
▁სრულ	-3107
▁უკვე	-3108
▁ღირს	-3109
შვილმა	-3110
▁გაუქმ	-3111
▁ქართლ	-3112
▁შალვა	-3113
▁გურიის	-3114
▁დადიანი	-3115
▁ზაქარია	-3116
▁სასახლე	-3117
▁შეთანხმ	-3118
▁ავსტრალი	-3119
▁თეიმურაზ	-3120
▁მინისტრი	-3121
▁უმრავლეს	-3122
▁აღსანიშნავია	-3123
▁განვითარების	-3124
▁შემადგენლობაში	-3125
23	-3126
33	-3127
li	-3128
od	-3129
შე	-3130
ჩე	-3131
▁a	-3132
our	-3133
ვაზ	-3134
ინც	-3135
მას	-3136
▁ეფ	-3137
-103	-3138
ალია	-3139
ენდა	-3140
რადი	-3141
ურთხ	-3142
ცოცხ	-3143
ხვავ	-3144
▁160	-3145
▁ბეს	-3146
▁ბირ	-3147
▁მცხ	-3148
წერის	-3149
▁1939	-3150
▁1943	-3151
▁1947	-3152
▁1987	-3153
▁2019	-3154
▁ოჯახი	-3155
▁ახალცი	-3156
▁ოლიმპი	-3157
▁სამეგრ	-3158
▁მეთაური	-3159
▁ოფიციალ	-3160
▁პარიზში	-3161
▁ჩინეთის	-3162
▁სანაპირო	-3163
▁ქართველთა	-3164
▁ლიტერატურული	-3165
▁გავრცელებულია	-3166
▁თავდაპირველად	-3167
▁,	-3168
კავ	-3169
ჩუკ	-3170
▁მყ	-3171
▁პა	-3172
გერმ	-3173
ერძნ	-3174
ვები	-3175
იდრო	-3176
ნებს	-3177
▁თერ	-3178
▁კას	-3179
▁კუთ	-3180
▁მედ	-3181
▁მღვ	-3182
პორტი	-3183
ციები	-3184
წარმო	-3185
▁1924	-3186
▁1981	-3187
▁XIII	-3188
▁დაბა	-3189
▁იქვე	-3190
▁მექს	-3191
▁შტატ	-3192
▁ორგან	-3193
▁პანთე	-3194
▁ამილახ	-3195
▁ბრძოლის	-3196
▁მოიცავს	-3197
▁რუსეთში	-3198
▁საკუთარ	-3199
▁გეოგრაფი	-3200
▁სიკვდილი	-3201
▁დაამარცხა	-3202
▁ავტონომიური	-3203
▁პრეზიდენტის	-3204
▁	-3205
ი	-3206
ა	-3207
ე	-3208
ს	-3209
რ	-3210
ო	-3211
ლ	-3212
მ	-3213
ნ	-3214
დ	-3215
ბ	-3216
ვ	-3217
უ	-3218
თ	-3219
ტ	-3220
გ	-3221
კ	-3222
შ	-3223
.	-3224
ხ	-3225
,	-3226
1	-3227
ქ	-3228
პ	-3229
ფ	-3230
ც	-3231
წ	-3232
ზ	-3233
9	-3234
-	-3235
0	-3236
:	-3237
—	-3238
ღ	-3239
2	-3240
ყ	-3241
)	-3242
(	-3243
ძ	-3244
8	-3245
e	-3246
7	-3247
I	-3248
5	-3249
6	-3250
ჩ	-3251
4	-3252
3	-3253
a	-3254
ჯ	-3255
i	-3256
n	-3257
r	-3258
o	-3259
ჰ	-3260
t	-3261
s	-3262
l	-3263
ჭ	-3264
“	-3265
„	-3266
h	-3267
u	-3268
ჟ	-3269
d	-3270
c	-3271
–	-3272
m	-3273
X	-3274
V	-3275
;	-3276
g	-3277
"	-3278
y	-3279
f	-3280
p	-3281
b	-3282
S	-3283
A	-3284
C	-3285
v	-3286
k	-3287
T	-3288
P	-3289
B	-3290
N	-3291
M	-3292
w	-3293
и	-3294
G	-3295
L	-3296
а	-3297
E	-3298
о	-3299
D	-3300
е	-3301
H	-3302
R	-3303
%	-3304
|	-3305
F	-3306
р	-3307
W	-3308
н	-3309
/	-3310
O	-3311
z	-3312
с	-3313
U	-3314
в	-3315
K	-3316
л	-3317
т	-3318
J	-3319
'	-3320
x	-3321
j	-3322
к	-3323
д	-3324
=	-3325
!	-3326
°	-3327
з	-3328
]	-3329
у	-3330
[	-3331
”	-3332
м	-3333
й	-3334
―	-3335
я	-3336
ჲ	-3337
Y	-3338
q	-3339
ы	-3340
б	-3341
»	-3342
«	-3343
ü	-3344
г	-3345
п	-3346
Z	-3347
é	-3348
С	-3349
х	-3350
<	-3351
ь	-3352
?	-3353
М	-3354
>	-3355
’	-3356
В	-3357
ä	-3358
&	-3359
ö	-3360
Г	-3361
ч	-3362
А	-3363
á	-3364
ж	-3365
ц	-3366
#	-3367
П	-3368
+	-3369
Q	-3370
И	-3371
$	-3372
ı	-3373
Б	-3374
ş	-3375
Т	-3376
ф	-3377
ш	-3378
К	-3379
ю	-3380
è	-3381
ë	-3382
О	-3383
Р	-3384
ú	-3385
­	-3386
ó	-3387
à	-3388
í	-3389
ο	-3390
Ц	-3391
ا	-3392
Ü	-3393
æ	-3394
십	-3395
Н	-3396
ō	-3397
š	-3398
α	-3399
ν	-3400
Д	-3401
*	-3402
ñ	-3403
ý	-3404
ι	-3405
ل	-3406
ჳ	-3407
â	-3408
ε	-3409
Л	-3410
ё	-3411
ç	-3412
十	-3413
_	-3414
ž	-3415
ς	-3416
국	-3417
å	-3418
λ	-3419
ρ	-3420
Е	-3421
어	-3422
요	-3423
ß	-3424
ò	-3425
ù	-3426
τ	-3427
ã	-3428
ā	-3429
č	-3430
ē	-3431
ň	-3432
ʻ	-3433
χ	-3434
З	-3435
Ф	-3436
Ш	-3437
щ	-3438
э	-3439
ر	-3440
س	-3441
아	-3442
오	-3443
한	-3444
ô	-3445
μ	-3446
ό	-3447
У	-3448
ו	-3449
י	-3450
ق	-3451
ن	-3452
و	-3453
†	-3454
−	-3455
王	-3456
니	-3457
다	-3458
선	-3459
이	-3460
조	-3461
Ç	-3462
É	-3463
î	-3464
ě	-3465
İ	-3466
ɑ	-3467
ˈ	-3468
̃	-3469
ί	-3470
η	-3471
ω	-3472
Х	-3473
Я	-3474
ت	-3475
ج	-3476
ع	-3477
ร	-3478
‎	-3479
一	-3480
子	-3481
녕	-3482
시	-3483
안	-3484
일	-3485
하	-3486
}	-3487
Ö	-3488
ì	-3489
ř	-3490
Ş	-3491
ū	-3492
ː	-3493
Δ	-3494
γ	-3495
δ	-3496
φ	-3497
Ю	-3498
ه	-3499
ჱ	-3500
ჴ	-3501
二	-3502
人	-3503
朝	-3504
親	-3505
가	-3506
나	-3507
말	-3508
사	-3509
서	-3510
세	-3511
여	-3512
~	-3513
Æ	-3514
ê	-3515
ø	-3516
þ	-3517
Č	-3518
ī	-3519
ŏ	-3520
œ	-3521
ɔ	-3522
ə	-3523
β	-3524
κ	-3525
σ	-3526
Ж	-3527
Э	-3528
ъ	-3529
і	-3530
ל	-3531
מ	-3532
ب	-3533
ة	-3534
د	-3535
ش	-3536
ي	-3537
ی	-3538
ी	-3539
ন	-3540
র	-3541
া	-3542
্	-3543
ง	-3544
ท	-3545
Ⴁ	-3546
Ⴂ	-3547
Ⴉ	-3548
Ⴊ	-3549
ⴁ	-3550
ⴂ	-3551
ⴉ	-3552
ⴊ	-3553
国	-3554
庭	-3555
海	-3556
田	-3557
覚	-3558
道	-3559
고	-3560
마	-3561
삼	-3562
열	-3563
주	-3564
히	-3565
\	-3566
`	-3567
{	-3568
Â	-3569
Ä	-3570
ï	-3571
ð	-3572
û	-3573
ċ	-3574
ŋ	-3575
ś	-3576
Š	-3577
ų	-3578
ż	-3579
ɛ	-3580
Κ	-3581
Τ	-3582
έ	-3583
ή	-3584
υ	-3585
ύ	-3586
ώ	-3587
ב	-3588
ג	-3589
ק	-3590
ת	-3591
ز	-3592
ط	-3593
م	-3594
ُ	-3595
द	-3596
व	-3597
े	-3598
ত	-3599
ম	-3600
স	-3601
ি	-3602
ੰ	-3603
จ	-3604
ศ	-3605
ห	-3606
ะ	-3607
ั	-3608
Ⴇ	-3609
Ⴈ	-3610
Ⴋ	-3611
Ⴌ	-3612
Ⴎ	-3613
Ⴏ	-3614
Ⴑ	-3615
Ⴓ	-3616
Ⴕ	-3617
Ⴖ	-3618
Ⴗ	-3619
Ⴚ	-3620
Ⴛ	-3621
Ⴠ	-3622
ố	-3623
‏	-3624
‐	-3625
‘	-3626
⁄	-3627
€	-3628
≈	-3629
ⴇ	-3630
ⴈ	-3631
ⴋ	-3632
ⴌ	-3633
ⴎ	-3634
ⴏ	-3635
ⴑ	-3636
ⴓ	-3637
ⴕ	-3638
ⴖ	-3639
ⴗ	-3640
ⴚ	-3641
ⴛ	-3642
ⴠ	-3643
の	-3644
み	-3645
ー	-3646
七	-3647
三	-3648
上	-3649
九	-3650
五	-3651
仁	-3652
元	-3653
八	-3654
六	-3655
千	-3656
号	-3657
四	-3658
國	-3659
女	-3660
山	-3661
島	-3662
江	-3663
沅	-3664
法	-3665
百	-3666
藤	-3667
語	-3668
赤	-3669
韓	-3670
구	-3671
깊	-3672
둘	-3673
라	-3674
백	-3675
섯	-3676
실	-3677
야	-3678
예	-3679
용	-3680
육	-3681
은	-3682
자	-3683
제	-3684
천	-3685
칠	-3686
팔	-3687
흔	-3688
@	-3689
£	-3690
§	-3691
·	-3692
À	-3693
Å	-3694
È	-3695
Ê	-3696
×	-3697
Þ	-3698
ć	-3699
đ	-3700
ė	-3701
ĝ	-3702
į	-3703
Ň	-3704
Ō	-3705
ţ	-3706
ů	-3707
ǎ	-3708
ɐ	-3709
ɪ	-3710
ɰ	-3711
ɵ	-3712
ʁ	-3713
ʃ	-3714
ʊ	-3715
ʌ	-3716
ʒ	-3717
ˌ	-3718
̂	-3719
̯	-3720
Ε	-3721
Π	-3722
Υ	-3723
ά	-3724
ζ	-3725
θ	-3726
ξ	-3727
π	-3728
ψ	-3729
І	-3730
Ў	-3731
ј	-3732
џ	-3733
Қ	-3734
қ	-3735
ҟ	-3736
ҷ	-3737
ә	-3738
Է	-3739
Տ	-3740
Ր	-3741
א	-3742
ד	-3743
ח	-3744
ט	-3745
ם	-3746
ן	-3747
נ	-3748
ס	-3749
פ	-3750
ר	-3751
ש	-3752
أ	-3753
ئ	-3754
ث	-3755
غ	-3756
ف	-3757
ك	-3758
ى	-3759
ک	-3760
ۇ	-3761
ې	-3762
ं	-3763
ग	-3764
च	-3765
ठ	-3766
ड	-3767
ढ	-3768
म	-3769
र	-3770
़	-3771
ा	-3772
ং	-3773
অ	-3774
আ	-3775
ক	-3776
গ	-3777
জ	-3778
দ	-3779
প	-3780
ব	-3781
য	-3782
ল	-3783
ূ	-3784
ো	-3785
ਗ	-3786
ਚ	-3787
ਜ	-3788
ਡ	-3789
ਪ	-3790
ਬ	-3791
ਹ	-3792
ਾ	-3793
ੀ	-3794
੍	-3795
ੜ	-3796
ગ	-3797
જ	-3798
ત	-3799
ર	-3800
ા	-3801
ી	-3802
ુ	-3803
ଆ	-3804
ଓ	-3805
ଡ	-3806
଼	-3807
ି	-3808
ป	-3809
พ	-3810
ว	-3811
ส	-3812
า	-3813
ู	-3814
เ	-3815
แ	-3816
โ	-3817
ใ	-3818
่	-3819
์	-3820
Ⴍ	-3821
Ⴣ	-3822
ჿ	-3823
ል	-3824
መ	-3825
ስ	-3826
ቢ	-3827
ክ	-3828
የ	-3829
ያ	-3830
ግ	-3831
Ბ	-3832
Გ	-3833
Თ	-3834
Ი	-3835
Კ	-3836
Ლ	-3837
Მ	-3838
Ნ	-3839
Პ	-3840
Ჟ	-3841
Ს	-3842
Უ	-3843
Ქ	-3844
Ღ	-3845
Ყ	-3846
Ც	-3847
Ძ	-3848
Ჰ	-3849
ḍ	-3850
ạ	-3851
ế	-3852
ệ	-3853
ị	-3854
Ọ	-3855
ọ	-3856
Ủ	-3857
ủ	-3858
ἔ	-3859
ὁ	-3860
​	-3861
‚	-3862
←	-3863
→	-3864
≤	-3865
あ	-3866
う	-3867
じ	-3868
ど	-3869
ほ	-3870
む	-3871
ゅ	-3872
ん	-3873
ク	-3874
ジ	-3875
セ	-3876
ュ	-3877
ル	-3878
・	-3879
之	-3880
予	-3881
伊	-3882
修	-3883
倉	-3884
兵	-3885
兼	-3886
分	-3887
列	-3888
勝	-3889
勧	-3890
北	-3891
区	-3892
吉	-3893
名	-3894
喜	-3895
塞	-3896
孫	-3897
寛	-3898
寺	-3899
尔	-3900
岐	-3901
州	-3902
帝	-3903
府	-3904
彦	-3905
恒	-3906
新	-3907
日	-3908
松	-3909
柱	-3910
水	-3911
洋	-3912
清	-3913
源	-3914
澳	-3915
电	-3916
番	-3917
知	-3918
秀	-3919
秋	-3920
継	-3921
縣	-3922
臣	-3923
蘇	-3924
表	-3925
覧	-3926
話	-3927
讃	-3928
话	-3929
豊	-3930
賢	-3931
邊	-3932
部	-3933
鎮	-3934
長	-3935
門	-3936
际	-3937
際	-3938
電	-3939
音	-3940
高	-3941
鮮	-3942
간	-3943
강	-3944
곱	-3945
기	-3946
까	-3947
네	-3948
넷	-3949
는	-3950
닙	-3951
단	-3952
덟	-3953
든	-3954
로	-3955
룡	-3956
른	-3957
리	-3958
맙	-3959
물	-3960
믄	-3961
바	-3962
번	-3963
봉	-3964
뿌	-3965
샘	-3966
셀	-3967
셋	-3968
순	-3969
숫	-3970
쉰	-3971
스	-3972
습	-3973
식	-3974
영	-3975
옛	-3976
온	-3977
올	-3978
우	-3979
워	-3980
유	-3981
으	-3982
의	-3983
인	-3984
전	-3985
즈	-3986
차	-3987
카	-3988
크	-3989
타	-3990
파	-3991
합	-3992
호	-3993
홉	-3994
화	-3995
환	-3996
