<unk>	0
<s>	0
</s>	0
▁क	-0
▁स	-1
▁ह	-2
▁म	-3
▁प	-4
ें	-5
ार	-6
ने	-7
▁के	-8
▁ब	-9
्र	-10
▁है	-11
▁ज	-12
या	-13
▁द	-14
▁में	-15
▁र	-16
▁ल	-17
▁अ	-18
▁व	-19
ों	-20
▁की	-21
▁को	-22
▁न	-23
ान	-24
▁ग	-25
▁आ	-26
र्	-27
▁से	-28
▁कि	-29
▁कर	-30
▁इ	-31
ता	-32
▁उ	-33
▁का	-34
▁भ	-35
▁त	-36
▁ने	-37
ना	-38
िक	-39
्य	-40
▁पर	-41
ाल	-42
िल	-43
▁श	-44
▁औ	-45
▁और	-46
स्	-47
▁च	-48
क्	-49
▁प्र	-50
▁ए	-51
ही	-52
▁इस	-53
हा	-54
ड़	-55
▁हो	-56
▁य	-57
▁हैं	-58
▁जा	-59
िया	-60
ित	-61
िए	-62
ाम	-63
▁ख	-64
वा	-65
▁थ	-66
▁भी	-67
▁फ	-68
ते	-69
के	-70
ंग	-71
ला	-72
िय	-73
▁बा	-74
ले	-75
त्र	-76
न्	-77
▁स्	-78
▁रा	-79
री	-80
हीं	-81
ेश	-82
▁लिए	-83
▁वि	-84
रा	-85
से	-86
कर	-87
▁सा	-88
ती	-89
गा	-90
टी	-91
ारी	-92
▁एक	-93
िस	-94
िन	-95
ुर	-96
ोग	-97
▁ले	-98
ति	-99
नी	-100
्या	-101
▁सं	-102
सी	-103
▁नहीं	-104
ली	-105
▁अप	-106
▁हु	-107
▁सम	-108
क्ष	-109
ां	-110
▁ड	-111
▁किया	-112
का	-113
वार	-114
▁ही	-115
▁रह	-116
▁मु	-117
▁नि	-118
▁दे	-119
ंद	-120
ाय	-121
्म	-122
▁पह	-123
▁1	-124
▁गया	-125
ुल	-126
की	-127
▁कहा	-128
ार्	-129
▁ट	-130
न्ह	-131
▁घ	-132
कार	-133
ियों	-134
िला	-135
▁तो	-136
▁था	-137
▁2	-138
▁करने	-139
▁कार	-140
▁यह	-141
▁साथ	-142
रो	-143
▁राज	-144
ंच	-145
▁सि	-146
ंड	-147
्त	-148
▁उन्ह	-149
मा	-150
▁कु	-151
▁लोग	-152
दी	-153
▁उन	-154
▁अध	-155
ढ़	-156
ास	-157
गी	-158
वि	-159
▁रहे	-160
▁दिया	-161
▁बाद	-162
भा	-163
ेल	-164
▁पू	-165
कि	-166
टर	-167
▁वाल	-168
रे	-169
▁सु	-170
▁या	-171
जी	-172
ष्	-173
ल्	-174
पी	-175
▁आप	-176
भी	-177
ानी	-178
ओं	-179
▁उस	-180
▁अन	-181
गर	-182
दा	-183
▁रहा	-184
▁छ	-185
ाह	-186
्री	-187
▁हुए	-188
▁तक	-189
▁सक	-190
▁ध	-191
▁सर	-192
वी	-193
▁दो	-194
ाइ	-195
▁मिल	-196
ैं	-197
देश	-198
▁गई	-199
▁जो	-200
▁चु	-201
▁रही	-202
▁हम	-203
गे	-204
िर	-205
▁सी	-206
ंत्र	-207
▁बता	-208
▁बी	-209
▁पुल	-210
ौर	-211
ोज	-212
ाना	-213
▁बार	-214
श्	-215
िव	-216
द्	-217
स्त	-218
▁दी	-219
ोंने	-220
▁पुलिस	-221
स्ट	-222
▁(	-223
▁मह	-224
सा	-225
▁थी	-226
▁लोगों	-227
जा	-228
किन	-229
▁अपने	-230
्ष	-231
▁भार	-232
बा	-233
▁उन्होंने	-234
्रे	-235
▁मा	-236
▁जाए	-237
त्	-238
▁सरकार	-239
पा	-240
▁लेकिन	-241
▁पा	-242
▁जिस	-243
मी	-244
शन	-245
▁लगा	-246
च्	-247
▁बना	-248
▁मे	-249
वे	-250
नों	-251
स्थ	-252
▁स्थ	-253
ूर	-254
ड़ी	-255
में	-256
▁ला	-257
▁उप	-258
ंह	-259
क्र	-260
▁गए	-261
▁मौ	-262
द्र	-263
▁अब	-264
ोट	-265
हर	-266
▁टी	-267
ड़ा	-268
▁अधिक	-269
▁भा	-270
▁इसके	-271
हां	-272
बर	-273
ष्ट	-274
▁20	-275
▁बे	-276
▁होने	-277
ंत्री	-278
को	-279
▁थे	-280
▁ऐ	-281
▁कुछ	-282
▁ओ	-283
▁जान	-284
▁पहले	-285
..	-286
▁निर्	-287
▁कार्य	-288
▁सिंह	-289
▁तर	-290
ड़े	-291
िल्	-292
▁पी	-293
▁जब	-294
▁बि	-295
▁करते	-296
▁मो	-297
▁बात	-298
खा	-299
▁वह	-300
तर	-301
र्ट	-302
▁लेकर	-303
्स	-304
धान	-305
▁दिन	-306
▁माम	-307
▁जी	-308
▁सो	-309
▁कम	-310
▁वाले	-311
ुप	-312
िंग	-313
▁इन	-314
▁बढ़	-315
पुर	-316
▁बताया	-317
्यू	-318
▁द्	-319
▁3	-320
▁पहु	-321
ंध	-322
▁वर्	-323
िश	-324
कों	-325
▁बह	-326
▁सब	-327
टे	-328
▁परि	-329
▁भारत	-330
सर	-331
▁क्ष	-332
टा	-333
▁शुर	-334
▁पहुंच	-335
जन	-336
▁गां	-337
▁दौर	-338
▁साल	-339
र्म	-340
ंप	-341
▁दू	-342
बी	-343
▁साम	-344
डी	-345
▁बै	-346
▁समय	-347
▁रू	-348
▁हि	-349
▁अपनी	-350
▁ये	-351
क्षा	-352
ाप	-353
▁कोई	-354
▁देख	-355
क्त	-356
कारी	-357
▁काम	-358
▁सभी	-359
जे	-360
वर	-361
ये	-362
र्व	-363
▁कई	-364
▁चाह	-365
▁हुई	-366
▁दिल्	-367
म्म	-368
वाल	-369
▁हर	-370
▁तरह	-371
▁दौरान	-372
द्ध	-373
िका	-374
वारा	-375
ेट	-376
▁देश	-377
▁रि	-378
्रेस	-379
▁अनु	-380
मार	-381
▁हा	-382
▁उनके	-383
▁किसी	-384
एम	-385
ूल	-386
ेत्र	-387
▁करा	-388
▁राज्य	-389
ीन	-390
ोक	-391
▁आरो	-392
ोल	-393
▁कह	-394
▁दु	-395
▁वे	-396
▁होगा	-397
नाव	-398
▁आय	-399
▁हाल	-400
▁द्वारा	-401
▁ऑ	-402
▁शुरू	-403
▁दिल्ली	-404
▁क्षेत्र	-405
त्त	-406
सान	-407
▁अभ	-408
▁जु	-409
▁बीच	-410
▁हुआ	-411
▁प्रदेश	-412
▁अम	-413
▁ना	-414
▁पार्	-415
▁मै	-416
▁मुख	-417
ेंद्र	-418
मंत्री	-419
▁टीम	-420
▁उन्हें	-421
चा	-422
▁घर	-423
▁जन	-424
ेंगे	-425
▁फिल	-426
▁खिला	-427
मान	-428
ारा	-429
▁लिया	-430
▁चल	-431
▁मैं	-432
▁रुप	-433
▁सह	-434
▁जि	-435
▁रूप	-436
फी	-437
▁निक	-438
्यक्ष	-439
ज़	-440
▁यु	-441
▁ट्र	-442
जार	-443
▁इं	-444
▁बन	-445
▁जाने	-446
ोड़	-447
ंक	-448
यर	-449
▁सू	-450
क्रम	-451
▁शिक	-452
लो	-453
▁पि	-454
रोना	-455
▁व्य	-456
वं	-457
र्स	-458
ैसे	-459
▁आई	-460
▁लग	-461
▁कांग	-462
▁चुनाव	-463
▁कोरोना	-464
जर	-465
बंध	-466
▁विक	-467
▁महिला	-468
लों	-469
▁बु	-470
▁रख	-471
▁वर्ष	-472
00	-473
ंस	-474
पो	-475
ुत	-476
स्प	-477
▁सकता	-478
▁फिल्म	-479
िट	-480
▁-	-481
▁शाम	-482
▁प्रति	-483
▁कांग्रेस	-484
▁खु	-485
▁जिल	-486
▁वहीं	-487
▁नाम	-488
ंज	-489
एं	-490
्रीय	-491
▁मान	-492
▁सकते	-493
एस	-494
धी	-495
▁ठ	-496
दान	-497
▁ग्र	-498
हत	-499
▁फै	-500
प्	-501
▁यू	-502
्यादा	-503
▁जांच	-504
▁तै	-505
ब्	-506
च्च	-507
▁दर्	-508
▁दूस	-509
▁जाता	-510
▁स्थित	-511
▁पार्टी	-512
लय	-513
▁'	-514
दार	-515
धार	-516
वास	-517
▁गो	-518
▁करना	-519
▁जानकारी	-520
ैन	-521
▁आज	-522
▁कुमार	-523
▁मामले	-524
चार	-525
▁लि	-526
आई	-527
दे	-528
ेर	-529
ंट	-530
च्छ	-531
हार	-532
▁मांग	-533
▁वाली	-534
▁‘	-535
टना	-536
वाई	-537
▁ता	-538
्यों	-539
▁किए	-540
▁यहां	-541
▁अध्यक्ष	-542
▁जर	-543
क्टर	-544
▁क्र	-545
▁बैठ	-546
ोन	-547
▁गांव	-548
▁नेता	-549
▁दोनों	-550
▁राष्ट	-551
▁ज्यादा	-552
ीड	-553
ारे	-554
▁एस	-555
ार्ड	-556
ोजना	-557
▁इला	-558
▁पास	-559
▁सबसे	-560
▁चाहिए	-561
▁मुख्य	-562
▁गु	-563
▁दि	-564
▁जारी	-565
वन	-566
ायर	-567
▁अं	-568
▁उत्त	-569
▁जाएगा	-570
शी	-571
ूं	-572
ियां	-573
▁लाख	-574
▁सुर	-575
▁उनकी	-576
▁विश्	-577
▁5	-578
धिक	-579
ायत	-580
▁रो	-581
▁201	-582
▁महा	-583
▁कारण	-584
ज्	-585
क्ट	-586
क्ति	-587
▁राम	-588
▁बहुत	-589
▁विभा	-590
पर	-591
▁झ	-592
तीय	-593
ुरु	-594
▁अव	-595
▁फिर	-596
▁देने	-597
णा	-598
था	-599
प्र	-600
▁अग	-601
▁उसके	-602
▁जिले	-603
▁शा	-604
▁आरोप	-605
▁इससे	-606
वान	-607
ांच	-608
▁खा	-609
▁वै	-610
▁एवं	-611
▁तैय	-612
▁आपको	-613
नि	-614
ीस	-615
ुक	-616
्ल	-617
▁4	-618
वाद	-619
▁आए	-620
▁छा	-621
▁तीन	-622
▁स्ट	-623
पोर्ट	-624
▁काफी	-625
▁जिला	-626
▁कॉ	-627
▁सद	-628
▁उसे	-629
स्पता	-630
▁अस्पता	-631
योग	-632
ियो	-633
▁चौ	-634
▁शु	-635
▁ऐसे	-636
▁शामिल	-637
कर्	-638
चना	-639
▁कै	-640
▁पु	-641
▁अगर	-642
▁कंप	-643
▁पत्र	-644
▁बारे	-645
▁खिलाफ	-646
द्य	-647
सार	-648
स्तान	-649
▁किसान	-650
▁प्रधान	-651
ून	-652
क्स	-653
पाल	-654
▁पै	-655
▁बद	-656
▁पूर्व	-657
▁योजना	-658
▁विभाग	-659
फ्त	-660
भाव	-661
र्थ	-662
▁आत	-663
▁ओर	-664
▁डि	-665
▁डी	-666
▁ली	-667
▁इसी	-668
्यालय	-669
दि	-670
म्	-671
▁:	-672
▁डॉ	-673
▁बच्च	-674
▁मोदी	-675
सभा	-676
ेशन	-677
▁भाज	-678
▁अन्य	-679
▁होगी	-680
▁करोड़	-681
ूम	-682
ेज	-683
न्न	-684
▁अच्छ	-685
▁सामने	-686
आर	-687
धा	-688
पू	-689
ोर	-690
▁पिछ	-691
▁बल्	-692
▁पानी	-693
गत	-694
तिक	-695
ामी	-696
ेंद	-697
▁दा	-698
▁आने	-699
▁गिर	-700
▁स्व	-701
▁हजार	-702
▁ई	-703
...	-704
र्ण	-705
ासन	-706
त्रा	-707
▁पढ़	-708
▁करें	-709
▁भाजपा	-710
वल	-711
▁6	-712
रीज	-713
▁कप	-714
▁बो	-715
▁चला	-716
▁स्क	-717
▁प्रश	-718
ारियों	-719
शे	-720
ीर	-721
ंगे	-722
स्ता	-723
▁क्यों	-724
▁।	-725
ंबर	-726
▁क्या	-727
▁घटना	-728
▁पूरी	-729
▁बढ़ा	-730
▁होती	-731
▁रुपये	-732
िम	-733
ेंट	-734
▁चे	-735
▁दिए	-736
▁भारतीय	-737
▁अस्पताल	-738
फा	-739
▁7	-740
ंदी	-741
▁आर	-742
▁होता	-743
ीद	-744
ोष	-745
माण	-746
र्ड	-747
ंब	-748
बाद	-749
ाला	-750
ाली	-751
▁19	-752
▁वो	-753
▁पांच	-754
▁पिछले	-755
जू	-756
▁इसे	-757
▁करी	-758
▁विश्व	-759
▁रिपोर्ट	-760
▁आग	-761
▁गा	-762
▁नई	-763
त्या	-764
▁अभी	-765
▁न्यू	-766
▁मिले	-767
▁मंत्री	-768
मु	-769
▁पद	-770
क्सी	-771
ताओं	-772
स्था	-773
▁चार	-774
▁मिली	-775
▁उत्तर	-776
▁शिक्ष	-777
ांकि	-778
▁बंद	-779
▁मौत	-780
▁हूं	-781
म्मीद	-782
▁अपना	-783
▁उम्मीद	-784
▁हालांकि	-785
▁डे	-786
▁नी	-787
▁रे	-788
▁नगर	-789
▁हों	-790
▁आयोज	-791
▁प्रद	-792
▁स्वा	-793
▁तैयार	-794
▁संबंध	-795
▁परिवार	-796
ृत	-797
स्क	-798
▁आम	-799
▁उठ	-800
▁उत्	-801
▁फीस	-802
▁विध	-803
▁दर्ज	-804
▁बैठक	-805
▁जाएगी	-806
ज्ञ	-807
तार	-808
▁10	-809
▁मन	-810
▁वा	-811
▁अला	-812
▁इस्	-813
▁संग	-814
▁सदस	-815
दन	-816
शि	-817
▁8	-818
र्फ	-819
ियम	-820
्ला	-821
ख्या	-822
▁खेल	-823
▁पंच	-824
▁करीब	-825
▁जबकि	-826
▁दिनों	-827
ची	-828
डे	-829
ंगल	-830
काश	-831
ध्य	-832
्रा	-833
▁पो	-834
▁मज	-835
▁फैस	-836
▁मही	-837
▁मैच	-838
▁लड़	-839
फ्तार	-840
ीक्षा	-841
▁लेने	-842
▁केंद्र	-843
▁प्रधानमंत्री	-844
जह	-845
डा	-846
हन	-847
ीय	-848
लिए	-849
विड	-850
▁अफ	-851
▁जग	-852
▁पं	-853
निया	-854
मारी	-855
▁याद	-856
▁सुब	-857
▁इसका	-858
▁गुरु	-859
▁व्यव	-860
▁गांधी	-861
▁अनुसार	-862
▁संक्रम	-863
▁स्थिति	-864
रि	-865
लग	-866
ाज	-867
ूट	-868
▁टे	-869
वासी	-870
▁इंड	-871
▁जीत	-872
▁शहर	-873
▁जैसे	-874
▁मरीज	-875
ाइन	-876
िता	-877
▁बैं	-878
▁वजह	-879
▁पाकि	-880
▁बड़ी	-881
▁शादी	-882
▁अलावा	-883
20	-884
जय	-885
ोध	-886
्‍	-887
▁ऊ	-888
जूद	-889
▁करे	-890
▁दें	-891
▁मार	-892
▁युव	-893
▁रेल	-894
▁कहना	-895
▁मार्	-896
▁इसमें	-897
▁निर्देश	-898
ेत	-899
वेश	-900
▁आस	-901
▁बेह	-902
▁सर्	-903
▁किसानों	-904
▁मुख्यमंत्री	-905
रण	-906
करण	-907
▁कृ	-908
▁नौ	-909
▁मद	-910
▁शि	-911
मेंट	-912
▁कान	-913
▁जिन	-914
▁नजर	-915
▁पड़	-916
▁शिव	-917
▁जहां	-918
▁सुबह	-919
▁इसलिए	-920
▁दूसरे	-921
▁बनाने	-922
▁विकास	-923
▁जिसमें	-924
बू	-925
शा	-926
पति	-927
शेष	-928
▁तथा	-929
▁श्री	-930
▁सकती	-931
▁आरोपी	-932
▁कंपनी	-933
▁छात्र	-934
▁विशेष	-935
▁सुरक्षा	-936
ताब	-937
श्च	-938
श्म	-939
ूरत	-940
ेंड	-941
▁खत	-942
ंदिर	-943
▁ऐसा	-944
▁सीट	-945
न्द्र	-946
▁थाना	-947
▁प्रो	-948
▁जिससे	-949
▁निवासी	-950
धि	-951
फल	-952
माल	-953
वीर	-954
ायल	-955
▁15	-956
▁बस	-957
▁बॉ	-958
▁मत	-959
स्या	-960
▁जनता	-961
▁प्रत	-962
▁बाहर	-963
▁वहां	-964
▁कोविड	-965
▁विधान	-966
▁कार्यक्रम	-967
ar	-968
यी	-969
हम	-970
त्व	-971
▁एन	-972
▁भर	-973
▁शे	-974
▁सौ	-975
▁कैं	-976
▁घोष	-977
▁तहत	-978
▁बजे	-979
▁समझ	-980
▁होते	-981
▁मंदिर	-982
▁स्कूल	-983
▁करेंगे	-984
▁राष्ट्रीय	-985
इन	-986
एन	-987
फ्	-988
यन	-989
यु	-990
राज	-991
राब	-992
िकल	-993
▁नए	-994
▁जगह	-995
▁लोक	-996
▁उसकी	-997
▁जाती	-998
▁दिखा	-999
▁न्या	-1000
▁रुपए	-1001
▁सम्म	-1002
▁सहित	-1003
▁सेवा	-1004
▁बिहार	-1005
▁हिंदी	-1006
▁राष्ट्र	-1007
ंगा	-1008
नाथ	-1009
वाब	-1010
श्य	-1011
ायक	-1012
ियन	-1013
ूरी	-1014
▁जे	-1015
▁बर	-1016
▁वन	-1017
रिया	-1018
▁पता	-1019
▁ब्र	-1020
▁मदद	-1021
▁उनका	-1022
▁करता	-1023
▁मौके	-1024
▁रहने	-1025
▁वायर	-1026
▁मिलने	-1027
▁पंचायत	-1028
▁संख्या	-1029
▁क्योंकि	-1030
ंत	-1031
मत	-1032
शल	-1033
ात	-1034
गंज	-1035
लेज	-1036
ष्ठ	-1037
▁डा	-1038
▁लॉ	-1039
ियान	-1040
्याप	-1041
▁योग	-1042
▁रात	-1043
्रवाई	-1044
▁इसकी	-1045
▁देते	-1046
▁पहली	-1047
▁पूरा	-1048
▁बड़े	-1049
▁राजनी	-1050
▁सूचना	-1051
▁होंगे	-1052
▁समस्या	-1053
▁महिलाओं	-1054
▁कार्रवाई	-1055
▁गिरफ्तार	-1056
झे	-1057
न्द	-1058
ोटो	-1059
▁11	-1060
▁धन	-1061
▁सच	-1062
▁आगे	-1063
▁उठा	-1064
▁आधार	-1065
▁पूरे	-1066
▁वार्ड	-1067
▁सदस्य	-1068
▁अधिकारी	-1069
▁प्रशासन	-1070
एफ	-1071
बे	-1072
ॉल	-1073
▁9	-1074
र्च	-1075
ल्ड	-1076
िने	-1077
ेंस	-1078
▁इत	-1079
मार्	-1080
▁खुद	-1081
▁जल्	-1082
▁पर्	-1083
▁मीड	-1084
▁वीड	-1085
▁शर्	-1086
▁सोम	-1087
▁हाथ	-1088
▁अमेर	-1089
▁आपके	-1090
▁कर्म	-1091
▁चुकी	-1092
▁मिला	-1093
▁महीने	-1094
▁मुताब	-1095
▁अभियान	-1096
▁प्रदर्	-1097
▁वीडियो	-1098
▁परीक्षा	-1099
▁पाकिस्तान	-1100
किल	-1101
खंड	-1102
गढ़	-1103
यास	-1104
▁दर	-1105
▁पक	-1106
ाप्त	-1107
ामीण	-1108
▁भाग	-1109
स्थान	-1110
▁प्रा	-1111
▁बैंक	-1112
▁युवा	-1113
▁ग्रामीण	-1114
▁मुताबिक	-1115
▁विधानसभा	-1116
टन	-1117
सल	-1118
ंदर	-1119
ालय	-1120
िटी	-1121
ोरी	-1122
▁दल	-1123
ार्थ	-1124
▁शनि	-1125
▁जाना	-1126
▁उपयोग	-1127
▁फीसदी	-1128
▁मीडिया	-1129
▁वैक्सी	-1130
▁सोमवार	-1131
▁स्वास्थ	-1132
उन	-1133
तन	-1134
▁B	-1135
चान	-1136
रोध	-1137
लाई	-1138
वरी	-1139
हरी	-1140
ाइल	-1141
ियर	-1142
िरा	-1143
▁आद	-1144
▁उम	-1145
▁ऑफ	-1146
▁जय	-1147
▁बज	-1148
क्षण	-1149
▁मंड	-1150
▁मूल	-1151
▁गेंद	-1152
▁युवक	-1153
▁सवाल	-1154
▁कराने	-1155
▁बच्चों	-1156
▁शिकायत	-1157
-1	-1158
मे	-1159
षि	-1160
ग्र	-1161
रिक	-1162
स्‍	-1163
िति	-1164
्रम	-1165
बाजी	-1166
र्ती	-1167
▁खान	-1168
▁लगे	-1169
▁वाह	-1170
▁सके	-1171
▁स्प	-1172
▁जवाब	-1173
▁बड़ा	-1174
▁मध्य	-1175
▁जिसके	-1176
▁सिर्फ	-1177
▁पहुंचा	-1178
▁लगातार	-1179
ग्	-1180
षण	-1181
ुआ	-1182
कान	-1183
काल	-1184
यों	-1185
ालन	-1186
▁12	-1187
▁14	-1188
▁आव	-1189
▁तब	-1190
▁तय	-1191
▁फे	-1192
▁कुल	-1193
▁पुर	-1194
▁बाइ	-1195
▁राह	-1196
▁वाप	-1197
▁सड़	-1198
▁जीवन	-1199
▁पक्ष	-1200
▁फोटो	-1201
▁मुझे	-1202
द्यालय	-1203
▁कोर्ट	-1204
▁पहुंचे	-1205
▁अधिकारियों	-1206
छे	-1207
षा	-1208
ीज	-1209
हरा	-1210
▁नर	-1211
क्शन	-1212
र्जी	-1213
▁खरी	-1214
▁नोट	-1215
▁फोन	-1216
▁मेड	-1217
▁सही	-1218
▁सुन	-1219
तेमाल	-1220
▁इंटर	-1221
▁उसने	-1222
▁केवल	-1223
▁मंगल	-1224
▁स्तर	-1225
▁बल्ले	-1226
▁मौजूद	-1227
▁दुनिया	-1228
▁प्रभाव	-1229
▁प्रदर्शन	-1230
▁स्वास्थ्य	-1231
जल	-1232
सम	-1233
ोह	-1234
▁ढ	-1235
काब	-1236
▁क्	-1237
▁पे	-1238
▁आदि	-1239
▁करके	-1240
▁दूसरी	-1241
▁मंत्र	-1242
▁मामला	-1243
▁रेलवे	-1244
▁व्याप	-1245
▁शुक्र	-1246
▁हत्या	-1247
▁इंडिया	-1248
▁शनिवार	-1249
थम	-1250
यू	-1251
सू	-1252
ंटे	-1253
ंबई	-1254
मति	-1255
यान	-1256
वित	-1257
▁25	-1258
▁गठ	-1259
▁रन	-1260
क्षक	-1261
र्चा	-1262
स्सा	-1263
▁अति	-1264
▁कभी	-1265
▁दिल	-1266
▁दिव	-1267
▁बुध	-1268
▁मां	-1269
▁माल	-1270
▁माह	-1271
▁लाल	-1272
▁इलाज	-1273
▁चलते	-1274
▁आवश्य	-1275
▁फैसला	-1276
▁बल्कि	-1277
▁मुंबई	-1278
▁लगाया	-1279
▁शर्मा	-1280
▁निर्माण	-1281
▁व्यक्ति	-1282
▁इस्तेमाल	-1283
▁व्यवस्था	-1284
ठी	-1285
बल	-1286
िज	-1287
मुख	-1288
िये	-1289
▁एम	-1290
▁गं	-1291
▁जल	-1292
दारी	-1293
ानीय	-1294
िकेट	-1295
▁अहम	-1296
▁जेल	-1297
▁पेश	-1298
▁बचा	-1299
▁यही	-1300
▁संक	-1301
श्मीर	-1302
▁बनाए	-1303
▁बिना	-1304
▁कार्ड	-1305
▁स्थान	-1306
▁आवश्यक	-1307
▁स्थानीय	-1308
वत	-1309
ीक	-1310
ूह	-1311
ेम	-1312
ैक	-1313
▁P	-1314
▁–	-1315
लब्	-1316
ांत	-1317
ानि	-1318
▁वृ	-1319
त्री	-1320
धानी	-1321
विधा	-1322
ांति	-1323
▁अलग	-1324
▁कोश	-1325
▁खास	-1326
▁तरफ	-1327
▁दूर	-1328
▁भूम	-1329
▁मिश	-1330
▁रवि	-1331
▁रोक	-1332
▁विप	-1333
▁घायल	-1334
▁जाते	-1335
▁निकल	-1336
▁वाला	-1337
▁सीमा	-1338
▁स्टे	-1339
▁उपलब्	-1340
▁कराया	-1341
▁देखते	-1342
▁न्यूज़	-1343
▁प्रकाश	-1344
▁प्रयास	-1345
▁मंगलवार	-1346
कत	-1347
ट्	-1348
णी	-1349
नर	-1350
ूब	-1351
▁,	-1352
भीर	-1353
साइ	-1354
▁गै	-1355
▁ते	-1356
▁लख	-1357
▁आया	-1358
▁उल्	-1359
▁लाभ	-1360
द्योग	-1361
स्ट्र	-1362
▁आतंक	-1363
▁जिसे	-1364
▁ताकि	-1365
▁लक्ष	-1366
▁लिखा	-1367
▁हमले	-1368
धिकारी	-1369
▁देखने	-1370
▁निकाल	-1371
▁बारिश	-1372
▁भर्ती	-1373
▁मुकाब	-1374
▁राहुल	-1375
▁वायरस	-1376
▁यात्रा	-1377
▁वैक्सीन	-1378
▁उम्मीदवार	-1379
जु	-1380
फे	-1381
मो	-1382
▁"	-1383
ंदा	-1384
ूर्	-1385
ैंड	-1386
▁13	-1387
▁17	-1388
▁आइ	-1389
▁आन	-1390
▁खे	-1391
▁ज़	-1392
▁फर	-1393
्यान	-1394
▁ऐसी	-1395
▁खबर	-1396
▁ठीक	-1397
▁पार	-1398
▁लिख	-1399
▁संप	-1400
▁सला	-1401
▁साफ	-1402
▁हाद	-1403
▁आयोग	-1404
▁उसका	-1405
▁कीमत	-1406
▁चुका	-1407
▁चुके	-1408
▁जागर	-1409
▁परेश	-1410
▁बाइक	-1411
▁यादव	-1412
▁समेत	-1413
▁सोशल	-1414
▁जरूरत	-1415
▁समर्थ	-1416
▁प्रदान	-1417
▁मेडिकल	-1418
▁प्राप्त	-1419
▁संक्रमण	-1420
▁राजस्थान	-1421
on	-1422
एल	-1423
कल	-1424
धे	-1425
भग	-1426
ैल	-1427
गार	-1428
नगर	-1429
भार	-1430
▁आं	-1431
▁एड	-1432
▁गल	-1433
▁जै	-1434
▁बच	-1435
बंधन	-1436
ैनिक	-1437
▁निय	-1438
▁मिन	-1439
▁वित	-1440
▁श्र	-1441
ज्ञान	-1442
▁करती	-1443
▁किलो	-1444
▁जल्द	-1445
▁जवान	-1446
▁दक्ष	-1447
▁पंजा	-1448
▁बयान	-1449
▁मुद्	-1450
▁लगभग	-1451
▁संगठ	-1452
▁सांस	-1453
क्रिया	-1454
▁गंभीर	-1455
▁हमारे	-1456
▁बुधवार	-1457
▁मरीजों	-1458
▁सुविधा	-1459
▁राष्ट्रपति	-1460
गल	-1461
पु	-1462
लब	-1463
सं	-1464
ीत	-1465
▁C	-1466
ंगी	-1467
फ्ट	-1468
रों	-1469
र्क	-1470
▁16	-1471
▁अश	-1472
▁ज्	-1473
▁भे	-1474
▁शव	-1475
जेपी	-1476
लाइन	-1477
▁चाल	-1478
▁तस्	-1479
▁तेज	-1480
▁तेल	-1481
▁तौर	-1482
▁पाए	-1483
▁रखा	-1484
▁रिक	-1485
▁रोड	-1486
पूर्ण	-1487
मार्ट	-1488
▁कृषि	-1489
▁परिव	-1490
▁मेरे	-1491
▁होना	-1492
▁अच्छा	-1493
▁अच्छी	-1494
▁लगाने	-1495
▁उपलब्ध	-1496
▁मामलों	-1497
▁सम्मान	-1498
▁शुक्रवार	-1499
▁प्रक्रिया	-1500
गम	-1501
झा	-1502
ड्	-1503
दम	-1504
पन	-1505
फर	-1506
ूक	-1507
जिट	-1508
फाई	-1509
बार	-1510
▁30	-1511
▁कल	-1512
▁चि	-1513
▁लौ	-1514
ंद्र	-1515
द्धि	-1516
▁कमी	-1517
▁गति	-1518
▁छोट	-1519
▁राय	-1520
▁कपूर	-1521
▁कहते	-1522
▁छोड़	-1523
▁पीड़	-1524
▁प्रभ	-1525
▁राशि	-1526
▁वापस	-1527
▁शेयर	-1528
▁समाज	-1529
▁समूह	-1530
▁सलाह	-1531
▁हमने	-1532
▁हालत	-1533
▁कॉलेज	-1534
▁चर्चा	-1535
▁मैंने	-1536
▁विरोध	-1537
▁आयोजित	-1538
▁जाएंगे	-1539
▁डॉक्टर	-1540
▁तस्वीर	-1541
▁न्याया	-1542
▁बीजेपी	-1543
▁नरेंद्र	-1544
in	-1545
ोस	-1546
▁H	-1547
देव	-1548
हाय	-1549
ाइड	-1550
िशा	-1551
ुओं	-1552
▁अर	-1553
▁तम	-1554
▁मि	-1555
जनों	-1556
ित्र	-1557
▁गयी	-1558
▁डाल	-1559
▁तभी	-1560
▁दाम	-1561
▁बजट	-1562
▁बने	-1563
▁भेज	-1564
▁रोज	-1565
▁संच	-1566
▁सफल	-1567
▁सात	-1568
▁हाई	-1569
न्हें	-1570
स्थित	-1571
▁उम्र	-1572
▁नियम	-1573
▁यूपी	-1574
▁रहता	-1575
▁सेना	-1576
▁स्वी	-1577
▁आयोजन	-1578
▁कोशिश	-1579
▁जरूरी	-1580
▁जिम्म	-1581
▁जुड़े	-1582
▁पोस्ट	-1583
▁विपक्ष	-1584
▁शिक्षा	-1585
विद्यालय	-1586
▁राजधानी	-1587
▁कार्यकर्	-1588
▁प्रभावित	-1589
▁राजनीतिक	-1590
पल	-1591
भर	-1592
सन	-1593
▁R	-1594
ंकी	-1595
तिम	-1596
न्‍	-1597
बाज	-1598
वनी	-1599
▁अस	-1600
▁आठ	-1601
▁चा	-1602
कर्म	-1603
ड़ों	-1604
▁आंक	-1605
▁आयु	-1606
▁खूब	-1607
▁गौर	-1608
▁टिक	-1609
▁त्र	-1610
▁पहल	-1611
▁लखन	-1612
▁साब	-1613
▁सें	-1614
युक्त	-1615
▁अंतर	-1616
▁अपरा	-1617
▁आदेश	-1618
▁केंद	-1619
▁पीछे	-1620
▁मुश्	-1621
▁शराब	-1622
▁सहाय	-1623
▁सीबी	-1624
▁उत्पा	-1625
▁टेस्ट	-1626
▁दक्षि	-1627
▁पढ़ें	-1628
▁बाजार	-1629
▁समिति	-1630
▁प्रमुख	-1631
▁रविवार	-1632
▁विधायक	-1633
▁अमेरिका	-1634
▁खिलाड़ी	-1635
▁गुरुवार	-1636
▁प्रस्ता	-1637
▁केंद्रीय	-1638
गू	-1639
मर	-1640
शत	-1641
ोद	-1642
वाह	-1643
▁छो	-1644
▁रु	-1645
्रोल	-1646
▁जमा	-1647
▁जमी	-1648
▁थीं	-1649
▁दिस	-1650
▁पूछ	-1651
▁पेट	-1652
▁मृत	-1653
▁मोह	-1654
▁यदि	-1655
▁लाइ	-1656
क्षित	-1657
ियाणा	-1658
▁आत्म	-1659
▁एक्स	-1660
▁कहीं	-1661
▁घंटे	-1662
▁चोरी	-1663
▁तेजी	-1664
▁भारी	-1665
▁माना	-1666
▁वक्त	-1667
▁हमला	-1668
▁होकर	-1669
▁इलाके	-1670
▁जुलाई	-1671
▁ध्यान	-1672
▁निर्ण	-1673
▁पंजाब	-1674
▁बनाया	-1675
▁नेताओं	-1676
▁सरकारी	-1677
▁कार्यालय	-1678
at	-1679
चर	-1680
चल	-1681
भि	-1682
ाई	-1683
ूप	-1684
ंका	-1685
केट	-1686
खिल	-1687
मता	-1688
यात	-1689
ष्ण	-1690
▁एल	-1691
▁छह	-1692
▁फ़	-1693
▁शो	-1694
वेदन	-1695
▁200	-1696
▁अली	-1697
▁जन्	-1698
▁जून	-1699
▁लगी	-1700
▁शाह	-1701
▁हास	-1702
▁खरीद	-1703
▁धर्म	-1704
▁नंबर	-1705
▁लखनऊ	-1706
▁सचिव	-1707
▁सीएम	-1708
▁अभिने	-1709
▁कैंसर	-1710
▁निवेश	-1711
▁वालों	-1712
▁विवाद	-1713
▁शुरुआ	-1714
▁कश्मीर	-1715
▁प्रमाण	-1716
▁हिस्सा	-1717
▁क्रिकेट	-1718
▁प्रभारी	-1719
▁मुश्किल	-1720
▁संक्रमित	-1721
▁विश्वविद्यालय	-1722
al	-1723
चे	-1724
जि	-1725
तृ	-1726
षद	-1727
सि	-1728
्व	-1729
▁0	-1730
उंड	-1731
चीत	-1732
नेट	-1733
ल्प	-1734
शनल	-1735
ेटी	-1736
ोजन	-1737
▁18	-1738
▁एज	-1739
▁ऑन	-1740
▁ख़	-1741
▁पॉ	-1742
स्टर	-1743
▁अर्	-1744
▁कदम	-1745
▁कर्	-1746
▁पति	-1747
▁बदल	-1748
▁बोल	-1749
▁भाई	-1750
▁वोट	-1751
▁संत	-1752
▁सप्	-1753
▁साइ	-1754
▁हटा	-1755
▁अवसर	-1756
▁उनसे	-1757
▁करवा	-1758
▁गिरा	-1759
▁दिला	-1760
▁पीएम	-1761
▁सड़क	-1762
▁सफाई	-1763
▁अंतिम	-1764
▁कमेटी	-1765
▁ग्राम	-1766
▁घोषणा	-1767
▁देशों	-1768
▁बेहतर	-1769
▁शांति	-1770
▁सूत्र	-1771
▁हासिल	-1772
▁अतिरिक	-1773
▁जिम्मे	-1774
▁प्रकार	-1775
▁बातचीत	-1776
▁समर्थन	-1777
▁हरियाणा	-1778
कु	-1779
चन	-1780
टक	-1781
धन	-1782
रल	-1783
ील	-1784
ेक	-1785
▁“	-1786
ंटी	-1787
खों	-1788
जली	-1789
ट्र	-1790
दूर	-1791
रीब	-1792
र्ष	-1793
वेज	-1794
ूषण	-1795
ृति	-1796
▁50	-1797
▁कट	-1798
▁तु	-1799
▁दौ	-1800
▁नव	-1801
▁पस	-1802
▁प्	-1803
▁मश	-1804
▁रै	-1805
किंग	-1806
ड़ने	-1807
त्ता	-1808
ार्म	-1809
ोपाल	-1810
▁100	-1811
▁आते	-1812
▁एयर	-1813
▁केस	-1814
▁दबा	-1815
▁दवा	-1816
▁दिख	-1817
▁ब्ल	-1818
▁समु	-1819
▁सित	-1820
▁सिल	-1821
▁आनंद	-1822
▁इतना	-1823
▁खर्च	-1824
▁ट्रे	-1825
▁निगम	-1826
▁बेटी	-1827
▁बेहद	-1828
▁रहते	-1829
▁विभि	-1830
▁प्रथम	-1831
▁बच्चे	-1832
▁महारा	-1833
▁मैदान	-1834
▁संवाद	-1835
▁सामान	-1836
▁हादसे	-1837
▁उत्तरा	-1838
▁दिसंबर	-1839
▁भूमिका	-1840
▁महामारी	-1841
▁मुकाबले	-1842
▁स्मार्ट	-1843
▁अतिरिक्त	-1844
▁मंत्रालय	-1845
22	-1846
एच	-1847
घा	-1848
धर	-1849
फ़	-1850
मन	-1851
लि	-1852
सब	-1853
ुड	-1854
।"	-1855
जीत	-1856
लाव	-1857
ष्य	-1858
हाल	-1859
ांस	-1860
िनि	-1861
ूबर	-1862
ेशा	-1863
▁आल	-1864
▁खो	-1865
▁ट्	-1866
▁ठा	-1867
▁दस	-1868
▁धो	-1869
▁फा	-1870
▁फु	-1871
▁मी	-1872
▁सत	-1873
क्ता	-1874
ग्री	-1875
ारों	-1876
ॉर्ड	-1877
▁अंत	-1878
▁तीस	-1879
▁नुक	-1880
▁बाल	-1881
▁रोग	-1882
▁संघ	-1883
▁संभ	-1884
▁साह	-1885
स्कार	-1886
▁2020	-1887
▁अंदर	-1888
▁अग्र	-1889
▁अप्र	-1890
▁उत्स	-1891
▁खत्म	-1892
▁टीका	-1893
▁देखा	-1894
▁नागर	-1895
▁पैसे	-1896
▁मजबू	-1897
▁वाहन	-1898
▁संकट	-1899
▁स्वय	-1900
ड़ियों	-1901
▁कक्षा	-1902
▁कानून	-1903
▁दुकान	-1904
▁पहचान	-1905
▁पुत्र	-1906
▁पूर्ण	-1907
▁रहेगा	-1908
▁विचार	-1909
▁सांसद	-1910
▁अनुमति	-1911
▁प्रवेश	-1912
▁मिलेगा	-1913
▁लोकसभा	-1914
er	-1915
▁A	-1916
▁M	-1917
दाय	-1918
नात	-1919
न्स	-1920
विर	-1921
वीं	-1922
वुड	-1923
शान	-1924
ांड	-1925
िकी	-1926
ुल्	-1927
ेंज	-1928
▁23	-1929
▁24	-1930
▁घा	-1931
▁नक	-1932
▁पौ	-1933
▁फी	-1934
▁भु	-1935
▁रण	-1936
▁शी	-1937
ंगाल	-1938
चिका	-1939
म्मू	-1940
वेयर	-1941
▁असर	-1942
▁ऊपर	-1943
▁क्ल	-1944
▁चिक	-1945
▁चीन	-1946
▁तिव	-1947
▁पदा	-1948
▁भाव	-1949
▁मले	-1950
▁वरि	-1951
धियों	-1952
वितीय	-1953
▁एक्ट	-1954
▁कराई	-1955
▁टिकट	-1956
▁दुर्	-1957
▁देकर	-1958
▁पहला	-1959
▁पाया	-1960
▁पिता	-1961
▁पूजा	-1962
▁मौका	-1963
▁मौसम	-1964
▁विजय	-1965
▁चाहते	-1966
▁निवास	-1967
▁पड़ता	-1968
▁परिषद	-1969
▁महत्व	-1970
▁स्वयं	-1971
▁हमेशा	-1972
▁तिवारी	-1973
▁बढ़ाने	-1974
▁याचिका	-1975
▁वरिष्ठ	-1976
▁राज्यों	-1977
▁विभिन्न	-1978
▁न्यायालय	-1979
21	-1980
es	-1981
वट	-1982
ुन	-1983
ृह	-1984
ौल	-1985
।'	-1986
▁ऋ	-1987
000	-1988
दों	-1989
मेल	-1990
मैन	-1991
साय	-1992
सिक	-1993
सित	-1994
सों	-1995
स्व	-1996
हाँ	-1997
िक्	-1998
ेश्	-1999
्मी	-2000
्यो	-2001
▁ओम	-2002
▁गह	-2003
▁भग	-2004
▁हे	-2005
त्ति	-2006
मीटर	-2007
वादी	-2008
▁गर्	-2009
▁चयन	-2010
▁चुन	-2011
▁डाय	-2012
▁ड्र	-2013
▁बिग	-2014
▁रिज	-2015
▁रिल	-2016
▁सभा	-2017
तृत्व	-2018
भावना	-2019
श्चित	-2020
ष्ट्र	-2021
ेलिया	-2022
▁2019	-2023
▁अगले	-2024
▁अपील	-2025
▁चुना	-2026
▁जमीन	-2027
▁तमाम	-2028
▁दलों	-2029
▁देवी	-2030
▁निजी	-2031
▁पड़ा	-2032
▁पड़े	-2033
▁पसंद	-2034
▁पालन	-2035
▁प्रव	-2036
▁मेरी	-2037
▁सर्व	-2038
▁आतंकी	-2039
▁करेगी	-2040
▁घोषित	-2041
▁चिकित	-2042
▁जनवरी	-2043
▁जिलों	-2044
▁जिसका	-2045
▁बनाकर	-2046
▁मजदूर	-2047
▁मास्क	-2048
▁लड़की	-2049
▁संगठन	-2050
▁सहयोग	-2051
▁साबित	-2052
▁नागरिक	-2053
▁निर्णय	-2054
▁नुकसान	-2055
▁युवाओं	-2056
▁वर्षीय	-2057
▁वृद्धि	-2058
▁शिक्षक	-2059
▁शुरुआत	-2060
▁श्रद्ध	-2061
▁सीबीआई	-2062
▁अग्रवाल	-2063
▁छात्रों	-2064
▁द्वितीय	-2065
▁नेतृत्व	-2066
▁परिजनों	-2067
▁प्रतिशत	-2068
▁संभावना	-2069
▁प्रस्ताव	-2070
▁ग्रामीणों	-2071
di	-2072
सत	-2073
िफ	-2074
ीप	-2075
ूड	-2076
-19	-2077
कडा	-2078
केश	-2079
ताह	-2080
लोड	-2081
वें	-2082
हान	-2083
िमा	-2084
िसर	-2085
ौती	-2086
▁31	-2087
▁आख	-2088
▁डर	-2089
▁फॉ	-2090
▁हॉ	-2091
दाता	-2092
बाइल	-2093
विंद	-2094
स्ते	-2095
▁इंत	-2096
▁इंद	-2097
▁उसी	-2098
▁एंड	-2099
▁किस	-2100
▁गृह	-2101
▁चली	-2102
▁तरी	-2103
▁तला	-2104
▁दोप	-2105
▁मंज	-2106
▁मना	-2107
▁संस	-2108
▁हार	-2109
कडाउन	-2110
▁दुष्	-2111
▁पकड़	-2112
▁पश्च	-2113
▁भीड़	-2114
▁मिनट	-2115
▁लगता	-2116
▁लड़ा	-2117
▁सार्	-2118
▁हमें	-2119
▁अगस्त	-2120
▁आवेदन	-2121
▁आसानी	-2122
▁करेगा	-2123
▁गाड़ी	-2124
▁जम्मू	-2125
▁दस्ता	-2126
▁देखकर	-2127
▁पर्या	-2128
▁बिजली	-2129
▁विद्य	-2130
▁सुधार	-2131
त्रियों	-2132
▁ऑनलाइन	-2133
▁तैयारी	-2134
▁दक्षिण	-2135
▁परेशान	-2136
▁पहुंची	-2137
▁मिश्रा	-2138
▁मोबाइल	-2139
▁विकसित	-2140
▁संयुक्त	-2141
▁किलोमीटर	-2142
स्ट्रेलिया	-2143
▁उत्तराखंड	-2144
an	-2145
om	-2146
तम	-2147
मि	-2148
िग	-2149
ॉक	-2150
▁N	-2151
▁|	-2152
har	-2153
करी	-2154
चित	-2155
ट्स	-2156
पास	-2157
रात	-2158
लाल	-2159
लेट	-2160
हित	-2161
▁26	-2162
▁आश	-2163
▁एश	-2164
▁कौ	-2165
▁ती	-2166
▁मई	-2167
▁लो	-2168
▁वी	-2169
ंदगी	-2170
क्सर	-2171
चानक	-2172
द्दी	-2173
प्री	-2174
र्तन	-2175
सेना	-2176
स्ती	-2177
ार्ज	-2178
िएशन	-2179
िक्ष	-2180
▁अभि	-2181
▁आता	-2182
▁काल	-2183
▁कोल	-2184
▁जोर	-2185
▁ज्ञ	-2186
▁देर	-2187
▁पत्	-2188
▁फ्र	-2189
▁भवि	-2190
▁मगर	-2191
▁रंग	-2192
▁रखे	-2193
▁विष	-2194
धिकार	-2195
ूर्ति	-2196
▁अमित	-2197
▁अशोक	-2198
▁कंपन	-2199
▁कड़ी	-2200
▁चेयर	-2201
▁छोटे	-2202
▁जन्म	-2203
▁जाकर	-2204
▁दावा	-2205
▁पैदा	-2206
▁प्रण	-2207
▁भेजा	-2208
▁राहत	-2209
ध्यक्ष	-2210
▁अचानक	-2211
▁खाद्य	-2212
▁दोपहर	-2213
▁दोस्त	-2214
▁निकाय	-2215
▁न्याय	-2216
▁बंगाल	-2217
▁बोर्ड	-2218
▁भोपाल	-2219
▁मानना	-2220
▁सैनिक	-2221
▁जवानों	-2222
▁भविष्य	-2223
▁पेट्रोल	-2224
▁मलेरिया	-2225
▁रिकॉर्ड	-2226
▁बल्लेबाज	-2227
ti	-2228
उट	-2229
तक	-2230
दय	-2231
पे	-2232
ोश	-2233
▁I	-2234
▁V	-2235
ंडा	-2236
ंता	-2237
असल	-2238
कुल	-2239
क्‍	-2240
टने	-2241
तरी	-2242
नीय	-2243
रान	-2244
र्ग	-2245
र्न	-2246
ामा	-2247
ेल्	-2248
्यु	-2249
▁अद	-2250
▁अल	-2251
▁गण	-2252
▁ची	-2253
▁जम	-2254
▁पट	-2255
▁सै	-2256
▁हथ	-2257
देशक	-2258
न्ना	-2259
वधान	-2260
ष्टि	-2261
्यता	-2262
्राम	-2263
▁आजा	-2264
▁ओवर	-2265
▁कमल	-2266
▁कला	-2267
▁कही	-2268
▁चीज	-2269
▁दीप	-2270
▁बनी	-2271
▁मनी	-2272
▁शरी	-2273
▁शही	-2274
▁शान	-2275
▁शेर	-2276
▁सपा	-2277
▁सुख	-2278
कर्मी	-2279
जिटिव	-2280
लीवुड	-2281
ेश्वर	-2282
▁आदमी	-2283
▁एसपी	-2284
▁खतरा	-2285
▁खुला	-2286
▁टीवी	-2287
▁ट्रक	-2288
▁दबाव	-2289
▁दिवस	-2290
▁देता	-2291
▁नियु	-2292
▁पर्य	-2293
▁मुला	-2294
▁मेरा	-2295
▁रखने	-2296
▁लगाई	-2297
▁विरा	-2298
▁सत्र	-2299
▁उपचार	-2300
▁फैसले	-2301
▁बदलाव	-2302
▁भगवान	-2303
▁मार्ग	-2304
▁युद्ध	-2305
▁विकेट	-2306
▁विमान	-2307
▁शिविर	-2308
▁सार्व	-2309
▁सेंटर	-2310
चारियों	-2311
ष्ट्रीय	-2312
▁गठबंधन	-2313
▁सप्ताह	-2314
ानिस्तान	-2315
▁उत्पादन	-2316
▁चेयरमैन	-2317
▁पत्रकार	-2318
▁प्रतिनि	-2319
▁राजनीति	-2320
▁लॉकडाउन	-2321
▁सामान्य	-2322
▁सूत्रों	-2323
▁आरोपियों	-2324
▁सुरक्षित	-2325
▁ऑस्ट्रेलिया	-2326
ंभ	-2327
कद	-2328
कन	-2329
क़	-2330
टल	-2331
डल	-2332
वै	-2333
सु	-2334
ंडी	-2335
जरी	-2336
बाल	-2337
वरण	-2338
शील	-2339
ालत	-2340
िपा	-2341
्रह	-2342
्‍य	-2343
▁एप	-2344
▁टा	-2345
▁टै	-2346
▁दम	-2347
▁नै	-2348
▁नो	-2349
▁बल	-2350
▁लं	-2351
एंगे	-2352
क्कर	-2353
म्मद	-2354
वजूद	-2355
श्वर	-2356
स्तु	-2357
ापित	-2358
ेंडर	-2359
▁अंग	-2360
▁अफग	-2361
▁उद्	-2362
▁कब्	-2363
▁गलत	-2364
▁चले	-2365
▁बच्	-2366
▁बिल	-2367
▁भरो	-2368
▁वीर	-2369
▁सजा	-2370
▁सम्	-2371
▁सोन	-2372
▁अक्ट	-2373
▁आसान	-2374
▁उच्च	-2375
▁उनको	-2376
▁उसको	-2377
▁एंटी	-2378
▁खराब	-2379
▁गरीब	-2380
▁घरेल	-2381
▁चालक	-2382
▁ट्रै	-2383
▁दिशा	-2384
▁देना	-2385
▁पाने	-2386
▁बनने	-2387
▁बाकी	-2388
▁माता	-2389
▁रखें	-2390
▁रहती	-2391
▁लगाए	-2392
▁सुना	-2393
▁स्थल	-2394
▁अदालत	-2395
▁चौहान	-2396
▁दरअसल	-2397
▁मतदान	-2398
▁सर्वे	-2399
▁सहायक	-2400
▁हमारी	-2401
फ्टवेयर	-2402
▁अंतररा	-2403
▁उद्योग	-2404
▁छात्रा	-2405
▁बावजूद	-2406
▁बीमारी	-2407
▁मात्रा	-2408
▁सितंबर	-2409
▁सुनवाई	-2410
▁अक्टूबर	-2411
▁टीकाकरण	-2412
▁पॉजिटिव	-2413
▁प्रदूषण	-2414
▁मोहम्मद	-2415
▁विश्वास	-2416
▁संबंधित	-2417
▁सार्वजन	-2418
धिकारियों	-2419
▁आवश्यकता	-2420
▁दस्तावेज	-2421
▁यात्रियों	-2422
▁विद्यार्थ	-2423
▁कार्यकर्ता	-2424
▁महाराष्ट्र	-2425
▁अंतरराष्ट्रीय	-2426
50	-2427
ad	-2428
ak	-2429
or	-2430
ंघ	-2431
अप	-2432
जग	-2433
डर	-2434
दु	-2435
नु	-2436
लर	-2437
▁>	-2438
▁D	-2439
उंट	-2440
कीय	-2441
कुर	-2442
तलब	-2443
ताछ	-2444
त्म	-2445
थित	-2446
नाक	-2447
फोन	-2448
माश	-2449
मित	-2450
राह	-2451
लेख	-2452
व्य	-2453
ूला	-2454
▁1.	-2455
▁29	-2456
▁थो	-2457
▁मॉ	-2458
एसपी	-2459
चारी	-2460
जर्स	-2461
जेता	-2462
डियो	-2463
ध्यम	-2464
वाना	-2465
विता	-2466
ाजिक	-2467
ुरुष	-2468
▁अधी	-2469
▁इजा	-2470
▁कित	-2471
▁किश	-2472
▁कोह	-2473
▁चढ़	-2474
▁चरण	-2475
▁जाय	-2476
▁पाठ	-2477
▁प्य	-2478
▁फिट	-2479
▁बाग	-2480
▁बिक	-2481
▁भले	-2482
▁यून	-2483
▁लें	-2484
▁वही	-2485
▁विन	-2486
▁शुभ	-2487
▁हॉल	-2488
ग्राम	-2489
श्वास	-2490
ेंट्स	-2491
▁अफसर	-2492
▁अवधि	-2493
▁आपकी	-2494
▁आवास	-2495
▁उससे	-2496
▁एसोस	-2497
▁कप्त	-2498
▁कैसे	-2499
▁डाउन	-2500
▁फायर	-2501
▁बनाई	-2502
▁बीते	-2503
▁बेटे	-2504
▁भोजन	-2505
▁मंडल	-2506
▁मंडी	-2507
▁मारे	-2508
▁यहाँ	-2509
▁यानी	-2510
▁राजी	-2511
▁रावत	-2512
▁लाने	-2513
▁वैसे	-2514
▁शरीर	-2515
▁शासन	-2516
▁सारा	-2517
▁सुपर	-2518
▁अच्छे	-2519
▁अपराध	-2520
▁इनमें	-2521
▁एक्सप	-2522
▁जयपुर	-2523
▁ट्रंप	-2524
▁देंगे	-2525
▁पत्नी	-2526
▁परिसर	-2527
▁पुरुष	-2528
▁भरोसा	-2529
▁मजबूत	-2530
▁मिलकर	-2531
▁लड़ने	-2532
▁सफलता	-2533
▁इलाकों	-2534
▁गौरतलब	-2535
▁जागरूक	-2536
▁पीड़ित	-2537
▁पूछताछ	-2538
▁प्रत्य	-2539
▁माध्यम	-2540
▁रास्ते	-2541
▁शानदार	-2542
▁अधीक्षक	-2543
▁चिकित्स	-2544
▁निर्धार	-2545
▁लक्ष्मी	-2546
▁व्यापार	-2547
▁सदस्यों	-2548
▁आतंकियों	-2549
▁एसोसिएशन	-2550
▁गेंदबाजी	-2551
▁क्षेत्रों	-2552
▁बल्लेबाजी	-2553
▁सार्वजनिक	-2554
▁कर्मचारियों	-2555
25	-2556
th	-2557
आइ	-2558
खी	-2559
थि	-2560
ैर	-2561
ॉप	-2562
▁›	-2563
-20	-2564
ंतर	-2565
ंसा	-2566
टिव	-2567
टेड	-2568
तौर	-2569
नान	-2570
नीक	-2571
राम	-2572
लाम	-2573
षित	-2574
साद	-2575
ापन	-2576
ामद	-2577
▁33	-2578
▁घट	-2579
▁चर	-2580
▁जू	-2581
▁तह	-2582
▁मर	-2583
▁रज	-2584
ंदोल	-2585
टीएम	-2586
तिहा	-2587
पुरा	-2588
फेसर	-2589
वंबर	-2590
वाला	-2591
सबुक	-2592
स्से	-2593
ानों	-2594
ेक्ट	-2595
्‍या	-2596
▁आउट	-2597
▁इन्	-2598
▁कैब	-2599
▁गीत	-2600
▁चोट	-2601
▁जता	-2602
▁नही	-2603
▁प्ल	-2604
▁फाय	-2605
▁फैल	-2606
▁बहु	-2607
▁लौट	-2608
▁सिर	-2609
▁होम	-2610
पूर्व	-2611
स्त्र	-2612
▁अभिन	-2613
▁आईपी	-2614
▁उपाय	-2615
▁कथित	-2616
▁कैंप	-2617
▁जरूर	-2618
▁थाने	-2619
▁दूरी	-2620
▁धारा	-2621
▁निरी	-2622
▁प्रि	-2623
▁फाइन	-2624
▁बनवा	-2625
▁बाबा	-2626
▁बिल्	-2627
▁मुकद	-2628
▁रिश्	-2629
▁रैली	-2630
▁लागू	-2631
▁लिये	-2632
▁लेते	-2633
▁लेना	-2634
▁वार्	-2635
▁शहीद	-2636
▁संजय	-2637
▁हवाई	-2638
▁आंखों	-2639
▁आंदोल	-2640
▁गतिवि	-2641
▁घरेलू	-2642
▁चार्ज	-2643
▁तरीके	-2644
▁तैनात	-2645
▁दिखाई	-2646
▁दूसरा	-2647
▁नवंबर	-2648
▁नौकरी	-2649
▁प्रोट	-2650
▁फर्जी	-2651
▁बताते	-2652
▁बदमाश	-2653
▁राजीव	-2654
▁लड़ाई	-2655
▁शक्ति	-2656
▁सामना	-2657
▁सीटों	-2658
▁स्टूड	-2659
▁हालात	-2660
ज्ञानिक	-2661
▁आंकड़े	-2662
▁क्षमता	-2663
▁गिरावट	-2664
▁निर्मा	-2665
▁निर्वा	-2666
▁पुरानी	-2667
▁फिलहाल	-2668
▁मुद्दे	-2669
▁रोजगार	-2670
▁सड़कों	-2671
▁स्टेशन	-2672
▁उपस्थित	-2673
▁केन्द्र	-2674
▁बॉलीवुड	-2675
▁समीक्षा	-2676
▁सामाजिक	-2677
▁कंपनियों	-2678
▁कर्मचारी	-2679
▁डॉक्टरों	-2680
▁प्रोफेसर	-2681
▁राज्यपाल	-2682
▁अभिनेत्री	-2683
▁अस्पतालों	-2684
▁खिलाड़ियों	-2685
▁महत्वपूर्ण	-2686
▁अफगानिस्तान	-2687
),	-2688
ew	-2689
is	-2690
ol	-2691
ra	-2692
ंथ	-2693
इस	-2694
उस	-2695
ण्	-2696
दर	-2697
ूस	-2698
▁S	-2699
ंकर	-2700
ंडल	-2701
ंबे	-2702
जाम	-2703
ज्ज	-2704
णाम	-2705
त्स	-2706
दीप	-2707
फान	-2708
बोध	-2709
र्य	-2710
लाइ	-2711
लिम	-2712
वीन	-2713
शिप	-2714
साथ	-2715
सूस	-2716
ियल	-2717
▁21	-2718
▁36	-2719
▁गू	-2720
▁धी	-2721
▁नज	-2722
▁नम	-2723
▁लै	-2724
टिंग	-2725
ल्ली	-2726
वानी	-2727
ित्य	-2728
ियोग	-2729
्रीन	-2730
▁199	-2731
▁अका	-2732
▁अनि	-2733
▁आती	-2734
▁ऊंच	-2735
▁ओपन	-2736
▁कले	-2737
▁गये	-2738
▁जित	-2739
▁टाइ	-2740
▁तत्	-2741
▁निर	-2742
▁पां	-2743
▁बहन	-2744
▁लूट	-2745
▁लेख	-2746
▁शाय	-2747
▁सब्	-2748
▁साध	-2749
▁सैं	-2750
▁हड़	-2751
तियों	-2752
र्थिक	-2753
▁अखिल	-2754
▁अर्थ	-2755
▁उड़ा	-2756
▁खाने	-2757
▁गाइड	-2758
▁गोली	-2759
▁ग्रे	-2760
▁छोटी	-2761
▁जाएं	-2762
▁जाये	-2763
▁निभा	-2764
▁निरा	-2765
▁पौधे	-2766
▁प्ला	-2767
▁फरार	-2768
▁बोले	-2769
▁विषय	-2770
▁शुक्	-2771
▁सारे	-2772
▁सिने	-2773
▁सीधे	-2774
▁हिंद	-2775
प्रकाश	-2776
▁कोहली	-2777
▁चंद्र	-2778
▁चलाने	-2779
▁जागरण	-2780
▁ट्रेन	-2781
▁ठाकुर	-2782
▁नोटिस	-2783
▁बीमार	-2784
▁मार्च	-2785
▁मिश्र	-2786
▁मूल्य	-2787
▁लाखों	-2788
▁वायरल	-2789
▁विराट	-2790
▁संचाल	-2791
▁सत्ता	-2792
▁सीरीज	-2793
▁अधिकार	-2794
▁इन्हें	-2795
▁जानकार	-2796
▁जिनमें	-2797
▁ट्रांस	-2798
▁परिवहन	-2799
▁पश्चिम	-2800
▁फेसबुक	-2801
▁मंजूरी	-2802
▁यूजर्स	-2803
▁व्यक्त	-2804
▁संपर्क	-2805
▁समुदाय	-2806
▁सुप्री	-2807
▁अमेरिकी	-2808
▁मजदूरों	-2809
▁व्यवसाय	-2810
▁सामग्री	-2811
▁प्रत्येक	-2812
▁प्रशिक्ष	-2813
▁मुख्यालय	-2814
▁विशेषज्ञ	-2815
ic	-2816
id	-2817
कॉ	-2818
चु	-2819
पि	-2820
यल	-2821
िप	-2822
ेस	-2823
ैध	-2824
ॉन	-2825
▁p	-2826
अलग	-2827
कील	-2828
कृत	-2829
चने	-2830
तीश	-2831
तों	-2832
दर्	-2833
निक	-2834
ब्ल	-2835
र्प	-2836
वेद	-2837
सील	-2838
हरण	-2839
हरे	-2840
िरी	-2841
्ता	-2842
▁22	-2843
▁35	-2844
▁40	-2845
▁70	-2846
▁90	-2847
▁अक	-2848
▁घु	-2849
▁छु	-2850
▁पत	-2851
▁पल	-2852
▁बट	-2853
▁वॉ	-2854
▁सल	-2855
क्का	-2856
डिया	-2857
त्ती	-2858
न्‍ह	-2859
र्जा	-2860
र्मी	-2861
वाही	-2862
स्कर	-2863
हारी	-2864
ार्ट	-2865
ियार	-2866
्रमण	-2867
▁अंक	-2868
▁अब्	-2869
▁अमर	-2870
▁उदय	-2871
▁करण	-2872
▁काउ	-2873
▁किन	-2874
▁कोच	-2875
▁खार	-2876
▁खुल	-2877
▁गाय	-2878
▁गुज	-2879
▁गुप	-2880
▁गोल	-2881
▁जला	-2882
▁जाम	-2883
▁जैन	-2884
▁झार	-2885
▁नदी	-2886
▁नया	-2887
▁नशे	-2888
▁फुट	-2889
▁भ्र	-2890
▁माइ	-2891
▁वार	-2892
▁विल	-2893
▁संय	-2894
▁स्‍	-2895
तायात	-2896
दारों	-2897
वल्ली	-2898
▁2018	-2899
▁अनिल	-2900
▁अवैध	-2901
▁आएगी	-2902
▁आकर्	-2903
▁इच्छ	-2904
▁उल्ल	-2905
▁केरल	-2906
▁खड़े	-2907
▁गर्म	-2908
▁गैंग	-2909
▁जोड़	-2910
▁ट्वी	-2911
▁डीएम	-2912
▁तारी	-2913
▁देगा	-2914
▁नारा	-2915
▁परिच	-2916
▁पारी	-2917
▁बचाव	-2918
▁बढ़ो	-2919
▁बताई	-2920
▁बादल	-2921
▁मुस्	-2922
▁मोटर	-2923
▁रक्त	-2924
▁राजा	-2925
▁लंबे	-2926
▁लॉन्	-2927
▁वनडे	-2928
▁वर्ग	-2929
▁संसद	-2930
▁समीप	-2931
▁सूची	-2932
साइकिल	-2933
ोग्राम	-2934
▁आगामी	-2935
▁आग्रह	-2936
▁इंस्प	-2937
▁एटीएम	-2938
▁एशिया	-2939
▁कृष्ण	-2940
▁चिंता	-2941
▁जिसकी	-2942
▁तहसील	-2943
▁तीसरे	-2944
▁प्रभा	-2945
▁फरवरी	-2946
▁बरामद	-2947
▁बातें	-2948
▁महसूस	-2949
▁मालिक	-2950
▁मुक्त	-2951
▁संदेश	-2952
▁सरदार	-2953
▁सहमति	-2954
▁सिद्ध	-2955
▁स्टेट	-2956
▁अकाउंट	-2957
▁अप्रैल	-2958
▁आंदोलन	-2959
▁आर्थिक	-2960
▁इंतजार	-2961
▁जिंदगी	-2962
▁झारखंड	-2963
▁प्रसाद	-2964
▁भ्रष्ट	-2965
▁महीनों	-2966
▁मिलेगी	-2967
▁लक्ष्य	-2968
▁वर्षों	-2969
▁वार्ता	-2970
▁सिनेमा	-2971
▁स्वागत	-2972
▁डाउनलोड	-2973
▁पीड़िता	-2974
▁महिलाएं	-2975
▁यातायात	-2976
▁सैनिकों	-2977
▁स्कूलों	-2978
▁स्थापित	-2979
▁दुष्कर्म	-2980
▁निर्वाचन	-2981
▁प्रवक्ता	-2982
▁शिक्षकों	-2983
▁एक्सप्रेस	-2984
▁निर्धारित	-2985
▁वैज्ञानिक	-2986
▁सोफ्टवेयर	-2987
▁जिम्मेदारी	-2988
19	-2989
70	-2990
80	-2991
ंव	-2992
ठा	-2993
दो	-2994
सो	-2995
हण	-2996
ोप	-2997
।’	-2998
ome	-2999
ंती	-3000
ख्स	-3001
ग्ग	-3002
ढ़ी	-3003
त्य	-3004
नाइ	-3005
नाम	-3006
पान	-3007
पीट	-3008
प्त	-3009
फ्र	-3010
मेश	-3011
र्द	-3012
वर्	-3013
वली	-3014
वाज	-3015
शोध	-3016
श्न	-3017
ुली	-3018
ेलन	-3019
ैंस	-3020
‍ली	-3021
▁ठे	-3022
▁धम	-3023
▁पथ	-3024
▁पृ	-3025
▁फल	-3026
▁फो	-3027
▁मच	-3028
▁मध	-3029
▁रॉ	-3030
▁लू	-3031
▁शौ	-3032
▁‘‘	-3033
....	-3034
काता	-3035
घटना	-3036
तमान	-3037
तवाल	-3038
भाषा	-3039
मानत	-3040
राने	-3041
र्गत	-3042
लपुर	-3043
वारी	-3044
सीआर	-3045
स्तव	-3046
स्‍ट	-3047
हारा	-3048
ारोह	-3049
िक्स	-3050
ितों	-3051
िनेट	-3052
ुल्क	-3053
ेंसी	-3054
्याम	-3055
▁इका	-3056
▁उतर	-3057
▁खतर	-3058
▁खुश	-3059
▁खोल	-3060
▁गुम	-3061
▁घाट	-3062
▁चरम	-3063
▁छाप	-3064
▁छूट	-3065
▁जोन	-3066
▁तुर	-3067
▁दूध	-3068
▁देव	-3069
▁दोष	-3070
▁नाग	-3071
▁निश	-3072
▁पुन	-3073
▁भवन	-3074
▁मनो	-3075
▁मेह	-3076
▁रूस	-3077
▁शास	-3078
▁शूट	-3079
ंग्ला	-3080
कोर्ट	-3081
तावनी	-3082
हाबाद	-3083
िपाठी	-3084
▁2017	-3085
▁Home	-3086
▁अनुप	-3087
▁आक्र	-3088
▁आखिर	-3089
▁इतने	-3090
▁इनके	-3091
▁उतार	-3092
▁कारो	-3093
▁क्रम	-3094
▁खड़ा	-3095
▁खाते	-3096
▁खेले	-3097
▁गठित	-3098
▁जब्त	-3099
▁जमकर	-3100
▁जरिए	-3101
▁डॉलर	-3102
▁तहरी	-3103
▁दर्श	-3104
▁धोनी	-3105
▁नजदी	-3106
▁नीचे	-3107
▁नीति	-3108
▁पटना	-3109
▁पटेल	-3110
▁बुला	-3111
▁मुंह	-3112
▁रखना	-3113
▁रचना	-3114
▁लगने	-3115
▁शख्स	-3116
▁सकें	-3117
▁सवार	-3118
▁साझा	-3119
स्ट्री	-3120
स्तानी	-3121
ेन्द्र	-3122
▁अफ्री	-3123
▁आसपास	-3124
▁चेहरे	-3125
▁जल्दी	-3126
▁टीमों	-3127
▁ट्वीट	-3128
▁दाखिल	-3129
▁दैनिक	-3130
▁नाराज	-3131
▁प्रेम	-3132
▁बढ़ने	-3133
▁माहौल	-3134
▁राकेश	-3135
▁रिलीज	-3136
▁रोकने	-3137
▁लगाते	-3138
▁सालों	-3139
▁सैंपल	-3140
द्योगिक	-3141
▁उल्लेख	-3142
▁कोतवाल	-3143
▁खुलासा	-3144
▁चुनौती	-3145
▁नियमों	-3146
▁परिणाम	-3147
▁रफ्तार	-3148
▁शुक्ला	-3149
▁सकेंगे	-3150
▁समारोह	-3151
▁स्वर्ण	-3152
▁इंटरनेट	-3153
▁कलेक्टर	-3154
▁कोलकाता	-3155
▁चेतावनी	-3156
▁जिन्हें	-3157
▁दिल्‍ली	-3158
▁नियंत्र	-3159
▁परेशानी	-3160
▁प्रतिभा	-3161
▁प्रत्या	-3162
▁बांग्ला	-3163
▁मुखर्जी	-3164
▁मुस्लिम	-3165
▁वर्तमान	-3166
▁स्वीकार	-3167
▁तस्वीरें	-3168
▁त्रिपाठी	-3169
▁दुर्घटना	-3170
▁परिवर्तन	-3171
▁पर्यावरण	-3172
▁पहुंचाने	-3173
▁पुरस्कार	-3174
▁प्रतियोग	-3175
▁समस्याओं	-3176
▁आनंदवल्ली	-3177
▁प्रतिनिधि	-3178
▁प्रशिक्षण	-3179
▁संवाददाता	-3180
▁गतिविधियों	-3181
▁मोटरसाइकिल	-3182
▁उम्मीदवारों	-3183
▁कार्यकर्ताओं	-3184
-3	-3185
.3	-3186
st	-3187
अल	-3188
कम	-3189
कृ	-3190
खर	-3191
खे	-3192
गु	-3193
तु	-3194
थे	-3195
नन	-3196
पद	-3197
बो	-3198
रु	-3199
शु	-3200
हे	-3201
िब	-3202
ूत	-3203
ॉस	-3204
▁/	-3205
▁T	-3206
ews	-3207
ंघन	-3208
ंटर	-3209
ईडी	-3210
करे	-3211
कात	-3212
ख्त	-3213
टाई	-3214
दुल	-3215
मिट	-3216
म्‍	-3217
वती	-3218
वां	-3219
वाइ	-3220
शनी	-3221
सेज	-3222
हिर	-3223
ाइज	-3224
िके	-3225
िली	-3226
ेलर	-3227
ैया	-3228
ोने	-3229
▁1,	-3230
▁28	-3231
▁60	-3232
▁Bh	-3233
▁ति	-3234
▁तृ	-3235
▁दश	-3236
▁धर	-3237
▁धु	-3238
▁बम	-3239
▁बू	-3240
▁मू	-3241
▁री	-3242
▁व्	-3243
▁शै	-3244
▁हल	-3245
कृति	-3246
जीपी	-3247
डिंग	-3248
डियम	-3249
धपुर	-3250
न्नई	-3251
बंदी	-3252
रोधी	-3253
र्जन	-3254
वाले	-3255
शाला	-3256
हतरी	-3257
▁आयी	-3258
▁आलम	-3259
▁आशी	-3260
▁इंग	-3261
▁उधर	-3262
▁कने	-3263
▁कमा	-3264
▁खंड	-3265
▁खेत	-3266
▁नरे	-3267
▁नाक	-3268
▁पदक	-3269
▁परी	-3270
▁पहन	-3271
▁पाई	-3272
▁पाल	-3273
▁पैर	-3274
▁बाब	-3275
▁बुक	-3276
▁मिस	-3277
▁मुह	-3278
▁लोन	-3279
▁वेब	-3280
▁सदन	-3281
▁समा	-3282
▁सां	-3283
▁सिक	-3284
▁सोच	-3285
▁हल्	-3286
क्ट्र	-3287
तंत्र	-3288
तिहास	-3289
दाबाद	-3290
बोधित	-3291
िक्कत	-3292
िमंडल	-3293
ेक्टर	-3294
▁अक्ष	-3295
▁अध्य	-3296
▁अहमद	-3297
▁ईरान	-3298
▁उर्फ	-3299
▁कानू	-3300
▁कॉन्	-3301
▁खतरे	-3302
▁खाना	-3303
▁खुले	-3304
▁गूगल	-3305
▁गोवा	-3306
▁जंगल	-3307
▁जैसी	-3308
▁जोशी	-3309
▁टाटा	-3310
▁डाला	-3311
▁तनाव	-3312
▁तुम्	-3313
▁देती	-3314
▁धमकी	-3315
▁बच्‍	-3316
▁बदले	-3317
▁बरसा	-3318
▁भुगत	-3319
▁मनीष	-3320
▁मानव	-3321
▁मैने	-3322
▁योगी	-3323
▁रखते	-3324
▁रमेश	-3325
▁रहना	-3326
▁रहें	-3327
▁लाइन	-3328
▁लीटर	-3329
▁विधि	-3330
▁शायद	-3331
▁श्रे	-3332
▁संभव	-3333
▁सिया	-3334
▁सुनी	-3335
▁सौंप	-3336
▁स्को	-3337
▁अकाली	-3338
▁अक्सर	-3339
▁आर्मी	-3340
▁उनमें	-3341
▁उसमें	-3342
▁कालेज	-3343
▁केन्द	-3344
▁गोपाल	-3345
▁चलाया	-3346
▁चित्र	-3347
▁जयंती	-3348
▁जानते	-3349
▁जानिए	-3350
▁जिसने	-3351
▁जिसमे	-3352
▁जुड़ा	-3353
▁जुड़ी	-3354
▁टक्कर	-3355
▁तकनीक	-3356
▁तीनों	-3357
▁पढ़ाई	-3358
▁पांडे	-3359
▁पात्र	-3360
▁प्यार	-3361
▁प्रिय	-3362
▁प्रेर	-3363
▁बचाने	-3364
▁बनाना	-3365
▁लगाकर	-3366
▁लॉन्च	-3367
▁विधाय	-3368
▁शुल्क	-3369
▁स्नान	-3370
▁अनिवार	-3371
▁आईपीएल	-3372
▁इतिहास	-3373
▁एजेंसी	-3374
▁कप्तान	-3375
▁कानपुर	-3376
▁कोरिया	-3377
▁गुजरात	-3378
▁चुनावी	-3379
▁जोधपुर	-3380
▁दिक्कत	-3381
▁निकलने	-3382
▁प्रचार	-3383
▁प्रतिक	-3384
▁बेहतरी	-3385
▁मुकदमा	-3386
▁मुक्ति	-3387
▁रहेंगे	-3388
▁राजस्व	-3389
▁विजेता	-3390
▁संस्था	-3391
कर्मियों	-3392
▁उल्लंघन	-3393
▁कैबिनेट	-3394
▁निर्यात	-3395
▁फिल्मों	-3396
▁सम्मेलन	-3397
▁ओमप्रकाश	-3398
▁ट्रैक्टर	-3399
▁पंचायतों	-3400
▁परिवारों	-3401
▁प्रावधान	-3402
▁विद्यालय	-3403
▁स्टेडियम	-3404
▁हाईकोर्ट	-3405
▁अध्यक्षता	-3406
▁केन्द्रीय	-3407
▁पदाधिकारी	-3408
▁इंस्पेक्टर	-3409
▁स्टूडेंट्स	-3410
▁स्मार्टफोन	-3411
▁पदाधिकारियों	-3412
45	-3413
ab	-3414
el	-3415
गठ	-3416
पट	-3417
फो	-3418
यम	-3419
रत	-3420
ाद	-3421
्न	-3422
▁L	-3423
▁b	-3424
ंजन	-3425
ंडर	-3426
ंदन	-3427
केत	-3428
झाव	-3429
टाफ	-3430
ड्ड	-3431
ढ़े	-3432
दरा	-3433
देन	-3434
धरी	-3435
नेस	-3436
पूत	-3437
प्प	-3438
बीर	-3439
राइ	-3440
रीय	-3441
लोत	-3442
हनत	-3443
ाइट	-3444
ाले	-3445
िनी	-3446
्मक	-3447
्मण	-3448
▁Re	-3449
▁उत	-3450
▁एफ	-3451
▁ओप	-3452
▁क़	-3453
▁कू	-3454
▁टू	-3455
▁दृ	-3456
▁भि	-3457
▁सृ	-3458
▁सॉ	-3459
ंदूर	-3460
आरसी	-3461
न्या	-3462
न्यू	-3463
पत्र	-3464
पन्न	-3465
पुरम	-3466
बादी	-3467
माचल	-3468
लेटफ	-3469
लैंड	-3470
वाड़	-3471
विटर	-3472
शासन	-3473
सिंह	-3474
ायलट	-3475
िक्र	-3476
ित्व	-3477
िस्ट	-3478
▁198	-3479
▁अजय	-3480
▁आईं	-3481
▁इरा	-3482
▁एसी	-3483
▁कौन	-3484
▁खां	-3485
▁गुर	-3486
▁गेम	-3487
▁गैस	-3488
▁जहा	-3489
▁तिल	-3490
▁धान	-3491
▁नयी	-3492
▁पप्	-3493
▁बैग	-3494
▁भरी	-3495
▁मरा	-3496
▁मोट	-3497
▁रवी	-3498
▁वाय	-3499
▁शोध	-3500
▁सुल	-3501
▁सैन	-3502
▁सौर	-3503
▁हंग	-3504
▁हेम	-3505
कर्ता	-3506
जुर्ग	-3507
दियों	-3508
द्दीन	-3509
मार्ग	-3510
रात्र	-3511
िकेटर	-3512
िकेशन	-3513
िनियम	-3514
▁News	-3515
▁अतिक	-3516
▁अनुर	-3517
▁आगरा	-3518
▁एसडी	-3519
▁कर्ज	-3520
▁किये	-3521
▁कैप्	-3522
▁खुशी	-3523
▁गणेश	-3524
▁चलता	-3525
▁चीनी	-3526
▁चौकी	-3527
▁छोटा	-3528
▁ट्रॉ	-3529
▁दर्द	-3530
▁दायर	-3531
▁दावे	-3532
▁देखी	-3533
▁दौरे	-3534
▁नकली	-3535
▁नेहा	-3536
▁पढ़े	-3537
▁पदों	-3538
▁पूजन	-3539
▁पेंट	-3540
▁बेटा	-3541
▁भक्त	-3542
▁भाषा	-3543
▁मकान	-3544
▁मनोज	-3545
▁लंबी	-3546
▁लाइफ	-3547
▁लागत	-3548
▁शहरी	-3549
▁समझा	-3550
▁समान	-3551
▁सिटी	-3552
▁सूरत	-3553
▁सेल्	-3554
▁सेहत	-3555
▁सोने	-3556
▁हाउस	-3557
▁हायर	-3558
▁होटल	-3559
कश्मीर	-3560
क्सीजन	-3561
प्रदेश	-3562
▁इंदौर	-3563
▁इंस्ट	-3564
▁इच्छा	-3565
▁उठाया	-3566
▁उन्‍ह	-3567
▁ऊर्जा	-3568
▁एकत्र	-3569
▁कामका	-3570
▁खारिज	-3571
▁गहलोत	-3572
▁चारों	-3573
▁जमानत	-3574
▁जाहिर	-3575
▁तहरीर	-3576
▁तुरंत	-3577
▁थोड़ा	-3578
▁देखें	-3579
▁धनबाद	-3580
▁नेपाल	-3581
▁परिजन	-3582
▁पायलट	-3583
▁पार्ट	-3584
▁प्रती	-3585
▁फाइनल	-3586
▁फायदा	-3587
▁बढ़ते	-3588
▁महंगा	-3589
▁महानि	-3590
▁मांगी	-3591
▁मानते	-3592
▁मिलता	-3593
▁मिलती	-3594
▁मेहनत	-3595
▁मैचों	-3596
▁वितरण	-3597
▁वित्त	-3598
▁विदेश	-3599
▁विनोद	-3600
▁संशोध	-3601
▁सीटें	-3602
▁सुरेश	-3603
▁स्पेश	-3604
▁हाथों	-3605
कर्ताओं	-3606
धिकारिक	-3607
▁अनुमान	-3608
▁अफसरों	-3609
▁अरविंद	-3610
▁आक्रोश	-3611
▁आदित्य	-3612
▁इस्लाम	-3613
▁कुमारी	-3614
▁गांवों	-3615
▁गुरुद्	-3616
▁गुस्सा	-3617
▁चेन्नई	-3618
▁ज्ञापन	-3619
▁ट्विटर	-3620
▁पहलवान	-3621
▁प्रसार	-3622
▁बैंकों	-3623
▁भुगतान	-3624
▁मानसिक	-3625
▁रास्ता	-3626
▁रिजर्व	-3627
▁रिश्ते	-3628
▁वाहनों	-3629
▁शिवानी	-3630
▁समाप्त	-3631
▁सहायता	-3632
▁सिंदूर	-3633
▁हिस्से	-3634
▁अंतर्गत	-3635
▁अधिनियम	-3636
▁अभिनेता	-3637
▁आतंकवाद	-3638
▁चुनावों	-3639
▁दोस्तों	-3640
▁निश्चित	-3641
▁परीक्षण	-3642
▁पुरुषों	-3643
▁पेंटिंग	-3644
▁बढ़ोतरी	-3645
▁बुजुर्ग	-3646
▁मुलाकात	-3647
▁संगठनों	-3648
▁संचालित	-3649
▁सलाहकार	-3650
▁सुप्रीम	-3651
▁आधिकारिक	-3652
▁इलाहाबाद	-3653
▁एक्ट्रेस	-3654
▁औद्योगिक	-3655
▁क्रिकेटर	-3656
▁ज्यादातर	-3657
▁निरीक्षक	-3658
▁राजमार्ग	-3659
▁श्रद्धाल	-3660
▁प्रोग्राम	-3661
▁पाकिस्तानी	-3662
▁बांग्लादेश	-3663
▁प्रतियोगिता	-3664
)।	-3665
.'	-3666
ac	-3667
गो	-3668
टो	-3669
डि	-3670
दल	-3671
नल	-3672
नो	-3673
बस	-3674
भव	-3675
सच	-3676
ाब	-3677
िड	-3678
ॉट	-3679
▁W	-3680
ide	-3681
ंची	-3682
ंटा	-3683
ंदे	-3684
इंड	-3685
एडा	-3686
कोट	-3687
घ्र	-3688
चों	-3689
जलि	-3690
जित	-3691
टेन	-3692
धीश	-3693
नेश	-3694
पंथ	-3695
पने	-3696
बान	-3697
बूर	-3698
ब्र	-3699
भूम	-3700
मती	-3701
मरी	-3702
राव	-3703
र्त	-3704
र्श	-3705
लाब	-3706
श्‍	-3707
ांश	-3708
ाइम	-3709
ानु	-3710
ारू	-3711
ियत	-3712
िसी	-3713
ेबल	-3714
ैनल	-3715
ोजक	-3716
▁''	-3717
▁27	-3718
▁PM	-3719
▁अय	-3720
▁एच	-3721
▁खी	-3722
▁गि	-3723
▁गौ	-3724
▁झू	-3725
▁भू	-3726
▁मल	-3727
▁मस	-3728
▁यो	-3729
▁सश	-3730
गांव	-3731
जूदा	-3732
डिशा	-3733
त्मा	-3734
थमिक	-3735
पिता	-3736
ब्दी	-3737
र्डर	-3738
र्या	-3739
र्सी	-3740
व्यव	-3741
श्री	-3742
ष्णु	-3743
सचिव	-3744
सेवी	-3745
ानगर	-3746
िलास	-3747
्याण	-3748
्योर	-3749
▁500	-3750
▁आइए	-3751
▁आला	-3752
▁इले	-3753
▁उन्	-3754
▁उपा	-3755
▁ओपी	-3756
▁कथा	-3757
▁कोड	-3758
▁गेट	-3759
▁गोर	-3760
▁घूम	-3761
▁चैं	-3762
▁चोर	-3763
▁चौक	-3764
▁जबर	-3765
▁जाल	-3766
▁जूझ	-3767
▁ढंग	-3768
▁दान	-3769
▁धार	-3770
▁धूम	-3771
▁नशा	-3772
▁पहा	-3773
▁पीठ	-3774
▁पें	-3775
▁फंड	-3776
▁बंध	-3777
▁बर्	-3778
▁बहा	-3779
▁बहू	-3780
▁बाई	-3781
▁बाय	-3782
▁मंच	-3783
▁मचा	-3784
▁रखी	-3785
▁रजि	-3786
▁लीग	-3787
▁लुक	-3788
▁लोह	-3789
▁शब्	-3790
▁सरो	-3791
▁सीन	-3792
▁हरे	-3793
परेशन	-3794
बालिग	-3795
सिद्ध	-3796
हत्या	-3797
ांजलि	-3798
ूर्ना	-3799
्यूटर	-3800
्यूटी	-3801
्रिया	-3802
्लैंड	-3803
▁2011	-3804
▁2016	-3805
▁2021	-3806
▁अंडर	-3807
▁अभिय	-3808
▁अमरी	-3809
▁आएगा	-3810
▁आपका	-3811
▁आरटी	-3812
▁इनकी	-3813
▁ईमान	-3814
▁उठाए	-3815
▁	-3816
ा	-3817
क	-3818
र	-3819
े	-3820
न	-3821
ी	-3822
्	-3823
स	-3824
ि	-3825
ं	-3826
ह	-3827
म	-3828
ल	-3829
त	-3830
ो	-3831
प	-3832
य	-3833
व	-3834
द	-3835
ज	-3836
ब	-3837
ग	-3838
ै	-3839
ु	-3840
ट	-3841
।	-3842
ए	-3843
श	-3844
ड	-3845
च	-3846
अ	-3847
भ	-3848
ू	-3849
आ	-3850
इ	-3851
थ	-3852
,	-3853
ख	-3854
ध	-3855
उ	-3856
फ	-3857
़	-3858
ई	-3859
ष	-3860
.	-3861
औ	-3862
ण	-3863
ौ	-3864
1	-3865
छ	-3866
0	-3867
-	-3868
2	-3869
ॉ	-3870
ओ	-3871
घ	-3872
ठ	-3873
ढ	-3874
3	-3875
5	-3876
ृ	-3877
)	-3878
(	-3879
a	-3880
झ	-3881
‍	-3882
4	-3883
9	-3884
6	-3885
'	-3886
:	-3887
7	-3888
ऐ	-3889
8	-3890
i	-3891
e	-3892
o	-3893
ऑ	-3894
r	-3895
t	-3896
n	-3897
‘	-3898
ऊ	-3899
’	-3900
s	-3901
l	-3902
h	-3903
ञ	-3904
d	-3905
ँ	-3906
P	-3907
"	-3908
?	-3909
B	-3910
c	-3911
A	-3912
C	-3913
M	-3914
R	-3915
m	-3916
p	-3917
I	-3918
/	-3919
D	-3920
S	-3921
N	-3922
H	-3923
–	-3924
k	-3925
y	-3926
w	-3927
|	-3928
b	-3929
g	-3930
E	-3931
ॅ	-3932
T	-3933
u	-3934
F	-3935
v	-3936
!	-3937
G	-3938
“	-3939
V	-3940
ऋ	-3941
O	-3942
f	-3943
U	-3944
W	-3945
L	-3946
j	-3947
ः	-3948
”	-3949
>	-3950
J	-3951
›	-3952
K	-3953
​	-3954
—	-3955
‌	-3956
०	-3957
#	-3958
%	-3959
x	-3960
»	-3961
३	-3962
;	-3963
Q	-3964
_	-3965
	-3966
í	-3967
१	-3968
६	-3969
७	-3970
X	-3971
[	-3972
]	-3973
ऱ	-3974
२	-3975
४	-3976
५	-3977
*	-3978
+	-3979
Y	-3980
z	-3981
̈	-3982
﻿	-3983
&	-3984
@	-3985
£	-3986
©	-3987
ï	-3988
ऌ	-3989
ङ	-3990
ऩ	-3991
८	-3992
९	-3993
➽	-3994
�	-3995
🔊	-3996
