<unk>	0
<s>	0
</s>	0
▁के	-3.59988
।	-3.64095
े	-3.79484
ी	-3.85309
▁में	-3.85626
▁है	-4.02036
▁की	-4.09144
ा	-4.16601
▁को	-4.26645
,	-4.29274
▁से	-4.35723
ों	-4.5141
▁	-4.52151
▁ने	-4.65133
▁का	-4.66416
▁और	-4.76571
▁पर	-4.84173
▁कि	-4.91388
.	-4.95436
न	-4.99346
▁हैं	-5.03914
ने	-5.1835
▁कर	-5.18471
▁भी	-5.20092
र	-5.22613
▁इस	-5.35278
क	-5.389
▁लिए	-5.40798
▁हो	-5.40847
त	-5.43189
ं	-5.53332
ल	-5.53866
▁एक	-5.54207
▁नहीं	-5.62785
-	-5.66308
म	-5.68827
▁किया	-5.71556
▁ही	-5.74557
▁स	-5.75273
▁यह	-5.76818
स	-5.80362
▁गया	-5.8337
▁कहा	-5.88186
ित	-5.89288
ि	-5.92617
ो	-5.94133
ना	-6.0052
▁था	-6.02053
ट	-6.02378
▁करने	-6.02437
कर	-6.02936
▁तो	-6.03816
▁साथ	-6.04678
▁जा	-6.05882
द	-6.10449
ता	-6.10751
ई	-6.15564
▁दिया	-6.16326
▁बाद	-6.17727
ह	-6.1856
▁व	-6.18797
प	-6.18999
▁रहे	-6.20068
▁न	-6.20423
व	-6.22332
ज	-6.2245
▁आ	-6.22744
▁वाल	-6.23434
▁रहा	-6.30731
▁हुए	-6.32332
ू	-6.34939
▁रही	-6.35615
▁उनक	-6.37287
▁गई	-6.37591
▁तक	-6.3784
▁क	-6.38866
ियों	-6.39943
ब	-6.40507
▁प्र	-6.41443
▁अ	-6.42889
)	-6.44402
▁सरकार	-6.46207
▁पहल	-6.486
श	-6.49135
▁(	-6.51848
▁लोगों	-6.52744
▁वह	-6.52855
ण	-6.53443
▁अपने	-6.53451
▁पुलिस	-6.54118
▁उस	-6.54527
▁उन्होंन	-6.54531
▁दो	-6.54972
▁कु	-6.55072
छ	-6.56537
ां	-6.57433
▁लेकिन	-6.57742
ड	-6.57745
▁इसक	-6.58168
▁बार	-6.59709
▁ब	-6.6077
▁थी	-6.63036
▁दी	-6.63511
ु	-6.65936
▁गए	-6.66729
▁जो	-6.67203
सी	-6.69144
▁म	-6.69162
य	-6.70896
▁र	-6.71031
ए	-6.72616
▁अब	-6.74496
ओं	-6.76251
▁थे	-6.77315
▁सिंह	-6.78049
िक	-6.82734
▁करते	-6.83108
▁दिन	-6.83231
▁या	-6.83755
नी	-6.83869
ार	-6.84688
▁लेकर	-6.86452
ग	-6.86467
फ	-6.8783
▁बताया	-6.89644
▁आप	-6.89969
्य	-6.90571
्स	-6.91145
▁भारत	-6.91306
वार	-6.92966
ें	-6.93865
▁ऐस	-6.9464
▁राज	-6.97487
▁ह	-6.97642
ते	-6.98256
▁इन	-6.98278
▁साल	-6.98922
ती	-6.9968
▁समय	-7.00276
▁अपनी	-7.01511
▁प	-7.02262
▁ये	-7.02386
▁त	-7.02645
्	-7.02673
से	-7.03398
कि	-7.04645
▁सभी	-7.04762
ीय	-7.05452
▁बात	-7.06015
▁हुई	-7.07347
▁कई	-7.07768
▁दौरान	-7.08019
▁तरह	-7.08037
▁द्वार	-7.09357
िया	-7.09769
▁हम	-7.10104
िंग	-7.11323
या	-7.11586
▁ज	-7.11694
▁जिस	-7.12071
▁होगा	-7.12839
रा	-7.13087
▁आपक	-7.13914
▁देश	-7.14505
:	-7.14592
▁दिल्ली	-7.157
▁फ	-7.16191
▁प्रदेश	-7.1644
▁हुआ	-7.1644
▁बीच	-7.16473
▁टीम	-7.18247
▁श	-7.19075
▁लोग	-7.19858
▁आरोप	-7.20645
ान	-7.20719
▁शुरू	-7.20922
▁चुनाव	-7.20958
▁काम	-7.21091
▁दे	-7.21128
▁उन्हे	-7.21159
▁लिया	-7.21191
▁मैं	-7.21826
▁राज्य	-7.21879
▁रूप	-7.2334
▁हर	-7.23531
च	-7.25223
▁बना	-7.25451
ली	-7.25811
▁जाने	-7.26239
▁क्षेत्र	-7.26927
ंड	-7.26959
में	-7.27974
▁पूर	-7.28286
़	-7.2896
▁कोरोना	-7.29729
का	-7.29913
ख	-7.29932
▁कांग्रेस	-7.30568
ड़	-7.31565
▁जब	-7.31898
▁घर	-7.32475
▁ले	-7.3306
▁सकता	-7.33138
▁फिल्म	-7.33157
▁वे	-7.33839
▁कुमार	-7.34213
▁चल	-7.34897
▁वहीं	-7.34898
▁नाम	-7.36294
▁सकते	-7.36659
▁दूसर	-7.36684
िल	-7.37412
के	-7.37551
▁बन	-7.3777
वा	-7.37827
▁कम	-7.37851
▁अधिक	-7.3838
ला	-7.39105
नों	-7.39391
▁जांच	-7.39469
▁मिल	-7.39719
▁किस	-7.4036
▁पार्टी	-7.41247
▁मामले	-7.42053
▁ग	-7.4206
▁उ	-7.42077
▁जाता	-7.42146
▁जानकारी	-7.42331
▁-	-7.42878
▁करना	-7.44633
▁मांग	-7.46252
▁ल	-7.46321
▁अध्यक्ष	-7.47074
ंस	-7.47752
▁तीन	-7.48122
▁किए	-7.4867
▁ज्यादा	-7.49063
▁गांव	-7.4915
▁सं	-7.49348
▁पास	-7.49667
▁चाहिए	-7.50076
▁मु	-7.50414
▁आज	-7.50798
▁पा	-7.5122
▁च	-7.51368
▁जारी	-7.51391
ंग	-7.5142
▁'	-7.51966
▁जाएगा	-7.52166
ध	-7.52294
गी	-7.52302
▁लग	-7.52572
▁वर्ष	-7.5317
▁बज	-7.5342
पुर	-7.53442
▁फिर	-7.54266
▁बहुत	-7.54298
▁कारण	-7.54541
▁एव	-7.54628
जी	-7.54792
कार	-7.56379
▁देने	-7.57266
▁बता	-7.57377
्र	-7.57706
▁जिले	-7.58114
▁20	-7.58264
0	-7.58542
’	-7.58633
▁सा	-7.59358
▁ए	-7.59465
▁राम	-7.59527
▁इससे	-7.59539
▁‘	-7.59759
▁तैयार	-7.59759
▁उसक	-7.59924
▁उसके	-7.59945
▁काफ	-7.60636
▁आई	-7.6122
▁केंद्र	-7.61366
री	-7.62037
▁अस्पताल	-7.62045
शन	-7.62086
्व	-7.62167
▁उन	-7.62481
▁इ	-7.62717
भ	-7.63069
▁शामिल	-7.63229
▁पूर्व	-7.63493
▁कार्य	-7.64344
▁विभाग	-7.64384
▁खिलाफ	-7.64385
▁द	-7.64689
ाई	-7.64913
एं	-7.65459
बसे	-7.66584
मी	-7.66742
▁खेल	-7.66808
▁योजना	-7.66854
▁लगा	-7.66857
▁बी	-7.66903
▁ओर	-7.66958
▁अगर	-7.67929
▁लाख	-7.68118
▁मोदी	-7.69252
सभा	-7.69362
ठ	-7.69522
▁सु	-7.70325
'	-7.70402
▁करोड़	-7.70486
▁अन्य	-7.7054
थ	-7.70971
▁होगी	-7.71045
▁:	-7.7115
▁भाजपा	-7.71749
▁हजार	-7.7175
▁सामने	-7.72178
▁3	-7.72513
▁जिला	-7.73516
▁वि	-7.73797
i	-7.74027
वल	-7.7426
ाने	-7.74922
▁ख	-7.7507
▁उत्तर	-7.75646
▁पानी	-7.75782
बर	-7.75956
ुल	-7.76269
▁देख	-7.76323
स्त	-7.76567
मा	-7.76801
डी	-7.7698
▁आने	-7.77011
▁जी	-7.77093
्‍	-7.77178
...	-7.77645
▁निवास	-7.78334
▁क्यों	-7.78335
▁जान	-7.78999
▁प्रति	-7.79638
▁रुपये	-7.79703
▁क्या	-7.79859
2	-7.80228
बी	-7.80434
▁उप	-7.80491
▁होती	-7.80814
▁दिए	-7.81134
▁भारतीय	-7.81311
▁मार	-7.81668
▁ध	-7.81672
▁जिसक	-7.82745
▁छ	-7.83039
▁भर	-7.83066
▁पी	-7.83355
▁बैठक	-7.83457
▁पिछले	-7.841
▁भ	-7.84141
▁बढ़	-7.84469
▁होता	-7.85123
▁रिपोर्ट	-7.85383
▁पांच	-7.85408
ै	-7.85727
▁चार	-7.85834
▁दल	-7.8621
ॉ	-7.86365
▁नेता	-7.86628
▁स्थान	-7.8686
▁शहर	-7.86923
a	-7.86945
स्ट	-7.87029
▁महा	-7.8717
▁मे	-7.87306
e	-7.8814
▁करें	-7.88365
▁घटना	-7.88398
▁अभी	-7.88423
▁पत्र	-7.88688
▁मंत्री	-7.89025
▁नगर	-7.891
▁नई	-7.89532
▁ना	-7.89772
▁करीब	-7.89972
▁अपना	-7.8999
ंत	-7.9024
▁मौत	-7.91392
▁हालांकि	-7.91392
▁परिवार	-7.91421
▁हूं	-7.91534
▁बंद	-7.91672
हर	-7.91943
▁वो	-7.9195
4	-7.92437
िन	-7.92731
▁पहुंच	-7.9281
▁इसी	-7.92932
को	-7.93235
▁मिली	-7.9348
्या	-7.93821
▁जाएगी	-7.9458
वर	-7.9464
ंट	-7.94898
▁जीत	-7.95041
▁10	-7.95061
जन	-7.95656
▁दर्ज	-7.95804
▁सदस्य	-7.96155
हित	-7.96174
टी	-7.96182
▁ट	-7.96206
ेशन	-7.96754
▁ली	-7.97463
?	-7.97794
▁जबकि	-7.97967
ज़	-7.98207
9	-7.98246
▁लेने	-7.98947
ष	-7.99348
▁मैच	-7.99489
▁मरीज	-7.99508
▁प्रधानमंत्री	-7.9953
▁तेज	-7.99789
मान	-8.00077
▁स्थिति	-8.0064
▁आए	-8.00647
▁महिला	-8.0099
▁सी	-8.01
की	-8.0103
▁गांधी	-8.01156
▁अनुसार	-8.01166
▁बाहर	-8.01184
कल	-8.01211
▁ता	-8.01324
▁महीन	-8.01598
▁रह	-8.02409
▁चला	-8.02469
स्	-8.02876
▁हाल	-8.02897
्ड	-8.02898
▁सुब	-8.03058
अ	-8.03071
▁आम	-8.03179
▁जैसे	-8.03435
1	-8.03533
▁रख	-8.04212
▁रि	-8.04521
▁अलावा	-8.04635
▁बैंक	-8.04635
▁वजह	-8.04637
▁शादी	-8.04649
▁मह	-8.04832
▁पद	-8.05371
▁6	-8.06237
िका	-8.06271
▁निर्देश	-8.06472
▁बड़ी	-8.06535
▁डि	-8.06878
रिया	-8.07822
▁विकास	-8.0824
▁बच्च	-8.08283
▁मुख्यमंत्री	-8.08297
▁पाकिस्तान	-8.0831
▁जहां	-8.08311
करण	-8.08522
ाय	-8.08522
3	-8.08538
िम	-8.08666
▁सीट	-8.08682
▁दें	-8.08714
▁कहन	-8.08776
▁किसानों	-8.08828
▁इसका	-8.09071
दान	-8.09116
▁गिरफ्तार	-8.1009
▁इसलिए	-8.10092
▁बिहार	-8.10137
▁नजर	-8.10204
▁अभिय	-8.10264
▁जिसमें	-8.10355
ियां	-8.10832
ओ	-8.11525
▁बनाने	-8.1158
▁कंपनी	-8.11977
▁सकती	-8.11982
▁तथा	-8.12027
▁निकल	-8.12057
▁सुरक्षा	-8.12513
▁मेर	-8.12604
▁सब	-8.13304
▁स्कूल	-8.139
योग	-8.14053
सा	-8.14114
▁थाना	-8.14117
गंज	-8.14135
पी	-8.14261
▁8	-8.14292
▁लोक	-8.14408
नाथ	-8.14785
क्	-8.14884
▁2	-8.15073
▁5	-8.15626
▁कार्यक्रम	-8.15861
▁डॉ	-8.1595
माल	-8.15968
5	-8.16018
▁विधान	-8.16029
▁जनता	-8.16053
ति	-8.16068
▁कोविड	-8.16127
▁मौक	-8.16256
6	-8.16571
▁मो	-8.16958
▁छात्र	-8.16976
ले	-8.17492
वी	-8.17765
▁मंदिर	-8.17861
▁इलाक	-8.17864
▁करेंगे	-8.18224
▁राष्ट्रीय	-8.18277
▁दूर	-8.18321
दा	-8.18423
त्र	-8.18509
एस	-8.18762
▁जाती	-8.18769
क्ष	-8.19282
▁होते	-8.19536
ड़ी	-8.19608
▁हिंदी	-8.19902
▁रुपए	-8.1992
▁पंचायत	-8.1996
▁गिर	-8.20016
▁जगह	-8.20115
▁एस	-8.20198
▁फीसद	-8.20259
▁गुरु	-8.20352
▁लड़	-8.20395
▁अच्छ	-8.20546
▁बे	-8.20676
▁मान	-8.21159
▁पूरा	-8.21309
बंध	-8.21672
▁मौजूद	-8.21985
▁मदद	-8.21987
▁हाथ	-8.21991
▁संख्या	-8.22138
▁स्थित	-8.22631
▁रहने	-8.22702
▁कह	-8.22773
▁पता	-8.22776
▁मिलने	-8.23322
▁सह	-8.23683
▁बस	-8.23691
▁संबंध	-8.23886
▁कार्रवाई	-8.24113
▁समस्या	-8.24113
▁खुद	-8.24113
▁राजनीति	-8.24116
▁होंगे	-8.24134
▁सूचना	-8.24204
▁सम	-8.24259
▁महिलाओं	-8.2426
▁बड़	-8.24493
▁रात	-8.24499
▁देते	-8.25215
▁गु	-8.26196
▁परीक्षा	-8.26287
▁वार्ड	-8.26288
▁निकाल	-8.26314
▁प्रशासन	-8.26373
▁आधार	-8.2639
▁बड़े	-8.26414
▁मुझ	-8.26474
▁तह	-8.26571
▁अधिकारी	-8.27164
▁मिला	-8.27533
▁आगे	-8.27963
▁4	-8.28306
▁मुख्य	-8.28496
▁युवा	-8.28509
▁वीडियो	-8.2851
राज	-8.28914
▁1	-8.28929
▁11	-8.29313
7	-8.29543
▁15	-8.29685
प्र	-8.29886
▁चुकी	-8.30146
▁जरूर	-8.3034
▁मुताबिक	-8.30782
▁युवक	-8.30782
▁जल्द	-8.30782
▁हत्या	-8.30783
▁ग्रामीण	-8.30783
दी	-8.30799
▁कही	-8.30823
▁इतन	-8.3093
▁सोमव	-8.31062
▁19	-8.31297
s	-8.31461
▁योग	-8.32097
तर	-8.32142
▁अन	-8.32157
िए	-8.32319
िस	-8.32909
▁मीडिया	-8.33107
▁उपयोग	-8.33157
▁फोटो	-8.33173
▁वैक्सीन	-8.332
टा	-8.33433
8	-8.3354
आई	-8.33713
▁सि	-8.33742
▁तब	-8.33766
र्स	-8.34039
बा	-8.34076
▁बढ़ा	-8.3455
▁रा	-8.34879
▁सो	-8.35181
▁दिल	-8.35235
▁जाए	-8.35257
▁विश्व	-8.35462
▁शिकायत	-8.35488
▁प्रदर्शन	-8.35489
▁स्तर	-8.3552
▁सवाल	-8.35776
ड़ा	-8.35778
इ	-8.35968
▁न्यूज	-8.36023
▁खान	-8.36171
▁लगात	-8.36237
▁आदि	-8.36562
▁7	-8.36613
क्स	-8.36914
सर	-8.37557
▁पार	-8.37859
यू	-8.379
▁आतंक	-8.37914
▁निर्माण	-8.37927
▁सिर्फ	-8.37927
▁छोड़	-8.37929
▁भाग	-8.38003
▁फोन	-8.38172
▁12	-8.38271
▁चलत	-8.38662
धान	-8.38912
▁बल्	-8.38938
▁जन	-8.39086
▁सेवा	-8.39091
▁रोक	-8.39658
▁व्यक्ति	-8.40016
रो	-8.40151
▁मंगल	-8.40429
▁सड़क	-8.40432
▁पकड़	-8.40436
▁जीवन	-8.40465
▁राह	-8.40468
▁अधिकारियों	-8.40503
ोर	-8.40581
▁पक्ष	-8.40724
ेंद्र	-8.40785
राम	-8.40788
▁तय	-8.40956
▁बा	-8.41038
▁भेज	-8.41437
▁14	-8.41545
▁कै	-8.41922
▁इं	-8.42562
▁अंत	-8.42596
एम	-8.42602
▁जिन	-8.42685
▁जल	-8.42772
नगर	-8.42846
▁विशेष	-8.42991
▁घायल	-8.42991
▁जवाब	-8.42992
▁स्वास्थ्य	-8.43001
▁विरोध	-8.43007
▁दुनिया	-8.43122
ंच	-8.43178
▁अनु	-8.43234
मेंट	-8.43309
▁रहत	-8.43322
▁कोर्ट	-8.4336
▁खास	-8.43894
▁टी	-8.43952
▁पहुंचे	-8.44153
दार	-8.44238
▁रन	-8.44372
▁हमल	-8.44383
ंज	-8.44965
▁गो	-8.45092
▁शिव	-8.45129
▁डे	-8.45243
▁इलाज	-8.45623
वायरस	-8.45624
▁शुक्र	-8.45634
▁शनिवार	-8.45635
▁पोस्ट	-8.45635
▁आर	-8.45686
▁सही	-8.45706
▁इंडिया	-8.45987
पर	-8.46035
▁आस	-8.46074
जा	-8.46135
चा	-8.46868
▁लाल	-8.46931
▁मामला	-8.46981
▁दिखा	-8.47053
ोल	-8.47258
▁करके	-8.47621
गर	-8.47763
‍	-8.47925
▁मुंबई	-8.48326
▁विधायक	-8.48326
▁वापस	-8.48326
▁बुध	-8.4835
ेश	-8.48448
▁गठ	-8.4846
▁कभी	-8.4849
▁लगाया	-8.48521
▁व्यवस्था	-8.48556
▁शर्मा	-8.48611
▁प्रकाश	-8.48828
▁आसान	-8.48916
▁इस्त	-8.48941
▁फैसला	-8.49229
टर	-8.49272
▁ट्र	-8.49276
▁पु	-8.49317
▁गा	-8.49377
वाल	-8.49381
▁25	-8.49632
मारी	-8.50667
▁ई	-8.50751
आ	-8.50895
▁क्रिकेट	-8.51103
▁प्रयास	-8.51106
▁घंट	-8.5113
▁कार्ड	-8.51146
▁मेडि	-8.51169
ियर	-8.5117
▁जेल	-8.51231
▁अगल	-8.51263
▁पेश	-8.51328
▁बिना	-8.51357
▁श्री	-8.51417
एफ	-8.51818
▁सोन	-8.51939
▁मा	-8.52316
वान	-8.52672
ेलवे	-8.53476
न्न	-8.53676
▁यू	-8.53897
▁खा	-8.53925
▁उपलब्ध	-8.5396
▁–	-8.53979
▁कराया	-8.54013
▁प्राप्त	-8.54033
जय	-8.54133
लो	-8.54138
▁मां	-8.54176
▁ला	-8.54241
जेपी	-8.5431
▁सीमा	-8.54409
▁अलग	-8.54424
्ट	-8.54452
वे	-8.54732
▁जाते	-8.55223
लब	-8.55329
▁स्व	-8.55665
पूर्ण	-8.55779
ंप	-8.55914
ोशल	-8.55923
▁बचा	-8.55924
▁आयोज	-8.56037
▁कहत	-8.56094
ास	-8.56127
▁अव	-8.56379
भग	-8.56429
ये	-8.56628
यर	-8.56788
▁मुकाबल	-8.56902
▁शिक्षक	-8.56902
▁राजस्थान	-8.56902
▁भर्ती	-8.56903
▁कानून	-8.56906
▁बाइक	-8.56934
▁चुक	-8.56959
▁मध्य	-8.56964
▁बारिश	-8.57009
▁कीमत	-8.5708
o	-8.57085
▁सके	-8.5721
क्रिया	-8.57244
▁पड़	-8.57261
▁B	-8.57287
ाँ	-8.57631
▁बनाए	-8.57838
▁अप	-8.57861
▁यात्रा	-8.57935
▁बि	-8.5803
रेंद्र	-8.58213
▁देखने	-8.58222
▁लिख	-8.58363
▁आग	-8.58392
▁लिखा	-8.5847
▁कुल	-8.58615
▁चुका	-8.58726
▁आया	-8.58854
▁डाल	-8.59207
t	-8.59212
▁वन	-8.5943
▁देखत	-8.59462
आर	-8.59619
यों	-8.59786
▁हादस	-8.59933
▁ठीक	-8.59935
▁बयान	-8.59938
▁परेशान	-8.59943
▁वाहन	-8.59946
▁संक्रमण	-8.59952
▁भूमि	-8.60009
▁राष्ट्रपति	-8.60022
▁खबर	-8.60038
▁यादव	-8.60091
गत	-8.60109
सन	-8.60119
▁बोल	-8.6022
▁"	-8.60269
▁समे	-8.60331
भी	-8.60474
चर	-8.60485
▁जरूरत	-8.60528
▁बो	-8.60537
▁एन	-8.60615
▁17	-8.61136
▁कार	-8.61334
मो	-8.61378
वेश	-8.61727
▁धन	-8.6177
▁13	-8.61966
▁मामल	-8.62008
▁ग्र	-8.62122
▁रोड	-8.62731
▁साफ	-8.62847
▁पैस	-8.62945
्त	-8.62967
▁दौर	-8.62972
र्च	-8.62999
▁गंभीर	-8.63057
▁संगठन	-8.63057
ेज	-8.63058
▁शेयर	-8.63059
▁पंजाब	-8.63147
▁सुविधा	-8.63147
▁जवान	-8.63164
ाना	-8.63206
▁चीन	-8.63208
▁समझ	-8.63267
▁दर	-8.63391
▁तौर	-8.63575
ेंगे	-8.64121
ल्	-8.64506
▁हमारे	-8.64528
▁खरीद	-8.64658
वन	-8.64745
▁उठा	-8.64834
िट	-8.65218
▁30	-8.65219
▁स्	-8.65225
हार	-8.66088
▁उम्मीद	-8.66182
ुक	-8.66265
▁नौ	-8.66277
▁कृषि	-8.66283
▁यद	-8.663
▁तेल	-8.66356
▁राश	-8.66476
▁16	-8.66494
ल्ल	-8.66511
▁जे	-8.66523
्क	-8.66619
▁कश्मीर	-8.66633
▁लगे	-8.66756
▁पहुंचा	-8.6683
▁शव	-8.67178
▁खतर	-8.67334
▁वक्त	-8.67747
▁ऑफ	-8.67763
▁जुड़	-8.67803
▁लगाने	-8.68051
सू	-8.6806
ीटर	-8.68066
▁अच्छा	-8.68585
▁बाल	-8.686
गल	-8.68776
▁मिले	-8.69044
शा	-8.69052
▁यही	-8.69211
00	-8.69238
▁रखा	-8.69247
▁ढ	-8.69259
▁तस्वीर	-8.69616
▁डॉक्टर	-8.69616
▁चर्चा	-8.69617
▁कपूर	-8.69618
▁समाज	-8.69623
▁कॉलेज	-8.69626
▁लंब	-8.69632
▁समूह	-8.69656
▁जून	-8.69688
त्	-8.69767
▁जाएंगे	-8.69791
▁बच	-8.69905
▁हास	-8.7039
▁निज	-8.70541
▁आयोजन	-8.70614
▁बदल	-8.7069
ानी	-8.70979
▁9	-8.71076
A	-8.71911
▁थ	-8.71935
▁बेट	-8.71977
▁दाव	-8.7214
▁किसान	-8.72297
बार	-8.72344
▁पै	-8.72598
▁श्र	-8.72607
▁मत	-8.72798
▁शो	-8.72942
▁शिक्षा	-8.73065
▁कोशिश	-8.73066
▁गयी	-8.73074
▁विपक्ष	-8.73075
▁रविवार	-8.73082
▁उम्र	-8.73093
▁कार्यकर्ता	-8.731
▁लाभ	-8.73127
▁प्रभावित	-8.73238
▁शाम	-8.7333
▁मन	-8.73347
▁हाई	-8.73358
▁दाम	-8.73477
▁तर	-8.73554
▁ऑन	-8.73575
ेगा	-8.73638
पीछे	-8.73804
▁गौर	-8.74277
▁यूपी	-8.74379
▁सात	-8.74601
ढ़	-8.74936
बल	-8.75269
▁भा	-8.75374
P	-8.755
▁जुड़े	-8.75504
लाइन	-8.75605
▁रहता	-8.75709
▁ज़	-8.75792
वीं	-8.76151
▁मनो	-8.76207
पू	-8.76243
▁स्ट	-8.76354
▁जोड़	-8.76511
▁शाह	-8.76606
▁दक्षिण	-8.76636
▁प्रस्ताव	-8.76636
▁प्रमुख	-8.76636
▁बाजार	-8.76636
▁व्यापार	-8.76636
▁शराब	-8.76637
▁उत्पाद	-8.76637
▁समिति	-8.76637
▁सहाय	-8.76694
▁अपराध	-8.76726
▁आदेश	-8.76737
▁पढ़ें	-8.76849
ेक	-8.76876
▁टेस्ट	-8.76933
्म	-8.77007
▁आठ	-8.77225
▁अमेरिका	-8.77547
र्न	-8.7767
▁खिलाड़ी	-8.77806
घ	-8.78038
▁कमी	-8.78646
र्क	-8.79072
▁बढ़त	-8.79465
▁मूल	-8.79731
▁नव	-8.80309
▁न्याय	-8.80335
▁वृद्ध	-8.80339
▁जुलाई	-8.8034
▁ध्यान	-8.80343
▁धर्म	-8.80348
▁अमित	-8.8035
▁कार्यालय	-8.80356
▁जमीन	-8.80375
▁रास्त	-8.80419
लर	-8.80442
▁घट	-8.80601
▁शि	-8.80684
ेश्वर	-8.80746
▁बनाया	-8.8075
▁भारी	-8.80953
▁चोरी	-8.81051
▁नेताओं	-8.81236
र्ज	-8.81353
▁डा	-8.81627
▁मि	-8.8183
फर	-8.81923
▁हमला	-8.83028
▁बल	-8.83208
देव	-8.83222
▁जमा	-8.8351
था	-8.83536
▁माना	-8.83644
▁समर्थ	-8.83699
िश	-8.83882
▁थीं	-8.83961
d	-8.84059
▁मुश्किल	-8.84186
▁लखनऊ	-8.84186
▁शुरुआत	-8.84186
▁संक्रमित	-8.84186
▁हिस्सा	-8.84186
E	-8.84186
▁कैंसर	-8.84186
▁प्रमाण	-8.84186
▁प्रभारी	-8.84187
▁विश्वविद्यालय	-8.84188
▁नंबर	-8.84188
▁घोषणा	-8.84189
▁निवेश	-8.84201
▁विवाद	-8.84223
▁सचिव	-8.84236
▁खर्च	-8.84241
▁ड	-8.84265
फ्ट	-8.8431
ar	-8.84335
▁सेना	-8.844
▁बेह	-8.84599
▁दोस्त	-8.84621
ेन्द्र	-8.84705
लाल	-8.84727
▁आद	-8.84864
▁केन्द्र	-8.85117
on	-8.8527
िटी	-8.85473
▁याद	-8.85696
▁सद	-8.8573
▁गाड़	-8.85804
▁सर	-8.85927
▁बेहतर	-8.85963
▁घ	-8.86149
▁अच	-8.86158
▁कदम	-8.86615
▁दीप	-8.86706
▁दवा	-8.8678
भर	-8.86923
▁एल	-8.86989
गढ़	-8.87029
S	-8.87046
▁इनक	-8.87274
l	-8.87579
▁शा	-8.87694
िस्तान	-8.87819
टू	-8.87936
▁होकर	-8.88039
▁बातचीत	-8.88186
▁अतिरिक्	-8.88186
▁शांति	-8.88188
▁कमेटी	-8.88191
▁सूत्र	-8.88205
▁जन्म	-8.88214
▁मैदान	-8.88215
▁अवसर	-8.88221
▁मात्र	-8.88232
▁पीएम	-8.88254
▁हरियाणा	-8.88256
▁विचार	-8.88256
▁सफाई	-8.88348
जर	-8.88404
▁भाई	-8.88578
▁अक्	-8.88637
एन	-8.88811
▁प्रकार	-8.88824
▁पति	-8.89079
▁18	-8.89131
▁ग्राम	-8.89184
▁अनुम	-8.89466
▁पह	-8.8985
▁ओ	-8.90414
▁एम	-8.90477
▁चि	-8.90587
▁लाग	-8.90948
/	-8.91201
M	-8.91219
n	-8.91237
▁माल	-8.9141
▁रो	-8.91416
▁50	-8.91713
▁बै	-8.91737
▁चा	-8.91774
कुल	-8.91945
▁वोट	-8.91954
▁माह	-8.9204
▁सम्मान	-8.92134
द्ध	-8.92143
▁घोष	-8.92349
तृत	-8.92351
!	-8.92352
▁दिसंबर	-8.92352
▁विभिन्	-8.92352
▁निर्णय	-8.92353
▁मंत्रालय	-8.92355
▁पुत्र	-8.92397
▁एयर	-8.92433
▁प्रथम	-8.92475
▁सामान	-8.92498
▁निगम	-8.92536
▁वै	-8.92568
▁प्रधान	-8.92633
▁साबि	-8.92743
्‍य	-8.92845
▁लगी	-8.92847
जीत	-8.93127
▁अंतर	-8.93257
▁पुरान	-8.93344
▁झ	-8.93382
▁सीएम	-8.9339
▁जिल	-8.9344
वाई	-8.93623
धार	-8.93718
▁क्र	-8.93773
▁आते	-8.93925
मार	-8.94376
▁मै	-8.94822
▁मुक्त	-8.94873
▁बच्चे	-8.94962
▁आइ	-8.94996
▁मुद्द	-8.95093
झ	-8.95222
ष्ट	-8.95362
उ	-8.95545
ीजन	-8.95726
द्द	-8.95869
▁बाब	-8.95904
कर्म	-8.96103
हत	-8.9625
स्त्र	-8.96281
क्त	-8.96389
▁मौसम	-8.967
▁लौट	-8.967
▁ऊपर	-8.967
▁पसंद	-8.967
▁पहचान	-8.967
-19	-8.96701
डाउन	-8.96701
वुड	-8.96703
▁संकट	-8.96705
▁कक्षा	-8.96706
र्ट	-8.96717
▁परिष	-8.96729
▁2020	-8.96732
▁रहेगा	-8.96769
▁मिलेगा	-8.96781
▁सांसद	-8.96787
▁अंदर	-8.96792
▁टीका	-8.96836
▁दिवस	-8.96901
▁खत्	-8.96967
▁डी	-8.97065
▁हमेश	-8.97078
▁तमा	-8.97118
रदार	-8.97181
▁आय	-8.97248
▁100	-8.97602
▁गलत	-8.97633
▁रोग	-8.97651
▁रंग	-8.97701
▁दस	-8.97883
।"	-8.97885
▁बाग	-8.97944
केश	-8.98077
▁फैल	-8.98097
▁भाव	-8.98187
▁ब्ल	-8.98219
▁मंड	-8.98315
▁पूर्ण	-8.98396
▁पैद	-8.989
▁गाय	-8.99053
ारी	-8.99237
▁कल	-8.99273
▁हार	-8.99511
▁200	-9.00034
▁यात्र	-9.00055
▁सुन	-9.00098
▁फै	-9.00116
ग्राम	-9.00121
▁उम्मीदवार	-9.00236
स्व	-9.00242
मर	-9.00255
ग्रह	-9.00318
ेंट	-9.00587
धा	-9.00685
▁वरिष्ठ	-9.01246
▁तिवारी	-9.01246
▁याचिका	-9.01246
▁पूजा	-9.01246
सीबीआई	-9.01249
▁न्यायालय	-9.01252
▁अपील	-9.01261
▁महत्व	-9.01261
▁पदाधिकार	-9.01266
वेयर	-9.01325
▁24	-9.01335
▁नर	-9.01357
▁कप	-9.01438
▁टिकट	-9.01483
▁पि	-9.01494
▁विजय	-9.01607
▁पड़ता	-9.01612
▁मले	-9.01642
▁वर्षीय	-9.0167
▁असर	-9.0169
वाद	-9.01709
▁प्रतिश	-9.01771
▁राय	-9.01787
▁पिता	-9.01967
▁रेल	-9.02134
▁देखा	-9.02158
▁देर	-9.02238
▁ओम	-9.02287
▁कट	-9.02316
▁लॉक	-9.02458
▁M	-9.02489
▁पाया	-9.02551
▁बढ़ाने	-9.02582
एंगे	-9.02724
▁टे	-9.02796
▁चाहते	-9.02816
▁चौ	-9.02901
वें	-9.03195
▁डर	-9.0338
▁पे	-9.03388
▁ऑ	-9.03474
▁कराई	-9.03614
▁बल्लेबाज	-9.03793
▁खुल	-9.04088
▁फैसल	-9.04423
I	-9.04874
R	-9.04878
रण	-9.0491
▁पढ़	-9.04946
▁मौका	-9.05042
ंध	-9.05172
▁हटा	-9.05351
णी	-9.05621
▁बने	-9.05705
▁नियम	-9.05831
▁फ्र	-9.05865
▁अग्रवाल	-9.06007
▁द्वितीय	-9.06007
▁नुकसान	-9.06007
▁संभावना	-9.06008
▁मास्क	-9.06008
▁अगस्त	-9.06008
▁जनवरी	-9.06009
▁खुश	-9.0601
▁नागरिक	-9.06012
कर्ता	-9.06044
▁लूट	-9.06058
▁चयन	-9.06068
▁करेगी	-9.0607
▁सहयोग	-9.06077
▁लड़की	-9.06111
▁खाद्य	-9.06121
मेल	-9.06199
▁किलोम	-9.06273
न्हें	-9.06313
▁मतदा	-9.06333
▁लगाए	-9.06359
▁पालन	-9.06532
▁परिजनों	-9.06535
▁बाक	-9.06736
▁भू	-9.0675
ाबाद	-9.0675
▁भव	-9.06905
▁बैठ	-9.07058
ानक	-9.07262
यन	-9.07456
▁दिख	-9.07886
ॉल	-9.07971
▁नि	-9.08034
रफ	-9.0807
▁देवी	-9.08088
▁जग	-9.08253
17	-9.08348
▁पड़ा	-9.0884
▁सर्व	-9.08911
▁जम	-9.08968
िस्ट	-9.09005
▁करवा	-9.09023
▁हमार	-9.09123
एच	-9.09307
पास	-9.09573
▁दम	-9.09575
18	-9.09958
▁निशान	-9.09968
▁ऐ	-9.10156
▁सभा	-9.10522
डे	-9.10607
यल	-9.10947
▁सलाह	-9.10956
u	-9.10964
y	-9.11007
O	-9.11007
▁गृह	-9.11007
▁पश्चिम	-9.11007
▁मोबाइल	-9.11007
▁विकसित	-9.11007
▁उपस्थित	-9.11008
▁उत्तराखंड	-9.11008
▁बिजली	-9.11008
▁उपचार	-9.11008
▁आवेदन	-9.11034
▁संयुक्त	-9.11051
▁सुधार	-9.11064
िष्य	-9.11082
▁जम्मू	-9.11096
▁माध	-9.11116
▁मिनट	-9.11127
रू	-9.11147
▁खूब	-9.11155
▁दोपह	-9.11188
▁ख़	-9.11247
▁चालक	-9.11258
मु	-9.11334
▁एंड	-9.11352
▁खड़	-9.11423
▁स्थल	-9.11442
ाधी	-9.1162
ियन	-9.11682
▁घाट	-9.11752
▁करेगा	-9.11853
टन	-9.11934
▁आवश्यकता	-9.12094
▁मिश्रा	-9.12136
▁मंडल	-9.12337
▁लो	-9.12462
▁लगता	-9.12485
▁एप	-9.12516
▁खोल	-9.12531
▁पाए	-9.12549
000	-9.12722
शाल	-9.129
▁नय	-9.12965
▁प्रण	-9.13242
ूं	-9.13409
▁मना	-9.14237
▁गर्म	-9.14252
▁भीड़	-9.14478
▁31	-9.1481
D	-9.15128
कृत	-9.15333
क्र	-9.15358
▁सै	-9.1561
▁जिन्ह	-9.15773
▁पत्	-9.15784
ध्यक्ष	-9.16108
▁अहम	-9.16191
p	-9.162
▁दुकान	-9.16247
▁गेंद	-9.16263
▁अशोक	-9.16271
▁आखिर	-9.16271
▁पौध	-9.16271
▁प्रदूष	-9.16271
▁सप्ताह	-9.16271
▁भोपाल	-9.16271
▁रिकॉर्ड	-9.16271
▁बोर्ड	-9.16271
▁कंपनिय	-9.16271
▁बंगाल	-9.16271
▁विषय	-9.16271
▁शिविर	-9.16274
▁पूछ	-9.16275
▁निकाय	-9.16278
▁पेट्रोल	-9.16364
▁यूजर	-9.16367
▁सत्ता	-9.1639
▁सैनिक	-9.16495
▁मगर	-9.1654
्टर	-9.16557
▁चीज	-9.16578
्यम	-9.16782
▁26	-9.16822
।'	-9.17057
▁सीध	-9.17151
▁|	-9.17164
जल	-9.17164
▁हॉल	-9.17199
▁मूल्य	-9.17267
▁राहत	-9.17267
▁इंटर	-9.1735
गार	-9.17572
▁छोटे	-9.17662
▁एक्ट	-9.17759
▁पहुंची	-9.18363
्ला	-9.18592
म्प	-9.18656
▁कमल	-9.18789
ाइट	-9.18863
र्म	-9.18913
▁मई	-9.18973
ूस	-9.19349
इस	-9.19637
शील	-9.19663
▁भेजा	-9.1971
ेक्ट	-9.2016
▁सुरक्ष	-9.20261
▁अधिकार	-9.20477
▁कैस	-9.20532
▁सिर	-9.20535
ढ	-9.20627
C	-9.20697
राष्ट्रीय	-9.20717
▁आता	-9.20817
▁प्रो	-9.20916
ड्ड	-9.21033
▁सार	-9.2117
▁पहला	-9.2117
ाइन	-9.21427
▁2019	-9.21457
▁बर	-9.21571
▁मानव	-9.21645
ंगा	-9.21661
▁प्रभाव	-9.21684
v	-9.21826
▁चेयरमैन	-9.21826
▁सौंप	-9.21826
▁मजबूत	-9.21826
▁शहीद	-9.21826
▁भगवान	-9.21827
▁शुभ	-9.21827
▁विकेट	-9.21827
▁ऑस्ट्रेलिया	-9.21827
▁फुट	-9.21829
▁खराब	-9.2183
▁बदलाव	-9.21832
▁आंख	-9.21832
▁नियुक्त	-9.21837
▁दिशा	-9.21837
▁प्रतिनिधि	-9.21851
ूम	-9.21861
▁सेंटर	-9.21866
आउट	-9.21875
▁ओवर	-9.21879
▁दबाव	-9.21891
▁टीवी	-9.21902
▁भोज	-9.21911
▁आत्म	-9.21921
▁सपा	-9.21931
▁शेर	-9.21983
▁विमान	-9.21986
▁पत्रकार	-9.22033
▁युद्ध	-9.22119
▁गीत	-9.2223
▁यूनि	-9.22351
▁आगा	-9.22449
▁अल	-9.22491
▁शक्ति	-9.22527
▁सम्म	-9.22817
▁एसपी	-9.22932
▁C	-9.22961
▁जिनक	-9.22972
ंगी	-9.22996
काल	-9.23038
▁लगाई	-9.23147
▁R	-9.2315
▁मेरा	-9.23205
▁रु	-9.23219
▁बाव	-9.23416
▁ट्रेन	-9.2351
▁गोल	-9.23751
▁देव	-9.23921
ोग	-9.23981
▁नोट	-9.24066
न्स	-9.24185
ल्ट	-9.24319
h	-9.24402
▁बुर	-9.24549
22	-9.24624
▁जरि	-9.24653
▁सुना	-9.24815
▁चली	-9.24989
िमा	-9.24997
▁अली	-9.25348
▁वीर	-9.25352
्रेस	-9.2539
ाशि	-9.25511
पाल	-9.25513
▁बतात	-9.25648
▁23	-9.25743
▁दा	-9.25849
गु	-9.25851
काली	-9.26002
ावट	-9.26035
स्कर	-9.26051
▁पढ़ा	-9.26143
▁एक्स	-9.26147
▁साइ	-9.26473
F	-9.26536
पूर्व	-9.26605
बुक	-9.26886
पन	-9.26932
▁खो	-9.27057
न्त	-9.27085
ुआ	-9.27115
ैंड	-9.2715
▁बॉ	-9.27398
N	-9.2744
▁रखें	-9.27604
g	-9.27683
तक	-9.27689
ग्र	-9.27698
ः	-9.27709
”	-9.27709
▁अदालत	-9.27709
▁तैनात	-9.27709
▁दरअसल	-9.27709
▁दस्तावेज	-9.27709
▁पॉजिटिव	-9.27709
▁महाराष्ट्र	-9.27709
▁मोहम्मद	-9.27709
▁सार्वजनि	-9.27709
▁सितंबर	-9.27709
▁अफगान	-9.27709
▁कब्ज	-9.27709
▁कर्मचारियो	-9.27709
▁चौहान	-9.27709
▁स्थाप	-9.27711
▁क्षमता	-9.27711
▁विद्यार्थ	-9.27712
▁शरीर	-9.27713
जूद	-9.27717
▁सुनवाई	-9.27727
▁उद्योग	-9.27728
▁कैंप	-9.27757
▁बहन	-9.2776
▁फेस	-9.27762
▁उच्च	-9.27763
▁घरेल	-9.27773
▁लक्ष्मी	-9.27814
▁बीमारी	-9.27822
स्‍ट	-9.27883
▁उतर	-9.27905
▁ओपन	-9.28007
m	-9.28024
▁सुख	-9.28032
▁प्रेम	-9.28109
▁सूच	-9.28114
▁जय	-9.28144
▁संघ	-9.28255
▁माता	-9.28261
रीज	-9.28276
▁सफलता	-9.28289
▁विश्वास	-9.28298
▁भल	-9.2841
▁जागर	-9.28448
▁रखे	-9.28509
▁संबंधित	-9.28518
▁हॉ	-9.28643
वाह	-9.29039
कु	-9.29152
हम	-9.2942
▁बु	-9.29462
▁रै	-9.29633
▁बिल	-9.29771
▁बीत	-9.29838
ष्टि	-9.29912
स्थ	-9.3004
▁लिय	-9.30338
▁देत	-9.30408
वाड़	-9.30773
बुल	-9.3097
al	-9.31054
तम	-9.31059
th	-9.31221
ाइज	-9.31242
सोस	-9.31555
ाइल	-9.31848
▁पीट	-9.31907
▁पीड़ित	-9.32333
▁अमेरिक	-9.32363
▁जाएं	-9.32368
▁प्रत्य	-9.32457
▁चू	-9.32539
▁आवश्यक	-9.32608
an	-9.32853
शनल	-9.32941
एसपी	-9.33187
नंद	-9.33392
थित	-9.33436
वास	-9.33648
ार्थ	-9.33891
>	-9.33959
▁अधीक्षक	-9.33959
▁कप्तान	-9.33959
▁अवधि	-9.33959
▁पूछताछ	-9.33959
▁भरोसा	-9.33959
▁जागरूक	-9.33959
▁वित्त	-9.33961
▁स्मार्टफोन	-9.33961
▁प्रोफे	-9.33961
▁किशोर	-9.33962
▁फायर	-9.33963
▁चेहर	-9.33964
▁अफसर	-9.3397
▁संसद	-9.33999
▁परिसर	-9.34002
▁ट्रंप	-9.34006
हिर	-9.34008
▁जयपुर	-9.34019
▁चरण	-9.34044
विराट	-9.34046
▁रोशन	-9.34048
▁रावत	-9.34071
▁स्टेशन	-9.34071
▁29	-9.34076
▁देंगे	-9.34082
वीन	-9.34086
▁आयु	-9.341
▁वैसे	-9.3412
▁फिट	-9.34126
▁आवास	-9.34173
शंकर	-9.34267
ताओं	-9.34352
▁निर्धार	-9.34474
बू	-9.34528
ून	-9.34531
▁शासन	-9.34564
▁वितर	-9.34585
ानदार	-9.3473
रोजगार	-9.34739
▁नै	-9.34768
▁गेंदबाजी	-9.34908
▁सोच	-9.351
▁I	-9.35478
▁उम	-9.35626
▁लाने	-9.35734
▁हवा	-9.35878
ाप्त	-9.36272
फ़	-9.36315
ल्ड	-9.36355
▁लें	-9.36411
▁सारा	-9.36457
▁टाइ	-9.36502
र्थ	-9.3652
पति	-9.36555
▁छात्रा	-9.36726
▁P	-9.36792
▁बल्लेबाजी	-9.36964
ियो	-9.37005
▁उपा	-9.37069
▁सच	-9.37113
▁सजा	-9.37182
शिप	-9.37222
▁परि	-9.37272
मन	-9.37391
खंड	-9.37623
म्	-9.37717
टिंग	-9.37725
▁एड	-9.37766
▁पाल	-9.37945
▁पैर	-9.38038
▁बॉल	-9.38041
पो	-9.38057
▁न्यू	-9.38064
▁बेटे	-9.3839
▁खिलाड़	-9.38444
▁संस्था	-9.38556
▁बनी	-9.38646
डिय	-9.38672
▁बर्	-9.38674
▁सामन	-9.38779
▁चढ़	-9.3882
ॉक	-9.38852
▁सू	-9.39029
र्द	-9.39209
|	-9.39497
तौर	-9.3951
प्रकाश	-9.39533
▁तोड़	-9.39643
द्र	-9.39773
म्ब	-9.39814
पोर्ट	-9.39854
स्था	-9.40076
मंत्री	-9.40331
▁नही	-9.40342
▁चुन	-9.4035
युक्त	-9.40383
च्च	-9.40498
▁डो	-9.40504
र्जन	-9.40546
भाव	-9.40624
j	-9.40625
›	-9.40625
▁आंदोलन	-9.40625
▁कर्मचारी	-9.40625
▁गतिविधिय	-9.40625
▁फिलहाल	-9.40625
▁बदमाश	-9.40625
▁समीक्षा	-9.40625
▁सामाजिक	-9.40625
▁लक्ष्य	-9.40625
▁नवंबर	-9.40625
▁अभिनेत्री	-9.40626
▁तलाश	-9.40627
▁मनीष	-9.40627
▁तरीके	-9.40629
▁चोट	-9.4063
▁थोड़	-9.40633
▁प्यार	-9.40633
▁नौकरी	-9.40637
▁एडमि	-9.40642
▁तकनीक	-9.40645
▁फसल	-9.40652
▁चार्ज	-9.40653
▁हालात	-9.40653
▁धारा	-9.4067
▁चंद्र	-9.407
▁राज्यपाल	-9.40714
▁सहमत	-9.40774
▁लड़ाई	-9.40796
▁अभिन	-9.4087
▁अर्थ	-9.40881
▁कृष्ण	-9.40902
▁चै	-9.40954
▁अंक	-9.41028
▁कितन	-9.41168
िग	-9.41177
▁दिखाई	-9.41263
पुरा	-9.4127
▁40	-9.41303
▁विधि	-9.41352
▁गति	-9.41363
तिथि	-9.41637
▁जुट	-9.41669
▁सबक	-9.41682
▁पुल	-9.42123
▁चाहत	-9.42147
▁फ़	-9.42212
▁रखत	-9.42272
ोनी	-9.42429
▁आंकड़े	-9.4253
िटर	-9.42771
▁लेना	-9.42809
▁वाद	-9.42912
मेश	-9.43091
▁लेत	-9.43172
▁क्षेत्रों	-9.43386
▁जैस	-9.43798
▁कर्म	-9.43818
ष्ठ	-9.43909
लैंड	-9.43925
मूर्ति	-9.43984
नाक	-9.4415
ोज	-9.44419
चित	-9.44424
लिंग	-9.44483
▁22	-9.4466
ाइड	-9.44687
▁सवार	-9.44712
me	-9.45099
्ली	-9.45105
▁बेच	-9.45221
ूट	-9.45285
मेर	-9.45668
िकल	-9.45681
20	-9.45942
▁मंत्र	-9.46072
▁अभि	-9.46176
▁मिश्र	-9.4619
25	-9.46273
▁मच	-9.46326
▁फल	-9.46607
T	-9.46617
▁फीस	-9.46857
साथ	-9.46869
▁पं	-9.46895
िहार	-9.4692
▁संचाल	-9.47045
रोध	-9.47291
▁चौक	-9.47341
दीप	-9.47449
बाद	-9.47511
न्द	-9.47621
▁Ho	-9.47763
▁परिवहन	-9.47768
▁मंजूरी	-9.47768
▁व्यवसाय	-9.47768
▁सुप्रीम	-9.47768
▁निर्वाच	-9.47768
▁परिवर्तन	-9.47768
▁वायरल	-9.47768
▁समुदाय	-9.47768
▁सामग्री	-9.47768
▁ऊंच	-9.47768
▁ठाकुर	-9.47768
▁अखिल	-9.47769
▁जैन	-9.47771
▁ट्रांस	-9.47772
▁निभा	-9.47775
▁चिंता	-9.47775
▁फरार	-9.47782
▁विशेषज्ञ	-9.47782
▁एंटी	-9.47784
▁मुख्यालय	-9.47786
▁कोहली	-9.47799
▁नोटिस	-9.47801
ारोह	-9.47803
▁आतंकवाद	-9.47807
▁मार्च	-9.47854
▁36	-9.4794
▁स्वाग	-9.47942
▁पार्क	-9.47943
▁गये	-9.47948
▁तुर	-9.4796
▁धर	-9.47961
▁टॉ	-9.47962
ऊ	-9.47976
रंभ	-9.48005
▁रूस	-9.48005
▁जंगल	-9.48073
▁वर्ग	-9.48097
▁रोज	-9.48287
डियो	-9.48354
▁अति	-9.48443
▁मजदूरों	-9.48495
▁21	-9.48748
▁D	-9.49036
▁नकल	-9.49043
▁केरल	-9.49079
▁जु	-9.49165
▁गू	-9.49317
▁पुर	-9.49391
▁किलो	-9.49437
▁छोटी	-9.49576
▁कॉल	-9.49591
▁पीड़िता	-9.49668
ासन	-9.49676
▁ड्र	-9.49796
▁S	-9.49869
न्ना	-9.50111
▁गह	-9.50142
▁संप	-9.503
▁दिव	-9.50329
ाधिकार	-9.50457
▁नीत	-9.50501
▁आती	-9.50508
ईडी	-9.50767
▁गोली	-9.50843
▁कराए	-9.50848
ंतर	-9.50892
श्म	-9.50987
▁प्रवक्त	-9.51053
45	-9.51115
▁नाग	-9.51518
▁जि	-9.5154
▁अमर	-9.51599
▁साध	-9.51797
▁कमर	-9.5189
▁पल	-9.52047
वर्स	-9.52058
▁199	-9.52256
▁स्टे	-9.52269
st	-9.52509
▁खाने	-9.5254
ॉन्	-9.52768
ावत	-9.53386
▁बोले	-9.53387
▁35	-9.53769
▁दु	-9.53818
▁हि	-9.54105
अलग	-9.54349
दूर	-9.54382
▁जोर	-9.5445
घाट	-9.54466
▁लाखों	-9.54887
भारत	-9.54928
सीआर	-9.5511
ैनिक	-9.55134
▁फी	-9.55194
▁ट्रे	-9.55269
▁टो	-9.55278
ंदर	-9.55407
f	-9.55417
ंकन	-9.55431
G	-9.55449
▁अप्रैल	-9.5546
▁इंतजार	-9.5546
▁चिकित्सक	-9.5546
▁डाउनलोड	-9.5546
▁मजबूर	-9.5546
▁मुस्लिम	-9.5546
▁हथियार	-9.5546
▁अवैध	-9.5546
▁झारखंड	-9.5546
▁फरवरी	-9.5546
▁आकर्ष	-9.55461
▁आर्थिक	-9.55461
▁इंस्पेक्टर	-9.55461
▁संवाददाता	-9.55461
▁स्वयं	-9.55461
▁एटीएम	-9.55461
ेटिव	-9.55461
▁सिनेमा	-9.55461
▁प्रसाद	-9.55462
▁तहसील	-9.55462
▁उदय	-9.55463
▁एक्सप्रेस	-9.55463
▁सब्ज	-9.55465
▁ईरान	-9.55468
ंस्कृति	-9.55469
▁क्लि	-9.55469
कलेक्टर	-9.5547
▁दुष्कर्म	-9.5547
▁छाप	-9.55479
▁समीप	-9.55482
▁स्नान	-9.55491
▁उतार	-9.55493
▁वनडे	-9.55503
▁दायर	-9.55505
▁अकाउंट	-9.55508
▁संदेश	-9.55511
▁छूट	-9.55512
▁नीच	-9.55518
▁निग	-9.55548
गो	-9.55553
▁खुलास	-9.55556
▁साझ	-9.55566
दाय	-9.55571
▁90	-9.55585
▁इंस्ट	-9.55586
ाचार	-9.55595
▁देगा	-9.55596
▁वैज्ञानिक	-9.55601
▁मिलेगी	-9.5561
▁नाराज	-9.55644
▁गर्	-9.55651
▁ट्वीट	-9.55681
▁मालिक	-9.55684
▁डीएम	-9.55686
▁वार्ता	-9.55692
▁महिलाएं	-9.55694
▁आनंद	-9.55717
▁स्टेट	-9.55735
▁आएगी	-9.55736
ायात	-9.5574
▁जिंदगी	-9.55767
▁दस्त	-9.55825
रामद	-9.56198
▁नश	-9.56349
▁नदी	-9.5636
▁जॉ	-9.56375
▁मार्ग	-9.56405
ंद्र	-9.56445
▁मानन	-9.56528
▁वर्त	-9.56558
र्ग	-9.56618
▁गल	-9.5674
▁बातें	-9.56805
▁जिम्मेदारी	-9.57006
ैक्ट	-9.57015
ॉर्ड	-9.57095
▁तीसरे	-9.571
ुप	-9.57143
▁मुह	-9.5735
▁भवन	-9.5741
▁एशिया	-9.57476
▁कला	-9.57501
शांत	-9.57725
▁जला	-9.57737
गैर	-9.57997
▁गहर	-9.58026
▁पाय	-9.58119
▁खड़ा	-9.58168
▁बिग	-9.58349
▁आरक्ष	-9.58655
14	-9.5868
नीय	-9.58687
ेलन	-9.58776
▁कोलक	-9.59156
▁लाइन	-9.5931
▁उठ	-9.59403
▁33	-9.59606
▁थाने	-9.603
▁हवाल	-9.60531
▁60	-9.60643
▁सम्	-9.60932
or	-9.61316
▁सिं	-9.61369
▁आंकड़	-9.61444
प्प	-9.61531
ाऊ	-9.61722
▁संग	-9.61729
▁होम	-9.61736
शल	-9.6179
er	-9.61975
ापुर	-9.62109
िक्स	-9.62183
व्य	-9.62229
▁खेत	-9.62239
B	-9.62668
(	-9.62694
70	-9.62723
काश	-9.62738
▁यात	-9.62753
कोर्ट	-9.62765
टेबल	-9.6277
▁नीति	-9.62942
▁जाम	-9.63105
▁सफल	-9.63139
▁हु	-9.6314
▁प्रोट	-9.63141
10	-9.63157
▁70	-9.63302
▁पारी	-9.63665
▁राष्ट्र	-9.6368
ज्ज	-9.63689
c	-9.63747
दर्श	-9.63757
b	-9.6377
राग	-9.63791
▁उल्लेख	-9.63794
रफ्तार	-9.63794
▁पर्यावरण	-9.63794
▁‘‘	-9.63794
द्योगिक	-9.63794
▁अफ्रीक	-9.63794
▁आनंदवल्ली	-9.63794
▁उर्फ	-9.63794
▁चुनौती	-9.63794
▁चेतावनी	-9.63794
▁त्रिपाठी	-9.63794
▁दिल्‍ली	-9.63794
▁दुर्घटना	-9.63794
▁नजदीक	-9.63794
▁परिणाम	-9.63794
▁माहौल	-9.63794
▁मुखर्जी	-9.63794
▁मोटरसाइकिल	-9.63794
▁शुक्ला	-9.63794
▁स्टूडेंट्	-9.63794
▁स्वर्ण	-9.63794
आईपीएल	-9.63794
कैबिनेट	-9.63794
▁दाखिल	-9.63794
▁भुगत	-9.63794
▁कारोबार	-9.63794
▁शख्स	-9.63795
▁संभव	-9.63795
▁गैस	-9.63795
▁स्वीकार	-9.63797
▁नियंत्र	-9.63797
▁इस्लाम	-9.63798
▁सैंपल	-9.638
▁मुंह	-9.63801
▁पटेल	-9.63802
▁सकेंगे	-9.63804
▁खारिज	-9.6381
▁पुरस्क	-9.63813
▁कोतवाल	-9.63816
▁दूध	-9.63828
▁प्रशिक्षण	-9.63836
▁ऑफिस	-9.63872
ैर	-9.63877
▁संवाद	-9.63918
▁असल	-9.63951
क्रमण	-9.63961
▁जब्त	-9.63988
विज्ञा	-9.63998
▁पटना	-9.64024
▁रचना	-9.64034
▁तहरी	-9.64055
▁पुलिसकर्म	-9.64092
▁बिगड़	-9.64105
▁खाते	-9.64127
▁विजेता	-9.64247
कर्ण	-9.64326
कीय	-9.64433
▁दोष	-9.64571
▁जितन	-9.64575
ियम	-9.64672
▁क्रम	-9.64709
▁विल	-9.6474
धुन	-9.6474
▁इंटरने	-9.64745
िटल	-9.6494
▁सकें	-9.65036
▁रखना	-9.65118
कृति	-9.65227
▁गुम	-9.65229
रिक	-9.65359
▁दह	-9.65452
लट	-9.65593
▁A	-9.65809
▁मश	-9.65882
▁उम्मीदवारों	-9.65981
▁मिस	-9.66019
▁कोच	-9.66189
ट्स	-9.66289
ासत	-9.66539
ुओं	-9.66566
▁फाइन	-9.6657
50	-9.66642
▁टू	-9.66684
इंड	-9.67098
▁निर्	-9.67121
▁आरोपित	-9.67139
ब्ब	-9.67143
ॉर्	-9.67176
▁बुक	-9.67598
धाम	-9.67701
▁शास	-9.67854
▁सर्वे	-9.67957
ाही	-9.68106
▁दान	-9.68154
▁अर्	-9.68235
▁छोट	-9.68299
श्य	-9.69189
▁198	-9.69581
दो	-9.69784
▁मर	-9.70043
ात्मक	-9.70117
▁लॉ	-9.70766
▁ठ	-9.70803
▁पड़े	-9.70871
शान	-9.7091
▁सुर	-9.71065
▁उद्	-9.71113
निश्चित	-9.71729
▁पो	-9.7179
सिंह	-9.72044
रूप	-9.72278
▁खाल	-9.72288
देश	-9.72326
U	-9.72481
▁अधि	-9.72512
▁जिसमे	-9.72592
-20	-9.72656
▁लि	-9.727
K	-9.72885
▁युवत	-9.72885
▁उल्लंघन	-9.72885
▁ऊर्जा	-9.72885
▁प्रतियोगिता	-9.72885
▁प्रावधान	-9.72885
▁मुकदमा	-9.72885
▁संयोज	-9.72885
विभाजन	-9.72885
▁अनिवार्य	-9.72885
▁बच्‍च	-9.72885
▁लॉन्च	-9.72885
▁शुल्क	-9.72885
▁स्पष्ट	-9.72885
▁इच्छा	-9.72885
▁संपत्ति	-9.72885
▁सावधान	-9.72885
▁उन्‍ह	-9.72885
▁जोधपुर	-9.72885
▁निर्यात	-9.72886
▁धमकी	-9.72886
▁स्कोर	-9.72886
▁दिक्कत	-9.72886
▁शायद	-9.72886
▁निर्माता	-9.72887
▁जयंती	-9.72887
▁उधर	-9.72888
▁घुस	-9.72888
▁टाटा	-9.72889
▁गुजरात	-9.7289
▁प्रचार	-9.7289
▁दर्शक	-9.7289
▁ट्रैक्टर	-9.72892
ेक्शन	-9.72892
▁तनाव	-9.72893
▁छक्क	-9.72893
▁आर्मी	-9.72894
▁विनो	-9.72901
▁इतिहास	-9.72902
▁कालेज	-9.72909
▁आलम	-9.72931
▁कानपुर	-9.72946
▁ट्व	-9.72947
▁जोशी	-9.72956
▁होटल	-9.7296
▁फर्जी	-9.72969
▁एजेंसी	-9.72981
ed	-9.72983
▁माइक	-9.72988
्यादा	-9.72998
▁संगीत	-9.73005
▁कपड़	-9.73031
▁रहेंगे	-9.73031
▁जानिए	-9.73073
▁अभ्य	-9.73075
▁बैग	-9.73131
▁गोवा	-9.73131
▁लै	-9.73139
▁किनार	-9.73156
▁निरीक्षक	-9.73162
▁विद्यालय	-9.73165
मंद	-9.73253
▁अंदाज	-9.73272
▁अहमद	-9.73285
▁कर्ज	-9.73361
▁चलाया	-9.73387
▁गोपाल	-9.73419
▁लगाते	-9.73456
▁अंतर्	-9.73656
▁मृतक	-9.73693
▁अभिनेत	-9.73742
▁अक्ष	-9.73755
आरटी	-9.73825
▁1.	-9.73874
▁सिद्ध	-9.73883
▁मेल	-9.73935
▁उपाय	-9.73975
क्कर	-9.741
लीज	-9.74158
वाया	-9.74268
ha	-9.74348
▁T	-9.74383
▁व्यक्त	-9.74446
▁चाल	-9.7445
▁दाद	-9.74488
▁टै	-9.74559
-3	-9.74785
▁एकत्र	-9.74855
▁/	-9.7551
▁डेट	-9.75922
▁ग्रह	-9.75955
ॉक्स	-9.7605
ाउंड	-9.7614
80	-9.76225
▁28	-9.76327
ूंगा	-9.76435
▁ताल	-9.76491
▁पाई	-9.7651
▁2.	-9.76602
ांश	-9.77394
▁जानत	-9.77785
21	-9.77847
ढ़ी	-9.77943
ूर्ति	-9.78067
▁डाला	-9.78306
▁बेहतरी	-9.78339
▁जोन	-9.78591
▁सुनी	-9.78651
धिकारि	-9.78983
"	-9.79021
▁कोर्स	-9.79099
▁1,	-9.79254
▁जमान	-9.79356
▁रज	-9.79622
▁बदले	-9.79661
▁चु	-9.79719
बाल	-9.7977
▁खतरे	-9.79904
▁अनि	-9.79955
▁शिवान	-9.80209
▁अंग	-9.80521
▁खाना	-9.80642
भाषा	-9.81178
▁बम	-9.81213
▁भक्त	-9.81214
▁सीन	-9.81264
▁खर	-9.8133
▁एट	-9.81498
▁गरीब	-9.81753
कश्मीर	-9.81769
▁समाप्	-9.81781
मार्ग	-9.81807
▁परिजन	-9.8183
▁धीरे	-9.82184
▁जुटा	-9.82491
वां	-9.82543
्रम	-9.82599
▁स्टार	-9.82632
ग्री	-9.82665
▁हेम	-9.82674
L	-9.82727
कॉल	-9.8277
k	-9.82826
धारण	-9.82858
—	-9.82885
▁News	-9.82885
▁गैंग	-9.82885
​	-9.82885
▁अध्ययन	-9.82885
▁आक्रोश	-9.82885
▁इंदौर	-9.82885
▁इलाहाबाद	-9.82885
▁गुरुद्वार	-9.82885
▁चेन्नई	-9.82885
▁ज्ञापन	-9.82885
▁बढ़ोतरी	-9.82885
▁बुजुर्ग	-9.82885
▁मुलाकात	-9.82885
▁मेहनत	-9.82885
▁रिजर्व	-9.82885
▁संशोध	-9.82885
▁हिस्से	-9.82885
▁अधिनियम	-9.82885
▁कौन	-9.82885
▁गुस्सा	-9.82885
▁परीक्षण	-9.82885
▁फायदा	-9.82885
▁अरविंद	-9.82885
▁हफ्त	-9.82885
▁पेंटिंग	-9.82885
▁संस्कार	-9.82885
▁बांग्लादेश	-9.82886
▁पूजन	-9.82887
▁आदित्य	-9.82887
▁छावन	-9.82888
पत्र	-9.82888
▁सूरत	-9.82889
▁श्रद्धालु	-9.82889
▁कामकाज	-9.8289
▁वकील	-9.82891
▁ब्रा	-9.82893
▁हायर	-9.82893
एप	-9.82898
▁निपट	-9.82899
▁जिलाधिकार	-9.82906
▁गणेश	-9.82907
▁जापान	-9.82908
▁बरसात	-9.82909
▁प्रोग्राम	-9.8291
ct	-9.8291
▁रिश्त	-9.82911
▁वसूल	-9.82912
▁धनबाद	-9.82912
▁सुरेश	-9.82914
▁संभाल	-9.82915
▁मकान	-9.82916
▁प्रसार	-9.82918
▁संबोध	-9.82919
▁उत्साह	-9.82926
▁विदेश	-9.82936
दिरा	-9.82937
▁दुष्	-9.82944
▁स्टाफ	-9.82951
▁दर्द	-9.82968
▁मानसि	-9.82969
▁लाइफ	-9.82972
▁गोल्ड	-9.82984
▁सलाहकार	-9.82999
ार्मिक	-9.83013
▁शोध	-9.83057
▁पेड़	-9.83067
मेट	-9.83088
▁कैप्	-9.83099
▁सियास	-9.831
एक्शन	-9.83145
▁उठाया	-9.83173
▁अनुमान	-9.83256
तिक	-9.83287
▁दुर्	-9.83314
▁टिक	-9.83319
▁आजम	-9.83358
विड	-9.83375
▁मानते	-9.83411
▁खिल	-9.83449
व्यू	-9.83479
▁अपर	-9.83482
▁नेहा	-9.8349
▁पहलवान	-9.83531
▁पुरुषों	-9.83563
▁निर	-9.83595
▁लीग	-9.83629
▁धो	-9.83667
▁तुल	-9.83719
▁प्रबंध	-9.83754
▁देखें	-9.83765
ाची	-9.83895
▁फंस	-9.83908
▁मस्त	-9.83968
▁सिटी	-9.84001
रेंज	-9.84019
▁मीट	-9.84055
▁भाषा	-9.84062
फ्ल	-9.84066
▁निश्चित	-9.84225
ाढ़े	-9.84226
▁म्या	-9.84348
▁हैरान	-9.84435
▁नेपाल	-9.84713
▁पप्	-9.84761
घर	-9.84774
म्भ	-9.84898
▁पट	-9.8493
▁नील	-9.85083
▁पेट	-9.85106
वर्त	-9.85133
▁डिज	-9.85136
शुद्ध	-9.852
बाजी	-9.85217
▁मिलत	-9.85227
त्व	-9.85298
▁लु	-9.85343
▁चुना	-9.85391
▁दर्जन	-9.85412
कोट	-9.85467
▁चम	-9.85483
38	-9.85616
▁समान	-9.86068
▁चौकी	-9.86227
▁किये	-9.86253
▁मिलती	-9.86353
पीड	-9.86506
▁चाहे	-9.86608
ालय	-9.86618
▁खां	-9.86791
▁आईं	-9.86842
▁मिन	-9.87001
पुरम	-9.8712
शिया	-9.87189
र्जी	-9.87341
▁खुले	-9.87411
▁गुर	-9.87562
▁27	-9.87652
▁पढ़े	-9.877
क्सर	-9.87865
पट	-9.87918
▁बू	-9.87991
▁बेटा	-9.8816
रिय	-9.88165
▁धान	-9.88606
▁झा	-9.88635
रुख	-9.88706
▁क्ष	-9.88927
िक्र	-9.88929
कथा	-9.89067
▁हिर	-9.89122
▁स्ल	-9.89438
ात्रि	-9.89691
▁साइन	-9.89716
ra	-9.89736
राह	-9.90168
वीर	-9.90171
▁निंद	-9.90181
पीएस	-9.90479
▁हिन्द	-9.90539
▁500	-9.90613
▁जाति	-9.91218
▁महंग	-9.91333
ट्री	-9.91334
▁उड़ा	-9.9136
▁बेड	-9.91455
िये	-9.91539
खला	-9.91564
▁तीसर	-9.91655
▁जिम्मेदार	-9.91783
ावास	-9.91903
▁चोर	-9.92098
ैप	-9.92271
▁रिक्	-9.92314
▁इंडिय	-9.92496
▁आगर	-9.92534
निधि	-9.92587
रेन	-9.92758
J	-9.92813
W	-9.92833
सिद्ध	-9.92848
▁मजदूर	-9.92853
गांव	-9.92909
फोन	-9.92919
पिता	-9.93088
▁समझा	-9.93294
▁सर्ज	-9.93298
▁सिंग	-9.93423
ज्ञ	-9.93691
▁प्ले	-9.93732
▁रवा	-9.93735
भार	-9.93792
श्न	-9.9381
▁उठाए	-9.93811
▁पर्यट	-9.93826
▁वस्तु	-9.9387
अप	-9.93902
रिज	-9.93934
िमंडल	-9.9399
▁हाउस	-9.93993
▁शीर्ष	-9.93996
डायरेक्टर	-9.93996
▁कंप्यूटर	-9.93996
▁टूर्नामेंट	-9.93996
▁तुम्हार	-9.93996
▁नोएडा	-9.93996
▁महानिदेशक	-9.93996
▁मॉडल	-9.93996
▁शब्द	-9.93996
▁शीघ्र	-9.93996
▁संतोष	-9.93996
▁समझौत	-9.93996
▁स्क्रीन	-9.93996
▁हिंदू	-9.93996
▁हिमाचल	-9.93996
▁2011	-9.93996
▁अब्दुल	-9.93996
▁ग्राहक	-9.93996
▁चौधरी	-9.93996
▁तत्काल	-9.93996
▁दंडाधिकार	-9.93996
▁निदेशक	-9.93996
▁मृत्यु	-9.93996
▁महागठ	-9.93996
▁शूटिंग	-9.93996
▁जूझ	-9.93996
▁मारपीट	-9.93996
▁इंग्ल	-9.93997
▁शिवसेना	-9.93997
▁स्वयंसेव	-9.93997
▁मराठ	-9.93998
▁अनुभव	-9.93998
▁संकेत	-9.94
▁मार्केट	-9.94
▁आवाज	-9.94001
▁प्रिंस	-9.94002
▁ठिकान	-9.94002
▁मेहरा	-9.94003
▁फार्म	-9.94003
▁परियोजना	-9.94003
▁इस्तीफ	-9.94005
▁रेफर	-9.94005
▁बहू	-9.94007
▁कामयाब	-9.94007
कल्याण	-9.94007
▁जताई	-9.94008
▁अंडर	-9.94009
▁रक्तदा	-9.94011
▁ट्रॉफी	-9.94012
▁PM	-9.94021
▁बीमारिय	-9.94022
▁इजाज	-9.94025
▁2016	-9.94025
▁घूम	-9.9403
▁पहाड़	-9.94033
▁ऑपरे	-9.94033
▁ऑक्स	-9.94059
▁2021	-9.94059
ब्दी	-9.9406
▁बांध	-9.94062
▁तुम	-9.94062
▁पड़ेगा	-9.94065
बड़	-9.94067
▁गेट	-9.94068
▁सतना	-9.94074
ोषण	-9.94086
▁मित्र	-9.94094
▁धूम	-9.94094
ad	-9.94095
▁ठंड	-9.941
▁कार्यकाल	-9.94102
श्‍व	-9.94104
▁ट्रेंड	-9.94115
▁अपमान	-9.94139
▁रायपुर	-9.94139
▁सिंध	-9.94139
▁अमरीक	-9.9415
▁रिल	-9.94163
चालन	-9.9418
▁आएगा	-9.94187
▁नकद	-9.94202
▁बिल्	-9.94213
▁टेली	-9.94215
▁शिख	-9.94221
▁ब्रि	-9.94288
▁संतु	-9.94295
▁चेक	-9.94319
▁पहुंचाया	-9.94325
▁आइए	-9.94337
▁सिख	-9.94362
▁डीसी	-9.94381
▁बुला	-9.9444
▁बढ़ाया	-9.94446
▁गाइडलाइ	-9.94453
▁फ़ो	-9.94465
▁परिस्थितिय	-9.94469
▁हैदर	-9.94497
▁सांस	-9.94498
▁लोह	-9.94506
▁इनाम	-9.94536
ाणु	-9.94537
▁''	-9.94539
▁पाठ	-9.94557
▁मंच	-9.9461
ध्या	-9.94618
बीर	-9.94636
▁सोना	-9.94663
▁प्रत्याशी	-9.94677
▁नियमित	-9.94707
▁वायु	-9.94757
▁पंच	-9.94816
▁हरि	-9.94844
▁टूट	-9.94931
▁H	-9.9504
▁जनप	-9.95054
▁W	-9.95172
▁फंड	-9.95212
▁सर्द	-9.95218
▁आजादी	-9.95225
्लब	-9.95291
▁कस्ट	-9.95457
▁बैठने	-9.95464
▁दि	-9.95543
जूर	-9.95557
स्पा	-9.95558
हेल	-9.95621
्रिक	-9.95659
ट्रिक	-9.95697
▁गण	-9.95913
▁पोर्ट	-9.96021
एसएस	-9.96243
▁रोहि	-9.96311
▁बाई	-9.96556
46	-9.96723
▁जैसा	-9.96754
▁लाय	-9.97138
▁खेती	-9.97152
▁अर्ज	-9.97289
▁नशा	-9.97343
डिट	-9.97356
.....	-9.97429
बाड़	-9.97676
▁पड	-9.97817
▁कॉ	-9.97879
▁डाय	-9.97898
रेप	-9.98205
▁मुद्दा	-9.98532
मैट	-9.98586
▁बच्चन	-9.98694
▁फाइ	-9.98699
▁मचा	-9.98951
▁महंगा	-9.99082
▁राग	-9.99179
▁रिस	-9.99477
▁निरा	-9.99574
ैली	-9.99926
श्रीनगर	-10.0005
्यूट	-10.0011
▁ओपी	-10.0041
सद	-10.0043
▁निशा	-10.005
ंगुल	-10.0081
30	-10.0086
▁रण	-10.0119
▁बिक	-10.0136
खून	-10.0149
▁ताज	-10.017
▁नाल	-10.0177
in	-10.0182
बीना	-10.0188
त्म	-10.0212
अर	-10.0271
▁डरा	-10.029
26	-10.0371
▁लाइ	-10.0395
सागर	-10.0403
ाइक	-10.0411
▁गर्भ	-10.0412
ग्रस्त	-10.044
रोप	-10.0465
बंद	-10.0487
▁चुप	-10.0502
H	-10.0533
▁आला	-10.0534
विश्वास	-10.0537
ऑ	-10.0537
व्यवस्था	-10.0538
मैं	-10.0541
आइ	-10.0543
▁सीम	-10.0587
▁कटौ	-10.065
▁ज्योति	-10.065
▁विष्णु	-10.065
ाॅर्	-10.065
०	-10.065
▁Bhakti	-10.065
▁अध्यापक	-10.065
▁आशीर्वाद	-10.065
▁एकजुट	-10.065
▁ओडिशा	-10.065
▁खूबसूरत	-10.065
▁छत्तीसगढ़	-10.065
▁जायसवाल	-10.065
▁ड्राइव	-10.065
▁दौड़	-10.065
▁मध्यप्रदेश	-10.065
▁वेबसाइट	-10.065
▁श्रद्धांजलि	-10.065
▁संज्ञान	-10.065
▁सिक्योरिटी	-10.065
▁सौद	-10.065
▁इकाइय	-10.065
▁क्रांति	-10.065
▁चिकित्सा	-10.065
▁डीजीपी	-10.065
बहादुर	-10.065
▁आलोचना	-10.065
▁इन्ही	-10.065
▁ईमानदार	-10.065
▁मुफ्त	-10.065
▁शैक्ष	-10.065
क्राइम	-10.065
▁ड्यूटी	-10.065
ुद्दीन	-10.065
▁एंट्री	-10.065
▁पात्रता	-10.065
▁हनुमा	-10.065
▁डेस्क	-10.065
▁ज्ञान	-10.065
▁जायेगा	-10.065
▁काउंस	-10.065
▁फोर्स	-10.065
▁गार्ड	-10.065
ट्ठ	-10.065
▁लापता	-10.065
▁रांची	-10.065
नेटाइज	-10.065
▁विक्रम	-10.065
▁भ्रष्टाचार	-10.065
▁डिफें	-10.065
▁व्यापक	-10.065
▁परंपरा	-10.065
▁बिक्री	-10.065
▁इंसान	-10.065
▁मान्यता	-10.065
▁समर्प	-10.065
बीएसएफ	-10.065
▁मोहन	-10.0651
▁स्पेशल	-10.0651
▁हेल्	-10.0651
▁व्हाट्	-10.0651
▁गुप्ता	-10.0651
▁सूर्य	-10.0651
▁स्मार्ट	-10.0651
▁डिजाइन	-10.0651
▁क्वार	-10.0651
▁ताकत	-10.0651
▁मानवाधिकार	-10.0651
▁फील्ड	-10.0652
▁बहस	-10.0652
▁नेहरू	-10.0652
▁अनुपम	-10.0652
▁शेख	-10.0652
▁प्लांट	-10.0653
जोर	-10.0653
▁तारीफ	-10.0653
गाह	-10.0653
▁अलीगढ़	-10.0653
▁नतीज	-10.0653
▁विकल्प	-10.0654
▁2013	-10.0654
▁महात्म	-10.0654
▁मशीन	-10.0654
▁चरम	-10.0654
▁मूव	-10.0655
शंका	-10.0655
▁मुसलमान	-10.0655
▁क्वि	-10.0657
▁सुंदर	-10.0658
▁अकेल	-10.0658
▁डेढ़	-10.0658
▁कलाकार	-10.0659
▁गुजर	-10.0659
▁हिसा	-10.066
▁सर्विस	-10.066
▁स्टोर	-10.066
▁स्वीकृत	-10.0662
▁इंद्र	-10.0663
▁संपन्न	-10.0665
▁एनपी	-10.0665
▁कविता	-10.0666
▁75	-10.0666
क्लो	-10.0667
▁पाएंगे	-10.0667
▁अत्य	-10.0668
▁प्रतिक्रिया	-10.0669
▁लिंक	-10.067
▁सख्त	-10.067
▁भगत	-10.0671
▁लगेगा	-10.0672
िस्तार	-10.0673
िविल	-10.0674
▁सुपर	-10.0675
▁सेल्फ	-10.0677
▁सुझा	-10.0679
तिमाह	-10.068
रंजन	-10.0684
▁स्टेप	-10.0689
हूर	-10.069
▁प्रवास	-10.0691
▁अमन	-10.0694
▁डेर	-10.0697
▁V	-10.07
▁प्लान	-10.0703
▁यंत्र	-10.0704
▁राजेश	-10.0704
▁पर्यटक	-10.0706
▁एजें	-10.0706
▁करेंगी	-10.0707
▁रुप	-10.0709
स्थल	-10.0715
श्त	-10.0716
▁सेवाओं	-10.0718
r	-10.0719
▁सीख	-10.0719
वेल	-10.073
▁निराश	-10.0731
▁फॉर्म	-10.074
सलमान	-10.0743
ईश्वर	-10.0746
रीवाल	-10.075
▁आलो	-10.0752
बूत	-10.0758
▁ठाक	-10.0767
म्बर	-10.0771
▁होंगी	-10.0779
▁कॉम	-10.0786
▁संचालन	-10.0788
▁पैक	-10.0794
▁बहाल	-10.08
▁गरीबों	-10.08
▁लेख	-10.0816
▁पंत	-10.0823
▁वाट	-10.0841
re	-10.0842
▁रेट	-10.0846
▁लंग	-10.0848
एँ	-10.0891
कॉप	-10.0892
▁F	-10.0912
▁जानकर	-10.0917
▁गान	-10.0941
एगा	-10.0944
वेस्ट	-10.0976
संग	-10.0983
▁छवि	-10.104
प्रिय	-10.1044
▁जिम	-10.1047
▁स्ट्र	-10.1051
▁ढा	-10.1057
▁आंस	-10.1069
▁संस्थान	-10.1074
मार्ट	-10.1076
टीआई	-10.111
▁माय	-10.1182
▁तिर	-10.1183
चौथ	-10.1184
थै	-10.124
▁खाद	-10.1262
▁आश्व	-10.1265
सेज	-10.1272
▁चाक	-10.1309
घात	-10.134
▁बैन	-10.1356
▁जानकार	-10.1357
▁आईड	-10.1378
▁उड़ान	-10.1447
▁दू	-10.1483
फिक	-10.1484
▁नोटबं	-10.1497
मैन	-10.1513
न्द्र	-10.1535
ौरव	-10.1564
धीर	-10.1575
ुष	-10.1612
▁नाक	-10.1617
▁ट्रैक	-10.1652
निस	-10.1654
ni	-10.1687
te	-10.1712
व्याप	-10.1727
▁दास	-10.1769
▁सिम	-10.182
वैस	-10.1827
▁गेंदबाज	-10.1858
▁ओप	-10.1859
▁सर्	-10.1864
▁बहु	-10.1866
▁मिश	-10.1867
▁प्रतिभा	-10.1906
त्ता	-10.1939
▁शर्म	-10.1942
▁मृत	-10.1949
ऐ	-10.1963
संघ	-10.1966
संख्या	-10.1967
मुझ	-10.1973
डीजल	-10.1975
रोक्	-10.2008
बिन	-10.2014
ाइय	-10.2022
टेस्ट	-10.2033
लेख	-10.2035
हूं	-10.2036
ट्टी	-10.2046
अपने	-10.205
▁उत्प	-10.2078
%	-10.2078
ihar	-10.2078
x	-10.2078
»	-10.2078
‌	-10.2078
▁इंडस्ट्री	-10.2078
▁उद्देश्य	-10.2078
▁ऋषि	-10.2078
▁औसत	-10.2078
▁कर्नाटक	-10.2078
▁घोटाल	-10.2078
▁चंडीगढ़	-10.2078
▁तालिबान	-10.2078
▁दुल्हन	-10.2078
▁दूल्ह	-10.2078
▁नाबालिग	-10.2078
▁पाउडर	-10.2078
▁पाठ्यक्रम	-10.2078
▁प्रियंका	-10.2078
▁प्रोत्साह	-10.2078
▁बटालियन	-10.2078
▁बिलासपुर	-10.2078
▁ब्राह्मण	-10.2078
▁महासचिव	-10.2078
▁शौचालय	-10.2078
▁सर्टिफिकेट	-10.2078
▁सृजन	-10.2078
▁अभिभावक	-10.2078
▁आँख	-10.2078
▁आत्महत्या	-10.2078
▁दिग्गज	-10.2078
▁वारदात	-10.2078
▁उपभोक्ता	-10.2078
▁एग्ज	-10.2078
▁पेयजल	-10.2078
▁2012	-10.2078
▁इजाफ	-10.2078
▁मैनेजर	-10.2078
▁रणनीति	-10.2078
▁अयोध्	-10.2078
▁स्कूट	-10.2078
▁यमुन	-10.2078
▁रिश्तेदार	-10.2078
▁टुकड़	-10.2078
▁क्लास	-10.2078
▁अपडेट	-10.2078
▁योग्यता	-10.2078
▁कनेक्शन	-10.2078
▁पेंशन	-10.2078
▁ब्रेक	-10.2078
▁भिड़	-10.2078
▁शर्त	-10.2078
▁अनूप	-10.2078
▁बराबर	-10.2079
▁समाधान	-10.2079
▁हल्द	-10.2079
▁इधर	-10.2079
▁शुरूआत	-10.2079
▁उद्यम	-10.2079
▁पंडित	-10.2079
▁पतंग	-10.2079
▁खींच	-10.2079
▁अज्ञा	-10.2079
▁विवेक	-10.2079
▁दुबे	-10.2079
्टिव	-10.2079
भूषण	-10.2079
▁सक्षम	-10.2079
▁मास्टर	-10.2079
▁दशक	-10.2079
▁अंबा	-10.2079
▁आचार	-10.2079
▁प्राधिकर	-10.2079
▁दर्शन	-10.208
▁अमृतसर	-10.208
▁नायक	-10.208
▁इंटरनेशनल	-10.208
।’’	-10.208
▁Ap	-10.208
▁जिम्म	-10.208
कल्प	-10.208
एनडीए	-10.208
िपार	-10.2081
▁यूरोप	-10.2081
ob	-10.2082
▁अंजा	-10.2082
▁Rea	-10.2082
▁कूद	-10.2082
15	-10.2083
▁रजिस्ट्र	-10.2083
▁वर्मा	-10.2084
sh	-10.2084
▁शिफ्ट	-10.2085
▁आश्र	-10.2085
▁कार्यभार	-10.2085
▁सराहन	-10.2085
▁कॉपी	-10.2086
▁हेली	-10.2086
▁पदार्थ	-10.2086
▁नमक	-10.2087
▁बाधा	-10.2088
ाकपा	-10.2088
विता	-10.2088
▁उन्हो	-10.2089
▁डाटा	-10.209
▁विवाह	-10.2092
▁बनारस	-10.2093
फ्रेंड	-10.2093
▁तत्व	-10.2094
▁गंगा	-10.2097
ुझा	-10.2098
▁कमांड	-10.2099
▁रेग	-10.2099
▁असफल	-10.2101
▁प्रश्न	-10.2101
▁रजनी	-10.2102
▁प्रोजेक्ट	-10.2106
▁शरण	-10.2106
▁रिहा	-10.2106
▁महाराज	-10.2107
▁नारे	-10.2108
▁डीए	-10.211
▁लेंगे	-10.2113
्यूम	-10.2116
▁मेरठ	-10.2118
चेंज	-10.2123
▁विध	-10.2123
▁व्यवहार	-10.2124
पक्ष	-10.2124
वंश	-10.2127
▁बोलते	-10.2134
▁लड़किय	-10.2137
▁दाह	-10.2142
▁काउंट	-10.2143
▁बीबी	-10.2143
▁खोज	-10.2143
▁रक्षा	-10.2144
▁हंगामा	-10.2144
▁पहनन	-10.2145
पाई	-10.215
▁बाबू	-10.215
▁लाए	-10.2152
▁कार्यकार	-10.2158
▁चंद	-10.2158
▁मटर	-10.2159
▁जहर	-10.2162
▁अफ	-10.2164
▁उतन	-10.2166
▁अवस्थ	-10.2169
ैया	-10.2171
मणि	-10.2173
▁बारीक	-10.2175
▁कैश	-10.2176
▁कुर्स	-10.218
▁नीम	-10.2181
▁सम्मानित	-10.2187
गति	-10.22
▁डीजल	-10.2202
▁करवाया	-10.2204
▁लीड	-10.2227
मांड	-10.2232
▁J	-10.2235
▁लाइट	-10.2237
▁बहुम	-10.2246
ॉफी	-10.2246
▁हुय	-10.2247
▁बस्त	-10.2272
▁समर्थक	-10.2277
ंकज	-10.2287
▁वेस्ट	-10.229
ग्न	-10.2296
▁वोटर	-10.2313
लिस्ट	-10.2318
▁चाह	-10.2322
रीब	-10.2365
केगा	-10.2381
▁रेड	-10.2385
ma	-10.2401
▁रेप	-10.2406
देन	-10.2419
▁मार्क	-10.242
डीआर	-10.2432
प्रत्यक्ष	-10.245
▁अन्न	-10.2453
ँच	-10.2454
▁जंग	-10.2462
▁हिंसा	-10.2501
at	-10.2513
डाल	-10.2521
▁उड़	-10.253
र्ट्स	-10.2573
प्रीत	-10.2589
▁भूल	-10.261
▁शॉ	-10.2659
▁जानकारिय	-10.2679
न्‍य	-10.2695
बैक	-10.2697
ाणा	-10.2707
▁गन्न	-10.2725
लैक	-10.2774
▁भार	-10.2783
रीफ	-10.2818
▁बचत	-10.2827
▁ऐप्	-10.2827
▁माफ	-10.2834
▁झु	-10.2838
▁फॉर	-10.2845
क्ति	-10.2853
▁हिल	-10.2877
▁अमरि	-10.2923
▁माम	-10.295
55	-10.2979
▁150	-10.299
▁स्वाम	-10.3001
▁मार्	-10.31
▁जड़	-10.3125
▁गहन	-10.3142
▁साधन	-10.3158
भु	-10.3197
▁52	-10.3199
▁वॉर	-10.3217
▁कमिट	-10.3233
▁वर्	-10.3234
ूली	-10.3318
en	-10.3337
ंपल	-10.3356
ुद्ध	-10.3401
▁42	-10.3434
मंत्र	-10.346
▁प्रस्तुति	-10.3462
13	-10.3488
र्तन	-10.3507
47	-10.3527
▁Pr	-10.3527
ओमी	-10.3591
फॉर्म	-10.3628
वायु	-10.3629
▁पुरुष	-10.363
योजना	-10.3633
विधान	-10.3635
वर्ष	-10.3635
जगह	-10.3635
विजय	-10.365
फेल	-10.3657
▁शिका	-10.3657
फाइन	-10.3664
▁प्रतीक	-10.3674
▁सहार	-10.3676
साइड	-10.3691
ाधिक	-10.3693
▁प्ला	-10.3701
सुन	-10.3706
पेट	-10.3707
राज्य	-10.3723
द्घ	-10.3727
▁48	-10.3738
ro	-10.3739
▁स्पे	-10.3744
harat	-10.3745
३	-10.3745
▁ऋत	-10.3745
▁पहुँच	-10.3745
▁इंतजाम	-10.3745
▁एक्सरसाइज	-10.3745
▁कंट्रोल	-10.3745
▁जालंधर	-10.3745
▁डेब्यू	-10.3745
▁द्विवेदी	-10.3745
▁पृष्ठभूमि	-10.3745
▁फैक्ट्रिय	-10.3745
▁बेगूसराय	-10.3745
▁मौल	-10.3745
▁वाराणसी	-10.3745
▁विधेयक	-10.3745
▁विशिष्ट	-10.3745
▁श्रीवास्तव	-10.3745
▁संघर्ष	-10.3745
▁सप्लाई	-10.3745
▁साहिब	-10.3745
▁सिद्दीकी	-10.3745
▁सिलसिल	-10.3745
▁सीसीटीवी	-10.3745
▁अंग्रेज	-10.3745
▁अरुण	-10.3745
▁एसडीएम	-10.3745
▁धन्यवाद	-10.3745
▁ब्रह्म	-10.3745
▁भिजवा	-10.3745
▁वास्तव	-10.3745
▁विश्लेष	-10.3745
▁स्थिर	-10.3745
▁अपलोड	-10.3745
▁आपत्ति	-10.3745
▁कोलेस्ट्र	-10.3745
▁जहाज	-10.3745
▁प्रेरणा	-10.3745
▁मनमोह	-10.3745
▁सक्रिय	-10.3745
▁समुद्र	-10.3745
▁सुपरस्टार	-10.3745
▁भुवन	-10.3745
▁साजिश	-10.3745
▁मोटाप	-10.3745
▁क्रॉस	-10.3745
▁बुद्धि	-10.3745
▁कैलाश	-10.3745
▁लक्षण	-10.3745
▁इमरान	-10.3745
▁जोखिम	-10.3745
▁ब्लैक	-10.3745
▁पिटाई	-10.3745
▁पलायन	-10.3745
▁Hindi	-10.3745
▁निधन	-10.3745
▁प्रोडक्	-10.3745
▁भागलपुर	-10.3745
वेन्यू	-10.3745
▁छुट्ट	-10.3745
▁विद्य	-10.3745
▁ठहरा	-10.3745
▁संजीव	-10.3745
ुख्यात	-10.3745
▁सूरज	-10.3745
▁कार्यवाही	-10.3745
▁दीक्षित	-10.3745
ुग्ग	-10.3745
▁भागीदार	-10.3745
▁पुनर्वास	-10.3745
▁जबलपुर	-10.3745
▁डिमरी	-10.3745
▁श्याम	-10.3745
▁विफल	-10.3745
▁तृतीय	-10.3745
▁साहब	-10.3745
▁वंचित	-10.3745
▁चैनल	-10.3746
▁विवि	-10.3746
▁जामुन	-10.3746
▁रणवीर	-10.3746
▁एसिड	-10.3746
▁भीषण	-10.3746
▁मेहता	-10.3746
▁रत्न	-10.3746
▁हड़कंप	-10.3746
▁वर्ल्ड	-10.3746
▁इराक	-10.3746
▁स्वच्छ	-10.3746
ing	-10.3746
▁नाटक	-10.3746
▁जनरल	-10.3747
▁नॉन	-10.3747
▁स्वतंत्र	-10.3747
▁संवेदन	-10.3748
▁झटक	-10.3748
▁सेक्टर	-10.3748
▁निर्भर	-10.3748
▁नक्सल	-10.3748
▁अहमदाबाद	-10.3748
▁नाकाम	-10.3748
▁पड़ोस	-10.3749
▁ब्रांच	-10.3749
ह्न	-10.3749
▁अनुकूल	-10.375
ide	-10.375
▁सरोज	-10.3751
तंत्र	-10.3751
▁यश	-10.3752
▁दर्शा	-10.3752
▁संकल्प	-10.3752
▁बांटन	-10.3753
▁बूथ	-10.3753
▁रेखा	-10.3754
▁बेरोजगार	-10.3754
▁सितार	-10.3754
▁जहरील	-10.3754
क्षेप	-10.3754
▁पांडेय	-10.3756
▁चक्कर	-10.3756
▁कोविंद	-10.3757
▁आयुष	-10.3757
▁दिये	-10.3757
ियत	-10.3758
शुद	-10.3758
▁अरब	-10.3758
▁बुलाया	-10.3759
▁गुहार	-10.3761
▁कार्यपाल	-10.3761
so	-10.3761
▁दुख	-10.3762
▁उत्सव	-10.3763
▁मोर्च	-10.3763
le	-10.3763
▁डीटी	-10.3764
▁पंजी	-10.3764
▁महादेव	-10.3765
▁गवाह	-10.3765
▁पैकेट	-10.3765
▁प्रशंसक	-10.3768
▁अनुदान	-10.3769
▁रज्ज	-10.3775
▁शतक	-10.3776
▁कैंट	-10.3778
▁72	-10.3778
▁मसल	-10.3779
▁दिलान	-10.378
▁दबा	-10.3782
▁टैग	-10.3783
▁किस्म	-10.3783
▁बिल्ड	-10.3785
▁64	-10.3785
▁प्लेट	-10.3786
▁रूट	-10.3786
▁सीओ	-10.3788
▁असम	-10.3788
▁भरत	-10.3796
▁फेर	-10.3801
▁अड्ड	-10.3802
▁ठो	-10.3804
▁आयुक्त	-10.3806
▁कम्प	-10.3808
▁घटनाएं	-10.3808
▁सीडी	-10.381
▁छठ	-10.381
▁लेखक	-10.3814
▁दत्त	-10.3814
▁ध्व	-10.3815
▁खमा	-10.3823
▁04	-10.3826
▁आएंगे	-10.3829
▁बिंदु	-10.3836
▁इंच	-10.3837
▁सपोर्ट	-10.3838
वर्ध	-10.3839
▁मजा	-10.3852
▁दूत	-10.3853
बोध	-10.3855
▁आपदा	-10.3857
रेख	-10.386
▁चाय	-10.3866
▁दिलात	-10.387
▁पहुंचती	-10.3872
चर्स	-10.3876
▁लख	-10.3891
▁गाव	-10.3894
▁परिच	-10.39
▁चित्रक	-10.3905
▁शैल	-10.3953
िंदा	-10.3983
▁कड़ा	-10.4016
स्टाइल	-10.4058
▁भक्ति	-10.4063
▁संरक्ष	-10.4069
▁दाग	-10.4084
▁हटान	-10.4098
ऊद	-10.4099
भद्र	-10.4099
97	-10.4132
सहारा	-10.414
दाबाद	-10.416
▁उद्ध	-10.4163
ामक	-10.4205
▁दंग	-10.4209
पार्ट	-10.4211
ओले	-10.4282
एसए	-10.4327
▁टोल	-10.4338
ाहिद	-10.434
ँ	-10.4375
दांत	-10.4456
पोरे	-10.4588
माग	-10.4649
▁बरस	-10.4691
▁रवि	-10.4791
ak	-10.4798
एसटी	-10.4865
पीओ	-10.4889
फाउंड	-10.4998
▁डोन	-10.5066
भाल	-10.508
▁83	-10.5141
टेड	-10.5163
▁उन्ह	-10.5169
पंप	-10.5228
ri	-10.5368
पोलो	-10.5381
▁पिछल	-10.5484
16	-10.5487
▁निष्	-10.5518
▁आजाद	-10.5527
▁चित्र	-10.557
एलडी	-10.5571
त्रिय	-10.5589
▁सचि	-10.5622
विजेता	-10.563
गोपाल	-10.5633
दुनिया	-10.5634
युद्ध	-10.5649
शक्ति	-10.5655
जेंड	-10.566
▁गाइड	-10.568
न्हा	-10.5699
मूला	-10.5703
▁उत्स	-10.5714
्रमण	-10.5723
िरकत	-10.5725
▁पांडे	-10.5736
िंदगी	-10.5736
▁त्रि	-10.5741
▁ठेके	-10.5743
▁भ्रष्ट	-10.5744
icat	-10.5745
▁हाइड्रो	-10.5745
▁जिहाद	-10.5745
▁ससुराल	-10.5745
com	-10.5745
डब्ल्यू	-10.5745
नाइटेड	-10.5745
प्लेटफार्म	-10.5745
▁अफ़ग़ान	-10.5745
▁अस्थिर	-10.5745
▁एडवोकेट	-10.5745
▁औषधि	-10.5745
▁कुरुक्षेत्र	-10.5745
▁कॉन्फ्रेंस	-10.5745
▁क्लीनिक	-10.5745
▁चैलेंज	-10.5745
▁जुर्माना	-10.5745
▁ज्‍यादा	-10.5745
▁तूफान	-10.5745
▁दबोच	-10.5745
▁दिग्	-10.5745
▁न्यूक्लिय	-10.5745
▁पथराव	-10.5745
▁प्रौद्योगिक	-10.5745
▁प्लस	-10.5745
▁फायदे	-10.5745
▁बेंगलुर	-10.5745
▁मुआवज	-10.5745
▁लापरवाह	-10.5745
▁व्यावसाय	-10.5745
▁श्रीलंका	-10.5745
▁संदर्भ	-10.5745
▁सहूलियत	-10.5745
▁सुर्खिय	-10.5745
▁स्कैन	-10.5745
▁हानिकारक	-10.5745
पुष्प	-10.5745
▁ऑप्श	-10.5745
▁जेएनएन	-10.5745
▁ट्रिब्य	-10.5745
▁दृष्टि	-10.5745
▁मधु	-10.5745
▁मेट्रो	-10.5745
▁राष्‍ट्र	-10.5745
▁लिहाज	-10.5745
▁सर्वेक्षण	-10.5745
▁हिंदु	-10.5745
▁इरफान	-10.5745
▁गेम्स	-10.5745
▁निरोधक	-10.5745
▁कंटेन	-10.5745
▁by	-10.5745
▁नौजवान	-10.5745
▁पूंजी	-10.5745
नारायण	-10.5745
▁उजाला	-10.5745
▁झूठ	-10.5745
▁फ्लोर	-10.5745
▁भैंस	-10.5745
▁रोहतक	-10.5745
सुश्री	-10.5745
▁तारीख	-10.5745
▁क्वालि	-10.5745
ुभाष	-10.5745
▁गुलाब	-10.5745
▁मुखिया	-10.5745
निहाल	-10.5745
▁प्रतिदिन	-10.5745
▁रघुव	-10.5745
▁रिजवी	-10.5745
▁धातु	-10.5745
▁अनोख	-10.5745
▁चौंका	-10.5745
▁तथ्य	-10.5745
▁खुरा	-10.5745
▁धोखा	-10.5745
▁ट्रायल	-10.5745
▁राजपूत	-10.5745
▁शपथ	-10.5745
▁सैन्य	-10.5745
▁खंडवा	-10.5745
▁दावेदार	-10.5745
▁ऐलान	-10.5745
▁देओल	-10.5745
्यूशन	-10.5745
▁जावेद	-10.5745
▁टेलि	-10.5745
▁संचय	-10.5745
.''	-10.5745
▁झंडा	-10.5745
▁आवंट	-10.5745
गुप्त	-10.5745
▁रैंक	-10.5745
▁जताया	-10.5746
स्‍था	-10.5746
▁शाखा	-10.5746
aba	-10.5746
▁लटका	-10.5746
▁सतर्क	-10.5746
▁तरीका	-10.5746
▁संपाद	-10.5746
▁डूब	-10.5746
▁कारखान	-10.5746
▁उपचुनाव	-10.5746
▁शिशु	-10.5747
▁मार्गदर्श	-10.5747
▁व्रत	-10.5747
▁गिराया	-10.5747
▁सिलेंडर	-10.5747
▁शनि	-10.5747
▁रेडियो	-10.5747
▁स्वीड	-10.5747
▁चौराह	-10.5748
▁फेंक	-10.5748
▁भड़क	-10.5748
▁कोहराम	-10.5748
▁सिन्हा	-10.5748
▁छाया	-10.5748
▁कन्या	-10.5748
▁आंगन	-10.5748
▁गोरखपुर	-10.5748
▁एनआइ	-10.5748
▁तिलक	-10.5748
▁उन्नत	-10.5748
▁बसपा	-10.5748
णमू	-10.5749
▁प्रजापत	-10.5749
▁लोकप्रिय	-10.575
▁हराया	-10.5751
▁लाभार्थ	-10.5751
्यर्थ	-10.5751
▁लंदन	-10.5752
ain	-10.5752
go	-10.5752
▁स्वस्थ	-10.5753
▁सम्बंध	-10.5753
▁2015	-10.5753
▁पीजीआ	-10.5753
▁फ्लाइ	-10.5753
▁पर्वत	-10.5753
▁चन्द्र	-10.5754
▁अटल	-10.5754
▁एजेंसिय	-10.5754
▁गोयल	-10.5756
▁फर्नी	-10.5756
▁डबल	-10.5756
▁मिर्च	-10.5756
▁हार्ट	-10.5756
af	-10.5757
od	-10.5757
▁माफिया	-10.5757
▁पार्टियां	-10.5757
▁हेड	-10.5758
▁ग्रीन	-10.5758
▁प्रतिरोध	-10.5759
▁ठगी	-10.5761
यूएई	-10.5761
▁अलवर	-10.5761
ोलियो	-10.5762
▁ख़तर	-10.5762
▁परहेज	-10.5762
▁टैंक	-10.5763
बूझ	-10.5764
▁पेपर	-10.5764
▁प्राथमिकता	-10.5765
▁कैमर	-10.5765
▁घेर	-10.5767
फोड़	-10.5767
▁बैले	-10.5767
▁बुकिंग	-10.5768
▁भेंट	-10.5768
सिपाह	-10.5769
▁उग्र	-10.5769
▁वस्तुओं	-10.5769
▁अमल	-10.577
▁जेनेर	-10.577
▁छीन	-10.577
il	-10.5771
ख्त	-10.5772
▁एसआई	-10.5774
▁पैनल	-10.5777
▁राउंड	-10.5777
▁La	-10.5778
▁देखेंगे	-10.5778
प्रयाग	-10.5779
▁43	-10.5779
र्षि	-10.5783
▁ईस्ट	-10.5785
▁किताब	-10.5785
▁ओला	-10.5786
▁ओनर	-10.5786
▁बरतन	-10.5787
▁लैब	-10.5787
▁बनेगा	-10.579
▁बन्द	-10.5791
▁नैनी	-10.5791
▁बाइड	-10.5792
▁पॉल	-10.5792
▁नज़र	-10.5792
ंतरिक	-10.5793
▁बॉय	-10.5794
▁लिप	-10.5799
▁राज्‍य	-10.5799
एचसी	-10.5809
▁सहकार	-10.5811
▁शशि	-10.5818
▁अटक	-10.5819
▁वाहि	-10.584
▁आजीव	-10.5842
ंदन	-10.5855
ादाद	-10.5857
▁भगा	-10.5859
आरसी	-10.5893
म्‍ब	-10.5895
खालिस्तान	-10.5947
डीजे	-10.5952
Al	-10.5968
शेष	-10.5973
ोधी	-10.5978
▁प्रतिभाग	-10.6009
गिनत	-10.6097
▁न्यूय	-10.6101
▁ट्रै	-10.6114
▁बहा	-10.6171
▁निक्	-10.6173
77	-10.6176
ुत्त	-10.619
वक्ता	-10.6204
▁1.8	-10.6266
▁वैश्	-10.6274
्वाइंट	-10.6388
हिन्दु	-10.6433
पेक्ष	-10.6439
ch	-10.65
निमो	-10.6555
जाए	-10.6582
▁बेचन	-10.6642
जिद	-10.6697
दरबार	-10.6732
स्वामी	-10.6762
रक्षक	-10.6778
▁वेरि	-10.6801
ीजिए	-10.6849
▁कांस्	-10.6921
▁म्यू	-10.6949
िफिके	-10.7089
शासक	-10.7125
▁स्‍व	-10.7179
▁अनुष्	-10.7279
सूच	-10.7397
▁ज्वाइ	-10.7479
350	-10.7529
▁एशिय	-10.7579
▁लगत	-10.7588
कॉम	-10.7665
पीएफ	-10.7753
ho	-10.7765
श्वर	-10.777
्पण	-10.778
एमडी	-10.7854
नाफा	-10.7903
टैक	-10.8037
पेंड	-10.8056
▁Vi	-10.8076
काउंट	-10.8111
गुरु	-10.8113
V	-10.8127
अंदाज	-10.813
कृष्ण	-10.8132
सफाई	-10.8134
वैक्सीन	-10.8134
प्रशासन	-10.8134
पाकिस्तान	-10.8134
प्रधानमंत्री	-10.8134
रक्षा	-10.8135
जहां	-10.8138
▁अश्	-10.8168
वृत्त	-10.8196
हर्ष	-10.821
मूह	-10.8219
▁प्राथमिक	-10.8219
ोविंद	-10.8226
च्छ	-10.8227
नुसार	-10.8229
जिस्ट्रे	-10.8237
तिहास	-10.824
▁स्वास्थ	-10.824
▁अमृत	-10.8242
लेंडर	-10.8243
ाइफल	-10.8245
_	-10.8245
▁कृप	-10.8245
▁चोपड़ा	-10.8245
फैक्‍स	-10.8245
हिष्	-10.8245
१	-10.8245
६	-10.8245
▁चरमपंथ	-10.8245
▁सुल्तान	-10.8245
▁सेनिटाइज	-10.8245
;	-10.8245
Indi	-10.8245
Petrol	-10.8245
í	-10.8245
अतिपिछड़	-10.8245
आईएएनएस	-10.8245
देहरादून	-10.8245
७	-10.8245
▁2302236	-10.8245
▁Chopra	-10.8245
▁Video	-10.8245
▁उपन्यास	-10.8245
▁एजुकेशन	-10.8245
▁ऑलराउंडर	-10.8245
▁कुशवाहा	-10.8245
▁गड्ढ	-10.8245
▁गौतम	-10.8245
▁जनप्रतिनिधि	-10.8245
▁जहानाबाद	-10.8245
▁डायबिटीज	-10.8245
▁डिविलियर्स	-10.8245
▁तमिलनाडु	-10.8245
▁दफ्तर	-10.8245
▁दायित्व	-10.8245
▁देशद्रोह	-10.8245
▁धोखाधड़ी	-10.8245
▁निरीक्षण	-10.8245
▁निर्दलीय	-10.8245
▁निलंब	-10.8245
▁नीदरलैंड	-10.8245
▁पीडि़त	-10.8245
▁बहराइच	-10.8245
▁बिजनौर	-10.8245
▁भयावह	-10.8245
▁मथुरा	-10.8245
▁मैथ्यू	-10.8245
▁वामपंथ	-10.8245
▁विद्रोह	-10.8245
▁शौक	-10.8245
▁संदिग्ध	-10.8245
▁साबुन	-10.8245
▁सूदखोर	-10.8245
▁सैनिटाइज	-10.8245
▁सौगात	-10.8245
▁स्मिथ	-10.8245
▁हृदय	-10.8245
▁हौसल	-10.8245
Q	-10.8245
▁,‘‘	-10.8245
▁कन्हैया	-10.8245
▁ज्वैलर	-10.8245
▁पशुपाल	-10.8245
▁प्रयोगशाला	-10.8245
▁ब्रिटेन	-10.8245
▁राजकुमार	-10.8245
▁रिटायर	-10.8245
▁विक्रेताओं	-10.8245
▁सैकड़ों	-10.8245
	-10.8245
▁अभिव्यक्त	-10.8245
▁एमजीएम	-10.8245
▁कैपिटल	-10.8245
▁झगड़ा	-10.8245
▁नवरात्र	-10.8245
▁बैचलर	-10.8245
▁सक्सेना	-10.8245
▁सैलून	-10.8245
▁उछाल	-10.8245
▁अब्बास	-10.8245
▁तबादला	-10.8245
▁फुलेश्वर	-10.8245
▁रॉयल	-10.8245
▁जुनून	-10.8245
▁पीएलए	-10.8245
▁वास्तु	-10.8245
▁इस्माइल	-10.8245
▁उन्नाव	-10.8245
▁एप्‍प	-10.8245
▁जख्म	-10.8245
▁बाज़ार	-10.8245
▁इलेक्शन	-10.8245
▁अंसारी	-10.8245
▁तेंदु	-10.8245
एएफआरसी	-10.8245
▁Go	-10.8245
आरजेडी	-10.8245
▁ज़रूर	-10.8245
▁भट्ट	-10.8245
▁न्‍याय	-10.8245
▁हिमालय	-10.8245
▁दुबई	-10.8245
▁मुकदमे	-10.8245
▁सीईओ	-10.8245
▁शत्रु	-10.8245
▁पुण्य	-10.8245
▁चूंकि	-10.8245
टाउन	-10.8245
▁वैद्य	-10.8245
▁बेहोश	-10.8245
▁अपेक्षा	-10.8245
▁प्याज	-10.8245
▁स्थानांतर	-10.8245
▁सिद्धांत	-10.8245
▁खंगाल	-10.8245
▁मधुबन	-10.8245
▁बकाया	-10.8245
▁इराद	-10.8245
▁फटकार	-10.8245
▁क्रूर	-10.8246
▁ट्रांज	-10.8246
रिश्च	-10.8246
▁07	-10.8246
▁अधिसूच	-10.8246
▁हजरत	-10.8246
▁अग्नि	-10.8246
▁टंडन	-10.8246
▁इकाई	-10.8246
एएमयू	-10.8246
▁निचल	-10.8246
▁कुंवर	-10.8246
्लेन	-10.8246
▁प्रोसेस	-10.8246
▁नमून	-10.8246
▁गुजार	-10.8246
एनजीटी	-10.8246
▁तलाक	-10.8246
▁रवैय	-10.8247
▁कस्ब	-10.8247
▁वारिस	-10.8247
▁जनजात	-10.8247
ck	-10.8247
▁आंवल	-10.8247
▁फेस्टिव	-10.8247
▁कुचल	-10.8247
▁शास्त्री	-10.8247
▁दिलाया	-10.8247
▁उत्सुक	-10.8247
▁बढा	-10.8248
▁हल्क	-10.8248
▁नेटवर्	-10.8248
▁गंद	-10.8248
▁फूल	-10.8248
▁निर्मल	-10.8248
▁फर्जीवाड़	-10.8248
▁ठेकेदार	-10.8248
▁पूनिया	-10.8248
▁CB	-10.8249
NG	-10.8249
▁फहरा	-10.8249
▁निकट	-10.8249
स्पेक्ट	-10.8249
▁प्रताप	-10.8249
▁पिंक	-10.8249
क्कत	-10.825
▁राष्ट्रवाद	-10.825
▁रुद्र	-10.825
▁झेलन	-10.8251
▁रोमांच	-10.8251
▁दुरु	-10.8251
नुभ	-10.8251
▁पक्क	-10.8252
▁आरबीआ	-10.8252
▁अनजान	-10.8252
▁सुखदेव	-10.8253
rti	-10.8253
▁बिन्द	-10.8253
रुचि	-10.8254
▁स्वास्	-10.8254
फ़्त	-10.8255
▁वेतन	-10.8257
यंक	-10.8257
▁जैक	-10.8258
▁सुप्रिय	-10.8258
▁दुकानदार	-10.8258
्माद	-10.826
▁जबरन	-10.826
▁2008	-10.8262
▁एमएम	-10.8263
▁पार्टिय	-10.8267
प्रदाय	-10.8268
▁सलाम	-10.827
ख्याल	-10.8274
▁ब्रो	-10.8275
▁धुं	-10.8278
दैव	-10.8287
▁गंवा	-10.8287
ंथन	-10.8288
ैलेंट	-10.8293
▁छात्रवृत	-10.8294
▁त्रिवे	-10.8295
▁हलक	-10.83
ग्राफ	-10.8303
हार्द	-10.8304
▁ऊन	-10.8304
कुंभ	-10.8316
भेड़	-10.8325
यंत्र	-10.8327
▁सीरिय	-10.8336
▁खट्ट	-10.8361
DU	-10.8366
▁Na	-10.8368
दुर्गा	-10.8379
वायद	-10.8418
फाइनेंशि	-10.847
2019-20	-10.8481
▁mo	-10.8551
▁मुर्	-10.8577
अगरबत्त	-10.8588
ड्रॉ	-10.864
▁बडा	-10.8646
▁फर्	-10.8667
▁प्रस्तुत	-10.8704
ीआरपी	-10.882
संस्क	-10.8851
चढ़ा	-10.9075
मिटे	-10.9113
क्रोध	-10.9119
िरोह	-10.9351
स्‍वी	-10.9524
▁निरस्त	-10.9545
kar	-10.9623
ral	-10.9703
बाएं	-10.9827
प्रेस	-10.9957
ीमिय	-11.0223
श्वास	-11.0265
ach	-11.0363
ीएमओ	-11.0728
अशांत	-11.0818
मचंद	-11.1015
शियल	-11.1275
▁प्रत्याश	-11.1355
▁हंगाम	-11.1411
▁परिस्थिति	-11.1421
व्यवहार	-11.1461
विद्यालय	-11.1461
निरीक्षक	-11.1464
X	-11.1578
]	-11.1578
ऱ	-11.1578
२	-11.1578
४	-11.1578
५	-11.1578
*	-11.6578
+	-11.6578
Y	-11.6578
z	-11.6578
̈	-11.6578
–	-12.6475
﻿	-12.6567
[	-12.6568
#	-12.6569
ऋ	-12.657
“	-12.6571
ॅ	-12.6572
w	-12.6573
ञ	-12.6574
‘	-12.6575
ृ	-12.6576
ौ	-12.6577
&	-12.6578
@	-12.6578
£	-12.6578
©	-12.6578
ï	-12.6578
ङ	-12.6578
ऩ	-12.6578
८	-12.6578
९	-12.6578
➽	-12.6578
�	-12.6578
🔊	-12.6578
ऌ	-12.6578
औ	-12.6578
