<unk>	0
<s>	0
</s>	0
sz	-0
▁a	-1
el	-2
et	-3
er	-4
en	-5
gy	-6
▁m	-7
▁k	-8
▁1	-9
an	-10
or	-11
at	-12
al	-13
és	-14
ek	-15
ár	-16
▁t	-17
ar	-18
ol	-19
▁A	-20
▁sz	-21
▁(	-22
▁f	-23
▁v	-24
es	-25
ál	-26
ny	-27
ik	-28
em	-29
▁h	-30
▁–	-31
on	-32
in	-33
ás	-34
ak	-35
▁19	-36
eg	-37
ok	-38
os	-39
is	-40
▁n	-41
ez	-42
án	-43
▁az	-44
agy	-45
▁és	-46
▁M	-47
▁l	-48
us	-49
tt	-50
egy	-51
▁S	-52
cs	-53
ai	-54
ül	-55
ég	-56
ban	-57
om	-58
▁el	-59
▁b	-60
▁p	-61
▁B	-62
ér	-63
át	-64
▁K	-65
ág	-66
ad	-67
ész	-68
il	-69
ben	-70
▁2	-71
ít	-72
oz	-73
én	-74
ap	-75
él	-76
▁r	-77
ja	-78
▁kö	-79
szt	-80
ett	-81
it	-82
▁E	-83
agyar	-84
ed	-85
▁s	-86
ét	-87
▁j	-88
ák	-89
▁egy	-90
as	-91
▁I	-92
ul	-93
ép	-94
▁T	-95
bb	-96
ir	-97
▁P	-98
▁d	-99
▁meg	-100
▁H	-101
▁F	-102
ék	-103
▁J	-104
▁G	-105
am	-106
ci	-107
▁18	-108
ott	-109
ov	-110
ör	-111
▁N	-112
▁L	-113
▁magyar	-114
ut	-115
ség	-116
ev	-117
áz	-118
ag	-119
ely	-120
ány	-121
▁20	-122
▁Sz	-123
ró	-124
og	-125
ény	-126
év	-127
ig	-128
aj	-129
▁cs	-130
az	-131
▁(†	-132
▁is	-133
re	-134
▁al	-135
▁C	-136
▁R	-137
ber	-138
od	-139
▁köz	-140
ent	-141
ól	-142
ot	-143
ra	-144
▁fel	-145
ep	-146
▁V	-147
int	-148
ia	-149
ám	-150
ch	-151
olt	-152
▁D	-153
▁(*	-154
áll	-155
▁am	-156
ikus	-157
id	-158
ály	-159
ud	-160
end	-161
szer	-162
iz	-163
ín	-164
ök	-165
um	-166
ab	-167
áb	-168
ur	-169
ta	-170
ől	-171
ság	-172
est	-173
▁g	-174
art	-175
▁ki	-176
▁Az	-177
ni	-178
ász	-179
▁ny	-180
ált	-181
ület	-182
ém	-183
szág	-184
nak	-185
ej	-186
▁szer	-187
ell	-188
▁nem	-189
öl	-190
un	-191
zet	-192
ország	-193
▁í	-194
alm	-195
▁volt	-196
oly	-197
nek	-198
ában	-199
ember	-200
ri	-201
ei	-202
ző	-203
ikai	-204
eh	-205
ogy	-206
▁vár	-207
ran	-208
▁O	-209
▁17	-210
ső	-211
ért	-212
orm	-213
▁200	-214
ön	-215
asz	-216
ató	-217
irály	-218
elv	-219
▁szín	-220
ind	-221
ont	-222
eszt	-223
▁hogy	-224
▁ú	-225
ill	-226
ető	-227
▁z	-228
ös	-229
űv	-230
ött	-231
im	-232
len	-233
19	-234
öz	-235
▁de	-236
▁c	-237
esz	-238
ug	-239
▁er	-240
st	-241
áj	-242
▁év	-243
▁199	-244
▁áll	-245
op	-246
▁király	-247
iv	-248
▁3	-249
ók	-250
▁16	-251
ic	-252
ob	-253
▁ter	-254
▁tör	-255
ező	-256
eb	-257
av	-258
ások	-259
▁Z	-260
ef	-261
ló	-262
▁ut	-263
▁jel	-264
▁gy	-265
ély	-266
dí	-267
▁nagy	-268
kor	-269
▁198	-270
▁ez	-271
éd	-272
áv	-273
ád	-274
▁szám	-275
▁An	-276
ének	-277
▁színész	-278
öv	-279
▁rend	-280
óg	-281
00	-282
▁leg	-283
▁Magyar	-284
émet	-285
▁194	-286
▁ker	-287
uk	-288
ása	-289
ült	-290
iszt	-291
▁nyelv	-292
▁W	-293
zs	-294
tén	-295
▁tart	-296
ében	-297
lov	-298
ése	-299
ang	-300
ázad	-301
erikai	-302
▁197	-303
osz	-304
▁val	-305
elm	-306
ód	-307
▁ak	-308
nő	-309
▁tel	-310
ót	-311
▁an	-312
▁201	-313
ult	-314
ára	-315
▁nev	-316
0-	-317
▁15	-318
▁lak	-319
▁Gy	-320
ort	-321
ények	-322
and	-323
ord	-324
▁„	-325
áci	-326
▁rész	-327
omány	-328
▁első	-329
att	-330
ír	-331
ház	-332
▁Al	-333
alál	-334
ának	-335
▁már	-336
▁század	-337
▁ép	-338
alom	-339
▁elő	-340
▁U	-341
ip	-342
áp	-343
▁192	-344
ív	-345
eti	-346
űvész	-347
ony	-348
lovák	-349
ert	-350
),	-351
enc	-352
iai	-353
▁tö	-354
▁es	-355
ós	-356
▁amerikai	-357
hoz	-358
▁ad	-359
▁ol	-360
▁fő	-361
▁Á	-362
jas	-363
ábor	-364
cia	-365
▁német	-366
).	-367
úl	-368
▁195	-369
▁193	-370
nök	-371
uszt	-372
▁pr	-373
▁író	-374
elő	-375
▁vagy	-376
ond	-377
▁196	-378
olg	-379
uár	-380
ános	-381
je	-382
▁amely	-383
atár	-384
ább	-385
▁id	-386
eny	-387
ete	-388
▁hely	-389
▁Egy	-390
ük	-391
▁más	-392
ént	-393
díjas	-394
tó	-395
▁Cs	-396
▁alap	-397
▁14	-398
▁vég	-399
ható	-400
ják	-401
zi	-402
ilm	-403
aszt	-404
öld	-405
pl	-406
▁tan	-407
ős	-408
nál	-409
lt	-410
▁kat	-411
ver	-412
unk	-413
ván	-414
▁4	-415
ított	-416
▁új	-417
▁191	-418
▁Mar	-419
ajd	-420
rancia	-421
ba	-422
ológ	-423
1-	-424
ve	-425
aság	-426
▁o	-427
ilág	-428
▁em	-429
almaz	-430
ette	-431
olit	-432
ések	-433
▁város	-434
va	-435
▁mely	-436
emények	-437
kez	-438
▁II	-439
▁között	-440
ím	-441
▁kép	-442
te	-443
2)	-444
▁13	-445
▁több	-446
ére	-447
4)	-448
▁ér	-449
árt	-450
3)	-451
ozat	-452
atás	-453
ekt	-454
1)	-455
▁lakos	-456
▁kap	-457
▁ok	-458
▁mű	-459
▁(19	-460
nok	-461
ing	-462
isz	-463
▁szem	-464
árm	-465
▁mind	-466
orr	-467
epül	-468
5)	-469
ebb	-470
▁át	-471
éz	-472
író	-473
0)	-474
▁kül	-475
össz	-476
▁tag	-477
na	-478
▁él	-479
tár	-480
éb	-481
▁5	-482
8)	-483
vár	-484
ozó	-485
alk	-486
ezet	-487
▁12	-488
.,	-489
▁in	-490
6)	-491
▁-	-492
orv	-493
▁két	-494
7)	-495
etlen	-496
▁kor	-497
ális	-498
.)	-499
any	-500
▁ü	-501
▁6	-502
ítás	-503
▁Fer	-504
ter	-505
köz	-506
▁kör	-507
ból	-508
▁fej	-509
▁János	-510
▁Ez	-511
eket	-512
▁történ	-513
ck	-514
▁francia	-515
okat	-516
oh	-517
irod	-518
▁van	-519
▁köv	-520
kö	-521
▁költ	-522
▁Er	-523
▁El	-524
8-	-525
ius	-526
ők	-527
▁mag	-528
erc	-529
▁zen	-530
▁világ	-531
▁mint	-532
által	-533
▁ered	-534
▁össz	-535
ozott	-536
elt	-537
ost	-538
▁nap	-539
ogr	-540
elet	-541
▁tud	-542
▁jelent	-543
▁(1	-544
ából	-545
asznál	-546
rend	-547
old	-548
▁után	-549
obb	-550
▁szület	-551
▁190	-552
zetek	-553
▁polit	-554
gol	-555
▁Bud	-556
ító	-557
nyv	-558
▁Ist	-559
ája	-560
hely	-561
▁i	-562
ika	-563
művész	-564
ist	-565
nap	-566
empl	-567
▁fog	-568
ka	-569
ista	-570
ával	-571
gg	-572
▁film	-573
▁É	-574
▁alk	-575
eng	-576
elem	-577
▁által	-578
▁ír	-579
▁189	-580
▁szerint	-581
ati	-582
all	-583
▁kez	-584
org	-585
▁had	-586
esség	-587
1.	-588
apest	-589
ovább	-590
9)	-591
▁cím	-592
ács	-593
▁eml	-594
▁vált	-595
dés	-596
▁István	-597
▁név	-598
▁foly	-599
▁Jegy	-600
ített	-601
ard	-602
ként	-603
▁ért	-604
ex	-605
form	-606
▁Jegyzetek	-607
let	-608
▁7	-609
▁8	-610
he	-611
▁települ	-612
véd	-613
▁angol	-614
▁st	-615
▁vál	-616
▁10	-617
▁ország	-618
ászló	-619
ti	-620
▁csak	-621
▁nov	-622
ügg	-623
▁egyik	-624
▁ellen	-625
▁9	-626
ózs	-627
emplom	-628
etem	-629
ánd	-630
▁vis	-631
hez	-632
éld	-633
őr	-634
azd	-635
be	-636
▁költő	-637
örtén	-638
6-	-639
mer	-640
ével	-641
ron	-642
alád	-643
egye	-644
▁188	-645
ich	-646
usz	-647
ay	-648
erm	-649
▁St	-650
ezés	-651
▁szlovák	-652
ilis	-653
▁ur	-654
▁Ferenc	-655
4-	-656
sk	-657
2-	-658
árás	-659
▁And	-660
3-	-661
▁tagja	-662
▁ped	-663
▁november	-664
▁In	-665
of	-666
▁leh	-667
▁szab	-668
▁település	-669
▁vez	-670
ked	-671
áború	-672
oss	-673
▁szó	-674
jel	-675
atal	-676
íz	-677
ec	-678
erg	-679
ján	-680
cius	-681
▁Magyarország	-682
▁alak	-683
ászár	-684
▁mell	-685
▁még	-686
kal	-687
▁Budapest	-688
dő	-689
ün	-690
szerző	-691
▁Nagy	-692
ept	-693
óm	-694
fi	-695
rit	-696
▁fal	-697
▁sor	-698
ást	-699
fog	-700
ub	-701
▁nemzet	-702
5-	-703
▁oszt	-704
ata	-705
▁született	-706
▁terület	-707
▁színésznő	-708
▁lét	-709
ből	-710
irodalom	-711
abd	-712
ant	-713
rilis	-714
9-	-715
kel	-716
űl	-717
ebr	-718
▁Kár	-719
éter	-720
▁személy	-721
▁március	-722
▁azon	-723
anuár	-724
▁majd	-725
▁politikus	-726
őz	-727
ájus	-728
▁Józs	-729
▁le	-730
odik	-731
ics	-732
▁be	-733
irt	-734
▁császár	-735
▁187	-736
▁József	-737
erceg	-738
kol	-739
▁László	-740
7-	-741
▁biz	-742
▁min	-743
▁Szent	-744
ann	-745
▁áp	-746
▁külön	-747
▁Itt	-748
▁január	-749
ih	-750
lő	-751
▁Köz	-752
kép	-753
tóber	-754
ass	-755
▁követ	-756
▁von	-757
hat	-758
▁tár	-759
nev	-760
uró	-761
▁május	-762
eptember	-763
▁pedig	-764
ow	-765
▁184	-766
arl	-767
▁április	-768
▁u	-769
▁ig	-770
omb	-771
gó	-772
esen	-773
gyel	-774
seny	-775
▁Nem	-776
csol	-777
olikus	-778
tól	-779
▁templom	-780
▁dec	-781
▁használ	-782
öt	-783
oll	-784
▁rendszer	-785
ium	-786
▁december	-787
▁várm	-788
za	-789
▁szeptember	-790
▁sp	-791
mény	-792
úlius	-793
▁e	-794
ési	-795
alak	-796
uguszt	-797
eszerző	-798
▁Károly	-799
–1	-800
vez	-801
▁október	-802
20	-803
▁vissz	-804
ereg	-805
ugusztus	-806
atok	-807
▁aut	-808
ebruár	-809
iszter	-810
enn	-811
ac	-812
ták	-813
▁186	-814
▁való	-815
ark	-816
pont	-817
fel	-818
uth	-819
ern	-820
▁események	-821
eli	-822
őbb	-823
ozások	-824
▁bel	-825
nius	-826
hető	-827
le	-828
▁Zs	-829
▁Or	-830
▁kis	-831
únius	-832
ául	-833
etű	-834
▁július	-835
▁február	-836
▁fest	-837
▁term	-838
ög	-839
örgy	-840
övet	-841
▁nép	-842
ói	-843
ármaz	-844
▁augusztus	-845
lan	-846
ormány	-847
▁ar	-848
val	-849
omán	-850
díj	-851
abb	-852
ess	-853
vény	-854
arad	-855
ekben	-856
▁állam	-857
▁jog	-858
átum	-859
▁né	-860
vány	-861
ológus	-862
szak	-863
▁része	-864
ff	-865
▁elnök	-866
formáci	-867
▁június	-868
ról	-869
▁mi	-870
▁család	-871
▁járás	-872
▁Mik	-873
▁így	-874
ját	-875
saság	-876
ovábbi	-877
énekes	-878
emat	-879
▁valam	-880
ozás	-881
árom	-882
ib	-883
bert	-884
ani	-885
▁származ	-886
▁lett	-887
cz	-888
▁munk	-889
új	-890
lal	-891
▁Ch	-892
irtok	-893
ogram	-894
éldául	-895
▁hat	-896
▁Ny	-897
▁ember	-898
től	-899
▁any	-900
atk	-901
tel	-902
▁föld	-903
▁György	-904
▁herceg	-905
leg	-906
tak	-907
ori	-908
ítés	-909
ór	-910
▁minden	-911
▁talál	-912
íl	-913
ast	-914
jai	-915
▁fiz	-916
▁ill	-917
dély	-918
ésőbb	-919
▁kezd	-920
ce	-921
▁függ	-922
▁Am	-923
▁szerep	-924
lás	-925
▁hiv	-926
almi	-927
ester	-928
▁festő	-929
atemat	-930
orosz	-931
▁hang	-932
▁185	-933
ll	-934
vis	-935
▁Már	-936
ki	-937
ari	-938
▁informáci	-939
ford	-940
▁autó	-941
▁kész	-942
▁eg	-943
arú	-944
▁sok	-945
úz	-946
uróp	-947
szín	-948
▁lehet	-949
ója	-950
▁határ	-951
II	-952
▁"	-953
rák	-954
áros	-955
étel	-956
▁ind	-957
abdarú	-958
▁nevez	-959
hol	-960
engyel	-961
▁Ar	-962
▁ford	-963
▁zeneszerző	-964
▁Andr	-965
ajos	-966
nagy	-967
2.	-968
szerű	-969
arm	-970
tet	-971
verseny	-972
▁oly	-973
▁tanár	-974
▁telj	-975
égi	-976
inek	-977
▁török	-978
▁X	-979
ula	-980
4.	-981
ey	-982
▁lakosából	-983
illag	-984
▁matemat	-985
eum	-986
▁Bp	-987
ossuth	-988
oszt	-989
▁itt	-990
ens	-991
urg	-992
▁idő	-993
▁kiv	-994
▁tér	-995
ütt	-996
▁hon	-997
▁eset	-998
▁vármegye	-999
tek	-1000
▁Kossuth	-1001
sal	-1002
arc	-1003
örök	-1004
8.	-1005
ro	-1006
szám	-1007
ték	-1008
▁alatt	-1009
▁ver	-1010
▁Nemzet	-1011
abdarúgó	-1012
TA	-1013
▁katolikus	-1014
▁Lajos	-1015
▁202	-1016
3.	-1017
ször	-1018
lós	-1019
ong	-1020
▁szabad	-1021
essz	-1022
adás	-1023
▁olyan	-1024
udomány	-1025
ton	-1026
élet	-1027
▁választ	-1028
▁olasz	-1029
sp	-1030
róf	-1031
gyűl	-1032
▁tudomány	-1033
só	-1034
eség	-1035
versenyző	-1036
▁Meg	-1037
ándor	-1038
▁egyetem	-1039
5.	-1040
▁akkor	-1041
ossz	-1042
▁Halál	-1043
azdaság	-1044
▁kormány	-1045
▁kereszt	-1046
▁tám	-1047
▁ha	-1048
▁További	-1049
▁ism	-1050
ür	-1051
adó	-1052
▁kell	-1053
0.	-1054
orn	-1055
gyan	-1056
▁Es	-1057
▁András	-1058
csk	-1059
▁182	-1060
ie	-1061
ajnok	-1062
hu	-1063
ezett	-1064
uc	-1065
ához	-1066
▁Joh	-1067
▁falu	-1068
▁autóversenyző	-1069
mán	-1070
elmi	-1071
▁második	-1072
▁hoz	-1073
6.	-1074
ion	-1075
ah	-1076
▁1.	-1077
▁ir	-1078
pr	-1079
dal	-1080
ina	-1081
ába	-1082
orrások	-1083
mér	-1084
▁Pál	-1085
vel	-1086
▁ház	-1087
▁miniszter	-1088
emény	-1089
▁később	-1090
▁információk	-1091
▁megh	-1092
▁emlék	-1093
tat	-1094
áció	-1095
▁birtok	-1096
▁Im	-1097
▁lát	-1098
▁fek	-1099
▁kom	-1100
ről	-1101
övetség	-1102
ontos	-1103
7.	-1104
▁19.	-1105
▁körül	-1106
áf	-1107
▁Szület	-1108
▁ész	-1109
up	-1110
ors	-1111
▁katon	-1112
▁Események	-1113
▁együtt	-1114
–19	-1115
▁18.	-1116
iában	-1117
▁Egyes	-1118
▁Le	-1119
társaság	-1120
▁En	-1121
▁MTA	-1122
▁labdarúgó	-1123
azg	-1124
ölt	-1125
la	-1126
óz	-1127
fej	-1128
ómai	-1129
▁program	-1130
9.	-1131
yen	-1132
▁páp	-1133
▁ami	-1134
kül	-1135
mus	-1136
▁lev	-1137
▁község	-1138
▁azonban	-1139
▁Születések	-1140
▁Halálozások	-1141
kező	-1142
imp	-1143
ine	-1144
viselő	-1145
út	-1146
fal	-1147
▁form	-1148
észet	-1149
▁=	-1150
▁11	-1151
izs	-1152
föld	-1153
ést	-1154
▁egész	-1155
▁Br	-1156
ink	-1157
▁int	-1158
▁dél	-1159
▁ön	-1160
jet	-1161
▁mér	-1162
▁Áll	-1163
ivel	-1164
écs	-1165
▁című	-1166
▁Ad	-1167
szik	-1168
dik	-1169
▁cseh	-1170
▁op	-1171
mány	-1172
▁uralk	-1173
▁épült	-1174
▁zs	-1175
▁aki	-1176
▁183	-1177
▁könyv	-1178
▁énekes	-1179
▁ó	-1180
rom	-1181
ügy	-1182
napok	-1183
▁elfog	-1184
▁mellett	-1185
▁néven	-1186
▁azt	-1187
▁sem	-1188
▁ev	-1189
eni	-1190
▁létre	-1191
▁Sp	-1192
▁Kis	-1193
iség	-1194
▁műv	-1195
▁érd	-1196
etve	-1197
átus	-1198
▁háború	-1199
orvos	-1200
ky	-1201
▁Nev	-1202
▁épít	-1203
▁Határ	-1204
▁w	-1205
sége	-1206
ovjet	-1207
▁Miklós	-1208
▁Mih	-1209
▁osztrák	-1210
▁Péter	-1211
▁szak	-1212
▁Sándor	-1213
árd	-1214
▁valamint	-1215
ait	-1216
lap	-1217
▁három	-1218
rón	-1219
▁mód	-1220
▁elem	-1221
▁században	-1222
▁elm	-1223
▁orosz	-1224
űr	-1225
meg	-1226
délyi	-1227
▁műkö	-1228
▁fi	-1229
▁felt	-1230
▁vezető	-1231
ású	-1232
▁Bél	-1233
▁miatt	-1234
né	-1235
ikk	-1236
sága	-1237
▁csap	-1238
▁tiszt	-1239
▁kapcsol	-1240
fél	-1241
▁élet	-1242
raj	-1243
úr	-1244
▁dí	-1245
enek	-1246
▁III	-1247
eform	-1248
▁személyek	-1249
▁Bal	-1250
▁181	-1251
▁művész	-1252
ech	-1253
ását	-1254
tal	-1255
ási	-1256
kész	-1257
▁ahol	-1258
juk	-1259
obel	-1260
▁dátum	-1261
illi	-1262
inak	-1263
red	-1264
▁Em	-1265
▁szék	-1266
▁például	-1267
osan	-1268
het	-1269
und	-1270
oport	-1271
szlovák	-1272
▁csat	-1273
▁irodalom	-1274
▁előtt	-1275
▁Állam	-1276
▁folyam	-1277
jár	-1278
nyi	-1279
ason	-1280
ikor	-1281
oni	-1282
▁Pr	-1283
érték	-1284
tes	-1285
alap	-1286
ői	-1287
iker	-1288
kori	-1289
úzeum	-1290
ozs	-1291
▁gyak	-1292
zel	-1293
▁Ed	-1294
▁Nobel	-1295
▁jelen	-1296
▁Y	-1297
▁római	-1298
▁különb	-1299
▁illetve	-1300
son	-1301
▁képviselő	-1302
őt	-1303
ón	-1304
▁Szlovák	-1305
▁köt	-1306
ította	-1307
város	-1308
▁egyes	-1309
▁saj	-1310
▁forr	-1311
ita	-1312
lat	-1313
▁hivatal	-1314
▁kerület	-1315
200	-1316
▁Nép	-1317
elnök	-1318
assz	-1319
▁fér	-1320
▁kon	-1321
▁ugyan	-1322
ian	-1323
▁ár	-1324
▁teljes	-1325
▁en	-1326
af	-1327
▁Béla	-1328
▁(18	-1329
▁Fran	-1330
ozik	-1331
jt	-1332
dött	-1333
háború	-1334
▁oper	-1335
▁szint	-1336
▁út	-1337
▁fil	-1338
▁Tr	-1339
▁csillag	-1340
▁of	-1341
ítja	-1342
▁szolg	-1343
edelem	-1344
0,	-1345
erj	-1346
▁vas	-1347
áth	-1348
ilyen	-1349
▁Imre	-1350
▁lengyel	-1351
▁par	-1352
▁Ö	-1353
őztes	-1354
ológia	-1355
▁román	-1356
▁sereg	-1357
▁királyi	-1358
▁Történ	-1359
esi	-1360
ítő	-1361
ogat	-1362
utató	-1363
▁olimp	-1364
▁észak	-1365
▁Nemzeti	-1366
▁Th	-1367
anyol	-1368
▁2.	-1369
▁Források	-1370
üsp	-1371
üspök	-1372
▁evang	-1373
nn	-1374
tor	-1375
örög	-1376
▁halmaz	-1377
▁szerző	-1378
séges	-1379
ították	-1380
utat	-1381
leszt	-1382
▁seg	-1383
▁halál	-1384
io	-1385
▁at	-1386
óc	-1387
▁ma	-1388
ején	-1389
▁Rák	-1390
▁bék	-1391
▁megsz	-1392
▁dátumú	-1393
ái	-1394
▁kit	-1395
▁km	-1396
▁irány	-1397
▁180	-1398
▁ját	-1399
▁lesz	-1400
▁178	-1401
▁pápa	-1402
▁elekt	-1403
▁marad	-1404
▁brit	-1405
ették	-1406
inn	-1407
rany	-1408
▁Ber	-1409
▁matematikus	-1410
▁15.	-1411
▁reg	-1412
▁években	-1413
▁található	-1414
mond	-1415
öveg	-1416
űz	-1417
▁alkot	-1418
▁független	-1419
vas	-1420
▁The	-1421
adém	-1422
▁orvos	-1423
öm	-1424
otta	-1425
▁16.	-1426
▁cél	-1427
▁trón	-1428
történ	-1429
▁Mihály	-1430
▁besz	-1431
▁Sch	-1432
▁gróf	-1433
ulajd	-1434
▁Fel	-1435
ulajdon	-1436
▁ap	-1437
burg	-1438
▁14.	-1439
▁püspök	-1440
űn	-1441
▁vissza	-1442
iskol	-1443
..	-1444
▁moz	-1445
▁megjel	-1446
sor	-1447
▁179	-1448
▁számít	-1449
▁Győztes	-1450
▁festőművész	-1451
▁össze	-1452
ánt	-1453
után	-1454
▁20.	-1455
rendszer	-1456
▁13.	-1457
▁véd	-1458
ációs	-1459
ull	-1460
nnep	-1461
olgár	-1462
▁17.	-1463
ítása	-1464
ew	-1465
▁reform	-1466
▁alkalmaz	-1467
▁egyetemi	-1468
ca	-1469
▁Mát	-1470
íres	-1471
▁lép	-1472
▁víz	-1473
▁Német	-1474
ock	-1475
▁Mária	-1476
▁tábor	-1477
SZ	-1478
oft	-1479
▁Ol	-1480
áni	-1481
keszt	-1482
könyv	-1483
▁Európ	-1484
▁ismer	-1485
▁közép	-1486
▁szob	-1487
eit	-1488
ker	-1489
álló	-1490
áló	-1491
▁olimpiai	-1492
rik	-1493
▁települései	-1494
th	-1495
▁során	-1496
ice	-1497
▁forg	-1498
▁újság	-1499
▁kiad	-1500
▁négy	-1501
ítették	-1502
▁erdélyi	-1503
ini	-1504
▁Gr	-1505
ését	-1506
▁gép	-1507
▁felh	-1508
áról	-1509
▁bev	-1510
▁említ	-1511
▁oldal	-1512
ógy	-1513
▁Ap	-1514
▁Hen	-1515
▁úgy	-1516
▁part	-1517
gel	-1518
közi	-1519
▁megt	-1520
▁Ak	-1521
▁ci	-1522
▁alá	-1523
▁Mari	-1524
▁jell	-1525
ach	-1526
onal	-1527
▁változat	-1528
▁3.	-1529
övid	-1530
haj	-1531
ozóf	-1532
▁haj	-1533
▁nagydíj	-1534
ire	-1535
ográf	-1536
itt	-1537
ógép	-1538
▁feleség	-1539
okban	-1540
ekv	-1541
ner	-1542
ocs	-1543
▁fia	-1544
séget	-1545
▁közel	-1546
ma	-1547
oci	-1548
▁Ir	-1549
▁országgyűl	-1550
ona	-1551
▁Bar	-1552
sel	-1553
ancs	-1554
▁bar	-1555
▁került	-1556
ha	-1557
íg	-1558
ehér	-1559
élikus	-1560
eri	-1561
▁Ha	-1562
eked	-1563
▁régi	-1564
▁visz	-1565
▁ünnep	-1566
▁törvény	-1567
▁tartalmaz	-1568
▁elv	-1569
▁mod	-1570
▁jelöl	-1571
▁először	-1572
▁IV	-1573
izmus	-1574
▁nyug	-1575
ázó	-1576
▁kl	-1577
éhez	-1578
ejt	-1579
atos	-1580
▁napja	-1581
országi	-1582
▁Egyesült	-1583
Sz	-1584
alt	-1585
rész	-1586
▁érték	-1587
▁újságíró	-1588
ünk	-1589
▁Kap	-1590
▁származású	-1591
ció	-1592
▁egyház	-1593
▁Mag	-1594
▁nyom	-1595
adalom	-1596
▁következő	-1597
íp	-1598
▁vezet	-1599
▁bizony	-1600
▁tulajdon	-1601
mai	-1602
űjt	-1603
esek	-1604
igazg	-1605
▁uralkod	-1606
etr	-1607
▁mai	-1608
raf	-1609
▁hozz	-1610
▁nyelvek	-1611
ényi	-1612
▁Gábor	-1613
ís	-1614
ódó	-1615
▁megv	-1616
▁megy	-1617
▁hason	-1618
▁elnöke	-1619
▁tovább	-1620
pen	-1621
var	-1622
incs	-1623
▁Lip	-1624
qu	-1625
▁fekszik	-1626
ou	-1627
ier	-1628
ották	-1629
ry	-1630
eszi	-1631
tan	-1632
ly	-1633
ílus	-1634
ezte	-1635
iget	-1636
ívül	-1637
▁Gyula	-1638
▁nagyobb	-1639
hy	-1640
oc	-1641
ányi	-1642
átor	-1643
nevek	-1644
▁szult	-1645
▁fizikus	-1646
▁miniszterelnök	-1647
uló	-1648
▁12.	-1649
.”	-1650
atin	-1651
óczi	-1652
▁világháború	-1653
azdasági	-1654
▁rendező	-1655
▁Szab	-1656
▁4.	-1657
▁Ár	-1658
▁erő	-1659
élkül	-1660
astély	-1661
▁adott	-1662
▁Ú	-1663
▁táv	-1664
di	-1665
ila	-1666
oln	-1667
öbb	-1668
land	-1669
nagyobb	-1670
▁tartomány	-1671
au	-1672
▁Jász	-1673
▁Ge	-1674
▁Kr	-1675
▁saját	-1676
önt	-1677
▁Szer	-1678
▁list	-1679
▁test	-1680
▁görög	-1681
▁spanyol	-1682
cikk	-1683
▁neve	-1684
rendező	-1685
más	-1686
olna	-1687
▁teh	-1688
ermek	-1689
▁Király	-1690
▁fejedelem	-1691
szó	-1692
▁dr	-1693
aszn	-1694
▁körny	-1695
ne	-1696
nyt	-1697
ekkel	-1698
fed	-1699
▁ne	-1700
▁utol	-1701
műv	-1702
ung	-1703
ánya	-1704
▁10.	-1705
▁11.	-1706
▁lem	-1707
▁óta	-1708
▁John	-1709
▁társ	-1710
▁épület	-1711
▁üz	-1712
ábbi	-1713
ísér	-1714
▁kifej	-1715
sereg	-1716
▁stílus	-1717
elés	-1718
▁magas	-1719
▁ismert	-1720
▁Uni	-1721
▁filozóf	-1722
idék	-1723
▁kult	-1724
▁bajnok	-1725
▁vallás	-1726
▁császári	-1727
nem	-1728
▁Tan	-1729
▁alapján	-1730
féle	-1731
jegy	-1732
ítója	-1733
▁hossz	-1734
öző	-1735
amar	-1736
ekint	-1737
▁amikor	-1738
▁Birodalom	-1739
ers	-1740
zés	-1741
őleg	-1742
▁ezt	-1743
▁végén	-1744
▁csoport	-1745
▁szovjet	-1746
▁Pa	-1747
sági	-1748
▁szultán	-1749
áris	-1750
ox	-1751
▁di	-1752
enny	-1753
▁tém	-1754
▁nyil	-1755
▁betű	-1756
▁hagy	-1757
▁keres	-1758
fordító	-1759
ágy	-1760
▁jó	-1761
okkal	-1762
▁segít	-1763
▁Egyetem	-1764
ától	-1765
▁bet	-1766
▁rendel	-1767
lék	-1768
yás	-1769
▁Il	-1770
hány	-1771
éről	-1772
▁177	-1773
▁the	-1774
▁egyéb	-1775
▁kelet	-1776
oy	-1777
▁ő	-1778
kos	-1779
ölgy	-1780
▁szerv	-1781
▁Rákóczi	-1782
▁jelentős	-1783
▁számítógép	-1784
ezik	-1785
▁elt	-1786
▁szöveg	-1787
▁Jászai	-1788
▁Története	-1789
▁100	-1790
▁tartozott	-1791
▁Be	-1792
rian	-1793
álaszt	-1794
▁szent	-1795
ali	-1796
berg	-1797
ségek	-1798
▁szav	-1799
▁zsid	-1800
min	-1801
▁5.	-1802
▁Tudomány	-1803
kod	-1804
tos	-1805
▁ge	-1806
etett	-1807
▁Nap	-1808
imn	-1809
per	-1810
sek	-1811
▁öt	-1812
▁[	-1813
▁Tam	-1814
▁túl	-1815
▁közül	-1816
▁siker	-1817
▁utolsó	-1818
▁szócikk	-1819
▁Magyarországon	-1820
enő	-1821
▁Szín	-1822
▁műfordító	-1823
▁legnagyobb	-1824
▁6.	-1825
zett	-1826
elked	-1827
ékeny	-1828
▁pont	-1829
▁másik	-1830
▁voltak	-1831
országban	-1832
▁ide	-1833
▁nélkül	-1834
▁Államok	-1835
▁evangélikus	-1836
jed	-1837
lik	-1838
▁akik	-1839
nél	-1840
okon	-1841
enger	-1842
▁számos	-1843
mag	-1844
ust	-1845
▁Ma	-1846
▁kar	-1847
▁elfoglal	-1848
man	-1849
elvű	-1850
▁Att	-1851
almas	-1852
▁(199	-1853
▁haszn	-1854
▁rövid	-1855
▁tömeg	-1856
lak	-1857
atot	-1858
▁8.	-1859
anak	-1860
orvát	-1861
▁részecsk	-1862
ein	-1863
▁Fri	-1864
▁Ter	-1865
▁Akadém	-1866
▁fél	-1867
▁lel	-1868
▁honlap	-1869
eth	-1870
ory	-1871
▁Os	-1872
adik	-1873
lalk	-1874
▁Gerg	-1875
▁örök	-1876
ádi	-1877
úly	-1878
eged	-1879
jának	-1880
▁amelyek	-1881
▁megalap	-1882
▁Föld	-1883
▁kisebb	-1884
▁Kö	-1885
ileg	-1886
▁(200	-1887
▁megfel	-1888
▁felhasznál	-1889
uz	-1890
din	-1891
nes	-1892
▁ek	-1893
áját	-1894
egyen	-1895
▁dolg	-1896
mények	-1897
▁értelm	-1898
▁foglalk	-1899
▁|	-1900
adi	-1901
ázs	-1902
enti	-1903
rich	-1904
ípus	-1905
▁Ben	-1906
▁port	-1907
▁filmrendező	-1908
mun	-1909
ségi	-1910
▁számára	-1911
ík	-1912
▁Ur	-1913
▁Mátyás	-1914
▁tekint	-1915
▁Kar	-1916
▁anyany	-1917
▁református	-1918
201	-1919
▁pl	-1920
exik	-1921
ésű	-1922
▁21.	-1923
▁közös	-1924
▁ja	-1925
oros	-1926
▁kér	-1927
láv	-1928
név	-1929
ője	-1930
▁Har	-1931
▁igaz	-1932
▁mert	-1933
egyver	-1934
▁szobr	-1935
▁Ország	-1936
▁fejleszt	-1937
olf	-1938
▁kil	-1939
▁erős	-1940
▁mivel	-1941
▁+	-1942
atak	-1943
▁melynek	-1944
▁Kon	-1945
ására	-1946
▁harm	-1947
▁hasonló	-1948
li	-1949
őv	-1950
lag	-1951
lát	-1952
telen	-1953
▁ismét	-1954
atív	-1955
oknak	-1956
▁azaz	-1957
▁nevű	-1958
▁Tamás	-1959
▁annak	-1960
▁felfed	-1961
ath	-1962
our	-1963
vári	-1964
ga	-1965
énz	-1966
andó	-1967
emes	-1968
▁pár	-1969
▁különböző	-1970
zó	-1971
▁ügy	-1972
bajnok	-1973
▁7.	-1974
apán	-1975
ella	-1976
szent	-1977
▁23.	-1978
atási	-1979
▁mező	-1980
kó	-1981
gal	-1982
iss	-1983
▁gr	-1984
▁176	-1985
alakul	-1986
▁iskol	-1987
▁Kapcsol	-1988
beli	-1989
onyi	-1990
szab	-1991
atlan	-1992
usztr	-1993
▁ezek	-1994
▁lehető	-1995
▁Köztársaság	-1996
ola	-1997
▁9.	-1998
▁168	-1999
▁27.	-2000
▁kik	-2001
▁Attila	-2002
▁Ki	-2003
▁anyag	-2004
▁Kl	-2005
▁iz	-2006
▁újra	-2007
▁tárgy	-2008
tart	-2009
▁kan	-2010
▁166	-2011
essége	-2012
▁ezért	-2013
▁Amerikai	-2014
szky	-2015
▁and	-2016
oj	-2017
▁felv	-2018
▁mond	-2019
▁fejlő	-2020
▁Múzeum	-2021
mű	-2022
ava	-2023
▁Ro	-2024
▁jobb	-2025
▁svéd	-2026
▁Francia	-2027
▁Gergely	-2028
▁központ	-2029
▁Kapcsolódó	-2030
2,	-2031
SD	-2032
ári	-2033
▁175	-2034
▁Man	-2035
▁adat	-2036
▁gyors	-2037
▁Pal	-2038
jában	-2039
▁történet	-2040
gép	-2041
▁25.	-2042
▁bár	-2043
ságot	-2044
▁Georg	-2045
▁eredetű	-2046
ler	-2047
▁esz	-2048
▁han	-2049
▁hív	-2050
▁gyermek	-2051
▁anyanyelvű	-2052
omi	-2053
átt	-2054
encs	-2055
zséb	-2056
▁szél	-2057
▁álló	-2058
ald	-2059
▁0,	-2060
irodalmi	-2061
▁következ	-2062
br	-2063
sa	-2064
▁tal	-2065
▁írás	-2066
▁kísér	-2067
▁filozófus	-2068
áig	-2069
éből	-2070
▁Ker	-2071
▁Zolt	-2072
▁hegy	-2073
▁évek	-2074
▁egyen	-2075
▁gyógy	-2076
▁hivatalos	-2077
ork	-2078
hang	-2079
▁log	-2080
ows	-2081
▁Név	-2082
áld	-2083
úra	-2084
▁Dr	-2085
▁ab	-2086
▁növ	-2087
▁mozg	-2088
▁zsidó	-2089
▁követő	-2090
▁tábornok	-2091
▁természet	-2092
▁csillagász	-2093
ülő	-2094
▁kev	-2095
ségét	-2096
▁graf	-2097
▁hatás	-2098
▁érdek	-2099
▁honvéd	-2100
▁listája	-2101
leges	-2102
▁repül	-2103
ean	-2104
enz	-2105
enne	-2106
▁24.	-2107
▁rég	-2108
▁fenn	-2109
▁párt	-2110
▁telep	-2111
uh	-2112
lom	-2113
udós	-2114
▁26.	-2115
car	-2116
ítt	-2117
▁Sh	-2118
csön	-2119
aként	-2120
▁megfelelő	-2121
éli	-2122
ásár	-2123
▁28.	-2124
▁bef	-2125
ebben	-2126
▁Zoltán	-2127
▁készült	-2128
▁ős	-2129
▁22.	-2130
OS	-2131
zsébet	-2132
ozatlan	-2133
▁melyet	-2134
▁tanács	-2135
▁általános	-2136
lev	-2137
pán	-2138
ízi	-2139
▁Új	-2140
▁köl	-2141
▁Henrik	-2142
▁Ig	-2143
▁kéz	-2144
ismer	-2145
elmélet	-2146
▁mérték	-2147
”,	-2148
ica	-2149
▁Ág	-2150
őket	-2151
▁29.	-2152
▁női	-2153
▁szót	-2154
▁tanul	-2155
ala	-2156
okk	-2157
uni	-2158
agóg	-2159
▁New	-2160
▁Zsig	-2161
▁szük	-2162
▁váll	-2163
▁latin	-2164
▁Színház	-2165
▁folyamán	-2166
omp	-2167
rab	-2168
íti	-2169
örös	-2170
▁részt	-2171
ológiai	-2172
▁eredeti	-2173
ián	-2174
mel	-2175
enet	-2176
vező	-2177
zetes	-2178
▁meghatár	-2179
▁székhely	-2180
000	-2181
eki	-2182
ánc	-2183
▁Sim	-2184
uel	-2185
▁dok	-2186
ovics	-2187
▁regény	-2188
▁hadsereg	-2189
mal	-2190
izsg	-2191
▁171	-2192
▁Wind	-2193
▁állt	-2194
▁Antal	-2195
▁színház	-2196
▁szócikkek	-2197
–18	-2198
▁170	-2199
▁míg	-2200
da	-2201
▁Cseh	-2202
▁ekkor	-2203
jük	-2204
res	-2205
ssz	-2206
esszor	-2207
▁ezzel	-2208
▁vezér	-2209
▁25	-2210
▁űr	-2211
arch	-2212
▁kol	-2213
ettek	-2214
leked	-2215
▁fény	-2216
▁harc	-2217
▁Szlovákia	-2218
akt	-2219
ele	-2220
▁országgyűlési	-2221
ars	-2222
inc	-2223
vált	-2224
▁elér	-2225
fj	-2226
eje	-2227
enci	-2228
▁stb	-2229
szeres	-2230
ésével	-2231
▁ilyen	-2232
▁biztos	-2233
orz	-2234
éta	-2235
ence	-2236
írás	-2237
▁Kál	-2238
enged	-2239
▁szen	-2240
▁szerepel	-2241
▁Í	-2242
fin	-2243
▁Kül	-2244
▁for	-2245
▁pap	-2246
ítette	-2247
▁néhány	-2248
▁századi	-2249
▁általában	-2250
de	-2251
itk	-2252
ugat	-2253
▁Szep	-2254
▁gond	-2255
▁hanem	-2256
▁/	-2257
▁Géz	-2258
▁puszt	-2259
▁témái	-2260
▁kölcsön	-2261
▁nemzeti	-2262
▁használt	-2263
onn	-2264
▁dip	-2265
▁hal	-2266
urópai	-2267
▁katonai	-2268
▁szabály	-2269
▁megjelen	-2270
▁történész	-2271
ffy	-2272
onok	-2273
▁haz	-2274
▁web	-2275
▁kath	-2276
▁elnev	-2277
▁építész	-2278
▁Erzsébet	-2279
ism	-2280
utt	-2281
▁De	-2282
▁174	-2283
▁Tár	-2284
riszt	-2285
▁beszél	-2286
akat	-2287
▁per	-2288
ítése	-2289
▁Jenő	-2290
kesztő	-2291
▁Könyv	-2292
▁játék	-2293
▁Zsigmond	-2294
▁szobrász	-2295
fr	-2296
endő	-2297
▁30.	-2298
▁finn	-2299
▁melyek	-2300
écsi	-2301
▁élt	-2302
ítják	-2303
▁amit	-2304
▁megye	-2305
▁tehát	-2306
▁szolgált	-2307
▁Tudományos	-2308
ezték	-2309
▁szól	-2310
▁Névnapok	-2311
▁eredmény	-2312
%-	-2313
sy	-2314
▁ud	-2315
jobb	-2316
olta	-2317
▁közt	-2318
▁énekesnő	-2319
ira	-2320
gazd	-2321
obban	-2322
▁Géza	-2323
ekvése	-2324
▁kerül	-2325
ogatott	-2326
▁Lengyel	-2327
évő	-2328
echn	-2329
▁vesz	-2330
magyar	-2331
▁Johann	-2332
szövetség	-2333
▁csapatok	-2334
III	-2335
ene	-2336
rán	-2337
▁164	-2338
ancsnok	-2339
▁kapott	-2340
▁grafikus	-2341
▁1-	-2342
▁167	-2343
▁Ezek	-2344
▁Irod	-2345
▁elején	-2346
▁Határozatlan	-2347
dig	-2348
▁őr	-2349
több	-2350
vető	-2351
▁169	-2352
▁bem	-2353
▁dal	-2354
▁fáj	-2355
▁kém	-2356
▁dönt	-2357
▁kívül	-2358
ros	-2359
zák	-2360
▁kv	-2361
ugál	-2362
▁Bor	-2363
▁Oscar	-2364
▁közötti	-2365
▁segítség	-2366
▁temploma	-2367
▁gazdasági	-2368
▁.	-2369
váj	-2370
▁La	-2371
▁seb	-2372
földi	-2373
ument	-2374
▁Fekvése	-2375
▁osztály	-2376
rí	-2377
kap	-2378
ová	-2379
▁Lu	-2380
▁hő	-2381
itás	-2382
▁Kom	-2383
▁jár	-2384
▁1990	-2385
▁pály	-2386
▁fontos	-2387
▁elektron	-2388
▁Határozott	-2389
ölcs	-2390
ürdő	-2391
▁Vág	-2392
eleti	-2393
▁eszt	-2394
illiam	-2395
kezett	-2396
olland	-2397
▁száma	-2398
▁jellem	-2399
történész	-2400
▁Akadémia	-2401
▁hagyomány	-2402
rád	-2403
ébe	-2404
úti	-2405
függ	-2406
háza	-2407
▁Ott	-2408
▁arany	-2409
▁hivatk	-2410
▁helyett	-2411
▁’	-2412
erő	-2413
ick	-2414
rat	-2415
ává	-2416
óra	-2417
▁tem	-2418
járás	-2419
▁Elek	-2420
▁Windows	-2421
ezi	-2422
óri	-2423
▁Híres	-2424
▁foglal	-2425
▁említik	-2426
50	-2427
íd	-2428
▁,	-2429
álás	-2430
étől	-2431
▁osz	-2432
▁(198	-2433
▁Báth	-2434
urális	-2435
▁nemzetközi	-2436
git	-2437
reg	-2438
ügyi	-2439
▁ost	-2440
atban	-2441
▁atom	-2442
egység	-2443
▁sport	-2444
▁Erdély	-2445
▁felett	-2446
▁területén	-2447
▁irodalomban	-2448
co	-2449
fa	-2450
▁Ó	-2451
▁Ab	-2452
▁Mind	-2453
ásokat	-2454
▁korábbi	-2455
éch	-2456
▁Per	-2457
▁rom	-2458
ation	-2459
ábban	-2460
▁1919	-2461
▁közv	-2462
▁ment	-2463
mérnök	-2464
▁folyó	-2465
▁Albert	-2466
▁gyakor	-2467
▁lakosa	-2468
▁stílusban	-2469
öp	-2470
pád	-2471
einek	-2472
üntet	-2473
▁1900	-2474
▁tölt	-2475
czy	-2476
kat	-2477
áma	-2478
ment	-2479
ozza	-2480
ésére	-2481
▁Pozs	-2482
▁igen	-2483
▁energ	-2484
▁kapta	-2485
▁Ferdin	-2486
kör	-2487
lop	-2488
uzs	-2489
▁ed	-2490
akor	-2491
eken	-2492
elen	-2493
ulás	-2494
ézet	-2495
▁fok	-2496
ottak	-2497
▁sorozat	-2498
▁érdemes	-2499
▁Ér	-2500
▁Mon	-2501
▁bal	-2502
▁kastély	-2503
▁felesége	-2504
SA	-2505
med	-2506
ínai	-2507
▁Paul	-2508
▁egyetlen	-2509
üz	-2510
orf	-2511
▁Jak	-2512
▁Mich	-2513
család	-2514
▁Hab	-2515
▁cig	-2516
sburg	-2517
▁Mont	-2518
▁esetén	-2519
▁horvát	-2520
▁tartozik	-2521
jabb	-2522
▁Tib	-2523
▁látható	-2524
ese	-2525
par	-2526
rip	-2527
zük	-2528
otor	-2529
szék	-2530
▁Biz	-2531
▁Jos	-2532
▁Osz	-2533
olgárm	-2534
▁azonos	-2535
▁bud	-2536
▁neh	-2537
ezése	-2538
szich	-2539
▁1910-	-2540
▁Sport	-2541
▁Város	-2542
▁közep	-2543
űjtemény	-2544
▁egykori	-2545
bál	-2546
▁Ph	-2547
▁bi	-2548
▁ág	-2549
▁2019	-2550
▁dísz	-2551
▁ezen	-2552
▁Árpád	-2553
▁emberek	-2554
▁létrehoz	-2555
▁mik	-2556
▁klassz	-2557
▁amelyet	-2558
▁vármegy	-2559
▁szövetség	-2560
4,	-2561
tr	-2562
alma	-2563
▁Jan	-2564
▁Kor	-2565
▁utó	-2566
▁pénz	-2567
▁Román	-2568
▁cigány	-2569
film	-2570
▁159	-2571
ektor	-2572
iségű	-2573
római	-2574
▁csata	-2575
▁nincs	-2576
lem	-2577
ozta	-2578
▁165	-2579
▁Dun	-2580
▁bej	-2581
▁évi	-2582
olták	-2583
▁péld	-2584
▁száll	-2585
▁vonatk	-2586
▁tudományos	-2587
▁Leg	-2588
▁elh	-2589
▁tűz	-2590
emlék	-2591
esebb	-2592
abdázó	-2593
vezető	-2594
▁pontos	-2595
▁keresked	-2596
üt	-2597
acs	-2598
sék	-2599
ákat	-2600
▁172	-2601
▁mon	-2602
▁Bern	-2603
észeti	-2604
▁ostrom	-2605
rel	-2606
▁Bo	-2607
▁Di	-2608
▁br	-2609
gyes	-2610
ázis	-2611
▁Mad	-2612
▁kir	-2613
▁tor	-2614
▁melly	-2615
▁távol	-2616
▁gyakran	-2617
10	-2618
ide	-2619
▁te	-2620
▁Tur	-2621
▁koron	-2622
▁milli	-2623
▁egymás	-2624
▁eszköz	-2625
▁története	-2626
▁tudományban	-2627
igh	-2628
óla	-2629
▁nő	-2630
▁sk	-2631
lete	-2632
oduc	-2633
rist	-2634
ázium	-2635
▁Rich	-2636
▁ennek	-2637
▁menny	-2638
▁forrás	-2639
▁fegyver	-2640
▁szerződés	-2641
vé	-2642
▁(„	-2643
eter	-2644
gyak	-2645
▁cég	-2646
▁(197	-2647
▁Tisz	-2648
▁kezdő	-2649
▁típus	-2650
▁diplom	-2651
▁raj	-2652
arlam	-2653
ispán	-2654
▁önálló	-2655
imnázium	-2656
▁Nevezet	-2657
olgármester	-2658
eci	-2659
apot	-2660
▁Mic	-2661
agógus	-2662
▁szabadság	-2663
jét	-2664
▁hit	-2665
▁tev	-2666
ongor	-2667
vonal	-2668
▁1945	-2669
▁gazd	-2670
▁jegy	-2671
▁lévő	-2672
▁Széch	-2673
rianoni	-2674
▁legtöbb	-2675
▁teljesen	-2676
▁csehszlovák	-2677
fő	-2678
van	-2679
▁Ek	-2680
▁173	-2681
oztak	-2682
▁2003	-2683
▁Első	-2684
▁Arany	-2685
▁hozzá	-2686
▁trianoni	-2687
ale	-2688
▁Mi	-2689
▁tr	-2690
enni	-2691
tatás	-2692
▁2000	-2693
▁2007	-2694
▁Mart	-2695
▁japán	-2696
▁érsek	-2697
▁legjobb	-2698
▁viszont	-2699
och	-2700
▁160	-2701
▁díj	-2702
▁mer	-2703
▁elhu	-2704
etileg	-2705
▁2011-	-2706
ore	-2707
▁Fő	-2708
ener	-2709
talan	-2710
ésben	-2711
▁Pest	-2712
▁Svéd	-2713
▁felad	-2714
▁lemond	-2715
▁polgár	-2716
▁elmélet	-2717
ásd	-2718
vezér	-2719
ivatal	-2720
▁belül	-2721
fjú	-2722
lin	-2723
rim	-2724
ekre	-2725
▁2008	-2726
▁Kálmán	-2727
▁vannak	-2728
▁közleked	-2729
▁magyarországi	-2730
▁Hu	-2731
edik	-2732
▁Ind	-2733
▁fon	-2734
▁lap	-2735
eknek	-2736
atiszt	-2737
▁vizsg	-2738
▁végre	-2739
▁hosszú	-2740
▁kommun	-2741
▁nyelvű	-2742
▁térkép	-2743
▁csatában	-2744
gr	-2745
ere	-2746
lav	-2747
harc	-2748
▁Kov	-2749
▁hét	-2750
oznak	-2751
▁1977	-2752
▁fájl	-2753
▁maga	-2754
▁prot	-2755
▁Európa	-2756
▁nagyon	-2757
▁elhunyt	-2758
▁szemben	-2759
▁harmadik	-2760
bbi	-2761
ator	-2762
ipar	-2763
▁155	-2764
▁1985	-2765
▁mester	-2766
▁mérnök	-2767
ác	-2768
enes	-2769
▁Pár	-2770
▁1944	-2771
▁Orosz	-2772
▁intéz	-2773
▁Észak	-2774
▁idején	-2775
▁adomány	-2776
▁feltalál	-2777
▁származik	-2778
60	-2779
▁Q	-2780
ved	-2781
okra	-2782
éssel	-2783
▁1984	-2784
▁Párt	-2785
▁enged	-2786
▁halála	-2787
▁örökös	-2788
▁alapítója	-2789
▁tanulmány	-2790
óni	-2791
▁hó	-2792
▁Lak	-2793
▁old	-2794
▁Anna	-2795
▁arra	-2796
▁kett	-2797
▁róla	-2798
▁őket	-2799
ismert	-2800
▁szintén	-2801
▁követően	-2802
▁Ró	-2803
etsz	-2804
ényes	-2805
▁1994	-2806
▁szok	-2807
azgató	-2808
▁lelkész	-2809
iát	-2810
olc	-2811
▁2,	-2812
olog	-2813
ozása	-2814
ritikus	-2815
▁Tanács	-2816
▁tevékeny	-2817
▁Ferdinánd	-2818
ökk	-2819
▁Fr	-2820
omás	-2821
ulat	-2822
▁lég	-2823
▁Form	-2824
▁Tibor	-2825
usztrál	-2826
▁Szovjet	-2827
▁politikai	-2828
▁uralkodik	-2829
▁Szlovákiában	-2830
osa	-2831
sch	-2832
▁áb	-2833
illa	-2834
rajz	-2835
vagy	-2836
íció	-2837
▁Fül	-2838
▁Alex	-2839
ogatás	-2840
▁környék	-2841
▁Habsburg	-2842
▁valószín	-2843
oda	-2844
ört	-2845
▁21	-2846
▁kő	-2847
adja	-2848
▁kur	-2849
hatás	-2850
▁terv	-2851
▁utal	-2852
▁éves	-2853
ikában	-2854
szabad	-2855
▁egyszerű	-2856
▁keresztnevek	-2857
▁x	-2858
íci	-2859
▁23	-2860
▁Dav	-2861
▁End	-2862
▁San	-2863
almat	-2864
ápoly	-2865
▁vett	-2866
▁magát	-2867
▁szoci	-2868
már	-2869
pár	-2870
▁Vár	-2871
▁kal	-2872
dy	-2873
edi	-2874
obl	-2875
uss	-2876
zal	-2877
ívó	-2878
óta	-2879
▁Cl	-2880
ajor	-2881
erek	-2882
ókat	-2883
▁Fre	-2884
▁Ver	-2885
külön	-2886
▁1991	-2887
▁legy	-2888
▁1990-	-2889
assa	-2890
▁Bel	-2891
▁gót	-2892
▁ott	-2893
▁1989	-2894
▁elég	-2895
▁házas	-2896
színész	-2897
▁zongor	-2898
▁alakult	-2899
▁leggyak	-2900
gl	-2901
ke	-2902
▁fr	-2903
itív	-2904
ésre	-2905
▁163	-2906
puszt	-2907
▁1986	-2908
▁volna	-2909
gazdász	-2910
▁Micros	-2911
▁barokk	-2912
▁maradt	-2913
▁zenész	-2914
▁nyelvész	-2915
ara	-2916
▁lov	-2917
▁Munk	-2918
▁Anton	-2919
▁méter	-2920
▁nevét	-2921
▁Robert	-2922
tudomány	-2923
▁Budapesten	-2924
ity	-2925
zék	-2926
alat	-2927
▁Kép	-2928
▁hid	-2929
▁tiz	-2930
kelet	-2931
▁(196	-2932
▁1982	-2933
▁Szék	-2934
▁vegy	-2935
▁Charl	-2936
▁Ennek	-2937
▁Török	-2938
▁partján	-2939
▁vezetője	-2940
ge	-2941
...	-2942
lott	-2943
óban	-2944
▁162	-2945
▁Kol	-2946
▁Tel	-2947
vájci	-2948
icista	-2949
mérsék	-2950
észett	-2951
▁2000-	-2952
▁királynő	-2953
▁közigazg	-2954
▁történelmi	-2955
BSD	-2956
ino	-2957
ith	-2958
▁Rud	-2959
▁Wil	-2960
▁Zrí	-2961
▁föl	-2962
▁viz	-2963
▁Lipót	-2964
▁részét	-2965
ya	-2966
age	-2967
bán	-2968
one	-2969
▁30	-2970
▁Un	-2971
ecsk	-2972
elte	-2973
ályi	-2974
▁Tót	-2975
▁1998	-2976
▁2006	-2977
▁közé	-2978
▁level	-2979
▁Szepes	-2980
▁köztársaság	-2981
amb	-2982
eph	-2983
rav	-2984
érm	-2985
▁ah	-2986
▁ór	-2987
▁Dél	-2988
▁kön	-2989
▁áld	-2990
atták	-2991
jából	-2992
kezik	-2993
ullám	-2994
ítani	-2995
▁1979	-2996
▁2001	-2997
ásának	-2998
▁Oszmán	-2999
▁mindig	-3000
▁modern	-3001
▁összes	-3002
▁kétszeres	-3003
▁segítségével	-3004
18	-3005
vi	-3006
ral	-3007
rét	-3008
▁Alf	-3009
▁Bán	-3010
▁bőv	-3011
▁ezer	-3012
alista	-3013
▁Inter	-3014
▁csapat	-3015
▁operációs	-3016
▁nemzetiségű	-3017
”)	-3018
▁Sc	-3019
▁Val	-3020
▁hír	-3021
fehér	-3022
oztat	-3023
állítás	-3024
▁jelleg	-3025
▁repülő	-3026
▁Frigyes	-3027
▁Szovjetuni	-3028
ois	-3029
ski	-3030
űrű	-3031
ukat	-3032
▁vit	-3033
echan	-3034
ombin	-3035
árton	-3036
▁Fülöp	-3037
▁terjed	-3038
faj	-3039
vai	-3040
▁24	-3041
▁it	-3042
olja	-3043
▁Kat	-3044
atott	-3045
nyire	-3046
polit	-3047
▁1988	-3048
▁2004	-3049
▁azok	-3050
▁neut	-3051
ügymin	-3052
▁Katal	-3053
▁dráma	-3054
▁Pozsony	-3055
▁William	-3056
ezs	-3057
évé	-3058
bben	-3059
csak	-3060
▁Gar	-3061
▁ell	-3062
patak	-3063
ással	-3064
▁(194	-3065
adalmi	-3066
atókönyv	-3067
▁vezette	-3068
éj	-3069
▁Iz	-3070
avar	-3071
▁Gal	-3072
Magyar	-3073
oducer	-3074
ésének	-3075
▁kínai	-3076
▁vette	-3077
kormány	-3078
▁Balázs	-3079
bor	-3080
lob	-3081
▁un	-3082
atér	-3083
▁158	-3084
▁31.	-3085
▁Ezt	-3086
▁jut	-3087
▁let	-3088
arkas	-3089
napja	-3090
▁Alap	-3091
▁Beth	-3092
▁Jean	-3093
▁Ekkor	-3094
▁könny	-3095
ességei	-3096
ográfus	-3097
▁jogász	-3098
▁világbajnok	-3099
ena	-3100
▁Gu	-3101
▁Sy	-3102
▁et	-3103
▁ég	-3104
elme	-3105
▁káp	-3106
▁1997	-3107
▁későbbi	-3108
▁jellemző	-3109
▁Királyság	-3110
▁Microsoft	-3111
▁járásához	-3112
ack	-3113
ael	-3114
újt	-3115
▁Bl	-3116
rajzi	-3117
▁1992	-3118
▁száz	-3119
▁helyi	-3120
▁opera	-3121
aművész	-3122
▁tartozó	-3123
▁nevezzük	-3124
▁születésű	-3125
pe	-3126
zen	-3127
▁VI	-3128
amos	-3129
cell	-3130
issz	-3131
édia	-3132
▁157	-3133
▁1976	-3134
▁1980	-3135
▁Szil	-3136
oftver	-3137
ítvány	-3138
például	-3139
umentum	-3140
▁megkez	-3141
igazgató	-3142
▁honlapja	-3143
▁székhelye	-3144
16	-3145
ij	-3146
ans	-3147
ipt	-3148
úcs	-3149
erős	-3150
észt	-3151
▁Hug	-3152
▁kód	-3153
▁írt	-3154
▁2002	-3155
▁győz	-3156
▁megb	-3157
▁szép	-3158
▁benne	-3159
▁Zrínyi	-3160
▁európai	-3161
▁további	-3162
▁portugál	-3163
▁szerzetes	-3164
ábl	-3165
▁1,	-3166
emok	-3167
irág	-3168
▁ink	-3169
elmet	-3170
falva	-3171
oldal	-3172
▁1987	-3173
▁Carl	-3174
erjeszt	-3175
▁tenger	-3176
▁trónra	-3177
▁szolgál	-3178
▁verseny	-3179
▁uralkodó	-3180
áh	-3181
aba	-3182
osi	-3183
rad	-3184
▁152	-3185
▁Ger	-3186
▁pub	-3187
▁(201	-3188
▁Iván	-3189
▁Mars	-3190
▁fran	-3191
ezések	-3192
▁játsz	-3193
▁képes	-3194
▁megáll	-3195
are	-3196
ílt	-3197
▁Ut	-3198
aliz	-3199
arab	-3200
leti	-3201
ítél	-3202
ffice	-3203
▁York	-3204
ájában	-3205
▁Bethlen	-3206
▁nyilván	-3207
▁viszony	-3208
▁tisztelet	-3209
▁békeszerző	-3210
adt	-3211
▁üt	-3212
szor	-3213
▁156	-3214
▁Vilm	-3215
▁végül	-3216
▁szenved	-3217
▁amelynek	-3218
▁királyné	-3219
amp	-3220
ova	-3221
vér	-3222
űnt	-3223
▁Jam	-3224
▁tót	-3225
evízi	-3226
orvég	-3227
ságát	-3228
▁Külső	-3229
▁parlam	-3230
▁feltétel	-3231
▁hangszer	-3232
▁kifejezés	-3233
▁Ü	-3234
két	-3235
oló	-3236
▁Te	-3237
atta	-3238
etek	-3239
▁Elő	-3240
ebből	-3241
▁2001-	-3242
▁híres	-3243
▁Róbert	-3244
▁svájci	-3245
▁szótár	-3246
▁Báthory	-3247
▁Charles	-3248
▁birtoka	-3249
▁lakosai	-3250
▁fejlődés	-3251
▁békeszerződés	-3252
▁mit	-3253
oblém	-3254
▁Bécs	-3255
sorban	-3256
sziget	-3257
▁Szabó	-3258
▁felső	-3259
▁megny	-3260
▁olvas	-3261
▁Fényes	-3262
▁működés	-3263
szlovákul	-3264
der	-3265
▁Ne	-3266
▁hu	-3267
űleg	-3268
▁Bár	-3269
▁Had	-3270
▁faj	-3271
▁Nyit	-3272
szerep	-3273
▁évben	-3274
▁	-3275
e	-3276
a	-3277
t	-3278
s	-3279
l	-3280
n	-3281
r	-3282
i	-3283
o	-3284
k	-3285
z	-3286
á	-3287
é	-3288
m	-3289
g	-3290
y	-3291
d	-3292
v	-3293
b	-3294
,	-3295
u	-3296
.	-3297
1	-3298
h	-3299
p	-3300
ó	-3301
j	-3302
c	-3303
f	-3304
ö	-3305
ő	-3306
9	-3307
í	-3308
A	-3309
-	-3310
)	-3311
(	-3312
0	-3313
–	-3314
2	-3315
ü	-3316
8	-3317
M	-3318
S	-3319
7	-3320
4	-3321
6	-3322
3	-3323
B	-3324
ú	-3325
5	-3326
K	-3327
I	-3328
ű	-3329
E	-3330
T	-3331
P	-3332
H	-3333
F	-3334
N	-3335
L	-3336
:	-3337
G	-3338
J	-3339
C	-3340
V	-3341
R	-3342
D	-3343
†	-3344
*	-3345
O	-3346
w	-3347
Z	-3348
;	-3349
x	-3350
W	-3351
U	-3352
„	-3353
”	-3354
Á	-3355
/	-3356
"	-3357
É	-3358
X	-3359
’	-3360
=	-3361
%	-3362
Y	-3363
+	-3364
'	-3365
ä	-3366
Ö	-3367
š	-3368
ë	-3369
q	-3370
č	-3371
!	-3372
?	-3373
Ú	-3374
|	-3375
]	-3376
[	-3377
ý	-3378
Ó	-3379
Í	-3380
Q	-3381
о	-3382
Ő	-3383
ž	-3384
Š	-3385
>	-3386
Ü	-3387
а	-3388
н	-3389
и	-3390
ł	-3391
<	-3392
ç	-3393
ć	-3394
е	-3395
&	-3396
ľ	-3397
в	-3398
è	-3399
ă	-3400
с	-3401
~	-3402
°	-3403
р	-3404
л	-3405
−	-3406
т	-3407
Č	-3408
ň	-3409
×	-3410
д	-3411
ș	-3412
å	-3413
·	-3414
к	-3415
м	-3416
у	-3417
Ž	-3418
ы	-3419
}	-3420
{	-3421
â	-3422
й	-3423
п	-3424
#	-3425
ț	-3426
∈	-3427
ť	-3428
ο	-3429
→	-3430
λ	-3431
ş	-3432
\	-3433
Ű	-3434
г	-3435
ь	-3436
ô	-3437
α	-3438
μ	-3439
_	-3440
Ľ	-3441
ń	-3442
ε	-3443
ß	-3444
ə	-3445
б	-3446
ã	-3447
ρ	-3448
ς	-3449
←	-3450
Δ	-3451
æ	-3452
ν	-3453
я	-3454
‐	-3455
ø	-3456
ı	-3457
«	-3458
»	-3459
ą	-3460
ř	-3461
з	-3462
­	-3463
ě	-3464
ñ	-3465
γ	-3466
ι	-3467
î	-3468
ð	-3469
ч	-3470
ː	-3471
С	-3472
≡	-3473
à	-3474
ę	-3475
ˈ	-3476
φ	-3477
ê	-3478
ś	-3479
σ	-3480
τ	-3481
ğ	-3482
$	-3483
§	-3484
õ	-3485
ā	-3486
π	-3487
ӧ	-3488
ж	-3489
х	-3490
͡	-3491
П	-3492
ш	-3493
“	-3494
ò	-3495
ī	-3496
ʃ	-3497
κ	-3498
ا	-3499
ক	-3500
া	-3501
ż	-3502
δ	-3503
θ	-3504
ω	-3505
ё	-3506
≤	-3507
Ș	-3508
ό	-3509
А	-3510
ц	-3511
ա	-3512
—	-3513
Å	-3514
ů	-3515
ʒ	-3516
ή	-3517
М	-3518
Đ	-3519
đ	-3520
ί	-3521
η	-3522
О	-3523
י	-3524
ে	-3525
′	-3526
≈	-3527
^	-3528
Ä	-3529
ď	-3530
Ł	-3531
ȧ	-3532
̄	-3533
Д	-3534
И	-3535
Р	-3536
ন	-3537
র	-3538
‒	-3539
Σ	-3540
έ	-3541
Б	-3542
К	-3543
ю	-3544
א	-3545
স	-3546
∀	-3547
@	-3548
`	-3549
ï	-3550
Π	-3551
υ	-3552
Г	-3553
Л	-3554
Н	-3555
ր	-3556
Ç	-3557
Ø	-3558
İ	-3559
ō	-3560
Λ	-3561
ά	-3562
В	-3563
Ф	-3564
ר	-3565
্	-3566
±	-3567
Æ	-3568
Þ	-3569
ē	-3570
ė	-3571
ŋ	-3572
Ş	-3573
ʎ	-3574
Ξ	-3575
β	-3576
ե	-3577
נ	-3578
د	-3579
ل	-3580
↔	-3581
∞	-3582
®	-3583
ÿ	-3584
ɛ	-3585
ɲ	-3586
ʊ	-3587
Μ	-3588
χ	-3589
Е	-3590
З	-3591
Т	-3592
э	-3593
Ի	-3594
ּ	-3595
ي	-3596
ব	-3597
‚	-3598
ġ	-3599
Ś	-3600
ź	-3601
У	-3602
Х	-3603
Я	-3604
ӯ	-3605
ի	-3606
ն	-3607
ո	-3608
ִ	-3609
ו	-3610
ל	-3611
ر	-3612
ن	-3613
জ	-3614
‘	-3615
∉	-3616
≠	-3617
Ð	-3618
þ	-3619
ŕ	-3620
ǝ	-3621
ɑ	-3622
ɟ	-3623
ˌ	-3624
̃	-3625
Θ	-3626
ύ	-3627
Ч	-3628
Ш	-3629
Э	-3630
Ю	-3631
ф	-3632
ј	-3633
ҡ	-3634
ӈ	-3635
Կ	-3636
լ	-3637
մ	-3638
ָ	-3639
ב	-3640
ע	-3641
ع	-3642
م	-3643
्	-3644
ত	-3645
দ	-3646
ল	-3647
ি	-3648
ু	-3649
⁄	-3650
⇔	-3651
ù	-3652
Ď	-3653
ţ	-3654
ū	-3655
Ż	-3656
Ə	-3657
Ț	-3658
ɨ	-3659
ɪ	-3660
ʦ	-3661
ʻ	-3662
̯	-3663
Γ	-3664
Ω	-3665
Ё	-3666
Ы	-3667
Ь	-3668
і	-3669
Ա	-3670
ג	-3671
ה	-3672
מ	-3673
ب	-3674
س	-3675
ि	-3676
অ	-3677
গ	-3678
ম	-3679
য	-3680
শ	-3681
ი	-3682
ἀ	-3683
ἐ	-3684
≥	-3685
©	-3686
À	-3687
È	-3688
Î	-3689
Ô	-3690
ì	-3691
û	-3692
Ġ	-3693
ņ	-3694
œ	-3695
ŭ	-3696
ư	-3697
ǃ	-3698
ǐ	-3699
ɔ	-3700
ɡ	-3701
ˇ	-3702
́	-3703
̈	-3704
̊	-3705
Α	-3706
Β	-3707
Ε	-3708
Η	-3709
Ι	-3710
Φ	-3711
ξ	-3712
Ж	-3713
Й	-3714
Ц	-3715
Щ	-3716
Ъ	-3717
щ	-3718
Լ	-3719
գ	-3720
զ	-3721
հ	-3722
յ	-3723
պ	-3724
ս	-3725
տ	-3726
ւ	-3727
ֲ	-3728
ֵ	-3729
ַ	-3730
ד	-3731
ט	-3732
أ	-3733
ت	-3734
ش	-3735
ه	-3736
پ	-3737
ی	-3738
द	-3739
न	-3740
प	-3741
ह	-3742
ा	-3743
ी	-3744
উ	-3745
চ	-3746
থ	-3747
ভ	-3748
়	-3749
า	-3750
้	-3751
გ	-3752
ლ	-3753
ḥ	-3754
ệ	-3755
ờ	-3756
Ὰ	-3757
€	-3758
⇒	-3759
□	-3760
ナ	-3761
ル	-3762
ン	-3763
中	-3764
公	-3765
千	-3766
味	-3767
文	-3768
東	-3769
糸	-3770
蔣	-3771
어	-3772
Â	-3773
Ë	-3774
Ñ	-3775
Õ	-3776
Ğ	-3777
ģ	-3778
ķ	-3779
Ļ	-3780
Ņ	-3781
Ŋ	-3782
Ō	-3783
ŏ	-3784
Ř	-3785
Ţ	-3786
Ť	-3787
ũ	-3788
Ɔ	-3789
ơ	-3790
ǔ	-3791
Ȧ	-3792
ɐ	-3793
ʁ	-3794
ʔ	-3795
ʤ	-3796
ʾ	-3797
̥	-3798
͜	-3799
Κ	-3800
Ν	-3801
Χ	-3802
ζ	-3803
ψ	-3804
ώ	-3805
І	-3806
ъ	-3807
Ґ	-3808
Ӆ	-3809
ӆ	-3810
Ӈ	-3811
Ӣ	-3812
Ӧ	-3813
Ӯ	-3814
Ԓ	-3815
ԓ	-3816
Դ	-3817
է	-3818
ծ	-3819
կ	-3820
շ	-3821
վ	-3822
ְ	-3823
ֹ	-3824
ם	-3825
ן	-3826
ס	-3827
צ	-3828
ש	-3829
ת	-3830
װ	-3831
ث	-3832
ج	-3833
ح	-3834
ف	-3835
و	-3836
َ	-3837
ِ	-3838
۱	-3839
ܐ	-3840
ܝ	-3841
ܠ	-3842
ܢ	-3843
ܪ	-3844
क	-3845
ठ	-3846
त	-3847
य	-3848
स	-3849
ु	-3850
ং	-3851
আ	-3852
এ	-3853
খ	-3854
ট	-3855
ষ	-3856
হ	-3857
ো	-3858
த	-3859
ம	-3860
ழ	-3861
ி	-3862
்	-3863
ค	-3864
ง	-3865
ต	-3866
ม	-3867
ห	-3868
อ	-3869
ํ	-3870
ა	-3871
დ	-3872
ე	-3873
ნ	-3874
ო	-3875
რ	-3876
ḗ	-3877
Ḥ	-3878
Ḫ	-3879
ḫ	-3880
ṣ	-3881
ṭ	-3882
ẞ	-3883
ấ	-3884
ị	-3885
ọ	-3886
ủ	-3887
ứ	-3888
ἁ	-3889
ἄ	-3890
ἔ	-3891
ὅ	-3892
ᾰ	-3893
ῖ	-3894
Ῥ	-3895
ῶ	-3896
​	-3897
•	-3898
ↀ	-3899
ↁ	-3900
ↂ	-3901
Ↄ	-3902
⇌	-3903
∃	-3904
∨	-3905
⊆	-3906
■	-3907
✝	-3908
⸻	-3909
う	-3910
し	-3911
と	-3912
な	-3913
の	-3914
ま	-3915
み	-3916
イ	-3917
エ	-3918
コ	-3919
シ	-3920
タ	-3921
ダ	-3922
ニ	-3923
ブ	-3924
ョ	-3925
ー	-3926
三	-3927
人	-3928
仁	-3929
介	-3930
仙	-3931
体	-3932
來	-3933
個	-3934
倖	-3935
健	-3936
和	-3937
国	-3938
大	-3939
学	-3940
孫	-3941
安	-3942
寛	-3943
尋	-3944
恒	-3945
恩	-3946
摩	-3947
日	-3948
旨	-3949
未	-3950
本	-3951
林	-3952
歌	-3953
正	-3954
江	-3955
洲	-3956
流	-3957
田	-3958
男	-3959
的	-3960
石	-3961
神	-3962
納	-3963
語	-3964
賢	-3965
輝	-3966
辑	-3967
逸	-3968
逻	-3969
郎	-3970
量	-3971
际	-3972
隠	-3973
頃	-3974
顷	-3975
験	-3976
鮮	-3977
Ꜧ	-3978
꧅	-3979
가	-3980
국	-3981
내	-3982
널	-3983
니	-3984
다	-3985
선	-3986
셔	-3987
엘	-3988
인	-3989
조	-3990
터	-3991
한	-3992
﷽	-3993
﻿	-3994
𒈙	-3995
𒐫	-3996
