<unk>	0
<s>	0
</s>	0
,	-3.34474
▁	-3.53444
.	-3.62693
i	-3.71467
▁a	-3.81581
t	-4.00421
-	-4.27974
)	-4.32564
a	-4.50162
▁–	-4.51035
e	-4.74643
▁A	-4.76559
▁és	-4.84428
s	-4.85939
k	-4.89123
▁az	-4.91318
▁(	-5.02729
en	-5.27829
ok	-5.32787
ek	-5.34364
es	-5.34405
ben	-5.46256
:	-5.49809
et	-5.51012
l	-5.51046
y	-5.52543
n	-5.52633
ban	-5.57943
on	-5.59017
z	-5.61117
▁magyar	-5.67056
ó	-5.67686
b	-5.72129
d	-5.75573
os	-5.77068
h	-5.8174
er	-5.82545
ra	-5.8408
▁(†	-5.84523
re	-5.85842
▁meg	-5.87011
ja	-5.88486
an	-5.89851
r	-5.93415
▁18	-5.93902
m	-5.94791
at	-6.01791
▁S	-6.03486
▁(*	-6.04209
▁K	-6.04461
ő	-6.05217
el	-6.05325
p	-6.0639
án	-6.08087
f	-6.08968
j	-6.10314
u	-6.11515
▁is	-6.13225
át	-6.14157
▁egy	-6.15158
o	-6.19351
ol	-6.22262
sz	-6.22899
▁Az	-6.2465
c	-6.26276
▁el	-6.26364
▁k	-6.2671
cs	-6.27481
▁ki	-6.31076
g	-6.31325
▁T	-6.32153
ik	-6.32381
nek	-6.32382
nak	-6.33505
ni	-6.34036
ú	-6.34571
é	-6.36471
▁B	-6.36743
▁fel	-6.36769
▁M	-6.36834
ta	-6.37275
ét	-6.39112
v	-6.42317
ak	-6.42326
ar	-6.42736
or	-6.43415
us	-6.45468
ot	-6.45578
in	-6.46589
▁volt	-6.46814
▁P	-6.4694
▁f	-6.47289
▁F	-6.5001
al	-6.5107
ul	-6.54029
;	-6.54212
▁I	-6.54915
▁s	-6.55423
ség	-6.55778
▁H	-6.56064
▁hogy	-6.57921
▁nem	-6.58266
ott	-6.59901
ai	-6.60019
▁17	-6.61651
▁h	-6.62027
ás	-6.645
is	-6.64867
ű	-6.65448
▁Sz	-6.65715
▁G	-6.65733
én	-6.66528
▁b	-6.67413
gy	-6.67491
ár	-6.68588
om	-6.68705
ig	-6.69238
te	-6.70631
ál	-6.71188
ad	-6.71292
▁sz	-6.73726
▁V	-6.74511
ez	-6.75621
és	-6.75693
ri	-6.76829
▁C	-6.77659
▁p	-6.78852
ur	-6.79408
va	-6.80867
le	-6.81026
as	-6.81374
ül	-6.83384
ed	-6.8388
la	-6.86131
▁16	-6.87175
▁E	-6.8784
▁de	-6.87847
ság	-6.88034
ve	-6.88652
je	-6.88727
▁m	-6.89043
A	-6.90295
ék	-6.91685
ett	-6.92489
ba	-6.9385
▁„	-6.95473
ában	-6.95922
na	-6.96035
▁D	-6.96095
ák	-6.97272
ch	-6.97499
▁R	-6.97773
▁király	-6.98876
em	-6.99028
ny	-6.99344
▁be	-7.01522
”	-7.02674
ér	-7.04399
it	-7.04751
▁N	-7.05673
I	-7.06102
él	-7.06275
▁amerikai	-7.06473
▁első	-7.0651
um	-7.07199
á	-7.07672
egy	-7.08016
ból	-7.08437
▁t	-7.08737
–	-7.09166
▁német	-7.09453
díjas	-7.10535
ma	-7.11063
▁vagy	-7.11862
▁író	-7.12771
▁v	-7.13809
ka	-7.13853
▁le	-7.14349
▁nagy	-7.1461
S	-7.14843
▁15	-7.15916
eg	-7.15951
od	-7.18912
ként	-7.19035
ében	-7.19831
M	-7.20938
▁L	-7.21265
be	-7.21422
szer	-7.21513
szt	-7.22478
í	-7.22651
ut	-7.23139
T	-7.23542
▁W	-7.25434
▁év	-7.25497
▁J	-7.25843
il	-7.25898
▁1	-7.2623
▁század	-7.26346
ör	-7.26797
ták	-7.27482
ei	-7.27546
▁város	-7.27942
▁között	-7.28326
▁színész	-7.28449
ia	-7.28476
▁fő	-7.28803
ít	-7.29546
aj	-7.30396
hoz	-7.31337
li	-7.32136
ci	-7.3224
da	-7.3245
P	-7.32501
▁(19	-7.33945
ro	-7.33991
▁amely	-7.34024
2	-7.34696
/	-7.35004
▁Magyar	-7.35443
ön	-7.35502
ü	-7.35673
E	-7.35809
▁több	-7.35986
C	-7.36605
okat	-7.36639
ának	-7.37411
tor	-7.38379
▁O	-7.39024
tár	-7.4006
▁szám	-7.4077
ter	-7.40856
x	-7.40891
ének	-7.41104
▁nyelv	-7.41175
mi	-7.42428
am	-7.4315
öl	-7.43379
▁hely	-7.43643
▁János	-7.44495
ják	-7.44692
▁francia	-7.44755
ell	-7.4488
D	-7.45127
zs	-7.45133
ir	-7.45446
tól	-7.45512
▁ha	-7.45934
▁mely	-7.46287
ke	-7.46385
▁14	-7.46931
▁át	-7.47655
im	-7.48349
▁mint	-7.48389
▁Cs	-7.48515
áz	-7.48592
ill	-7.50976
kor	-7.51433
▁után	-7.51518
tó	-7.52507
▁2	-7.52617
vel	-7.52786
▁két	-7.52964
▁Z	-7.53165
ly	-7.53197
▁vég	-7.53266
ész	-7.5338
eket	-7.53468
K	-7.53667
w	-7.54235
ing	-7.54699
▁már	-7.55193
uk	-7.55361
th	-7.55615
og	-7.56442
B	-7.56809
▁Ha	-7.57056
▁szerint	-7.57147
zet	-7.58031
▁tagja	-7.59696
től	-7.59888
▁István	-7.60998
L	-7.61016
▁van	-7.61223
ha	-7.61832
▁Jegyzetek	-7.62237
ény	-7.62624
▁angol	-7.62947
▁3	-7.62985
ne	-7.6306
di	-7.63101
ért	-7.63197
leg	-7.63698
ég	-7.63737
ló	-7.64251
un	-7.64353
▁l	-7.64451
▁csak	-7.64543
▁elő	-7.65228
ük	-7.65487
▁13	-7.65676
▁egyik	-7.65814
op	-7.65824
▁Ez	-7.65883
▁U	-7.66333
▁költő	-7.66458
▁II	-7.66764
val	-7.67248
▁vár	-7.67603
▁ellen	-7.67719
zi	-7.67838
ír	-7.67926
za	-7.68078
bb	-7.6814
N	-7.68251
ge	-7.68734
ása	-7.69718
▁Ferenc	-7.70186
ára	-7.70367
ov	-7.70799
ult	-7.71673
1	-7.71675
ud	-7.71792
▁november	-7.72147
▁szlovák	-7.72386
se	-7.72416
V	-7.72465
ab	-7.72496
▁szó	-7.7273
▁cs	-7.73112
de	-7.73256
vi	-7.74158
▁12	-7.74421
id	-7.74463
ö	-7.74698
ös	-7.74729
ver	-7.75552
5	-7.75597
ob	-7.75726
▁még	-7.75776
ből	-7.75842
tal	-7.7596
ése	-7.75999
▁Ma	-7.76669
az	-7.76696
cz	-7.77386
R	-7.77589
▁Le	-7.77714
▁leg	-7.78082
▁Al	-7.78088
▁született	-7.78089
hat	-7.78298
ható	-7.78317
▁színésznő	-7.78604
lo	-7.78681
ány	-7.79093
ző	-7.79184
ök	-7.79372
ális	-7.79735
ával	-7.80038
old	-7.80083
▁március	-7.8068
’	-7.80868
"	-7.8091
▁majd	-7.81151
▁politikus	-7.81367
▁Nagy	-7.81855
őr	-7.82912
ról	-7.83029
▁József	-7.83148
▁László	-7.83341
▁össze	-7.83676
ic	-7.83728
▁Szent	-7.83763
ház	-7.84022
▁január	-7.84114
oz	-7.8421
▁Itt	-7.84241
▁köz	-7.85141
▁május	-7.85482
▁Mar	-7.85487
▁pedig	-7.85778
▁április	-7.85876
vé	-7.85959
hely	-7.86089
▁g	-7.86802
▁film	-7.86905
ász	-7.87198
▁ír	-7.87228
par	-7.87265
ére	-7.87765
tek	-7.87841
▁La	-7.88064
ikus	-7.88216
00	-7.88239
tak	-7.88799
let	-7.88801
▁más	-7.88825
and	-7.88982
▁új	-7.89053
▁december	-7.8919
▁rész	-7.893
▁szeptember	-7.89394
osz	-7.89891
▁r	-7.90044
▁Károly	-7.90113
▁október	-7.90216
ep	-7.90223
▁Mi	-7.90591
vár	-7.91504
▁áll	-7.92191
sk	-7.92666
▁események	-7.92689
ám	-7.92899
hez	-7.93111
▁Bo	-7.93201
kép	-7.93314
olt	-7.93637
▁10	-7.93759
▁Budapest	-7.93909
▁Egy	-7.9394
▁február	-7.94322
▁július	-7.94322
▁való	-7.94463
▁c	-7.94466
▁augusztus	-7.95077
▁falu	-7.96003
no	-7.96088
▁5	-7.96236
ce	-7.96593
unk	-7.96952
H	-7.97029
ment	-7.97617
usz	-7.97773
ony	-7.97819
ej	-7.97819
ját	-7.98138
iai	-7.98192
▁n	-7.9842
▁június	-7.98491
▁így	-7.98948
nyi	-7.98994
▁család	-7.99041
nő	-7.99195
▁rend	-7.99557
mény	-7.99594
▁4	-7.9975
▁Ba	-8.00446
▁Ka	-8.00506
▁Br	-8.0113
▁minden	-8.01286
▁lett	-8.0147
ap	-8.01737
▁alap	-8.02063
ező	-8.02454
ker	-8.02657
hető	-8.02806
áció	-8.02991
F	-8.02997
ev	-8.03347
O	-8.03371
▁György	-8.03429
ebb	-8.03677
▁ami	-8.03936
dő	-8.03998
int	-8.04042
bi	-8.0476
▁Ro	-8.0511
ép	-8.05118
ard	-8.05481
▁tanár	-8.0554
0	-8.0607
G	-8.06167
tel	-8.06242
▁neve	-8.06268
est	-8.07363
tan	-8.07527
▁település	-8.07994
▁vármegye	-8.08252
mer	-8.08285
▁ország	-8.08519
▁Be	-8.09222
ív	-8.09253
▁által	-8.09281
ről	-8.09535
▁te	-8.09608
6	-8.09762
né	-8.09763
▁ma	-8.09953
▁aki	-8.10038
lás	-8.10326
▁Re	-8.10579
mű	-8.1062
▁rendszer	-8.10954
▁idő	-8.1098
ítás	-8.11057
▁Magyarország	-8.11075
▁gy	-8.1146
▁zeneszerző	-8.11901
ág	-8.12303
▁mű	-8.12911
son	-8.12936
mp	-8.13015
ája	-8.1305
ológus	-8.13321
köz	-8.13377
rá	-8.13577
ozás	-8.13676
▁ez	-8.13986
9	-8.14004
▁"	-8.14306
ton	-8.14462
▁állam	-8.14752
▁d	-8.14833
▁Lajos	-8.15025
ki	-8.15201
▁kor	-8.15279
ém	-8.1531
pp	-8.15312
▁itt	-8.15421
ind	-8.15473
dal	-8.15707
▁alatt	-8.15893
▁Mari	-8.16012
▁Bp	-8.16275
▁Kossuth	-8.16488
szám	-8.16642
esz	-8.16699
kel	-8.1681
lag	-8.16825
sége	-8.16999
man	-8.17045
alom	-8.17165
▁császár	-8.1751
▁Bar	-8.17825
▁katolikus	-8.17839
úr	-8.17878
▁vált	-8.18141
▁von	-8.18236
▁kép	-8.18307
▁templom	-8.18325
ug	-8.18368
ub	-8.18419
▁De	-8.18458
kó	-8.18631
▁olyan	-8.18666
7	-8.18778
áb	-8.18902
ók	-8.18942
▁Er	-8.19178
lap	-8.19257
ag	-8.19274
▁herceg	-8.1931
▁jog	-8.19457
▁olasz	-8.19628
ass	-8.19664
▁St	-8.19993
ró	-8.20075
der	-8.20347
▁hang	-8.20593
elő	-8.20658
▁élet	-8.20896
▁Halál	-8.20912
▁6	-8.20958
▁akkor	-8.20971
zik	-8.21034
ából	-8.21167
to	-8.2138
oly	-8.21551
het	-8.2169
ty	-8.21717
▁További	-8.21862
adás	-8.21863
lat	-8.21973
ozások	-8.22038
mb	-8.22055
ország	-8.22312
▁mo	-8.22339
▁András	-8.2243
▁lehet	-8.22604
▁föld	-8.22738
isz	-8.22937
▁had	-8.23002
▁Li	-8.23079
▁cím	-8.23178
▁sok	-8.23483
ista	-8.23502
▁autóversenyző	-8.23719
▁In	-8.2382
▁vissza	-8.23833
land	-8.23895
ko	-8.23931
nál	-8.24145
▁második	-8.24153
▁re	-8.24568
▁1.	-8.24865
co	-8.2499
▁tart	-8.2515
fi	-8.25178
▁El	-8.25252
▁később	-8.25318
▁része	-8.25502
▁11	-8.25687
ével	-8.25907
▁név	-8.26035
áj	-8.26211
ec	-8.26254
▁19.	-8.26279
▁világ	-8.26579
ho	-8.26683
▁jel	-8.26706
▁információk	-8.26828
ika	-8.26925
▁An	-8.26957
ich	-8.26981
ium	-8.26982
19	-8.27185
▁di	-8.27234
tette	-8.27615
▁labdarúgó	-8.2769
len	-8.27751
▁jelent	-8.28287
gen	-8.28295
▁nap	-8.28385
ító	-8.28749
ca	-8.29072
▁Á	-8.29654
▁tér	-8.29896
mo	-8.29947
30	-8.29966
▁MTA	-8.29967
abb	-8.304
–19	-8.30672
▁ér	-8.30735
▁mellett	-8.30737
▁Ber	-8.30787
éd	-8.30835
gr	-8.30848
▁Születése	-8.31046
lő	-8.31132
▁program	-8.31176
ex	-8.31262
▁azonban	-8.314
rész	-8.31568
alma	-8.31597
ff	-8.31628
▁lakosá	-8.31698
sa	-8.31717
ga	-8.31724
'	-8.31825
ték	-8.31844
juk	-8.31888
▁község	-8.31994
▁8	-8.32033
oszt	-8.32226
▁Pa	-8.32309
var	-8.32853
új	-8.33195
▁=	-8.33244
3	-8.33367
▁dél	-8.33697
ők	-8.33842
fel	-8.33868
kar	-8.33908
ng	-8.33943
▁határ	-8.34123
▁Esemény	-8.34195
▁Miklós	-8.34199
▁Péter	-8.34203
per	-8.34206
nap	-8.34457
▁út	-8.34546
ült	-8.34547
8	-8.34987
▁Kis	-8.35097
▁című	-8.35148
▁me	-8.3547
▁körül	-8.35581
lá	-8.35674
vál	-8.35884
▁épült	-8.35969
út	-8.36098
fa	-8.36108
50	-8.36125
mel	-8.36135
ä	-8.36139
öv	-8.36186
min	-8.36301
▁Sándor	-8.36303
mar	-8.36367
asz	-8.36408
▁al	-8.36437
▁e	-8.36513
ád	-8.3668
▁sem	-8.36841
▁néven	-8.37048
ezett	-8.3709
öt	-8.37115
▁török	-8.37191
▁ember	-8.37262
▁egész	-8.37286
ozó	-8.37392
▁tan	-8.37425
ött	-8.3743
▁Pál	-8.37477
mány	-8.37519
▁jó	-8.37642
kat	-8.37922
▁(20	-8.38011
▁háború	-8.38081
díj	-8.38093
nc	-8.38095
▁9	-8.38221
▁7	-8.38312
rend	-8.38337
tar	-8.38351
ru	-8.38446
▁osztrák	-8.38451
▁valamin	-8.38472
ina	-8.38701
▁mag	-8.38932
▁ide	-8.39003
▁három	-8.39125
lin	-8.39141
hu	-8.39155
ron	-8.39336
rom	-8.3937
▁Gr	-8.39559
▁Gy	-8.39695
▁mi	-8.40029
gó	-8.40254
ow	-8.40326
▁járás	-8.40683
▁Me	-8.40744
ített	-8.40757
▁miatt	-8.40831
he	-8.40945
bo	-8.40999
▁században	-8.41158
▁tud	-8.41247
▁orosz	-8.41287
ger	-8.41287
60	-8.41501
▁Ch	-8.41529
▁személyek	-8.41872
▁pápa	-8.42025
ezés	-8.42146
▁III	-8.42206
▁szabad	-8.42503
év	-8.42605
▁köt	-8.42694
▁elem	-8.42813
ür	-8.42821
31	-8.43098
ítés	-8.43101
zés	-8.43262
okkal	-8.43504
▁ko	-8.43508
▁dátum	-8.43594
zó	-8.43677
me	-8.43789
ón	-8.44225
15	-8.44372
ór	-8.44406
▁kis	-8.44564
▁ahol	-8.44589
▁napja	-8.44648
fog	-8.45212
zás	-8.45353
▁nép	-8.4539
▁például	-8.45453
10	-8.45531
▁előtt	-8.45652
▁külön	-8.45685
20	-8.45758
ált	-8.45813
▁kormány	-8.45912
▁kell	-8.46072
▁z	-8.46371
ris	-8.46524
ába	-8.46785
szor	-8.46871
dik	-8.4696
tér	-8.46968
vány	-8.4703
▁Nobel	-8.47176
▁illetve	-8.47541
rendszer	-8.47912
▁képviselő	-8.4799
▁használ	-8.48137
pol	-8.48537
vá	-8.48578
▁római	-8.48776
▁követ	-8.48827
nya	-8.48965
š	-8.49201
▁kerület	-8.49236
▁in	-8.4942
▁pont	-8.49441
▁(18	-8.49705
▁Ar	-8.49759
▁Ja	-8.49781
ang	-8.49822
▁kon	-8.49907
elt	-8.49911
uszt	-8.49911
ették	-8.49945
▁fi	-8.50138
▁Béla	-8.50146
▁terület	-8.50174
gi	-8.5022
ord	-8.50226
▁orvos	-8.50249
▁Egyesül	-8.50334
író	-8.50338
szó	-8.50427
▁Or	-8.50458
ner	-8.50478
ció	-8.50817
tro	-8.50912
sal	-8.50981
▁The	-8.51104
end	-8.51112
▁of	-8.51559
▁gróf	-8.5165
▁1990	-8.5165
ján	-8.51822
U	-8.52017
har	-8.52142
▁Imre	-8.52229
21	-8.52283
ac	-8.5235
▁kap	-8.52467
do	-8.5248
ion	-8.52675
und	-8.52699
▁emlék	-8.52727
▁Nemzeti	-8.52801
▁Ra	-8.52814
▁erő	-8.5297
ck	-8.53081
ín	-8.53243
szent	-8.53257
▁lengyel	-8.5338
▁kör	-8.53699
dor	-8.5373
▁román	-8.53973
▁2000	-8.54029
▁Di	-8.54185
14	-8.5427
cia	-8.54298
24	-8.54395
▁ne	-8.5463
▁18.	-8.5478
▁Források	-8.54944
port	-8.55007
tikus	-8.55091
č	-8.55142
▁Mo	-8.55201
▁2.	-8.55386
64	-8.5579
17	-8.55801
70	-8.55804
szi	-8.55814
jel	-8.56004
▁választ	-8.5606
23	-8.56086
▁mind	-8.56092
▁Tr	-8.56205
város	-8.56384
▁halmaz	-8.56651
▁Do	-8.56875
adó	-8.57124
40	-8.57214
pl	-8.57664
nél	-8.5767
otta	-8.57708
ását	-8.57723
▁brit	-8.5776
bor	-8.58104
íz	-8.58202
▁törvény	-8.58382
esen	-8.58413
▁matematikus	-8.58439
▁található	-8.58588
io	-8.58755
▁személy	-8.58783
▁években	-8.58852
ót	-8.58885
11	-8.59264
ós	-8.59275
ács	-8.59386
▁nyom	-8.59396
▁sor	-8.59448
▁Co	-8.59488
%	-8.59641
▁cél	-8.59777
▁Mihály	-8.59789
▁km	-8.60024
▁fia	-8.60307
ze	-8.60401
▁Lu	-8.60498
▁oldal	-8.60572
▁X	-8.60608
32	-8.60626
ások	-8.60636
13	-8.60645
rajz	-8.60651
94	-8.60763
sta	-8.60923
osan	-8.6098
▁püspök	-8.61038
▁É	-8.61073
mód	-8.61126
org	-8.6152
▁20.	-8.61551
elm	-8.61565
▁létre	-8.61879
▁Győztes	-8.61879
▁festőművész	-8.61895
▁Sch	-8.62094
▁adat	-8.62095
elem	-8.62318
▁könyv	-8.62328
▁Vi	-8.62506
zár	-8.62983
▁teljes	-8.63282
▁ad	-8.63302
▁Kar	-8.63345
86	-8.63413
ette	-8.63586
nd	-8.63621
ód	-8.63693
▁Jo	-8.6373
▁egyetemi	-8.63745
öve	-8.6382
▁elnök	-8.63958
▁2001	-8.6424
▁egyes	-8.64342
▁Mária	-8.64503
pont	-8.64574
75	-8.64793
zat	-8.65044
▁jelentős	-8.65132
ekkel	-8.65297
!	-8.65316
telen	-8.65555
▁települései	-8.65567
?	-8.65754
–1	-8.65765
ához	-8.65802
▁lesz	-8.65816
4	-8.65901
all	-8.66159
▁olimpiai	-8.66194
▁15.	-8.66195
▁királyi	-8.66354
szter	-8.66414
▁nyelvek	-8.66432
99	-8.66593
ica	-8.66701
go	-8.66737
lia	-8.6691
pe	-8.66932
▁során	-8.67114
▁14.	-8.67182
▁erdélyi	-8.67303
▁négy	-8.67311
úl	-8.67369
▁változat	-8.67439
▁megjelen	-8.67529
ották	-8.67736
▁13.	-8.67903
▁Har	-8.67965
▁Hu	-8.67994
▁úgy	-8.68012
ber	-8.68509
átor	-8.6873
▁lak	-8.68811
ója	-8.68897
▁nagydíj	-8.69035
▁régi	-8.69334
sága	-8.6936
▁ford	-8.69618
mérnök	-8.69789
▁hat	-8.6998
ou	-8.7009
▁Államok	-8.70212
uta	-8.70227
kol	-8.70265
▁fog	-8.70272
80	-8.70315
tétel	-8.70452
▁országgyűlés	-8.70488
▁lakos	-8.70554
▁Köz	-8.7061
▁16.	-8.70979
okban	-8.70986
ven	-8.7101
háza	-8.71069
90	-8.71104
▁tör	-8.71241
▁szín	-8.71251
▁3.	-8.71318
12	-8.71337
ná	-8.71344
ított	-8.71445
sch	-8.71597
▁eset	-8.71619
log	-8.7176
87	-8.71779
▁tovább	-8.7178
játék	-8.72081
▁ünnep	-8.72099
▁tartalmaz	-8.72112
▁először	-8.72343
forrás	-8.72437
ály	-8.72476
▁Bor	-8.7264
▁elnöke	-8.72869
▁IV	-8.72966
▁került	-8.73174
▁jelen	-8.73188
fő	-8.73226
eit	-8.73261
▁1945	-8.73513
▁Gyula	-8.73752
öz	-8.73887
vet	-8.73913
(	-8.73971
▁újságíró	-8.73988
85	-8.74083
▁származású	-8.74226
rad	-8.74408
93	-8.7444
▁Gábor	-8.74466
45	-8.74566
féle	-8.74682
▁következő	-8.74706
X	-8.74847
88	-8.74856
nem	-8.74873
▁vala	-8.74911
▁tulajdon	-8.75023
szerű	-8.75048
▁együtt	-8.75094
▁fej	-8.7512
▁észak	-8.75267
▁vesz	-8.75459
▁nevez	-8.75472
neve	-8.75473
ünk	-8.75511
jának	-8.75567
▁Ko	-8.75714
▁érték	-8.76004
▁művész	-8.76139
▁kapcsolat	-8.76156
▁ház	-8.76167
▁Par	-8.76223
▁Te	-8.764
▁alá	-8.76458
ügy	-8.76546
▁épít	-8.76547
16	-8.76618
▁ezek	-8.76729
▁kezdet	-8.76769
84	-8.77082
▁fekszik	-8.77136
▁mér	-8.7716
öm	-8.77164
ozott	-8.77414
72	-8.77578
44	-8.77748
▁Fel	-8.77819
▁Ny	-8.77891
Z	-8.77987
83	-8.77989
szín	-8.7805
SZ	-8.78114
ry	-8.78146
27	-8.7815
26	-8.7816
35	-8.78311
▁Ju	-8.78337
lé	-8.78359
▁cseh	-8.78383
▁nagyobb	-8.78404
▁lát	-8.78493
▁miniszterelnök	-8.78876
könyv	-8.79006
▁szultán	-8.79124
▁megye	-8.79291
izmus	-8.79378
▁világháború	-8.79383
▁fizikus	-8.79442
ától	-8.79493
W	-8.79499
▁Meg	-8.79675
▁rendező	-8.79766
tanács	-8.79885
▁Da	-8.79924
van	-8.80043
91	-8.8021
állít	-8.80276
▁mai	-8.80282
▁Fr	-8.80404
▁adott	-8.80444
▁spanyol	-8.8064
▁2004	-8.80652
76	-8.80657
▁Car	-8.80692
alak	-8.80823
ine	-8.80876
▁tartomány	-8.80896
▁víz	-8.80918
Sz	-8.80973
ős	-8.81065
▁bel	-8.81312
ink	-8.81517
▁4.	-8.81651
▁saját	-8.81672
▁betű	-8.81684
51	-8.81711
szék	-8.81728
▁u	-8.81796
föld	-8.81883
áról	-8.81905
▁közel	-8.8198
▁épület	-8.82033
lik	-8.82168
iskola	-8.82198
ré	-8.82235
▁szerepel	-8.82327
▁Ho	-8.82425
▁Szer	-8.82527
▁vi	-8.82678
▁fejedelem	-8.827
▁2008	-8.8271
▁egyház	-8.82714
▁amelyek	-8.82985
művészet	-8.83016
42	-8.83086
▁17.	-8.83121
sza	-8.83133
oll	-8.83285
▁nemzet	-8.83327
form	-8.83331
mond	-8.83342
▁él	-8.83479
J	-8.83743
▁John	-8.83747
▁2007	-8.83755
sziget	-8.83831
▁óta	-8.83918
her	-8.84032
▁ismert	-8.84129
▁10.	-8.84175
▁12.	-8.84245
]	-8.84272
01	-8.84278
▁2003	-8.84285
▁11.	-8.84461
28	-8.84647
ë	-8.84665
82	-8.84673
▁talál	-8.84743
▁Ca	-8.84771
▁per	-8.8478
▁természet	-8.8479
anti	-8.84814
ván	-8.84817
65	-8.84845
29	-8.84859
▁alapján	-8.84946
▁magas	-8.84951
▁csoport	-8.84972
nye	-8.84981
▁birtok	-8.85011
▁He	-8.85046
▁Rákóczi	-8.85335
▁1944	-8.85336
▁végén	-8.85532
▁szak	-8.85669
éhez	-8.85722
▁Pal	-8.85795
után	-8.85828
ence	-8.85841
▁hivatalos	-8.85898
▁Birodalom	-8.85943
67	-8.86003
ésére	-8.86042
▁Ter	-8.86067
▁szovjet	-8.86139
▁bajnok	-8.86144
61	-8.86268
beli	-8.86343
63	-8.86385
▁amikor	-8.8648
▁Ne	-8.86661
▁alkot	-8.86769
37	-8.86897
vidék	-8.86959
18	-8.8717
▁hal	-8.87172
▁the	-8.87249
tudomány	-8.87368
▁gép	-8.87471
▁Egyetem	-8.87495
ler	-8.87647
dol	-8.87648
atlan	-8.87695
árd	-8.87708
▁Erdély	-8.87767
▁1980	-8.87768
▁2006	-8.87779
95	-8.87878
▁terv	-8.87971
68	-8.8802
ését	-8.88027
▁utolsó	-8.88041
▁Man	-8.88082
mann	-8.88134
művész	-8.88187
▁Európa	-8.88219
73	-8.88272
gyár	-8.88274
▁egyéb	-8.88325
áp	-8.88373
▁zene	-8.88404
▁bár	-8.88452
▁Y	-8.8846
fal	-8.88484
▁közép	-8.88484
▁Története	-8.88535
▁Zs	-8.88558
▁számítógép	-8.88591
▁használat	-8.88766
▁szöveg	-8.88869
mester	-8.88947
berg	-8.891
▁Jászai	-8.89145
kedés	-8.89211
▁tartozott	-8.89452
ová	-8.8951
▁for	-8.89548
ait	-8.89754
▁irány	-8.89764
rag	-8.89816
▁festő	-8.89962
▁zsidó	-8.89981
mon	-8.89987
▁énekes	-8.90009
zel	-8.90041
▁császári	-8.901
történész	-8.90188
▁műfordító	-8.90261
▁1991	-8.90261
▁2002	-8.90272
zett	-8.90339
55	-8.90388
elmélet	-8.90477
▁ezt	-8.90494
03	-8.90639
örök	-8.90796
▁Ed	-8.90804
üt	-8.90807
kutató	-8.9083
éről	-8.90875
▁VI	-8.91007
▁6.	-8.91044
78	-8.91233
ulás	-8.91361
▁elmélet	-8.91454
▁újra	-8.91506
már	-8.91521
jában	-8.9154
▁legnagyobb	-8.91673
▁véd	-8.91715
tag	-8.91766
té	-8.91829
25	-8.91854
000	-8.91865
▁8.	-8.91866
▁[	-8.9188
+	-8.91961
▁közül	-8.91995
▁igaz	-8.92014
98	-8.92101
elme	-8.92103
gel	-8.92144
81	-8.9216
▁Ö	-8.92208
▁Her	-8.92254
▁Magyarországon	-8.92507
▁másik	-8.92579
kereszt	-8.92656
wa	-8.92687
▁evangélikus	-8.92817
▁nélkül	-8.92817
oknak	-8.92912
41	-8.93014
lan	-8.93047
▁képes	-8.93056
po	-8.93066
szerkesztő	-8.93106
ések	-8.93172
▁5.	-8.93201
we	-8.93234
ham	-8.93251
▁tiszt	-8.93302
▁hozzá	-8.934
séget	-8.93504
ph	-8.93601
▁Po	-8.93606
77	-8.93629
név	-8.93749
▁ugyan	-8.9393
66	-8.9393
▁rövid	-8.93975
▁tömeg	-8.93975
vin	-8.94066
▁21.	-8.94094
▁számos	-8.94186
▁Mátyás	-8.94267
▁1994	-8.94268
term	-8.94444
mal	-8.94555
von	-8.94731
ation	-8.94741
nal	-8.94752
▁voltak	-8.94837
vas	-8.94869
54	-8.94963
kal	-8.95128
dy	-8.95137
▁1989	-8.95147
apcsolódó	-8.95237
▁akik	-8.95279
.”	-8.95497
38	-8.95628
ülés	-8.95644
79	-8.95806
▁Bu	-8.96011
▁20	-8.96019
▁hegy	-8.96115
ozta	-8.96131
▁egység	-8.96166
▁Mag	-8.96189
▁egymás	-8.96261
qu	-8.96398
36	-8.96446
észet	-8.96463
▁Nem	-8.9647
–20	-8.96609
▁Föld	-8.96635
ld	-8.96655
▁kisebb	-8.96691
ította	-8.96819
ý	-8.9693
04	-8.96985
ík	-8.97094
33	-8.97189
any	-8.97305
lemez	-8.97414
állítás	-8.97455
▁filmrendező	-8.97531
▁hasonló	-8.97531
▁ős	-8.97535
▁Lo	-8.97538
▁írás	-8.97665
vásár	-8.97665
▁Tamás	-8.97838
▁Bal	-8.97959
▁tag	-8.98027
▁|	-8.98047
▁számára	-8.98062
▁tekint	-8.98145
szk	-8.98193
▁évek	-8.98219
▁erős	-8.98365
▁pro	-8.98366
▁református	-8.9844
tudós	-8.98457
ria	-8.98467
▁fél	-8.98536
gazdaság	-8.98675
▁élt	-8.98716
▁1992	-8.98746
▁1998	-8.98746
ására	-8.98832
▁Kr	-8.99224
típus	-8.99358
▁folyó	-8.99362
▁25.	-8.99441
▁27.	-8.99456
▁mivel	-8.99479
▁lép	-8.99571
▁So	-8.99584
ológia	-8.99614
▁említ	-8.99781
▁23.	-8.99787
▁mert	-8.99856
▁ismét	-8.99982
▁ár	-8.9999
nagy	-9.0005
csap	-9.00197
men	-9.00307
▁2010	-9.00307
▁Kor	-9.0031
xi	-9.00324
lov	-9.00333
rch	-9.00336
74	-9.00519
burg	-9.00741
ember	-9.00814
néz	-9.00891
▁1977	-9.00907
lu	-9.00932
62	-9.00943
06	-9.01041
ítő	-9.01155
▁emel	-9.01207
▁nevű	-9.01219
▁1986	-9.01219
▁munka	-9.01226
▁történet	-9.01303
erő	-9.01446
▁annak	-9.01465
tatás	-9.01506
ője	-9.01572
34	-9.01671
oló	-9.01701
53	-9.01754
rét	-9.01787
▁Vár	-9.01787
ébe	-9.01837
▁különböző	-9.01846
▁szolgál	-9.01907
hegy	-9.01927
▁vas	-9.02055
▁jár	-9.02058
méter	-9.02064
nyugat	-9.02094
▁melyek	-9.02557
kori	-9.02691
▁vezet	-9.02812
▁alak	-9.0283
hal	-9.02932
met	-9.02936
ung	-9.02941
▁jelöl	-9.02945
▁álló	-9.02996
▁siker	-9.03109
▁1997	-9.03115
▁Ol	-9.03143
du	-9.03199
szak	-9.03201
▁Em	-9.03209
▁irodalom	-9.03234
▁társ	-9.03301
ovics	-9.03423
▁+	-9.0343
▁gyermek	-9.03434
▁1984	-9.03434
▁Köztársaság	-9.03443
gal	-9.03498
▁7.	-9.03662
▁Attila	-9.03754
▁központ	-9.03891
46	-9.03929
48	-9.04044
▁azaz	-9.04095
▁nő	-9.04139
▁Ben	-9.04197
▁do	-9.04242
lés	-9.04243
szik	-9.04692
ülső	-9.04696
▁rendelkez	-9.04723
▁tárgy	-9.04743
▁sereg	-9.05013
▁vezér	-9.05025
▁1985	-9.05048
hol	-9.0507
gu	-9.05094
sp	-9.05148
▁9.	-9.05262
▁lég	-9.0534
irat	-9.05343
▁Akadémia	-9.05372
▁Amerikai	-9.05389
▁harc	-9.05428
▁anyag	-9.05508
▁ezért	-9.05514
▁trón	-9.05727
▁Per	-9.05767
▁28.	-9.05797
kap	-9.05799
▁Múzeum	-9.06027
▁uralkodó	-9.06027
▁2016	-9.06045
▁halál	-9.06059
▁pr	-9.0611
▁Gergely	-9.06356
▁svéd	-9.06358
építés	-9.06408
▁regény	-9.06505
47	-9.06516
▁Nép	-9.06599
mán	-9.066
▁közt	-9.06643
08	-9.06687
▁2005	-9.06699
59	-9.06782
▁26.	-9.06792
dó	-9.07047
▁Gu	-9.07126
edett	-9.07167
oc	-9.07211
▁eredetű	-9.0735
illa	-9.07443
▁anyanyelvű	-9.07683
▁területe	-9.07721
▁24.	-9.07814
▁tudomány	-9.07855
▁nemzeti	-9.07864
ényi	-9.07957
▁Új	-9.0802
▁Ger	-9.08056
▁hív	-9.08069
kör	-9.08322
▁1930	-9.08354
▁gyors	-9.08357
▁érdek	-9.08359
▁0,	-9.0864
▁filozófus	-9.08689
gép	-9.087
▁építész	-9.08742
▁29.	-9.08791
02	-9.08831
05	-9.08854
▁1979	-9.09028
96	-9.09245
itás	-9.09289
den	-9.093
▁1941	-9.09367
táv	-9.09426
vég	-9.09488
▁22.	-9.09537
vo	-9.096
einek	-9.09698
▁miniszter	-9.09701
ford	-9.09743
▁mond	-9.098
ong	-9.09936
rány	-9.10018
▁tábornok	-9.10048
▁Zoltán	-9.10048
43	-9.10075
▁csillagász	-9.1008
▁indul	-9.10169
▁Német	-9.10364
up	-9.10388
▁listája	-9.10394
sor	-9.10437
ainak	-9.10452
mag	-9.10506
▁2012	-9.10754
▁Sp	-9.10771
▁öt	-9.10821
történet	-9.10962
▁1946	-9.11079
▁alkalmaz	-9.11258
▁pár	-9.11294
▁ért	-9.11301
ral	-9.11325
▁rá	-9.11327
▁Elek	-9.11398
▁párt	-9.11438
▁100	-9.11505
írás	-9.11528
jük	-9.11541
▁eredeti	-9.11627
atta	-9.11706
ice	-9.1172
▁megfelelő	-9.11772
▁Johann	-9.11772
▁1982	-9.11773
ányi	-9.11853
▁Tur	-9.11991
▁1996	-9.12121
▁szerv	-9.12155
▁telep	-9.1216
áig	-9.12166
▁munká	-9.12569
▁Antal	-9.12599
lal	-9.12706
uz	-9.12781
▁készült	-9.12804
▁általános	-9.12826
▁latin	-9.12837
han	-9.1313
OS	-9.13154
ították	-9.13171
▁Henrik	-9.13173
▁2014	-9.13197
telep	-9.13271
jára	-9.13388
▁Ezek	-9.13389
zott	-9.13537
völgy	-9.13537
▁mérték	-9.13671
hár	-9.13772
▁1976	-9.13882
▁folyamán	-9.13884
▁ekkor	-9.13973
▁Színház	-9.14237
▁New	-9.14394
szél	-9.14455
ick	-9.14563
Q	-9.14594
▁szükség	-9.14596
▁honvéd	-9.14868
▁vezető	-9.14954
ros	-9.14982
▁meghatároz	-9.15006
bíró	-9.15057
▁ismer	-9.15098
49	-9.15149
Á	-9.15318
92	-9.15444
▁szócikkek	-9.15465
dzs	-9.15488
éből	-9.15537
▁hadsereg	-9.15673
▁csapatok	-9.15673
fehér	-9.15673
–18	-9.15714
▁1993	-9.16037
97	-9.1608
▁Val	-9.16162
▁színház	-9.16164
▁állt	-9.16289
▁Nap	-9.16373
▁míg	-9.164
BSD	-9.16407
▁Franc	-9.16435
magyar	-9.1644
▁női	-9.1652
vér	-9.16567
éssel	-9.16627
▁kapta	-9.16749
▁Szlovákia	-9.16765
érték	-9.1709
▁1956	-9.1713
▁1988	-9.17131
▁Dr	-9.17155
gyógy	-9.17161
▁ezzel	-9.17178
89	-9.17262
▁összes	-9.174
of	-9.17484
▁kerül	-9.17614
ím	-9.17787
zése	-9.1779
zd	-9.17823
▁2009	-9.17867
▁1987	-9.17868
▁fény	-9.17892
▁tartott	-9.18008
kov	-9.1801
▁Ver	-9.18055
▁matematik	-9.18078
▁túl	-9.18112
▁szül	-9.18173
07	-9.18221
▁ilyen	-9.18239
▁Ku	-9.18265
▁30.	-9.18423
atározatlan	-9.18533
▁jobb	-9.18616
▁stb	-9.18705
ew	-9.18719
étől	-9.18958
▁görög	-9.18982
▁1983	-9.18983
▁finn	-9.19033
▁beszél	-9.19083
▁Már	-9.19272
39	-9.19274
szav	-9.19351
▁néhány	-9.19357
▁1978	-9.19357
▁1999	-9.19358
▁1970	-9.19358
▁Jenő	-9.19367
▁kéz	-9.19384
▁kath	-9.19488
▁témái	-9.19612
talan	-9.1962
▁általában	-9.19645
haszn	-9.19693
▁Ru	-9.19754
▁hatalm	-9.19766
▁Jan	-9.19772
▁and	-9.19798
▁pap	-9.19803
tartás	-9.20018
igazgató	-9.20102
del	-9.20159
▁atom	-9.20366
▁Erzsébet	-9.20489
▁1927	-9.2049
vezető	-9.20544
szövetség	-9.20652
ster	-9.20793
▁2020	-9.20898
szint	-9.20905
verseny	-9.20915
▁szabály	-9.21161
▁1948	-9.21251
▁25	-9.21319
▁Zsigmond	-9.21634
▁önálló	-9.21635
▁dönt	-9.21639
bert	-9.21694
▁Fő	-9.21744
ley	-9.21861
▁katonai	-9.21898
hanem	-9.21904
▁elektron	-9.22018
▁alapított	-9.22046
▁Paul	-9.22059
bol	-9.22077
▁területén	-9.22182
▁Tudományos	-9.22404
▁1921	-9.22406
▁tehát	-9.22407
▁Kon	-9.2256
rel	-9.22616
kkal	-9.22686
▁Névnapok	-9.22792
▁Szepes	-9.22795
európai	-9.23181
▁folyamat	-9.23183
▁2013	-9.23207
▁2015	-9.23211
▁hit	-9.23248
évé	-9.23416
film	-9.23452
▁Géza	-9.23573
ezték	-9.23723
▁1995	-9.23965
▁1960	-9.23966
▁szerző	-9.24042
ajtó	-9.24075
patak	-9.2409
▁temploma	-9.241
mor	-9.242
▁grafikus	-9.24358
▁nemzetközi	-9.24359
▁1918	-9.24359
▁elején	-9.24361
▁műve	-9.24374
▁történész	-9.24459
áris	-9.24475
▁énekesnő	-9.24556
álás	-9.24638
▁kapott	-9.24688
▁kül	-9.24736
▁1940	-9.24754
▁Albert	-9.24803
▁gazdasági	-9.24844
jú	-9.24912
▁vallás	-9.24919
▁Anna	-9.25007
▁Oscar	-9.2515
▁1943	-9.25151
vonal	-9.25156
etlen	-9.25369
választás	-9.25437
jét	-9.25513
▁kívül	-9.25549
▁1974	-9.25549
fürdő	-9.25551
▁to	-9.25714
ítja	-9.25721
▁Ste	-9.25727
ítása	-9.25765
%-	-9.25834
vis	-9.25901
▁Windows	-9.25948
▁nyelvész	-9.25954
▁2021	-9.25976
▁sport	-9.2629
▁Fekvése	-9.2635
▁1975	-9.26351
▁igen	-9.26353
▁szerződés	-9.26379
▁felett	-9.26486
▁bu	-9.26553
▁Határozott	-9.26753
parancsnok	-9.26814
▁test	-9.26867
esebb	-9.27013
▁nyilván	-9.27158
▁1981	-9.27159
ága	-9.27311
▁adó	-9.27517
▁Vág	-9.27538
▁függetlenség	-9.27573
▁Város	-9.27573
▁egyetem	-9.27611
ológiai	-9.27626
ással	-9.27654
▁arany	-9.27669
▁osztály	-9.27811
lad	-9.27824
▁korábbi	-9.27972
▁1972	-9.27974
▁1923	-9.27974
▁Híres	-9.27979
▁Bár	-9.2836
=	-9.2838
▁kísérlet	-9.28383
▁Pro	-9.2864
▁említik	-9.28646
▁1950	-9.28796
álló	-9.29011
о	-9.29207
▁1973	-9.29208
▁1920	-9.29209
▁felesége	-9.29212
▁foglal	-9.29276
állomás	-9.29471
▁csata	-9.29651
▁Gal	-9.29675
▁irodalomban	-9.29709
ndr	-9.29807
▁maga	-9.29813
múzeum	-9.30039
▁1928	-9.3004
▁1919	-9.30041
▁szervezet	-9.30065
▁emberek	-9.30219
formá	-9.30237
▁stílusban	-9.30261
▁fegyver	-9.30288
▁Mind	-9.30304
szeg	-9.30373
▁1900	-9.3046
▁száma	-9.30464
▁Ó	-9.30471
▁1848	-9.308
▁lakosság	-9.30841
▁visel	-9.30955
▁amit	-9.31005
▁független	-9.31042
lass	-9.31091
▁nyer	-9.31098
gor	-9.31177
meg	-9.31366
▁érdemes	-9.31476
▁fenn	-9.3156
▁2011	-9.31636
▁bor	-9.31679
▁legjobb	-9.31723
olás	-9.31828
gál	-9.31974
▁története	-9.32176
köd	-9.32231
▁egyetlen	-9.32384
▁melly	-9.32585
hang	-9.32706
római	-9.32708
▁esetén	-9.32893
▁eredménye	-9.32924
▁horvát	-9.33005
▁tartozik	-9.33005
▁támogat	-9.33024
▁szem	-9.33062
▁azonos	-9.3312
▁tenger	-9.33155
orosz	-9.3321
▁sorozat	-9.33271
▁kastély	-9.33418
▁1922	-9.33436
▁1938	-9.33437
tetés	-9.33485
▁Élet	-9.33538
▁látható	-9.33559
▁temet	-9.3373
▁1971	-9.33869
▁ostrom	-9.3387
▁Pest	-9.33961
emlék	-9.3404
világ	-9.3404
nyelv	-9.34066
▁ezen	-9.34074
ává	-9.34298
▁udvar	-9.34308
itz	-9.34339
▁éves	-9.34365
▁gond	-9.34391
jén	-9.34586
▁egykori	-9.34638
▁Árpád	-9.3474
▁2019	-9.3478
▁Dél	-9.34805
▁bal	-9.35015
▁1910-	-9.35157
▁hatás	-9.35158
Ő	-9.35179
▁tudományos	-9.35322
▁Pozsony	-9.35619
▁cigány	-9.3562
▁pénz	-9.35626
▁Leg	-9.35651
▁segít	-9.3566
más	-9.35789
▁vett	-9.35912
▁nincs	-9.36064
▁utca	-9.36071
▁érsek	-9.36088
▁mező	-9.36167
▁maradt	-9.36362
▁polgár	-9.36493
▁legtöbb	-9.36506
▁1953	-9.36507
▁csillag	-9.36548
▁mutat	-9.36835
▁fordul	-9.36905
▁helyett	-9.36939
sebesség	-9.36954
milyen	-9.36967
▁lakó	-9.36975
▁Ge	-9.37104
▁fontos	-9.37204
▁1949	-9.37402
▁Bern	-9.37567
▁gyakran	-9.37852
▁1964	-9.37853
▁1932	-9.37853
▁győz	-9.37861
falva	-9.38074
▁használt	-9.38222
▁1952	-9.38304
▁1968	-9.38305
▁eszköz	-9.38308
▁kő	-9.38335
ack	-9.38338
falu	-9.38355
▁szövetség	-9.38563
fej	-9.38679
▁En	-9.38752
▁Franciaország	-9.38759
▁űr	-9.38902
▁ura	-9.38945
▁ennek	-9.39083
ottak	-9.39147
gar	-9.39157
nevezett	-9.39203
▁1947	-9.39216
▁1926	-9.39217
▁(„	-9.39226
▁közé	-9.39358
▁cég	-9.39461
hivatal	-9.39627
▁lévő	-9.39674
▁Hor	-9.39778
▁No	-9.39899
áv	-9.39903
áló	-9.40046
rianoni	-9.40136
▁1967	-9.40136
▁hosszú	-9.40138
▁hét	-9.40251
pedagógus	-9.40598
▁1957	-9.40598
▁csehszlovák	-9.40598
▁japán	-9.41063
▁1925	-9.41064
▁Első	-9.41069
levél	-9.41123
▁jut	-9.41126
viz	-9.41166
▁marad	-9.41357
▁viszont	-9.4153
▁elnevezés	-9.41532
▁Róm	-9.41631
▁teljesen	-9.41718
▁biztosít	-9.41763
rád	-9.41874
▁szerzetes	-9.42
ságot	-9.42109
tiv	-9.42159
ésével	-9.42333
▁elhunyt	-9.42471
▁1934	-9.42473
▁1937	-9.42473
▁Neve	-9.42518
▁lemond	-9.42622
▁hajó	-9.42827
▁királyné	-9.42912
▁Kálmán	-9.42946
▁1929	-9.42947
▁1955	-9.42947
▁1963	-9.42947
▁magyarországi	-9.42973
▁harmadik	-9.42999
▁folytat	-9.43089
atív	-9.431
▁belül	-9.43158
▁idején	-9.43449
▁2017	-9.43454
▁2011-	-9.43551
bánya	-9.43694
gaz	-9.43813
▁1962	-9.43901
▁csatában	-9.43902
▁1913	-9.43902
our	-9.44016
nov	-9.44115
▁halála	-9.44124
▁keres	-9.44279
▁fejlődés	-9.44381
▁elfogad	-9.44387
▁Párt	-9.44432
▁vannak	-9.44556
▁1912	-9.44866
▁2018	-9.44888
▁nyelvű	-9.44891
▁szemben	-9.44895
▁Vas	-9.45074
vagy	-9.45227
▁lakosai	-9.45263
▁utal	-9.45319
▁származik	-9.4535
▁adomány	-9.45351
▁alapítója	-9.45356
▁Észak	-9.45378
templom	-9.45391
▁szinté	-9.45709
ásának	-9.45744
▁tanulmány	-9.45837
▁róla	-9.46028
▁Mont	-9.4613
ž	-9.46327
▁követően	-9.46331
▁Tibor	-9.46338
▁őket	-9.46369
▁serege	-9.46384
É	-9.46403
▁értelme	-9.46443
▁arra	-9.46724
▁lelkész	-9.4682
▁1931	-9.46822
színész	-9.47046
ock	-9.47172
▁Ferdinánd	-9.47315
állapot	-9.47323
▁Jó	-9.47382
hajó	-9.47537
ügyi	-9.47574
Š	-9.47812
▁Szlovákiában	-9.47812
▁uralkodik	-9.47812
▁1939	-9.47814
modell	-9.47849
▁politikai	-9.47857
támadás	-9.47917
szabad	-9.47935
▁kiadás	-9.48083
tető	-9.48175
ésének	-9.48229
zák	-9.48279
▁Habsburg	-9.48312
▁környék	-9.48313
▁1954	-9.48314
▁1942	-9.48314
▁Király	-9.48574
▁egyszerű	-9.48767
▁keresztnevek	-9.48815
▁Frigyes	-9.48815
▁mozg	-9.49175
▁Ér	-9.49215
▁Tor	-9.49285
>	-9.4932
▁történelmi	-9.4932
▁Mor	-9.49577
▁ipar	-9.49682
▁vezette	-9.49709
▁1966	-9.49829
▁1951	-9.49829
▁Ekkor	-9.49838
kritikus	-9.49845
▁Robert	-9.49874
tetett	-9.49887
▁magát	-9.49943
▁bemutat	-9.49976
▁1969	-9.50338
▁vizsgál	-9.50338
▁működés	-9.50341
▁vette	-9.50392
▁lakosa	-9.50418
hatóság	-9.50436
▁Anton	-9.50495
▁vezetője	-9.50512
sorozat	-9.50534
semények	-9.50812
▁1936	-9.50852
▁Bécs	-9.50858
▁Simon	-9.50912
▁épített	-9.5114
▁George	-9.51183
*	-9.51225
▁barokk	-9.51366
▁partján	-9.51367
▁volna	-9.51368
▁nevét	-9.5143
▁zenész	-9.51487
szlovákul	-9.51488
ozza	-9.51511
▁Mór	-9.51598
▁Lipót	-9.51885
▁1933	-9.51886
▁Jean	-9.51907
mennyi	-9.5197
Y	-9.5213
▁híres	-9.52134
▁elég	-9.52166
▁birtoka	-9.52284
séggel	-9.52318
▁Pol	-9.52402
▁részecské	-9.52406
▁1914	-9.52407
▁levele	-9.52527
▁könyvtár	-9.52589
▁Ura	-9.52604
▁Ennek	-9.52625
▁Török	-9.52741
ux	-9.52749
gyűlés	-9.52898
▁közigazgatás	-9.52929
▁1959	-9.5293
▁1961	-9.5293
▁1924	-9.52931
▁tr	-9.52985
▁közös	-9.53059
oldal	-9.53074
követ	-9.53389
▁királynő	-9.53409
▁Kép	-9.53454
▁Zrínyi	-9.53455
▁operáció	-9.53455
▁modern	-9.53456
▁terjed	-9.53456
▁kétszeres	-9.53458
▁szavak	-9.53468
tervező	-9.53577
▁Iván	-9.5362
▁fejleszt	-9.53627
▁alakult	-9.53695
képző	-9.5371
tudományban	-9.53783
▁Hal	-9.53813
▁kifejezés	-9.5403
▁szerepe	-9.54194
járó	-9.54272
▁ezer	-9.54282
▁részét	-9.54343
▁Budapesten	-9.54419
▁Lin	-9.5444
▁férfi	-9.54503
▁segítségével	-9.54516
▁Könyv	-9.54516
▁Oszmán	-9.54516
▁1965	-9.54518
▁Wal	-9.54552
▁ered	-9.54678
▁együttes	-9.54731
Magyar	-9.54849
▁mindig	-9.54863
▁lány	-9.54972
párt	-9.55035
▁haza	-9.55037
▁nemzetiségű	-9.55051
▁Buda	-9.55264
▁Inter	-9.55321
kapitány	-9.55592
szerkezet	-9.55744
jelentés	-9.55775
▁Királyság	-9.55847
▁Nevé	-9.55877
Í	-9.56125
repülő	-9.56129
szabadságharc	-9.56129
▁Fülöp	-9.56129
▁Svédország	-9.56129
▁Szovjetunió	-9.56129
▁Balázs	-9.5613
áját	-9.56597
első	-9.56662
▁közlekedés	-9.56673
▁Tisza	-9.56715
▁Alsó	-9.56726
mus	-9.56782
díjat	-9.56853
pal	-9.57006
például	-9.57077
▁Microsoft	-9.57219
▁dísz	-9.5722
▁1903	-9.5722
▁1935	-9.57221
▁2023	-9.57256
társaság	-9.57297
▁állat	-9.57565
▁kam	-9.57719
▁kínai	-9.57769
▁hónap	-9.5777
függvény	-9.5777
▁feladat	-9.57778
szláv	-9.57802
lóg	-9.57842
▁tartozó	-9.57856
szár	-9.57905
▁székhelye	-9.58178
por	-9.582
▁Nor	-9.58214
cher	-9.58225
▁kér	-9.58299
gyűjt	-9.58321
▁fájl	-9.58324
▁világbajnok	-9.58341
▁olvas	-9.58358
▁jogász	-9.58478
com	-9.5873
▁meghal	-9.58818
ásával	-9.58858
▁jellemző	-9.58876
▁keletkez	-9.58876
▁1958	-9.58876
hullám	-9.58877
▁járásához	-9.58934
ődés	-9.58971
isztika	-9.59006
▁benne	-9.5904
▁rendszerek	-9.59213
а	-9.59435
▁születésű	-9.59435
▁nevezzük	-9.59435
ktív	-9.59502
edik	-9.59581
▁hír	-9.59584
▁jelentése	-9.59633
▁szerk	-9.59658
▁Arany	-9.598
▁trónra	-9.59977
össze	-9.59978
▁alakít	-9.59988
▁portugál	-9.59997
▁kölcsönhatás	-9.59997
▁York	-9.6
▁honlapja	-9.60103
▁száz	-9.60336
rendel	-9.60358
ukat	-9.60492
н	-9.60562
ller	-9.6058
zene	-9.6063
▁(16	-9.61092
▁Nevezetessége	-9.6113
▁szinte	-9.6115
▁béke	-9.61237
▁kód	-9.61348
▁Mac	-9.61701
▁kérdés	-9.61728
▁reg	-9.61857
▁határoz	-9.61893
▁szép	-9.62158
▁bizonyít	-9.62276
▁békeszerződés	-9.62276
▁Bethlen	-9.62276
▁Charles	-9.62276
▁viszony	-9.62276
▁Róbert	-9.62277
▁Mil	-9.62294
szög	-9.62337
Fényes	-9.62462
▁száll	-9.62604
▁Rá	-9.62825
▁szenved	-9.62855
Office	-9.62855
▁állandó	-9.62856
▁1911	-9.62856
▁Szabó	-9.62858
▁ítél	-9.62883
ssy	-9.6315
▁jav	-9.63157
▁parlament	-9.63436
▁Katalin	-9.63436
▁eredete	-9.63443
▁mennyiség	-9.6345
▁figyel	-9.6349
doktor	-9.63509
cal	-9.63617
▁felső	-9.63662
szün	-9.63917
▁készített	-9.63953
fizika	-9.6398
ská	-9.63985
и	-9.6402
▁Báthory	-9.6402
▁svájci	-9.6402
▁feltaláló	-9.6402
▁2022	-9.64021
cent	-9.64021
▁1906	-9.64022
▁1916	-9.64022
▁Németország	-9.64066
▁1890	-9.64098
ezred	-9.64107
▁visszatér	-9.64152
▁újabb	-9.64198
▁munkás	-9.64201
▁tót	-9.64388
▁jelölés	-9.64576
ling	-9.64653
védelmi	-9.64863
▁holland	-9.65203
fejlesztés	-9.65229
mikor	-9.65456
prím	-9.65765
▁keresztül	-9.65802
ítják	-9.65874
▁22	-9.66039
▁Formula	-9.66394
▁Szövetség	-9.66394
▁verzió	-9.66394
▁vasúti	-9.66396
▁1908	-9.66396
▁Márton	-9.66455
▁indít	-9.665
▁Ford	-9.66889
válasz	-9.66983
▁szoftver	-9.66997
▁drámaíró	-9.66997
▁korábban	-9.66997
▁táj	-9.67056
▁jelenleg	-9.6712
▁Felső	-9.67178
▁hőmérséklet	-9.67603
▁vármegyé	-9.67603
▁Egyéb	-9.67606
képpen	-9.67612
terület	-9.67777
▁főváros	-9.67815
▁akár	-9.68031
ográfus	-9.68049
▁1909	-9.68213
▁legyőz	-9.68213
▁keresztény	-9.68215
▁Lengyelország	-9.68228
vállal	-9.68267
eredetileg	-9.68273
▁készít	-9.68522
▁neki	-9.68664
▁esetben	-9.68724
vág	-9.68811
<	-9.68826
▁Párizs	-9.68826
▁Népessége	-9.68826
▁1902	-9.68828
▁Endre	-9.6883
▁hivatkozások	-9.68836
▁fogad	-9.68846
▁erdő	-9.68876
▁Duna	-9.68907
▁szárm	-9.68949
▁szerb	-9.68964
dob	-9.69007
▁széles	-9.69083
▁Vilmos	-9.69443
▁módszer	-9.6945
▁Szil	-9.69479
▁nyugati	-9.69589
▁törökök	-9.696
▁lakták	-9.6964
csoport	-9.69668
víz	-9.69718
eck	-9.69874
▁opera	-9.70027
▁felhasználó	-9.70064
▁hunyt	-9.70065
▁Tanács	-9.70065
▁Kovács	-9.70066
▁1915	-9.70067
titkár	-9.70073
▁úszó	-9.70082
tábor	-9.7011
pálya	-9.70192
/2	-9.7034
osztás	-9.70628
▁válogatott	-9.70689
▁kutatás	-9.70691
▁házasság	-9.70697
▁barát	-9.70698
▁skót	-9.70713
▁lehetőség	-9.70722
▁főispán	-9.70744
irodalom	-9.70778
▁élő	-9.70887
halmaz	-9.70971
▁ún	-9.71035
ovce	-9.71144
▁1892	-9.71149
▁gótikus	-9.71321
▁örökös	-9.71321
▁Margit	-9.71323
▁ismeretlen	-9.71336
▁színművész	-9.71469
▁William	-9.71555
kodó	-9.71596
▁szobrász	-9.71937
▁kolostor	-9.71951
▁tevékenység	-9.71951
▁ebből	-9.71953
▁súly	-9.71956
▁evang	-9.71958
szky	-9.71991
▁szóló	-9.72015
▁kötött	-9.72042
▁vers	-9.72233
▁naptár	-9.72242
foglalkoz	-9.72256
▁bevezet	-9.72328
IX	-9.72581
gatás	-9.72584
ć	-9.72588
▁Hivatal	-9.72588
▁Irodalmi	-9.72588
▁csökken	-9.72588
▁forradalom	-9.72588
▁1917	-9.72591
▁Lásd	-9.72593
▁polgármester	-9.72608
▁fogalma	-9.7266
▁továbbá	-9.72821
hogy	-9.72844
menet	-9.72851
ődik	-9.73059
rendezés	-9.73093
▁Farkas	-9.73229
▁problém	-9.73229
▁utóbbi	-9.73229
▁nyug	-9.7323
▁oszmán	-9.73232
▁Ugyan	-9.73236
▁fizikai	-9.7331
sejt	-9.7332
▁kedv	-9.73422
▁David	-9.73875
▁Kiadó	-9.73894
sugár	-9.73906
▁leírás	-9.74076
▁most	-9.74133
▁inter	-9.74517
▁részecske	-9.74525
▁művelet	-9.74599
▁Közép	-9.74616
▁kormányzó	-9.74631
hall	-9.74663
▁alakban	-9.74682
▁Vég	-9.74863
független	-9.74913
▁1849	-9.75002
▁1905	-9.75179
▁Martin	-9.75212
▁kettő	-9.75219
▁Reg	-9.75523
▁alkalmazás	-9.75535
▁producer	-9.75835
▁bizánci	-9.75835
▁üzem	-9.75836
hálózat	-9.75836
▁hadjárat	-9.75837
▁régész	-9.7584
▁kialakul	-9.75844
▁katona	-9.76038
▁távolság	-9.7622
tenger	-9.76327
anyag	-9.76405
▁alakja	-9.76464
е	-9.76497
▁Széchenyi	-9.76498
▁világnapok	-9.76498
▁legyen	-9.76529
▁dán	-9.76659
post	-9.76741
tiszt	-9.76794
ovszky	-9.76818
német	-9.77092
▁okoz	-9.77111
▁bizonyos	-9.77164
▁Ágnes	-9.77164
▁keleti	-9.77168
▁kiváló	-9.77168
▁megalakul	-9.77174
▁hadvezér	-9.77183
járás	-9.77528
▁vallású	-9.77564
függő	-9.77695
listá	-9.77789
▁támogatás	-9.77806
▁Kereszt	-9.77836
▁bolygó	-9.77836
▁emléknapok	-9.77836
stein	-9.7788
▁pályá	-9.77896
▁1880	-9.77931
▁fiatal	-9.77992
alapító	-9.78049
evics	-9.78239
▁áldozat	-9.78511
▁Művész	-9.78511
gyűjtemény	-9.78511
▁Film	-9.78526
ódás	-9.78687
▁példá	-9.79046
kötés	-9.79121
▁kanadai	-9.79191
▁környezet	-9.79191
asszony	-9.79196
▁Sporte	-9.79199
▁Vályi	-9.792
▁tűz	-9.79212
virág	-9.79222
torny	-9.79224
▁iskolá	-9.79327
határ	-9.79329
▁pusztít	-9.79335
▁vonatkozó	-9.79374
▁të	-9.79544
&	-9.79876
▁Michael	-9.79876
▁Rudolf	-9.79876
▁Jakab	-9.7988
▁kellett	-9.80285
▁Horváth	-9.80566
▁itáliai	-9.80566
▁beszéd	-9.80567
▁rádió	-9.80568
▁vektor	-9.80571
ight	-9.80796
▁járásában	-9.80959
Ü	-9.8126
▁1907	-9.81262
▁ellenére	-9.81595
▁támad	-9.81832
▁forgatókönyvíró	-9.8196
▁irodalmi	-9.8196
▁közgazdász	-9.8196
▁nyílt	-9.8196
▁1904	-9.81961
▁James	-9.81969
ög	-9.81973
▁időszak	-9.82029
gráf	-9.82125
kötő	-9.82287
▁követel	-9.82332
▁Dániel	-9.82664
▁intézmény	-9.8268
vírus	-9.82693
▁népszerű	-9.82727
▁dolgoz	-9.83234
hossz	-9.83342
▁nehéz	-9.83373
▁Nyugat	-9.83373
▁repülőgép	-9.83373
▁Országgyűlés	-9.83376
▁logika	-9.83377
▁Sáros	-9.83391
▁1910	-9.83412
▁szász	-9.83567
▁eljárás	-9.83585
▁érint	-9.83632
▁stílus	-9.83706
bajnok	-9.84049
elnök	-9.84075
▁gyakorlat	-9.84087
▁inkább	-9.84087
▁processzor	-9.84087
▁Richard	-9.84088
▁London	-9.84088
▁Világ	-9.8409
▁szentelt	-9.84095
▁áram	-9.84361
▁működött	-9.84807
▁kiadott	-9.84813
▁részén	-9.84926
▁Rad	-9.85409
▁tárol	-9.85447
▁elsősorban	-9.85532
▁Szabad	-9.85533
kastély	-9.85561
▁irányít	-9.85758
▁autó	-9.85813
▁Éva	-9.8596
▁1897	-9.86061
▁lépése	-9.86142
Zemplén	-9.86261
▁csatlakoz	-9.86261
▁kuruc	-9.86261
▁közvetlen	-9.86261
▁Nyitra	-9.86263
▁évvel	-9.86275
▁alkotmány	-9.86325
▁ebben	-9.8637
▁eredmény	-9.86447
ográfia	-9.86925
▁Nemzetközi	-9.86997
▁Társaság	-9.86997
▁lexikon	-9.86997
▁végrehajt	-9.87003
▁nyelvcsalád	-9.87042
▁közösség	-9.87151
▁kezdő	-9.87384
▁alakul	-9.87672
választott	-9.87686
ódott	-9.87686
ľ	-9.87737
▁budapesti	-9.87737
▁létezik	-9.87737
▁Több	-9.87738
▁Zsolna	-9.87739
▁többször	-9.87739
▁Phil	-9.87755
▁nevén	-9.87768
▁reform	-9.87772
▁Miskolc	-9.88484
▁növény	-9.88484
▁tiszteletére	-9.88505
egyetem	-9.88607
▁rang	-9.88717
▁koroná	-9.88797
▁béké	-9.88811
▁Emil	-9.88913
▁kivált	-9.88927
▁információ	-9.8906
▁helyzet	-9.89111
▁fejedelm	-9.89237
▁köztársasági	-9.89237
▁Dénes	-9.89249
▁férfinév	-9.89254
bázis	-9.8927
▁Kelet	-9.89297
program	-9.89381
▁dolgozott	-9.89384
▁1896	-9.89824
в	-9.89993
érfikeresztnevek	-9.89993
▁dokumentum	-9.89993
▁közepén	-9.89993
▁kémikus	-9.89994
▁szokás	-9.90109
háború	-9.90135
▁találkoz	-9.9014
▁1898	-9.90697
▁1895	-9.90724
▁Később	-9.90756
költöz	-9.90757
▁alapvető	-9.90757
▁építették	-9.90971
stru	-9.91472
Ú	-9.91518
▁fokozat	-9.91526
▁Trencsén	-9.91526
▁lehetővé	-9.91526
▁gyógyszer	-9.9153
▁szerep	-9.91542
▁cikk	-9.9157
▁azzal	-9.91635
gimnázium	-9.92301
è	-9.92301
▁bécsi	-9.92301
▁Ádám	-9.92301
▁belső	-9.92502
▁használják	-9.9255
ă	-9.93082
▁ügyvéd	-9.93082
Ferrari	-9.93082
▁térképén	-9.93083
▁tizen	-9.93084
kísér	-9.93085
▁addig	-9.93086
▁elvesz	-9.93157
▁belga	-9.93171
▁1889	-9.93646
с	-9.93869
▁Olaszország	-9.93869
▁ausztrál	-9.93869
▁zongoraművész	-9.93869
▁kilométer	-9.9387
▁uradalom	-9.9387
▁töltött	-9.93887
▁Csaba	-9.93889
czky	-9.93898
onnan	-9.93988
▁str	-9.94114
politika	-9.94593
televízió	-9.94663
~	-9.94663
▁reneszánsz	-9.94663
▁1901	-9.94666
▁Szeged	-9.94666
▁Peter	-9.9472
▁Országos	-9.94808
külön	-9.94998
orvos	-9.95003
osztály	-9.95065
biztos	-9.95067
▁zászló	-9.95463
▁karmester	-9.95466
▁katoná	-9.95479
▁nevezetes	-9.95509
▁felől	-9.95548
▁kulturális	-9.95622
ispán	-9.95805
szolgáltatás	-9.96262
▁esztergom	-9.9627
▁Ilona	-9.96272
▁katonatiszt	-9.96277
▁felkelés	-9.96279
▁Frank	-9.9628
▁rock	-9.96353
▁hercegnő	-9.96483
amerikai	-9.96642
▁isten	-9.97068
▁diplomata	-9.97083
▁hagyományos	-9.97083
▁Dezső	-9.97084
▁terem	-9.97133
▁sikerült	-9.97149
▁bővít	-9.9719
▁Községi	-9.97286
obce	-9.97415
DOS	-9.97673
▁szeret	-9.97706
professzor	-9.97902
▁izraeli	-9.97902
▁felhasználás	-9.97902
▁kommunista	-9.97903
▁nádor	-9.97905
▁menekül	-9.97912
nyújt	-9.97931
▁Állam	-9.9802
▁Uraság	-9.98069
bőv	-9.98083
▁közelében	-9.98146
barlang	-9.98729
▁Zsuzsa	-9.98729
▁ifjúság	-9.98729
▁szereplő	-9.98768
▁tava	-9.99385
ł	-9.99562
▁gazdag	-9.99562
▁leggyakoribb	-9.99562
▁valószínűleg	-9.99563
▁vállalat	-9.99573
mérő	-9.99706
▁alkalmas	-9.99796
foglalás	-9.99855
°	-10.004
▁görögkatolikus	-10.004
▁üzlet	-10.004
▁engedély	-10.004
▁USA	-10.004
bombá	-10.0043
ítani	-10.0046
▁elterjed	-10.0125
▁Oroszország	-10.0125
▁értelemben	-10.0125
▁igény	-10.0129
alkotás	-10.0132
Abaúj	-10.0135
▁Petr	-10.0161
énekesnő	-10.0162
regény	-10.018
technika	-10.021
▁Eperjes	-10.021
▁befolyás	-10.021
▁szomszéd	-10.021
▁vereséget	-10.021
▁mitológia	-10.0211
▁Unió	-10.0211
▁hossza	-10.0253
▁Thomas	-10.0297
▁energia	-10.0297
▁projekt	-10.0297
▁látogat	-10.0297
▁mikro	-10.0298
izáció	-10.0306
▁mozgás	-10.0307
▁ugyanaz	-10.031
▁zené	-10.0323
▁kezel	-10.0351
építő	-10.0357
király	-10.0357
állam	-10.0362
▁következtében	-10.0384
▁ukrán	-10.0384
▁Pécs	-10.0385
helyettes	-10.0432
р	-10.0471
▁Pálffy	-10.0471
▁egyenlő	-10.0472
▁Ill	-10.0507
központ	-10.055
▁Politikai	-10.056
▁Tóth	-10.058
▁Például	-10.0649
▁formátum	-10.0649
▁változtat	-10.065
alapítás	-10.065
▁Így	-10.065
▁Open	-10.0651
bozon	-10.0655
▁kezdve	-10.0658
▁nevezték	-10.0659
▁Andor	-10.0664
▁geográf	-10.0685
csillag	-10.0722
▁felfed	-10.0733
л	-10.0739
paradoxon	-10.0739
▁energiá	-10.0739
▁utasítás	-10.0739
▁Poprád	-10.0739
▁különösen	-10.0739
▁Ákos	-10.0741
▁felfedező	-10.0743
ékeny	-10.0754
élyes	-10.0812
szállás	-10.0823
▁Székely	-10.083
François	-10.083
▁Joseph	-10.083
▁nyolc	-10.083
▁Nyelv	-10.0831
▁formában	-10.0834
▁forint	-10.0843
▁hatására	-10.0846
hetetlen	-10.0853
korszak	-10.0895
▁történő	-10.0922
▁fekvő	-10.0922
▁szlovén	-10.0922
▁kezdte	-10.0966
slav	-10.0993
▁folyt	-10.0995
töltés	-10.0996
−	-10.1014
▁Wilhelm	-10.1014
▁Vörös	-10.1015
▁szőlő	-10.1015
▁Árva	-10.1015
▁ütköz	-10.1015
▁Ebből	-10.1015
://	-10.1015
▁termék	-10.1015
▁ezredes	-10.1017
▁tánc	-10.1018
▁jött	-10.1018
▁szakasz	-10.1025
▁tatár	-10.1025
▁fordítás	-10.1045
▁kiemelkedő	-10.1108
▁klasszikus	-10.1108
▁vízilabdázó	-10.1108
▁Kornél	-10.1114
▁megoldás	-10.1122
▁Georg	-10.1146
т	-10.1202
▁karakter	-10.1202
▁megalapítj	-10.1202
▁ezután	-10.1214
▁kevés	-10.1251
ontosabb	-10.1269
▁pszich	-10.1296
▁Hunyadi	-10.1297
▁szinkron	-10.1297
▁Fehér	-10.1298
▁vezetésével	-10.13
▁nyelvjárás	-10.1306
izált	-10.1309
kincs	-10.1351
ődött	-10.1382
▁megszűnt	-10.1394
▁működik	-10.1394
▁atléta	-10.1394
▁játszott	-10.1394
▁elérhető	-10.1394
▁internet	-10.1394
▁módosít	-10.1394
▁Ilyen	-10.1395
▁szobrászművész	-10.1396
▁rokon	-10.1396
▁bűn	-10.1397
váltás	-10.1403
q	-10.1469
▁Református	-10.1491
▁jezsuita	-10.1491
▁történelem	-10.1491
▁villamos	-10.1491
▁Bizottság	-10.1491
▁feleségül	-10.1491
▁Megjelen	-10.1491
▁előfordul	-10.1491
▁lehetséges	-10.1491
▁mély	-10.1492
▁bites	-10.1493
▁India	-10.1494
▁birtokosa	-10.1495
Nagy	-10.1498
aléria	-10.1511
szolgálat	-10.1569
▁mágnes	-10.1589
▁birodalm	-10.1589
▁próbál	-10.1589
▁Ágost	-10.1589
▁Unix	-10.1589
▁befejez	-10.159
▁népesség	-10.1591
▁testvér	-10.1593
vezér	-10.16
avoyai	-10.1688
filozófia	-10.1688
▁Friedrich	-10.1688
▁Petőfi	-10.1688
▁műsorvezető	-10.1688
▁vezetőinek	-10.1689
▁edző	-10.1692
család	-10.1693
felvétel	-10.1694
▁átalakít	-10.1696
▁szakíró	-10.1696
▁ellát	-10.1705
Č	-10.1788
ň	-10.1788
▁elfoglalja	-10.1788
▁kereskedelmi	-10.1788
▁évforduló	-10.1788
▁Liptó	-10.1788
▁hangszerek	-10.1789
▁üzen	-10.1789
▁felület	-10.179
forgalm	-10.1814
×	-10.1889
▁Gyakoriság	-10.1889
▁himnusz	-10.1889
▁ábrázol	-10.1889
▁származó	-10.1889
valószínű	-10.1889
▁rendelet	-10.1893
▁Máté	-10.1895
▁vize	-10.1896
intézet	-10.1944
д	-10.1991
▁Gabriel	-10.1991
▁Apafi	-10.1991
▁Gróf	-10.1992
▁1828-	-10.1992
bomlás	-10.1994
▁felfedezés	-10.1995
▁fekete	-10.1996
▁függ	-10.2011
▁székhely	-10.2018
▁Kristóf	-10.2094
▁definíció	-10.2094
▁norvég	-10.2094
▁Ödön	-10.2094
▁ruszin	-10.2094
▁1871	-10.2094
▁kivétel	-10.2094
▁Viktor	-10.2095
Szlovák	-10.2095
táblá	-10.2097
ction	-10.2103
▁hajt	-10.2109
▁esszé	-10.2145
▁alkalm	-10.2163
ellenes	-10.2179
▁parancs	-10.2182
▁érvényes	-10.2198
▁értelmében	-10.2198
▁csapatai	-10.2198
▁licenc	-10.2198
▁egyezmény	-10.2198
▁természettudós	-10.2203
▁speciális	-10.2303
▁weboldal	-10.2303
▁Intézet	-10.2303
▁Gömör	-10.2303
▁északkelet	-10.2303
vezetés	-10.2363
▁kapcsolód	-10.2377
művek	-10.2379
▁homo	-10.2383
ulturális	-10.2389
ș	-10.241
▁Alfred	-10.241
▁diktátum	-10.241
▁kancellár	-10.241
▁szabvány	-10.241
▁minőség	-10.241
▁Benedek	-10.241
▁igazgatója	-10.2412
▁alsó	-10.2413
▁oktatás	-10.2415
▁középkori	-10.2415
▁formájá	-10.2435
▁kezd	-10.2506
▁klasszici	-10.2517
▁főherceg	-10.2517
▁tetszőleges	-10.2517
▁Mehmed	-10.2517
▁brazil	-10.2517
▁apátság	-10.2518
▁honlapján	-10.2526
egyenlet	-10.2546
készítő	-10.2583
▁Lengyel	-10.2623
▁Ignác	-10.2626
▁Európá	-10.2626
▁legfontosabb	-10.2626
▁ENSZ	-10.2626
▁foglalkoztak	-10.2626
▁lovag	-10.2626
▁alábbi	-10.2627
▁nyár	-10.2636
▁munkájá	-10.2688
▁elektromos	-10.2736
▁lineáris	-10.2736
neutrínó	-10.2736
▁székely	-10.2736
▁Louis	-10.2736
▁szerzett	-10.2737
változat	-10.2781
fegyver	-10.2781
birtok	-10.2781
▁kölcsön	-10.2847
vasútvonal	-10.2847
▁Gusztáv	-10.2847
www	-10.2847
▁kíván	-10.2847
▁megalkot	-10.2927
afrikai	-10.2959
kápolna	-10.2959
▁Gimnázium	-10.2959
▁királlyá	-10.2959
▁ortodox	-10.2959
▁történik	-10.2959
▁Természet	-10.2959
▁August	-10.2959
▁kaland	-10.2964
▁piac	-10.2966
gyártás	-10.299
futó	-10.3005
kezelő	-10.3015
front	-10.3071
▁besorolás	-10.3073
▁botanikus	-10.3073
▁pozitív	-10.3073
▁Komárom	-10.3073
▁Molnár	-10.3073
▁paraszt	-10.3073
▁frank	-10.3073
bizottság	-10.3073
▁eltérő	-10.3073
▁Három	-10.3074
készlet	-10.3074
▁megszáll	-10.3125
▁tölt	-10.3145
▁épül	-10.3147
gyakrabban	-10.3188
kategóriá	-10.3188
▁Csehország	-10.3188
▁geometria	-10.3188
▁rendkívül	-10.3188
▁történt	-10.3188
▁zoológus	-10.3188
▁felelős	-10.3189
szkij	-10.3191
▁gyerek	-10.3191
▁távol	-10.3243
alapú	-10.3257
▁Alapítvány	-10.3304
ragóniai	-10.3304
▁publicista	-10.3304
▁tüntet	-10.3304
▁XII	-10.3304
▁értendő	-10.3304
▁révén	-10.3304
▁IBM	-10.3304
▁Judit	-10.3305
▁kényszer	-10.3306
▁enged	-10.3306
▁kifejez	-10.3417
McLaren	-10.3422
▁bolgár	-10.3422
▁külügyminiszter	-10.3422
▁társadalom	-10.3422
▁Görög	-10.3422
▁dollár	-10.3422
▁csupán	-10.3422
▁tűzvész	-10.3422
▁1869	-10.3422
▁Bálint	-10.3422
▁http	-10.3422
oszlop	-10.3422
▁kezdődött	-10.3422
▁Fekete	-10.343
▁operaénekes	-10.3444
lőször	-10.3537
▁XVI	-10.3541
▁jégkorongozó	-10.3541
▁molekulá	-10.3541
▁Románia	-10.3541
▁Gáspár	-10.3541
▁Hévíz	-10.3541
▁hirdet	-10.3541
▁jobbágy	-10.3541
▁Emlék	-10.3541
▁termékeny	-10.3541
▁Japán	-10.3541
▁megyében	-10.3544
alföldi	-10.3545
▁hiány	-10.3545
Ameriká	-10.355
TeX	-10.3598
▁hivatkoz	-10.3659
▁Debrecen	-10.3661
▁bíboros	-10.3661
▁Dávid	-10.3661
▁titkos	-10.3661
▁helyezked	-10.3661
▁Murád	-10.3662
▁idéz	-10.3662
▁levő	-10.3663
▁múlt	-10.3663
repülés	-10.3665
fajta	-10.3781
▁Ulászló	-10.3783
▁hegedűművész	-10.3783
▁kiterjed	-10.3783
▁túlnyomó	-10.3783
gyűrű	-10.3783
▁Labdarúgó	-10.3783
▁tábornagy	-10.3783
▁1858	-10.3783
▁korlátoz	-10.3783
kereskedő	-10.3784
▁költség	-10.3784
▁szellem	-10.3784
▁vívó	-10.3784
▁Klára	-10.3785
dinamik	-10.3785
▁készül	-10.3789
szervezet	-10.3867
▁Jugoszláv	-10.3907
▁plébánia	-10.3907
▁földbirtokos	-10.3907
▁bármely	-10.3907
▁vegyész	-10.3907
▁Henry	-10.3907
▁kvark	-10.3908
Polgár	-10.3908
▁Szűz	-10.3912
▁fedez	-10.3983
politikus	-10.3995
tömörítés	-10.4032
▁Alfonz	-10.4032
▁Általános	-10.4032
▁Edward	-10.4032
▁kizárólag	-10.4032
▁külföldi	-10.4032
▁Daniel	-10.4032
▁Isten	-10.4032
▁bajor	-10.4032
▁csúcs	-10.4032
▁index	-10.4033
óceán	-10.4033
▁foglalkozik	-10.4033
▁idény	-10.4034
testület	-10.4035
▁ifj	-10.4045
▁tartalm	-10.4087
▁Zenei	-10.4095
fizikus	-10.4125
Mercedes	-10.4158
▁Evangélikus	-10.4158
▁Romániában	-10.4158
▁Sámuel	-10.4158
▁egyértelmű	-10.4158
▁legalább	-10.4158
▁teljesítmény	-10.4158
▁negyedik	-10.4158
▁neutron	-10.4158
▁tartoznak	-10.4158
▁megalapítója	-10.4159
▁Losonc	-10.4159
termelés	-10.4189
▁vonatkoz	-10.4252
folyam	-10.4286
▁Osztrák	-10.4287
▁megkülönböztet	-10.4287
biztonság	-10.4287
▁Irodalom	-10.4287
▁Napóleon	-10.4287
▁Thököly	-10.4287
▁úttörője	-10.4287
▁kidolgoz	-10.4287
▁küldött	-10.4287
▁ugyanakkor	-10.4287
▁kiadvány	-10.4287
▁példa	-10.4287
▁ritka	-10.4287
▁innen	-10.4289
▁elhelyez	-10.4302
▁esemény	-10.434
å	-10.4416
▁Gazdaság	-10.4416
▁Rózsa	-10.4416
▁Spanyolország	-10.4416
▁egyiptomi	-10.4416
▁elsődleges	-10.4416
▁tökéletes	-10.4416
▁velencei	-10.4416
▁tenzor	-10.4416
▁küzd	-10.4417
▁1852	-10.4417
▁szemlél	-10.4417
▁uradalm	-10.4417
▁fenti	-10.4418
▁évtized	-10.4548
fesztivál	-10.4548
▁Higgs	-10.4548
▁Könyvkiadó	-10.4548
▁grupoid	-10.4548
▁legkisebb	-10.4548
▁vértanú	-10.4548
▁önkormányzat	-10.4548
▁XIV	-10.4548
feszültség	-10.4548
▁táblázat	-10.4548
▁mindkét	-10.4549
kevésbé	-10.455
szervezés	-10.4594
Williams	-10.4631
gramm	-10.4636
törvény	-10.4661
▁diplomá	-10.4681
▁elfoglalják	-10.4681
▁legmagasabb	-10.4681
▁mexikói	-10.4681
▁rögzít	-10.4681
▁vmegyében	-10.4681
▁állampolgár	-10.4681
▁létrejött	-10.4681
▁1822	-10.4682
▁forgat	-10.4682
Renault	-10.4683
▁Angol	-10.4684
Okr	-10.4696
▁szócikk	-10.4759
▁System	-10.4816
Script	-10.4816
sűrűség	-10.4816
▁digitális	-10.4816
▁forráskód	-10.4816
▁vendég	-10.4817
▁egyaránt	-10.4817
▁elismerés	-10.4817
▁eddig	-10.4817
▁legelője	-10.4817
▁szuper	-10.4817
▁1856	-10.4821
bátyj	-10.4837
néprajz	-10.4849
▁végezte	-10.487
Amerika	-10.4951
▁tisztelet	-10.4951
▁Alexander	-10.4953
▁argentin	-10.4953
▁kombinatorik	-10.4953
▁levegő	-10.4953
▁szecesszió	-10.4953
▁Ernst	-10.4954
▁komoly	-10.4954
dráma	-10.4954
▁elkezd	-10.4973
▁Báthori	-10.5092
▁Jacques	-10.5092
▁kiterjeszt	-10.5092
▁ábécé	-10.5092
analízis	-10.5092
▁gépészmérnök	-10.5092
▁koronázzák	-10.5092
▁Megalakul	-10.5092
▁mesterséges	-10.5092
▁jellegű	-10.5092
▁éppen	-10.5092
▁leégett	-10.5092
▁vajda	-10.5093
▁bölcs	-10.5093
▁csodá	-10.5117
Ó	-10.5229
kezelés	-10.523
▁1848–49-	-10.5233
izonytalan	-10.5233
▁Magvető	-10.5233
▁Kertész	-10.5233
▁Testvér	-10.5233
▁Smith	-10.5234
▁megválasztása	-10.5234
▁érdem	-10.5318
▁Erdős	-10.5327
к	-10.5376
algoritmus	-10.5376
jegyzék	-10.5376
·	-10.5376
у	-10.5376
м	-10.5376
▁Független	-10.5376
▁Konstantinápoly	-10.5376
▁Putnok	-10.5376
▁főszereplő	-10.5376
▁gitáros	-10.5376
▁humorista	-10.5376
▁leginkább	-10.5376
▁megállapodás	-10.5376
▁történelme	-10.5376
▁államférfi	-10.5376
▁éjszak	-10.5376
▁Pierre	-10.5376
▁Elnök	-10.5376
▁létesít	-10.5376
▁rajta	-10.5376
▁szorzat	-10.5377
palota	-10.5378
▁Katona	-10.5378
egyesület	-10.5385
▁aláírj	-10.5389
dimenziós	-10.5521
▁Esterházy	-10.5521
▁Google	-10.5521
▁Kolozsvár	-10.5521
▁Madách	-10.5521
▁Néhány	-10.5521
▁akadémikus	-10.5521
▁teniszező	-10.5521
▁Finnország	-10.5521
▁Slovensk	-10.5521
▁stabil	-10.5521
▁Borsod	-10.5521
▁Miksa	-10.5522
pszichológia	-10.5523
▁utcá	-10.5524
média	-10.5525
Budapest	-10.5525
▁témá	-10.5593
fejlesztő	-10.5613
másodperc	-10.5668
▁Késmárk	-10.5668
▁Látnivalók	-10.5668
▁Lechner	-10.5668
▁Ausztria	-10.5668
▁Angliá	-10.5668
▁közvetít	-10.5669
▁soha	-10.5669
▁Munkás	-10.5669
▁Díj	-10.5681
▁pápá	-10.5687
Lotus	-10.5701
▁honlap	-10.5778
▁újjá	-10.5779
▁Zólyom	-10.5817
Ž	-10.5817
▁Wesselényi	-10.5817
▁politiká	-10.5817
▁évszázad	-10.5817
▁Svájc	-10.5817
▁tornász	-10.5817
▁Globe	-10.5817
▁korabeli	-10.5818
▁Teleki	-10.5818
▁transz	-10.5818
▁elkészít	-10.5824
szülött	-10.5934
▁HTML	-10.5969
▁Kecskemét	-10.5969
▁Népköztársaság	-10.5969
ы	-10.5969
▁altábornagy	-10.5969
Egyiptom	-10.5969
▁piarista	-10.5969
▁jövő	-10.5969
▁Császár	-10.5969
▁közönség	-10.5969
állomány	-10.5973
▁legendá	-10.5973
Ö	-10.5987
▁intéz	-10.6036
Diósgyőr	-10.6123
▁Krisztián	-10.6123
}	-10.6279
{	-10.6438
|	-10.6979
â	-10.7271
й	-10.7447
п	-10.7447
#	-10.7992
∈	-10.857
ť	-10.877
ç	-10.8974
→	-10.8974
ο	-10.8974
λ	-10.9182
ş	-10.9834
Ű	-11.0062
\	-11.0062
г	-11.0294
ь	-11.0294
ô	-11.0776
α	-11.0776
μ	-11.1026
_	-11.1283
ε	-11.1546
ń	-11.1546
ə	-11.1816
ß	-11.1816
б	-11.1816
←	-11.2094
ς	-11.2094
ρ	-11.2094
Δ	-11.2379
æ	-11.2674
ν	-11.2977
я	-11.2977
‐	-11.2977
ı	-11.3289
ø	-11.3289
ř	-11.3612
«	-11.3612
»	-11.3612
з	-11.3612
ą	-11.3612
­	-11.3945
ě	-11.3945
γ	-11.429
ι	-11.4647
ч	-11.5017
ð	-11.5017
î	-11.5017
≡	-11.5402
ː	-11.5402
С	-11.5402
[	-11.551
†	-11.5736
à	-11.6219
ę	-11.6219
φ	-11.6219
ˈ	-11.6219
τ	-11.6653
ê	-11.6653
ś	-11.6653
σ	-11.6653
ğ	-11.7108
$	-11.8084
õ	-11.8084
ā	-11.8084
π	-11.8084
ӧ	-11.8084
ж	-11.861
х	-11.861
ш	-11.9166
“	-11.9754
ò	-12.0379
ī	-12.0379
ক	-12.0379
ʃ	-12.0379
ا	-12.0379
া	-12.0379
κ	-12.0379
ż	-12.1046
δ	-12.1046
ё	-12.1046
ω	-12.1046
θ	-12.1046
≤	-12.1046
ц	-12.176
ա	-12.176
—	-12.176
ό	-12.176
Å	-12.2529
ů	-12.2529
ʒ	-12.2529
ή	-12.2529
О	-12.3363
η	-12.3363
ে	-12.3363
≈	-12.3363
đ	-12.3363
′	-12.3363
י	-12.3363
ί	-12.3363
Р	-12.4272
^	-12.4272
Ä	-12.4272
ď	-12.4272
ȧ	-12.4272
И	-12.4272
̄	-12.4272
ন	-12.4272
র	-12.4272
‒	-12.4272
έ	-12.5272
স	-12.5272
Σ	-12.5272
Б	-12.5272
∀	-12.5272
ю	-12.5272
א	-12.5272
@	-12.6383
ր	-12.6383
Г	-12.6383
Н	-12.6383
`	-12.6383
υ	-12.6383
Λ	-12.7633
্	-12.7633
Ø	-12.7633
ō	-12.7633
ά	-12.7633
ר	-12.7633
נ	-12.9062
±	-12.9062
ŋ	-12.9062
ʎ	-12.9062
β	-12.9062
ė	-12.9062
Ξ	-12.9062
ل	-12.9062
↔	-12.9062
ē	-12.9062
ե	-12.9062
د	-12.9062
э	-13.0728
®	-13.0728
ÿ	-13.0728
χ	-13.0728
Ի	-13.0728
ɛ	-13.0728
ʊ	-13.0728
‚	-13.0728
ব	-13.0728
ɲ	-13.0728
ي	-13.0728
ִ	-13.2728
ו	-13.2728
ź	-13.2728
‘	-13.2728
ġ	-13.2728
ӯ	-13.2728
ի	-13.2728
ն	-13.2728
ל	-13.2728
জ	-13.2728
≠	-13.2728
∉	-13.2728
ո	-13.2728
ر	-13.2728
ن	-13.2728
„	-13.4869
ָ	-13.5228
ɟ	-13.5228
Θ	-13.5228
م	-13.5228
ত	-13.5228
ҡ	-13.5228
ি	-13.5228
⁄	-13.5228
Ð	-13.5228
þ	-13.5228
ύ	-13.5228
ф	-13.5228
ӈ	-13.5228
մ	-13.5228
ע	-13.5228
দ	-13.5228
ু	-13.5228
⇔	-13.5228
Э	-13.5228
ј	-13.5228
լ	-13.5228
ল	-13.5228
ǝ	-13.5228
ˌ	-13.5228
ב	-13.5228
्	-13.5228
מ	-13.8561
গ	-13.8562
য	-13.8562
শ	-13.8562
ù	-13.8562
ţ	-13.8562
ū	-13.8562
ɨ	-13.8562
ʦ	-13.8562
ʻ	-13.8562
̯	-13.8562
і	-13.8562
Ա	-13.8562
ה	-13.8562
ب	-13.8562
س	-13.8562
ि	-13.8562
ম	-13.8562
ი	-13.8562
≥	-13.8562
ɪ	-13.8562
Γ	-13.8562
ג	-13.8562
ַ	-14.3561
ǃ	-14.3562
ン	-14.3562
中	-14.3562
東	-14.3562
糸	-14.3562
©	-14.3562
À	-14.3562
Ô	-14.3562
û	-14.3562
Ġ	-14.3562
œ	-14.3562
ŭ	-14.3562
ư	-14.3562
ǐ	-14.3562
ɔ	-14.3562
ˇ	-14.3562
Η	-14.3562
щ	-14.3562
Լ	-14.3562
հ	-14.3562
ս	-14.3562
տ	-14.3562
ֵ	-14.3562
ט	-14.3562
ت	-14.3562
ه	-14.3562
پ	-14.3562
ی	-14.3562
द	-14.3562
न	-14.3562
ह	-14.3562
ा	-14.3562
ी	-14.3562
উ	-14.3562
ভ	-14.3562
า	-14.3562
้	-14.3562
გ	-14.3562
ლ	-14.3562
ḥ	-14.3562
ờ	-14.3562
⇒	-14.3562
ル	-14.3562
公	-14.3562
味	-14.3562
文	-14.3562
어	-14.3562
È	-14.3562
থ	-14.3562
́	-14.3562
Ε	-14.3562
ξ	-14.3562
զ	-14.3562
ֲ	-14.3562
प	-14.3562
ナ	-14.3562
千	-14.3562
蔣	-15.3481
□	-15.3482
€	-15.3483
Ὰ	-15.3484
ệ	-15.3485
়	-15.3486
চ	-15.3487
ش	-15.3488
أ	-15.3489
ד	-15.349
ւ	-15.3491
պ	-15.3492
յ	-15.3493
գ	-15.3494
Ъ	-15.3495
Щ	-15.3496
Ц	-15.3497
Й	-15.3498
Ж	-15.3499
Φ	-15.35
Ι	-15.3501
Β	-15.3502
Α	-15.3503
̊	-15.3504
̈	-15.3505
ɡ	-15.3506
ņ	-15.3507
ì	-15.3508
Î	-15.3509
ἐ	-15.351
ἀ	-15.3511
অ	-15.3512
Ь	-15.3513
Ы	-15.3514
Ё	-15.3515
Ω	-15.3516
Ț	-15.3517
Ə	-15.3518
Ż	-15.3519
Ď	-15.352
ع	-15.3521
Կ	-15.3522
Ю	-15.3523
Ш	-15.3524
Ч	-15.3525
̃	-15.3526
ɑ	-15.3527
ŕ	-15.3528
Я	-15.3529
Х	-15.353
У	-15.3531
Ś	-15.3532
ּ	-15.3533
Т	-15.3534
З	-15.3535
Е	-15.3536
Μ	-15.3537
∞	-15.3538
Ş	-15.3539
Þ	-15.354
Æ	-15.3541
Ф	-15.3542
В	-15.3543
İ	-15.3544
Ç	-15.3545
Л	-15.3546
Π	-15.3547
ï	-15.3548
К	-15.3549
Д	-15.355
Ł	-15.3551
Đ	-15.3552
М	-15.3553
А	-15.3554
Ș	-15.3555
П	-15.3556
͡	-15.3557
§	-15.3558
ñ	-15.3559
ã	-15.356
Ľ	-15.3561
Κ	-15.3561
ķ	-15.3561
Ґ	-15.3561
َ	-15.3561
ِ	-15.3561
Ť	-15.3561
খ	-15.3561
ἔ	-15.3561
う	-15.3561
ま	-15.3561
コ	-15.3561
ニ	-15.3561
仙	-15.3561
和	-15.3561
安	-15.3561
男	-15.3561
賢	-15.3561
輝	-15.3561
한	-15.3561
Â	-15.3562
Ë	-15.3562
Õ	-15.3562
Ğ	-15.3562
Ļ	-15.3562
Ņ	-15.3562
Ŋ	-15.3562
Ō	-15.3562
ŏ	-15.3562
Ř	-15.3562
Ţ	-15.3562
ũ	-15.3562
Ɔ	-15.3562
ơ	-15.3562
ǔ	-15.3562
ɐ	-15.3562
ʔ	-15.3562
ʾ	-15.3562
̥	-15.3562
͜	-15.3562
Ν	-15.3562
Χ	-15.3562
ψ	-15.3562
ώ	-15.3562
І	-15.3562
ъ	-15.3562
Ӆ	-15.3562
ӆ	-15.3562
Ӈ	-15.3562
Ӣ	-15.3562
Ӧ	-15.3562
Ӯ	-15.3562
Ԓ	-15.3562
ԓ	-15.3562
Դ	-15.3562
է	-15.3562
ծ	-15.3562
կ	-15.3562
շ	-15.3562
վ	-15.3562
ְ	-15.3562
ֹ	-15.3562
ם	-15.3562
ן	-15.3562
צ	-15.3562
ש	-15.3562
ת	-15.3562
װ	-15.3562
ث	-15.3562
ج	-15.3562
ح	-15.3562
و	-15.3562
۱	-15.3562
ܐ	-15.3562
ܝ	-15.3562
ܠ	-15.3562
ܢ	-15.3562
ܪ	-15.3562
क	-15.3562
আ	-15.3562
এ	-15.3562
ট	-15.3562
ষ	-15.3562
হ	-15.3562
ো	-15.3562
ம	-15.3562
ழ	-15.3562
ி	-15.3562
்	-15.3562
ค	-15.3562
ง	-15.3562
ต	-15.3562
ม	-15.3562
ห	-15.3562
อ	-15.3562
ํ	-15.3562
ა	-15.3562
დ	-15.3562
ნ	-15.3562
ო	-15.3562
რ	-15.3562
ḗ	-15.3562
Ḥ	-15.3562
ḫ	-15.3562
ẞ	-15.3562
ấ	-15.3562
ị	-15.3562
ọ	-15.3562
ủ	-15.3562
ứ	-15.3562
ὅ	-15.3562
Ῥ	-15.3562
ῶ	-15.3562
​	-15.3562
•	-15.3562
ↀ	-15.3562
ↁ	-15.3562
ↂ	-15.3562
Ↄ	-15.3562
⇌	-15.3562
∃	-15.3562
∨	-15.3562
⊆	-15.3562
■	-15.3562
✝	-15.3562
⸻	-15.3562
し	-15.3562
み	-15.3562
イ	-15.3562
エ	-15.3562
ダ	-15.3562
ブ	-15.3562
ョ	-15.3562
仁	-15.3562
介	-15.3562
來	-15.3562
国	-15.3562
学	-15.3562
孫	-15.3562
寛	-15.3562
恒	-15.3562
恩	-15.3562
摩	-15.3562
日	-15.3562
旨	-15.3562
未	-15.3562
本	-15.3562
林	-15.3562
歌	-15.3562
正	-15.3562
洲	-15.3562
流	-15.3562
石	-15.3562
納	-15.3562
語	-15.3562
辑	-15.3562
逸	-15.3562
逻	-15.3562
郎	-15.3562
量	-15.3562
际	-15.3562
頃	-15.3562
顷	-15.3562
験	-15.3562
鮮	-15.3562
Ꜧ	-15.3562
꧅	-15.3562
가	-15.3562
국	-15.3562
널	-15.3562
니	-15.3562
다	-15.3562
선	-15.3562
엘	-15.3562
조	-15.3562
﷽	-15.3562
﻿	-15.3562
𒈙	-15.3562
𒐫	-15.3562
Ñ	-15.3562
Ȧ	-15.3562
Ḫ	-15.3562
ģ	-15.3562
ʁ	-15.3562
ʤ	-15.3562
ζ	-15.3562
ס	-15.3562
ف	-15.3562
ং	-15.3562
த	-15.3562
ე	-15.3562
ṣ	-15.3562
ṭ	-15.3562
ἁ	-15.3562
ἄ	-15.3562
ᾰ	-15.3562
ῖ	-15.3562
と	-15.3562
な	-15.3562
の	-15.3562
三	-15.3562
人	-15.3562
体	-15.3562
個	-15.3562
倖	-15.3562
健	-15.3562
尋	-15.3562
江	-15.3562
田	-15.3562
的	-15.3562
神	-15.3562
隠	-15.3562
내	-15.3562
셔	-15.3562
터	-15.3562
ț	-15.3562
ठ	-15.3562
त	-15.3562
य	-15.3562
स	-15.3562
ु	-15.3562
シ	-15.3562
タ	-15.3562
ー	-15.3562
大	-15.3562
인	-15.3562
