<unk>	0
<s>	0
</s>	0
.	-3.26968
,	-3.74958
▁	-4.27921
ம்	-4.28834
ப்	-4.78081
)	-4.79356
க்	-4.80003
கள்	-4.80556
▁(	-4.81765
ு	-4.96008
்	-4.99147
ன்	-5.09241
▁–	-5.1222
து	-5.15187
த்	-5.16644
ல்	-5.29477
ர்	-5.31959
ய	-5.37819
▁அ	-5.39533
வ	-5.44819
ும்	-5.46106
ன	-5.48512
க	-5.4915
ர	-5.51996
ம	-5.53988
ில்	-5.5955
ி	-5.61792
ின்	-5.64045
த்த	-5.70511
க்க	-5.70878
த	-5.72837
யில்	-5.74291
ரி	-5.75077
ா	-5.76232
▁க	-5.78796
▁இ	-5.80727
▁-	-5.82511
பி	-5.83999
ஸ்	-5.84594
த்தில்	-5.85537
▁ஒரு	-5.88319
ை	-5.89146
ல	-5.897
ப	-5.89802
ச்	-5.91228
ிய	-5.92268
:	-5.94087
ப்ப	-5.94684
▁ப	-5.94832
-	-6.00665
க்கு	-6.01448
ந்த	-6.02768
டி	-6.02805
▁ஆ	-6.04793
ங்கள்	-6.04824
s	-6.06609
தி	-6.07035
ட	-6.12083
ே	-6.14202
ச	-6.18218
வி	-6.19197
ார்	-6.22551
யின்	-6.23536
ரு	-6.23842
▁த	-6.24417
▁வி	-6.25283
சி	-6.25827
▁மற்றும்	-6.2628
ட்	-6.27803
வர்	-6.28394
ரா	-6.2843
சு	-6.30082
▁ச	-6.30405
ட்ட	-6.30604
e	-6.3061
▁18	-6.31188
மை	-6.35592
ப்பு	-6.36887
o	-6.37575
டு	-6.38091
▁ம	-6.41076
னி	-6.41658
வை	-6.42318
களில்	-6.43264
▁கா	-6.43789
த்தின்	-6.44353
▁என்ற	-6.448
களை	-6.45238
▁உ	-6.472
த்து	-6.47257
இ	-6.48144
▁இது	-6.48166
▁பா	-6.48343
ான	-6.48877
வு	-6.50685
ழ	-6.50896
▁எ	-6.51322
யா	-6.52007
மா	-6.52389
ங்க	-6.529
கு	-6.5337
வா	-6.53415
ள	-6.53479
ாக	-6.5628
யை	-6.57461
லி	-6.57506
▁பல	-6.57971
கா	-6.59158
▁ந	-6.62186
களின்	-6.63495
▁கி	-6.63702
ட்டு	-6.63975
▁சி	-6.64342
மாக	-6.64754
▁தமிழ்	-6.66518
பா	-6.66745
த்தை	-6.67107
ற்ற	-6.68641
▁உள்ள	-6.69384
▁கு	-6.6975
▁சு	-6.70455
லா	-6.71084
லை	-6.71294
னை	-6.71473
▁ஆகும்	-6.73089
▁வெளி	-6.74338
a	-6.74547
▁ஆண்டு	-6.75437
கி	-6.7592
மான	-6.76113
▁இந்த	-6.76618
தா	-6.77026
மி	-6.7725
ற	-6.78497
வே	-6.7869
த்தி	-6.79356
▁கோ	-6.79816
னர்	-6.80674
▁வ	-6.8183
ால்	-6.82006
▁|	-6.82771
▁இந்திய	-6.82793
ரை	-6.82994
y	-6.83651
யாக	-6.84456
று	-6.84905
▁செ	-6.86739
i	-6.87004
யும்	-6.87013
டை	-6.87078
ச்ச	-6.87327
ண்ட	-6.88918
p	-6.89043
▁ஆம்	-6.89167
▁மொழி	-6.89371
"	-6.89387
ீ	-6.90252
▁கொண்ட	-6.92315
களும்	-6.92556
வர	-6.93016
ந்து	-6.93455
t	-6.93611
னா	-6.93625
▁இவர்	-6.94359
▁வா	-6.94696
ோ	-6.94769
▁பு	-6.94905
l	-6.95238
▁என	-6.95457
▁மா	-6.95618
▁சா	-6.95812
ண	-6.9594
▁பெற்ற	-6.9625
g	-6.97077
h	-6.97143
ட்டி	-6.97264
▁போ	-6.99366
சா	-6.99596
ளி	-7.0004
ப்பட்ட	-7.00752
▁ஏ	-7.0082
n	-7.01796
▁திரைப்பட	-7.02316
ுக்கு	-7.02532
கை	-7.02758
▁அமெரிக்க	-7.03346
▁மக்கள்	-7.03978
▁கால	-7.04276
▁அல்லது	-7.04681
▁பி	-7.04959
க்கும்	-7.0512
▁இருந்து	-7.05239
யி	-7.05766
றி	-7.05865
u	-7.06187
▁என்பது	-7.06217
▁"	-7.06567
ரிய	-7.06981
▁மு	-7.07244
ொ	-7.07592
மு	-7.08324
▁என்று	-7.08687
▁திரு	-7.08849
ற்	-7.09483
▁சில	-7.09518
வும்	-7.11149
▁முதல்	-7.11322
வில்	-7.1249
▁தா	-7.12612
2	-7.13214
▁நா	-7.13641
யான	-7.13784
ெ	-7.13806
ந	-7.14517
1	-7.14639
ங்களில்	-7.1511
al	-7.15209
ணி	-7.15379
m	-7.16455
3	-7.16504
/	-7.1744
ங்	-7.18733
k	-7.19313
▁இலங்கை	-7.1963
▁1	-7.19741
▁உலக	-7.19812
▁போர்	-7.19853
களுக்கு	-7.21316
▁மேற்கோள்கள்	-7.22005
ம்ப	-7.22711
ய்	-7.23055
▁நி	-7.23546
தை	-7.23556
er	-7.2435
க்கி	-7.24735
ண்	-7.25709
ப்பட்டது	-7.25743
யோ	-7.26011
கள	-7.28583
வது	-7.2865
ப்பா	-7.28872
ூ	-7.29827
ற்று	-7.31649
ாய்	-7.31899
மும்	-7.32075
யே	-7.3348
▁தி	-7.34418
ூர்	-7.34528
ச்சி	-7.35444
▁போன்ற	-7.35614
சை	-7.36793
▁வரை	-7.37218
ப்படும்	-7.37303
'	-7.37951
%	-7.38647
▁உள்ளது	-7.38687
▁3	-7.39374
▁என்னும்	-7.39894
க்கா	-7.40311
▁S	-7.40583
▁இரு	-7.41511
ையும்	-7.41694
on	-7.4183
▁வே	-7.42253
▁பின்னர்	-7.42268
▁17	-7.4262
ழி	-7.43088
▁இல்	-7.43586
றை	-7.43827
0	-7.43833
;	-7.43854
ar	-7.44567
▁பொ	-7.44743
யர்	-7.45115
மே	-7.45183
பு	-7.45205
c	-7.45273
லாம்	-7.45276
▁இருந்த	-7.4529
▁முறை	-7.45641
en	-7.45776
▁இதன்	-7.46391
▁2	-7.47303
b	-7.48232
ப்பட	-7.48303
▁பிர	-7.48757
ான்	-7.49044
க்கோ	-7.50167
▁இணைப்புகள்	-7.50219
▁ஐ	-7.50367
வன	-7.50576
▁பெயர்	-7.50588
கம்	-7.50814
▁ஓ	-7.50821
ரோ	-7.5119
டன்	-7.51303
▁விருது	-7.51337
▁இட	-7.52016
ஞ்ச	-7.52106
▁திரைப்படங்கள்	-7.52361
▁பகுதி	-7.52461
னிய	-7.52909
ினார்	-7.53301
▁நகர	-7.53488
▁கொ	-7.53607
தே	-7.53713
▁of	-7.54074
▁ஒ	-7.54201
ோர்	-7.54513
ைய	-7.55032
▁பேர்	-7.5544
▁மே	-7.55511
ங்களை	-7.55718
ளை	-7.55857
தனது	-7.56405
in	-7.56492
▁P	-7.5661
r	-7.56647
▁அடி	-7.57431
கோ	-7.57473
ிருந்த	-7.57492
▁கொண்டு	-7.57524
தாக	-7.57863
▁பட	-7.57949
வ்	-7.58465
களையும்	-7.5858
▁C	-7.58605
ள்	-7.58644
),	-7.58651
வின்	-7.58725
▁ஆகிய	-7.58826
▁மிக	-7.59402
அ	-7.5996
ப்படுகிறது	-7.60058
லம்	-7.60066
ரின்	-7.60231
▁நாள்	-7.60329
ைக்	-7.60536
▁பூ	-7.61197
டா	-7.62326
d	-7.6267
ri	-7.62903
▁இவர	-7.62995
மீ	-7.63029
ிட	-7.63376
▁ர	-7.63864
ின	-7.64765
▁வழங்க	-7.6537
கால	-7.65546
▁ஐக்கிய	-7.65661
ர்கள்	-7.65816
(	-7.66038
or	-7.66281
க்கள்	-7.66291
ங்கு	-7.66446
நா	-7.66553
லோ	-7.6668
ற்ப	-7.66709
ரே	-7.66745
ண்ண	-7.66764
▁அவர்	-7.66907
▁கோயில்	-7.66948
த்திர	-7.66954
▁சிறந்த	-7.67141
▁நில	-7.67218
▁பர	-7.67692
▁எழுத்தாளர்	-7.68235
வன்	-7.68627
▁15	-7.68858
▁இவ்வ	-7.69037
ுடன்	-7.6906
8	-7.69183
▁மேலும்	-7.69665
▁(19	-7.69886
▁கட்சி	-7.70206
ிடம்	-7.70406
ஆம்	-7.70556
களாக	-7.70565
▁சம	-7.70858
▁தமிழக	-7.70882
போ	-7.70882
5	-7.71366
ியல்	-7.71367
▁கூற	-7.71621
S	-7.71842
re	-7.72028
▁ஹ	-7.72231
▁A	-7.7231
▁5	-7.72641
▁பட்ட	-7.73227
▁கே	-7.7345
▁ஒன்று	-7.73487
த்தா	-7.73811
ண்டி	-7.7392
an	-7.7401
▁B	-7.74391
▁படி	-7.74535
▁அதன்	-7.74987
ியது	-7.75255
ராக	-7.75405
00	-7.75602
ுள்ள	-7.7578
A	-7.76176
த்திற்கு	-7.76505
ண்டு	-7.76636
▁4	-7.76705
ணை	-7.76878
▁இயக்க	-7.77317
முறை	-7.77443
▁இருக்கும்	-7.77746
ஜ	-7.77984
▁மூலம்	-7.78203
▁16	-7.78368
ஷ்	-7.7858
ாகும்	-7.78687
ing	-7.79318
▁வழி	-7.79642
▁மக்கள	-7.79903
ுடைய	-7.80178
▁=	-7.80598
▁அரச	-7.80925
f	-7.80933
ாலும்	-7.80979
▁நெ	-7.81019
▁பரிசு	-7.81098
▁முடி	-7.81151
▁யாழ்ப்பாண	-7.81246
▁தொகை	-7.8132
யு	-7.81558
▁பயன்படுத்த	-7.81644
6	-7.82005
▁வடிவ	-7.82242
▁வரலாறு	-7.82393
▁சிவ	-7.82522
▁போது	-7.82534
▁தே	-7.82621
▁பெ	-7.82856
▁பாடல்	-7.82935
சன்	-7.83297
ன்ற	-7.83305
▁சென்னை	-7.83335
▁பெரிய	-7.83482
w	-7.83619
விய	-7.83771
▁கட்ட	-7.83782
ங்கள	-7.8392
4	-7.83958
மாகும்	-7.84154
ாவின்	-7.84296
கர	-7.84598
at	-7.84674
▁இரண்டாம்	-7.84761
மன்	-7.84879
ுள்ளது	-7.84893
பெ	-7.85202
▁தேசிய	-7.85725
▁அரசியல்வாதி	-7.85972
▁உள்ளன	-7.86065
▁இரண்டு	-7.86081
▁நடிகர்	-7.86267
வர்கள்	-7.86392
▁மி	-7.86428
le	-7.86628
யம்	-7.86957
▁தொ	-7.8701
▁இலக்கிய	-7.87103
ற்க	-7.87104
▁இணை	-7.87311
▁ஆண்டில்	-7.87542
▁வந்த	-7.87593
▁ஆர்	-7.87734
ரும்	-7.87834
▁மனித	-7.87871
▁தீ	-7.88005
▁மூ	-7.88121
▁'	-7.88224
▁கலை	-7.8878
▁தனி	-7.88954
▁அமைந்துள்ளது	-7.8922
▁சிறப்பு	-7.89432
▁கை	-7.89616
▁இங்கு	-7.89765
▁மீ	-7.90101
ிலும்	-7.90323
▁10	-7.90523
▁மர	-7.90803
ிக்க	-7.90818
ுகிறது	-7.9093
▁நிலை	-7.91328
P	-7.9134
▁6	-7.91671
▁முதல	-7.921
▁சேர்ந்த	-7.92213
▁வகை	-7.92253
am	-7.9238
ழ்	-7.92638
ல்ல	-7.92773
▁படை	-7.92813
ைப்	-7.92851
▁ஒளி	-7.92875
களைக்	-7.93366
▁M	-7.93507
▁மாற்ற	-7.93854
▁அக	-7.94111
ic	-7.9432
▁ஆங்கில	-7.94338
யாகும்	-7.94478
C	-7.94486
னின்	-7.94503
▁அவர	-7.94761
▁மெ	-7.94777
▁நீ	-7.94846
▁இசை	-7.95126
கர்	-7.95361
▁வர	-7.95619
ுவ	-7.95665
▁முக்கிய	-7.96079
▁ஆண்ட	-7.96184
ங்கி	-7.96319
யன்	-7.96734
▁வெளிவந்த	-7.96753
▁தர	-7.96781
▁என்றும்	-7.96896
லும்	-7.96945
▁கண்ட	-7.96981
ழை	-7.97008
▁கதை	-7.97096
தம்	-7.97103
▁T	-7.97263
ிலிருந்து	-7.97562
▁தலை	-7.97651
▁உருவாக்க	-7.97974
▁ஊ	-7.98307
த்திய	-7.98481
▁அமைந்துள்ள	-7.9868
▁ஸ்	-7.98721
▁ஆட்சி	-7.98852
ஆ	-7.98898
▁வட	-7.98962
▁சே	-7.99129
ch	-7.99147
▁செய்த	-7.99591
▁பெற	-7.99609
ாத	-7.99632
நிலை	-7.99811
▁கரு	-7.99857
▁அந்த	-8.00274
it	-8.00771
▁the	-8.00838
ங்கா	-8.00844
ாவில்	-8.00846
▁டி	-8.01128
▁சூ	-8.0113
M	-8.01418
ந்தி	-8.01466
▁இடம்பெற்ற	-8.01689
▁மாவட்ட	-8.01727
▁செய்ய	-8.01868
கே	-8.0215
▁விட	-8.02218
▁வெ	-8.02331
▁12	-8.02339
th	-8.02356
▁பின்	-8.02513
▁சமூக	-8.02539
▁பெண்	-8.02573
▁இவை	-8.02914
▁அமைப்பு	-8.03011
ாளர்	-8.03065
▁G	-8.03176
▁பிற	-8.03394
▁சட்ட	-8.03399
▁துறை	-8.03621
▁பேர	-8.037
க்கப்பட்ட	-8.03793
▁சமய	-8.0383
▁ஈ	-8.03864
ed	-8.04005
▁சீ	-8.04029
st	-8.04281
ட்டை	-8.04355
▁சங்க	-8.04518
ப்பட்டு	-8.04895
▁இலங்கையின்	-8.05026
▁தெ	-8.05185
▁இன	-8.05647
ாள்	-8.05652
▁தமிழ்த்	-8.05659
ஷ	-8.05844
▁கல	-8.05849
▁மூன்று	-8.06059
▁கட	-8.06212
ட்டா	-8.06353
வரை	-8.0637
▁அதிக	-8.06374
ச்சு	-8.06451
▁ஆவார்	-8.06516
▁அரசு	-8.06923
முதலாவது	-8.06943
வெ	-8.07119
▁கல்வி	-8.0724
படி	-8.07429
▁ரா	-8.07487
டோ	-8.07555
▁முன்	-8.07584
ுள்ளார்	-8.0761
▁மலை	-8.08111
லு	-8.08115
ள்ள	-8.08165
▁பிறப்புகள்	-8.08335
▁மாத	-8.08348
▁இவற்றைய	-8.08481
ம்பு	-8.08518
ஜி	-8.08574
லே	-8.08758
ப்படுகின்றன	-8.089
▁தமிழர்	-8.0893
னார்	-8.09028
▁பால	-8.09084
▁நூல்கள்	-8.09253
▁நூல்	-8.09497
▁7	-8.09534
ப்படி	-8.09739
▁கூ	-8.09877
▁ஆறு	-8.10197
▁நோபல்	-8.10269
ிற்கு	-8.10479
ற்றி	-8.11085
x	-8.11191
▁பே	-8.11201
வாக	-8.11467
▁இர	-8.1153
▁இந்தியாவின்	-8.11689
யார்	-8.12088
▁F	-8.1218
I	-8.12341
▁பற்றிய	-8.12342
▁பிரித்தானிய	-8.12482
▁சிறு	-8.12615
▁பொருள்	-8.12836
மைய	-8.12858
▁போட்டி	-8.12973
தில்	-8.13103
ur	-8.13366
es	-8.13404
▁ஆண்	-8.1351
▁ஜ	-8.13846
▁நட	-8.1385
களைப்	-8.14022
ra	-8.14206
யாளர்	-8.14437
▁வீ	-8.14673
களால்	-8.14965
▁குறை	-8.15008
▁தென்	-8.15212
த்துக்கு	-8.15259
ப்பட்டுள்ளது	-8.15347
ுக்கும்	-8.1591
▁கொள்ள	-8.15913
▁நேர	-8.15975
டர்	-8.16017
▁பாட	-8.16109
ானது	-8.16213
▁ஈழத்து	-8.16268
▁உயிரிழந்தனர்	-8.16321
▁அமைந்த	-8.16527
▁தலைநகர	-8.16551
ரெ	-8.16658
சர்	-8.16746
▁பெரு	-8.17053
ங்களின்	-8.17367
▁நூல	-8.17567
க்கம்	-8.17766
▁வெற்றி	-8.17983
▁H	-8.18154
மொழி	-8.18271
▁மாநில	-8.18398
▁சோ	-8.18718
▁தொடர்	-8.18868
ங்களும்	-8.19152
ப்படுத்த	-8.19432
T	-8.19631
▁தள	-8.19755
பதி	-8.19769
ப்படுகின்றது	-8.19772
ாகவும்	-8.19913
ந்திர	-8.20047
ஞ	-8.20094
க்கான	-8.20103
▁20	-8.20125
னும்	-8.20127
ஸ	-8.20325
பாடு	-8.20451
▁N	-8.20468
▁ஆனால்	-8.20553
▁நாடு	-8.20984
ந்தா	-8.21006
▁நாடக	-8.21207
▁பிரி	-8.21246
லில்	-8.2125
▁E	-8.21373
▁தொகுதி	-8.21976
E	-8.22064
ுகின்றன	-8.22351
▁மத	-8.22467
▁அரசியல்	-8.22473
▁L	-8.22577
ைத்	-8.22673
முக	-8.23095
▁and	-8.23211
▁9	-8.23248
com	-8.23363
▁துடுப்பாட்ட	-8.23467
ரம்	-8.23757
▁8	-8.23826
D	-8.23851
ோடு	-8.2397
▁நிறுவன	-8.23989
▁நடிகை	-8.24176
▁கிராம	-8.24305
ினால்	-8.24377
▁மாவட்டம்	-8.2446
லின்	-8.24591
போது	-8.25275
பட	-8.25343
▁தோ	-8.25511
▁நீர்	-8.25748
த்தார்	-8.25757
us	-8.26299
▁நிற	-8.26552
ation	-8.26558
▁விடுதலை	-8.26571
▁காண	-8.2664
▁யா	-8.2669
▁பேச	-8.26818
▁2006	-8.27058
▁மீது	-8.27155
▁தமிழ	-8.27208
ுதல்	-8.27399
ter	-8.27502
▁செய்து	-8.27941
செ	-8.28022
▁பணி	-8.28035
▁மோ	-8.28055
▁D	-8.28086
▁ஆரம்ப	-8.28401
20	-8.28408
v	-8.28517
▁19	-8.28527
il	-8.28729
னு	-8.28902
ிக்	-8.29051
▁சோழ	-8.29336
▁நடித்த	-8.29514
▁ஓர்	-8.29594
▁குடும்ப	-8.29651
ருக்கு	-8.2966
ூர	-8.2966
னால்	-8.2968
▁13	-8.29681
▁நகரில்	-8.29708
ஹ	-8.29804
▁14	-8.29906
சே	-8.30029
களிலும்	-8.30264
▁பெரும்	-8.3036
://	-8.30404
▁மத்திய	-8.30773
▁மணி	-8.30784
புரம்	-8.30983
யூ	-8.3103
▁உலகப்	-8.31348
▁வென்ற	-8.31494
▁குறிப்பிடத்தக்க	-8.31546
▁வாழ்க்கை	-8.31559
▁அவை	-8.31605
லிய	-8.31652
▁பார்க்க	-8.31653
▁குழந்தை	-8.31693
▁போல	-8.32094
▁உயர்	-8.32194
▁செய்யப்பட்ட	-8.32483
▁இன்	-8.32516
ரீ	-8.32698
▁மாவட்டத்தில்	-8.32704
R	-8.32852
▁இணைய	-8.32862
▁பதி	-8.33018
▁கட்டிட	-8.33048
னோ	-8.3313
▁மின்	-8.33174
▁வேறு	-8.33249
200	-8.33296
▁முதலாம்	-8.33482
ro	-8.33499
நி	-8.33553
▁எண்ண	-8.33628
▁பழ	-8.33639
பட்ட	-8.33753
▁சொல்ல	-8.33795
ரியா	-8.33829
ைச்	-8.339
▁எனும்	-8.33991
▁ஆங்கிலேய	-8.33995
▁http	-8.34258
▁W	-8.3431
▁இராணுவ	-8.34637
▁உரு	-8.35012
▁ஏற்பட்ட	-8.35054
▁எதிர்	-8.35065
▁பொது	-8.35226
▁அளவு	-8.35268
வோ	-8.35417
el	-8.35681
பே	-8.3572
பர்	-8.35898
விட	-8.35929
கிறது	-8.35961
இல்	-8.35961
is	-8.36179
▁கோயில்கள்	-8.36297
▁தலைவர்	-8.36475
யில	-8.36575
ெய்	-8.3658
▁மூல	-8.36643
_	-8.36643
▁புற	-8.36646
▁பார்க்கவும்	-8.36735
▁உயிர	-8.36847
N	-8.36867
▁11	-8.37094
▁s	-8.37099
▁இறப்புகள்	-8.3786
B	-8.38108
▁கிழக்கு	-8.38269
ினர்	-8.38289
la	-8.38381
O	-8.38515
▁எஸ்	-8.38605
வில்லை	-8.38629
▁எண்	-8.38648
க்கூடிய	-8.38685
ல்லி	-8.38887
ன்று	-8.38892
▁குறிப்பிட	-8.38928
க்ஸ்	-8.38964
ிலுள்ள	-8.39304
ாட்சி	-8.39378
ினை	-8.39494
▁வேண்டும்	-8.39645
▁காலத்தில்	-8.39813
▁புதிய	-8.39924
க்கிய	-8.4004
▁சிவன்	-8.40044
▁மகா	-8.40131
▁சேவை	-8.40178
▁தல	-8.40217
▁டெ	-8.40239
கார	-8.4048
ஞ்சி	-8.40577
தால்	-8.40603
க்கப்பட்டது	-8.4069
ட்ச	-8.40713
▁நாடுகள்	-8.40741
ிருக்கும்	-8.40747
▁மேற்கு	-8.40958
யானது	-8.41032
ப்பகுதி	-8.41105
▁அணி	-8.41129
▁பல்வேறு	-8.41171
▁வள	-8.41182
▁ஆக	-8.41466
யிலிருந்து	-8.41473
as	-8.41553
▁பெயர	-8.41651
▁அது	-8.42066
▁உணவு	-8.4207
ுகிறார்	-8.42346
▁கூடிய	-8.42347
ித்த	-8.42516
▁வரும்	-8.42579
யிலும்	-8.42647
தன்	-8.42696
ண்ட்	-8.42822
ல்லா	-8.42867
▁தூ	-8.42925
▁பிறந்த	-8.43112
▁பேரூராட்சி	-8.43299
li	-8.43365
எ	-8.43539
▁என்ப	-8.43575
▁கணினி	-8.43579
▁செல்வ	-8.43621
யைக்	-8.43759
தான	-8.43798
▁தீவு	-8.43942
▁:	-8.44033
▁காரணமாக	-8.4404
z	-8.44163
▁பொதுவாக	-8.44202
▁அதி	-8.44515
த்துக்	-8.44524
▁தமிழ்நாடு	-8.44662
▁தொடர்ந்து	-8.4473
டம்	-8.45396
19	-8.45452
▁அனைத்து	-8.45464
▁விளக்க	-8.45594
▁ஊர்	-8.45868
▁2005	-8.45923
ிலேயே	-8.46127
ுள்	-8.46725
ுகின்றது	-8.46775
த்துறை	-8.46838
▁கொண்டது	-8.46866
▁வழக்க	-8.46875
▁நான்கு	-8.46879
▁சென்ற	-8.46938
▁பல்கலைக்கழக	-8.47222
▁நிகழ்வுகள்	-8.47386
▁ஆய்வு	-8.47484
▁தன்	-8.4753
ப்பை	-8.47598
et	-8.47767
▁பட்டியல்	-8.478
▁வீரர்	-8.47946
www	-8.48145
▁ல	-8.48295
த்திலும்	-8.48481
▁காலம்	-8.4851
▁மருத்துவ	-8.48675
▁நிலைய	-8.48678
▁விடுதலைப்	-8.48751
வியல்	-8.48886
▁பற்றி	-8.49161
un	-8.49162
▁கடல்	-8.49287
▁விளையாட்டு	-8.4951
▁ஒலி	-8.49511
▁கண்ண	-8.49531
லிங்க	-8.49608
▁இம்	-8.49616
▁அறிவியல்	-8.49649
விட்ட	-8.4977
▁முன்ன	-8.4983
▁இடை	-8.50021
▁சிறுகதை	-8.5014
புர	-8.50222
7	-8.50474
▁வாழும்	-8.50598
▁பொருள	-8.50621
▁இள	-8.50665
▁பகுதியில்	-8.50835
▁உருவ	-8.50932
த்தையும்	-8.51069
களுடன்	-8.51081
மணி	-8.51518
தான்	-8.51677
▁ஒன்ற	-8.51745
▁வளர்ச்சி	-8.5188
▁வரு	-8.52109
▁கருத	-8.52159
▁மாநிலத்தில்	-8.52223
▁கவிஞர்	-8.52294
வான	-8.52346
யியல்	-8.52556
த்திலிருந்து	-8.52633
▁in	-8.52637
▁துணை	-8.52786
▁கோவில்	-8.52936
ாமல்	-8.5314
▁அடிப்படை	-8.53405
▁இதில்	-8.5372
பூர்	-8.5394
▁உண்டு	-8.54058
9	-8.54114
சியா	-8.54153
▁இலங்கையில்	-8.54481
ul	-8.54569
த்துடன்	-8.54589
di	-8.54763
▁தந்தை	-8.54865
▁முழு	-8.55082
▁பெற்றது	-8.55135
▁இலங்கைத்	-8.55202
டல்	-8.55249
▁அவற்ற	-8.5525
▁தேவ	-8.55335
சன	-8.55455
ன்றி	-8.55489
▁நாடாளுமன்ற	-8.55643
▁கட்டிடக்கலை	-8.55644
ரண	-8.55702
ிருக்க	-8.55757
▁நாட்ட	-8.55941
▁ஈழ	-8.56007
▁கைப்பற்ற	-8.56136
ப்போ	-8.56143
பொழுது	-8.56263
um	-8.5631
▁கீழ்	-8.56363
▁அறிய	-8.56457
▁கூறு	-8.56628
▁பிரதேச	-8.56663
▁இந்தியா	-8.56684
▁நடு	-8.5672
▁கார்	-8.56742
,000	-8.56762
ிற	-8.56985
▁கவிதை	-8.57371
▁இன்று	-8.57427
ந்திய	-8.57511
மலை	-8.57755
de	-8.57793
▁மாற	-8.57829
▁மொத்த	-8.57862
▁இன்றைய	-8.58107
▁அங்கு	-8.58121
▁உயர	-8.58206
▁பேரரச	-8.58272
றிய	-8.58435
ொரு	-8.58465
கொ	-8.58496
ரன்	-8.58711
பொ	-8.58734
னே	-8.5881
சுமார்	-8.58813
▁குரு	-8.58816
▁சதுர	-8.58945
மான்	-8.58981
கின்றன	-8.58998
▁முக	-8.59019
யுடன்	-8.59075
▁வரலாற்று	-8.59109
ன்ஸ்	-8.5924
▁தோற்ற	-8.59289
ார்கள்	-8.59357
▁எழுத்து	-8.59472
▁எல்லை	-8.59624
▁கொல்லப்பட்டனர்	-8.59644
▁வைத்த	-8.59781
▁தான்	-8.59808
▁நீள	-8.59871
▁ஒன்றிய	-8.59898
▁The	-8.5994
வார்	-8.6011
ணம்	-8.60376
▁பெண்கள்	-8.60567
மெ	-8.60604
▁மீட்டர்	-8.60635
▁நடைபெற்ற	-8.60639
▁எழுதிய	-8.61029
co	-8.61128
▁இருப்ப	-8.61133
▁நடத்த	-8.61135
ணு	-8.61145
வரி	-8.61444
தர்	-8.61912
ட்டிய	-8.61948
▁பிரான்ச	-8.62043
களுள்	-8.62124
ட்டில்	-8.62265
▁திற	-8.626
▁யு	-8.62641
வரும்	-8.62644
பூ	-8.62673
j	-8.62699
▁புனித	-8.6271
▁செல்ல	-8.62866
▁அறிவ	-8.63024
▁சொ	-8.63154
▁அணு	-8.63181
▁J	-8.63248
▁கண	-8.63463
▁குடி	-8.63468
▁இறுதி	-8.63753
▁இதனை	-8.63758
க்கை	-8.63797
▁O	-8.63945
கன்	-8.63997
ent	-8.64023
▁இடம்	-8.64164
▁வேலை	-8.64177
▁சீன	-8.64248
▁ஒவ்வொரு	-8.64278
▁அல்	-8.64403
▁ஒரே	-8.64422
யைப்	-8.64538
▁மைய	-8.64626
▁வை	-8.64639
மர	-8.64691
▁டா	-8.64738
சாமி	-8.64797
த்துவ	-8.64905
ங்களுக்கு	-8.64918
▁நாளில்	-8.64982
▁அமெரிக்கா	-8.65029
டைய	-8.65054
▁நாட்கள்	-8.65189
ன்னி	-8.65192
ut	-8.65267
▁தொழில்	-8.65278
▁மேல்	-8.65344
▁தகவல்	-8.65345
te	-8.65553
ௌ	-8.65688
▁கணி	-8.65736
ையா	-8.66107
உ	-8.6611
▁இந்தியத்	-8.66264
▁இடத்தில்	-8.66266
ங்களையும்	-8.66275
▁கல்வியறிவ	-8.66423
▁2001	-8.66425
▁எனினும்	-8.66425
▁மாகாண	-8.66426
▁ரோ	-8.66479
▁தாக்க	-8.66535
90	-8.6657
▁பெற்றார்	-8.66681
se	-8.66755
lo	-8.66943
▁பொருளாதார	-8.66966
தற்கு	-8.67012
H	-8.67221
▁செயல்	-8.6728
ுவதற்கு	-8.67289
ரூ	-8.67293
ரான	-8.67303
▁வெளியிணைப்பு	-8.67513
▁தொடக்க	-8.67521
டைந்த	-8.67535
வழி	-8.67585
ட்சி	-8.67892
▁தென்னிந்திய	-8.68062
▁நூற்றாண்டு	-8.68081
▁திட்ட	-8.68129
தாகும்	-8.68351
10	-8.6853
▁மறு	-8.6857
டே	-8.68638
ப்பட்டன	-8.68756
▁தேவை	-8.6881
ித்து	-8.68979
த்தைக்	-8.69147
சம்	-8.69263
▁சொல்	-8.69358
▁ஒன்றாகும்	-8.69398
▁வந்தது	-8.69398
▁பள்ளி	-8.69413
▁பெற்று	-8.69467
யையும்	-8.69531
▁நபர்கள்	-8.69732
▁உற்பத்தி	-8.69907
படுத்த	-8.69989
L	-8.70028
▁காட்ட	-8.70185
▁கூட	-8.70209
ுள்ளன	-8.70286
▁புரட்சி	-8.70292
▁மதுரை	-8.70299
நாட்ட	-8.7036
பெரு	-8.7065
?	-8.70856
▁மக்கள்தொகை	-8.70856
▁மற்ற	-8.70969
▁பிரா	-8.71005
▁30	-8.71032
லர்	-8.71081
க்கொண்ட	-8.71282
ad	-8.71397
▁தேர்தல்	-8.71439
▁செய	-8.71513
க்கல்	-8.71539
▁மேல	-8.72195
ுவது	-8.72233
▁மன்னர்	-8.72242
தல்	-8.72245
▁நீர	-8.72694
▁கடல	-8.72858
60	-8.72865
மோ	-8.7294
em	-8.73231
ha	-8.73327
களுக்கும்	-8.73417
ma	-8.73685
▁காரண	-8.73704
▁எழுத்தாளர்கள்	-8.73758
கிறார்	-8.74201
▁வீர	-8.74215
▁அவர்கள்	-8.74262
▁இதழ	-8.743
▁பத்திரிகை	-8.74314
▁உரிமை	-8.74323
▁புள்ளி	-8.74417
ீர்	-8.74429
க்கிறது	-8.74489
▁சார்ப	-8.74545
மானது	-8.74619
டெ	-8.74634
▁நல்ல	-8.74643
▁குறு	-8.74649
தோ	-8.74828
▁அரசுத்தலைவர்	-8.74903
▁அடுத்து	-8.74936
யால்	-8.75087
▁இயங்க	-8.75147
லக	-8.75164
ங்கை	-8.75182
ச்செ	-8.75303
▁ஊர	-8.7535
▁p	-8.75363
▁சந்தி	-8.75533
▁நோக்க	-8.75581
▁சார்ந்த	-8.75604
▁புல	-8.75609
▁இந்	-8.75616
▁சிறிய	-8.75657
▁சோவியத்	-8.75683
சோ	-8.75815
▁நாட்டின்	-8.75947
▁சராசரி	-8.7598
▁குறிப்பிட்ட	-8.76111
▁இந்து	-8.76241
om	-8.76301
ள்ளி	-8.76407
▁லி	-8.76409
▁அப்ப	-8.76425
▁ஆதி	-8.76683
▁திரைப்படம்	-8.76718
▁வளர்	-8.76738
▁மன	-8.76797
த்தல்	-8.76817
▁a	-8.76865
18	-8.76875
▁பிள்ளை	-8.76924
ென	-8.77081
ir	-8.77286
▁K	-8.77304
80	-8.77414
ுக்கான	-8.77547
▁21	-8.77735
தீ	-8.77745
▁பார்	-8.77764
▁மறை	-8.77942
▁அழக	-8.77953
▁அம்ப	-8.77985
கின்றது	-8.78186
றா	-8.7819
▁உள்ளனர்	-8.78217
ce	-8.78492
▁இயக்குநர்	-8.78507
▁புது	-8.78554
▁மீண்ட	-8.78609
and	-8.78858
▁வீடு	-8.78932
▁கிமீ	-8.78937
▁கல்லூரி	-8.78971
ஃப்	-8.78976
▁வடக்கு	-8.79063
▁கன	-8.79267
▁செய்தி	-8.79305
▁வசதி	-8.7932
▁அழைக்க	-8.79437
▁அமைவிடம்	-8.79737
▁முருக	-8.79748
ாகக்	-8.79785
▁2000	-8.79828
ளா	-8.79866
ta	-8.7997
▁எல்லா	-8.79997
▁மேற்	-8.80103
வகை	-8.80348
▁கழக	-8.8035
ப்பிர	-8.80385
▁அன்று	-8.80415
▁பழைய	-8.80556
ாலய	-8.80715
▁இருந்தது	-8.80732
ந்	-8.80745
▁எனப்படும்	-8.80765
▁வல	-8.80813
ொன்ற	-8.80837
▁எம்	-8.80944
▁பதிப்ப	-8.80983
▁செல்லும்	-8.81134
▁சூரிய	-8.81202
வற்றை	-8.81293
▁என்	-8.8143
▁குறைந்த	-8.81535
▁2004	-8.81613
▁ஸ்ரீ	-8.81675
▁குடியரசு	-8.81691
▁பிரிவு	-8.8171
▁நோ	-8.81738
▁இதழ்	-8.81744
▁பாடல்கள்	-8.81938
ும்போது	-8.81968
ct	-8.82161
நாத	-8.8224
▁I	-8.82324
யைத்	-8.82606
▁விளையாட	-8.82978
தீவு	-8.83128
▁மன்ன	-8.83214
▁பக்க	-8.83218
70	-8.83432
▁பெரும்பாலும்	-8.83524
வதி	-8.83638
▁பண்ட	-8.83673
▁வந்து	-8.83694
▁தம்	-8.83763
▁குறி	-8.83764
▁இராம	-8.84048
▁ஆசிரியர்	-8.84154
▁கலைஞர்	-8.8417
▁முதலிய	-8.84233
களைத்	-8.84329
ெழு	-8.84374
me	-8.84582
ne	-8.84585
▁தங்க	-8.84663
▁இதை	-8.84702
F	-8.84735
ஆங்கிலம்	-8.84739
▁வயத	-8.84769
▁எடுத்து	-8.8477
▁வானியலாளர்	-8.84827
▁1990	-8.84849
▁பஞ்ச	-8.84881
க்காக	-8.84937
▁விமான	-8.85038
▁சிங்கள	-8.85066
▁22	-8.85277
▁நாட்டு	-8.85444
▁எண்ணிக்கை	-8.85472
▁மட்ட	-8.8567
▁என்பன	-8.8577
▁0	-8.85949
கூ	-8.85963
டீ	-8.86085
▁தமிழில்	-8.86154
த்தைப்	-8.86304
▁கெ	-8.86341
▁தற்போது	-8.8644
▁இக்க	-8.86508
▁கட்டுரை	-8.86636
வுக்கு	-8.86793
பீ	-8.86812
▁சந்திர	-8.86823
▁சபை	-8.8685
▁இறந்த	-8.86854
▁அமைப்ப	-8.87028
▁நு	-8.87042
▁2011	-8.87228
வல	-8.87244
வான்	-8.8741
▁நோக்கி	-8.87569
id	-8.8777
▁லா	-8.87784
▁மொ	-8.87966
▁தொடர்பு	-8.87991
▁பத	-8.88039
▁இயற்கை	-8.88129
ராஜா	-8.88154
▁2002	-8.88158
ர்ட்	-8.88205
▁என்பத	-8.88328
▁ஒப்பந்த	-8.88365
▁ஐந்து	-8.88524
▁எனப்	-8.88578
▁c	-8.88612
▁குறிக்கும்	-8.88628
ca	-8.88715
▁அமைதி	-8.88822
▁யூ	-8.88898
ீடு	-8.88921
பர	-8.89018
▁நிறுவ	-8.89018
▁பிரதமர்	-8.89118
▁உருசிய	-8.89158
K	-8.8947
▁இயற்பியலாளர்	-8.89485
▁ஏப்ரல	-8.895
▁செலுத்த	-8.89504
மூர்த்தி	-8.89538
ளவு	-8.89574
தேச	-8.89678
சூ	-8.89696
▁வாழ்ந்த	-8.89697
▁பங்கு	-8.89701
▁கோட்டை	-8.89781
வாய்	-8.89888
கொள்	-8.89906
▁குறிப்பு	-8.89947
▁ஈர	-8.89961
▁எழுத	-8.9
▁தமது	-8.90203
கல்	-8.90492
▁23	-8.9052
ங்கோ	-8.90587
ist	-8.90711
▁ஒப்ப	-8.90756
▁மட்டுமே	-8.90861
▁வணிக	-8.9087
ணா	-8.90878
▁காட்சி	-8.90926
▁தொழில்நுட்ப	-8.90982
▁ராஜ	-8.90984
▁முனை	-8.90994
▁தேர்	-8.91011
▁கொண்டுள்ளது	-8.91149
G	-8.9156
▁புகழ்	-8.9175
கொண்ட	-8.91775
▁f	-8.92034
மர்	-8.92074
▁உதவி	-8.92077
▁மகன்	-8.92282
▁கருத்து	-8.92423
▁திசை	-8.92585
▁கணக்க	-8.92646
▁சுற்றி	-8.92742
▁b	-8.92901
▁யாழ்ப்பாணம்	-8.92909
▁இரண்டாவது	-8.92958
▁கண்	-8.93071
▁ஆரம்பித்த	-8.93085
▁அளவ	-8.93145
▁கள	-8.93264
▁25	-8.93681
யைச்	-8.93785
▁முடியும்	-8.93995
hi	-8.94089
ஃ	-8.94185
▁அவ்வ	-8.94191
▁வட்ட	-8.94486
ப்பட்டுள்ளன	-8.94546
▁மார்ச்	-8.94562
pe	-8.94564
▁V	-8.94607
▁ஜே	-8.9487
op	-8.94967
ந்தர்	-8.95168
கூட	-8.95234
nd	-8.95358
அமெரிக்காவின்	-8.95488
▁அளவில்	-8.95495
ment	-8.95549
ரால்	-8.95595
▁இக்	-8.95613
▁பெற்றவர்	-8.9565
த்தால்	-8.95752
ாசிரியர்	-8.95785
▁மில்லியன்	-8.95825
▁இதனால்	-8.95827
▁உறுப்பினர்கள்	-8.95831
▁அச்ச	-8.95839
▁ஏற்படுத்த	-8.95852
▁இருக்க	-8.9597
▁நியூ	-8.96002
ard	-8.96344
ங்களாக	-8.96421
▁இல்லை	-8.96423
▁புவியியல்	-8.96556
▁குறித்த	-8.96599
ion	-8.96618
tic	-8.9666
பகுதி	-8.96778
▁தூர	-8.96923
▁U	-8.96974
▁தொடங்க	-8.97009
ோட்ட	-8.9706
▁உயிர்	-8.97106
▁வச	-8.97129
▁Re	-8.97151
▁இலக்கண	-8.97172
▁விழா	-8.97274
▁நிர்வாக	-8.97292
▁தொலைவில்	-8.97335
▁தவிர	-8.97392
▁காணப்படும்	-8.97423
தெ	-8.97448
▁In	-8.97466
களான	-8.97512
ஸ்ட்	-8.97551
▁சாலை	-8.97578
od	-8.97636
▁ஜோ	-8.97699
மைப்பு	-8.97707
▁சுற்று	-8.97902
வாத	-8.97992
▁விட்டு	-8.98008
!	-8.98031
▁நீண்ட	-8.9811
▁வகைகள்	-8.98185
▁அடங்க	-8.98209
▁கம்ப	-8.9826
▁ரி	-8.98323
85	-8.9838
▁விளங்க	-8.98405
▁கிருஷ்ண	-8.98666
50	-8.98669
▁சின்ன	-8.9872
▁போரில்	-8.98801
ாது	-8.99094
▁தாவர	-8.99111
ணக்கெடுப்பின்படி	-8.99236
▁மதிப்ப	-8.99251
▁குறிக்க	-8.99255
▁முன்னாள	-8.9938
பரப்ப	-8.9943
▁தொலைக்காட்சி	-8.9953
▁விண்டோஸ்	-8.9953
▁கரை	-8.99536
▁முறையில்	-8.99551
▁அடுத்த	-8.99601
ஊ	-8.99679
▁அமெரிக்காவில்	-8.99886
▁அதே	-8.99941
▁தலைமை	-9.00213
கலை	-9.00231
96	-9.00275
▁போராட்ட	-9.0029
▁தொடர்பான	-9.0029
▁கிரேக்க	-9.00292
2)	-9.00312
▁தாக்குதல்	-9.00325
னெ	-9.00378
▁எனவே	-9.00417
▁அமைய	-9.00492
வற்ற	-9.00612
▁நாக	-9.00647
▁எனக்	-9.00703
க்கொ	-9.0077
▁பெர்	-9.00835
ப்படுவது	-9.00889
▁விருதுகள்	-9.00903
▁Ma	-9.01026
▁நகராட்சி	-9.01148
▁வாழ்	-9.01169
▁மலர்	-9.0133
▁பொறி	-9.01502
▁இலக்கியம்	-9.0151
ணர்	-9.01522
▁ஜி	-9.01639
▁நாடுகளில்	-9.01651
▁அதை	-9.01709
▁நடைபெற	-9.0181
▁அக்டோபர்	-9.0182
▁இப்பேரூராட்சி	-9.0182
▁மண	-9.02016
லாந்து	-9.02142
▁R	-9.02203
▁எழுதப்பட்ட	-9.02528
▁ஜெ	-9.02688
▁படைகள்	-9.02733
▁நேர்	-9.02737
▁சூழல	-9.0277
▁பல்ல	-9.02921
க்கூ	-9.03096
▁ஆதாரங்கள்	-9.03376
▁நிலையம்	-9.03522
▁கிடைக்க	-9.03609
▁வைத்து	-9.03724
▁முக்கியமான	-9.038
▁வெண்	-9.03824
▁இந்துக்	-9.03836
▁அடிப்படையில்	-9.03913
நாதன்	-9.0394
org	-9.03951
art	-9.04017
▁கலி	-9.04026
95	-9.04032
▁ஆஸ்திரேலிய	-9.04093
ாண்டு	-9.04114
▁மூன்றாம்	-9.04164
▁நியூயார்க்	-9.04166
ia	-9.04224
▁பயணி	-9.04262
▁ஒருவர்	-9.04531
▁பிறகு	-9.04586
▁சென்று	-9.04649
யாள	-9.04793
▁மொழிகள்	-9.04896
ுக்காக	-9.04926
▁கத்தோலிக்க	-9.04957
▁படுகொலை	-9.04957
▁பிரெஞ்சு	-9.04957
▁உவமை	-9.04973
▁இராச்சிய	-9.05147
64	-9.0526
ட்டோ	-9.05266
▁திரும்ப	-9.05269
▁சை	-9.0537
▁பதவி	-9.05387
▁எந்த	-9.05402
லெ	-9.05568
▁வெடி	-9.05665
▁ராம	-9.05784
மதி	-9.05958
▁வேத	-9.0604
▁திட்டம்	-9.06165
▁கொடுக்க	-9.0626
▁வெளியிட்ட	-9.06385
▁இத்தாலிய	-9.06401
▁50	-9.06403
▁அலை	-9.06407
35	-9.06557
’	-9.06564
▁கொள்கை	-9.06565
▁சக்தி	-9.06594
▁கோயில	-9.06598
▁குழு	-9.06644
▁கப்பல்	-9.06845
ிருப்பத	-9.06937
59	-9.06944
▁வருட	-9.07102
▁எரி	-9.07135
▁நகரம்	-9.07184
▁கூட்ட	-9.07226
மாகவும்	-9.07265
▁பதிப்பு	-9.07327
▁தொடருந்து	-9.07377
▁தெற்கு	-9.07378
புற	-9.07451
▁நோய்	-9.07475
க்கே	-9.07477
வள	-9.07484
▁உறுப்பினர்	-9.07514
▁மரபு	-9.07591
ci	-9.07597
▁இவருக்கு	-9.0799
▁சேர்	-9.08073
na	-9.08112
▁முயற்சி	-9.08196
▁விலங்கு	-9.08198
▁2003	-9.08199
▁வங்காள	-9.08199
▁ஈடுபட்ட	-9.08206
▁அலகு	-9.08224
▁சுவாமி	-9.08238
▁தாய்	-9.0824
▁திருப்ப	-9.08257
%)	-9.0849
▁St	-9.08583
▁24	-9.08741
▁உட்	-9.08936
▁நடந்த	-9.09005
▁சாதனை	-9.09027
▁மனைவி	-9.09038
▁விஜய	-9.09052
த்தீ	-9.09111
ort	-9.09213
பேர்	-9.09245
▁அவர்கள	-9.09285
▁துர	-9.0936
ந்தை	-9.09474
▁இந்நூல	-9.09507
vi	-9.09559
ve	-9.09575
▁மாணவர்	-9.09738
▁பெயரில்	-9.09765
▁பரப்பளவ	-9.09879
ow	-9.09941
ge	-9.09946
45	-9.09967
▁விரும்ப	-9.10025
▁மாறி	-9.10044
▁என்பதை	-9.10101
▁தின	-9.10191
▁மொழியில்	-9.10303
▁இந்தியாவில்	-9.10324
▁தான	-9.10392
14	-9.10396
▁வான	-9.10409
▁உசாத்துணை	-9.10697
▁உரை	-9.10723
▁மாவட்டத்திலுள்ள	-9.10727
▁இராச	-9.1077
▁இதற்கு	-9.11141
ிலே	-9.11186
யுள்ள	-9.11224
▁செய்யும்	-9.11285
லீ	-9.11379
▁மாதம்	-9.11513
75	-9.11523
99	-9.11534
▁நடவடிக்கை	-9.11544
▁சுதந்திர	-9.11545
▁பீ	-9.11558
▁பாண்டிய	-9.1158
▁தன்மை	-9.1164
▁தடை	-9.11714
12	-9.11737
▁காட்டு	-9.11761
▁என்பவர்	-9.11905
▁அதிகார	-9.11978
ரசு	-9.11981
பெற்ற	-9.12001
▁ஹெ	-9.12006
ers	-9.12018
02	-9.12087
கின்றார்	-9.12107
▁விதி	-9.12182
]	-9.12399
▁தமிழீழ	-9.12399
▁சகோதர	-9.12399
▁பாடசாலை	-9.12419
ப்பட்டார்	-9.1247
▁கீ	-9.1258
வாதி	-9.12622
ோர	-9.12663
▁கொண்டிருந்த	-9.12675
▁பேரரசர்	-9.12747
▁இயல	-9.12937
ni	-9.13042
92	-9.13116
▁ஒருவர	-9.13261
▁2008	-9.13262
▁வழியாக	-9.13263
▁ஏனைய	-9.13267
▁2014	-9.1329
▁கர	-9.13437
ங்களைக்	-9.13504
ran	-9.13513
94	-9.13519
tr	-9.13525
▁உடைய	-9.136
▁தோட்ட	-9.13772
வராக	-9.13796
▁லூ	-9.13828
▁உட்பட	-9.13893
▁இசு	-9.1392
▁கூட்டு	-9.13951
▁கருவி	-9.14018
▁அறிமுக	-9.14096
▁செருமானிய	-9.1413
▁நவம்பர்	-9.1413
▁பாதுகாப்பு	-9.14131
▁பயன்பாட்ட	-9.14139
திருத்தந்தை	-9.14144
▁புதின	-9.14157
▁அணை	-9.14184
▁காணப்படுகின்றன	-9.14207
தாகக்	-9.14217
▁நகரங்களும்	-9.14269
மேற்க	-9.1432
நாடு	-9.14347
▁மிகப்	-9.14348
va	-9.14395
ஜா	-9.14414
தற்கான	-9.14592
▁பூமி	-9.14682
▁மிகவ	-9.1477
▁மண்	-9.14792
▁நிறுவனம்	-9.148
ly	-9.14861
▁எனவும்	-9.1491
▁வெளியேற	-9.15023
▁2009	-9.15028
ாளராக	-9.15111
▁தலங்களில்	-9.1518
ராஜ	-9.15184
ங்களிலும்	-9.15189
▁சொற்கள	-9.15254
▁வைர	-9.15319
▁புலவர்	-9.15337
▁அறிவு	-9.15352
ஏ	-9.15383
U	-9.15386
97	-9.15398
▁பிரிக்க	-9.15595
▁சிறப்ப	-9.15603
▁தன்ன	-9.15629
பார்	-9.1578
▁ஐரோப்பிய	-9.15892
▁தேவாரம்	-9.15893
▁கடைசி	-9.159
▁2007	-9.15911
▁பயன்படுத்தி	-9.15977
ine	-9.16017
முடியாத	-9.16141
▁கொலை	-9.16523
ti	-9.16528
யாகவும்	-9.16641
▁நான்	-9.16667
▁வருகிறது	-9.16962
▁விளைவ	-9.16989
ியலாளர்	-9.17045
ஷா	-9.17057
களுக்கான	-9.17194
அமெரிக்க	-9.17209
▁நகர்	-9.17252
▁கட்டப்பட்ட	-9.17254
▁வெளியிட	-9.17325
நில	-9.17449
▁சிற்ப	-9.17519
▁குற்ற	-9.17629
‌	-9.17686
▁பெரும்பாலான	-9.17686
▁கொழும்பு	-9.17686
▁அனுப்ப	-9.17699
▁அடையாள	-9.17699
ச்சொல்	-9.17708
▁2015	-9.1771
▁ஆகியோர	-9.18013
47	-9.18082
ொன்று	-9.18189
▁பாடிய	-9.18234
ுள்ளனர்	-9.18385
▁ஒன்றில்	-9.18399
யினர்	-9.18446
pa	-9.18593
▁பன்னாட்டு	-9.18595
▁கேரள	-9.18605
▁உடல்	-9.1861
ff	-9.18716
▁விமானம்	-9.18727
▁சுற்றுலா	-9.18748
da	-9.18773
▁குறிப்புகள்	-9.18785
▁நூற்றாண்டில்	-9.18864
▁to	-9.18896
கெ	-9.18909
▁பிரதி	-9.19003
▁இளைய	-9.19041
வந்த	-9.19056
ver	-9.19112
▁பிறந்தார்	-9.19193
93	-9.19217
▁ஜெய	-9.19258
▁விருத	-9.19409
▁1989	-9.19536
po	-9.19618
கொள்ள	-9.19619
▁கிமு	-9.19717
த்திலுள்ள	-9.19836
▁தொகுப்பு	-9.19839
ட்ஸ்	-9.19863
mo	-9.19864
72	-9.20034
▁ஜா	-9.20082
▁ஜான்	-9.20302
▁பணியாற்ற	-9.20392
க்கப்படும்	-9.20394
▁வினை	-9.20409
▁ஏழு	-9.20456
▁பின்ன	-9.20477
ாளர	-9.20477
தமிழ்	-9.20556
▁26	-9.20561
▁வைக்க	-9.20615
▁புரிந்த	-9.20657
▁சூழ	-9.20684
▁இடையில்	-9.21116
ber	-9.21197
▁வெப்ப	-9.21268
ராஜ்	-9.21305
▁செப்டம்பர்	-9.21373
▁குடியேற்ற	-9.21373
▁நடைமுறை	-9.21374
▁பௌத்த	-9.21375
▁உலோக	-9.21383
▁2013	-9.21395
▁மேற்பட்ட	-9.21411
▁அழைக்கப்படும்	-9.2147
▁ஆலயம்	-9.21533
17	-9.21548
▁பயணம்	-9.21609
▁எடுத்த	-9.21613
▁வாய்ப்ப	-9.2181
▁விட்ட	-9.21935
▁அடை	-9.21954
▁இணைந்து	-9.21962
▁ஏற்ற	-9.22029
த்தோ	-9.22105
▁உண்ண	-9.22128
▁அடைந்த	-9.22157
நீ	-9.22181
ஷி	-9.22262
▁பண்டைய	-9.22398
மூ	-9.22449
தொ	-9.22516
▁இணைப்புக்கள	-9.22739
▁நடித்துள்ள	-9.2283
98	-9.22886
சார்	-9.2295
தாகவும்	-9.22962
▁வீதி	-9.23001
▁ஆகியவை	-9.23224
▁நவீன	-9.23269
என்	-9.233
▁எடுக்க	-9.23388
▁அருகில்	-9.23533
ங்கிய	-9.23625
87	-9.23692
க்கப்பட்டு	-9.23781
▁ஸ்ட	-9.23906
▁on	-9.24001
16	-9.24102
விற்கு	-9.2417
40	-9.24187
▁அமைச்ச	-9.24243
▁முத்து	-9.24262
▁மேள	-9.24337
▁படையினர	-9.24405
▁ஊர்களும்	-9.24452
▁+	-9.24482
▁பதிவு	-9.24619
ெடுத்த	-9.24792
89	-9.2492
▁மக்களவை	-9.24993
▁சொற்கள்	-9.25009
▁இதுவே	-9.25099
ai	-9.25165
°	-9.25201
▁ஞான	-9.25208
▁2012	-9.25235
30	-9.25235
▁பாதை	-9.25455
ru	-9.2555
▁வாழ்வ	-9.25625
▁இவ்வாறு	-9.25632
களாகும்	-9.25633
–	-9.2578
▁அதற்கு	-9.2599
▁சுர	-9.26035
▁1983	-9.26182
▁மென்பொருள்	-9.26188
▁1972	-9.26209
▁பறவை	-9.26348
▁தொடங்கி	-9.26367
▁பசு	-9.2641
▁சரி	-9.26637
▁வலை	-9.26711
கின்றனர்	-9.26768
55	-9.26876
▁கருத்த	-9.2696
▁ஆள	-9.26984
▁பகுதிகளில்	-9.2711
▁இங்கிலாந்து	-9.27172
▁விவசாய	-9.27172
▁தற்கால	-9.27173
▁அறிமுகப்படுத்த	-9.27211
▁இரத்த	-9.273
▁எதிராக	-9.27373
no	-9.27385
tion	-9.27404
▁உடன	-9.27485
▁போன்றவற்ற	-9.27629
▁பிரான்சிய	-9.27688
ism	-9.27713
▁அல்ல	-9.27754
▁தலங்கள்	-9.27763
பிள்ளை	-9.27803
bo	-9.27983
82	-9.28075
▁கொடுத்த	-9.28106
▁ஃப	-9.28124
▁சர்வதேச	-9.28172
▁ஒழுங்க	-9.28172
▁கடற்படை	-9.28172
ுகின்றனர்	-9.28185
▁பால்	-9.28306
▁நிறுத்த	-9.28339
65	-9.28573
▁அமைத்த	-9.28631
▁27	-9.28704
ஹா	-9.28719
32	-9.28767
ell	-9.2878
ஐ	-9.28804
86	-9.28804
▁ஆகியவற்ற	-9.28857
▁கனடா	-9.28894
▁இலக்க	-9.29063
▁தீவுகள்	-9.29115
▁பெப்ரவரி	-9.29182
▁ஆராய்ச்சி	-9.29182
▁1991	-9.29201
▁1965	-9.29207
▁1987	-9.29208
▁1997	-9.29211
▁உட்பட்ட	-9.29226
▁நாட்கள	-9.29275
▁நிலையில்	-9.29323
▁கோல	-9.29392
▁தீவ	-9.29523
▁சீர்	-9.29757
▁காந்தி	-9.29793
▁குழுவ	-9.29976
62	-9.30157
▁Co	-9.30165
▁தமிழறிஞர்	-9.30202
▁வானொலி	-9.30203
#	-9.30203
▁டைம்சு	-9.30203
▁அறிஞர்	-9.30204
▁அதாவது	-9.30206
▁உண்மை	-9.30208
▁1973	-9.30219
▁புராண	-9.30223
▁ஆட்ட	-9.3025
யினை	-9.30284
பொருட்	-9.30302
▁De	-9.30318
▁ஹா	-9.30426
▁பண	-9.30443
▁சோழர்	-9.30481
▁பத்து	-9.30553
▁திரைப்படமாகும்	-9.30597
லூர்	-9.30609
▁கொடு	-9.30664
▁100	-9.30669
▁செயல	-9.30713
84	-9.30803
▁சேர்த்து	-9.30904
▁மட்டும்	-9.30947
▁1994	-9.31263
▁ஆகியோர்	-9.31304
ிடையே	-9.31387
▁ஓட்டங்கள	-9.31526
▁சைவ	-9.31575
▁உருவாக்கப்பட்ட	-9.31655
ுமாறு	-9.31661
லுக்கு	-9.31781
▁உள	-9.3188
▁மழை	-9.31984
48	-9.31988
▁திருமணம்	-9.32054
▁வருகின்றன	-9.32107
யினர	-9.32158
▁வளை	-9.32251
▁வில்லியம்	-9.32275
▁உடல	-9.32296
▁1998	-9.32303
▁இடையே	-9.32433
▁for	-9.3246
▁கட்டுரைகள்	-9.32529
15	-9.32592
▁வார	-9.32647
▁ஆவண	-9.32702
▁கொண்டார்	-9.32799
66	-9.3285
25	-9.32926
▁குண	-9.32958
V	-9.32995
ud	-9.3306
▁நீதி	-9.33213
வாகும்	-9.33231
▁மகன	-9.33231
▁காதல்	-9.33262
▁மலேசிய	-9.3334
▁1971	-9.3335
▁வரிசை	-9.33394
per	-9.33493
வெளி	-9.33529
▁de	-9.33599
ity	-9.33792
▁பரிச	-9.33861
all	-9.34158
0,000	-9.34183
எழு	-9.34309
▁நாட்காட்டி	-9.34391
▁2016	-9.34423
ுவதை	-9.34428
▁வேக	-9.34434
11	-9.34448
▁பல்கலைக்கழகம்	-9.3445
34	-9.34477
▁Ch	-9.3449
▁ஏற்படும்	-9.34519
▁கீழே	-9.34532
▁காணப்படுகிறது	-9.34544
ுபவர்	-9.34577
▁எகிப்த	-9.34581
88	-9.3468
▁தொடர	-9.34694
களே	-9.3477
▁ஒன்றை	-9.34852
▁இறைவன்	-9.34855
மூல	-9.35105
▁சார்ல	-9.35197
லாந்த	-9.35247
ஜ்	-9.35282
▁ஏற்பட	-9.35298
by	-9.35303
ive	-9.35314
▁சிறை	-9.35326
ana	-9.3535
▁அனுமதி	-9.35467
▁கடற்கரை	-9.35467
▁சாதாரண	-9.35467
▁பழங்குடி	-9.35467
▁ஆதரவ	-9.35473
▁பொறுப்ப	-9.35535
▁என்ன	-9.35568
▁கட்டிடங்கள	-9.35744
▁வகையில்	-9.35757
▁எதிரான	-9.35799
வதால்	-9.35911
▁இணைப்பு	-9.36038
58	-9.36201
ies	-9.36231
▁நாவல	-9.36343
நல்லூர்	-9.36376
ப்பொருள்	-9.36516
▁1948	-9.3658
▁1947	-9.36584
▁1960	-9.36602
கோள்	-9.36618
▁தலைவராக	-9.36637
▁பின்னணி	-9.36651
சங்க	-9.36682
▁ஜப்பான	-9.36685
▁பூங்கா	-9.36813
▁அருள்	-9.36831
▁தேட	-9.36983
▁முன்னர்	-9.37042
▁பயன்	-9.37085
▁அங்கே	-9.37159
du	-9.3721
▁கடவுள்	-9.37213
▁முடிவு	-9.37263
▁பயண	-9.37265
=	-9.37265
▁அதில்	-9.37293
56	-9.37323
ary	-9.37329
+	-9.37364
▁கண்டுபிடிக்க	-9.37652
▁Tamil	-9.37653
▁ஊடக	-9.37653
▁செயற்பாட்டாளர்	-9.37659
த்தினை	-9.37667
▁அதனை	-9.37676
▁1995	-9.37688
▁29	-9.37938
79	-9.37976
▁மாலை	-9.37993
ang	-9.38111
▁சூலை	-9.38131
ுகின்ற	-9.38285
▁40	-9.38286
ின்றன	-9.38352
24	-9.38443
▁மண்டல	-9.38536
▁பார்த்த	-9.3855
ill	-9.38564
▁நிறுவப்பட்ட	-9.38576
▁இலை	-9.38577
▁தபால்தலை	-9.38764
▁1961	-9.38788
▁1976	-9.38788
▁டொ	-9.38793
▁1999	-9.38797
▁1970	-9.38808
▁துறைமுக	-9.38874
ுதல	-9.38928
▁சம்பந்தர்	-9.39059
▁அறிந்த	-9.39106
67	-9.39139
▁காதல	-9.3923
வீர	-9.39289
▁பண்பு	-9.39314
▁எழுத்த	-9.39552
▁சேர்ந்து	-9.39585
த்தான்	-9.3961
▁திரை	-9.39686
▁நிகழ	-9.3984
age	-9.39852
▁கண்டுபிடித்த	-9.39887
▁1942	-9.39911
▁1930	-9.39917
▁1996	-9.39925
tt	-9.40111
46	-9.40116
77	-9.4014
57	-9.40146
▁விலக	-9.40237
▁தெரிய	-9.40378
▁கொடி	-9.40398
▁தோன்ற	-9.40502
▁லெ	-9.40581
▁செருமனிய	-9.40883
பெற	-9.40941
ction	-9.40977
▁கிறித்தவ	-9.41025
▁அப்போது	-9.41043
▁1974	-9.41043
▁1977	-9.41049
▁முதன்	-9.4107
▁1980	-9.41072
▁ஆசிரியராக	-9.41078
▁குமார	-9.41201
யிலுள்ள	-9.4121
▁ஆகவும்	-9.41268
76	-9.41354
ப்படை	-9.41378
▁நினைவு	-9.41498
▁அரசின்	-9.41691
▁கிள	-9.41756
▁நாடுகளின்	-9.41808
ate	-9.41893
ian	-9.4191
▁எழுத்துக்கள	-9.42129
▁உள்நாட்டு	-9.42173
▁இத்திரைப்படத்த	-9.42174
▁தயாரிக்க	-9.42176
▁பின்பு	-9.42177
▁1988	-9.422
▁1984	-9.42201
▁1975	-9.42207
▁இந்நகர	-9.42214
▁இரண்ட	-9.42218
▁இந்திர	-9.42242
▁நந்தி	-9.42289
குமார்	-9.42361
▁வழிபட்ட	-9.42363
▁முதன்மை	-9.42385
ின்றது	-9.42443
▁அழுத்த	-9.42492
▁முடிவுக்கு	-9.42583
▁மட	-9.4277
வுடன்	-9.42877
▁வேண்டிய	-9.43069
▁சமண	-9.43232
▁1941	-9.43336
▁1963	-9.43336
▁மெய்யியலாளர்	-9.43348
▁வளர்ந்த	-9.43353
▁இத்தலத்த	-9.43357
▁1986	-9.43365
▁1950	-9.43376
▁புத்தக	-9.43441
="	-9.43445
▁பொன்ன	-9.43455
▁போன்றவை	-9.43668
▁நாவல்	-9.43683
▁திணை	-9.43712
61	-9.43723
▁மன்னன்	-9.43806
▁வரி	-9.43816
ub	-9.4397
▁தாள	-9.44049
▁வங்கி	-9.44151
▁இப்பகுதி	-9.44159
▁மருத்துவர்	-9.44313
▁லீ	-9.44359
▁டிசம்பர்	-9.44512
▁சிதம்பர	-9.44512
ிருக்கிறார்	-9.44513
த்தொகை	-9.44516
யூர்	-9.44521
▁வந்தார்	-9.4453
▁1993	-9.44545
▁1985	-9.44552
▁பயன	-9.44562
▁ஆரம்பமானது	-9.44566
▁கணித	-9.44579
▁கூட்டணி	-9.4463
▁பாடகர்	-9.44662
▁தீர்த்த	-9.44668
▁உணவ	-9.44695
▁இயக்குனர்	-9.44758
▁ஒத்த	-9.44876
மாற்ற	-9.44901
▁காலநிலை	-9.44903
மண்டப	-9.4496
▁வட்டத்தில்	-9.45002
▁கடவுள	-9.45004
71	-9.45117
▁ஆத்திரேலிய	-9.45119
▁உத்தர	-9.45124
▁கடத்த	-9.45154
▁பாணி	-9.45275
36	-9.45351
▁வேண்ட	-9.45559
49	-9.45566
▁இயங்குதள	-9.45703
Y	-9.45703
▁போக்குவரத்து	-9.45703
▁சனவரி	-9.45705
▁கணிதவியலாளர்	-9.45709
▁அடர்த்தி	-9.45714
▁வாங்க	-9.45725
▁1982	-9.45734
▁அம்மன்	-9.45736
▁1992	-9.45738
▁1920	-9.45786
சென்	-9.4588
▁காணலாம்	-9.45905
நாதர்	-9.45927
ல்லாமல்	-9.45949
▁திறந்த	-9.45994
▁குள	-9.46052
▁இராகங்கள	-9.46334
▁28	-9.4641
13	-9.46683
ஒ	-9.46734
▁நுண்	-9.46784
ure	-9.46794
▁விபர	-9.46864
▁தேர்தலில்	-9.46908
▁விண்வெளி	-9.46908
▁விண்கல	-9.46911
▁பாக்கித்தான	-9.46916
▁காவிரி	-9.46939
▁மலையாள	-9.46959
▁மிகுந்த	-9.46997
▁சேர்க்க	-9.4706
ant	-9.47076
▁சப்பானிய	-9.47113
▁இவருடைய	-9.47174
▁அவரை	-9.47237
ினான்	-9.47297
▁அவன்	-9.47321
களுக்காக	-9.47333
▁என்பவற்ற	-9.47336
cc	-9.47426
▁வெளியிடப்பட்டது	-9.47454
▁நாள	-9.47527
▁உயரத்தில்	-9.47608
▁பிறப்பு	-9.47649
▁அதிகமான	-9.47767
ஜீ	-9.47859
W	-9.47964
▁சீனா	-9.48038
▁நிகழ்ச்சி	-9.48128
▁நுட்ப	-9.48128
▁உறுதி	-9.48132
▁தமிழ்நாட்டு	-9.48134
▁1944	-9.48151
▁1940	-9.4816
▁வெப்பநிலை	-9.48172
▁1918	-9.48179
▁2010	-9.4819
▁உதவ	-9.48256
▁நூலகம்	-9.48352
▁முறைமை	-9.4836
ப்பெயர்	-9.4837
▁கடந்த	-9.48405
▁நூற்	-9.48542
▁அமைக்க	-9.48578
▁பகுதியாக	-9.48597
▁[	-9.48604
▁பரவலாக	-9.48641
ிலிருந்த	-9.48765
ப்பள்ளி	-9.4883
▁அரசர்	-9.48872
த்திலேயே	-9.48974
▁எசுப்பானிய	-9.49019
குறி	-9.49076
▁வெள்ள	-9.49088
▁ஆண்டுகளுக்கு	-9.49166
சாலை	-9.4919
▁நிறுவனங்கள	-9.49232
▁பெண்ண	-9.49274
▁தொழிற்	-9.49359
▁பாரம்பரிய	-9.49362
▁தெலுங்கு	-9.49362
▁வகைப்பாடு	-9.49363
▁தொழிலாளர்	-9.49387
ical	-9.49396
▁நூற்றாண்ட	-9.49525
▁கருதப்படுகிறது	-9.49608
our	-9.49707
▁பொருட்கள்	-9.49835
▁பிரபல	-9.49861
42	-9.49883
ூட்ட	-9.50043
▁குண்டு	-9.50104
▁உரோமை	-9.50106
▁உணர	-9.50229
ுகின்றார்	-9.50235
▁ஏற்றுக்	-9.50285
▁நாடுகள	-9.50327
ுக்குள்	-9.50333
▁நாட்டில்	-9.50548
▁இயேசு	-9.50557
09	-9.50557
▁பாரசீக	-9.50612
▁வெவ்வேறு	-9.50612
▁1969	-9.50612
▁1978	-9.50612
▁இயற்றிய	-9.50612
▁பண்பாடு	-9.50613
▁விவிலிய	-9.50613
▁மாநிலங்கள	-9.50613
சட்டமன்றத்	-9.50629
▁On	-9.5064
▁1979	-9.5064
க்கொள்ள	-9.50802
நீர்	-9.51305
tor	-9.51377
ரூப	-9.51478
▁வாழ	-9.51624
▁பறவைகள்	-9.51669
▁முதற்	-9.51669
கோண	-9.51843
▁தயாரிப்ப	-9.51846
▁ஜனவரி	-9.51878
▁உறுப்பு	-9.51881
▁பின்பற்ற	-9.51905
▁ஆரம்பிக்கப்பட்ட	-9.51921
Com	-9.51946
▁வேறுபாடு	-9.51968
▁இல்லாத	-9.51981
▁அதிகமாக	-9.52032
▁Pro	-9.52058
▁துருக்கிய	-9.52064
▁மைல்	-9.52067
▁முன்னணி	-9.52098
க்காடு	-9.52101
▁அந்ந	-9.5211
▁பெரித	-9.52197
▁பருவ	-9.52258
▁இவ்வூர்	-9.52275
▁இக்கோயில	-9.52369
நாயக்க	-9.52406
man	-9.52506
▁31	-9.52561
▁கதிர்	-9.5259
▁ஒட்ட	-9.52628
ப்பதற்கு	-9.52636
▁நொ	-9.52668
est	-9.5282
▁தலைமையில்	-9.52865
ிருந்தார்	-9.52954
▁கருநாடக	-9.5316
▁அரபு	-9.53174
▁1943	-9.53184
▁1957	-9.53188
▁1945	-9.53198
▁அமைக்கப்பட்ட	-9.53199
▁கிடைத்த	-9.532
▁அம்சங்கள	-9.53202
44	-9.5327
▁தாவரங்கள	-9.53304
▁ஓட	-9.53327
▁இழந்த	-9.53335
▁பார்வை	-9.5356
▁கலந்து	-9.53618
ூடாக	-9.53747
▁தரவு	-9.53904
▁கூடுதல	-9.5395
யினால்	-9.53998
▁ஐரோப்பா	-9.54151
▁ஆவது	-9.54193
81	-9.54269
▁இருந்தார்	-9.54269
X	-9.54458
▁பின்வருமாறு	-9.54458
▁வியட்நாம	-9.54458
▁எடுத்துக்காட்டு	-9.54459
▁தொலைவிலும்	-9.54459
▁பேருந்து	-9.54462
▁வலையமைப்ப	-9.54465
▁இருக்கின்றது	-9.54475
▁1981	-9.54484
▁1956	-9.54488
▁பயன்பாடு	-9.54492
▁தளபதி	-9.54568
▁சேர	-9.54577
ib	-9.54631
ப்படுகின்ற	-9.54707
த்திற்கான	-9.54758
▁சந்தை	-9.54891
▁வல்ல	-9.54987
ப்பட்டுள்ள	-9.55225
▁கிலோ	-9.55342
▁முனிவர	-9.55451
தோடு	-9.55484
▁செய்தார்	-9.55534
av	-9.55549
ட்ரோ	-9.55579
J	-9.55711
சுவாமி	-9.55716
▁பயிற்சி	-9.55774
▁மிகப்பெரிய	-9.55774
▁கட்டுப்பாட்ட	-9.55775
▁விகிதம்	-9.55786
▁புகழ்பெற்ற	-9.55795
qu	-9.55796
நாராயண	-9.55796
▁1953	-9.55798
▁ஆகஸ்ட்	-9.55828
▁குவா	-9.55888
படுவ	-9.55904
ுவதாக	-9.56005
37	-9.56178
▁நகரங்கள்	-9.56242
▁கனடாவ	-9.56304
▁முறையே	-9.56332
▁தவற	-9.56454
த்திணை	-9.56493
தற்காக	-9.56634
▁வகையான	-9.56645
wa	-9.56692
தில்லை	-9.56962
▁அழைக்கப்பட்ட	-9.57044
▁மைக்ரோசாப்ட்	-9.57107
ிருக்கிறது	-9.57129
▁தயாரிப்பாளர்	-9.57142
▁அறிவிக்கப்பட்ட	-9.57145
▁ஆனந்த	-9.57176
ram	-9.57372
▁படைத்த	-9.57513
▁வழங்கப்பட்டது	-9.57596
▁ஆற்றல	-9.5778
▁இராகத்த	-9.57801
ொழு	-9.58041
▁இராச்சியத்த	-9.58135
சபை	-9.58153
43	-9.58351
▁பாரதி	-9.58432
▁காயமடைந்த	-9.58459
▁தேவாரப்	-9.58459
▁கட்டுமான	-9.58471
▁நீல	-9.58573
▁வீதம்	-9.58624
▁வெளியிட்டார்	-9.58847
நிரல	-9.58956
▁சுப்பிரமணிய	-9.59007
▁எதிர்ப்பு	-9.59077
▁பத்ம	-9.59205
▁செய்யப்பட்டார்	-9.59311
91	-9.59442
dd	-9.59566
▁காண்க	-9.59593
திறன்	-9.59759
▁நிதி	-9.59783
▁தேர்ந்தெடுக்க	-9.59828
▁அமீரக	-9.59829
▁அகாதமி	-9.59829
▁மூலிகை	-9.59831
▁என்பவர	-9.59836
லட்சுமி	-9.59837
▁ஆயுத	-9.59837
▁கிருதி	-9.59837
▁தெய்வ	-9.59866
▁மரண	-9.59923
▁அழைப்ப	-9.59992
ப்படவில்லை	-9.60025
▁குறிப்பாக	-9.60069
▁சுந்தர	-9.60285
▁2011-	-9.60343
▁தத்துவ	-9.60381
▁அருக	-9.60462
▁அவருக்கு	-9.60618
500	-9.60619
▁விதை	-9.60709
▁An	-9.60971
▁நெடு	-9.61173
▁உறவு	-9.61182
▁ஒன்றாக	-9.61185
ess	-9.61202
”	-9.61217
▁தஞ்சாவூர்	-9.61217
▁வானூர்தி	-9.61218
ேஸ்வரர்	-9.61218
▁சிங்கப்பூர	-9.61218
▁நோர்வே	-9.6122
▁பணியாற்றினார்	-9.61298
▁யாழ்	-9.61372
▁பொருத்த	-9.61375
▁தெளிவ	-9.61554
திரைப்பட	-9.61629
▁விளங்கிய	-9.61901
▁அமைக்கப்பட்டது	-9.61937
▁நகரை	-9.62013
▁அவள	-9.6206
07	-9.62147
▁நூல்களை	-9.62191
▁கொல்ல	-9.62302
▁மன்னன	-9.6249
▁ஆப்பிரிக்க	-9.62626
▁கோட்பாடு	-9.62627
▁பிபிசி	-9.62634
▁1962	-9.62662
▁1964	-9.62671
▁இராணுவத்தினர	-9.62677
வேண்டும்	-9.62678
▁சுருக்க	-9.62698
▁மத்திம	-9.62787
லிருந்து	-9.6289
▁கட்டளை	-9.62957
ராஜன்	-9.62981
ஃப	-9.63088
▁தொலை	-9.63255
▁கல்லூரியில்	-9.63382
▁தொகுப்ப	-9.63557
▁வெள்ளை	-9.63583
▁பெயரை	-9.63672
▁ஆந்திர	-9.63691
▁மீத	-9.63837
நகர்	-9.6398
▁தப்பி	-9.64011
▁சமுதாய	-9.64055
▁ஜூலை	-9.64055
▁நம்பிக்கை	-9.64055
▁தேர்வுத்	-9.64058
▁1934	-9.64089
53	-9.64115
த்தன்மை	-9.64183
iv	-9.64231
▁சிங்	-9.64298
▁அவற்றை	-9.64462
▁பெருங்க	-9.64535
▁நம்ப	-9.64695
▁சொந்த	-9.64722
74	-9.6474
செய்ய	-9.64808
05	-9.64917
ass	-9.65086
எஸ்	-9.65091
களினால்	-9.65113
▁பக்கங்கள	-9.65137
39	-9.65332
▁சேகர	-9.65373
▁சட்டமன்ற	-9.65485
▁கட்டடக்கலை	-9.65504
▁மூன்றாவது	-9.65504
htm	-9.65505
▁அரசாங்க	-9.65507
▁முக்கோண	-9.65509
▁1968	-9.65526
▁1959	-9.65549
ிற்கான	-9.65783
▁தில்லி	-9.65791
▁செய்வ	-9.65976
▁பெருமை	-9.66002
▁அன்ப	-9.66015
▁அளித்த	-9.66202
38	-9.66276
▁பிடித்த	-9.66489
▁கோண	-9.665
▁எதிர	-9.66677
▁நிகழ்வ	-9.66808
மென்பொருள	-9.66965
▁இங்கிலாந்தின	-9.66974
▁இத்தகைய	-9.66974
▁கிலோமீட்டர்	-9.66974
▁1923	-9.66975
▁முழுவதும்	-9.66977
▁ஆய்வாளர்	-9.66996
▁1967	-9.67008
▁1958	-9.67009
▁எழுந்த	-9.67018
▁உச்சி	-9.67094
▁அருகே	-9.67211
▁கிளை	-9.6726
ுவதற்காக	-9.67342
▁அரங்க	-9.67542
▁1000	-9.67611
▁அதிகாரி	-9.67832
ck	-9.68225
▁ஆலய	-9.68264
கோபால	-9.6834
▁கிறிஸ்	-9.6844
&	-9.68466
▁கல்வெட்டு	-9.68467
▁நிரலாக்க	-9.68467
▁வசிக்கின்ற	-9.68469
▁கிறிஸ்தவ	-9.68499
▁1966	-9.68503
▁திராவிட	-9.68588
▁இங்குள்ள	-9.68723
▁குறிப்ப	-9.68813
▁கொண்டிருக்கும்	-9.68829
▁அன்ன	-9.68896
▁சிறப்பாக	-9.68902
▁கட்டமைப்ப	-9.68922
ord	-9.68946
▁புலிகளின	-9.69039
▁மருந்த	-9.6921
▁படைப்புகள	-9.69411
▁வடிவமைப்ப	-9.69498
▁இயல்ப	-9.69515
▁ஆசிய	-9.69691
▁தீவிர	-9.69982
▁1929	-9.69982
▁தோற்கடித்த	-9.69982
▁வெளியீடு	-9.69983
▁இங்கே	-9.69998
▁பேராசிரியர்	-9.70052
ence	-9.70157
▁செருமனி	-9.7017
▁கொல்லப்பட்டார்	-9.70177
▁பொறுத்த	-9.70197
▁பிளா	-9.70243
ப்பதற்காக	-9.7033
3%	-9.70534
▁வெளிப்படுத்த	-9.70535
▁எழுதி	-9.70557
▁Ro	-9.70733
▁திருச்சி	-9.70882
ple	-9.70959
73	-9.71247
▁1922	-9.71523
▁கனடிய	-9.71527
▁1932	-9.71562
▁என்பவரால்	-9.71654
▁மீள	-9.7183
▁மொழிபெயர்ப்பு	-9.71959
ப்படாத	-9.72021
▁சுந்தரர்	-9.72077
▁மாநகர	-9.72109
▁வீட்டு	-9.72231
▁ஆகியவற்றை	-9.72264
▁தோன்றிய	-9.72599
▁உயர்ந்த	-9.72616
நேர	-9.72806
எடுத்துக்காட்டாக	-9.73083
▁மென்பொருட்கள	-9.73083
▁1933	-9.73083
▁பயன்படுகின்ற	-9.73085
▁அதனால்	-9.73089
▁மேற்கொள்ள	-9.7311
▁1939	-9.7311
க்குழு	-9.73153
ாகவோ	-9.73165
▁சராசரியாக	-9.73372
▁அழிந்த	-9.73374
ஃபி	-9.73448
வியலாளர்	-9.73864
▁மேற்கோள்	-9.7387
▁இறக்க	-9.73907
வியல	-9.74003
▁கொண்டாட	-9.74004
▁அளவை	-9.74066
▁கேட்டு	-9.74093
▁பிரபலமான	-9.74157
▁கதிர	-9.74439
9%	-9.74469
▁வெளியிடப்பட்ட	-9.74568
ுடனும்	-9.74648
‘	-9.7467
▁நிறைவேற்ற	-9.7467
▁கேள்வி	-9.74672
▁பிற்கால	-9.74673
நாயகம்	-9.74678
ign	-9.74681
▁அராலி	-9.74691
▁1936	-9.74705
▁1925	-9.74709
▁இராகம்	-9.74717
▁உறவுமுறை	-9.74719
▁சுரங்க	-9.7474
▁2018	-9.74746
▁தொடங்கப்பட்டது	-9.74825
ினுள்	-9.74924
▁தன்னை	-9.74946
▁மெய்	-9.7529
▁இராஜ	-9.75297
ினதும்	-9.75603
▁சப்பான	-9.75617
▁கிரக	-9.75743
▁யூத	-9.75817
நெட்	-9.76045
▁குடியரச	-9.76082
‎	-9.76283
▁துடுப்பாளர்	-9.76283
▁நுண்ணோக்கி	-9.76283
▁அறிவித்தது	-9.76284
▁தெரிவு	-9.76286
▁நூறு	-9.76291
▁அளிக்க	-9.76303
▁1938	-9.76312
ப்பதிவு	-9.76319
▁1946	-9.7632
▁மேம்படுத்த	-9.7633
▁சரித்திர	-9.76371
▁நாணய	-9.76483
கிருஷ்ண	-9.76526
▁இவ்வாற	-9.76736
▁சக்கர	-9.77014
▁இறைவன	-9.77216
யியலாளர்	-9.77218
▁தொழில	-9.77237
▁வன்னி	-9.77315
▁வெள்ளி	-9.77455
▁மன்ற	-9.77491
ழுத்த	-9.77535
27	-9.77582
▁கீழ	-9.77856
▁ஆசிரிய	-9.77888
▁விமர்சன	-9.77923
▁1928	-9.77923
▁விற்பனை	-9.77925
▁இவற்றில்	-9.77925
▁பரம்பல்	-9.77926
▁பிரேசில	-9.77927
▁ஊடகவியலாளர்	-9.77932
▁காவேரி	-9.77942
▁1927	-9.77948
▁1913	-9.77958
▁திருவிழா	-9.77969
ress	-9.77994
▁பொதுமக்கள	-9.78001
▁கொரியா	-9.7826
arch	-9.78287
▁கொள்வ	-9.78337
net	-9.78456
குளம்	-9.78554
▁அறியப்பட்ட	-9.78555
▁பாலின	-9.78606
▁உள்ளடக்கிய	-9.79471
ிடமிருந்து	-9.79589
▁அலுவலக	-9.79589
▁கண்டுபிடிப்ப	-9.79589
▁விநாயகர்	-9.79589
▁சன்னதி	-9.7959
▁வேதியியல்	-9.7959
▁சோதனை	-9.79591
▁வடகரை	-9.79598
▁குளிர்	-9.79602
▁முல்லை	-9.7961
▁1949	-9.79625
▁1914	-9.7964
▁உருவாகி	-9.79735
▁பொருளியல்	-9.79759
▁நடத்திய	-9.79805
|	-9.79892
▁நாடாக	-9.79942
▁கூட்டமைப்ப	-9.80107
▁செய்வத	-9.80146
▁முட்டை	-9.80173
68	-9.80235
▁மருத	-9.8044
▁Ra	-9.80957
▁பிரித்த	-9.81037
▁பாதுக	-9.81277
▁இயற்பியல்	-9.81284
▁முற்றுகை	-9.81285
▁1952	-9.81286
▁போராளி	-9.81287
▁செயற்கை	-9.81288
▁ஒல்லாந்த	-9.81297
▁1912	-9.81337
▁வாகன	-9.81358
▁pro	-9.81366
▁பண்ப	-9.81374
ுடன	-9.81569
▁மன்னார்	-9.8179
▁சௌ	-9.81873
▁அழிக்க	-9.82069
▁மூலமாக	-9.82083
ெடுக்க	-9.82539
▁நினைவ	-9.82615
▁இத்திரைப்படம்	-9.83008
▁மேளகர்த்தா	-9.83008
▁இசையமைத்த	-9.83008
▁1926	-9.83008
▁மரபணு	-9.83009
▁திரைக்கதை	-9.83009
▁மின்னோட்ட	-9.83009
▁கௌரவ	-9.83009
▁ஜூன்	-9.83011
▁நாகரிக	-9.83025
▁பீட	-9.83047
▁1917	-9.83055
▁உள்ளிட்ட	-9.83086
▁அவ்வாற	-9.83091
▁2019	-9.83119
▁இருக்கலாம்	-9.83157
வடிவ	-9.83166
▁1898	-9.83345
▁திருமண	-9.83435
▁வெட்ட	-9.83439
▁சந்திப்பு	-9.83533
▁அடைய	-9.83668
▁பொருட்களை	-9.83943
ish	-9.84151
▁மனிதர்கள	-9.84254
தமிழ	-9.84487
>	-9.84763
▁ஏறத்தாழ	-9.84763
▁இலவச	-9.84763
▁உடன்படிக்கை	-9.84763
▁பயன்படும்	-9.84763
▁1951	-9.84763
▁பண்பாட்டு	-9.84764
▁இவ்வூரின்	-9.84764
This	-9.84764
▁பல்கோண	-9.84767
▁தீர்மான	-9.84768
▁தாமரை	-9.84777
▁1905	-9.84796
▁1924	-9.84803
▁உயிரினங்கள	-9.84809
த்திற்காக	-9.8495
▁வருகின்றது	-9.84971
▁அனைவர	-9.84993
▁பிரதம	-9.85853
▁கலாச்சார	-9.86548
▁தொழிலதிபர்	-9.86549
▁வேதியியலாளர்	-9.86549
Day	-9.86552
▁இயந்திர	-9.86556
▁இசுரேல	-9.86576
▁அடிப்படையாகக்	-9.86597
▁வரையறுக்க	-9.86597
ரத்தினம்	-9.86626
▁ஆனது	-9.86657
▁எழுதினார்	-9.8673
▁வகைப்படுத்த	-9.86764
▁செவ்வ	-9.86825
▁வெண்பா	-9.86872
act	-9.8689
▁என்பதால்	-9.86958
▁தொகுதிக்கும்	-9.87019
மண்டல	-9.87082
ance	-9.87345
▁பகிர	-9.87582
▁அம்மா	-9.87654
நூல்	-9.87845
tamil	-9.88365
University	-9.88367
▁கொலம்பியா	-9.88367
▁கிழக்கில்	-9.88367
▁தாக்குதலில்	-9.88367
▁கொழும்பில	-9.88368
▁அகராதி	-9.8837
▁வர்த்தக	-9.88371
▁கலம்பக	-9.88381
▁வாய்ந்த	-9.88399
▁பிலிம்	-9.88402
▁1911	-9.88411
ative	-9.88458
▁பின்வரும்	-9.8849
▁வருகிறார்	-9.88587
▁குழுக்கள	-9.88619
▁உறுப்பினராக	-9.88885
ுவதற்கான	-9.88925
▁சத்ய	-9.89229
▁விருப்ப	-9.89597
▁சம்பந்த	-9.89733
பட்டியல	-9.89946
“	-9.90218
▁அரண்மனை	-9.90218
▁இசையமைப்பாளர்	-9.90218
▁வலைத்தளம்	-9.90218
▁இசுலாமிய	-9.90219
▁1954	-9.90219
▁அனுபவ	-9.90219
▁கிளர்ச்சி	-9.90219
▁பிரச்சினை	-9.9022
style	-9.90222
▁கொன்ற	-9.90234
▁யப்பான	-9.9025
▁வெளியேற்ற	-9.90262
▁1955	-9.90266
▁அனைத்துலக	-9.90294
தொடர	-9.90466
▁மகாபாரத	-9.90536
▁நியம	-9.90558
▁பயின்ற	-9.90638
ஈ	-9.907
▁தேவையான	-9.90718
▁தர்ம	-9.90784
▁இணையத்தளம்	-9.92105
▁முடிசூடினார்	-9.92105
▁எபிரேய	-9.92105
▁1931	-9.92106
▁இருப்பினும்	-9.92106
▁முன்னோடி	-9.92107
▁ஓவியர்	-9.9211
▁நிகழ்ந்த	-9.92114
▁சிறிது	-9.92119
▁மேற்கொண்ட	-9.92149
▁அய்ய	-9.92177
▁fro	-9.92205
▁பொதுவான	-9.92209
▁பேச்சு	-9.9232
▁கொண்டுள்ளன	-9.92707
▁உள்ளடக்க	-9.92772
▁பொருட்கள	-9.93164
சுவீடன்	-9.93644
▁மார்க	-9.93966
▁காங்கிரஸ்	-9.94028
▁ஜெர்மனி	-9.94028
▁வேளாண்மை	-9.94028
▁1906	-9.94028
▁குறியீடு	-9.94029
▁வடகிழக்க	-9.94029
▁சாகித்திய	-9.94029
▁தெற்கே	-9.94029
▁ரூபாய்	-9.9403
▁இறைச்சி	-9.94031
▁இவற்றின்	-9.94031
▁வீழ்ந்ததில்	-9.94055
▁புலிகள்	-9.94062
▁1907	-9.94064
▁சண்டை	-9.94078
▁2017	-9.94087
▁வாரியா	-9.94092
▁வடக்கே	-9.94118
நாயகி	-9.94214
▁துவக்க	-9.94355
▁ஈடுபட	-9.9436
▁பாரத	-9.94645
▁கொல்லப்பட்ட	-9.94901
▁தற்போத	-9.95065
Ar	-9.95726
{	-9.95989
}	-9.95989
▁அதிகாரப்பூர்வ	-9.95989
▁கலைக்களஞ்சிய	-9.95989
▁1908	-9.95989
▁பாகிஸ்தான	-9.95989
▁சண்முக	-9.9599
▁தமிழ்நாட்டில்	-9.95991
▁சான்றுகள்	-9.95993
▁ஜேம்ஸ்	-9.96
▁நன்கு	-9.96015
▁1935	-9.96046
▁இணைக்கப்பட்ட	-9.96182
▁தொடங்கினார்	-9.96202
▁பிரதான	-9.96275
▁வேறுபட	-9.96419
▁இறப்ப	-9.9686
▁செய்யுள	-9.97183
▁திருமால	-9.97459
▁கோவில	-9.97936
▁இலட்ச	-9.97983
▁தொல்காப்பிய	-9.97989
▁நிலநடுக்கம்	-9.97989
▁கையெழுத்த	-9.97989
▁பெரும்பான்மை	-9.97989
▁இன்னொரு	-9.97989
background	-9.9799
▁சஞ்சிகை	-9.9799
▁முழுமையான	-9.97991
▁திருக்கோயில்	-9.97992
▁1916	-9.98043
▁Nation	-9.98144
▁பச்சை	-9.98212
▁அமில	-9.98274
▁காணப்பட்ட	-9.98629
பட்டினம்	-9.98901
ுவதில்	-9.99024
பொருள்	-9.99391
ுவதில்லை	-9.99674
ack	-9.99986
▁பயன்படுகிறது	-10.0003
▁பிரதிநிதி	-10.0003
▁மூழ்கிய	-10.0003
▁2021	-10.0003
▁அயர்லாந்து	-10.0003
▁சிட்னி	-10.0004
▁பள்ளு	-10.0004
▁1919	-10.0015
▁வழிபாட்ட	-10.0015
▁ஆத்திரிய	-10.0023
▁இறங்க	-10.0027
▁அழைக்கப்படுகிற	-10.0036
▁அடக்க	-10.0051
▁அசோக	-10.0053
க்கருவி	-10.0064
பேட்டை	-10.007
▁தொன்ம	-10.0086
ரமண	-10.0129
▁இடங்களில	-10.0141
ப்பொருள	-10.0143
▁தலைமையில	-10.0173
▁வயதுக்குட்பட்ட	-10.0211
▁தேவாலயம்	-10.0211
▁இயற்றப்பட்ட	-10.0212
▁இப்போது	-10.0214
▁ஒற்றை	-10.0215
▁மற்றொரு	-10.0218
▁பயிர்	-10.0221
▁1910	-10.0221
▁ஆதாரம	-10.0221
▁செயற்பட	-10.0223
▁எழுதியுள்ளார்	-10.0224
▁ஆரம்பகால	-10.0239
▁விசுவ	-10.0249
▁யோக	-10.0253
வராவார்	-10.0269
▁பாராட்ட	-10.0272
பிறப்பு	-10.029
▁அழித்த	-10.0302
▁ஆராய	-10.0395
▁முகாம	-10.0398
▁அகில	-10.0408
▁எதுவும	-10.0421
aga	-10.0421
ology	-10.0424
▁ஒவ்வொன்ற	-10.0424
▁ஒன்பது	-10.0424
▁இவற்றுள்	-10.0424
▁மின்னஞ்சல	-10.0424
▁அரேபிய	-10.0424
▁பீட்டர்	-10.0424
▁பொருட்டு	-10.0425
▁சங்கீத	-10.0425
▁நிலக்கரி	-10.0425
▁மேற்பரப்ப	-10.0429
▁இயேசுவ	-10.0434
▁விளங்குகிறது	-10.0435
▁ஏழா	-10.0438
▁காந்தார	-10.0442
▁மகிழ	-10.0444
▁இயல்புகள	-10.0503
The	-10.0504
அழைக்கப்படுகிறது	-10.0578
▁கூறுகின்ற	-10.0596
▁கன்னியாகுமரி	-10.0641
▁முற்போக்கு	-10.0641
▁கழுகு	-10.0641
▁1921	-10.0642
▁கிழக்கே	-10.0642
▁திருஞான	-10.0642
▁மஞ்சள்	-10.0642
▁அவசிய	-10.0642
▁பங்களிப்ப	-10.0642
▁ஊடாக	-10.0645
ாண்டா	-10.0645
ிருக்கின்றன	-10.0646
▁1915	-10.0647
▁செல்கின்ற	-10.0687
கிராம	-10.0702
நாவல்	-10.0726
▁வம்ச	-10.0812
▁ஆய்வ	-10.0834
▁ஏனெனில்	-10.0864
▁துரியோதனன	-10.0864
▁நேபாள	-10.0864
▁திருச்சபை	-10.0864
▁தழுவி	-10.0864
▁நிறைந்த	-10.0866
▁பாடலாசிரியர	-10.0867
▁தேவாரத்	-10.0867
▁இடைவெளி	-10.0868
▁உலாவி	-10.087
▁இருப்பதால்	-10.0874
form	-10.0875
▁ஓவியங்கள	-10.0877
▁இத்தாலி	-10.0909
▁வர்ண	-10.0946
ஓ	-10.095
▁பிரம்ம	-10.0973
▁நிகழ்வுகள	-10.1079
ாசிரியராக	-10.1091
▁இடதுசாரி	-10.1091
▁அரசியலமைப்ப	-10.1091
▁உதுமானிய	-10.1091
▁திசம்பர்	-10.1091
▁யாஹூ	-10.1091
▁யுரேனிய	-10.1091
▁சிவாலயங்கள்	-10.1091
▁மல்லிகை	-10.1091
பரிமாண	-10.1091
▁திருத்தலங்கள	-10.1092
▁சிந்தனை	-10.1092
▁புதிதாக	-10.1092
▁உரையாட	-10.1092
▁தொடர்புடைய	-10.1097
▁திண்ம	-10.1098
▁பிரசுர	-10.1101
▁சப்த	-10.1106
▁ஆகவுள்ள	-10.1112
▁பன்ன	-10.116
விதமான	-10.1169
▁கப்பல	-10.1225
▁என்கிற	-10.1226
வீச்ச	-10.1234
▁ஈராக்	-10.1247
▁வீழ்ந்த	-10.1322
Z	-10.1324
▁அடிக்குறிப்பு	-10.1324
▁காவல்துறை	-10.1324
▁பணிபுரிந்த	-10.1324
▁புதுக்கோட்டை	-10.1324
▁முஸ்லிம்	-10.1324
▁பல்கலைக்	-10.1324
▁அறிக்கை	-10.1324
▁விழுந்த	-10.1324
▁கட்டுப்படுத்த	-10.1324
▁ஐந்தாம்	-10.1324
▁நேரடியாக	-10.1325
▁மோதியத	-10.1325
▁வட்டார	-10.1325
▁சாய்வு	-10.1326
▁அஞ்சல்	-10.1327
able	-10.1327
▁மாநகராட்சி	-10.1327
▁மாதிரி	-10.1331
▁போட்டியிட்ட	-10.1331
▁இருக்கின்றன	-10.1332
ப்பிரியா	-10.1337
▁ஆசியாவ	-10.1339
சகிமீ	-10.1342
▁குதிரை	-10.1355
▁பரிமாற	-10.1414
படுத்தப்பட்ட	-10.1448
▁நூற்றாண்டின	-10.1452
▁கருத்துக்கள	-10.147
▁துண்ட	-10.1506
▁புகழ	-10.1512
▁உரோம	-10.1547
é	-10.1562
—	-10.1562
▁ஆஸ்திரியா	-10.1562
▁எவ்வாறு	-10.1562
▁அலங்கார	-10.1562
▁சிகிச்சை	-10.1562
▁நான்காவது	-10.1562
▁தெரிவித்த	-10.1562
ேசுவரர்	-10.1562
▁ஆயினும்	-10.1562
▁ஆயிரம்	-10.1562
▁முன்னேற்ற	-10.1562
▁முக்கியத்துவம்	-10.1562
▁கண்ணாடி	-10.1562
▁விக்கிரம	-10.1562
▁நிறைவு	-10.1562
▁வரையறை	-10.1562
▁குடியேறி	-10.1562
▁நான்காம்	-10.1562
▁பதிலாக	-10.1562
▁மும்பை	-10.1562
▁வன்முறை	-10.1563
▁விவேக	-10.1563
▁அப்துல்	-10.1564
▁அழைத்து	-10.1564
▁அண்ணா	-10.1564
▁விருத்தி	-10.1566
▁அறிவியலாளர்	-10.1569
▁பக்தி	-10.1574
▁பிலிப்	-10.1587
றிஞர	-10.1617
▁ஒதுக்க	-10.1653
▁மொழிபெயர்ப்ப	-10.1736
▁கேட்க	-10.1783
தொகுத்த	-10.1785
விகித	-10.1789
▁இந்தோனேசிய	-10.1806
▁தடவையாக	-10.1806
▁போர்த்துக்கேய	-10.1806
▁மட்டக்களப்பு	-10.1806
▁வரலாற்றில்	-10.1806
▁வவுனியா	-10.1806
▁1904	-10.1806
▁ஜார்ஜ்	-10.1806
▁வீழ்ச்சி	-10.1806
ுகிறான்	-10.1806
▁உயிர்ச்சத்து	-10.1806
▁நீதிமன்ற	-10.1806
▁மாளிகை	-10.1806
▁வெளிநாட்டு	-10.1807
▁மேற்கில்	-10.1808
▁தண்ணீர	-10.1809
▁இட்லி	-10.1809
▁1937	-10.181
oss	-10.1811
▁குறிக்கிறது	-10.1812
▁எளித	-10.1884
▁விடயங்கள	-10.1895
▁மருவி	-10.1922
சிறந்த	-10.195
▁பாதுகாக்க	-10.2017
நூற	-10.2031
<	-10.2056
▁கனேடிய	-10.2056
▁சூறாவளி	-10.2056
▁டேவிட்	-10.2056
▁திருநெல்வேலி	-10.2056
▁தென்னாப்பிரிக்க	-10.2056
▁போத்துக்கீச	-10.2056
▁நகைச்சுவை	-10.2056
ீஸ்வரர்	-10.2056
▁வியாபார	-10.2056
▁கருவறை	-10.2056
▁ஆபிரிக்க	-10.2056
▁சிவபெருமான	-10.2056
▁ஆனாலும்	-10.2057
▁தொழிற்சாலை	-10.2057
▁தனக்கு	-10.2068
▁Art	-10.2075
▁ஆஸ்க	-10.2087
▁நண்பர்கள	-10.2095
▁கால்வாய	-10.2108
ப்புறம்	-10.2109
வேண்டிய	-10.2176
▁வருவாய	-10.2241
ின்றான்	-10.229
▁with	-10.2312
▁செயற்பாடுகள	-10.2312
▁தொலைபேசி	-10.2312
▁முசுலிம்	-10.2312
▁1903	-10.2312
▁உறவினர	-10.2312
▁பழங்கால	-10.2312
▁தமிழ்நாட்டின்	-10.2312
▁நிலப்பரப்ப	-10.2312
▁சிறீ	-10.2312
▁நியூசிலாந்த	-10.2313
▁தனித்தனி	-10.2313
▁பழமையான	-10.2313
▁பலாலி	-10.2315
▁வாழ்கின்றனர்	-10.2315
▁உணர்த்த	-10.2334
▁அதிகரித்த	-10.2362
கேசரி	-10.2377
▁பிடிக்க	-10.2384
▁பாரிச	-10.2488
▁மூலக்கூற	-10.2524
▁ஆளுநர்	-10.2575
▁ஏராளமான	-10.2575
▁திருகோணமலை	-10.2575
▁மெக்சிக்கோ	-10.2575
▁துப்பாக்கி	-10.2575
▁நெப்போலியன	-10.2575
▁New	-10.2575
▁வீரகேசரி	-10.2577
▁தோல்வி	-10.2577
▁பொறியியலாளர்	-10.2577
▁மலையக	-10.2577
▁ஜன்ய	-10.2578
▁மார்க்ச	-10.2578
▁மாத்திரை	-10.2579
ாலேயே	-10.2583
▁வித்தியாச	-10.2584
▁பருத்தி	-10.2587
▁பாகங்கள	-10.2607
ிரண்டு	-10.2669
▁தடுக்க	-10.2717
சுந்தரம்	-10.274
கவிதை	-10.2798
▁India	-10.28
▁துருக்கி	-10.2806
▁பிரித்தானியாவ	-10.2823
graph	-10.2845
▁இசைக்கலைஞர்	-10.2845
▁சுவிட்சர்லாந்த	-10.2845
▁தொன்நம்பிக்கை	-10.2845
▁மானிடவியல்	-10.2845
▁முதலமைச்சர்	-10.2845
*	-10.2845
▁குடியிருப்ப	-10.2845
▁வார்டுகளும்	-10.2845
▁வரையிலான	-10.2845
▁வேலணை	-10.2846
▁ஒலிம்பிக்	-10.2846
▁நியமிக்கப்பட்ட	-10.2846
▁முழுமையாக	-10.2846
▁ஜோசப்	-10.2846
▁செர்பிய	-10.2846
▁தண்டனை	-10.2846
▁மீத்தேன	-10.2846
▁அலெக்	-10.2847
▁கோவிந்த	-10.285
ext	-10.2854
▁வணங்க	-10.2855
▁பாண்டவர்கள	-10.2858
▁வெங்கட	-10.2861
▁சொன்ன	-10.2862
▁திட்டமிட	-10.2992
▁அடுக்க	-10.304
த்தொகுப்பு	-10.3123
▁World	-10.3123
▁அறுவடை	-10.3123
▁ஏற்றுமதி	-10.3123
▁சிவத்தலமாக	-10.3123
▁இணையதள	-10.3124
▁வீழ்த்த	-10.3124
▁வடக்கில்	-10.3125
▁வாழ்நாள	-10.3125
▁திகதி	-10.3125
▁ஆர்வம	-10.3137
▁அறுபத	-10.3142
சமயம்	-10.3151
▁வசூல	-10.3161
aya	-10.318
▁நடிகர	-10.3339
▁நண்பர	-10.3367
▁கர்நாடக	-10.3409
▁நெடுஞ்சாலை	-10.3409
▁திரெளபதி	-10.3409
▁வழக்கறிஞர்	-10.3409
▁மின்னழுத்த	-10.3409
▁தென்கிழக்க	-10.3409
▁நட்சத்திர	-10.3409
▁தாக்கியதில்	-10.3409
▁தெற்கில்	-10.3409
▁கன்னட	-10.3409
▁தியாகராஜ	-10.3409
▁இருபதா	-10.3409
▁தயாரித்த	-10.341
▁சாஸ்திர	-10.341
ிருச்சிராப்பள்ளி	-10.341
▁தஞ்சை	-10.3411
▁தகுதி	-10.3411
▁உபயோக	-10.3412
▁கட்டாய	-10.3414
▁கணேச	-10.3414
▁பெயரிடப்பட்ட	-10.3415
▁சேமிக்க	-10.3421
▁அருள	-10.3425
▁தெரிந்த	-10.3429
▁அதிகரிக்க	-10.3449
▁தீர்க்க	-10.3453
▁ஒருநாள	-10.3467
▁எசுப்பானியாவ	-10.3489
▁அழிவ	-10.3579
▁பயனர்கள	-10.3601
▁நடிப்ப	-10.3605
▁Lanka	-10.3703
▁கமல்ஹாசன்	-10.3703
▁தற்கொலை	-10.3703
▁போர்த்துக்கீச	-10.3703
view	-10.3703
▁கதாபாத்திர	-10.3703
▁விளம்பர	-10.3703
▁ஜனநாயக	-10.3703
▁பள்ளிவாசல	-10.3703
▁நோபெல்	-10.3703
▁புகைப்பட	-10.3703
▁பசிபிக்	-10.3703
▁மருத்துவமனை	-10.3703
▁2022	-10.3703
▁மின்சார	-10.3703
▁முந்தைய	-10.3704
▁தலைமையிட	-10.3705
▁சங்கிலி	-10.3705
▁சுருதி	-10.3705
▁முற்றாக	-10.3706
▁தெரிவிக்க	-10.3714
▁தோற்றுவிக்க	-10.3716
▁காரணங்கள	-10.3727
▁வடிவமைத்த	-10.374
▁ஆற்றின	-10.3744
▁வகித்த	-10.3751
▁உருசியாவ	-10.3935
▁மாறுபட	-10.3991
ிலக்கணம்	-10.4006
▁நிலநடுக்கத்த	-10.4006
▁மேல்நிலைப்பள்ளி	-10.4006
•	-10.4006
▁அட்டவணை	-10.4006
▁கிட்டத்தட்ட	-10.4006
▁நாளிதழ	-10.4006
▁தூத்துக்குடி	-10.4006
▁பெருமளவு	-10.4006
▁கூட்டுறவு	-10.4006
▁நிகண்டு	-10.4006
▁தொண்டை	-10.4007
▁ரத்னா	-10.4007
ஐதிகம்	-10.4008
▁உறையூர	-10.4008
▁மேலதிக	-10.4009
எழுத்தறிவு	-10.4009
களுக்கிடையே	-10.4009
▁முயல	-10.4026
விழா	-10.403
▁ஆஸ்திரேலியாவில	-10.4033
ாயிற்று	-10.4041
▁மாணவ	-10.4045
▁சுவீடன	-10.4067
▁ஐரோப்பாவில	-10.4079
▁சிதற	-10.4085
▁உதவுகின்ற	-10.4102
தொழில்	-10.418
▁கைதிகள	-10.4237
▁இருவரும	-10.4258
▁ஆக்கிரமிப்ப	-10.4319
▁இனப்பெருக்க	-10.4319
▁இளைஞர்	-10.4319
▁இஸ்லாமிய	-10.4319
▁குறவஞ்சி	-10.4319
▁சரஸ்வதி	-10.4319
▁தரையிறங்க	-10.4319
▁நுண்நோக்கி	-10.4319
▁மேலாண்மை	-10.4319
▁கோட்பாட்ட	-10.4319
▁பரம்பரை	-10.4319
▁அவதார	-10.4319
▁ஒருங்குறி	-10.4319
▁அக்கட்சி	-10.4319
▁தென்கரை	-10.432
▁விக்ரம்	-10.432
▁கைலாச	-10.4321
பாளையம்	-10.4321
▁ஜோர்ஜ	-10.4321
▁ஆராய்ந்த	-10.4325
ound	-10.4326
▁அமர்ந்த	-10.433
Indian	-10.4372
▁என்றழைக்கப்	-10.4458
▁விகடன	-10.447
▁ஆத்திரேலியாவ	-10.4475
▁அறிவியல	-10.4575
▁கவனம	-10.4627
$	-10.4641
−	-10.4641
▁அருங்காட்சியக	-10.4641
▁ஆப்கானித்தான	-10.4641
▁இயற்பெயர	-10.4641
▁காரைக்குடி	-10.4641
▁சீர்திருத்த	-10.4641
▁டென்மார்க்	-10.4641
▁தற்காப்பு	-10.4641
▁வேலுப்பிள்ளை	-10.4641
▁வௌவால்	-10.4641
▁பாபநாச	-10.4641
▁இளவரசர்	-10.4641
▁சர்ச்சை	-10.4641
▁வளைகுடா	-10.4641
▁அங்கிருந்து	-10.4641
▁டென்னிசு	-10.4641
▁நெருங்கிய	-10.4641
▁ரிஷப	-10.4641
▁தென்மேற்கு	-10.4641
▁சிவகங்கை	-10.4641
▁பாலூட்டி	-10.4641
▁பெறுமதி	-10.4641
▁கூகுள்	-10.4641
▁விரிவாக்க	-10.4641
▁வருஞ்சீர	-10.4642
▁இடைக்கால	-10.4642
▁ஏதென்ஸ	-10.4642
▁வைபவ	-10.4642
▁முற்பட்ட	-10.4643
▁விரைவு	-10.4644
▁எட்வர்ட	-10.4648
வெளியீட்ட	-10.4649
▁உணர்ந்த	-10.466
▁சுல்தான	-10.4675
▁இத்தீவ	-10.4729
▁கழுத்து	-10.4771
கிழார்	-10.4782
Gene	-10.4896
▁நாணயங்கள	-10.4936
முதன்முதலில்	-10.4974
▁எளிமையான	-10.4974
▁உதாரணமாக	-10.4974
▁பதிவிறக்க	-10.4974
▁நிலைச்சீர்	-10.4974
▁விஷ்ணு	-10.4974
[	-10.5536
Q	-10.5676
\	-10.6047
μ	-10.7248
Δ	-10.8137
ا	-10.9114
q	-10.9631
→	-10.964
α	-11.0195
á	-11.0195
′	-11.0784
о	-11.1409
ρ	-11.1409
ο	-11.1409
‍	-11.1409
ό	-11.1409
ü	-11.2075
ر	-11.279
κ	-11.3559
ی	-11.5301
ς	-11.5301
н	-11.6301
ö	-11.6301
π	-11.6301
ι	-11.6301
ā	-11.6301
ū	-11.6301
ங	-11.7343
т	-11.7412
É	-11.7412
س	-11.7412
~	-11.7412
а	-11.8662
و	-11.8662
​	-11.8662
`	-11.8662
ä	-11.8662
ن	-11.8662
и	-12.0091
τ	-12.0091
ර	-12.0091
×	-12.0091
﻿	-12.0091
ි	-12.0091
ل	-12.0091
е	-12.1757
в	-12.1757
с	-12.1758
Ε	-12.1758
η	-12.1758
්	-12.1758
ج	-12.1758
ī	-12.1758
θ	-12.1758
א	-12.1758
ت	-12.1758
र	-12.1758
ा	-12.1758
ල	-12.1758
⁄	-12.1758
æ	-12.1758
ු	-12.1758
ب	-12.1758
ν	-12.1758
ó	-12.3758
υ	-12.3758
ම	-12.3758
ß	-12.3758
í	-12.3758
Κ	-12.3758
к	-12.3758
م	-12.3758
ව	-12.3758
ා	-12.3758
د	-12.3758
ق	-12.3758
র	-12.3758
ు	-12.3758
ද	-12.3758
נ	-12.6258
γ	-12.6258
ו	-12.6258
·	-12.6258
द	-12.6258
े	-12.6258
ি	-12.6258
క	-12.6258
®	-12.6258
à	-12.6258
ã	-12.6258
ç	-12.6258
ø	-12.6258
č	-12.6258
ĩ	-12.6258
ş	-12.6258
п	-12.6258
מ	-12.6258
प	-12.6258
া	-12.6258
ũ	-12.6258
ε	-12.6258
д	-12.9591
л	-12.9591
С	-12.9591
р	-12.9591
ь	-12.9591
я	-12.9591
്	-12.9591
ম	-12.9591
ණ	-12.9591
ස	-12.9591
ô	-12.9591
ł	-12.9591
ί	-12.9591
λ	-12.9591
φ	-12.9591
ω	-12.9591
ת	-12.9591
ं	-12.9591
ব	-12.9591
௦	-12.9591
డ	-12.9591
ත	-12.9591
ප	-12.9591
ය	-12.9591
≠	-12.9591
名	-12.9591
­	-12.9591
å	-12.9591
ي	-12.9591
ప	-12.9591
仮	-12.9591
ూ	-12.9591
平	-12.9591
せ	-13.4591
П	-13.4591
う	-13.4591
ְ	-13.4591
い	-13.4591
ð	-13.4591
ý	-13.4591
ু	-13.4591
加	-13.4591
Ö	-13.4591
è	-13.4591
ú	-13.4591
ē	-13.4591
ɪ	-13.4591
ή	-13.4591
β	-13.4591
ζ	-13.4591
ϊ	-13.4591
В	-13.4591
ּ	-13.4591
ى	-13.4591
ک	-13.4591
न	-13.4591
ि	-13.4591
ी	-13.4591
ु	-13.4591
ू	-13.4591
ौ	-13.4591
য	-13.4591
ి	-13.4591
్	-13.4591
ග	-13.4591
න	-13.4591
හ	-13.4591
ෙ	-13.4591
€	-13.4591
ぐ	-13.4591
ろ	-13.4591
字	-13.4591
明	-13.4591
校	-13.4591
ś	-13.4591
ま	-13.4591
ح	-13.4591
্	-13.4591
ం	-13.4591
国	-13.4591
道	-13.4591
路	-13.4591
力	-13.4591
黒	-14.4552
電	-14.4553
知	-14.4554
直	-14.4555
源	-14.4556
流	-14.4557
床	-14.4558
と	-14.4559
√	-14.456
സ	-14.4561
শ	-14.4562
ন	-14.4563
ক	-14.4564
ং	-14.4565
ز	-14.4566
ס	-14.4567
ט	-14.4568
ב	-14.4569
ִ	-14.457
ӣ	-14.4571
ҷ	-14.4572
з	-14.4573
г	-14.4574
σ	-14.4575
δ	-14.4576
Ν	-14.4577
Λ	-14.4578
̊	-14.4579
ă	-14.458
õ	-14.4581
Í	-14.4582
₹	-14.4583
्	-14.4584
क	-14.4585
±	-14.4586
£	-14.4587
ف	-14.4588
י	-14.4589
у	-14.459
ц	-14.459
ஶ	-14.459
ん	-14.459
Т	-14.4591
ж	-14.4591
м	-14.4591
ъ	-14.4591
ר	-14.4591
അ	-14.4591
ഗ	-14.4591
ത	-14.4591
ശ	-14.4591
ീ	-14.4591
き	-14.4591
ょ	-14.4591
ά	-14.4591
অ	-14.4591
জ	-14.4591
ভ	-14.4591
ఒ	-14.4591
Ú	-14.4591
Ţ	-14.4591
@	-14.4591
«	-14.4591
»	-14.4591
Á	-14.4591
Ä	-14.4591
ë	-14.4591
ï	-14.4591
ñ	-14.4591
÷	-14.4591
Ā	-14.4591
ć	-14.4591
ž	-14.4591
ƒ	-14.4591
ɛ	-14.4591
ɨ	-14.4591
ʊ	-14.4591
ˈ	-14.4591
ː	-14.4591
́	-14.4591
Έ	-14.4591
Α	-14.4591
Η	-14.4591
Ξ	-14.4591
Π	-14.4591
Σ	-14.4591
Χ	-14.4591
Ω	-14.4591
ύ	-14.4591
б	-14.4591
ч	-14.4591
ы	-14.4591
ё	-14.4591
ֵ	-14.4591
ָ	-14.4591
ה	-14.4591
כ	-14.4591
ם	-14.4591
ן	-14.4591
ء	-14.4591
آ	-14.4591
ص	-14.4591
ه	-14.4591
ٹ	-14.4591
پ	-14.4591
ग	-14.4591
ठ	-14.4591
ड	-14.4591
त	-14.4591
म	-14.4591
य	-14.4591
ल	-14.4591
श	-14.4591
स	-14.4591
ह	-14.4591
খ	-14.4591
ণ	-14.4591
প	-14.4591
হ	-14.4591
ী	-14.4591
ে	-14.4591
ৰ	-14.4591
પ	-14.4591
ર	-14.4591
ી	-14.4591
ૂ	-14.4591
௧	-14.4591
అ	-14.4591
చ	-14.4591
త	-14.4591
ಂ	-14.4591
ಗ	-14.4591
ಮ	-14.4591
ರ	-14.4591
ಳ	-14.4591
ು	-14.4591
ೂ	-14.4591
ം	-14.4591
ദ	-14.4591
മ	-14.4591
ര	-14.4591
ല	-14.4591
വ	-14.4591
ാ	-14.4591
ං	-14.4591
ක	-14.4591
ජ	-14.4591
ධ	-14.4591
බ	-14.4591
භ	-14.4591
ී	-14.4591
ූ	-14.4591
ේ	-14.4591
ṇ	-14.4591
ἶ	-14.4591
Ἱ	-14.4591
ὸ	-14.4591
∂	-14.4591
∞	-14.4591
∫	-14.4591
≈	-14.4591
⋅	-14.4591
♠	-14.4591
♣	-14.4591
♥	-14.4591
♦	-14.4591
え	-14.4591
か	-14.4591
こ	-14.4591
さ	-14.4591
た	-14.4591
ち	-14.4591
ば	-14.4591
び	-14.4591
ふ	-14.4591
イ	-14.4591
ェ	-14.4591
チ	-14.4591
ナ	-14.4591
マ	-14.4591
ロ	-14.4591
ン	-14.4591
ー	-14.4591
三	-14.4591
上	-14.4591
也	-14.4591
交	-14.4591
倍	-14.4591
公	-14.4591
勇	-14.4591
北	-14.4591
十	-14.4591
半	-14.4591
叉	-14.4591
双	-14.4591
口	-14.4591
司	-14.4591
哲	-14.4591
園	-14.4591
塔	-14.4591
大	-14.4591
安	-14.4591
尔	-14.4591
峰	-14.4591
島	-14.4591
川	-14.4591
康	-14.4591
恩	-14.4591
成	-14.4591
晋	-14.4591
栽	-14.4591
水	-14.4591
沢	-14.4591
油	-14.4591
泉	-14.4591
洲	-14.4591
海	-14.4591
漢	-14.4591
澤	-14.4591
片	-14.4591
田	-14.4591
立	-14.4591
端	-14.4591
纳	-14.4591
習	-14.4591
茉	-14.4591
茶	-14.4591
藤	-14.4591
補	-14.4591
賞	-14.4591
身	-14.4591
迪	-14.4591
野	-14.4591
风	-14.4591
马	-14.4591
鮭	-14.4591
법	-14.4591
상	-14.4591
￼	-14.4591
ţ	-14.4591
ക	-14.4591
ḍ	-14.4591
は	-14.4591
京	-14.4591
刺	-14.4591
婆	-14.4591
寿	-14.4591
温	-14.4591
盆	-14.4591
罗	-14.4591
都	-14.4591
Ü	-14.4591
ˌ	-14.4591
ד	-14.4591
إ	-14.4591
گ	-14.4591
গ	-14.4591
ట	-14.4591
ర	-14.4591
අ	-14.4591
ḷ	-14.4591
ṃ	-14.4591
花	-14.4591
莉	-14.4591
面	-14.4591
గ	-14.4591
ஔ	-14.4591
入	-14.4591
出	-14.4591
回	-14.4591
