<unk>	0
<s>	0
</s>	0
்க	-0
்த	-1
ம்	-2
ன்	-3
▁ப	-4
ல்	-5
ப்	-6
▁க	-7
ிய	-8
்ட	-9
▁ம	-10
க்க	-11
ர்	-12
▁இ	-13
ள்	-14
▁த	-15
ப்ப	-16
த்த	-17
▁வ	-18
ும்	-19
▁ச	-20
▁அ	-21
ரு	-22
து	-23
ட்ட	-24
ந்த	-25
ில்	-26
▁ந	-27
ங்க	-28
ின்	-29
ைய	-30
ற்	-31
▁ஆ	-32
▁எ	-33
ாக	-34
ிர	-35
ுக	-36
▁1	-37
ற்ற	-38
▁உ	-39
ண்ட	-40
ில	-41
ிக	-42
ான	-43
்ச	-44
ிற	-45
▁(	-46
ுத	-47
ள்ள	-48
ன்ற	-49
ர்க	-50
ுக்க	-51
ார்	-52
ாவ	-53
லை	-54
ரி	-55
▁19	-56
ப்பட	-57
ுவ	-58
▁ஒ	-59
ாட	-60
ைக	-61
▁வி	-62
ின	-63
▁–	-64
ுற	-65
▁பெ	-66
டி	-67
ுத்த	-68
த்	-69
▁செ	-70
ப்பட்ட	-71
ந்து	-72
லா	-73
ிரு	-74
ால	-75
ரா	-76
ிழ	-77
▁கொ	-78
▁2	-79
மை	-80
ிக்க	-81
▁வெ	-82
ார	-83
ுட	-84
▁தொ	-85
த்தில்	-86
ம்ப	-87
ங்கள	-88
ிவ	-89
▁போ	-90
ச்ச	-91
ன்ன	-92
ற்க	-93
ிட	-94
க்	-95
ன்ப	-96
ங்கள்	-97
ண்	-98
ுகள்	-99
ஸ்	-100
ாத	-101
ால்	-102
மிழ	-103
ாட்ட	-104
ர்கள்	-105
▁இவ	-106
ாள	-107
ய்	-108
00	-109
ல்ல	-110
▁தமிழ	-111
▁இரு	-112
▁இந்த	-113
▁மு	-114
ின்ற	-115
▁மே	-116
ுள்ள	-117
▁ஒரு	-118
ப்பு	-119
▁-	-120
▁பிர	-121
தி	-122
ரச	-123
று	-124
ளை	-125
ச்	-126
்கள்	-127
▁என்ற	-128
ான்	-129
ித்த	-130
னர்	-131
▁கோ	-132
ண்டு	-133
▁பொ	-134
▁ஆக	-135
ற்ப	-136
ையும்	-137
▁உள்ள	-138
▁இல	-139
க்கு	-140
▁அவ	-141
▁வெள	-142
ுக்கு	-143
வு	-144
ையில்	-145
மாக	-146
மான	-147
ரிய	-148
டை	-149
ரை	-150
▁குற	-151
▁மா	-152
சு	-153
▁ஏ	-154
ியல்	-155
▁திர	-156
▁முத	-157
▁கு	-158
ைக்	-159
ணை	-160
▁கா	-161
▁அமை	-162
ழ்	-163
பி	-164
▁பே	-165
ைப்பட	-166
▁மற்ற	-167
▁தே	-168
▁என	-169
ுகள	-170
ர்கள	-171
ித	-172
▁அத	-173
▁வே	-174
▁பா	-175
ரும்	-176
ட்	-177
வும்	-178
டுத்த	-179
▁இய	-180
ிகள்	-181
▁ய	-182
▁கூ	-183
வர்	-184
▁18	-185
ூல	-186
த்து	-187
▁சிற	-188
▁மற்றும்	-189
ைகள்	-190
ொழ	-191
ிப்ப	-192
கர	-193
▁இத	-194
ட்டு	-195
▁இந்திய	-196
▁சு	-197
ிறது	-198
▁அரச	-199
▁வா	-200
▁என்ப	-201
▁அம	-202
வே	-203
வா	-204
▁பல	-205
▁பு	-206
▁கொண்ட	-207
ரிக்க	-208
னை	-209
▁எழ	-210
டு	-211
▁நாட	-212
▁திரு	-213
குத	-214
▁ஜ	-215
ாம	-216
ியில்	-217
ர்த	-218
த்தின்	-219
▁கட	-220
ிகள	-221
an	-222
▁திரைப்பட	-223
▁பய	-224
▁இர	-225
ப்படுக	-226
▁இது	-227
▁அற	-228
க்கிய	-229
▁பெற்ற	-230
▁மக்க	-231
▁தெ	-232
er	-233
▁இட	-234
சிய	-235
▁தொட	-236
▁200	-237
ப்பட்டது	-238
▁செய	-239
ாய	-240
ண்ண	-241
▁தமிழ்	-242
லக	-243
on	-244
▁நட	-245
ிம	-246
்கள	-247
▁வழ	-248
▁சே	-249
ூர்	-250
வி	-251
▁இலங்க	-252
க்கும்	-253
▁ஐ	-254
▁நில	-255
ப்புகள்	-256
ஞ்ச	-257
விய	-258
ெரிக்க	-259
ிலும்	-260
வை	-261
▁பின்	-262
in	-263
▁கால	-264
ாகும்	-265
பு	-266
▁சம	-267
▁மொழ	-268
த்தை	-269
ன்று	-270
▁நீ	-271
வில்	-272
ைகள	-273
லி	-274
▁உய	-275
▁அமெரிக்க	-276
▁20	-277
▁மேற்க	-278
ரோ	-279
▁கட்ட	-280
ுக்	-281
லிய	-282
மா	-283
ிட்ட	-284
்சி	-285
ிக்	-286
▁வீ	-287
▁வர	-288
ைக்க	-289
ிற்க	-290
▁இணை	-291
ாம்	-292
▁பாட	-293
ளர்	-294
▁தலை	-295
ti	-296
நில	-297
▁ஆகும்	-298
▁ஆண்ட	-299
டிய	-300
▁ஈ	-301
ங்கு	-302
▁நிற	-303
ar	-304
▁மீ	-305
ய்ய	-306
வர	-307
▁பிற	-308
en	-309
▁நகர	-310
al	-311
▁பட	-312
▁கண	-313
ாவின்	-314
ின்றன	-315
ும	-316
ாளர்	-317
ுறை	-318
▁கரு	-319
▁ட	-320
▁உரு	-321
▁பொரு	-322
ப்படும்	-323
or	-324
ர்க்க	-325
பெ	-326
▁|	-327
▁ஓ	-328
▁தீ	-329
ர்த்த	-330
▁3	-331
ாண	-332
▁வெளிய	-333
▁தன	-334
ேய	-335
▁ஆம்	-336
▁இற	-337
ற்று	-338
▁அழ	-339
ியா	-340
கை	-341
த்திர	-342
ுத்	-343
ுடன்	-344
ங்கில	-345
▁மாவ	-346
ியின்	-347
▁உலக	-348
▁ஊ	-349
▁ர	-350
ையின்	-351
▁எழுத்த	-352
▁பெய	-353
லாம்	-354
ங்களில்	-355
ரம்	-356
ருக	-357
ொரு	-358
▁மூ	-359
சி	-360
▁நோ	-361
ந்தது	-362
ணி	-363
்வ	-364
▁பி	-365
▁அல்ல	-366
▁ஆகிய	-367
கம்	-368
ும்ப	-369
▁இரா	-370
▁201	-371
▁மாவட்ட	-372
es	-373
ாள்	-374
தை	-375
ின்றது	-376
ிருந்து	-377
▁குறிப்ப	-378
ையை	-379
▁சி	-380
▁199	-381
▁சொ	-382
ாக்க	-383
ேச	-384
▁பகுத	-385
ாவில்	-386
▁பயன்ப	-387
▁விள	-388
ானிய	-389
கு	-390
▁விரு	-391
▁சில	-392
▁வெளி	-393
▁ஒன்ற	-394
ந்துள்ள	-395
▁மக்கள்	-396
▁மிக	-397
▁அல்லது	-398
▁கோய	-399
▁"	-400
ோள	-401
▁விட	-402
ாடு	-403
▁மெ	-404
ூர	-405
▁இலங்கை	-406
▁தோ	-407
▁சோ	-408
▁198	-409
▁குட	-410
▁197	-411
▁என்று	-412
▁இருந்து	-413
▁என்பது	-414
தாக	-415
▁து	-416
▁ஆண்டு	-417
▁செய்த	-418
டித்த	-419
▁முதல்	-420
▁சிவ	-421
வாக	-422
ஸ்த	-423
▁இல்	-424
▁மூல	-425
ியாக	-426
▁யா	-427
▁செய்ய	-428
th	-429
▁S	-430
▁நூ	-431
▁நூல	-432
▁கி	-433
ாவது	-434
▁சூ	-435
▁காண	-436
சா	-437
▁தொடர்	-438
ினார்	-439
▁அள	-440
▁மக	-441
ாட்டு	-442
ுள்ளது	-443
ணம்	-444
லாளர்	-445
),	-446
ராக	-447
தற்க	-448
▁C	-449
▁போன்ற	-450
▁ல	-451
ரம்ப	-452
▁கிர	-453
▁மேற்கோள	-454
▁அதிக	-455
▁194	-456
ந்திர	-457
டிவ	-458
▁196	-459
மைய	-460
▁இவர்	-461
19	-462
▁பட்ட	-463
ிலிருந்து	-464
ிரிய	-465
லும்	-466
▁அக	-467
▁மேற்கோள்கள்	-468
ப்படுகிறது	-469
ற்றிய	-470
▁என்ன	-471
லில்	-472
▁வரலா	-473
▁சீ	-474
▁அடி	-475
ட்ச	-476
ஸ்ட	-477
▁அமைந்துள்ள	-478
▁5	-479
is	-480
த்திய	-481
சை	-482
▁பத	-483
▁ஹ	-484
▁4	-485
▁பரி	-486
ரின்	-487
மே	-488
▁கே	-489
am	-490
▁அறிவ	-491
மும்	-492
▁நடிக	-493
னால்	-494
ியை	-495
▁வட	-496
▁பேர	-497
▁பூ	-498
▁நிறுவ	-499
▁கூற	-500
ோர்	-501
▁இருந்த	-502
▁விருது	-503
னித	-504
னி	-505
ழு	-506
ிருந்த	-507
▁கல்	-508
▁அரசியல்	-509
ிற்கு	-510
▁ரா	-511
தில்	-512
ர்ந்த	-513
ுக்கும்	-514
▁இரண்ட	-515
▁மக்கள	-516
▁தொழ	-517
யா	-518
▁நெ	-519
▁195	-520
ோது	-521
▁பர	-522
▁P	-523
▁வாழ	-524
ரே	-525
வது	-526
வாத	-527
ாய்	-528
ையாக	-529
▁வக	-530
ிடம்	-531
▁முற	-532
om	-533
▁அட	-534
ற்றி	-535
▁உட	-536
▁உள்ளது	-537
▁T	-538
ங்களை	-539
▁நிக	-540
ாச	-541
▁17	-542
ாலும்	-543
▁ஏற்ப	-544
▁A	-545
▁முன்ன	-546
▁ஆங்கில	-547
▁என்னும்	-548
▁ஆரம்ப	-549
ினை	-550
▁முக்க	-551
▁கார	-552
த்துவ	-553
▁யாழ்	-554
of	-555
தும்	-556
tion	-557
ளி	-558
▁பின்னர்	-559
ுப்ப	-560
ர்வ	-561
▁192	-562
ாண்ட	-563
▁தேவ	-564
▁193	-565
ுக்கள்	-566
ினர்	-567
்த்த	-568
லைக்க	-569
▁வை	-570
ாட்சி	-571
ம்ம	-572
▁பழ	-573
▁போர்	-574
le	-575
ic	-576
திர	-577
லம்	-578
க்கம்	-579
▁எழுத	-580
▁பொது	-581
▁மொழி	-582
ந்	-583
▁உயிர	-584
ிலுள்ள	-585
▁இத்த	-586
▁கல	-587
▁நே	-588
▁மாநில	-589
▁இணைப்புகள்	-590
ெய	-591
▁இதன்	-592
▁பெரும்	-593
ஷ்	-594
at	-595
ங்	-596
ப்பாண	-597
மாகும்	-598
▁குழ	-599
ானது	-600
ைவ	-601
▁திரைப்படங்கள்	-602
▁of	-603
ண்ப	-604
▁யாழ்ப்பாண	-605
ளம்	-606
வர்கள்	-607
▁வழங்க	-608
ிப	-609
▁மர	-610
▁முதல	-611
▁6	-612
▁பயன்படுத்த	-613
▁சா	-614
லைக	-615
ப்பட்டு	-616
ரது	-617
ல்ப	-618
மீ	-619
▁மன்ன	-620
ரில்	-621
ாட்ச	-622
▁தனது	-623
ட்ப	-624
ச்சி	-625
▁பெரு	-626
ஞர்	-627
திய	-628
▁தி	-629
னம்	-630
il	-631
▁முக்கிய	-632
ிவு	-633
▁இவற்ற	-634
▁இலக்கிய	-635
▁மரு	-636
றி	-637
க்கோ	-638
▁மல	-639
ந்தனர்	-640
▁நாட்ட	-641
கர்	-642
ிக்கும்	-643
னிய	-644
▁பேர்	-645
ருக்கு	-646
▁விடுத	-647
▁இவ்வ	-648
it	-649
▁சுவ	-650
ுகளில்	-651
டிக்க	-652
வெ	-653
ைப்ப	-654
ார்கள்	-655
▁191	-656
▁குறிப்பிட	-657
▁M	-658
▁வரை	-659
▁7	-660
டன்	-661
வற்ற	-662
சிரிய	-663
▁நாள்	-664
▁பிரத	-665
▁பார்க்க	-666
்க்க	-667
▁9	-668
▁15	-669
த்தி	-670
ையே	-671
யம்	-672
▁ஈழ	-673
ுட்	-674
ur	-675
▁மாத	-676
▁ஐக்கிய	-677
றுப்ப	-678
ோக	-679
ிக்கு	-680
ியூ	-681
ையான	-682
▁கட்டிட	-683
▁உண	-684
ண்டும்	-685
வுகள்	-686
▁கட்டு	-687
▁8	-688
ஸ்க	-689
▁கீ	-690
▁பார	-691
▁புத	-692
st	-693
▁(19	-694
▁மேலும்	-695
▁கிழ	-696
டுக்க	-697
ுகிறது	-698
கா	-699
▁கன	-700
▁தல	-701
▁பொருள	-702
ங்களும்	-703
ந்ந	-704
▁சார்	-705
வ்	-706
ஆம்	-707
ுகளை	-708
ியும்	-709
ந்தார்	-710
ிகளில்	-711
▁சிறந்த	-712
ing	-713
ல்க	-714
▁பால	-715
க்கி	-716
ினால்	-717
000	-718
▁இப்ப	-719
and	-720
தால்	-721
▁B	-722
ன்னை	-723
ல்கள்	-724
ிறார்	-725
▁உருவா	-726
▁தமிழக	-727
▁16	-728
▁வடிவ	-729
▁கொண்டு	-730
▁நடை	-731
ங்கிய	-732
▁மனித	-733
ணுவ	-734
▁வச	-735
▁விர	-736
▁வெளிவ	-737
▁எழுத்தாளர்	-738
ர்களின்	-739
னின்	-740
▁புல	-741
ப்படுத்த	-742
ைகளை	-743
▁பல்க	-744
▁நூற்ற	-745
மு	-746
▁சட்ட	-747
▁இருக்கும்	-748
ிர்	-749
▁மூலம்	-750
▁குடிய	-751
▁ஆத	-752
▁கலை	-753
▁விடுதலை	-754
ணைய	-755
▁தமிழ்ந	-756
el	-757
ro	-758
ww	-759
ந்திய	-760
▁கோயில்	-761
▁பண	-762
▁பிரித்த	-763
▁வரு	-764
▁=	-765
▁அழைக்க	-766
▁அதன்	-767
ர்ட	-768
ற்கு	-769
ாளர்கள்	-770
ியலாளர்	-771
ரவ	-772
▁நிகழ்	-773
ைப்	-774
▁வள	-775
ம்பெ	-776
▁பெரிய	-777
ation	-778
▁கோயில	-779
ோத	-780
ுடைய	-781
ப்படுகின்றன	-782
ியம்	-783
ம்பர்	-784
ht	-785
▁அன	-786
▁இரண்டாம்	-787
▁10	-788
3)	-789
▁புக	-790
▁உள்ளன	-791
▁R	-792
ed	-793
ிருக்க	-794
▁தேசிய	-795
▁'	-796
▁பெயர்	-797
▁அரசியல்வாத	-798
த்திற்கு	-799
ய்வ	-800
▁எண்ண	-801
▁வரலாறு	-802
ுள்	-803
▁இச	-804
▁ஆண்டில்	-805
ன்ம	-806
ின்ன	-807
▁D	-808
ேயே	-809
▁ஆவ	-810
டும்	-811
ch	-812
ர்ம	-813
்கு	-814
▁அமைந்துள்ளது	-815
▁கழ	-816
▁அந்த	-817
பா	-818
ாரம்	-819
▁எடுத்த	-820
▁இன	-821
▁சங்க	-822
்த்	-823
▁உத	-824
▁190	-825
▁அடிப்பட	-826
ருக்க	-827
▁போது	-828
தா	-829
ந்தை	-830
2)	-831
▁என்றும்	-832
▁I	-833
..	-834
ல்லா	-835
ுட்ப	-836
▁ஒன்று	-837
4)	-838
தம்	-839
▁அர	-840
ர்க்	-841
னா	-842
the	-843
▁கொல்ல	-844
▁தாக்க	-845
▁விளைய	-846
▁N	-847
வன்	-848
▁கவ	-849
▁ஸ்	-850
க்கூ	-851
▁நான	-852
▁அப்ப	-853
▁வருக	-854
ol	-855
ந்தி	-856
ினும்	-857
▁வேறு	-858
▁போட்ட	-859
as	-860
நாய	-861
▁இடம்பெ	-862
▁தா	-863
▁இங்கு	-864
▁வீர	-865
▁உறுப்ப	-866
--	-867
ுள்ளார்	-868
ப்பட்டுள்ளது	-869
▁12	-870
▁அவர்	-871
▁இருக்க	-872
ent	-873
நகர	-874
▁இரண்டு	-875
▁எதிர	-876
ின்றனர்	-877
ைத்	-878
▁பரிசு	-879
▁G	-880
▁அனை	-881
▁L	-882
ப்பிர	-883
▁தொடர்ப	-884
▁டி	-885
ரால்	-886
▁சோழ	-887
▁கண்ட	-888
▁படை	-889
▁பெரும்ப	-890
ண்ம	-891
ன்னி	-892
▁முட	-893
ங்களின்	-894
றிய	-895
ுதல்	-896
▁சேர்ந்த	-897
5)	-898
யர்	-899
▁காரண	-900
ாமி	-901
▁மொ	-902
▁E	-903
▁உற	-904
டம்	-905
ித்து	-906
▁முறை	-907
▁கூட்ட	-908
ென	-909
▁வந்த	-910
1)	-911
ள்ளி	-912
▁துட	-913
ட்டர்	-914
ிகளை	-915
▁வில	-916
▁the	-917
▁அண	-918
ங்கி	-919
▁(2	-920
▁சமூ	-921
திப்ப	-922
வர்கள	-923
6)	-924
et	-925
பல்	-926
ேலிய	-927
▁செல்ல	-928
ுகின்றன	-929
▁துடுப்ப	-930
ப்பட்டனர்	-931
மி	-932
▁இடம்பெற்ற	-933
ுக்கள	-934
▁வளர்	-935
▁H	-936
பிர	-937
▁சக	-938
▁189	-939
தற்கு	-940
▁வாழ்	-941
▁திட்ட	-942
▁நடித்த	-943
▁தமிழ்த்	-944
▁பெற	-945
▁பண்ட	-946
8)	-947
▁பெண	-948
▁தொகுத	-949
▁F	-950
▁வான	-951
ாகவும்	-952
▁இலங்கையின்	-953
ராஜ	-954
மர்	-955
வ்வ	-956
▁நு	-957
▁மருத்துவ	-958
போ	-959
நாத	-960
▁இன்ற	-961
செ	-962
ட்டை	-963
ல்கள	-964
▁இணைய	-965
▁நிறுவன	-966
7)	-967
ையாள	-968
▁நாள	-969
ட்சி	-970
▁பிரித்தானிய	-971
▁இந்ந	-972
▁பிரான்	-973
▁மூன்று	-974
ினி	-975
▁இவ்	-976
▁சாத	-977
▁தொலை	-978
▁நிலைய	-979
ப்பட்டார்	-980
▁முதலாவது	-981
▁நடிகர்	-982
▁பிறப்புகள்	-983
0)	-984
ராய	-985
மைப்ப	-986
▁சென்னை	-987
▁நூல்கள்	-988
லைக்கழ	-989
▁இவற்றையும்	-990
▁நடைபெ	-991
▁மாற்ற	-992
▁உயிரிழ	-993
▁பற்றிய	-994
ராச	-995
வேறு	-996
▁இராணுவ	-997
ad	-998
ri	-999
ுவது	-1000
un	-1001
்களை	-1002
▁இள	-1003
ட்டி	-1004
தே	-1005
ுள்ளன	-1006
▁நோபல்	-1007
ப்படுகின்றது	-1008
பர்	-1009
▁நியூ	-1010
▁இந்தியாவின்	-1011
ac	-1012
ag	-1013
▁காவ	-1014
▁பேரரச	-1015
▁பல்கலைக்கழ	-1016
▁அங்க	-1017
▁இயக்கு	-1018
he	-1019
▁p	-1020
ாக்	-1021
ீர்	-1022
▁ஆய	-1023
▁திற	-1024
▁தன்	-1025
▁தொகை	-1026
கவ	-1027
ுகளும்	-1028
▁உருவாக்க	-1029
▁அரசியல்வாதி	-1030
ையா	-1031
யில்	-1032
ொண்ட	-1033
▁கிட	-1034
றை	-1035
▁தள	-1036
▁இவை	-1037
ரீ	-1038
லின்	-1039
▁குறை	-1040
ிருக்கும்	-1041
▁வய	-1042
▁தூ	-1043
ச்சிய	-1044
▁இவரது	-1045
▁துற	-1046
ுக்கான	-1047
▁கொள்ள	-1048
வீ	-1049
▁மண	-1050
டுப்ப	-1051
ுத்து	-1052
re	-1053
த்தக்க	-1054
▁f	-1055
▁ஆல	-1056
ிலேயே	-1057
▁நூற்றாண்ட	-1058
▁உயிரிழந்தனர்	-1059
▁O	-1060
னைய	-1061
ப்பெ	-1062
▁முக	-1063
▁பாடல்	-1064
▁ஆசிரிய	-1065
▁அடுத்த	-1066
சுவ	-1067
த்துக்கு	-1068
▁சிறப்பு	-1069
ாகப்	-1070
ிமுக	-1071
▁அல	-1072
ில்லிய	-1073
▁அரு	-1074
,000	-1075
வரி	-1076
ென்	-1077
▁கை	-1078
ாந்த	-1079
▁காட்ட	-1080
▁திரும	-1081
▁இருப்ப	-1082
படி	-1083
▁படி	-1084
▁கணக்க	-1085
மானது	-1086
▁கல்ல	-1087
▁கண்டு	-1088
▁தொழில்	-1089
▁செரு	-1090
▁ஆனால்	-1091
▁திருவ	-1092
▁உறுப்பின	-1093
▁W	-1094
▁கிற	-1095
ுகளின்	-1096
டைய	-1097
வில	-1098
▁சமூக	-1099
கி	-1100
ண்டிய	-1101
▁உட்ப	-1102
ைகளில்	-1103
ழி	-1104
▁14	-1105
▁தீவ	-1106
ேற்ற	-1107
▁நிலை	-1108
வில்லை	-1109
▁13	-1110
▁and	-1111
▁புர	-1112
▁வல	-1113
▁முடி	-1114
▁மாவட்டம்	-1115
com	-1116
்களின்	-1117
ச்சு	-1118
▁செல்	-1119
▁துடுப்பாட்ட	-1120
முக	-1121
ோடு	-1122
▁மட்ட	-1123
துர	-1124
▁வகை	-1125
um	-1126
நிலை	-1127
▁தயா	-1128
▁சந்த	-1129
ஸ்திர	-1130
▁பற	-1131
▁s	-1132
▁புவ	-1133
▁ஒப்ப	-1134
tp	-1135
▁கட்ச	-1136
▁தேர்த	-1137
மன்	-1138
▁தர	-1139
▁ஆர்	-1140
▁கிம	-1141
▁சமய	-1142
ாகக்	-1143
்ச்ச	-1144
▁புற	-1145
em	-1146
ர்களை	-1147
▁கருத	-1148
▁வட்ட	-1149
9)	-1150
ள்க	-1151
ருவ	-1152
ிகை	-1153
னும்	-1154
▁பல்	-1155
க்கலை	-1156
▁:	-1157
மார்	-1158
▁நிர	-1159
ிகளின்	-1160
▁இயற்ப	-1161
▁நா	-1162
▁இயக்க	-1163
▁நகரில்	-1164
▁பொருள்	-1165
us	-1166
▁முழ	-1167
த்தின	-1168
▁குடும்ப	-1169
http	-1170
ோட்ட	-1171
▁ஆறு	-1172
▁பண்ப	-1173
▁விமான	-1174
//	-1175
சே	-1176
▁.	-1177
://	-1178
திர்	-1179
ொள்ள	-1180
▁ஓர்	-1181
லைகள்	-1182
▁கல்விய	-1183
▁வெளிவந்த	-1184
▁இராக	-1185
ரான	-1186
▁அது	-1187
▁கண்ண	-1188
▁11	-1189
பட்ட	-1190
▁வாழ்க்க	-1191
▁குறிப்பிடத்தக்க	-1192
▁,	-1193
ியது	-1194
▁186	-1195
▁பாக	-1196
▁மீது	-1197
▁உலகப்	-1198
▁எனும்	-1199
ப்பானிய	-1200
▁மாவட்டத்தில்	-1201
ற்ச	-1202
முறை	-1203
ஸ்வர	-1204
▁இதழ	-1205
▁டெ	-1206
றும்	-1207
▁பாத	-1208
ன்பொரு	-1209
புரம்	-1210
▁முதலாம்	-1211
▁வெளியிட	-1212
▁மத	-1213
▁அறிய	-1214
▁ஈழத்து	-1215
▁ஆங்கிலேய	-1216
).	-1217
ூட	-1218
▁சப	-1219
▁தவ	-1220
▁http	-1221
ர்த்தி	-1222
இல்	-1223
▁கத	-1224
▁அவற்ற	-1225
▁கிராம	-1226
ப்புக்கள்	-1227
▁கோயில்கள்	-1228
ter	-1229
▁ஆன	-1230
▁அரசு	-1231
த்திலுள்ள	-1232
ங்கம்	-1233
▁சீன	-1234
▁கிரு	-1235
▁வரும்	-1236
▁ஒவ்வ	-1237
▁பார்க்கவும்	-1238
ிப்	-1239
▁ஆண	-1240
▁2006	-1241
de	-1242
கோ	-1243
தான	-1244
▁நாடக	-1245
▁வென்ற	-1246
▁(1	-1247
ியான	-1248
▁அருக	-1249
▁இறப்புகள்	-1250
மது	-1251
ைச்	-1252
ர்ட்	-1253
பே	-1254
ஸ்ட்	-1255
மைப்பு	-1256
▁அமைந்த	-1257
▁அறிமுக	-1258
▁காலத்தில்	-1259
ிணை	-1260
▁இக்க	-1261
க்கூடிய	-1262
▁வேண்டும்	-1263
வாறு	-1264
▁ஆட்ச	-1265
▁சொல்ல	-1266
ப்பட்டன	-1267
ுகின்றது	-1268
▁நாடுகள்	-1269
ரோப்ப	-1270
▁சிறுக	-1271
▁சிவன்	-1272
▁புதிய	-1273
மன்ற	-1274
ிப்பு	-1275
▁ஏற்பட்ட	-1276
▁கண்டுபி	-1277
பட	-1278
▁b	-1279
ul	-1280
லர்	-1281
▁போல	-1282
▁ஆவார்	-1283
ின்றார்	-1284
வின்	-1285
▁188	-1286
▁கவி	-1287
▁கூடிய	-1288
▁மூன்ற	-1289
▁எழுதிய	-1290
ஞான	-1291
ுமன்ற	-1292
த்திற்க	-1293
▁பல்வேறு	-1294
ம்ச	-1295
ாட்டில்	-1296
ரல்	-1297
ுவர	-1298
▁உரி	-1299
தாகும்	-1300
▁தொழில	-1301
▁ஒள	-1302
ரப்ப	-1303
▁சென்ற	-1304
▁பேரூர	-1305
ழை	-1306
ளவு	-1307
போது	-1308
▁இடை	-1309
▁எஸ்	-1310
▁சராச	-1311
▁காலம்	-1312
▁பரப்ப	-1313
ாலத்தில்	-1314
▁அமைப்பு	-1315
▁வார	-1316
க்கில்	-1317
ியியல்	-1318
▁மென்பொரு	-1319
▁பொதுவாக	-1320
ன்க	-1321
ிலோ	-1322
▁நேர	-1323
ராட்ட	-1324
ங்கும்	-1325
▁தோற்ற	-1326
▁மட்டு	-1327
▁தமிழ்நாடு	-1328
▁In	-1329
▁தாவ	-1330
வரும்	-1331
▁கொண்டது	-1332
▁in	-1333
▁பீ	-1334
ொன்ற	-1335
த்திலும்	-1336
▁சிறப்ப	-1337
▁சுற்று	-1338
op	-1339
ஷ்ண	-1340
ரிப்ப	-1341
▁அவரது	-1342
▁ரோ	-1343
மானிய	-1344
▁அமைக்க	-1345
▁ஐரோப்ப	-1346
த்தையும்	-1347
▁நிகழ்வுகள்	-1348
▁பாது	-1349
▁செய்து	-1350
di	-1351
www	-1352
▁தற்ப	-1353
▁புது	-1354
▁தலைநகர	-1355
▁அனைத்து	-1356
▁கிழக்கு	-1357
றிவு	-1358
▁மேற்ப	-1359
▁குடியரச	-1360
▁பல்கலைக்கழக	-1361
மண	-1362
ள்ளை	-1363
▁செல	-1364
▁நீர்	-1365
▁கைப்ப	-1366
▁சொற்க	-1367
▁நான்கு	-1368
▁காரணமாக	-1369
tic	-1370
▁ஊட	-1371
ab	-1372
▁187	-1373
▁பேச	-1374
▁தொடர்ந்து	-1375
▁பகுதியில்	-1376
▁மோ	-1377
▁கூட	-1378
▁சித்த	-1379
▁பத்திர	-1380
▁மத்திய	-1381
ுப	-1382
ரன்	-1383
ீன்	-1384
ுதி	-1385
▁எல்	-1386
▁கடல்	-1387
▁கல்லூ	-1388
▁புகழ்	-1389
ர்களில்	-1390
ர்களும்	-1391
▁வாழும்	-1392
▁விடுதலைப்	-1393
▁t	-1394
▁மாக	-1395
▁இலக்க	-1396
▁கல்வி	-1397
▁தமிழர்	-1398
▁யூ	-1399
ளின்	-1400
▁தகவ	-1401
▁நாக	-1402
ந்தர்	-1403
▁வழிப	-1404
▁நடிகை	-1405
▁அமைப்ப	-1406
ுகளுக்கு	-1407
▁மாநிலத்தில்	-1408
ig	-1409
▁ஈடு	-1410
வியல்	-1411
▁மிகவும்	-1412
ரிச	-1413
▁c	-1414
ers	-1415
ண்க	-1416
யில	-1417
்டோ	-1418
▁இசை	-1419
▁கவித	-1420
▁சம்ப	-1421
▁மண்ட	-1422
▁மேல்	-1423
▁செயற்ப	-1424
▁இலங்கையில்	-1425
வரு	-1426
்தொ	-1427
▁பக	-1428
▁மேல	-1429
▁ராஜ	-1430
▁விக	-1431
▁இதில்	-1432
▁இலங்கைத்	-1433
ோல	-1434
▁2005	-1435
▁உண்டு	-1436
▁கட்சி	-1437
ோஸ்	-1438
▁நப	-1439
ுத்தலை	-1440
ஸ்திரேலிய	-1441
▁உல	-1442
▁கர	-1443
▁தெரி	-1444
▁வரைய	-1445
லாந்து	-1446
▁நாடாள	-1447
▁முடிவ	-1448
▁சந்திர	-1449
▁விருதுக	-1450
ங்களையும்	-1451
▁அறிவியல்	-1452
ிக்கப்பட்டது	-1453
தன்	-1454
▁காத	-1455
ிருப்ப	-1456
ுக்காக	-1457
த்துடன்	-1458
▁மேற்கு	-1459
▁அரசுத்தலை	-1460
▁நாடாளுமன்ற	-1461
த்திலிருந்து	-1462
ay	-1463
ிரா	-1464
ிஸ்த	-1465
▁|-	-1466
▁சூழ	-1467
ிக்கை	-1468
▁இங்கில	-1469
▁பிரதேச	-1470
▁பெற்றது	-1471
பதி	-1472
பால	-1473
ெல்	-1474
▁வண	-1475
▁2011	-1476
▁அக்க	-1477
▁தான்	-1478
▁குழந்த	-1479
▁பிறந்த	-1480
சீ	-1481
சன்	-1482
ேன்	-1483
▁அறி	-1484
▁பக்க	-1485
▁பிரப	-1486
▁மின்ன	-1487
▁மொத்த	-1488
வரை	-1489
▁விழ	-1490
▁இன்றைய	-1491
▁உயர	-1492
▁பயண	-1493
▁ஏற்ற	-1494
iv	-1495
நாட	-1496
லாள	-1497
ெடுப்ப	-1498
ேர	-1499
ித்	-1500
ங்கா	-1501
▁நாவ	-1502
▁பார்	-1503
த்தைக்	-1504
▁பொருட	-1505
▁பெண்கள்	-1506
▁கொல்லப்பட்டனர்	-1507
ap	-1508
க்ச	-1509
▁பள்ள	-1510
்களில்	-1511
▁தலைவர்	-1512
▁தொடங்க	-1513
▁பட்டியல்	-1514
▁U	-1515
ிரி	-1516
ாமல்	-1517
ிலான	-1518
▁அம்ப	-1519
▁பிரிவ	-1520
ப்ட	-1521
▁உருவ	-1522
▁கொள்க	-1523
வச	-1524
▁m	-1525
▁இழ	-1526
ண்ட்	-1527
▁The	-1528
▁மைய	-1529
▁பின்ன	-1530
▁சுமார்	-1531
▁இயக்குந	-1532
ec	-1533
▁கீழ	-1534
▁மார்	-1535
▁பதிப்ப	-1536
▁J	-1537
▁துறை	-1538
▁புனித	-1539
வோ	-1540
முற	-1541
▁நூல்	-1542
▁பெண்	-1543
▁இந்தியத்	-1544
ce	-1545
ீழ	-1546
கால	-1547
▁நல்ல	-1548
▁வெப்ப	-1549
ிக்கப்பட்ட	-1550
0.	-1551
ிட்	-1552
ப்பகுத	-1553
ித்தார்	-1554
▁உலகின்	-1555
▁ஒவ்வொரு	-1556
oc	-1557
னே	-1558
▁இசு	-1559
▁தென்	-1560
த்துக்க	-1561
▁நாளில்	-1562
▁நாட்கள்	-1563
▁பொருளாத	-1564
லு	-1565
▁மகா	-1566
▁மாற	-1567
▁வாய்	-1568
▁எதிர்	-1569
▁தென்னி	-1570
ir	-1571
▁ஆதார	-1572
▁தொகு	-1573
▁வங்க	-1574
ாடுகள்	-1575
ot	-1576
மொழ	-1577
ளில்	-1578
▁கடை	-1579
▁பாவ	-1580
நுட்ப	-1581
▁மாகாண	-1582
ையாகும்	-1583
▁அதிகார	-1584
▁எனினும்	-1585
வராக	-1586
▁அடை	-1587
▁கதை	-1588
▁மாண	-1589
▁உற்ப	-1590
▁கப்ப	-1591
▁நிறை	-1592
▁புத்த	-1593
▁இடத்தில்	-1594
னாக	-1595
ாரண	-1596
amil	-1597
▁அங்கு	-1598
▁பெற்றார்	-1599
▁வெளியிணை	-1600
▁ஜே	-1601
ப்பா	-1602
மான்	-1603
ரியா	-1604
▁பன்ன	-1605
▁உருசிய	-1606
ிறார்கள்	-1607
ங்களுக்கு	-1608
▁வெளியிட்ட	-1609
னோ	-1610
தேச	-1611
ுவர்	-1612
▁அவை	-1613
▁முய	-1614
ரங்கள்	-1615
▁புள்ள	-1616
▁திருத்த	-1617
ர்களுக்கு	-1618
▁நடைபெற்ற	-1619
மூ	-1620
ெழ	-1621
ழ்க	-1622
ந்தர	-1623
▁185	-1624
▁ஆய்	-1625
▁குவ	-1626
▁படைய	-1627
தற்காக	-1628
ித்தது	-1629
▁பணியா	-1630
▁வானிய	-1631
▁வைத்த	-1632
▁மீட்டர்	-1633
▁ஒன்றாகும்	-1634
▁திரைப்படம்	-1635
▁சன	-1636
▁கொழ	-1637
▁குரு	-1638
ருந்து	-1639
▁வந்தது	-1640
▁வெற்றி	-1641
▁நபர்கள்	-1642
▁அச	-1643
▁நக	-1644
னார்	-1645
ூர்வ	-1646
▁ஒரே	-1647
▁கடவு	-1648
▁நிர்	-1649
▁கவிஞர்	-1650
▁அவர்கள்	-1651
▁வரலாற்ற	-1652
01	-1653
▁காய	-1654
▁மது	-1655
▁மக்கள்தொ	-1656
ீர	-1657
▁21	-1658
▁நவ	-1659
----	-1660
ைத்த	-1661
▁வித	-1662
டிப்ப	-1663
▁அச்ச	-1664
▁இங்க	-1665
▁துணை	-1666
▁எழுத்தாளர்கள்	-1667
▁ஜெ	-1668
▁கனட	-1669
▁அமைவ	-1670
▁தற்க	-1671
ைகளின்	-1672
வியலாளர்	-1673
▁எடுத்துக்க	-1674
▁தென்னிந்திய	-1675
og	-1676
▁மை	-1677
மையான	-1678
▁ஆற்ற	-1679
▁நினை	-1680
▁கோவில்	-1681
▁பாதுகா	-1682
த்தா	-1683
▁எம்	-1684
▁விப	-1685
▁(200	-1686
▁2001	-1687
▁பற்றி	-1688
லாக	-1689
ூல்	-1690
மாறு	-1691
▁மரப	-1692
▁குறிக்க	-1693
▁அமெரிக்காவின்	-1694
ஜ்	-1695
லாம	-1696
ாலி	-1697
▁பௌ	-1698
▁மலை	-1699
▁உணவு	-1700
▁மின்	-1701
▁மெய்ய	-1702
▁ஆத்திர	-1703
▁கணக்கெடுப்ப	-1704
▁விச	-1705
▁ஆய்வ	-1706
▁கணித	-1707
ஆங்கில	-1708
▁சோவிய	-1709
▁டை	-1710
ஞ்சு	-1711
ப்பி	-1712
ளும்	-1713
ுந்த	-1714
▁அலக	-1715
▁தொக	-1716
▁அளவு	-1717
▁முன்	-1718
ைகளும்	-1719
▁நாட்டின்	-1720
▁K	-1721
ாலய	-1722
ம்பு	-1723
ினம்	-1724
▁நாய	-1725
▁சதுர	-1726
▁ஆண்டின்	-1727
▁உள்ளனர்	-1728
த்திரைப்பட	-1729
▁அரசுத்தலைவர்	-1730
ொட	-1731
ிலே	-1732
ின்படி	-1733
▁இயங்க	-1734
▁கட்டிடக்கலை	-1735
ீட	-1736
்தி	-1737
▁நி	-1738
▁இன்ன	-1739
▁சேர்	-1740
னுக்கு	-1741
ிகளும்	-1742
ரைய	-1743
▁22	-1744
▁கள	-1745
ார்ட	-1746
▁ஸ்ட	-1747
ுள்ளனர்	-1748
▁வெளியே	-1749
.5	-1750
யி	-1751
லோ	-1752
▁அளவ	-1753
▁கிமீ	-1754
▁அடுத்து	-1755
▁ஆகியவற்ற	-1756
ப்படி	-1757
த்தைப்	-1758
ங்கை	-1759
▁இந்து	-1760
▁முருக	-1761
▁அமைவிடம்	-1762
▁இருந்தது	-1763
▁பாடல்கள்	-1764
பை	-1765
▁சர	-1766
ப்போ	-1767
▁பில	-1768
▁இடம்	-1769
ில்லியன்	-1770
▁எனப்படும்	-1771
ut	-1772
ist	-1773
ாட்	-1774
▁25	-1775
▁30	-1776
▁மற	-1777
ங்கோ	-1778
▁உயர்	-1779
▁நாடு	-1780
▁அன்று	-1781
▁சிறிய	-1782
▁சூரிய	-1783
▁சோவியத்	-1784
▁மீண்டும்	-1785
▁ஆஸ்திரேலிய	-1786
பிய	-1787
▁ஜன	-1788
ண்டி	-1789
▁இம்ம	-1790
▁இறைவ	-1791
▁கீழ்	-1792
▁சொல்	-1793
▁பழைய	-1794
▁ஸ்ரீ	-1795
▁மொழிய	-1796
▁குறிப்பிட்ட	-1797
▁n	-1798
ேரி	-1799
▁23	-1800
▁ஓட்ட	-1801
▁படுக	-1802
▁நடத்த	-1803
▁வரலாற்று	-1804
மடை	-1805
▁கம	-1806
▁உள்	-1807
▁சித	-1808
க்கிர	-1809
▁கிரே	-1810
▁முதன்	-1811
ுது	-1812
▁ரி	-1813
ண்மை	-1814
▁ஒளி	-1815
▁முதலிய	-1816
▁இத்திரைப்பட	-1817
▁பெரும்பாலும்	-1818
ோன்	-1819
ச்சொ	-1820
த்தீ	-1821
▁184	-1822
ப்ரல்	-1823
ருடைய	-1824
▁இயற்க	-1825
தீ	-1826
மெ	-1827
லே	-1828
▁அதி	-1829
▁இசைய	-1830
▁செரும	-1831
▁தோன்ற	-1832
ாட்டின்	-1833
▁சிங்கள	-1834
▁ஒலி	-1835
ாண்டு	-1836
▁எந்த	-1837
▁கால்	-1838
▁என்பன	-1839
▁கட்டுர	-1840
▁கருத்த	-1841
▁தமிழில்	-1842
os	-1843
▁பிரெ	-1844
▁வடக்கு	-1845
▁தற்போது	-1846
ரிக	-1847
க்கள	-1848
▁திச	-1849
▁பஞ்ச	-1850
▁பரிச	-1851
நாட்டு	-1852
▁விளங்க	-1853
▁இராச்சிய	-1854
▁செல்லும்	-1855
▁அப	-1856
▁உவ	-1857
சியா	-1858
ம்மன்	-1859
▁விளை	-1860
ப்படுவ	-1861
்களும்	-1862
▁வானியலாளர்	-1863
▁w	-1864
▁ஃ	-1865
ேர்	-1866
▁பன	-1867
▁சேவ	-1868
மாகக்	-1869
▁ஓவிய	-1870
▁முத்த	-1871
▁வந்து	-1872
▁வழக்க	-1873
▁ஒப்பந்த	-1874
▁திருச்ச	-1875
க்கப்பட்ட	-1876
▁குறிக்கும்	-1877
ity	-1878
▁ரூ	-1879
க்ஸ்	-1880
▁பறவ	-1881
▁கத்த	-1882
▁செல்வ	-1883
▁யாழ்ப்பாணம்	-1884
ீடு	-1885
மைகள்	-1886
▁தந்த	-1887
▁சராசரி	-1888
▁மொழிபெ	-1889
▁செலுத்த	-1890
ve	-1891
ang	-1892
திக	-1893
ாடி	-1894
ாது	-1895
ொலை	-1896
▁லா	-1897
▁அல்	-1898
▁சுத	-1899
▁விய	-1900
ிட்டு	-1901
▁தமது	-1902
திப்பு	-1903
▁ஐந்து	-1904
▁சுட்ட	-1905
▁திருந	-1906
▁விண்ட	-1907
▁ஏப்ரல்	-1908
▁தொகுதி	-1909
▁பொருளாதார	-1910
▁ஜூ	-1911
▁தனி	-1912
▁நிகழ	-1913
▁வணிக	-1914
ாட்சிய	-1915
▁கொண்டுள்ளது	-1916
▁தொழில்நுட்ப	-1917
ஜி	-1918
▁கெ	-1919
▁2000	-1920
▁எனப்	-1921
தற்கான	-1922
▁ஆட்சி	-1923
▁கோட்ட	-1924
ராகவும்	-1925
ரித்த	-1926
▁கம்ப	-1927
்டோபர்	-1928
▁மட்டுமே	-1929
od	-1930
ளா	-1931
ோச	-1932
▁தட	-1933
▁ஊடக	-1934
▁தாய	-1935
▁வீட	-1936
▁2004	-1937
▁இதனை	-1938
▁ஒன்றிய	-1939
▁முன்னாள்	-1940
▁இரண்டாவது	-1941
▁V	-1942
வான	-1943
▁தின	-1944
▁பரவ	-1945
▁மான	-1946
▁வலை	-1947
▁நம்ப	-1948
▁வைக்க	-1949
ங்களிலும்	-1950
▁முடியும்	-1951
ரூ	-1952
▁ஷ	-1953
பார	-1954
▁ஆராய	-1955
ரியில்	-1956
▁வெள்ள	-1957
▁இயற்பியலாளர்	-1958
ff	-1959
im	-1960
ஃப்	-1961
ியல	-1962
ஞ்சி	-1963
ன்னா	-1964
ாலான	-1965
▁பணி	-1966
▁செப்ட	-1967
▁முற்ற	-1968
▁விட்ட	-1969
▁அளவில்	-1970
▁கல்வியறிவு	-1971
▁உறுப்பினர்கள்	-1972
லைக்	-1973
▁202	-1974
▁கலா	-1975
லிங்க	-1976
வையாக	-1977
▁கிலோ	-1978
▁வீரர்	-1979
▁செயல்ப	-1980
▁பிரதமர்	-1981
▁முதலில்	-1982
▁ஏற்படுத்த	-1983
▁மில்லியன்	-1984
id	-1985
மக	-1986
ோண	-1987
புர	-1988
சாமி	-1989
▁வேல	-1990
க்குற	-1991
ொருள்	-1992
▁சிறு	-1993
▁தெற்க	-1994
ங்களைக்	-1995
▁வகைகள்	-1996
ஆங்கிலம்	-1997
▁திருப்ப	-1998
▁புவியியல்	-1999
ess	-2000
ம்மா	-2001
▁கும	-2002
▁புரி	-2003
▁போக்க	-2004
▁இத்தால	-2005
்களுக்கு	-2006
▁தொலைக்க	-2007
▁நிர்வாக	-2008
▁தொலைவில்	-2009
▁இலக்கியம்	-2010
▁விருதுகள்	-2011
▁காணப்படும்	-2012
uc	-2013
பத	-2014
லான	-2015
▁24	-2016
▁இறை	-2017
▁குள	-2018
ல்களை	-2019
▁1990	-2020
▁எனக்	-2021
▁மத்த	-2022
▁காந்த	-2023
▁பங்கு	-2024
▁மொழிகள்	-2025
▁பத்திரிக	-2026
▁முறையில்	-2027
யூ	-2028
▁மி	-2029
னியா	-2030
தாகக்	-2031
த்தைச்	-2032
ங்கியது	-2033
மாகவும்	-2034
▁இதனால்	-2035
▁போரில்	-2036
ப்படுவது	-2037
▁இந்தியா	-2038
▁போர்த்த	-2039
க்கப்பட்டது	-2040
ard	-2041
ரிட	-2042
ிற்	-2043
▁ஆற	-2044
நகர்	-2045
வாய்	-2046
▁2002	-2047
▁எனவே	-2048
▁இக்கோ	-2049
▁சார்ப	-2050
▁வேதிய	-2051
ுகிறார்	-2052
ிலிருந்த	-2053
▁கிருஷ்ண	-2054
▁விண்டோஸ்	-2055
▁பேரூராட்ச	-2056
▁அமெரிக்காவில்	-2057
ra	-2058
▁d	-2059
னில்	-2060
ட்டிய	-2061
▁பிரபல	-2062
▁ஒருவர்	-2063
▁படைகள்	-2064
ைகளுக்கு	-2065
▁சார்ந்த	-2066
▁தாக்குத	-2067
▁போராட்ட	-2068
▁கைப்பற்ற	-2069
▁மக்களின்	-2070
ள்வ	-2071
▁St	-2072
க்கே	-2073
ங்கட	-2074
▁கார்	-2075
▁நகரம்	-2076
▁எழுத்து	-2077
▁நிலையம்	-2078
▁நாடுகளில்	-2079
▁இங்கிலாந்த	-2080
யோ	-2081
org	-2082
லாத	-2083
▁யு	-2084
ேரூர	-2085
▁அதே	-2086
▁விஜ	-2087
ப்பான	-2088
ஞர்கள்	-2089
▁குற்ற	-2090
▁நீண்ட	-2091
▁மதுரை	-2092
▁வேறுப	-2093
சிரியர்	-2094
▁அக்டோபர்	-2095
▁இப்பேரூர	-2096
▁தொடர்பான	-2097
னான	-2098
▁உரோ	-2099
▁நிய	-2100
றிஞர்	-2101
ளவில்	-2102
▁கருவ	-2103
▁பேரா	-2104
ோலிக்க	-2105
▁உடன்ப	-2106
ர்களால்	-2107
ப்பட்டுள்ளன	-2108
ow	-2109
est	-2110
ராள	-2111
ெட்	-2112
▁மன	-2113
ப்ரவ	-2114
யின்	-2115
▁183	-2116
▁என்	-2117
பெற்ற	-2118
லாந்த	-2119
த்தால்	-2120
▁நியூயா	-2121
▁பயன்பட	-2122
▁ஆதாரங்கள்	-2123
▁அடிப்படையில்	-2124
ew	-2125
▁182	-2126
த்துக்	-2127
▁பகுதி	-2128
▁திட்டம்	-2129
▁மூன்றாம்	-2130
ion	-2131
▁கௌ	-2132
▁முன	-2133
▁பல்ல	-2134
▁மேம்ப	-2135
ும்போது	-2136
▁இயக்குநர்	-2137
▁கத்தோலிக்க	-2138
ine	-2139
▁ஆள	-2140
ியன்	-2141
▁உசா	-2142
▁தான	-2143
▁மனை	-2144
▁தன்ன	-2145
▁விளக்க	-2146
-1	-2147
ாவை	-2148
ையோ	-2149
ம்சு	-2150
ூரில்	-2151
▁இராம	-2152
▁இல்லை	-2153
▁உயிர்	-2154
▁காங்க	-2155
▁தேவார	-2156
▁பிரதி	-2157
▁சேர்த்த	-2158
ai	-2159
▁அழக	-2160
▁எசு	-2161
▁பொற	-2162
ுவின்	-2163
▁இச்ச	-2164
▁மன்னர்	-2165
▁தயாரிப்ப	-2166
▁மொழியில்	-2167
▁வாழ்க்கை	-2168
வீன	-2169
க்கா	-2170
நாயக	-2171
ெயர்	-2172
▁மறை	-2173
▁துரு	-2174
▁வேலை	-2175
வடிக்க	-2176
ிருத்த	-2177
▁உள்ளட	-2178
▁நுண்ண	-2179
▁பிறகு	-2180
▁மாதம்	-2181
வார்கள்	-2182
▁வங்காள	-2183
▁விளையாட்டு	-2184
பொ	-2185
ேக	-2186
ுவை	-2187
▁உப	-2188
▁வாச	-2189
▁(199	-2190
▁தஞ்ச	-2191
▁தாவர	-2192
டுத்து	-2193
ப்ரவரி	-2194
▁மார்ச்	-2195
▁பெயரில்	-2196
▁குடியரசு	-2197
%)	-2198
▁27	-2199
ந்தன	-2200
ந்தா	-2201
▁கிள	-2202
▁மறு	-2203
▁சர்வ	-2204
▁தாய்	-2205
▁ஆய்வு	-2206
▁செய்வ	-2207
தாகவும்	-2208
▁கிரேக்க	-2209
▁இந்தியாவில்	-2210
அம	-2211
▁ஆதி	-2212
▁தூர	-2213
திகள்	-2214
நாதன்	-2215
்ச்சி	-2216
▁எல்ல	-2217
தில்லை	-2218
மையில்	-2219
▁சென்று	-2220
▁தொடக்க	-2221
▁உசாத்து	-2222
▁கொடுக்க	-2223
▁பார்த்த	-2224
▁நடவடிக்க	-2225
▁அமெரிக்கப்	-2226
▁மாவட்டத்திலுள்ள	-2227
▁வெளியிணைப்புகள்	-2228
ran	-2229
கைய	-2230
சார	-2231
சிற	-2232
துக	-2233
▁26	-2234
ண்டை	-2235
▁தாம	-2236
▁வடக	-2237
▁கணின	-2238
ெடுக்க	-2239
▁பகுதிகள	-2240
▁பாண்டிய	-2241
ைப்படுத்த	-2242
▁சுதந்திர	-2243
▁நிறுவனம்	-2244
ரள	-2245
ோல்	-2246
▁லூ	-2247
ருடன்	-2248
▁சகோத	-2249
▁பொறிய	-2250
கத்தில்	-2251
▁தமிழீழ	-2252
▁வழியாக	-2253
▁விட்டு	-2254
▁கிறித்த	-2255
▁தேர்தல்	-2256
▁விளையாட்ட	-2257
▁நியூயார்க்	-2258
▁முக்கியமான	-2259
.1	-2260
ib	-2261
ேவ	-2262
ஷ்ட	-2263
ிரம்	-2264
▁181	-2265
▁கைய	-2266
▁சரி	-2267
▁ஏனைய	-2268
▁நீதி	-2269
ஸ்வரர்	-2270
▁தோட்ட	-2271
ுவதற்கு	-2272
▁தெற்கு	-2273
ப்பிரிக்க	-2274
▁ஆத்திரேலிய	-2275
ia	-2276
சோ	-2277
பம்	-2278
▁1,	-2279
மக்க	-2280
ப்புற	-2281
ைக்கு	-2282
ப்பாடு	-2283
▁இத்தல	-2284
▁இன்று	-2285
▁கடற்க	-2286
▁கணினி	-2287
▁சின்ன	-2288
▁முடிய	-2289
▁எனவும்	-2290
▁நவம்பர்	-2291
▁செய்யும்	-2292
▁செருமானிய	-2293
▁நகரங்களும்	-2294
.2	-2295
நா	-2296
▁l	-2297
▁st	-2298
சின்	-2299
▁சாக	-2300
ும்பு	-2301
▁கன்ன	-2302
▁தவிர	-2303
▁தீவு	-2304
▁முழு	-2305
▁கடற்ப	-2306
▁நோக்க	-2307
▁இவருக்கு	-2308
▁அமெரிக்கா	-2309
▁தலங்களில்	-2310
▁எடுத்துக்காட்ட	-2311
ov	-2312
ேல்	-2313
▁on	-2314
▁மேள	-2315
▁வாக	-2316
ாவும்	-2317
▁ஆட்ட	-2318
▁இறுத	-2319
தியில்	-2320
▁ஆகியோ	-2321
▁வெற்ற	-2322
▁சிறுகதை	-2323
▁தேவாரம்	-2324
▁உற்பத்தி	-2325
▁தொலைக்காட்சி	-2326
வைத்	-2327
ியர்	-2328
▁உத்த	-2329
த்தளம்	-2330
▁கோட்ப	-2331
▁சிற்ப	-2332
▁பழங்க	-2333
▁விகித	-2334
▁தலைமைய	-2335
▁விலங்க	-2336
▁குறைந்த	-2337
▁விமானம்	-2338
▁பிரெஞ்சு	-2339
▁வருகிறது	-2340
நோ	-2341
ary	-2342
முட	-2343
ிகா	-2344
ொலி	-2345
ப்பை	-2346
▁துவ	-2347
▁நீள	-2348
▁2003	-2349
▁அடையாள	-2350
▁இதற்கு	-2351
அமெரிக்க	-2352
▁ஒன்றில்	-2353
▁ஆண்டுகள்	-2354
▁குறிப்புகள்	-2355
▁பெரும்பாலான	-2356
ர்வு	-2357
▁உதவ	-2358
மைத்த	-2359
▁உடைய	-2360
▁கிமு	-2361
▁செய்க	-2362
▁ஈடுபட்ட	-2363
▁பேரரசர்	-2364
▁நூற்றாண்டு	-2365
ak	-2366
தன	-2367
வன	-2368
நாடக	-2369
மிழ்	-2370
ம்பி	-2371
ரிக்	-2372
ரைத்	-2373
லைகள	-2374
ாங்க	-2375
ாவார்	-2376
ையைப்	-2377
▁அவ்வ	-2378
▁கந்த	-2379
▁வீழ்	-2380
ுக்களை	-2381
▁நான்க	-2382
▁சுந்தர	-2383
▁நோக்கி	-2384
ைகளையும்	-2385
▁தொடருந்து	-2386
▁நூற்றாண்டில்	-2387
▁காணப்படுகின்றன	-2388
ub	-2389
நி	-2390
▁a	-2391
...	-2392
றிவ	-2393
▁50	-2394
▁எக	-2395
▁பை	-2396
மர்ச	-2397
க்கார	-2398
ன்கள்	-2399
வரின்	-2400
▁அம்ச	-2401
▁பதின	-2402
▁பெர்	-2403
ுகளைக்	-2404
▁சுற்ற	-2405
▁பயணம்	-2406
▁வாக்க	-2407
▁விமர்ச	-2408
ற்றினார்	-2409
▁இடையில்	-2410
▁ஆசிரியர்	-2411
%,	-2412
ல்த	-2413
▁ஏற	-2414
குதி	-2415
ாலம்	-2416
ொழுது	-2417
▁இளைய	-2418
▁உண்ண	-2419
▁செய்	-2420
▁ஜான்	-2421
▁புரா	-2422
▁மகன்	-2423
ட்டில்	-2424
▁உட்பட	-2425
▁பெரும	-2426
▁பௌத்த	-2427
▁அனுப்ப	-2428
▁சுற்றுலா	-2429
▁மேற்பட்ட	-2430
▁போன்றவற்ற	-2431
▁மொழிபெயர்	-2432
▁செப்டம்பர்	-2433
▁அழைக்கப்படும்	-2434
டோ	-2435
பூ	-2436
ீச	-2437
ell	-2438
ort	-2439
und	-2440
டியாக	-2441
ாசிரிய	-2442
▁ஆலயம்	-2443
▁தந்தை	-2444
▁கலைஞர்	-2445
▁பண்டைய	-2446
ிருந்தது	-2447
▁கிறிஸ்த	-2448
▁விளையாட	-2449
▁குடியேற்ற	-2450
▁பிறந்தார்	-2451
▁+	-2452
ியே	-2453
ரங்க	-2454
▁சர்	-2455
▁ஸ்க	-2456
ாலயம்	-2457
ையைக்	-2458
▁உறவு	-2459
▁கற்க	-2460
▁விண்	-2461
▁இதுவே	-2462
▁சிறுகத	-2463
▁அருகில்	-2464
▁என்பவர்	-2465
▁வளர்ச்சி	-2466
8,	-2467
▁ஊர்	-2468
▁ஏழு	-2469
ுகளாக	-2470
▁குடி	-2471
▁நவீன	-2472
▁வயது	-2473
▁சான்ற	-2474
▁பாடிய	-2475
▁முற்ப	-2476
▁தனித்த	-2477
ுகளையும்	-2478
▁சொற்கள்	-2479
▁ஊர்களும்	-2480
▁ஐரோப்பிய	-2481
▁செயற்பாட்ட	-2482
நீ	-2483
சில	-2484
ர்ண	-2485
்து	-2486
▁ஆட	-2487
மைப்	-2488
▁100	-2489
▁ஜெய	-2490
ாந்து	-2491
▁உடல்	-2492
▁சிங்க	-2493
ப்பிரமண	-2494
ுக்குப்	-2495
▁அமைச்ச	-2496
▁என்பதை	-2497
▁இணைந்து	-2498
▁கருத்து	-2499
▁வாழ்ந்த	-2500
▁எசுப்பானிய	-2501
▁செய்யப்பட்ட	-2502
▁இணைப்புக்கள்	-2503
ack	-2504
ரிம	-2505
ர்ப	-2506
வம்	-2507
ியோ	-2508
்க்	-2509
▁எள	-2510
▁ஹெ	-2511
பின்	-2512
லைப்	-2513
▁for	-2514
▁அவ்	-2515
▁பூம	-2516
ழைக்க	-2517
▁தங்க	-2518
▁விவச	-2519
ரிப்பு	-2520
▁கட்டட	-2521
▁பிள்ள	-2522
டித்தார்	-2523
லாளர்கள்	-2524
▁இவ்வாறு	-2525
▁திரும்ப	-2526
▁தேர்ந்த	-2527
▁வில்லிய	-2528
▁பகுதிகளில்	-2529
age	-2530
all	-2531
ராம	-2532
▁to	-2533
▁சத	-2534
▁மைக்	-2535
டித்து	-2536
▁மிகப்	-2537
▁கப்பல்	-2538
▁நாட்டு	-2539
▁விவசாய	-2540
▁தலங்கள்	-2541
▁தீவுகள்	-2542
▁நிலையில்	-2543
▁பிரான்சிய	-2544
▁அறிமுகப்படுத்த	-2545
ூர்த	-2546
▁ஒழு	-2547
▁ஞான	-2548
▁நோய	-2549
ரியாக	-2550
▁1989	-2551
▁ஐந்த	-2552
▁கதிர	-2553
▁சிக்க	-2554
▁பரம்ப	-2555
▁முழும	-2556
ிகளையும்	-2557
▁கல்லூரி	-2558
▁குறித்த	-2559
▁சர்வதேச	-2560
▁கொண்டிருந்த	-2561
ism	-2562
வாற	-2563
ாரி	-2564
▁29	-2565
சாலை	-2566
லூர்	-2567
▁178	-2568
▁இக்	-2569
▁இன்	-2570
▁சைவ	-2571
▁வடி	-2572
ட்டது	-2573
▁2007	-2574
▁கற்ற	-2575
▁சக்க	-2576
▁நண்ப	-2577
▁வல்ல	-2578
▁எல்லா	-2579
▁நாட்க	-2580
▁பின்ப	-2581
ாலையில்	-2582
▁நிறுத்த	-2583
▁பிரிக்க	-2584
ுகின்றனர்	-2585
▁ஆவார்கள்	-2586
▁கொழும்பு	-2587
av	-2588
லம்ப	-2589
ூட்ட	-2590
▁அணி	-2591
ியார்	-2592
ையார்	-2593
▁அனும	-2594
▁ஆசிய	-2595
▁இராஜ	-2596
▁நான்	-2597
▁நெடு	-2598
▁வருட	-2599
ுவதும்	-2600
▁தென்க	-2601
▁அதாவது	-2602
▁டைம்சு	-2603
▁மட்டும்	-2604
▁இத்தாலிய	-2605
ின்றார்கள்	-2606
▁பாதுகாப்பு	-2607
▁இப்பேரூராட்சி	-2608
▁திரைப்படமாகும்	-2609
▁r	-2610
னது	-2611
ுதள	-2612
பால்	-2613
▁திக	-2614
▁பிள	-2615
ந்தன்	-2616
▁கற்ப	-2617
▁சேவை	-2618
▁தெலு	-2619
ங்களாக	-2620
ியலில்	-2621
ெழுத்த	-2622
▁சென்ன	-2623
▁நாடுகள	-2624
ருக்கும்	-2625
▁கிடைக்க	-2626
▁திருக்கோ	-2627
▁திருமணம்	-2628
▁போக்குவர	-2629
▁கட்டுரைகள்	-2630
▁பல்கலைக்கழகம்	-2631
ian	-2632
ish	-2633
ொகை	-2634
▁ரீ	-2635
வெளி	-2636
▁குண	-2637
▁மலே	-2638
வரால்	-2639
▁நகர்	-2640
விலும்	-2641
ங்களுள்	-2642
▁பெற்று	-2643
▁ஆகியோர்	-2644
▁சேர்க்க	-2645
▁குறிப்பு	-2646
▁தாக்குதல்	-2647
▁பேரூராட்சி	-2648
▁மக்கள்தொகை	-2649
ill	-2650
த்ம	-2651
வெள	-2652
ிகு	-2653
ர்வே	-2654
▁இதன	-2655
▁காம	-2656
▁கோட	-2657
ுக்கொ	-2658
ூரின்	-2659
▁2008	-2660
▁2009	-2661
▁தபால	-2662
▁ஏற்பட	-2663
▁குறிய	-2664
▁குழுவ	-2665
ational	-2666
▁மதிப்ப	-2667
▁பெப்ரவரி	-2668
ep	-2669
பர	-2670
பீ	-2671
▁35	-2672
சில்	-2673
னைப்	-2674
ரசர்	-2675
▁180	-2676
▁டிச	-2677
▁நாண	-2678
▁ராம	-2679
ரிடம்	-2680
ிடையே	-2681
▁அலுவ	-2682
▁எகிப	-2683
▁கான்	-2684
▁கேரள	-2685
▁தீர்	-2686
லுக்கு	-2687
ார்த்த	-2688
▁அதில்	-2689
▁பள்ளி	-2690
▁மாநகர	-2691
ுட்பட்ட	-2692
▁ஆகியவை	-2693
▁இறைவன்	-2694
▁உருவாக	-2695
▁மைக்ரோ	-2696
▁வைத்து	-2697
▁வகையில்	-2698
▁விரும்ப	-2699
▁சட்டமன்ற	-2700
▁நாட்காட்ட	-2701
▁வில்லியம்	-2702
▁காணப்படுகிறது	-2703
eb	-2704
200	-2705
art	-2706
▁31	-2707
ாசன்	-2708
ாப்ப	-2709
▁எண்	-2710
▁இயல்ப	-2711
ையிலும்	-2712
▁சாதாரண	-2713
▁புரட்சி	-2714
▁முன்னர்	-2715
▁இந்தியப்	-2716
▁போர்த்துக்க	-2717
வக	-2718
▁)	-2719
ாளி	-2720
ோம்	-2721
▁ஜி	-2722
▁லெ	-2723
▁ல்	-2724
மொழி	-2725
ொருள	-2726
▁179	-2727
▁2015	-2728
▁உலோக	-2729
▁பந்த	-2730
த்தைத்	-2731
▁அமைதி	-2732
▁அருள்	-2733
▁இவரின்	-2734
குதியில்	-2735
▁ஏற்படும்	-2736
▁கட்டுப்ப	-2737
▁கொண்டார்	-2738
▁கட்சியின்	-2739
▁0	-2740
ial	-2741
our	-2742
லால்	-2743
▁சிக	-2744
திக்க	-2745
மிக்க	-2746
▁1972	-2747
▁நிலந	-2748
▁பதிவ	-2749
▁பத்த	-2750
▁விஜய	-2751
▁Tamil	-2752
▁தலைமை	-2753
▁பாக்க	-2754
த்துவம்	-2755
ல்களில்	-2756
▁அதற்கு	-2757
▁தபால்த	-2758
▁பட்டம்	-2759
▁சேர்ந்து	-2760
▁அடிப்படையாக	-2761
ரெ	-2762
▁v	-2763
ati	-2764
▁36	-2765
நாள்	-2766
புரி	-2767
ில்ல	-2768
▁தம்	-2769
▁தாள	-2770
▁வழி	-2771
ட்சும	-2772
▁அரிய	-2773
▁சிந்த	-2774
▁நடந்த	-2775
▁பாண்ட	-2776
▁விரிவ	-2777
த்திரம்	-2778
▁இந்தப்	-2779
▁வடிவம்	-2780
▁தமிழ்ப்	-2781
▁துறைமுக	-2782
▁சம்பந்தர்	-2783
▁மென்பொருள்	-2784
2,	-2785
என்	-2786
ேசு	-2787
▁Ch	-2788
ரான்	-2789
ாவிட	-2790
▁நடு	-2791
க்கான	-2792
பூர்வ	-2793
ராகப்	-2794
▁1983	-2795
▁விழு	-2796
▁செங்க	-2797
▁அரசின்	-2798
▁எடுக்க	-2799
▁பகுதிய	-2800
▁மிகப்பெ	-2801
▁அவற்றின்	-2802
▁தமிழறிஞர்	-2803
▁எழுதப்பட்ட	-2804
▁சை	-2805
▁இளவ	-2806
▁மணி	-2807
▁மின	-2808
ாவூர்	-2809
▁ஆக்க	-2810
▁உச்ச	-2811
ரியின்	-2812
▁தீவிர	-2813
ங்களைப்	-2814
ிற்கும்	-2815
▁ஆகவும்	-2816
▁உயிரின	-2817
▁எதிரான	-2818
▁படைத்த	-2819
▁போட்டிய	-2820
▁நாடுகளின்	-2821
▁நிலநடுக்க	-2822
ையிலிருந்து	-2823
▁கண்டுபிடிக்க	-2824
சூ	-2825
ஞ்	-2826
▁/	-2827
ட்க	-2828
வாய	-2829
ிலி	-2830
ுவத	-2831
▁டொ	-2832
ந்த்	-2833
ப்ட்	-2834
▁சுக	-2835
ாய்வு	-2836
▁1991	-2837
▁1994	-2838
▁1997	-2839
▁கொலை	-2840
▁சுரு	-2841
▁சூலை	-2842
▁பலர்	-2843
▁பெரி	-2844
▁வியா	-2845
▁வெவ்	-2846
லங்கள்	-2847
▁குண்ட	-2848
▁விண்க	-2849
▁வியட்	-2850
▁அழுத்த	-2851
▁மன்னன்	-2852
▁அப்போது	-2853
▁தொடர்பு	-2854
▁பதிப்பு	-2855
▁மைக்ரோசா	-2856
="	-2857
மம்	-2858
ஸ்வ	-2859
▁Un	-2860
▁எண	-2861
▁யோ	-2862
ல்லை	-2863
▁சுழ	-2864
▁தடை	-2865
▁ரூப	-2866
ச்சார	-2867
ன்பது	-2868
▁2014	-2869
▁முனை	-2870
▁கல்வெ	-2871
▁முன்ப	-2872
கத்தின்	-2873
ாட்டுத்	-2874
ாவுக்கு	-2875
▁படுகொலை	-2876
▁தயாரிக்க	-2877
▁g	-2878
ory	-2879
▁Ar	-2880
சார்	-2881
ட்டா	-2882
▁இதை	-2883
▁யூத	-2884
▁வரி	-2885
க்கல்	-2886
நாதர்	-2887
▁1999	-2888
▁அவன்	-2889
▁தோல்	-2890
ம்பரிய	-2891
ேந்திர	-2892
▁கடைசி	-2893
▁வரையற	-2894
▁உலகில்	-2895
▁சிதம்ப	-2896
▁புரட்ச	-2897
▁காங்கிர	-2898
▁தீர்த்த	-2899
▁வேண்டிய	-2900
▁என்பவற்ற	-2901
▁டிசம்பர்	-2902
▁உள்நாட்டு	-2903
▁ஆரம்பமானது	-2904
▁வட்டத்தில்	-2905
.0	-2906
ud	-2907
ுந	-2908
்ட்	-2909
க்கண	-2910
ரைப்	-2911
ழுது	-2912
▁அதை	-2913
▁அலை	-2914
▁ஆன்	-2915
▁சுய	-2916
▁பயன	-2917
▁1971	-2918
▁வலைய	-2919
ப்பான்	-2920
ப்பில்	-2921
ித்திய	-2922
▁வாழ்க	-2923
▁அம்மன்	-2924
▁காணலாம்	-2925
▁பின்வரு	-2926
▁பெற்றவர்	-2927
▁போட்டியில்	-2928
.3	-2929
ஜா	-2930
ரக	-2931
ணர்	-2932
மாண	-2933
யன்	-2934
▁ஒல	-2935
▁லீ	-2936
ence	-2937
பிசி	-2938
ம்ஸ்	-2939
▁அணை	-2940
▁அரி	-2941
▁நாத	-2942
▁வேத	-2943
லாமிய	-2944
ையூர்	-2945
▁1965	-2946
▁1987	-2947
▁அண்ண	-2948
▁பால்	-2949
▁போல்	-2950
டுப்பு	-2951
▁காதல்	-2952
▁சகோதர	-2953
▁சிற்ற	-2954
▁தெரிவ	-2955
▁பத்து	-2956
▁இந்தக்	-2957
▁எதிராக	-2958
▁மலையாள	-2959
த்திலேயே	-2960
▁இவருடைய	-2961
▁சப்பானிய	-2962
▁உயரத்தில்	-2963
▁எண்ணிக்கை	-2964
▁தேர்தலில்	-2965
▁பாக்கித்த	-2966
ப்படுகிறார்	-2967
▁[	-2968
ிட்ச	-2969
ிந்த	-2970
▁இஸ்	-2971
▁1960	-2972
▁1970	-2973
▁1998	-2974
▁அத்த	-2975
▁சாதன	-2976
▁நாணய	-2977
▁இரத்த	-2978
▁சமயம்	-2979
▁தேர்வ	-2980
▁நுட்ப	-2981
ுக்குக்	-2982
▁இந்நகர	-2983
▁கடவுள்	-2984
▁நூலகம்	-2985
▁கொடுத்த	-2986
▁பொறுப்ப	-2987
▁உசாத்துணை	-2988
85	-2989
ev	-2990
மூல	-2991
ிமா	-2992
▁2,	-2993
▁An	-2994
▁On	-2995
▁by	-2996
▁சது	-2997
▁1995	-2998
▁1996	-2999
▁2013	-3000
▁அந்ந	-3001
▁கனடா	-3002
▁சஞ்ச	-3003
▁கோவில	-3004
▁சனவரி	-3005
▁தெரிய	-3006
▁விவில	-3007
▁சட்டம்	-3008
▁நாட்டில்	-3009
▁பாரம்பரிய	-3010
▁பொருட்கள்	-3011
▁அரசியல்வாதிகள்	-3012
▁கருதப்படுகிறது	-3013
ob	-3014
சம்	-3015
ழுவ	-3016
▁40	-3017
▁மட	-3018
ச்செ	-3019
ன்கு	-3020
ன்றி	-3021
ாடல்	-3022
▁பசு	-3023
▁பரு	-3024
▁வைர	-3025
க்கர்	-3026
ிக்கோ	-3027
ையைத்	-3028
▁1947	-3029
▁2012	-3030
▁தண்ட	-3031
ட்டுப்	-3032
த்தினை	-3033
த்தும்	-3034
▁காண்க	-3035
▁திரைய	-3036
▁பாரசீ	-3037
▁மீதான	-3038
▁கிலோமீ	-3039
▁அதிகமான	-3040
▁இயற்றிய	-3041
▁இவர்கள்	-3042
▁பறவைகள்	-3043
▁இந்தியக்	-3044
▁மக்கள்தொக	-3045
▁மருத்துவர்	-3046
▁செயற்பாட்டாளர்	-3047
பக	-3048
ment	-3049
▁பாய	-3050
▁வீழ	-3051
ஞ்சல்	-3052
▁1985	-3053
▁அகாத	-3054
▁அமைய	-3055
▁ஆவது	-3056
▁கீழே	-3057
▁வினை	-3058
▁இடையே	-3059
▁தோற்க	-3060
▁மூழ்க	-3061
▁பிரச்ச	-3062
ிகளுக்கு	-3063
▁இவ்வூர்	-3064
▁தொகுப்பு	-3065
▁வெவ்வேறு	-3066
▁தலைமையில்	-3067
▁குழந்தைகள்	-3068
▁நூற்றாண்டின்	-3069
▁மெய்யியலாளர்	-3070
.6	-3071
ex	-3072
ate	-3073
மிட	-3074
tics	-3075
ஸ்தான	-3076
ினான்	-3077
ியைப்	-3078
▁எட்ட	-3079
▁நடுவ	-3080
ப்படம்	-3081
ரும்பு	-3082
வாகும்	-3083
▁பொன்ன	-3084
▁ஆண்கள்	-3085
்களையும்	-3086
த்திற்கான	-3087
▁பன்னாட்டு	-3088
▁வகைப்பாடு	-3089
▁போட்டிகளில்	-3090
▁தென்னிந்தியத்	-3091
▁வெளியிடப்பட்டது	-3092
20	-3093
oh	-3094
ீக	-3095
விட	-3096
ாப்	-3097
ோள்	-3098
▁ஆப	-3099
▁ஏழ	-3100
▁ரே	-3101
ல்லி	-3102
▁Pro	-3103
▁அரை	-3104
▁மரண	-3105
ரும்ப	-3106
ிகளாக	-3107
ின்று	-3108
▁1975	-3109
▁தட்ட	-3110
▁பங்க	-3111
▁பருவ	-3112
ுகின்ற	-3113
▁இறுதி	-3114
▁சந்தி	-3115
▁முனிவ	-3116
▁வசிக்க	-3117
--------	-3118
▁நகரங்கள்	-3119
▁தொலைவிலும்	-3120
▁பின்வருமாறு	-3121
▁இருக்கின்றது	-3122
.4	-3123
ue	-3124
ணிய	-3125
தர்	-3126
மலை	-3127
ரசு	-3128
ாவா	-3129
ிகோ	-3130
▁லி	-3131
ராஜா	-3132
▁ஆண்	-3133
▁ஆவண	-3134
▁நுக	-3135
மானம்	-3136
ர்ப்ப	-3137
ையால்	-3138
▁1973	-3139
▁1974	-3140
▁1977	-3141
▁1980	-3142
▁1986	-3143
▁என்க	-3144
ரித்து	-3145
ுகளைப்	-3146
ுக்குத்	-3147
▁பாடகர்	-3148
▁பின்பு	-3149
▁இணைப்பு	-3150
▁கட்டுரை	-3151
▁கருநாடக	-3152
▁விகிதம்	-3153
▁செய்தார்	-3154
ப்பட்டுள்ள	-3155
▁மக்களவைத்	-3156
▁புகழ்பெற்ற	-3157
▁மிகப்பெரிய	-3158
மோ	-3159
▁ற	-3160
ure	-3161
னைத்	-3162
ீட்ட	-3163
▁சின	-3164
▁தெள	-3165
ாட்டை	-3166
ொண்டு	-3167
▁1948	-3168
▁1984	-3169
▁1993	-3170
▁2016	-3171
▁ஒட்ட	-3172
▁குழு	-3173
▁நெரு	-3174
▁மலர்	-3175
றுப்பு	-3176
ற்றுள்	-3177
▁ஆகியன	-3178
▁குமார	-3179
▁கேட்ட	-3180
▁ஆகஸ்ட்	-3181
▁இல்லாத	-3182
▁கலைக்க	-3183
▁காயமடை	-3184
▁சுற்றி	-3185
▁முறையே	-3186
▁வியட்ந	-3187
▁வந்தார்	-3188
ந்துள்ளது	-3189
▁இலக்கணம்	-3190
ிருக்கிறது	-3191
▁இருந்தார்	-3192
▁ஆண்டுகளுக்கு	-3193
▁கணிதவியலாளர்	-3194
50	-3195
கும	-3196
்டு	-3197
▁ஆழ	-3198
▁இண	-3199
பெரு	-3200
ுதாய	-3201
ப்பர்	-3202
ிந்து	-3203
▁1988	-3204
▁அமீர	-3205
▁உண்ட	-3206
▁மாலை	-3207
கர்த்த	-3208
▁அறிவு	-3209
▁கழகம்	-3210
▁தாண்ட	-3211
▁பார்வ	-3212
▁வீதம்	-3213
ப்பள்ளி	-3214
▁கதைகள்	-3215
▁தென்னா	-3216
▁பொழுது	-3217
▁வகையான	-3218
வர்களின்	-3219
▁கிடைத்த	-3220
▁கொழும்ப	-3221
ிருந்தார்	-3222
▁நகராட்சி	-3223
▁சுப்பிரமண	-3224
▁துருக்கிய	-3225
▁வழங்கப்பட்டது	-3226
Th	-3227
hy	-3228
ens	-3229
ram	-3230
ாமா	-3231
ிமீ	-3232
▁0.	-3233
▁En	-3234
▁ஜோ	-3235
▁தக	-3236
ச்சை	-3237
ையின	-3238
▁போக	-3239
த்தல்	-3240
ில்லி	-3241
▁1942	-3242
▁1950	-3243
▁1976	-3244
▁ஆயுத	-3245
▁இடைய	-3246
▁ஒத்த	-3247
▁ஒலிய	-3248
▁தொழி	-3249
கங்கள்	-3250
சுவாமி	-3251
ச்சொல்	-3252
▁2011-	-3253
▁இதற்க	-3254
▁ஜனவரி	-3255
▁புதின	-3256
▁எகிப்த	-3257
▁காந்தி	-3258
▁காரணம்	-3259
▁கொலம்ப	-3260
▁சிவாலய	-3261
▁வானொலி	-3262
மூர்த்தி	-3263
▁இந்துக்	-3264
▁எடுத்து	-3265
▁கவிதைகள்	-3266
▁வெளியிட்டார்	-3267
▁செய்யப்பட்டார்	-3268
3,	-3269
ip	-3270
ok	-3271
up	-3272
மன	-3273
▁h	-3274
ear	-3275
ப்த	-3276
யிர	-3277
றுப	-3278
த்தல	-3279
வரான	-3280
க்குவ	-3281
ையைச்	-3282
▁பதில	-3283
▁மரபு	-3284
▁உயரம்	-3285
▁சிறுவ	-3286
▁தெய்வ	-3287
லிங்கம்	-3288
▁இயற்கை	-3289
▁கலந்து	-3290
▁நோர்வே	-3291
▁பாடல்கள	-3292
▁வானூர்த	-3293
▁சிங்கப்ப	-3294
ப்படவில்லை	-3295
▁தஞ்சாவூர்	-3296
▁தேர்ந்தெடுக்க	-3297
▁அமைக்கப்பட்டது	-3298
ass	-3299
ith	-3300
மாய	-3301
ானா	-3302
ுகு	-3303
ையர்	-3304
ோதைய	-3305
்டர்	-3306
▁எது	-3307
▁துண	-3308
மையாக	-3309
▁அட்ட	-3310
▁இதழ்	-3311
▁கியூ	-3312
▁மரம்	-3313
▁வின்	-3314
▁செல்க	-3315
▁பதிவு	-3316
▁மார்க	-3317
▁விற்ப	-3318
▁அவர்கள	-3319
▁ஆந்திர	-3320
▁வர்த்த	-3321
த்தினால்	-3322
▁இயங்குதள	-3323
▁எண்ணிக்க	-3324
▁சேர்த்து	-3325
▁ஆப்பிரிக்க	-3326
▁கல்லூரியில்	-3327
.)	-3328
.8	-3329
rom	-3330
த்ய	-3331
பிற	-3332
வழி	-3333
▁உள	-3334
தைக்	-3335
த்தே	-3336
ன்மை	-3337
மில்	-3338
ரிமை	-3339
ல்ட்	-3340
ஸ்கோ	-3341
ரியன்	-3342
ிறான்	-3343
ிள்ளை	-3344
ொன்று	-3345
▁1930	-3346
▁1941	-3347
▁1944	-3348
▁1992	-3349
▁அன்ப	-3350
▁அயர்	-3351
▁அரபு	-3352
▁ஆயிர	-3353
▁தேவை	-3354
நாயகர்	-3355
படுத்த	-3356
▁இந்தோ	-3357
▁உலகம்	-3358
▁சொந்த	-3359
▁சோழன்	-3360
▁தரும்	-3361
▁பேச்ச	-3362
▁சமுதாய	-3363
▁நடைபெற	-3364
▁நிறைவே	-3365
▁திருஞான	-3366
▁குறிப்பாக	-3367
▁வெளிவந்தது	-3368
▁இங்கிலாந்து	-3369
▁இயக்கத்தில்	-3370
▁பணியாற்றினார்	-3371
cc	-3372
டா	-3373
ant	-3374
ect	-3375
ern	-3376
htm	-3377
கன்	-3378
னன்	-3379
வகை	-3380
▁ஏத	-3381
▁நை	-3382
▁இப்	-3383
▁வேக	-3384
▁1943	-3385
▁1978	-3386
▁உரைய	-3387
▁சப்த	-3388
▁தனிம	-3389
▁நந்த	-3390
▁நாம்	-3391
ிகளால்	-3392
ிகளைக்	-3393
ிழக்கு	-3394
▁தகவல்	-3395
▁பெண்ண	-3396
ித்தனர்	-3397
▁அகாதமி	-3398
்	-3399
▁	-3400
க	-3401
ி	-3402
ு	-3403
த	-3404
ப	-3405
ர	-3406
ம	-3407
ா	-3408
ட	-3409
ல	-3410
ன	-3411
வ	-3412
ய	-3413
ள	-3414
ை	-3415
ற	-3416
ச	-3417
ந	-3418
.	-3419
இ	-3420
ண	-3421
ெ	-3422
அ	-3423
ே	-3424
,	-3425
ழ	-3426
ோ	-3427
ொ	-3428
ங	-3429
1	-3430
ஆ	-3431
எ	-3432
ூ	-3433
9	-3434
0	-3435
உ	-3436
ீ	-3437
e	-3438
a	-3439
)	-3440
(	-3441
2	-3442
i	-3443
n	-3444
t	-3445
o	-3446
r	-3447
ஒ	-3448
–	-3449
8	-3450
ஸ	-3451
-	-3452
s	-3453
5	-3454
l	-3455
3	-3456
6	-3457
7	-3458
4	-3459
ஜ	-3460
c	-3461
m	-3462
h	-3463
:	-3464
d	-3465
u	-3466
ஞ	-3467
ஏ	-3468
p	-3469
g	-3470
"	-3471
y	-3472
ஐ	-3473
f	-3474
w	-3475
b	-3476
S	-3477
/	-3478
ஷ	-3479
ஈ	-3480
C	-3481
|	-3482
ஊ	-3483
ஓ	-3484
ஹ	-3485
v	-3486
A	-3487
P	-3488
'	-3489
T	-3490
k	-3491
%	-3492
M	-3493
D	-3494
I	-3495
B	-3496
R	-3497
E	-3498
;	-3499
N	-3500
=	-3501
O	-3502
L	-3503
G	-3504
ஃ	-3505
H	-3506
ௌ	-3507
F	-3508
W	-3509
x	-3510
U	-3511
K	-3512
J	-3513
_	-3514
z	-3515
V	-3516
+	-3517
j	-3518
?	-3519
!	-3520
’	-3521
]	-3522
‌	-3523
[	-3524
°	-3525
X	-3526
#	-3527
q	-3528
Y	-3529
”	-3530
&	-3531
‘	-3532
‎	-3533
>	-3534
“	-3535
{	-3536
}	-3537
Z	-3538
é	-3539
—	-3540
<	-3541
*	-3542
•	-3543
$	-3544
−	-3545
Q	-3546
\	-3547
ஔ	-3548
μ	-3549
Δ	-3550
ا	-3551
→	-3552
á	-3553
α	-3554
′	-3555
ο	-3556
ρ	-3557
ό	-3558
о	-3559
‍	-3560
ü	-3561
ر	-3562
κ	-3563
ς	-3564
ی	-3565
ö	-3566
ā	-3567
ū	-3568
ι	-3569
π	-3570
н	-3571
~	-3572
É	-3573
т	-3574
س	-3575
`	-3576
ä	-3577
а	-3578
ن	-3579
و	-3580
ஶ	-3581
​	-3582
×	-3583
τ	-3584
и	-3585
ل	-3586
ර	-3587
ි	-3588
﻿	-3589
æ	-3590
ī	-3591
Ε	-3592
η	-3593
θ	-3594
ν	-3595
в	-3596
е	-3597
с	-3598
א	-3599
י	-3600
ب	-3601
ت	-3602
ج	-3603
र	-3604
ा	-3605
ල	-3606
්	-3607
ු	-3608
⁄	-3609
ß	-3610
í	-3611
ó	-3612
Κ	-3613
υ	-3614
к	-3615
د	-3616
ق	-3617
م	-3618
র	-3619
ు	-3620
ද	-3621
ම	-3622
ව	-3623
ා	-3624
®	-3625
·	-3626
à	-3627
ã	-3628
ç	-3629
ø	-3630
č	-3631
ĩ	-3632
ş	-3633
ũ	-3634
γ	-3635
ε	-3636
п	-3637
ו	-3638
מ	-3639
נ	-3640
ف	-3641
द	-3642
प	-3643
े	-3644
া	-3645
ি	-3646
క	-3647
£	-3648
­	-3649
±	-3650
å	-3651
ô	-3652
ł	-3653
ί	-3654
λ	-3655
φ	-3656
ω	-3657
С	-3658
д	-3659
л	-3660
р	-3661
ь	-3662
я	-3663
ת	-3664
ي	-3665
ं	-3666
क	-3667
्	-3668
ব	-3669
ম	-3670
௦	-3671
డ	-3672
ప	-3673
ూ	-3674
്	-3675
ණ	-3676
ත	-3677
ප	-3678
ය	-3679
ස	-3680
₹	-3681
≠	-3682
仮	-3683
名	-3684
平	-3685
Í	-3686
Ö	-3687
è	-3688
ð	-3689
õ	-3690
ú	-3691
ý	-3692
ă	-3693
ē	-3694
ś	-3695
ɪ	-3696
̊	-3697
Λ	-3698
Ν	-3699
ή	-3700
β	-3701
δ	-3702
ζ	-3703
σ	-3704
ϊ	-3705
В	-3706
П	-3707
г	-3708
з	-3709
ҷ	-3710
ӣ	-3711
ְ	-3712
ִ	-3713
ּ	-3714
ב	-3715
ט	-3716
ס	-3717
ح	-3718
ز	-3719
ى	-3720
ک	-3721
न	-3722
ि	-3723
ी	-3724
ु	-3725
ू	-3726
ौ	-3727
ং	-3728
ক	-3729
ন	-3730
য	-3731
শ	-3732
ু	-3733
্	-3734
ం	-3735
ి	-3736
్	-3737
സ	-3738
ග	-3739
න	-3740
හ	-3741
ෙ	-3742
€	-3743
√	-3744
い	-3745
う	-3746
ぐ	-3747
せ	-3748
と	-3749
ま	-3750
ろ	-3751
力	-3752
加	-3753
国	-3754
字	-3755
床	-3756
明	-3757
校	-3758
流	-3759
源	-3760
直	-3761
知	-3762
路	-3763
道	-3764
電	-3765
黒	-3766
@	-3767
«	-3768
»	-3769
Á	-3770
Ä	-3771
Ú	-3772
Ü	-3773
ë	-3774
ï	-3775
ñ	-3776
÷	-3777
Ā	-3778
ć	-3779
Ţ	-3780
ţ	-3781
ž	-3782
ƒ	-3783
ɛ	-3784
ɨ	-3785
ʊ	-3786
ˈ	-3787
ˌ	-3788
ː	-3789
́	-3790
Έ	-3791
Α	-3792
Η	-3793
Ξ	-3794
Π	-3795
Σ	-3796
Χ	-3797
Ω	-3798
ά	-3799
ύ	-3800
Т	-3801
б	-3802
ж	-3803
м	-3804
у	-3805
ц	-3806
ч	-3807
ъ	-3808
ы	-3809
ё	-3810
ֵ	-3811
ָ	-3812
ד	-3813
ה	-3814
כ	-3815
ם	-3816
ן	-3817
ר	-3818
ء	-3819
آ	-3820
إ	-3821
ص	-3822
ه	-3823
ٹ	-3824
پ	-3825
گ	-3826
ग	-3827
ठ	-3828
ड	-3829
त	-3830
म	-3831
य	-3832
ल	-3833
श	-3834
स	-3835
ह	-3836
অ	-3837
খ	-3838
গ	-3839
জ	-3840
ণ	-3841
প	-3842
ভ	-3843
হ	-3844
ী	-3845
ে	-3846
ৰ	-3847
પ	-3848
ર	-3849
ી	-3850
ૂ	-3851
௧	-3852
అ	-3853
ఒ	-3854
గ	-3855
చ	-3856
ట	-3857
త	-3858
ర	-3859
ಂ	-3860
ಗ	-3861
ಮ	-3862
ರ	-3863
ಳ	-3864
ು	-3865
ೂ	-3866
ം	-3867
അ	-3868
ക	-3869
ഗ	-3870
ത	-3871
ദ	-3872
മ	-3873
ര	-3874
ല	-3875
വ	-3876
ശ	-3877
ാ	-3878
ീ	-3879
ං	-3880
අ	-3881
ක	-3882
ජ	-3883
ධ	-3884
බ	-3885
භ	-3886
ී	-3887
ූ	-3888
ේ	-3889
ḍ	-3890
ḷ	-3891
ṃ	-3892
ṇ	-3893
ἶ	-3894
Ἱ	-3895
ὸ	-3896
∂	-3897
∞	-3898
∫	-3899
≈	-3900
⋅	-3901
♠	-3902
♣	-3903
♥	-3904
♦	-3905
え	-3906
か	-3907
き	-3908
こ	-3909
さ	-3910
た	-3911
ち	-3912
は	-3913
ば	-3914
び	-3915
ふ	-3916
ょ	-3917
ん	-3918
イ	-3919
ェ	-3920
チ	-3921
ナ	-3922
マ	-3923
ロ	-3924
ン	-3925
ー	-3926
三	-3927
上	-3928
也	-3929
交	-3930
京	-3931
倍	-3932
入	-3933
公	-3934
出	-3935
刺	-3936
勇	-3937
北	-3938
十	-3939
半	-3940
叉	-3941
双	-3942
口	-3943
司	-3944
哲	-3945
回	-3946
園	-3947
塔	-3948
大	-3949
婆	-3950
安	-3951
寿	-3952
尔	-3953
峰	-3954
島	-3955
川	-3956
康	-3957
恩	-3958
成	-3959
晋	-3960
栽	-3961
水	-3962
沢	-3963
油	-3964
泉	-3965
洲	-3966
海	-3967
温	-3968
漢	-3969
澤	-3970
片	-3971
田	-3972
盆	-3973
立	-3974
端	-3975
纳	-3976
罗	-3977
習	-3978
花	-3979
茉	-3980
茶	-3981
莉	-3982
藤	-3983
補	-3984
賞	-3985
身	-3986
迪	-3987
都	-3988
野	-3989
面	-3990
风	-3991
马	-3992
鮭	-3993
법	-3994
상	-3995
￼	-3996
