<unk>	0
<s>	0
</s>	0
,	-3.4121
.	-3.61863
▁	-3.95577
▁ve	-4.07254
k	-4.42738
i	-4.47687
n	-4.49459
e	-4.55229
▁bir	-4.62175
a	-4.66105
▁için	-4.95565
s	-5.06225
ı	-5.07944
t	-5.08396
ya	-5.22365
r	-5.26759
u	-5.28759
ler	-5.36188
li	-5.36652
lı	-5.42127
lar	-5.43285
da	-5.43401
de	-5.45004
:	-5.47099
ları	-5.48508
l	-5.50164
in	-5.53411
)	-5.54821
m	-5.55037
▁K	-5.56164
en	-5.57216
an	-5.575
z	-5.58077
▁S	-5.60453
'	-5.65009
-	-5.6946
ma	-5.71016
y	-5.71819
▁ile	-5.73151
leri	-5.73208
si	-5.76052
▁A	-5.77107
▁(	-5.81627
o	-5.8438
er	-5.87833
▁-	-5.95064
▁D	-5.95074
▁M	-6.01631
▁Bu	-6.03578
ki	-6.04528
▁bu	-6.07409
f	-6.09801
me	-6.11914
dan	-6.12061
g	-6.12657
d	-6.13271
▁C	-6.14418
le	-6.15496
ü	-6.16389
▁T	-6.16887
den	-6.17026
sı	-6.22446
al	-6.23221
▁P	-6.2333
ar	-6.24005
p	-6.24006
dir	-6.2932
ç	-6.31957
▁olarak	-6.32207
ye	-6.3437
▁E	-6.3596
ş	-6.36886
▁de	-6.37014
ta	-6.39178
te	-6.40144
el	-6.40562
▁b	-6.40638
nın	-6.41094
lik	-6.41279
la	-6.41359
▁her	-6.42585
▁G	-6.42855
▁da	-6.43027
ın	-6.44234
▁O	-6.44894
ne	-6.47208
▁daha	-6.47952
na	-6.49057
un	-6.4936
R	-6.50793
h	-6.51628
▁en	-6.5354
▁s	-6.53756
ir	-6.53805
▁B	-6.55481
▁gibi	-6.56809
▁k	-6.56964
ik	-6.57267
c	-6.57331
on	-6.57517
lık	-6.59007
▁Y	-6.6073
v	-6.60864
A	-6.63415
lu	-6.63419
M	-6.63996
▁ya	-6.64691
▁F	-6.65975
b	-6.66534
et	-6.68122
▁olan	-6.68463
▁çok	-6.68968
lama	-6.71625
il	-6.71917
P	-6.72762
D	-6.75586
▁5	-6.75683
di	-6.7575
▁H	-6.75904
▁3	-6.76629
re	-6.77897
C	-6.80219
T	-6.82382
nin	-6.8275
dır	-6.85176
2	-6.85179
B	-6.85968
▁p	-6.8672
ra	-6.87736
or	-6.88658
▁fazla	-6.89529
ce	-6.90673
▁İ	-6.91818
▁a	-6.91928
iz	-6.91978
▁iyi	-6.92044
▁4	-6.93011
E	-6.93666
▁,	-6.95553
yi	-6.97956
O	-6.98702
at	-6.99123
S	-6.99653
▁1	-6.9966
ır	-7.0041
▁zaman	-7.00486
▁Hotel	-7.00904
ol	-7.01647
ca	-7.01712
maktadır	-7.02351
▁vardır	-7.03401
3	-7.04016
6	-7.04729
▁g	-7.05407
▁_	-7.05918
lan	-7.05991
lerin	-7.06426
ini	-7.07636
ri	-7.08381
▁yüksek	-7.08484
▁Bir	-7.08859
▁d	-7.09138
▁2	-7.09479
siz	-7.1025
;	-7.11039
ay	-7.11251
mak	-7.11345
larını	-7.12583
▁özel	-7.13142
dı	-7.1328
ların	-7.13448
hangi	-7.13742
L	-7.13883
▁t	-7.14128
K	-7.15137
▁sonra	-7.16779
ge	-7.16971
ni	-7.18891
▁o	-7.19179
▁tüm	-7.19378
asyon	-7.19905
▁sa	-7.20429
is	-7.20442
4	-7.20557
1	-7.21842
yla	-7.21905
x	-7.2227
?	-7.22318
ur	-7.22377
▁I	-7.22804
nı	-7.23895
▁N	-7.23974
im	-7.24659
ah	-7.24685
9	-7.25085
w	-7.25401
▁büyük	-7.25555
um	-7.25853
▁U	-7.26779
▁e	-7.27262
▁iş	-7.2782
tan	-7.28104
yı	-7.28526
sel	-7.291
▁su	-7.29425
▁tarafın	-7.2954
ci	-7.29606
niz	-7.29849
mek	-7.30889
st	-7.31588
▁diğer	-7.31715
I	-7.31942
G	-7.32284
▁yer	-7.33091
ap	-7.33696
tir	-7.34816
lü	-7.34846
▁kadar	-7.35032
▁R	-7.35809
5	-7.36044
mış	-7.36501
▁W	-7.3694
F	-7.37054
uz	-7.37472
ter	-7.37708
nda	-7.38549
ak	-7.39274
es	-7.39613
ği	-7.39653
0	-7.39703
▁veri	-7.41385
▁an	-7.41425
tik	-7.42293
os	-7.4309
sa	-7.43761
leme	-7.43819
cı	-7.44285
▁kullan	-7.44311
▁çalışma	-7.44679
it	-7.44795
▁h	-7.44829
İ	-7.45295
▁Ç	-7.45604
▁sahip	-7.45696
▁c	-7.45868
▁Çin	-7.46172
8	-7.46526
ve	-7.47228
lerini	-7.47442
H	-7.47508
len	-7.47769
▁m	-7.48271
▁al	-7.48576
ken	-7.49232
▁yeni	-7.49414
yor	-7.49588
▁önce	-7.49664
...	-7.50015
▁10	-7.50614
arak	-7.50665
▁yapı	-7.51009
se	-7.51733
inde	-7.52068
▁:	-7.52243
ün	-7.52923
mm	-7.53093
bo	-7.53424
▁şekil	-7.53602
tır	-7.54581
▁Pe	-7.54647
larda	-7.55679
ka	-7.55925
ör	-7.56298
▁Su	-7.56353
j	-7.56441
ok	-7.56985
bi	-7.57704
▁göre	-7.57762
▁Her	-7.58444
ot	-7.59474
V	-7.59755
ten	-7.60097
"	-7.60179
▁olduğu	-7.60828
mektedir	-7.61568
▁arasında	-7.62122
▁yılında	-7.62151
▁Eğ	-7.6231
ebilir	-7.62515
▁içinde	-7.62862
▁Ş	-7.62928
mi	-7.6361
U	-7.64086
▁i	-7.64158
▁bilgi	-7.65212
7	-7.65237
yum	-7.65459
▁f	-7.65765
▁nasıl	-7.66662
▁var	-7.66797
▁2019	-7.66846
▁ha	-7.67198
▁ne	-7.67589
dur	-7.67703
ing	-7.68433
▁Ma	-7.69362
▁oda	-7.70499
!	-7.71424
▁Yüksek	-7.71424
▁ilgili	-7.71424
▁bulunmaktadır	-7.71455
▁şey	-7.71484
▁Makinesi	-7.71496
▁L	-7.7165
▁Ta	-7.71855
▁olmak	-7.71994
co	-7.72454
us	-7.73144
ine	-7.73182
▁"	-7.73594
daki	-7.74199
va	-7.74439
▁En	-7.746
çok	-7.74743
ut	-7.7489
▁ş	-7.75812
▁ürün	-7.76193
▁ücret	-7.76424
▁hızlı	-7.76424
▁sadece	-7.76424
▁uzaklıkta	-7.76426
▁fiyat	-7.76429
▁üretim	-7.76457
▁Motor	-7.76498
ch	-7.76605
▁Z	-7.77574
▁kendi	-7.7768
ması	-7.77796
ey	-7.77834
tif	-7.79046
per	-7.79113
▁Co	-7.79265
▁göster	-7.79957
▁orta	-7.79959
ic	-7.8004
▁malzeme	-7.80478
sini	-7.80703
▁dakika	-7.80943
▁No	-7.81457
▁doğru	-7.81512
▁yıl	-7.8167
▁yıldız	-7.81687
▁farklı	-7.8169
▁çelik	-7.81691
▁hakkında	-7.81702
▁kullanılır	-7.81715
▁tek	-7.818
▁makinesi	-7.81821
▁olduğunu	-7.81862
▁kal	-7.81878
▁merkezi	-7.82256
▁geliştirme	-7.8227
▁yan	-7.82336
▁iki	-7.82512
lere	-7.83041
▁ma	-7.83096
▁Ar	-7.83167
▁yanı	-7.84489
▁...	-7.84506
▁hazır	-7.84647
liği	-7.84684
ul	-7.84762
▁20	-7.85189
lara	-7.8528
▁üzerinde	-7.86052
▁at	-7.86149
▁açık	-7.86404
du	-7.86613
sinde	-7.8682
▁para	-7.86921
ad	-7.86977
ck	-7.87168
▁Özel	-7.87204
▁hasta	-7.87236
▁uygun	-7.87242
▁dünya	-7.87244
▁küçük	-7.87257
▁doğa	-7.87259
▁yardımcı	-7.87265
▁Otel	-7.87269
▁Re	-7.87287
▁otel	-7.87342
▁bulunan	-7.874
▁bağlı	-7.87493
▁gelen	-7.87553
▁baz	-7.87603
▁yap	-7.87619
▁kar	-7.87831
▁ama	-7.88003
Y	-7.88158
▁ay	-7.88677
▁Ak	-7.89019
zi	-7.89302
mız	-7.90406
go	-7.91569
sını	-7.91581
▁St	-7.91602
▁sıra	-7.92867
▁değil	-7.92929
▁gerek	-7.92972
▁önemli	-7.93045
▁Yeni	-7.93169
▁kazan	-7.93195
▁sahiptir	-7.93232
▁kişisel	-7.93243
▁J	-7.93574
▁eş	-7.93575
▁sağlar	-7.93712
com	-7.93714
▁X	-7.93905
▁ç	-7.94181
ık	-7.94742
▁km	-7.94932
ının	-7.95209
▁15	-7.9557
▁iç	-7.9561
yle	-7.96236
ğ	-7.96558
ını	-7.96676
ecek	-7.97152
▁ol	-7.97953
▁hizmet	-7.98345
esi	-7.98627
N	-7.99324
▁birlikte	-7.99383
▁yakın	-7.99385
PVC	-7.99392
▁tamam	-7.99403
▁hava	-7.9946
▁araç	-7.99511
▁geri	-7.99715
▁etmek	-8.00183
▁ev	-8.00263
▁Al	-8.0052
▁top	-8.01422
larında	-8.01503
▁De	-8.01725
▁oteller	-8.02049
ür	-8.02171
ında	-8.02393
00	-8.02899
▁9	-8.0299
▁6	-8.02992
ha	-8.0346
▁ön	-8.03764
W	-8.04122
üz	-8.04217
res	-8.04537
20	-8.04573
nde	-8.04691
abilir	-8.05179
▁odaları	-8.05284
ül	-8.05872
▁kolay	-8.05941
▁olabilir	-8.05978
▁Android	-8.06041
▁geniş	-8.06042
▁derece	-8.06042
▁profesyonel	-8.06046
▁ekran	-8.06046
▁benzer	-8.06052
▁Ayrıca	-8.06118
▁hal	-8.06148
ucu	-8.06175
▁gerekir	-8.06219
▁sık	-8.06405
▁gün	-8.06475
▁fre	-8.06531
ber	-8.06708
▁in	-8.06753
▁sistemi	-8.07057
çe	-8.07103
ton	-8.07224
▁biz	-8.0749
ent	-8.07807
▁la	-8.08261
ö	-8.08294
▁alan	-8.08313
▁ürünler	-8.08418
net	-8.08972
▁Be	-8.09014
▁8	-8.09378
▁alanı	-8.09539
▁Ya	-8.09635
▁ana	-8.0969
emin	-8.09982
▁An	-8.10137
larına	-8.10437
▁yağ	-8.10811
▁ağ	-8.10931
▁ilk	-8.1096
▁karşı	-8.11107
▁Ro	-8.11248
▁sun	-8.11683
manız	-8.11969
lığı	-8.12636
▁kur	-8.1267
▁son	-8.12751
▁işlem	-8.12798
▁düşü	-8.12836
▁televizyon	-8.13025
▁mümkün	-8.13184
▁Avrupa	-8.13184
▁destek	-8.13185
▁devam	-8.13186
▁ancak	-8.13187
▁olmayan	-8.13195
▁oldu	-8.1321
▁çeşitli	-8.1327
▁satı	-8.13273
▁aynı	-8.13298
▁diş	-8.13344
▁kullanılan	-8.1336
tal	-8.13437
▁Toz	-8.1354
kaç	-8.13602
▁almak	-8.14183
▁bilgileri	-8.14585
▁Bar	-8.14907
▁bölge	-8.15421
▁7	-8.15438
iyet	-8.1567
▁ek	-8.16401
▁Wi	-8.16475
▁tür	-8.1651
kü	-8.16883
ışı	-8.17247
▁sunar	-8.17556
ron	-8.17672
▁gel	-8.17871
▁parça	-8.19144
geo	-8.19208
ed	-8.19307
sine	-8.19314
ına	-8.19651
iş	-8.20331
osyal	-8.20875
▁balataları	-8.20876
▁fotoğraf	-8.20876
▁Ürün	-8.20877
▁çoğu	-8.20877
▁İstanbul	-8.20898
▁mükemmel	-8.20901
▁üç	-8.20903
▁araba	-8.20905
▁cam	-8.20973
▁kapa	-8.20974
▁olur	-8.20981
▁saat	-8.21229
▁eğitim	-8.21285
▁kaliteli	-8.21301
▁kasa	-8.21409
rı	-8.21532
▁verme	-8.21686
▁24	-8.21687
ab	-8.22342
ks	-8.22849
▁1.	-8.22852
▁et	-8.22971
az	-8.23059
12	-8.23675
oz	-8.23889
▁Bo	-8.23995
min	-8.24036
ım	-8.25191
zer	-8.25226
▁V	-8.25287
yen	-8.25447
▁sağla	-8.25513
▁kişi	-8.25692
der	-8.26176
▁La	-8.26364
▁ö	-8.26452
lerinde	-8.27044
▁Biz	-8.27089
▁kontrol	-8.27234
▁yüz	-8.27281
Z	-8.27289
▁yol	-8.27435
▁siz	-8.27678
mı	-8.27769
▁hizmetleri	-8.27871
▁Vi	-8.27952
içi	-8.28199
om	-8.28423
ə	-8.28592
▁kuru	-8.28606
▁Ve	-8.28805
▁bile	-8.28808
▁LED	-8.2921
▁üzere	-8.2921
▁renk	-8.29213
▁boru	-8.29215
▁Beyaz	-8.29219
▁vb	-8.29223
▁konaklama	-8.29227
▁Live	-8.29257
▁Antalya	-8.29307
▁satış	-8.29429
su	-8.2969
▁İl	-8.29708
▁kabul	-8.29862
bu	-8.29998
iji	-8.30223
erek	-8.30249
▁ara	-8.30858
fe	-8.31508
ndan	-8.31737
▁Ko	-8.31893
ep	-8.32111
▁müşteri	-8.32532
▁etme	-8.32798
je	-8.32817
▁gerçek	-8.33064
▁Mar	-8.33223
nizi	-8.33768
▁30	-8.34043
▁bi	-8.34296
ong	-8.34554
ip	-8.35004
▁Ra	-8.35083
▁kalite	-8.35192
yan	-8.35376
rada	-8.35379
▁etki	-8.35792
▁San	-8.35828
▁Ö	-8.35834
ince	-8.35846
▁kaynak	-8.36059
nt	-8.36124
(	-8.36406
▁güç	-8.36851
▁sıcak	-8.37188
10	-8.37289
ast	-8.37744
▁geç	-8.37749
▁Ha	-8.37976
▁değer	-8.38053
▁kablo	-8.38181
metre	-8.38217
▁firma	-8.38229
▁web	-8.38289
▁tasarım	-8.38295
▁değiştir	-8.38296
▁escort	-8.38301
▁ilişki	-8.38301
▁model	-8.38301
▁yedek	-8.38301
▁temel	-8.38303
▁Web	-8.38305
▁teknik	-8.38306
▁Çelik	-8.38306
▁beyaz	-8.38315
öşeme	-8.38335
▁boyunca	-8.38348
abilirsiniz	-8.38352
▁duş	-8.38358
sanız	-8.38367
▁çevre	-8.38368
▁tam	-8.38411
▁sunul	-8.38436
▁mesafede	-8.38453
▁toz	-8.38606
▁Kız	-8.38707
▁araştırma	-8.38927
04	-8.39012
ğı	-8.39243
diği	-8.39302
▁oyun	-8.39377
▁test	-8.3939
▁yaş	-8.39556
▁12	-8.39975
▁Di	-8.40063
▁hizmeti	-8.40147
kça	-8.40421
ış	-8.40474
ba	-8.40522
dik	-8.40749
lerde	-8.40774
▁dosya	-8.40921
▁altında	-8.41123
▁banyo	-8.41312
65	-8.41772
▁mi	-8.41806
AS	-8.42301
▁Pro	-8.42336
▁koruma	-8.42355
▁program	-8.43109
▁Fi	-8.43113
▁Ama	-8.433
▁Tam	-8.4348
ğu	-8.43789
▁ku	-8.43824
ga	-8.43918
▁ürünleri	-8.43957
ünü	-8.44098
▁Ben	-8.44515
▁baş	-8.44522
▁değiş	-8.45334
▁kat	-8.45509
unu	-8.46067
▁25	-8.46201
▁do	-8.46533
▁Bi	-8.46655
▁geliştir	-8.46993
mıştır	-8.4701
tı	-8.47265
ön	-8.47866
▁bağ	-8.47961
17	-8.48148
ilmesi	-8.48178
▁z	-8.48184
▁toplam	-8.48193
▁In	-8.4823
▁modern	-8.48253
▁Ayakkabı	-8.48301
▁hareket	-8.48301
▁Eğitim	-8.48301
▁tarih	-8.48301
▁giriş	-8.48301
▁motor	-8.48301
▁Hidroli	-8.48301
▁kahve	-8.48301
▁Ekran	-8.48301
▁Ltd	-8.48304
▁Güç	-8.48304
▁Dünya	-8.48305
rası	-8.48307
▁Mo	-8.48309
▁enerji	-8.48316
▁Site	-8.48336
▁Geri	-8.48345
▁video	-8.48359
▁hem	-8.4837
lük	-8.48374
▁duy	-8.4839
▁sayı	-8.48398
pto	-8.484
▁Kalite	-8.4842
▁olum	-8.48432
▁varsa	-8.4844
▁durum	-8.48503
ız	-8.48568
layın	-8.48603
▁edin	-8.48687
▁Para	-8.48695
Daha	-8.4873
yel	-8.48736
acak	-8.49005
▁201	-8.49037
▁ütü	-8.49304
▁Oyun	-8.4956
▁masa	-8.49587
▁taşı	-8.5018
sına	-8.50273
02	-8.50303
▁zamanda	-8.50354
▁alma	-8.5037
▁Alan	-8.5041
up	-8.50898
mez	-8.51183
sal	-8.51855
▁suna	-8.51977
▁uy	-8.52144
▁uygulama	-8.52422
iyor	-8.52943
▁az	-8.53137
miş	-8.53447
ağı	-8.53599
▁göz	-8.53752
van	-8.53847
▁Pa	-8.54021
▁Ser	-8.54191
▁Ana	-8.54229
▁ki	-8.54485
ob	-8.54685
▁tedavisi	-8.54767
mızda	-8.55142
ebilirsiniz	-8.55248
▁yapar	-8.55263
▁bil	-8.55411
▁fa	-8.55566
ktan	-8.55665
▁Bul	-8.55695
sh	-8.5601
▁olması	-8.56248
fi	-8.56342
gin	-8.56661
▁üst	-8.56691
▁Ba	-8.56779
▁bağlantı	-8.56804
EN	-8.57125
MA	-8.57184
nden	-8.57186
Ü	-8.57389
tık	-8.57428
▁teknoloji	-8.5745
Ş	-8.57473
gu	-8.57478
▁Li	-8.57906
bilir	-8.57944
PC	-8.58213
▁zor	-8.58634
ilmiş	-8.58795
men	-8.58796
▁yapma	-8.58821
bot	-8.5925
▁mevcut	-8.59409
auçuk	-8.59412
▁Türbin	-8.59412
▁vücut	-8.59412
▁yaygın	-8.59412
▁seçenek	-8.59412
▁güzel	-8.59412
▁başarı	-8.59414
▁donatılmış	-8.59414
▁çevrim	-8.5942
laştırıl	-8.59427
▁erişim	-8.59433
▁yok	-8.59435
▁Konuklar	-8.59437
Harita	-8.5944
▁mavi	-8.5944
▁üzerine	-8.59443
mo	-8.59475
▁olacak	-8.59478
▁konusunda	-8.59478
▁otomatik	-8.59498
▁medy	-8.595
▁yatak	-8.59504
▁çalışan	-8.59525
▁metal	-8.59549
▁eder	-8.59573
▁üreticisi	-8.59577
posta	-8.59637
▁sayısı	-8.59705
▁Video	-8.59743
▁Poli	-8.59743
▁kayb	-8.59748
▁olun	-8.59775
▁değildir	-8.59795
▁Le	-8.59807
▁IP	-8.59923
ömür	-8.59949
▁sırasın	-8.60058
ers	-8.60157
▁Yap	-8.6023
▁Tedarikçiler	-8.60306
▁Tur	-8.60324
▁tak	-8.60391
og	-8.60398
▁insan	-8.60644
plastik	-8.60668
▁w	-8.6077
▁kor	-8.60778
▁konum	-8.60991
▁Kay	-8.61027
larıyla	-8.61197
lardan	-8.61341
▁plan	-8.61388
▁oluşturma	-8.61558
nun	-8.61773
▁kon	-8.61865
▁üzerinden	-8.61917
▁konu	-8.61923
tür	-8.62206
▁ortak	-8.62262
ko	-8.62399
vir	-8.62579
▁PC	-8.62732
30	-8.62831
App	-8.62904
▁mü	-8.63068
▁Ara	-8.63426
▁ülke	-8.63489
ıcı	-8.63523
15	-8.63691
35	-8.63806
▁içi	-8.64427
mizi	-8.64563
ere	-8.65194
▁üret	-8.65513
tin	-8.65521
▁seri	-8.65688
tomatik	-8.65907
▁Ri	-8.66051
▁18	-8.66153
inci	-8.66245
▁performans	-8.66251
▁Kar	-8.66338
leştirilmiş	-8.66439
▁anti	-8.66756
▁bunu	-8.66847
dü	-8.67004
luk	-8.67063
san	-8.67132
▁ayarla	-8.67199
Fi	-8.67802
▁doku	-8.68112
▁düz	-8.68183
ütün	-8.68194
ex	-8.6822
▁park	-8.68342
▁başka	-8.68348
▁böyle	-8.68435
▁man	-8.68536
rit	-8.68541
yoruz	-8.69197
▁ko	-8.69328
▁servis	-8.6944
yer	-8.69445
aka	-8.69518
▁yat	-8.69646
til	-8.69685
pat	-8.6975
▁Orta	-8.70267
inin	-8.70455
▁Ne	-8.71052
miz	-8.71085
▁uzun	-8.71132
▁özellikle	-8.7117
▁dikkat	-8.71347
▁halin	-8.71426
▁boyut	-8.71513
▁ölçü	-8.71535
▁makine	-8.71629
000	-8.7166
▁kristal	-8.71789
asarım	-8.71828
▁ayrı	-8.71841
▁Top	-8.71846
▁Elektrik	-8.71912
▁Uygulama	-8.71912
▁Basınç	-8.71912
▁Büyük	-8.71912
▁Mutfak	-8.71912
▁Telefon	-8.71912
▁Çubuk	-8.71912
▁güvenilir	-8.71912
▁Turkey	-8.71912
▁Etiket	-8.71913
▁Karbon	-8.71913
▁kadın	-8.71913
▁ödeme	-8.71913
▁Off	-8.71915
▁Gizli	-8.71917
▁sorun	-8.71919
▁Beach	-8.71924
▁kurutma	-8.71925
▁görme	-8.71934
▁nedeniyle	-8.71935
▁ucuz	-8.71935
▁Istanbul	-8.71942
▁dolayı	-8.71942
▁uluslara	-8.71953
işirme	-8.71959
▁temizleme	-8.71966
▁bakır	-8.71977
▁edilir	-8.71981
▁Satış	-8.71998
▁sağlamak	-8.72001
▁sorumlu	-8.72016
▁amacı	-8.72049
▁şehir	-8.72064
▁sağlık	-8.72064
▁adet	-8.7215
▁şehrinde	-8.72218
▁100	-8.72259
▁adım	-8.72336
▁sağ	-8.72373
atör	-8.72376
▁11	-8.7242
▁sert	-8.72437
NC	-8.72579
ard	-8.72592
▁onun	-8.72611
▁Park	-8.72671
▁alanında	-8.72739
▁Gol	-8.72883
▁tesis	-8.72916
lle	-8.73158
▁US	-8.73292
▁kullanımı	-8.73419
▁öz	-8.73433
▁tipi	-8.73541
▁Kur	-8.73886
lığın	-8.74108
▁Ü	-8.74155
▁bakımı	-8.74472
PA	-8.74483
inizi	-8.74531
IN	-8.74644
▁sana	-8.74657
▁Tek	-8.74755
▁don	-8.74793
▁sür	-8.75086
ku	-8.75419
▁200	-8.75568
▁Win	-8.75791
ox	-8.75968
▁ekipman	-8.76209
▁il	-8.76218
▁kan	-8.7623
19	-8.76303
oğ	-8.76361
ıda	-8.7643
06	-8.76636
▁va	-8.76728
▁adı	-8.76936
mer	-8.76978
elde	-8.77159
▁işlemi	-8.77199
▁tedavi	-8.77449
▁seç	-8.78237
▁telefon	-8.78351
met	-8.78456
▁kullanı	-8.78589
▁süre	-8.7859
27	-8.78924
▁bulun	-8.7906
▁onları	-8.79107
yorum	-8.79158
▁miktar	-8.79166
üp	-8.79362
lanmış	-8.79383
▁CO	-8.79455
yet	-8.79637
mba	-8.79655
led	-8.79843
▁(3	-8.79854
rak	-8.80076
▁sol	-8.8021
ore	-8.80262
▁kullanım	-8.8058
▁dil	-8.80722
▁tanı	-8.81198
▁Art	-8.81467
▁(2	-8.81588
▁site	-8.82048
▁Val	-8.82192
▁uygulan	-8.82267
ızın	-8.82287
est	-8.82335
do	-8.82718
▁alın	-8.82875
▁deneyim	-8.82897
dür	-8.82924
mesini	-8.8298
▁yüzey	-8.83066
▁ar	-8.83369
lüm	-8.83422
siyon	-8.83582
▁nokta	-8.83632
unuz	-8.83843
X	-8.84126
ıza	-8.84249
▁art	-8.84297
▁tur	-8.84538
▁kı	-8.84561
lamak	-8.84817
veri	-8.85164
▁Bunu	-8.85325
▁proje	-8.85392
▁sistem	-8.85399
▁ni	-8.85409
▁ter	-8.85442
luğu	-8.85509
oad	-8.85527
▁yaşam	-8.85759
ıtma	-8.85772
▁yolu	-8.8583
▁Üniversite	-8.85833
meyi	-8.85948
▁Far	-8.8599
ilikon	-8.86029
işisel	-8.86032
▁temiz	-8.86092
▁taban	-8.86123
▁oluş	-8.86134
▁kas	-8.86134
▁yardım	-8.86135
▁görün	-8.86156
▁Taban	-8.86188
▁Havaalanı	-8.86197
▁Brülörü	-8.86197
▁Endüstri	-8.86197
▁Havalimanı	-8.86197
▁Makinası	-8.86197
▁soğutma	-8.86197
▁şifre	-8.86197
▁istasyonu	-8.86198
▁Çift	-8.86198
▁istiyor	-8.86198
▁fırın	-8.86198
▁tıklayın	-8.86198
▁uzman	-8.86198
▁yürüyüş	-8.86198
▁vida	-8.86198
▁talep	-8.86199
▁yıkama	-8.86199
▁ödül	-8.86199
▁Açık	-8.86199
▁Ancak	-8.86201
▁zarar	-8.86201
▁güneş	-8.86202
▁kök	-8.86202
▁Model	-8.86202
▁tekrar	-8.86202
▁Kayıt	-8.86203
▁elektrik	-8.86203
▁sürekli	-8.86204
▁ticar	-8.86204
▁minibar	-8.86204
▁ihracat	-8.86204
▁film	-8.86206
▁hiç	-8.86207
▁verimli	-8.86207
▁Boru	-8.86209
▁geçirme	-8.8621
▁hafif	-8.86213
OKU	-8.86216
▁Metal	-8.86219
▁dayanıklı	-8.8622
▁mesafesinde	-8.8622
▁meyve	-8.86224
▁Buhar	-8.86225
▁şimdi	-8.86226
▁apartman	-8.86227
▁edilmiştir	-8.8623
▁paslanma	-8.86242
▁İçin	-8.86251
▁Renk	-8.8626
▁izin	-8.86266
▁duvar	-8.86278
▁nedenle	-8.86288
▁Kaynak	-8.86296
▁katman	-8.86296
▁akıl	-8.8632
▁ofis	-8.8632
▁Hava	-8.86382
port	-8.86384
▁Kapa	-8.86388
▁Hız	-8.86403
.1	-8.86411
▁edilen	-8.86431
▁grubu	-8.86478
-1	-8.8648
▁kanal	-8.86492
seniz	-8.8654
▁kullanıcı	-8.86542
▁gelir	-8.86548
▁İş	-8.86568
tığı	-8.86592
Tüm	-8.86595
▁hastalık	-8.86614
▁ise	-8.86642
▁kalın	-8.86664
▁Gaz	-8.86682
▁tah	-8.86733
▁kesme	-8.86736
▁metr	-8.86749
▁yapılan	-8.86753
▁edilme	-8.86776
lnız	-8.86789
▁hata	-8.86815
▁2017	-8.86834
▁Gün	-8.86836
cuz	-8.86837
▁ses	-8.8705
▁Diş	-8.87079
70	-8.87097
▁Sarı	-8.87184
▁(4	-8.87247
tic	-8.87257
▁Özellikler	-8.87257
▁kız	-8.87325
▁parçaları	-8.87403
▁tav	-8.87536
ze	-8.87663
bir	-8.87751
▁Bunun	-8.87799
▁yanında	-8.87805
▁Ev	-8.87834
bil	-8.87992
▁çekim	-8.88005
▁Oda	-8.88008
▁Adı	-8.88077
▁yapmak	-8.88156
▁Uz	-8.88215
▁Ön	-8.88242
altı	-8.8831
▁yorum	-8.88353
▁Ay	-8.88408
▁Sistemi	-8.88458
▁Üreticiler	-8.88534
▁sab	-8.88665
leyen	-8.88744
rmektedir	-8.88766
6)	-8.88774
siyonu	-8.88989
▁uygulaması	-8.89032
▁takım	-8.89185
▁El	-8.89257
▁güven	-8.89279
▁anda	-8.89509
▁oku	-8.8951
▁ad	-8.8954
▁kim	-8.89553
▁yöntemleri	-8.89741
▁sarı	-8.89749
▁Odalar	-8.89836
afa	-8.89871
▁mekan	-8.89932
nız	-8.89955
▁tel	-8.89993
cil	-8.90058
han	-8.90139
▁Son	-8.90148
▁Va	-8.90325
▁endüstri	-8.90631
▁Har	-8.90766
pek	-8.90912
▁Baz	-8.91009
▁Bit	-8.91057
azı	-8.91242
▁birinde	-8.9144
▁özelliği	-8.91727
ınız	-8.91751
kul	-8.919
örü	-8.91903
01	-8.92092
ırma	-8.92532
lme	-8.92587
emer	-8.92592
ih	-8.92696
alıcı	-8.92807
▁SA	-8.93245
ted	-8.93311
lenmiş	-8.93379
▁genç	-8.93659
▁Oto	-8.93709
muz	-8.94406
▁em	-8.94818
▁madde	-8.94828
lenme	-8.94842
matik	-8.94922
▁onlar	-8.95183
masını	-8.95293
diğiniz	-8.95307
ğın	-8.95453
yo	-8.95707
cc	-8.9571
▁işaret	-8.96113
ung	-8.96212
tur	-8.96217
ban	-8.96705
ion	-8.96869
▁şirket	-8.97014
▁güvenli	-8.97031
anık	-8.97067
esin	-8.97092
sto	-8.97415
▁ser	-8.97506
▁50	-8.9785
▁altın	-8.97883
enellikle	-8.98412
▁mak	-8.98441
▁Hi	-8.98485
malıdır	-8.99156
▁odalar	-8.99502
emek	-8.99516
▁yöntem	-8.99553
▁ihtiyaç	-8.99857
mir	-9.00268
aray	-9.00305
SE	-9.00513
asında	-9.00763
ml	-9.00879
Ç	-9.00924
▁insanlar	-9.01067
39	-9.01146
▁Kira	-9.0155
▁belir	-9.01575
▁taraf	-9.01782
bilmeniz	-9.01841
▁durumu	-9.02011
▁cihaz	-9.02045
▁çocuklar	-9.02052
arbe	-9.02062
▁Cam	-9.02106
▁giy	-9.02363
gre	-9.02519
uvar	-9.02571
dığınız	-9.02574
▁fabrika	-9.02579
▁kullanıcılar	-9.02639
▁gönder	-9.02644
▁hatt	-9.0268
ebek	-9.02699
q	-9.02708
▁ağrı	-9.02713
▁rahat	-9.02731
ydınlat	-9.02744
▁çık	-9.02752
▁kontrolü	-9.02787
▁getir	-9.02824
trik	-9.02828
oloji	-9.02829
▁kutu	-9.02842
▁Ap	-9.02845
▁Malzeme	-9.02864
▁fonksiyon	-9.02864
▁fırça	-9.02864
▁garanti	-9.02864
▁kötü	-9.02864
▁standart	-9.02864
▁tarayıcı	-9.02864
▁villa	-9.02864
▁vücudu	-9.02864
▁zayıf	-9.02864
▁Çiçek	-9.02864
▁Pompa	-9.02864
▁internet	-9.02864
▁kurtarma	-9.02864
▁orijin	-9.02864
▁profil	-9.02864
▁Sıcak	-9.02864
▁başladı	-9.02864
▁girişimci	-9.02864
▁hedef	-9.02864
▁doğum	-9.02864
▁havuz	-9.02864
▁kaynağı	-9.02864
▁döv	-9.02865
▁konfor	-9.02865
▁sayesinde	-9.02865
▁kısmı	-9.02865
▁paket	-9.02865
▁imkan	-9.02865
▁GPS	-9.02866
▁oyuncu	-9.02866
▁Ticar	-9.02867
▁Sınıf	-9.02867
▁kayıt	-9.02867
▁Çanta	-9.02868
▁dahil	-9.02868
▁Yamalar	-9.02868
▁tüketici	-9.02869
▁bitki	-9.0287
▁tarz	-9.02871
▁bisiklet	-9.02872
▁mikro	-9.02873
▁şart	-9.02874
▁yapabilir	-9.02876
▁Kapı	-9.02879
▁otur	-9.02885
▁mevcuttur	-9.02887
▁Kendi	-9.02887
▁Tipi	-9.02889
▁varsayıl	-9.0289
▁Anti	-9.02893
2.5	-9.02899
▁hayat	-9.029
igara	-9.02902
▁The	-9.02905
duğu	-9.02913
▁esneklik	-9.02916
▁kez	-9.02923
▁Plastik	-9.02927
▁olup	-9.02934
▁benim	-9.02945
▁rulman	-9.02947
▁inşaat	-9.02953
▁rezervasyon	-9.02959
hidro	-9.02963
▁numarası	-9.02964
▁kullanılabilir	-9.02966
▁kanama	-9.02969
▁New	-9.02974
▁siyah	-9.02975
▁ağır	-9.02976
▁spor	-9.02978
▁döküm	-9.02981
▁Parçaları	-9.02991
▁aracı	-9.03001
▁Arabası	-9.03004
▁yeterli	-9.03007
iğer	-9.03009
best	-9.03048
▁çap	-9.03061
▁Veri	-9.03075
▁sayfa	-9.03076
▁bizim	-9.03077
ows	-9.03096
▁üstün	-9.03109
▁fabrikası	-9.03152
▁Araç	-9.03169
ness	-9.0317
▁sunuyor	-9.03224
▁sürüm	-9.03277
80	-9.03286
▁veren	-9.0338
▁alır	-9.03415
▁gösterir	-9.03424
▁elektrikli	-9.03475
▁belirl	-9.03527
▁Burada	-9.03534
▁karar	-9.03546
31	-9.03562
▁ait	-9.0357
▁Kartı	-9.03578
▁odaların	-9.03678
▁ürünü	-9.03682
▁yükleme	-9.03712
▁Kart	-9.03736
▁sahibi	-9.03747
▁anahtar	-9.03787
▁iste	-9.0381
▁sizin	-9.03881
▁poli	-9.03997
▁çocuk	-9.04035
▁Dol	-9.04086
mize	-9.04101
▁sözleşme	-9.04109
▁yapan	-9.04186
amaz	-9.04264
-5	-9.0432
uş	-9.04362
▁marka	-9.04391
▁yapısı	-9.04443
ture	-9.04502
▁Bel	-9.04614
▁ihtiyacın	-9.04665
▁Bl	-9.0469
▁İşlem	-9.04702
rım	-9.04716
istan	-9.04728
asyonu	-9.04785
▁İki	-9.04798
▁sp	-9.0493
▁verileri	-9.05029
▁HD	-9.05092
müş	-9.05128
▁Şu	-9.05142
▁sürü	-9.05157
▁sap	-9.05184
▁merkezinde	-9.05303
ildi	-9.05336
▁görüntüle	-9.05394
▁dakikalı	-9.05406
▁güçl	-9.05602
▁pil	-9.05611
▁Fre	-9.05658
larımızı	-9.05745
▁sitesi	-9.05751
lerimiz	-9.06056
yız	-9.06086
▁bo	-9.06266
▁açı	-9.06273
▁Pas	-9.06349
ava	-9.06434
▁terası	-9.06502
▁Fer	-9.06618
▁Kes	-9.06819
13	-9.06938
▁Kat	-9.06961
raz	-9.07012
likle	-9.07196
▁genel	-9.07278
ıp	-9.07481
▁olmalı	-9.07528
▁düşün	-9.07591
▁anlamı	-9.07621
▁lü	-9.07639
sunu	-9.07742
▁ediyor	-9.07769
arlı	-9.08013
▁kalitesi	-9.08062
▁bel	-9.08141
▁sınıfı	-9.08384
▁kurul	-9.08496
▁oluştur	-9.08755
▁ben	-9.08945
istik	-9.09133
▁boyun	-9.09267
AP	-9.09298
▁ro	-9.0941
▁çek	-9.09765
▁kri	-9.10043
rman	-9.10219
▁ilaç	-9.10826
▁Tra	-9.10874
imiz	-9.1098
▁oluşturu	-9.11792
▁otelde	-9.11793
▁çubuklar	-9.11873
▁To	-9.1211
İN	-9.12392
▁sistemleri	-9.12436
TT	-9.12513
▁Müşteri	-9.12753
miştir	-9.12783
ürlü	-9.12963
▁seçeneği	-9.13104
▁çeki	-9.13189
▁büyü	-9.13451
ğe	-9.13686
çün	-9.13969
▁edildi	-9.14056
uyor	-9.14322
11	-9.14497
mik	-9.14664
▁mm	-9.15034
▁bak	-9.15186
layan	-9.15244
makta	-9.15647
▁ortam	-9.15884
ılması	-9.15902
▁yerde	-9.1598
raf	-9.15982
▁to	-9.16999
ütü	-9.17088
EL	-9.1743
EK	-9.17434
aba	-9.17568
▁şehrin	-9.17606
▁güncelle	-9.17666
wa	-9.18058
bar	-9.18098
▁26	-9.18194
▁sistemin	-9.18289
sten	-9.18454
▁düş	-9.18468
▁Lin	-9.1865
▁boy	-9.18915
▁Er	-9.18991
▁taş	-9.19092
pro	-9.19347
rol	-9.1952
▁çözüm	-9.19583
▁sonuç	-9.19771
▁Bilgisayar	-9.19883
▁misafir	-9.20066
EM	-9.20205
lett	-9.20223
▁Hizmet	-9.2045
▁tip	-9.20476
▁özellikleri	-9.20574
▁oyna	-9.20722
▁ilaçlar	-9.21119
tep	-9.21178
amp	-9.21418
▁mal	-9.21602
▁eğitimi	-9.21741
▁kalma	-9.22015
▁Yazılım	-9.22118
sınız	-9.22182
▁çift	-9.22301
TE	-9.22389
ý	-9.22402
▁Lo	-9.22484
▁Makine	-9.22542
▁Birleş	-9.22549
▁pompa	-9.22636
▁önem	-9.22681
▁pazar	-9.22707
üşü	-9.22762
▁inşa	-9.22763
acağı	-9.22776
▁duru	-9.22778
ükemmel	-9.22797
rağ	-9.22805
ity	-9.22809
▁yoğun	-9.22834
▁bilgisayar	-9.22843
о	-9.22862
▁organi	-9.22863
▁hücre	-9.22864
▁sohbet	-9.22864
▁Ambalaj	-9.22864
▁Anahtar	-9.22864
▁bağımsız	-9.22864
▁başvuru	-9.22864
▁cevap	-9.22864
▁fırsat	-9.22864
▁hassas	-9.22864
▁hüküm	-9.22864
▁karmaşık	-9.22864
▁küveti	-9.22864
▁mutfak	-9.22864
▁normal	-9.22864
▁tutkal	-9.22864
▁xHamster	-9.22864
▁Merkez	-9.22864
▁Online	-9.22864
▁buzdolabı	-9.22864
▁ekonomi	-9.22864
▁erkek	-9.22864
▁gücü	-9.22864
▁pozisyon	-9.22864
▁tuvalet	-9.22864
▁yaklaşı	-9.22864
▁zevk	-9.22864
▁Ankara	-9.22864
▁alerji	-9.22864
▁Boyut	-9.22865
▁tutmak	-9.22865
▁cüzdan	-9.22865
▁montaj	-9.22865
LET	-9.22865
▁görsel	-9.22865
▁iklim	-9.22865
▁rekabet	-9.22865
▁PDF	-9.22866
▁çarp	-9.22866
▁Grup	-9.22866
▁hafta	-9.22866
▁Verimli	-9.22867
▁risk	-9.22867
▁zaten	-9.22867
▁çanta	-9.22867
elediye	-9.22867
▁gider	-9.22867
▁Takım	-9.22868
▁Club	-9.22868
▁tadını	-9.22868
yeşil	-9.22868
▁köpek	-9.22869
agaj	-9.22869
▁tarım	-9.2287
▁konuşma	-9.22871
▁sinyal	-9.22872
▁İlaç	-9.22872
Teknoloji	-9.22873
▁haddele	-9.22873
▁değerlendirme	-9.22873
▁tatil	-9.22873
▁Serisi	-9.22875
▁Film	-9.22875
▁danışman	-9.22876
▁Seks	-9.2288
▁yapılır	-9.22881
▁aşağıdaki	-9.22881
▁kuruluş	-9.22882
▁iddia	-9.22885
▁girme	-9.22886
▁ambalaj	-9.22887
▁cilt	-9.22888
ekerlek	-9.22889
▁basit	-9.22889
▁ısıtma	-9.22891
▁Ofis	-9.22892
▁yoktur	-9.22892
▁klima	-9.22893
▁seks	-9.22896
▁Uzman	-9.22898
üncü	-9.22906
▁dışında	-9.22908
▁çaba	-9.22914
▁Ulus	-9.22917
▁çapında	-9.22918
dalga	-9.22918
▁sektörün	-9.22931
▁yine	-9.22931
▁opti	-9.22937
▁ışık	-9.22938
▁uyarı	-9.22939
▁kutusu	-9.22942
lişim	-9.22945
▁derin	-9.2296
▁Panel	-9.22966
▁Sabi	-9.22968
tıcı	-9.22993
▁2008	-9.23
▁0.	-9.23004
▁gelecekte	-9.2301
▁olduğundan	-9.23014
▁Doğal	-9.23017
▁eylem	-9.23017
▁herkes	-9.23024
▁mont	-9.23031
▁Güvenlik	-9.23032
▁tasarımcı	-9.23035
ojen	-9.23035
TX	-9.23042
▁gıda	-9.23055
▁uç	-9.23056
▁düzey	-9.23057
▁Sho	-9.23058
▁cep	-9.23086
▁bebek	-9.23092
lerinizin	-9.23105
▁olmadan	-9.23108
▁City	-9.23109
▁korku	-9.23111
form	-9.23119
▁gerektir	-9.23127
▁bar	-9.2316
▁Baş	-9.23231
▁sıcaklık	-9.23237
▁çay	-9.2324
8)	-9.23247
▁olmaz	-9.23269
▁yerinde	-9.23276
▁Alaşım	-9.23287
▁İtalyan	-9.2329
▁Işık	-9.23318
iddi	-9.23357
ww	-9.23376
▁hari	-9.23399
▁asit	-9.23401
▁LC	-9.2342
▁koy	-9.23496
▁nedeni	-9.23535
▁21	-9.23563
▁uzak	-9.23611
▁öğrenme	-9.23693
▁malzemeler	-9.23739
itap	-9.2388
▁durumda	-9.239
▁söyle	-9.24016
igh	-9.24092
▁Q	-9.24097
▁İnc	-9.24127
▁bah	-9.24241
▁bey	-9.24317
bilmek	-9.24356
onunda	-9.24374
▁katı	-9.24383
▁parçaların	-9.24439
▁İst	-9.24473
▁kullanır	-9.24564
sun	-9.24615
▁Isı	-9.24716
▁of	-9.24767
▁isten	-9.24871
▁etkin	-9.24886
skü	-9.25083
▁otelleri	-9.2519
▁listesi	-9.25226
▁özellikler	-9.25258
▁etkiler	-9.25352
▁eden	-9.25365
▁bilet	-9.25625
▁belirti	-9.25845
ju	-9.25887
▁can	-9.25942
▁başta	-9.26137
kinci	-9.26268
▁şeklin	-9.26396
▁konumun	-9.26582
7)	-9.26624
▁noktası	-9.26682
AT	-9.26743
▁yaz	-9.26746
▁odakl	-9.26758
▁uygulamalar	-9.26772
▁teknolojileri	-9.26928
▁seçme	-9.26971
TP	-9.27117
▁işleme	-9.27157
▁servisi	-9.27378
▁çıkar	-9.27441
▁dokunma	-9.27453
▁yetki	-9.27559
larınız	-9.27689
▁Car	-9.27739
▁olma	-9.27886
sından	-9.27967
▁bağlantısı	-9.27967
▁birey	-9.27977
▁Ab	-9.28008
▁oranı	-9.28043
▁ac	-9.28281
▁güncel	-9.28348
▁tasarlanmış	-9.28714
▁tas	-9.28772
▁AC	-9.28804
▁uygulamaları	-9.2881
ano	-9.28862
▁Man	-9.28901
▁kod	-9.28992
SL	-9.29078
▁yönetim	-9.29229
▁alanda	-9.29251
▁düzenl	-9.29442
07-	-9.29573
▁Par	-9.29654
eğe	-9.3005
▁Bunlar	-9.30205
tiği	-9.30246
▁zengin	-9.30274
▁Bil	-9.30343
▁pi	-9.30359
▁eks	-9.3044
ayık	-9.30524
aklar	-9.30622
▁kol	-9.30639
▁misafirleri	-9.30756
lığında	-9.30828
ute	-9.31082
90	-9.31216
stil	-9.31375
▁üretici	-9.31613
▁kullanıl	-9.31668
arıştırıcı	-9.31857
ender	-9.31983
▁yüzde	-9.3217
OL	-9.32317
leşmesi	-9.3237
▁ortamı	-9.32419
▁She	-9.33019
▁odası	-9.33315
dum	-9.33345
52	-9.3359
▁kapı	-9.33968
▁müşteriler	-9.34046
▁arka	-9.34103
05	-9.34213
24	-9.34305
▁şu	-9.3436
medi	-9.34372
lot	-9.34419
AN	-9.34519
▁işlemlerin	-9.34561
YO	-9.34876
▁basın	-9.35039
▁mu	-9.35797
▁tr	-9.35854
▁sem	-9.35912
ürü	-9.36431
syon	-9.36498
▁14	-9.36752
▁ısı	-9.36755
ult	-9.37184
ST	-9.37378
AC	-9.37439
▁Proje	-9.37879
leyici	-9.37944
▁16	-9.38003
Saf	-9.38317
▁dış	-9.38422
amin	-9.38488
▁ülkeler	-9.38611
este	-9.38742
eceğini	-9.39167
▁üretil	-9.39344
▁banyolar	-9.39385
ırıcı	-9.39466
33	-9.39762
▁sınıf	-9.39812
RE	-9.39989
tali	-9.40099
SS	-9.4029
▁yönetimi	-9.40328
▁görüntü	-9.40425
dığında	-9.40908
-0	-9.41015
▁kendini	-9.41208
▁Pre	-9.41305
▁tasarlan	-9.41413
▁süresi	-9.41661
nmamış	-9.42064
▁Il	-9.4218
bur	-9.42279
▁kıl	-9.42301
▁koşul	-9.4233
▁bakım	-9.42658
▁Pla	-9.43088
▁içeriği	-9.43227
▁Şa	-9.43642
▁manzara	-9.43742
latma	-9.43785
▁sektör	-9.43888
▁takı	-9.44154
▁istey	-9.44389
▁Po	-9.44683
Sİ	-9.44798
▁sağlan	-9.448
ON	-9.44858
gü	-9.45066
imdi	-9.45341
J	-9.45562
▁Şekil	-9.4566
▁gö	-9.45733
lıkla	-9.45758
▁tesisi	-9.45852
▁fayda	-9.45862
▁yaratı	-9.46048
▁Ente	-9.46354
ümüz	-9.46483
-4	-9.46494
▁Cor	-9.46517
US	-9.46584
▁yemek	-9.46815
▁Dön	-9.46914
▁onu	-9.46923
▁oynama	-9.46959
▁ileti	-9.46997
kıt	-9.47046
oid	-9.47057
▁Kullanım	-9.47167
▁gerçekleştir	-9.47193
▁tes	-9.47195
▁suyu	-9.47207
▁maliyet	-9.47346
▁yarar	-9.47367
▁mesafe	-9.47371
▁denge	-9.47374
▁Fabrika	-9.47529
iriz	-9.4753
landırma	-9.47532
▁teslim	-9.47716
▁kay	-9.47738
arası	-9.47741
▁mobil	-9.47745
ırmızı	-9.47745
▁sivil	-9.4775
▁Araba	-9.47774
▁görünüm	-9.47782
▁çağ	-9.47784
▁Ju	-9.4779
▁üretmek	-9.4779
▁dört	-9.47797
▁hakkı	-9.47816
▁gelecek	-9.47822
laşma	-9.47829
▁kazanma	-9.47832
▁yönet	-9.47836
▁Ekstr	-9.47842
а	-9.47859
▁tedarik	-9.47862
iyah	-9.47862
▁ruh	-9.47864
▁şüphe	-9.47864
sipariş	-9.47864
▁Görüntüle	-9.47864
▁Kamyon	-9.47864
▁Marmaris	-9.47864
▁Mesaj	-9.47864
▁Sertifika	-9.47864
▁Smartphone	-9.47864
▁bünyesinde	-9.47864
▁doktor	-9.47864
▁hediye	-9.47864
▁hortum	-9.47864
▁işçilik	-9.47864
▁karaciğer	-9.47864
▁levha	-9.47864
▁memnun	-9.47864
▁titreşim	-9.47864
▁ulaşılabilir	-9.47864
▁yelpaze	-9.47864
▁Çocuk	-9.47864
▁Ücret	-9.47864
▁İngiliz	-9.47864
▁Şirket	-9.47864
▁şeffaf	-9.47864
acebook	-9.47864
ebeği	-9.47864
▁Amerika	-9.47864
▁Cinsiyet	-9.47864
▁Laboratuvar	-9.47864
▁Nasıl	-9.47864
▁Sayfa	-9.47864
▁Sıfır	-9.47864
▁ardından	-9.47864
▁bileşenleri	-9.47864
▁problem	-9.47864
▁steroid	-9.47864
ahvaltı	-9.47864
▁Hediye	-9.47864
▁Restaura	-9.47864
▁eksiksiz	-9.47864
▁işbirliği	-9.47864
▁rapor	-9.47864
▁soğuk	-9.47864
▁Aşağıda	-9.47864
▁şablon	-9.47865
▁başlayabilirsin	-9.47865
▁hayvan	-9.47865
▁tutku	-9.47865
▁Önceki	-9.47865
▁çerez	-9.47865
▁Servis	-9.47865
▁gümüş	-9.47865
▁lisans	-9.47865
▁Ultrason	-9.47865
▁bölüm	-9.47865
▁nitelik	-9.47865
▁sarhoş	-9.47865
▁tahtası	-9.47865
▁kanepe	-9.47865
▁Hattı	-9.47865
▁görüş	-9.47865
landırıcı	-9.47865
▁Döv	-9.47865
▁mimari	-9.47865
▁dostu	-9.47865
▁meydan	-9.47866
ürosu	-9.47866
▁Devlet	-9.47866
▁eşleş	-9.47866
▁Genel	-9.47866
▁dışarı	-9.47866
▁etiket	-9.47866
▁website	-9.47866
▁azalma	-9.47866
▁kağıt	-9.47867
▁kemik	-9.47867
Samsun	-9.47867
▁biçim	-9.47867
▁Dokun	-9.47867
▁Villa	-9.47867
▁Kamera	-9.47868
▁SCH	-9.47868
▁bulabilirsiniz	-9.47868
▁kredi	-9.47868
▁Kadın	-9.47869
▁içerik	-9.47869
▁resmi	-9.47869
▁sahne	-9.4787
▁Sultan	-9.4787
iezo	-9.4787
▁Bildiri	-9.4787
▁valf	-9.47871
▁çamaşır	-9.47871
▁kaplı	-9.47871
▁direk	-9.47872
▁Kullanıcı	-9.47873
melisiniz	-9.47874
▁Mega	-9.47874
▁kesinlikle	-9.47874
▁Değer	-9.47875
▁Türk	-9.47875
▁trafi	-9.47875
▁Başkan	-9.47877
▁Madde	-9.47877
▁iPhone	-9.47877
▁Suyu	-9.47877
▁Dosya	-9.47878
▁Tech	-9.47878
NIM	-9.47878
ALARI	-9.47879
▁Isıtıcı	-9.47879
▁makina	-9.47879
▁kolaylaştır	-9.4788
▁açısından	-9.4788
▁katılım	-9.4788
▁Akdeniz	-9.4788
ctor	-9.47881
▁alaşım	-9.47882
▁indirme	-9.47882
▁potansiyel	-9.47884
▁panel	-9.47884
▁hayal	-9.47885
▁toplantı	-9.47886
▁izleme	-9.47887
▁döne	-9.47888
▁görüyor	-9.47889
▁Pazar	-9.4789
▁İndir	-9.47895
hats	-9.47896
▁machine	-9.47896
▁Mektup	-9.479
▁tabi	-9.479
▁görebilirsiniz	-9.479
▁yoğunluk	-9.47902
▁kaşığı	-9.47905
▁yayınla	-9.47906
▁etkinlikler	-9.47909
▁burun	-9.4791
▁Taksi	-9.4791
Casino	-9.47915
▁çalışır	-9.47921
▁Suite	-9.47922
▁stok	-9.47925
▁kullandığı	-9.47926
▁Plaj	-9.4793
▁Centr	-9.47933
-100	-9.47934
▁anlatı	-9.47935
▁silin	-9.47937
▁Cuma	-9.4794
▁kalıp	-9.47943
▁sıvı	-9.47943
▁toprak	-9.47947
▁(14	-9.47953
▁harika	-9.47954
▁genelinde	-9.47959
▁geçiş	-9.47964
▁Fiyat	-9.47967
▁ikinci	-9.47979
▁çekici	-9.47981
▁çekmek	-9.47981
ood	-9.47986
▁çıkarır	-9.47993
epçe	-9.47996
▁zemin	-9.47997
▁oksi	-9.47998
rass	-9.48005
▁oluşur	-9.48023
▁tıp	-9.4805
▁Kontrol	-9.48055
▁beri	-9.48063
▁bugün	-9.48068
▁tedarikçisi	-9.48071
▁yetenek	-9.48085
▁ayrıca	-9.48088
▁dekor	-9.48096
hoş	-9.48101
▁kitap	-9.48103
▁Satı	-9.48109
▁Benim	-9.48114
▁aydınlat	-9.48116
▁ağırlık	-9.48119
lüğü	-9.48122
▁grafi	-9.48124
▁kristaliz	-9.48126
▁daire	-9.48143
sebe	-9.48145
▁edebilme	-9.48147
▁pompası	-9.48158
▁biridir	-9.48171
▁aktarı	-9.4819
own	-9.48197
▁Fabrikası	-9.482
▁öğrenci	-9.48201
ham	-9.48211
▁Bodrum	-9.48212
▁Vana	-9.48216
▁kaldırma	-9.48218
▁markası	-9.48218
▁oto	-9.48223
▁305	-9.4824
▁hom	-9.4824
▁hatır	-9.48251
▁önün	-9.48257
▁hesabınız	-9.48266
▁eğlenceli	-9.48267
▁kiralama	-9.48297
▁çöz	-9.48307
▁Mobilya	-9.4831
▁adresiniz	-9.48317
▁kablosu	-9.48343
▁Plaz	-9.48348
▁400	-9.48354
▁kolaydır	-9.48369
▁Ning	-9.48372
▁amaçla	-9.48401
▁filtre	-9.4841
▁değiştirile	-9.48414
▁fit	-9.48418
▁bildir	-9.48421
▁tren	-9.48422
▁Yüz	-9.48446
▁22	-9.48453
▁yumuşak	-9.48467
▁yuva	-9.48483
▁yapılabil	-9.48498
▁Tang	-9.48525
▁Üniversitesi	-9.48542
▁soy	-9.48556
▁toplu	-9.48574
▁Kullanımı	-9.4858
▁Elma	-9.48591
▁Maca	-9.48675
▁aç	-9.48703
▁tuz	-9.4872
▁giyin	-9.48732
VD	-9.48733
nstant	-9.48734
▁Türkiye	-9.48816
▁ölçüm	-9.48833
ostero	-9.4884
▁oluşturur	-9.4884
▁önemlidir	-9.48864
▁mor	-9.48876
▁Beden	-9.48929
▁yemekler	-9.48971
▁belirleme	-9.48973
OS	-9.48976
▁enfek	-9.49013
▁protein	-9.49024
kadem	-9.49036
▁tuta	-9.49067
mamız	-9.49151
▁Kayde	-9.49158
▁sey	-9.4925
▁sivilce	-9.49301
▁öğreti	-9.49301
200	-9.49307
▁boyutları	-9.49323
▁bilgisayarınız	-9.49349
▁Tem	-9.49352
▁mini	-9.49354
▁esn	-9.49389
▁doz	-9.49404
klini	-9.49441
▁TV	-9.49453
▁değerli	-9.49483
▁kullanılma	-9.49504
▁etkili	-9.4952
liğini	-9.49664
▁özelliklere	-9.49686
▁parçası	-9.49866
▁Up	-9.49934
▁sitemiz	-9.49981
sunuz	-9.50018
ator	-9.50045
▁yarat	-9.50105
▁Yol	-9.50111
ifad	-9.50133
▁zorlu	-9.50181
▁ürünlerin	-9.50237
her	-9.50408
▁Yaz	-9.50453
düğü	-9.50474
▁Mum	-9.5049
▁FI	-9.50563
him	-9.5059
▁düğmesin	-9.50592
MQ	-9.50618
▁şirketin	-9.50624
▁45	-9.50701
▁adresin	-9.50736
▁PE	-9.50755
nmiş	-9.50778
▁Taki	-9.50805
▁şiş	-9.50876
vini	-9.50906
▁öneri	-9.50908
▁havaalanın	-9.51042
▁Hizmetleri	-9.51118
▁karşılama	-9.51144
▁hizmetler	-9.51316
▁raf	-9.51457
lmasını	-9.5146
▁Ortak	-9.51499
dığı	-9.51504
▁malzemeleri	-9.51569
▁Bra	-9.51925
▁müşterilerin	-9.52019
▁manzarasın	-9.52184
▁yarışma	-9.5234
graf	-9.52376
dina	-9.52385
Star	-9.52475
fir	-9.52522
landı	-9.52611
▁19	-9.52839
▁gaz	-9.52874
▁yasal	-9.53031
chi	-9.53069
aire	-9.53351
▁bunları	-9.53502
▁iyileştirme	-9.53545
08	-9.53683
tasyon	-9.53689
▁asi	-9.53692
AB	-9.53704
▁yazılım	-9.53766
220	-9.53872
▁resimler	-9.53919
▁Siz	-9.53944
ünün	-9.54244
pas	-9.54304
▁İnsanlar	-9.54306
▁şehri	-9.54339
üstü	-9.54394
▁örneğin	-9.54579
▁nö	-9.54667
▁kaynakları	-9.54869
▁içe	-9.54871
gar	-9.55144
itor	-9.55214
▁Tran	-9.55257
▁turist	-9.55587
ıştırıcı	-9.55612
▁es	-9.557
▁dizi	-9.55733
able	-9.55823
▁ger	-9.5636
ester	-9.56704
▁isteye	-9.5679
▁kullanımını	-9.56882
▁olmadığın	-9.56956
▁parkı	-9.57019
UL	-9.57129
lenmesi	-9.57216
▁dilin	-9.57318
diğimiz	-9.57549
▁sürecini	-9.57685
▁başkalarını	-9.5774
▁kes	-9.57932
lanır	-9.58158
ılmıştır	-9.58245
▁Projesi	-9.59042
▁süresin	-9.5911
▁bin	-9.59193
▁edil	-9.59452
▁geldi	-9.59554
TEL	-9.59713
▁kişili	-9.6007
▁deniz	-9.60085
tti	-9.60089
▁End	-9.60091
biliyor	-9.6015
▁ilke	-9.6026
▁sağlaya	-9.60748
▁tanım	-9.60832
IC	-9.60897
▁performansın	-9.61114
▁miktarı	-9.61597
UR	-9.61648
▁maddeler	-9.61903
rid	-9.61948
88	-9.61955
▁Dev	-9.62146
ettiğimiz	-9.62254
▁telefonlar	-9.62743
osi	-9.63961
rpo	-9.64069
▁ettiği	-9.64123
67	-9.64324
▁konuların	-9.64348
muk	-9.64394
▁çubuk	-9.64707
▁süt	-9.65008
45	-9.65648
▁Cas	-9.6574
▁korumak	-9.65963
avi	-9.66104
▁dola	-9.66491
▁üreticiler	-9.66792
▁küt	-9.67033
▁dosyası	-9.67692
KA	-9.68324
▁işletme	-9.68551
▁Kol	-9.68592
▁ulaş	-9.68968
▁boyu	-9.68973
▁yetkisi	-9.69039
▁toplan	-9.69155
BA	-9.69316
▁iyileştir	-9.69402
▁ekipmanlar	-9.69431
▁bölgesi	-9.70036
NA	-9.70318
▁oyunları	-9.70615
▁endüstrisi	-9.70617
▁tarafı	-9.70917
▁edi	-9.71639
TD	-9.71844
rom	-9.72002
▁yazılı	-9.72292
▁mekanı	-9.72302
▁oran	-9.72773
DT	-9.72961
▁150	-9.7303
asla	-9.73033
▁misafirler	-9.73067
▁diz	-9.73143
▁Tamam	-9.73243
▁resim	-9.73343
▁çıkarma	-9.73503
Tekni	-9.73629
▁örneği	-9.73786
▁detay	-9.73795
▁teras	-9.74047
▁içere	-9.74371
▁Altın	-9.74386
LI	-9.74407
embe	-9.74651
üğü	-9.75017
temin	-9.75084
▁Konu	-9.75102
▁yarış	-9.75287
Q	-9.754
▁alacak	-9.75467
akış	-9.76191
▁edebilir	-9.76201
▁belirtile	-9.76202
fly	-9.76344
▁Erke	-9.76377
lyalı	-9.76788
▁adres	-9.76904
▁liste	-9.7712
İM	-9.77221
▁seviye	-9.7732
▁düğme	-9.7752
▁kenar	-9.7804
▁53	-9.78087
▁Tedarikçi	-9.78251
▁kabu	-9.78302
▁aşı	-9.78478
▁alış	-9.78487
▁sız	-9.78524
şeleri	-9.78583
58	-9.78931
aralı	-9.79148
▁anahtarı	-9.79216
▁yolcu	-9.79376
▁Tav	-9.79457
hip	-9.79525
▁yöntemler	-9.79597
▁öğren	-9.79648
▁başkaların	-9.79812
▁Sto	-9.79855
pit	-9.79941
▁pla	-9.80205
tro	-9.80242
▁Kimya	-9.80302
HD	-9.80493
LA	-9.80511
ekimi	-9.80567
▁karakter	-9.80587
▁çö	-9.80652
▁Mobil	-9.80666
▁eğlence	-9.80689
▁Çalışma	-9.80694
▁kamp	-9.80715
▁aşama	-9.80773
▁yazılımı	-9.80796
uvarla	-9.80891
▁asansör	-9.80941
▁numara	-9.80981
▁ölç	-9.81001
stanbul	-9.81024
rkadaş	-9.8106
▁onay	-9.81069
▁parametre	-9.8109
▁sev	-9.81092
▁lez	-9.81107
▁Çevr	-9.81111
lanmasını	-9.81115
oğru	-9.81117
oparlör	-9.81125
▁engel	-9.81127
rneğin	-9.8113
qua	-9.81142
▁edilmiş	-9.81161
▁tüket	-9.81185
▁199	-9.81188
и	-9.8119
р	-9.8119
▁çiçek	-9.81195
▁komp	-9.81196
е	-9.81196
▁Ultra	-9.81197
л	-9.81197
Т	-9.81197
▁hileleri	-9.81197
▁yükselt	-9.81197
▁World	-9.81197
▁yürüy	-9.81197
ategoriler	-9.81197
ppartementhotel	-9.81197
ь	-9.81197
▁Bölge	-9.81197
▁Cihazları	-9.81197
▁Ekipman	-9.81197
▁Filtre	-9.81197
▁Google	-9.81197
▁Göster	-9.81197
▁Holding	-9.81197
▁Jeneratör	-9.81197
▁KALİTE	-9.81197
▁Konferans	-9.81197
▁Oludeniz	-9.81197
▁Psikoloji	-9.81197
▁Resort	-9.81197
▁Standart	-9.81197
▁Strateji	-9.81197
▁Universit	-9.81197
▁başlangıcı	-9.81197
▁böcek	-9.81197
▁efekti	-9.81197
▁etkileşim	-9.81197
▁farkındalık	-9.81197
▁global	-9.81197
▁gürültü	-9.81197
▁heyecan	-9.81197
▁hipote	-9.81197
▁hormon	-9.81197
▁kamyonlar	-9.81197
▁kompozisyon	-9.81197
▁kumaşlar	-9.81197
▁kuvvet	-9.81197
▁küresel	-9.81197
▁maksimum	-9.81197
▁pantolon	-9.81197
▁rahatsızlık	-9.81197
▁reklam	-9.81197
▁reçete	-9.81197
▁solüsyonu	-9.81197
▁strateji	-9.81197
▁taşıyıcılar	-9.81197
▁transfer	-9.81197
▁yararlanabilir	-9.81197
▁Çeviri	-9.81197
▁çerçeve	-9.81197
▁İnternet	-9.81197
ahkemesi	-9.81198
czacı	-9.81198
▁Afrika	-9.81198
▁Deneyim	-9.81198
▁ebeveyn	-9.81198
▁eğilim	-9.81198
▁hızlandır	-9.81198
▁kütüphane	-9.81198
▁mutfağı	-9.81198
▁mülteci	-9.81198
▁olgunlaş	-9.81198
▁yürüt	-9.81198
▁İspany	-9.81198
▁İsviçre	-9.81198
avrama	-9.81198
▁China	-9.81198
▁Londra	-9.81198
▁Vücu	-9.81198
▁balkon	-9.81198
▁düzeltme	-9.81198
▁havalimanı	-9.81198
▁ihlali	-9.81198
▁içerisinde	-9.81198
▁sıfır	-9.81198
▁yargı	-9.81198
▁Bayram	-9.81198
▁Venedik	-9.81198
▁saldırı	-9.81198
▁soğutucu	-9.81198
Performans	-9.81198
sfalt	-9.81198
▁Fatih	-9.81198
▁Microsoft	-9.81198
▁bekleme	-9.81198
▁beslenme	-9.81198
▁donanım	-9.81198
▁egzo	-9.81198
▁genişletme	-9.81198
▁şeker	-9.81198
▁şekillendire	-9.81198
errahi	-9.81198
igorta	-9.81198
▁Dergi	-9.81198
▁Havuz	-9.81198
▁VIP	-9.81198
▁artırır	-9.81198
▁Çeşitl	-9.81198
▁Bitcoin	-9.81198
▁kağıdı	-9.81198
▁dayanımı	-9.81198
▁element	-9.81198
▁uyumlu	-9.81198
▁Müzesi	-9.81198
▁asker	-9.81198
▁kelime	-9.81198
▁zorunlu	-9.81198
▁çorba	-9.81198
▁pürüz	-9.81198
▁Bölüm	-9.81198
LOG	-9.81199
tolerans	-9.81199
▁Limanı	-9.81199
▁Terminal	-9.81199
▁değişiklik	-9.81199
▁hepsi	-9.81199
▁doldur	-9.81199
▁Bobini	-9.81199
▁foto	-9.81199
yafetleri	-9.81199
▁besleme	-9.81199
▁sprey	-9.81199
PEG	-9.81199
gunluğu	-9.81199
▁Asker	-9.81199
▁Misafir	-9.81199
▁Yedek	-9.81199
▁havlu	-9.81199
▁tüketimi	-9.81199
▁Tablet	-9.812
shop	-9.812
▁öncü	-9.812
RTI	-9.812
▁Ether	-9.812
▁organizma	-9.812
0-25	-9.812
ction	-9.812
▁resepsiyon	-9.812
▁Kalıp	-9.812
▁tuşu	-9.812
▁gerçeğ	-9.812
▁kaplama	-9.812
Tedavi	-9.81201
▁Protein	-9.81201
▁kısım	-9.81201
▁Torba	-9.81201
▁damga	-9.81201
▁fason	-9.81201
▁Sepet	-9.81201
▁gizlili	-9.81201
▁Grou	-9.81201
▁döneminde	-9.81202
▁RES	-9.81202
▁kamera	-9.81202
▁Hazır	-9.81202
▁belgeleri	-9.81202
▁Share	-9.81202
▁samimi	-9.81202
▁işleti	-9.81203
▁içerir	-9.81203
▁gelişim	-9.81203
▁kafes	-9.81203
▁Güneş	-9.81203
▁Office	-9.81203
▁Transf	-9.81203
▁nerede	-9.81204
▁algıla	-9.81204
▁ekibi	-9.81204
Hosting	-9.81204
layıp	-9.81205
▁çatı	-9.81205
▁yapışma	-9.81205
▁hesapların	-9.81205
elektronik	-9.81206
▁sahte	-9.81206
▁ambar	-9.81206
▁hotels	-9.81206
ezgi	-9.81207
▁durdur	-9.81207
▁Astar	-9.81208
▁Banka	-9.81208
▁Bıça	-9.81208
▁bonus	-9.81209
▁Kurulu	-9.81209
▁aldığınızda	-9.81209
▁ABD	-9.81209
muştur	-9.8121
rşiv	-9.81211
▁varlıklarını	-9.81211
arlaklık	-9.81212
▁Parti	-9.81213
▁jak	-9.81213
▁Spor	-9.81213
ükme	-9.81214
▁Haberler	-9.81214
▁Şeh	-9.81214
▁09	-9.81214
▁etrafın	-9.81215
Square	-9.81216
▁sonucun	-9.81219
▁boşluk	-9.8122
▁bıça	-9.8122
▁ateş	-9.81221
▁Granül	-9.81221
▁tahrik	-9.81222
▁İletişim	-9.81222
▁taşınabilir	-9.81223
▁popüler	-9.81226
▁bilinen	-9.81226
▁geçerli	-9.81228
▁dalış	-9.8123
▁istediğiniz	-9.8123
▁muhtemel	-9.81231
▁düğün	-9.81232
▁fiziksel	-9.81236
▁Bang	-9.81236
▁bayan	-9.81236
▁Okuma	-9.81236
▁vit	-9.81238
▁ilerleme	-9.81238
▁Mev	-9.8124
▁etkileyici	-9.8124
▁duygular	-9.81242
▁baskı	-9.81243
▁Rady	-9.81244
▁geçmişi	-9.81247
▁başlayan	-9.81247
▁gece	-9.81249
▁lider	-9.81253
▁konektörü	-9.81253
iciler	-9.81255
▁güvenliğini	-9.81255
▁torna	-9.81255
▁LTD	-9.81257
▁(16	-9.81257
▁toplumu	-9.81257
▁arıza	-9.81257
▁Eski	-9.81258
▁Doğu	-9.81259
▁kabin	-9.81261
▁reaktivite	-9.81261
▁Kanal	-9.81261
▁Frans	-9.81261
▁balık	-9.81262
▁ülkemiz	-9.81263
▁çıktı	-9.81264
960	-9.81265
▁artırma	-9.81266
▁azaltır	-9.81267
▁entegr	-9.8127
▁edilebilir	-9.81271
▁hoparlör	-9.81271
▁Flor	-9.81272
▁Bitkiler	-9.81273
▁tankı	-9.81274
▁Auto	-9.81274
▁yerleşi	-9.81276
▁ihtiyacınız	-9.8128
▁engelleme	-9.81281
▁dağıtım	-9.81281
▁avantajları	-9.81282
atırım	-9.81283
▁beden	-9.81284
▁imalat	-9.81285
▁Lamba	-9.81285
▁analiz	-9.81286
▁yapılandırma	-9.81289
▁katlayın	-9.81294
▁müşterilerimiz	-9.81295
▁Sandalye	-9.81295
dörtgen	-9.81296
karışık	-9.813
▁yatırma	-9.81301
▁Çevrim	-9.81301
▁görünür	-9.81302
▁Chro	-9.81302
▁Sistemleri	-9.81305
gsm	-9.81311
ağlayıcı	-9.81312
▁ismi	-9.81312
▁yaptığı	-9.81313
thal	-9.81314
▁hizmetinden	-9.81317
▁temizliği	-9.81319
▁dekorasyon	-9.81321
köy	-9.81322
▁desen	-9.81323
arif	-9.81324
▁bant	-9.81326
▁etmiş	-9.81326
work	-9.81328
▁paralel	-9.81328
▁amacımız	-9.81329
▁Güney	-9.81334
▁Birleştir	-9.81336
▁alabil	-9.81337
▁arkadaş	-9.81338
odül	-9.81339
▁Yapım	-9.81345
ACK	-9.81346
▁Post	-9.81347
▁Sitemiz	-9.81347
ube	-9.81347
▁Hint	-9.81351
▁Kurut	-9.81359
rtme	-9.81359
iyoloji	-9.8136
▁mobilyalar	-9.81366
▁kira	-9.81367
▁mutl	-9.81368
Göz	-9.81375
şleme	-9.81375
odernizasyon	-9.81377
▁oturum	-9.81382
▁onayla	-9.81401
▁Mess	-9.81402
zyon	-9.81404
eviye	-9.81406
▁silme	-9.81407
caklar	-9.81415
▁görebilir	-9.81415
▁denir	-9.81419
karbon	-9.81423
▁Bilim	-9.81426
▁bulunur	-9.81447
▁yele	-9.81447
▁çeşitliliği	-9.81449
üzyon	-9.81451
▁asansörden	-9.81454
▁yaşında	-9.81458
teria	-9.81463
▁kırmızı	-9.81467
▁çözün	-9.81473
▁Tren	-9.81475
▁yönü	-9.8148
▁pazarlama	-9.81481
▁siteniz	-9.81484
▁tema	-9.81488
aslanma	-9.81495
▁Yönetimi	-9.81499
▁giyim	-9.81499
▁Ço	-9.81501
▁alabilirsiniz	-9.81503
▁seçim	-9.81505
▁Şiş	-9.81507
▁terim	-9.81508
▁kullanılabil	-9.81508
▁kısa	-9.81524
▁çıkarın	-9.81531
lmuş	-9.81536
ARA	-9.81536
rbasyon	-9.81537
▁açar	-9.81537
▁değiştirmek	-9.81539
▁Kurum	-9.81541
▁deney	-9.81546
nüs	-9.81557
▁kenti	-9.81559
▁Yakın	-9.81561
▁tasarrufu	-9.81565
▁Aqua	-9.8157
▁Oldu	-9.8157
mniyet	-9.81573
▁sürecinde	-9.81579
▁bakın	-9.81583
abancası	-9.81584
▁Side	-9.81586
burg	-9.81588
▁aşağıya	-9.81591
▁uza	-9.81598
▁Evet	-9.8161
Kredi	-9.81613
ading	-9.81616
ayısı	-9.81616
▁muslu	-9.81616
▁2015	-9.81621
bistan	-9.81638
▁sürücü	-9.81648
▁Genellikle	-9.81657
▁boş	-9.8167
ycl	-9.81671
▁gönderil	-9.8168
▁TEK	-9.81681
▁silikon	-9.81688
eyve	-9.81695
▁Yurd	-9.81698
ternati	-9.81699
▁''	-9.81702
▁Silindir	-9.81705
▁Deste	-9.81715
drol	-9.81718
▁ağrısı	-9.81721
▁(56	-9.81725
▁Sanat	-9.81725
▁restoran	-9.8174
▁VE	-9.81767
▁kaldır	-9.8177
abilecekler	-9.8177
▁önleme	-9.81773
▁eski	-9.81774
▁dönüş	-9.81778
▁tane	-9.81783
▁1992	-9.81791
▁alabilir	-9.81794
▁Transformat	-9.81807
▁kartı	-9.8181
olid	-9.81813
▁Yön	-9.81825
▁You	-9.81826
▁sağlayacak	-9.81826
:30	-9.81827
▁63	-9.81831
▁KON	-9.8184
▁Topla	-9.81842
▁özgü	-9.81843
▁Masa	-9.81853
ntısı	-9.81854
LAR	-9.81856
▁olay	-9.81857
▁yerine	-9.81885
▁yönel	-9.81899
▁yu	-9.81905
▁Birliği	-9.81916
▁yazma	-9.81925
▁yararlı	-9.81942
▁Lev	-9.81962
▁geliştirile	-9.81978
▁dengeli	-9.81984
▁maliyetli	-9.81985
anner	-9.82008
▁neden	-9.82009
rdek	-9.82011
▁ayak	-9.82012
▁Ayar	-9.82016
▁cins	-9.82019
ým	-9.82027
IL	-9.82044
agem	-9.82045
▁televizyonlu	-9.82052
73	-9.8208
▁Log	-9.82082
▁göm	-9.82085
81	-9.82089
IF	-9.82093
▁Köp	-9.82103
leştirile	-9.82112
Kimyasal	-9.82135
▁satırlar	-9.82137
▁(22	-9.82138
▁1000	-9.82141
▁alım	-9.82153
lmis	-9.82157
▁gev	-9.82177
▁çiftler	-9.82211
▁bulma	-9.82243
▁Nic	-9.82253
▁mast	-9.82278
▁aldı	-9.82279
zmir	-9.82282
niye	-9.82292
▁Pip	-9.82315
▁kesin	-9.82329
atura	-9.82338
▁ÇO	-9.8235
▁suyunu	-9.82362
lendirici	-9.82364
▁Raf	-9.82386
ayacak	-9.82417
ation	-9.82418
▁doğrulama	-9.82432
▁dönüşü	-9.82478
UM	-9.82502
▁evre	-9.82507
▁Mill	-9.8251
▁RO	-9.82524
hing	-9.82533
▁Yazılımı	-9.82542
▁FU	-9.82546
▁dayan	-9.82568
▁tanımlama	-9.82588
▁Med	-9.82652
casu	-9.82653
▁yiye	-9.82711
82	-9.82722
ğaz	-9.8275
▁Bakım	-9.82814
▁yerlerin	-9.82821
amile	-9.82837
▁hattı	-9.82838
biyo	-9.82844
▁dikkatli	-9.82892
▁telefonu	-9.82903
▁yazılımın	-9.82954
İR	-9.82997
▁Hos	-9.83008
▁uzan	-9.8301
▁sitesinde	-9.83028
eceksin	-9.83051
bbi	-9.83145
▁projesi	-9.8321
▁isteğ	-9.83219
▁yenilik	-9.83271
layabilir	-9.83293
▁pah	-9.83298
▁Metr	-9.83337
dos	-9.83421
▁alet	-9.83452
▁and	-9.83513
gün	-9.83575
uzunluk	-9.83582
lerinizi	-9.8361
▁başlama	-9.83629
matör	-9.83675
▁seçin	-9.83735
▁Valf	-9.83786
▁azaltma	-9.83934
onca	-9.8397
ünüz	-9.84035
lər	-9.84055
▁faydalanabilir	-9.84061
app	-9.84303
▁Sole	-9.84334
ivi	-9.84335
arj	-9.84359
eçici	-9.84512
▁kenarları	-9.84539
▁kayd	-9.84547
▁yollarda	-9.84651
üsler	-9.84669
bileceğiniz	-9.84841
▁dosyaların	-9.85052
▁Ekle	-9.8509
▁seviyesin	-9.85427
307	-9.85452
rlak	-9.85487
▁söyleme	-9.8549
▁programları	-9.85493
▁Net	-9.85521
ifik	-9.85549
NE	-9.85581
▁Düğ	-9.85698
▁kapasitesi	-9.85717
▁Bey	-9.85831
nilen	-9.86162
▁Hay	-9.86433
▁oynaya	-9.86439
▁Erken	-9.86444
▁iti	-9.8645
▁güvenin	-9.86556
▁görüntüleri	-9.86644
▁sonuçlan	-9.86964
orb	-9.87308
▁çözümleri	-9.87333
acaksınız	-9.87666
etkinliği	-9.87722
▁Ölü	-9.87742
isha	-9.87889
▁işlerini	-9.87901
▁adlandırıl	-9.8806
▁ihtiyaçların	-9.88096
nayl	-9.88163
▁oyunun	-9.88168
COM	-9.88221
▁paylaşıl	-9.88316
▁okuma	-9.88477
▁Altında	-9.88512
▁ders	-9.88568
▁gereksinimi	-9.89183
ELI	-9.89644
▁açılı	-9.89685
uydu	-9.89791
▁koşulların	-9.90052
▁yüzeyler	-9.90182
▁deneyimleri	-9.90369
250	-9.90613
▁şirketler	-9.90988
abileceğini	-9.91318
mızı	-9.91353
▁büyüme	-9.91386
▁Had	-9.91649
LG	-9.91727
▁uygulanabil	-9.92076
▁implant	-9.92087
▁katlan	-9.92264
▁seçil	-9.9233
ablosu	-9.92523
▁kıy	-9.92905
▁barın	-9.93217
ölü	-9.93348
Mavi	-9.94403
iştir	-9.94459
egülatör	-9.95441
ach	-9.95567
▁işletmeler	-9.95653
shi	-9.95767
hab	-9.9599
▁büt	-9.9621
Bizim	-9.96412
308	-9.96788
lvi	-9.96837
▁refl	-9.97023
yüzü	-9.97299
2010	-9.97324
▁gruplar	-9.97698
▁Pres	-9.98025
labildiğin	-9.98152
▁programını	-9.98416
oji	-9.99177
ktadır	-9.99256
▁alması	-9.99564
öylece	-9.99756
bilirsiniz	-9.99843
▁sağlana	-9.99853
nov	-9.99865
tetik	-9.99975
▁bulunma	-10.0045
▁tedarikçiler	-10.0067
▁satıcı	-10.0068
mediğiniz	-10.0072
ldığını	-10.0099
▁hazırlı	-10.0124
NO	-10.0166
▁Müşterileri	-10.0222
▁kaz	-10.0224
▁solu	-10.0227
▁basınc	-10.0242
RS	-10.0264
Hong	-10.0382
▁sakla	-10.0388
▁verile	-10.0391
▁Bakı	-10.0435
▁kapılar	-10.0441
▁gençler	-10.0474
▁tedarikçi	-10.0535
atıcısı	-10.0647
▁gerçekleşm	-10.0738
ısır	-10.0758
bildiğinden	-10.0801
▁grup	-10.0893
özlük	-10.0941
dığını	-10.0999
▁ref	-10.1024
▁ilaçların	-10.112
▁sürecin	-10.1139
ülatörü	-10.1156
▁zenginleştir	-10.1225
▁olmayacak	-10.1244
ğimiz	-10.1265
▁olmadığı	-10.141
▁muha	-10.142
ıldığı	-10.147
▁900	-10.156
▁çalış	-10.1585
Kam	-10.1586
▁kurulum	-10.1602
▁Send	-10.1633
▁operasyon	-10.164
▁merkez	-10.169
▁yapması	-10.1713
▁İnsan	-10.1792
▁bulaş	-10.1842
▁gereksinim	-10.1937
iyat	-10.2012
▁çizgi	-10.2052
lduğunda	-10.2104
▁şekli	-10.2155
▁Üretici	-10.2193
▁verdi	-10.22
inizde	-10.2258
▁Sağlı	-10.2362
rüt	-10.2371
▁söz	-10.2376
lendirme	-10.2376
uncu	-10.2392
▁kapasite	-10.2423
▁karıştırı	-10.2426
▁üre	-10.2502
▁bunlar	-10.2513
▁özelleştiril	-10.2531
▁mark	-10.2535
bela	-10.2541
ağlığı	-10.257
lastik	-10.2578
▁mağazalar	-10.2617
ğınızı	-10.2684
DPE	-10.271
▁Özellikle	-10.2728
▁polit	-10.2739
▁sahibini	-10.2812
ışkanlı	-10.2816
bük	-10.2841
▁azalt	-10.2841
▁beklen	-10.2854
▁yükle	-10.2859
▁prote	-10.2862
▁araştır	-10.289
Türkiye	-10.2907
örneğin	-10.2913
sonuç	-10.2916
elektrik	-10.2919
Ö	-10.2921
değer	-10.2927
park	-10.2928
yüksek	-10.2931
_	-10.2931
▁yön	-10.2937
2019	-10.2949
▁anlam	-10.2949
kopi	-10.2952
▁Geç	-10.2952
ount	-10.298
▁tasarla	-10.298
▁çubu	-10.2981
▁yumuşa	-10.2983
amandır	-10.2995
▁filtr	-10.2997
▁İtalya	-10.2997
şem	-10.2999
▁grub	-10.3003
▁çeşitl	-10.3004
post	-10.3007
duğunuz	-10.3019
▁Apart	-10.3023
▁Moto	-10.303
▁hesabın	-10.3031
▁restor	-10.3032
▁aktar	-10.3038
92-	-10.3045
▁aşağı	-10.3051
▁Işı	-10.3057
▁tasarruf	-10.306
ontrol	-10.3062
▁altyapı	-10.3065
ktörü	-10.3071
▁Parça	-10.3076
▁Sev	-10.3076
▁Doğa	-10.3077
plasti	-10.3077
öşe	-10.3078
▁dökü	-10.3078
amayacağı	-10.3079
Kaynakl	-10.308
▁yeter	-10.3081
▁hukuk	-10.3081
videos	-10.3084
▁Hasta	-10.3087
kşam	-10.3088
▁tercih	-10.3088
▁mesaj	-10.3088
▁Old	-10.309
▁verebilir	-10.3093
leştirdi	-10.3094
▁üzeri	-10.3097
ambu	-10.3098
şkın	-10.3099
▁Fotoğraf	-10.3101
▁elektr	-10.3102
▁Ağır	-10.3103
üçük	-10.3103
▁konusu	-10.3104
▁esnek	-10.3106
vantajları	-10.3106
yarlanabilir	-10.3106
▁ulus	-10.3108
alışanlar	-10.3109
ağıtım	-10.311
aldırma	-10.311
eliştirme	-10.3111
ayanıklı	-10.3111
ışıklık	-10.3111
ıllı	-10.3112
nerji	-10.3112
▁ekstr	-10.3112
▁depo	-10.3114
▁Kullan	-10.3114
iziksel	-10.3114
▁eriş	-10.3115
▁Hassas	-10.3116
siklet	-10.3116
mpos	-10.3117
▁muhte	-10.3117
evcut	-10.3118
▁köp	-10.3119
в	-10.3119
▁Dekora	-10.3119
hotel	-10.3119
▁Etkinli	-10.3119
▁yavaş	-10.3119
▁kaşı	-10.3119
apılacak	-10.3119
▁Mekan	-10.3119
▁Finans	-10.312
б	-10.312
м	-10.312
т	-10.312
я	-10.312
▁göstəri	-10.312
▁konnektör	-10.312
script	-10.312
▁CoinJoin	-10.312
▁Davetiye	-10.312
▁ExpressVPN	-10.312
▁Köyü	-10.312
▁Manufa	-10.312
▁Steriliz	-10.312
▁bekleti	-10.312
▁geçirgenliği	-10.312
▁kombinasyon	-10.312
▁kılavuzu	-10.312
Blogger	-10.312
Miroglio	-10.312
Shanghai	-10.312
TASYON	-10.312
abaratuvarlar	-10.312
etodoloji	-10.312
istribütörü	-10.312
iyerarşi	-10.312
mbrok	-10.312
onteyner	-10.312
rbaycan	-10.312
ýnýz	-10.312
Ğ	-10.312
İŞİM	-10.312
с	-10.312
ộ	-10.312
▁Ayaydın	-10.312
▁Aşındırma	-10.312
▁Bileşik	-10.312
▁Bungalow	-10.312
▁Christine	-10.312
▁Decanoat	-10.312
▁Doktor	-10.312
▁Donanımı	-10.312
▁Duyuru	-10.312
▁Ekonomi	-10.312
▁Eldiven	-10.312
▁Electronic	-10.312
▁Elektro	-10.312
▁Excel	-10.312
▁Fakültesi	-10.312
▁Girişimci	-10.312
▁Internet	-10.312
▁Jammer	-10.312
▁Kapasitesi	-10.312
▁Kazanç	-10.312
▁Kelimeler	-10.312
▁Keypad	-10.312
▁Konektör	-10.312
▁Mercedes	-10.312
▁PETROLEUM	-10.312
▁PROJELER	-10.312
▁Pregabalin	-10.312
▁Restoran	-10.312
▁Results	-10.312
▁Teslimat	-10.312
▁Triggerfish	-10.312
▁Tütüncü	-10.312
▁Yardımcı	-10.312
▁Yargı	-10.312
▁abonelik	-10.312
▁aktiviteler	-10.312
▁akıntı	-10.312
▁antrenman	-10.312
▁ayakkabı	-10.312
▁barındırılan	-10.312
▁başlayarak	-10.312
▁birleştiren	-10.312
▁bornozlar	-10.312
▁davranma	-10.312
▁depresyonu	-10.312
▁dogranmis	-10.312
▁drenaj	-10.312
▁duyumsadı	-10.312
▁dönüştürmek	-10.312
▁efektler	-10.312
▁ekleyerek	-10.312
▁eldiven	-10.312
▁etkileyebilir	-10.312
▁etkinleştir	-10.312
▁gidiyor	-10.312
▁görevlisi	-10.312
▁gülüş	-10.312
▁huzurlu	-10.312
▁kadro	-10.312
▁kokusu	-10.312
▁mukavemeti	-10.312
▁onarımları	-10.312
▁organlar	-10.312
▁otobüs	-10.312
▁personel	-10.312
▁polyester	-10.312
▁rengi	-10.312
▁sembolize	-10.312
▁süneklik	-10.312
▁tartışma	-10.312
▁tecrübe	-10.312
▁tencere	-10.312
▁tezahür	-10.312
▁teşekkür	-10.312
▁tropik	-10.312
▁turnuva	-10.312
▁ultrason	-10.312
▁unsurlar	-10.312
▁unutulma	-10.312
▁uğraşma	-10.312
▁vuruşları	-10.312
▁yerleştirme	-10.312
▁yetişkinler	-10.312
▁yumruk	-10.312
▁yükselme	-10.312
▁ziyaret	-10.312
▁ÜRETİCİLER	-10.312
▁Üretim	-10.312
▁çoğaltı	-10.312
▁ızgara	-10.312
▁Şampiyon	-10.312
▁Mukavemet	-10.312
▁Silver	-10.312
▁Tehlike	-10.312
▁destekleyebilir	-10.312
▁kirlilik	-10.312
▁perakendeci	-10.312
▁pigment	-10.312
▁ziyaretçiler	-10.312
▁çatışmalar	-10.312
meslektaşları	-10.312
olution	-10.312
period	-10.312
▁91.5	-10.312
▁Avrasya	-10.312
▁Binance	-10.312
▁Dedektörler	-10.312
▁Dublin	-10.312
▁Formül	-10.312
▁Garanti	-10.312
▁Hücre	-10.312
▁Koltuk	-10.312
▁Optoelektronik	-10.312
▁Sharp	-10.312
▁Torino	-10.312
▁ankrajı	-10.312
▁artırılması	-10.312
▁büzülmesi	-10.312
▁dağılım	-10.312
▁deformasyonu	-10.312
▁düşündüğünüz	-10.312
▁erişilebilir	-10.312
▁gerekiyorsa	-10.312
▁gübreleme	-10.312
▁hissed	-10.312
▁kapsam	-10.312
▁keşfedi	-10.312
▁lekeler	-10.312
▁paylaşma	-10.312
▁portföy	-10.312
▁protokol	-10.312
▁sekmesin	-10.312
▁siklo	-10.312
▁steriliz	-10.312
▁sütununda	-10.312
▁tuttur	-10.312
▁vakıf	-10.312
▁yemeği	-10.312
▁zehirlenme	-10.312
▁üniversiteler	-10.312
▁İzolasyon	-10.312
▁İzolatör	-10.312
▁ısırığı	-10.312
Option	-10.312
antastik	-10.312
yüklü	-10.312
ите	-10.312
▁Barselona	-10.312
▁Benzersiz	-10.312
▁Bruns	-10.312
▁Gallery	-10.312
▁Günümüzde	-10.312
▁Kitabı	-10.312
▁Soğutucu	-10.312
▁arttırır	-10.312
▁başarısızlık	-10.312
▁dürüst	-10.312
▁mağdur	-10.312
▁paeoni	-10.312
▁Çözüm	-10.312
Deluxe	-10.312
▁Almanya	-10.312
▁Avustralya	-10.312
▁Baskı	-10.312
▁Karaogl	-10.312
▁Turkish	-10.312
▁eğitme	-10.312
▁imzalan	-10.312
▁keyif	-10.312
▁nüfu	-10.312
▁olasılıkla	-10.312
▁politikası	-10.312
▁sertifika	-10.312
▁sorgula	-10.312
▁süslemeleri	-10.312
▁tabağı	-10.312
▁öğlen	-10.312
▁750	-10.312
▁aygıt	-10.312
▁açılacak	-10.312
▁direnci	-10.312
▁rulo	-10.312
▁Ülke	-10.312
▁şeridi	-10.312
bildikleri	-10.312
ezgah	-10.312
loud	-10.312
view	-10.312
ä	-10.312
▁Apartment	-10.312
▁Rezerv	-10.312
▁Ulaşı	-10.312
▁VARI	-10.312
▁süpür	-10.312
▁yıpra	-10.312
▁öldür	-10.312
▁Değiştir	-10.312
▁Temizleyici	-10.312
▁birleşimin	-10.312
▁görünüyor	-10.312
▁pişiri	-10.312
▁çalıştırmak	-10.312
7-21	-10.312
DÜL	-10.312
INDE	-10.312
▁Eyalet	-10.312
▁Hangi	-10.312
▁Kumaş	-10.312
▁Quad	-10.312
▁ayarlarınız	-10.312
▁kokulu	-10.312
▁kırıl	-10.312
▁olmayabilir	-10.312
▁sanatçı	-10.312
▁yöneticileri	-10.312
▁örtü	-10.312
▁Zaman	-10.312
▁Knorr	-10.312
▁Only	-10.312
▁devresin	-10.312
▁sefer	-10.312
▁spesifi	-10.312
▁örnek	-10.312
oltuğu	-10.312
phone	-10.312
▁Kılıf	-10.312
▁Mağaza	-10.312
▁elasto	-10.312
▁kanıtı	-10.312
▁köpeği	-10.312
▁rady	-10.312
▁tekniği	-10.312
▁Çözün	-10.312
▁çorap	-10.312
dükkan	-10.312
urtdışında	-10.312
ıyorsunuz	-10.312
▁Abdul	-10.312
▁Dövüş	-10.312
▁madencili	-10.312
▁modülleri	-10.312
erhem	-10.312
▁Kiosk	-10.312
▁iPad	-10.312
▁katıldı	-10.312
▁meslek	-10.312
▁piyasa	-10.312
▁ASTM	-10.312
▁Memor	-10.312
▁üretebil	-10.312
375	-10.312
▁patojen	-10.312
▁sunucuları	-10.312
▁tablet	-10.312
▁Berlin	-10.312
▁elyaf	-10.312
▁gebe	-10.312
▁Tallin	-10.312
hotos	-10.312
▁550	-10.312
▁Derneği	-10.312
▁Listesi	-10.312
▁Mikro	-10.312
▁gövde	-10.312
▁Asyalı	-10.312
▁Chem	-10.312
▁kamu	-10.312
▁Süresi	-10.312
▁komut	-10.312
▁Pepti	-10.312
drar	-10.312
▁eleman	-10.312
arrow	-10.312
▁formül	-10.312
Varsa	-10.312
▁Bulmaca	-10.312
▁BİL	-10.312
▁Hedef	-10.312
▁ISO	-10.312
▁Kolej	-10.312
426	-10.312
ulmus	-10.312
▁mevsim	-10.312
▁sokak	-10.312
Hareket	-10.312
▁Turizm	-10.312
▁ruhsat	-10.312
▁İçeri	-10.312
onitör	-10.312
▁Compa	-10.312
▁Trading	-10.312
▁vatandaşl	-10.312
▁yükümlü	-10.312
▁İşaretle	-10.312
▁Finansmanı	-10.312
Drive	-10.312
▁kilise	-10.312
▁proses	-10.312
ıldönümü	-10.312
▁adapt	-10.312
▁uyandır	-10.312
▁yükleyin	-10.312
▁Sihir	-10.312
▁hacmi	-10.312
▁seans	-10.312
▁Rapor	-10.312
▁savaş	-10.312
▁Güncel	-10.312
▁saygı	-10.312
yurdu	-10.312
▁Hostel	-10.312
▁Müdür	-10.312
▁kuzey	-10.312
▁tanıtım	-10.312
▁Whol	-10.312
▁Yorum	-10.312
▁rakip	-10.312
▁külot	-10.312
▁macun	-10.312
erakende	-10.312
▁Monob	-10.312
▁devlet	-10.312
▁Politika	-10.312
▁Talebi	-10.312
▁belirttiği	-10.312
▁yenilikçi	-10.312
ÜRÜ	-10.312
ко	-10.312
▁(120	-10.312
▁Singap	-10.312
▁kilo	-10.312
▁simge	-10.312
▁unutmayın	-10.312
▁çiçekçi	-10.312
▁FOB	-10.312
▁blog	-10.312
▁sağlayıcıları	-10.312
Design	-10.312
▁kolonun	-10.312
▁Çakma	-10.312
▁fikir	-10.312
▁retro	-10.312
3-7	-10.312
▁Kulak	-10.312
▁kaydedi	-10.312
▁Lastik	-10.312
▁Başlat	-10.312
alatası	-10.312
▁terapi	-10.312
▁Tarih	-10.312
▁Aletleri	-10.312
▁kantit	-10.312
IMI	-10.312
▁Dondur	-10.312
▁stator	-10.312
▁vize	-10.312
▁çıkabil	-10.312
düğünü	-10.312
▁yurt	-10.312
▁BTC	-10.312
▁şov	-10.312
▁silah	-10.312
▁yollarla	-10.312
quie	-10.312
▁çevir	-10.312
▁Geniş	-10.312
▁Foto	-10.312
▁durağı	-10.3121
wagen	-10.3121
▁becer	-10.3121
▁işlev	-10.3121
▁Full	-10.3121
▁görüntüsü	-10.3121
morti	-10.3121
▁PAY	-10.3121
▁Bağış	-10.3121
▁ANK	-10.3121
nsanlığa	-10.3121
rıltı	-10.3121
▁modu	-10.3121
▁Emül	-10.3121
▁ilacı	-10.3121
▁Mersin	-10.3121
▁visk	-10.3121
mühür	-10.3121
▁Bilgi	-10.3121
▁Türleri	-10.3121
ав	-10.3121
▁YER	-10.3121
▁hamur	-10.3121
▁yapılacak	-10.3121
sıtılır	-10.3121
▁arttırmak	-10.3121
işasta	-10.3121
▁İzleme	-10.3121
▁Gezin	-10.3121
▁avcıl	-10.3121
▁yavaşlatma	-10.3121
▁öğesi	-10.3121
▁bobin	-10.3121
ompresör	-10.3121
proof	-10.3121
▁ütüsü	-10.3121
otizm	-10.3121
ри	-10.3121
▁Budape	-10.3121
▁Dekorasyon	-10.3121
▁Kongre	-10.3121
▁Koruma	-10.3121
▁Resimler	-10.3121
▁indirin	-10.3121
▁Ağız	-10.3121
▁umuyoru	-10.3121
▁Kaplama	-10.3121
▁izlenmesi	-10.3121
▁CAD	-10.3121
▁folik	-10.3121
▁hazne	-10.3121
▁yumuşatıcı	-10.3121
▁Cumhuriyet	-10.3121
▁Mekanizma	-10.3121
▁yatırım	-10.3121
▁sergi	-10.3121
▁Depo	-10.3121
▁engellenmesi	-10.3121
▁olacağını	-10.3121
▁buldu	-10.3121
Soft	-10.3121
iyoteknoloji	-10.3121
▁olanakları	-10.3121
▁imal	-10.3121
▁lokma	-10.3121
ouse	-10.3122
▁kaynat	-10.3122
▁enjek	-10.3122
▁Kabin	-10.3122
:22	-10.3122
▁makyaj	-10.3122
▁çikolata	-10.3122
▁çözücü	-10.3122
▁Chun	-10.3122
▁Paket	-10.3122
▁kabar	-10.3122
▁patlama	-10.3122
▁Yükle	-10.3122
▁Lezbiyen	-10.3122
▁dağıt	-10.3122
▁banka	-10.3122
▁adayları	-10.3122
▁tepki	-10.3122
▁dönme	-10.3122
▁pasta	-10.3122
Devamı	-10.3122
ıvı	-10.3122
▁Yayın	-10.3122
▁Gök	-10.3122
▁Katman	-10.3122
▁ideal	-10.3122
▁Yurt	-10.3122
apris	-10.3122
▁festival	-10.3122
▁Öneri	-10.3122
▁Etkinlikler	-10.3122
Sprin	-10.3122
▁alkol	-10.3123
▁Şang	-10.3123
▁prototipleme	-10.3123
▁yıkı	-10.3123
▁kilometre	-10.3123
▁tarifler	-10.3123
▁Bisiklet	-10.3123
▁muayene	-10.3123
çiliği	-10.3123
▁Işığı	-10.3123
ühre	-10.3123
▁Garden	-10.3123
trepo	-10.3123
▁formatında	-10.3123
▁Kitleri	-10.3123
▁konsol	-10.3123
▁Kilitle	-10.3123
▁hbn	-10.3123
▁Katkı	-10.3123
▁Palet	-10.3123
▁tpu	-10.3123
▁metaboli	-10.3123
298	-10.3123
▁cnc	-10.3123
▁Steph	-10.3123
▁düzgün	-10.3123
▁Hassasiyet	-10.3123
▁Erişi	-10.3123
▁yarısın	-10.3124
▁otomotiv	-10.3124
▁Profil	-10.3124
▁çalıştı	-10.3124
484	-10.3124
▁dönüştürücü	-10.3124
▁duygusal	-10.3124
▁Hakkı	-10.3124
▁Over	-10.3124
▁Chang	-10.3124
▁Katalo	-10.3124
▁Home	-10.3124
▁tempo	-10.3124
▁alındığında	-10.3124
▁ışının	-10.3124
rekans	-10.3124
▁ekstresi	-10.3125
SIU	-10.3125
ÖN	-10.3125
▁tutarak	-10.3125
akliye	-10.3125
▁Nadir	-10.3125
▁hizmetinizde	-10.3125
RİA	-10.3125
▁Danc	-10.3125
▁aksesuar	-10.3125
▁lob	-10.3125
eferans	-10.3125
leyecek	-10.3126
▁Add	-10.3126
▁mühendisliği	-10.3126
dating	-10.3126
▁Must	-10.3126
taria	-10.3126
SUN	-10.3126
▁sığ	-10.3126
▁otomo	-10.3126
▁katkı	-10.3126
▁damla	-10.3126
Sonraki	-10.3126
▁ulaşım	-10.3126
uşturma	-10.3126
ffer	-10.3126
ülmesi	-10.3126
▁yönetmen	-10.3127
▁Cadd	-10.3127
lova	-10.3127
▁içecekler	-10.3127
▁cihazınız	-10.3127
▁formu	-10.3127
▁yazıcı	-10.3127
Modern	-10.3127
▁mono	-10.3127
EDİ	-10.3127
echani	-10.3127
▁kullanılacak	-10.3127
▁danışı	-10.3127
▁Hamam	-10.3127
▁koruyucu	-10.3127
▁Galvanizli	-10.3127
▁eklenmesi	-10.3128
▁polimer	-10.3128
SYA	-10.3128
▁skor	-10.3128
▁aktarımı	-10.3128
webcam	-10.3128
▁yönlü	-10.3128
LİK	-10.3128
ıkama	-10.3128
lgun	-10.3128
▁isim	-10.3128
Downl	-10.3128
▁koyabilirsiniz	-10.3128
▁telefonunuz	-10.3129
▁göstericiler	-10.3129
▁lö	-10.3129
▁Belek	-10.3129
amid	-10.3129
lbise	-10.3129
kstrüder	-10.3129
▁tabakası	-10.3129
▁deposu	-10.3129
▁Soğu	-10.313
▁şarj	-10.313
▁uyuş	-10.313
▁frekans	-10.313
▁duyarlı	-10.313
▁soylular	-10.313
▁Şek	-10.313
▁kırışık	-10.313
rtesi	-10.313
▁Sunar	-10.313
▁püre	-10.313
▁önleyici	-10.3131
▁Daireler	-10.3131
janda	-10.3131
▁Kültür	-10.3131
▁liman	-10.3131
▁mahs	-10.3131
▁taah	-10.3131
▁bastır	-10.3132
▁beş	-10.3132
▁düzenlenmiş	-10.3132
▁kullanmayı	-10.3132
▁belirtilmiş	-10.3132
ardiyo	-10.3132
▁reh	-10.3133
▁İdrar	-10.3133
▁Prime	-10.3133
▁bahçe	-10.3133
kraft	-10.3133
▁çalışıyor	-10.3133
▁Saat	-10.3133
▁artış	-10.3133
▁Yüzey	-10.3133
antalya	-10.3134
▁lezzetl	-10.3134
dll	-10.3134
▁rast	-10.3134
▁sirk	-10.3134
▁Term	-10.3134
▁projelerinde	-10.3134
idd	-10.3134
▁içerme	-10.3135
▁birbirin	-10.3135
▁Asp	-10.3135
▁Snap	-10.3135
▁House	-10.3135
▁ayarlanabilir	-10.3135
▁defa	-10.3135
▁yangın	-10.3135
▁Cev	-10.3136
▁Gran	-10.3136
▁BIO	-10.3136
şkil	-10.3136
▁prosedürünü	-10.3136
▁plaka	-10.3136
mrü	-10.3136
▁galeri	-10.3136
▁ocak	-10.3136
▁198	-10.3137
ardeşi	-10.3137
agle	-10.3137
hrin	-10.3137
maddi	-10.3137
▁Sac	-10.3138
▁Ağırlık	-10.3138
▁Hastalık	-10.3138
▁akv	-10.3138
▁Fotoğrafçıl	-10.3139
üreçlerini	-10.3139
▁görünümlü	-10.3139
▁mesh	-10.3139
▁klas	-10.3139
▁başlatın	-10.3139
olekül	-10.314
▁160	-10.314
▁getirmek	-10.314
▁RJ	-10.314
▁takib	-10.314
▁bulantı	-10.314
▁kalınlığı	-10.314
▁Plaka	-10.3141
▁büyüklüğü	-10.3141
▁köşe	-10.3141
▁Loj	-10.3141
piksel	-10.3141
about	-10.3142
▁konuşu	-10.3142
▁doğruluğu	-10.3142
▁teh	-10.3142
▁Pow	-10.3143
biliyoruz	-10.3143
▁reg	-10.3143
▁0.5	-10.3144
▁dedektör	-10.3144
▁mev	-10.3144
к	-11.3119
ъ	-11.3119
国	-11.3119
导	-11.3119
者	-11.3119
际	-11.3119
领	-11.3119
н	-11.312
п	-11.312
ш	-11.312
娱	-11.312
ë	-11.312
Á	-11.312
Ø	-11.312
à	-11.312
æ	-11.312
è	-11.312
í	-11.312
î	-11.312
û	-11.312
ł	-11.312
ń	-11.312
Ə	-11.312
В	-11.312
З	-11.312
д	-11.312
з	-11.312
й	-11.312
у	-11.312
ц	-11.312
ч	-11.312
乐	-11.312
城	-11.312
니	-11.312
아	-11.312
오	-11.312
일	-11.312
전	-11.312
þ	-11.312
Б	-11.312
â	-11.93
