{
  "<unk>": 0,
  "<pad>": 1,
  " ": 3,
  "!": 4,
  "\"": 5,
  "#": 6,
  "$": 7,
  "%": 8,
  "&": 9,
  "'": 10,
  "(": 11,
  ")": 12,
  "*": 13,
  "+": 14,
  ",": 15,
  "-": 16,
  ".": 17,
  "/": 18,
  "0": 19,
  "1": 20,
  "2": 21,
  "3": 22,
  "4": 23,
  "5": 24,
  "6": 25,
  "7": 26,
  "8": 27,
  "9": 28,
  ":": 29,
  ";": 30,
  "=": 31,
  ">": 32,
  "?": 33,
  "@": 34,
  "A": 35,
  "B": 36,
  "C": 37,
  "D": 38,
  "E": 39,
  "F": 40,
  "G": 41,
  "H": 42,
  "I": 43,
  "J": 44,
  "K": 45,
  "L": 46,
  "M": 47,
  "N": 48,
  "O": 49,
  "P": 50,
  "Q": 51,
  "R": 52,
  "S": 53,
  "T": 54,
  "U": 55,
  "V": 56,
  "W": 57,
  "X": 58,
  "Y": 59,
  "Z": 60,
  "[": 61,
  "]": 62,
  "^": 63,
  "_": 64,
  "a": 65,
  "b": 66,
  "c": 67,
  "d": 68,
  "e": 69,
  "f": 70,
  "g": 71,
  "h": 72,
  "i": 73,
  "j": 74,
  "k": 75,
  "l": 76,
  "m": 77,
  "n": 78,
  "o": 79,
  "p": 80,
  "q": 81,
  "r": 82,
  "s": 83,
  "t": 84,
  "u": 85,
  "v": 86,
  "w": 87,
  "x": 88,
  "y": 89,
  "z": 90,
  "|": 91,
  "": 92,
  "£": 93,
  "¨": 94,
  "©": 95,
  "ª": 96,
  "«": 97,
  "°": 98,
  "²": 99,
  "»": 100,
  "Ó": 101,
  "×": 102,
  "Ü": 103,
  "í": 104,
  "ï": 105,
  "в": 106,
  "и": 107,
  "л": 108,
  "о": 109,
  "т": 110,
  "я": 111,
  "ا": 112,
  "ت": 113,
  "ل": 114,
  "و": 115,
  "ی": 116,
  "ँ": 117,
  "ं": 118,
  "ः": 119,
  "अ": 120,
  "आ": 121,
  "इ": 122,
  "ई": 123,
  "उ": 124,
  "ऊ": 125,
  "ऋ": 126,
  "ऌ": 127,
  "ए": 128,
  "ऐ": 129,
  "ऑ": 130,
  "ओ": 131,
  "औ": 132,
  "क": 133,
  "ख": 134,
  "ग": 135,
  "घ": 136,
  "ङ": 137,
  "च": 138,
  "छ": 139,
  "ज": 140,
  "झ": 141,
  "ञ": 142,
  "ट": 143,
  "ठ": 144,
  "ड": 145,
  "ढ": 146,
  "ण": 147,
  "त": 148,
  "थ": 149,
  "द": 150,
  "ध": 151,
  "न": 152,
  "ऩ": 153,
  "प": 154,
  "फ": 155,
  "ब": 156,
  "भ": 157,
  "म": 158,
  "य": 159,
  "र": 160,
  "ऱ": 161,
  "ल": 162,
  "व": 163,
  "श": 164,
  "ष": 165,
  "स": 166,
  "ह": 167,
  "़": 168,
  "ा": 169,
  "ि": 170,
  "ी": 171,
  "ु": 172,
  "ू": 173,
  "ृ": 174,
  "ॅ": 175,
  "े": 176,
  "ै": 177,
  "ॉ": 178,
  "ो": 179,
  "ौ": 180,
  "्": 181,
  "।": 182,
  "०": 183,
  "१": 184,
  "२": 185,
  "३": 186,
  "४": 187,
  "५": 188,
  "६": 189,
  "७": 190,
  "८": 191,
  "९": 192,
  "॰": 193,
  "​": 194,
  "‌": 195,
  "‍": 196,
  "‎": 197,
  "–": 198,
  "—": 199,
  "‘": 200,
  "’": 201,
  "“": 202,
  "”": 203,
  "…": 204,
  "›": 205,
  "←": 206,
  "➽": 207,
  "﻿": 208,
  "�": 209,
  "🔊": 210,
  "🔵": 211,
  "के": 211,
  "ार": 212,
  "ें": 213,
  "ने": 214,
  "्र": 215,
  "है": 216,
  "या": 217,
  "में": 218,
  "की": 219,
  "ों": 220,
  "का": 221,
  "कर": 222,
  "से": 223,
  "कि": 224,
  "को": 225,
  "ना": 226,
  "स्": 227,
  "ता": 228,
  "र्": 229,
  "ला": 230,
  "क्": 231,
  "वा": 232,
  "पर": 233,
  "ही": 234,
  "ले": 235,
  "रा": 236,
  "जा": 237,
  "हा": 238,
  "लि": 239,
  "प्र": 240,
  "सा": 241,
  "्य": 242,
  "मा": 243,
  "और": 244,
  "वि": 245,
  "इस": 246,
  "भी": 247,
  "कार": 248,
  "नि": 249,
  "ड़": 250,
  "हो": 251,
  "बा": 252,
  "दि": 253,
  "दे": 254,
  "हैं": 255,
  "गा": 256,
  "ते": 257,
  "ति": 258,
  "नी": 259,
  "पा": 260,
  "ली": 261,
  "सी": 262,
  "त्र": 263,
  "मि": 264,
  "हु": 265,
  "ती": 266,
  "न्": 267,
  "क्ष": 268,
  "लिए": 269,
  "था": 270,
  "ंग": 271,
  "री": 272,
  "जि": 273,
  "हीं": 274,
  "सं": 275,
  "सि": 276,
  "ल्": 277,
  "दी": 278,
  "रह": 279,
  "त्": 280,
  "पु": 281,
  "एक": 282,
  "मु": 283,
  "टी": 284,
  "दा": 285,
  "ोग": 286,
  "नहीं": 287,
  "वार": 288,
  "यों": 289,
  "भा": 290,
  "किया": 291,
  "रि": 292,
  "अप": 293,
  "हि": 294,
  "शा": 295,
  "चा": 296,
  "रो": 297,
  "सर": 298,
  "जी": 299,
  "धि": 300,
  "मी": 301,
  "गया": 302,
  "पी": 303,
  "कु": 304,
  "सम": 305,
  "देश": 306,
  "कहा": 307,
  "पू": 308,
  "सु": 309,
  "ंड": 310,
  "द्": 311,
  "बी": 312,
  "बाद": 313,
  "ट्र": 314,
  "तो": 315,
  "ंद": 316,
  "वे": 317,
  "मार": 318,
  "शि": 319,
  "खा": 320,
  "करने": 321,
  "रे": 322,
  "रू": 323,
  "नों": 324,
  "साथ": 325,
  "मे": 326,
  "यह": 327,
  "राज": 328,
  "लोग": 329,
  "न्ह": 330,
  "ित": 331,
  "क्र": 332,
  "धा": 333,
  "मं": 334,
  "्या": 335,
  "वी": 336,
  "ये": 337,
  "उन": 338,
  "गी": 339,
  "स्ट": 340,
  "ंच": 341,
  "रहे": 342,
  "रु": 343,
  "तक": 344,
  "दिया": 345,
  "ढ़": 346,
  "उन्ह": 347,
  "पह": 348,
  "ारी": 349,
  "दो": 350,
  "बि": 351,
  "फि": 352,
  "श्": 353,
  "शन": 354,
  "ष्": 355,
  "जन": 356,
  "जो": 357,
  "गे": 358,
  "ार्": 359,
  "गई": 360,
  "उस": 361,
  "रहा": 362,
  "आप": 363,
  "डि": 364,
  "20": 365,
  "थी": 366,
  "तर": 367,
  "हुए": 368,
  "अन": 369,
  "बार": 370,
  "चु": 371,
  "ओं": 372,
  "प्": 373,
  "मान": 374,
  "टर": 375,
  "भार": 376,
  "बता": 377,
  "रही": 378,
  "सक": 379,
  "यो": 380,
  "सरकार": 381,
  "मै": 382,
  "मिल": 383,
  "इन": 384,
  "हर": 385,
  "मंत्र": 386,
  "पुलि": 387,
  "टि": 388,
  "किन": 389,
  "पुलिस": 390,
  "वर्": 391,
  "शु": 392,
  "बे": 393,
  "अपने": 394,
  "लोगों": 395,
  "टे": 396,
  "अधि": 397,
  "गर": 398,
  "मो": 399,
  "टा": 400,
  "जे": 401,
  "जाए": 402,
  "स्थ": 403,
  "ोंने": 404,
  "बर": 405,
  "लगा": 406,
  "थे": 407,
  "ियों": 408,
  "हम": 409,
  "दू": 410,
  "लेकिन": 411,
  "मौ": 412,
  "्रा": 413,
  "जब": 414,
  "यर": 415,
  "उन्होंने": 416,
  "एस": 417,
  "सू": 418,
  "यु": 419,
  "कारी": 420,
  "अब": 421,
  "जिस": 422,
  "मंत्री": 423,
  "डी": 424,
  "परि": 425,
  "बना": 426,
  "च्": 427,
  "गए": 428,
  "म्": 429,
  "बै": 430,
  "लों": 431,
  "लो": 432,
  "सिं": 433,
  "पि": 434,
  "इसके": 435,
  "होने": 436,
  "वह": 437,
  "हां": 438,
  "ड़ी": 439,
  "गु": 440,
  "स्था": 441,
  "क्षा": 442,
  "खि": 443,
  "कर्": 444,
  "ड़ा": 445,
  "सो": 446,
  "पे": 447,
  "एम": 448,
  "दौ": 449,
  "पहले": 450,
  "पुर": 451,
  "वाले": 452,
  "आई": 453,
  "दु": 454,
  "जान": 455,
  "चि": 456,
  "कुछ": 457,
  "सब": 458,
  "कार्य": 459,
  "सिंह": 460,
  "निर्": 461,
  "ध्य": 462,
  "पो": 463,
  "माम": 464,
  "बताया": 465,
  "डा": 466,
  "दर्": 467,
  "बं": 468,
  "फी": 469,
  "लग": 470,
  "चार": 471,
  "मुख": 472,
  "कों": 473,
  "प्रति": 474,
  "र्ट": 475,
  "बात": 476,
  "पूर्": 477,
  "उप": 478,
  "भारत": 479,
  "ड़े": 480,
  "व्य": 481,
  "लिया": 482,
  "्री": 483,
  "करते": 484,
  "स्त": 485,
  "पहु": 486,
  "्रे": 487,
  "रान": 488,
  "अनु": 489,
  "धान": 490,
  "उत्": 491,
  "लेकर": 492,
  "जु": 493,
  "योग": 494,
  "छा": 495,
  "ज़": 496,
  "यू": 497,
  "क्त": 498,
  "कोई": 499,
  "रुप": 500,
  "िया": 501,
  "ंत": 502,
  "ब्": 503,
  "बढ़": 504,
  "्यू": 505,
  "काम": 506,
  "फा": 507,
  "ंक": 508,
  "कई": 509,
  "खे": 510,
  "द्र": 511,
  "अपनी": 512,
  "ंप": 513,
  "क्षे": 514,
  "किसी": 515,
  "गां": 516,
  "दौरान": 517,
  "फ्": 518,
  "चल": 519,
  "प्रदेश": 520,
  "हुई": 521,
  "साल": 522,
  "कै": 523,
  "करा": 524,
  "वारा": 525,
  "00": 526,
  "शी": 527,
  "सभी": 528,
  "क्षेत्र": 529,
  "कम": 530,
  "समय": 531,
  "बु": 532,
  "ट्": 533,
  "चे": 534,
  "जार": 535,
  "स्ता": 536,
  "पार्": 537,
  "दिन": 538,
  "शे": 539,
  "जू": 540,
  "गि": 541,
  "राज्य": 542,
  "तरह": 543,
  "हार": 544,
  "लय": 545,
  "वं": 546,
  "ल्ली": 547,
  "देख": 548,
  "भाग": 549,
  "फिल्": 550,
  "तार": 551,
  "सद": 552,
  "वन": 553,
  "धार": 554,
  "एं": 555,
  "वर": 556,
  "ची": 557,
  "धी": 558,
  "रूप": 559,
  "हुआ": 560,
  "राम": 561,
  "डे": 562,
  "द्वारा": 563,
  "इं": 564,
  "ोड़": 565,
  "चुना": 566,
  "आर": 567,
  "वै": 568,
  "कल": 569,
  "दिल्ली": 570,
  "पास": 571,
  "उनके": 572,
  "जाने": 573,
  "गो": 574,
  "पहुंच": 575,
  "ज्": 576,
  "करें": 577,
  "घर": 578,
  "पै": 579,
  "कॉ": 580,
  "खु": 581,
  "सार": 582,
  "19": 583,
  "अभ": 584,
  "बो": 585,
  "नाम": 586,
  "फिल्म": 587,
  "आरो": 588,
  "क्रम": 589,
  "पता": 590,
  "णा": 591,
  "महि": 592,
  "मैं": 593,
  "ष्ट्र": 594,
  "होगा": 595,
  "शुरू": 596,
  "टीम": 597,
  "खिला": 598,
  "जाता": 599,
  "नो": 600,
  "उन्हें": 601,
  "बीच": 602,
  "आज": 603,
  "वाली": 604,
  "मू": 605,
  "ौर": 606,
  "मुख्य": 607,
  "रोना": 608,
  "मत": 609,
  "ध्यक्ष": 610,
  "अं": 611,
  "चुनाव": 612,
  "कोरोना": 613,
  "तीय": 614,
  "ंग्रे": 615,
  "जर": 616,
  "रख": 617,
  "प्रा": 618,
  "दार": 619,
  "फै": 620,
  "वर्ष": 621,
  "महिला": 622,
  "कुमार": 623,
  "धन": 624,
  "जै": 625,
  "नगर": 626,
  "लाख": 627,
  "पं": 628,
  "कह": 629,
  "ंद्र": 630,
  "बन": 631,
  "िक": 632,
  "गांव": 633,
  "जानकारी": 634,
  "सकता": 635,
  "वो": 636,
  "तै": 637,
  "कांग्रे": 638,
  "क्ति": 639,
  "करना": 640,
  "स्क": 641,
  "चौ": 642,
  "साम": 643,
  "सन": 644,
  "जना": 645,
  "ग्रा": 646,
  "वहीं": 647,
  "करी": 648,
  "मामले": 649,
  "फो": 650,
  "ीय": 651,
  "राष्ट्र": 652,
  "कांग्रेस": 653,
  "जय": 654,
  "जारी": 655,
  "यन": 656,
  "पूर्व": 657,
  "ठा": 658,
  "क्स": 659,
  "मह": 660,
  "यत": 661,
  "सभा": 662,
  "कान": 663,
  "नेता": 664,
  "जाएगा": 665,
  "हत": 666,
  "दोनों": 667,
  "बहु": 668,
  "अधिक": 669,
  "एवं": 670,
  "महा": 671,
  "सर्": 672,
  "मार्": 673,
  "यहां": 674,
  "वाई": 675,
  "सकते": 676,
  "10": 677,
  "दान": 678,
  "बैठ": 679,
  "ट्रे": 680,
  "पाल": 681,
  "कारण": 682,
  "हू": 683,
  "हन": 684,
  "जग": 685,
  "्यादा": 686,
  "तीन": 687,
  "अध्यक्ष": 688,
  "रुपये": 689,
  "कंप": 690,
  "फिर": 691,
  "पार्टी": 692,
  "करोड़": 693,
  "हिए": 694,
  "्ड": 695,
  "बच्": 696,
  "पोर्ट": 697,
  "ऐसे": 698,
  "चाहिए": 699,
  "किसा": 700,
  "पद": 701,
  "पर्": 702,
  "यक": 703,
  "टना": 704,
  "निक": 705,
  "जांच": 706,
  "तु": 707,
  "गं": 708,
  "शामिल": 709,
  "सबसे": 710,
  "शो": 711,
  "र्थ": 712,
  "योजना": 713,
  "घा": 714,
  "ंकि": 715,
  "ंस": 716,
  "भू": 717,
  "ज्यादा": 718,
  "हे": 719,
  "हित": 720,
  "त्या": 721,
  "जिला": 722,
  "लू": 723,
  "बद": 724,
  "फे": 725,
  "भारतीय": 726,
  "विश्": 727,
  "इससे": 728,
  "एन": 729,
  "श्री": 730,
  "उसके": 731,
  "तैय": 732,
  "बहुत": 733,
  "कृ": 734,
  "जपा": 735,
  "किए": 736,
  "डॉ": 737,
  "हाला": 738,
  "चना": 739,
  "सुर": 740,
  "201": 741,
  "मोदी": 742,
  "नई": 743,
  "रिया": 744,
  "इसी": 745,
  "भाजपा": 746,
  "क्टर": 747,
  "निया": 748,
  "अन्य": 749,
  "मांग": 750,
  "उनकी": 751,
  "स्थि": 752,
  "टो": 753,
  "वाद": 754,
  "स्व": 755,
  "मद": 756,
  "ग्र": 757,
  "ओर": 758,
  "भर": 759,
  "उसे": 760,
  "आरोप": 761,
  "वाल": 762,
  "प्रधान": 763,
  "स्वा": 764,
  "आपको": 765,
  "जीत": 766,
  "जिले": 767,
  "आए": 768,
  "विभाग": 769,
  "हाल": 770,
  "करण": 771,
  "हजार": 772,
  "अव": 773,
  "ज्ञ": 774,
  "मन": 775,
  "देने": 776,
  "काफी": 777,
  "हों": 778,
  "छात्र": 779,
  "ेंद्र": 780,
  "बारे": 781,
  "विधा": 782,
  "नर": 783,
  "जरू": 784,
  "वज": 785,
  "अगर": 786,
  "होगी": 787,
  "लं": 788,
  "खिलाफ": 789,
  "न्यू": 790,
  "क्यों": 791,
  "द्ध": 792,
  "ंगे": 793,
  "अस्": 794,
  "त्य": 795,
  "स्थिति": 796,
  "पत्र": 797,
  "सरे": 798,
  "पति": 799,
  "भे": 800,
  "आत": 801,
  "जवा": 802,
  "त्व": 803,
  "फ़": 804,
  "आने": 805,
  "र्स": 806,
  "सामने": 807,
  "गिर": 808,
  "सै": 809,
  "मौत": 810,
  "समा": 811,
  "दें": 812,
  "लै": 813,
  "केट": 814,
  "द्य": 815,
  "गत": 816,
  "काल": 817,
  "न्न": 818,
  "पांच": 819,
  "स्तान": 820,
  "सला": 821,
  "अपना": 822,
  "इंड": 823,
  "र्ड": 824,
  "घटना": 825,
  "अभी": 826,
  "पिछ": 827,
  "मारी": 828,
  "बह": 829,
  "चला": 830,
  "ख्या": 831,
  "इला": 832,
  "अभि": 833,
  "पूरी": 834,
  "फर": 835,
  "ध्या": 836,
  "नौ": 837,
  "होता": 838,
  "विका": 839,
  "बॉ": 840,
  "परा": 841,
  "लॉ": 842,
  "दर": 843,
  "तथा": 844,
  "दिए": 845,
  "मित": 846,
  "अस्पता": 847,
  "संबं": 848,
  "मुख्यमंत्री": 849,
  "स्थित": 850,
  "दर्ज": 851,
  "ंट": 852,
  "प्रो": 853,
  "माण": 854,
  "सल": 855,
  "न्या": 856,
  "निय": 857,
  "रत": 858,
  "क्या": 859,
  "उत्तर": 860,
  "परी": 861,
  "प्रे": 862,
  "यल": 863,
  "नीति": 864,
  "घो": 865,
  "जल": 866,
  "ूल": 867,
  "अला": 868,
  "अधिकार": 869,
  "पड़": 870,
  "बढ़ा": 871,
  "पार": 872,
  "कट": 873,
  "यी": 874,
  "इसे": 875,
  "रात": 876,
  "भाव": 877,
  "हालांकि": 878,
  "रण": 879,
  "स्थान": 880,
  "अग": 881,
  "र्म": 882,
  "याद": 883,
  "वल": 884,
  "विकास": 885,
  "ताओं": 886,
  "बल्": 887,
  "पक्ष": 888,
  "जूद": 889,
  "होती": 890,
  "गढ़": 891,
  "अनुसार": 892,
  "रीज": 893,
  "पढ़": 894,
  "प्त": 895,
  "निवा": 896,
  "बैठक": 897,
  "क्षण": 898,
  "लें": 899,
  "व्यव": 900,
  "हूं": 901,
  "संग": 902,
  "तैयार": 903,
  "कोर्ट": 904,
  "अच्": 905,
  "झा": 906,
  "एल": 907,
  "बंद": 908,
  "खंड": 909,
  "करे": 910,
  "रिपोर्ट": 911,
  "बाइ": 912,
  "सह": 913,
  "विश्व": 914,
  "वीर": 915,
  "मैच": 916,
  "30": 917,
  "बड़ी": 918,
  "मंड": 919,
  "ोल": 920,
  "अलग": 921,
  "वजह": 922,
  "सदस्": 923,
  "प्रधानमंत्री": 924,
  "इसमें": 925,
  "ज्ञा": 926,
  "अलावा": 927,
  "आयो": 928,
  "केंद्र": 929,
  "करीब": 930,
  "12": 931,
  "सम्": 932,
  "हिं": 933,
  "कर्म": 934,
  "कुल": 935,
  "शहर": 936,
  "भग": 937,
  "पक": 938,
  "सके": 939,
  "ुक": 940,
  "ंगा": 941,
  "पिछले": 942,
  "डिया": 943,
  "जित": 944,
  "शेष": 945,
  "युक्त": 946,
  "15": 947,
  "दूसरे": 948,
  "नजर": 949,
  "ऐसा": 950,
  "घोष": 951,
  "आदि": 952,
  "प्ता": 953,
  "पानी": 954,
  "स्टे": 955,
  "डियो": 956,
  "निर्देश": 957,
  "संख्या": 958,
  "व्या": 959,
  "क्सी": 960,
  "श्र": 961,
  "राष्ट्रीय": 962,
  "अधिकारी": 963,
  "फ्तार": 964,
  "अस्पताल": 965,
  "जहां": 966,
  "जबकि": 967,
  "मिले": 968,
  "एफ": 969,
  "रुपए": 970,
  "उम्": 971,
  "शासन": 972,
  "जिन": 973,
  "जाएगी": 974,
  "परे": 975,
  "जिसमें": 976,
  "विधान": 977,
  "मीद": 978,
  "ंबर": 979,
  "क्योंकि": 980,
  "चो": 981,
  "दिनों": 982,
  "बनाने": 983,
  "ट्स": 984,
  "किसानों": 985,
  "खान": 986,
  "यालय": 987,
  "टू": 988,
  "र्चा": 989,
  "जैसे": 990,
  "सूचना": 991,
  "पूर्ण": 992,
  "वाला": 993,
  "सुरक्षा": 994,
  "डर": 995,
  "दूर": 996,
  "इसकी": 997,
  "शान": 998,
  "छे": 999,
  "दन": 1000,
  "त्रा": 1001,
  "कंपनी": 1002,
  "चाह": 1003,
  "व्यक्ति": 1004,
  "इस्": 1005,
  "र्फ": 1006,
  "उम्मीद": 1007,
  "वरी": 1008,
  "ग्": 1009,
  "साइ": 1010,
  "युव": 1011,
  "ंगल": 1012,
  "पत्": 1013,
  "इसलिए": 1014,
  "लाल": 1015,
  "बजे": 1016,
  "गल": 1017,
  "माल": 1018,
  "बिक": 1019,
  "फल": 1020,
  "मिला": 1021,
  "रवि": 1022,
  "25": 1023,
  "सकती": 1024,
  "क्रि": 1025,
  "विशेष": 1026,
  "तहत": 1027,
  "कहना": 1028,
  "टिंग": 1029,
  "धे": 1030,
  "वायर": 1031,
  "थाना": 1032,
  "झे": 1033,
  "जाती": 1034,
  "जीवन": 1035,
  "आगे": 1036,
  "सौ": 1037,
  "नए": 1038,
  "जनता": 1039,
  "तना": 1040,
  "लाई": 1041,
  "बस": 1042,
  "लाइन": 1043,
  "मिली": 1044,
  "शर्": 1045,
  "करता": 1046,
  "रेल": 1047,
  "ar": 1048,
  "ठी": 1049,
  "रहने": 1050,
  "स्‍": 1051,
  "लोक": 1052,
  "टन": 1053,
  "मही": 1054,
  "परीक्षा": 1055,
  "कार्यक्रम": 1056,
  "पाकि": 1057,
  "दिर": 1058,
  "वास": 1059,
  "गुरु": 1060,
  "परिवार": 1061,
  "बल": 1062,
  "दर्शन": 1063,
  "लेने": 1064,
  "दूस": 1065,
  "खरी": 1066,
  "आधार": 1067,
  "तन": 1068,
  "लड़": 1069,
  "हरा": 1070,
  "त्म": 1071,
  "जल्": 1072,
  "चित": 1073,
  "मीडिया": 1074,
  "सुबह": 1075,
  "अफ": 1076,
  "निवासी": 1077,
  "मुता": 1078,
  "वान": 1079,
  "शल": 1080,
  "कानू": 1081,
  "चों": 1082,
  "लगे": 1083,
  "लर": 1084,
  "कोवि": 1085,
  "यां": 1086,
  "उठा": 1087,
  "सदी": 1088,
  "हिंदी": 1089,
  "पंचा": 1090,
  "ंचा": 1091,
  "गै": 1092,
  "राब": 1093,
  "दिखा": 1094,
  "भो": 1095,
  "नाथ": 1096,
  "भि": 1097,
  "क्षक": 1098,
  "खेल": 1099,
  "सेवा": 1100,
  "14": 1101,
  "21": 1102,
  "छो": 1103,
  "व्यवस्था": 1104,
  "मुताबिक": 1105,
  "मृ": 1106,
  "नीय": 1107,
  "मंदिर": 1108,
  "पूरा": 1109,
  "इसका": 1110,
  "वित": 1111,
  "आम": 1112,
  "वहां": 1113,
  "स्ट्र": 1114,
  "रोध": 1115,
  "सीट": 1116,
  "बाहर": 1117,
  "स्वास्थ": 1118,
  "गिरफ्तार": 1119,
  "सड़": 1120,
  "उनका": 1121,
  "चर्चा": 1122,
  "लाइ": 1123,
  "जगह": 1124,
  "हत्या": 1125,
  "वेश": 1126,
  "बड़े": 1127,
  "मौके": 1128,
  "ष्ठ": 1129,
  "सान": 1130,
  "यादव": 1131,
  "सिल": 1132,
  "धित": 1133,
  "राय": 1134,
  "जिससे": 1135,
  "जाना": 1136,
  "गम": 1137,
  "पहली": 1138,
  "करेंगे": 1139,
  "प्रका": 1140,
  "मेंट": 1141,
  "जें": 1142,
  "अमे": 1143,
  "मरीज": 1144,
  "मदद": 1145,
  "देव": 1146,
  "पंचायत": 1147,
  "विद्": 1148,
  "सां": 1149,
  "बेह": 1150,
  "मारे": 1151,
  "50": 1152,
  "वीडियो": 1153,
  "टै": 1154,
  "अधिकारियों": 1155,
  "खुद": 1156,
  "मुझे": 1157,
  "स्वास्थ्य": 1158,
  "राव": 1159,
  "हाथ": 1160,
  "हरी": 1161,
  "सदस्य": 1162,
  "श्य": 1163,
  "ग्राम": 1164,
  "होते": 1165,
  "भूमि": 1166,
  "तब": 1167,
  "भारी": 1168,
  "दुनिया": 1169,
  "बैंक": 1170,
  "मुं": 1171,
  "थि": 1172,
  "विधानसभा": 1173,
  "पूरे": 1174,
  "निवार": 1175,
  "खबर": 1176,
  "हाई": 1177,
  "षि": 1178,
  "अति": 1179,
  "in": 1180,
  "कार्र": 1181,
  "कार्रवाई": 1182,
  "गू": 1183,
  "वाप": 1184,
  "ंत्र": 1185,
  "्स": 1186,
  "स्कूल": 1187,
  "फोन": 1188,
  "बाजार": 1189,
  "जिसके": 1190,
  "पहुंचे": 1191,
  "तौर": 1192,
  "रन": 1193,
  "वृ": 1194,
  "कोविड": 1195,
  "उसकी": 1196,
  "बिहार": 1197,
  "विष": 1198,
  "टल": 1199,
  "कभी": 1200,
  "एक्": 1201,
  "षण": 1202,
  "तों": 1203,
  "वालों": 1204,
  "पुरा": 1205,
  "मीर": 1206,
  "11": 1207,
  "बच्चों": 1208,
  "राजनीति": 1209,
  "ेंगे": 1210,
  "स्या": 1211,
  "सहित": 1212,
  "तरी": 1213,
  "पाकिस्तान": 1214,
  "शिका": 1215,
  "प्रया": 1216,
  "उपल": 1217,
  "बुध": 1218,
  "ंटे": 1219,
  "कल्": 1220,
  "मौजूद": 1221,
  "बू": 1222,
  "सोम": 1223,
  "मर": 1224,
  "ष्ट": 1225,
  "बई": 1226,
  "देते": 1227,
  "पन": 1228,
  "शिक्षा": 1229,
  "न्यूज़": 1230,
  "an": 1231,
  "क्रमण": 1232,
  "मध्य": 1233,
  "सचि": 1234,
  "चान": 1235,
  "गांधी": 1236,
  "पीएम": 1237,
  "सिर्फ": 1238,
  "अमेरि": 1239,
  "रोक": 1240,
  "मिक": 1241,
  "सुन": 1242,
  "सवाल": 1243,
  "तरा": 1244,
  "युवक": 1245,
  "लब": 1246,
  "मिलने": 1247,
  "महिलाओं": 1248,
  "महीने": 1249,
  "ार्थ": 1250,
  "पोस्ट": 1251,
  "सित": 1252,
  "उपलब्": 1253,
  "प्रि": 1254,
  "लौ": 1255,
  "काउ": 1256,
  "आपके": 1257,
  "प्रभा": 1258,
  "त्री": 1259,
  "संबंध": 1260,
  "फीसदी": 1261,
  "निर्माण": 1262,
  "ग्रामी": 1263,
  "ग्रामीण": 1264,
  "नार": 1265,
  "200": 1266,
  "चुकी": 1267,
  "फैसला": 1268,
  "सरकारी": 1269,
  "18": 1270,
  "खन": 1271,
  "सेना": 1272,
  "सोमवार": 1273,
  "पॉ": 1274,
  "राशि": 1275,
  "मामला": 1276,
  "कार्ड": 1277,
  "्यालय": 1278,
  "होंगे": 1279,
  "आया": 1280,
  "न्द्र": 1281,
  "बड़ा": 1282,
  "निधि": 1283,
  "वाह": 1284,
  "उसने": 1285,
  "समे": 1286,
  "लगाया": 1287,
  "खो": 1288,
  "चाल": 1289,
  "आरोपी": 1290,
  "पहुंचा": 1291,
  "लगातार": 1292,
  "खू": 1293,
  "बुधवार": 1294,
  "इंटर": 1295,
  "चंद्र": 1296,
  "हिस्": 1297,
  "प्रदर्शन": 1298,
  "अंत": 1299,
  "शर्मा": 1300,
  "धु": 1301,
  "गठ": 1302,
  "चलते": 1303,
  "समस्या": 1304,
  "यान": 1305,
  "स्तर": 1306,
  "24": 1307,
  "मूल": 1308,
  "ल्ड": 1309,
  "शव": 1310,
  "लेज": 1311,
  "प्रशासन": 1312,
  "ेंद": 1313,
  "बाव": 1314,
  "मंगल": 1315,
  "णी": 1316,
  "आइ": 1317,
  "षद": 1318,
  "शत": 1319,
  "सें": 1320,
  "मंडल": 1321,
  "जाते": 1322,
  "शुक्र": 1323,
  "कीमत": 1324,
  "करती": 1325,
  "13": 1326,
  "समि": 1327,
  "कद": 1328,
  "पेश": 1329,
  "ियान": 1330,
  "शिव": 1331,
  "भीर": 1332,
  "युवा": 1333,
  "इंडिया": 1334,
  "जरूरत": 1335,
  "ंदर": 1336,
  "घोषणा": 1337,
  "रखा": 1338,
  "at": 1339,
  "कराने": 1340,
  "उत्पा": 1341,
  "अभियान": 1342,
  "ब्र": 1343,
  "गेंद": 1344,
  "आग": 1345,
  "शिकायत": 1346,
  "्रीय": 1347,
  "चुका": 1348,
  "एच": 1349,
  "तरफ": 1350,
  "समिति": 1351,
  "शाह": 1352,
  "चुके": 1353,
  "कराया": 1354,
  "करके": 1355,
  "मुंबई": 1356,
  "आव": 1357,
  "न्‍": 1358,
  "निकल": 1359,
  "रै": 1360,
  "बिज": 1361,
  "तम": 1362,
  "क्रिया": 1363,
  "निगम": 1364,
  "प्रमुख": 1365,
  "तृ": 1366,
  "केवल": 1367,
  "दूसरी": 1368,
  "लिक": 1369,
  "नरेंद्र": 1370,
  "गंभीर": 1371,
  "काब": 1372,
  "उसका": 1373,
  "नंबर": 1374,
  "अर्": 1375,
  "शं": 1376,
  "जवाब": 1377,
  "शादी": 1378,
  "लाभ": 1379,
  "किसान": 1380,
  "अपरा": 1381,
  "वार्ड": 1382,
  "वु": 1383,
  "मना": 1384,
  "तस्": 1385,
  "कश्": 1386,
  "22": 1387,
  "वैक्सी": 1388,
  "जल्द": 1389,
  "निका": 1390,
  "तेमाल": 1391,
  "दारी": 1392,
  "शनिवार": 1393,
  "धर": 1394,
  "वापस": 1395,
  "चिकि": 1396,
  "िश": 1397,
  "माना": 1398,
  "ख्": 1399,
  "विधायक": 1400,
  "तला": 1401,
  "पिता": 1402,
  "जेपी": 1403,
  "लाने": 1404,
  "विद्यालय": 1405,
  "धिकार": 1406,
  "ंति": 1407,
  "रेलवे": 1408,
  "प्रकाश": 1409,
  "वायरस": 1410,
  "चिकित्": 1411,
  "नियम": 1412,
  "प्रयास": 1413,
  "बिना": 1414,
  "होना": 1415,
  "डाउन": 1416,
  "टने": 1417,
  "समर्थ": 1418,
  "प्री": 1419,
  "जेल": 1420,
  "हमारे": 1421,
  "क़": 1422,
  "माह": 1423,
  "करवा": 1424,
  "ध्यान": 1425,
  "बाज": 1426,
  "लगभग": 1427,
  "नाग": 1428,
  "प्ला": 1429,
  "कृषि": 1430,
  "बचा": 1431,
  "तय": 1432,
  "यही": 1433,
  "सोशल": 1434,
  "सुविधा": 1435,
  "संगठ": 1436,
  "अहम": 1437,
  "साफ": 1438,
  "मंगलवार": 1439,
  "सहा": 1440,
  "सात": 1441,
  "हुल": 1442,
  "लैंड": 1443,
  "सफल": 1444,
  "छोड़": 1445,
  "भर्": 1446,
  "लिखा": 1447,
  "तीस": 1448,
  "प्रतिशत": 1449,
  "देखा": 1450,
  "यं": 1451,
  "आं": 1452,
  "र्च": 1453,
  "बनाया": 1454,
  "बज": 1455,
  "शुक्रवार": 1456,
  "यम": 1457,
  "बंधन": 1458,
  "रिक": 1459,
  "दल": 1460,
  "तेज": 1461,
  "समझ": 1462,
  "इस्तेमाल": 1463,
  "धिकारी": 1464,
  "उपलब्ध": 1465,
  "छी": 1466,
  "सीमा": 1467,
  "16": 1468,
  "शू": 1469,
  "कमी": 1470,
  "षा": 1471,
  "शुरु": 1472,
  "हारा": 1473,
  "ख़": 1474,
  "शाम": 1475,
  "लगाने": 1476,
  "फोटो": 1477,
  "टेस्ट": 1478,
  "मता": 1479,
  "भाई": 1480,
  "यात्रा": 1481,
  "पसं": 1482,
  "भर्ती": 1483,
  "000": 1484,
  "तेल": 1485,
  "एक्स": 1486,
  "लक्ष": 1487,
  "विरोध": 1488,
  "र्जी": 1489,
  "हॉ": 1490,
  "रविवार": 1491,
  "पाए": 1492,
  "लखन": 1493,
  "टक": 1494,
  "टिव": 1495,
  "सड़क": 1496,
  "स्थानीय": 1497,
  "यूपी": 1498,
  "गर्": 1499,
  "मुकाब": 1500,
  "जमा": 1501,
  "गति": 1502,
  "समाज": 1503,
  "सचिव": 1504,
  "बल्ले": 1505,
  "देखते": 1506,
  "क्षित": 1507,
  "मां": 1508,
  "आयोजित": 1509,
  "उपयोग": 1510,
  "बच": 1511,
  "नेट": 1512,
  "बाजी": 1513,
  "वुड": 1514,
  "भु": 1515,
  "कू": 1516,
  "23": 1517,
  "कत": 1518,
  "रों": 1519,
  "बल्कि": 1520,
  "खरीद": 1521,
  "संघ": 1522,
  "उपा": 1523,
  "बिजली": 1524,
  "जिसे": 1525,
  "पूर": 1526,
  "प्राप्त": 1527,
  "नव": 1528,
  "राहुल": 1529,
  "वेदन": 1530,
  "ेंट": 1531,
  "किलो": 1532,
  "खी": 1533,
  "थीं": 1534,
  "सत": 1535,
  "खास": 1536,
  "घंटे": 1537,
  "निकाल": 1538,
  "17": 1539,
  "नेताओं": 1540,
  "जनों": 1541,
  "ऐसी": 1542,
  "समेत": 1543,
  "मुद्": 1544,
  "विक": 1545,
  "बाइक": 1546,
  "अदा": 1547,
  "मजब": 1548,
  "मजबू": 1549,
  "आदेश": 1550,
  "शराब": 1551,
  "कश्मीर": 1552,
  "ंगी": 1553,
  "घायल": 1554,
  "राज्यों": 1555,
  "गण": 1556,
  "लॉक": 1557,
  "कार्यकर्": 1558,
  "र्य": 1559,
  "कानून": 1560,
  "हाद": 1561,
  "कोशि": 1562,
  "ंज": 1563,
  "चाहते": 1564,
  "मिन": 1565,
  "सही": 1566,
  "पल": 1567,
  "कां": 1568,
  "केंद": 1569,
  "बीजेपी": 1570,
  "श्वर": 1571,
  "2021": 1572,
  "अक्": 1573,
  "ब्रा": 1574,
  "भेज": 1575,
  "सीएम": 1576,
  "देवी": 1577,
  "हमने": 1578,
  "त्त": 1579,
  "प्रतिनिधि": 1580,
  "कोशिश": 1581,
  "लीवुड": 1582,
  "बनाए": 1583,
  "कं": 1584,
  "र्ष": 1585,
  "कार्यालय": 1586,
  "स्ट्रे": 1587,
  "लखनऊ": 1588,
  "पीड़": 1589,
  "मेडि": 1590,
  "रखने": 1591,
  "सहयोग": 1592,
  "फॉ": 1593,
  "शनल": 1594,
  "आयोग": 1595,
  "वारी": 1596,
  "द्धा": 1597,
  "आठ": 1598,
  "क्ट": 1599,
  "केंद्रीय": 1600,
  "गंज": 1601,
  "मैंने": 1602,
  "लु": 1603,
  "बदल": 1604,
  "टॉ": 1605,
  "एसपी": 1606,
  "उम": 1607,
  "दुर्": 1608,
  "मामलों": 1609,
  "भव": 1610,
  "ग्री": 1611,
  "समी": 1612,
  "पीछे": 1613,
  "ियां": 1614,
  "तारी": 1615,
  "उल्": 1616,
  "अमेरिका": 1617,
  "on": 1618,
  "जन्": 1619,
  "ऑन": 1620,
  "दिव": 1621,
  "नियों": 1622,
  "मनो": 1623,
  "आयोजन": 1624,
  "एजें": 1625,
  "ताकि": 1626,
  "चीन": 1627,
  "जरूरी": 1628,
  "ऑफ": 1629,
  "त्रि": 1630,
  "आस": 1631,
  "एयर": 1632,
  "मार्ग": 1633,
  "आवश्य": 1634,
  "फु": 1635,
  "अवसर": 1636,
  "सूत्र": 1637,
  "साब": 1638,
  "तस्वीर": 1639,
  "हटा": 1640,
  "प्रकार": 1641,
  "उम्मीदवार": 1642,
  "60": 1643,
  "पें": 1644,
  "जमी": 1645,
  "स्तु": 1646,
  "पंजा": 1647,
  "रोड": 1648,
  "गुरुवार": 1649,
  "पित": 1650,
  "भावना": 1651,
  "कैसे": 1652,
  "पड़ा": 1653,
  "धानी": 1654,
  "मान्य": 1655,
  "ह्": 1656,
  "राजस्थान": 1657,
  "बारिश": 1658,
  "द्धि": 1659,
  "ट्रोल": 1660,
  "आवश्यक": 1661,
  "जुड़े": 1662,
  "लगी": 1663,
  "विपक्ष": 1664,
  "वैक्सीन": 1665,
  "टाइ": 1666,
  "द्योग": 1667,
  "त्ता": 1668,
  "बदला": 1669,
  "चै": 1670,
  "बने": 1671,
  "हमें": 1672,
  "क्रिकेट": 1673,
  "देशों": 1674,
  "मंत्रा": 1675,
  "जाएंगे": 1676,
  "देखने": 1677,
  "बजट": 1678,
  "छह": 1679,
  "स्पे": 1680,
  "घु": 1681,
  "गयी": 1682,
  "कौ": 1683,
  "मार्ट": 1684,
  "क्शन": 1685,
  "इड": 1686,
  "शेयर": 1687,
  "प्रदान": 1688,
  "दर्श": 1689,
  "इलाज": 1690,
  "सांसद": 1691,
  "मोबाइ": 1692,
  "मोबाइल": 1693,
  "बयान": 1694,
  "आन": 1695,
  "किल": 1696,
  "संक्रमण": 1697,
  "जुलाई": 1698,
  "असल": 1699,
  "पसंद": 1700,
  "हासिल": 1701,
  "चर": 1702,
  "तेजी": 1703,
  "कला": 1704,
  "प्ले": 1705,
  "मेडिकल": 1706,
  "मई": 1707,
  "आर्थ": 1708,
  "er": 1709,
  "भिन्न": 1710,
  "वीं": 1711,
  "प्रस्ता": 1712,
  "मण": 1713,
  "ट्रा": 1714,
  "कॉलेज": 1715,
  "मंत्रालय": 1716,
  "तान": 1717,
  "कप": 1718,
  "40": 1719,
  "धियों": 1720,
  "सप्ता": 1721,
  "रिक्त": 1722,
  "लेख": 1723,
  "बॉलीवुड": 1724,
  "क्षि": 1725,
  "बंध": 1726,
  "मरीजों": 1727,
  "अंतर": 1728,
  "गरी": 1729,
  "विचार": 1730,
  "विजय": 1731,
  "ऑनलाइन": 1732,
  "वक्": 1733,
  "तिम": 1734,
  "वाहन": 1735,
  "बोर्ड": 1736,
  "बच्चे": 1737,
  "चरण": 1738,
  "हरिया": 1739,
  "चन": 1740,
  "ताप": 1741,
  "हिस्सा": 1742,
  "प्रक्रिया": 1743,
  "यदि": 1744,
  "2020": 1745,
  "100": 1746,
  "मेल": 1747,
  "डाल": 1748,
  "्‍": 1749,
  "ंडे": 1750,
  "जाम": 1751,
  "आर्थिक": 1752,
  "संगठन": 1753,
  "अच्छा": 1754,
  "छात्रों": 1755,
  "फाई": 1756,
  "लत": 1757,
  "फाय": 1758,
  "केश": 1759,
  "कमा": 1760,
  "व्यापार": 1761,
  "सप्ताह": 1762,
  "दिल": 1763,
  "सिंग": 1764,
  "पंजाब": 1765,
  "टीवी": 1766,
  "परिषद": 1767,
  "अल": 1768,
  "पुत्र": 1769,
  "हरियाणा": 1770,
  "डो": 1771,
  "डीएम": 1772,
  "आतंक": 1773,
  "सिक": 1774,
  "रिंग": 1775,
  "ष्ण": 1776,
  "प्रभावित": 1777,
  "गौर": 1778,
  "ज्ञान": 1779,
  "महत्व": 1780,
  "जोर": 1781,
  "वें": 1782,
  "आवेदन": 1783,
  "न्हें": 1784,
  "वरि": 1785,
  "कमे": 1786,
  "छात्रा": 1787,
  "चार्": 1788,
  "अप्र": 1789,
  "विवाद": 1790,
  "डल": 1791,
  "मीटर": 1792,
  "राष्ट्रपति": 1793,
  "जिम्": 1794,
  "दाय": 1795,
  "पश्": 1796,
  "समु": 1797,
  "नुक": 1798,
  "बनी": 1799,
  "पर्य": 1800,
  "संयुक्त": 1801,
  "स्वी": 1802,
  "अगले": 1803,
  "सीबी": 1804,
  "चारी": 1805,
  "समू": 1806,
  "विभिन्न": 1807,
  "ठे": 1808,
  "मज": 1809,
  "वक्त": 1810,
  "पूछ": 1811,
  "हरे": 1812,
  "स्कार": 1813,
  "सब्": 1814,
  "टिस": 1815,
  "दीप": 1816,
  "मेरे": 1817,
  "साद": 1818,
  "ग्रह": 1819,
  "स्थल": 1820,
  "एड": 1821,
  "आंक": 1822,
  "26": 1823,
  "ड़ने": 1824,
  "बातची": 1825,
  "बातचीत": 1826,
  "जनवरी": 1827,
  "बाल": 1828,
  "हमला": 1829,
  "अंतिम": 1830,
  "िता": 1831,
  "संवाद": 1832,
  "कहते": 1833,
  "सले": 1834,
  "लित": 1835,
  "सफाई": 1836,
  "रज": 1837,
  "वर्षीय": 1838,
  "ड़ों": 1839,
  "मियों": 1840,
  "प्रवेश": 1841,
  "छू": 1842,
  "वानी": 1843,
  "भाषा": 1844,
  "नेतृ": 1845,
  "ंग्": 1846,
  "हालत": 1847,
  "आवा": 1848,
  "लिंग": 1849,
  "al": 1850,
  "रहता": 1851,
  "स्टा": 1852,
  "निर्ण": 1853,
  "असर": 1854,
  "प्रभारी": 1855,
  "बेहतर": 1856,
  "गृ": 1857,
  "दक्षि": 1858,
  "27": 1859,
  "बावजूद": 1860,
  "अली": 1861,
  "पेट्रोल": 1862,
  "दावा": 1863,
  "मिनट": 1864,
  "हाँ": 1865,
  "ट्टी": 1866,
  "चले": 1867,
  "वार्": 1868,
  "थो": 1869,
  "or": 1870,
  "ील": 1871,
  "ठीक": 1872,
  "पत्नी": 1873,
  "क्‍": 1874,
  "पहचान": 1875,
  "खूब": 1876,
  "शिया": 1877,
  "बदलाव": 1878,
  "निश्": 1879,
  "अच्छी": 1880,
  "इतना": 1881,
  "आखि": 1882,
  "माध्य": 1883,
  "तिक": 1884,
  "पाया": 1885,
  "फ्र": 1886,
  "ारे": 1887,
  "परिजनों": 1888,
  "वरिष्ठ": 1889,
  "मैन": 1890,
  "दियों": 1891,
  "नेतृत्व": 1892,
  "जाय": 1893,
  "हमले": 1894,
  "ैल": 1895,
  "कर्मचारी": 1896,
  "कहीं": 1897,
  "गौ": 1898,
  "काली": 1899,
  "चारियों": 1900,
  "डॉक्टर": 1901,
  "माता": 1902,
  "पालन": 1903,
  "ंडर": 1904,
  "भगवान": 1905,
  "टीका": 1906,
  "दाम": 1907,
  "समर्थन": 1908,
  "तैयारी": 1909,
  "ड़ियों": 1910,
  "होकर": 1911,
  "वादी": 1912,
  "जरि": 1913,
  "लोकसभा": 1914,
  "वोट": 1915,
  "es": 1916,
  "ढा": 1917,
  "खुला": 1918,
  "पौ": 1919,
  "अगस्त": 1920,
  "भूमिका": 1921,
  "रोग": 1922,
  "फ्ट": 1923,
  "किंग": 1924,
  "रं": 1925,
  "लागू": 1926,
  "थम": 1927,
  "क्री": 1928,
  "यूनि": 1929,
  "दिखाई": 1930,
  "नुकसान": 1931,
  "दिसं": 1932,
  "बर्": 1933,
  "धरी": 1934,
  "मैदान": 1935,
  "न्याय": 1936,
  "दुकान": 1937,
  "मेरी": 1938,
  "आते": 1939,
  "ंडी": 1940,
  "सपा": 1941,
  "महारा": 1942,
  "सुधार": 1943,
  "विद्य": 1944,
  "तरण": 1945,
  "पहला": 1946,
  "शांति": 1947,
  "मौसम": 1948,
  "हमे": 1949,
  "ad": 1950,
  "स्ते": 1951,
  "कर्मचारियों": 1952,
  "अम": 1953,
  "ड्": 1954,
  "उद्": 1955,
  "श्रा": 1956,
  "महामारी": 1957,
  "वनी": 1958,
  "जिलों": 1959,
  "राजनीतिक": 1960,
  "नारा": 1961,
  "भेजा": 1962,
  "जम": 1963,
  "कपूर": 1964,
  "प्रेस": 1965,
  "मुश्": 1966,
  "परेशान": 1967,
  "कल्प": 1968,
  "बेहद": 1969,
  "जम्": 1970,
  "मुकाबले": 1971,
  "स्टि": 1972,
  "खाने": 1973,
  "जन्म": 1974,
  "जमीन": 1975,
  "क्रा": 1976,
  "ेक": 1977,
  "आयु": 1978,
  "क्षेत्रों": 1979,
  "उम्र": 1980,
  "दों": 1981,
  "लिख": 1982,
  "रंग": 1983,
  "इंत": 1984,
  "पूजा": 1985,
  "निर्णय": 1986,
  "इत": 1987,
  "रहते": 1988,
  "राजधानी": 1989,
  "कोल": 1990,
  "विकेट": 1991,
  "लिये": 1992,
  "देर": 1993,
  "न्स": 1994,
  "सियों": 1995,
  "नू": 1996,
  "जम्मू": 1997,
  "केस": 1998,
  "खत्म": 1999,
  "पहुंची": 2000,
  "अर": 2001,
  "तभी": 2002,
  "ेश": 2003,
  "उपस्थित": 2004,
  "पदा": 2005,
  "कदम": 2006,
  "अतिरिक्त": 2007,
  "अफगा": 2008,
  "di": 2009,
  "खिल": 2010,
  "पृ": 2011,
  "ऊपर": 2012,
  "निश्चित": 2013,
  "घोषित": 2014,
  "आता": 2015,
  "ष्टि": 2016,
  "पारी": 2017,
  "क्ला": 2018,
  "हिंद": 2019,
  "पढ़ें": 2020,
  "चू": 2021,
  "मति": 2022,
  "महत्वपूर्ण": 2023,
  "आपकी": 2024,
  "कित": 2025,
  "खर्च": 2026,
  "दोस्त": 2027,
  "मिलेगा": 2028,
  "दिसंबर": 2029,
  "करेगा": 2030,
  "यार": 2031,
  "सलमान": 2032,
  "सलाह": 2033,
  "चिका": 2034,
  "मारा": 2035,
  "नवं": 2036,
  "नवंबर": 2037,
  "उच्": 2038,
  "धर्म": 2039,
  "ंदा": 2040,
  "हमेशा": 2041,
  "निवेश": 2042,
  "2019": 2043,
  "र्जा": 2044,
  "पड़ता": 2045,
  "लाया": 2046,
  "वत": 2047,
  "मुला": 2048,
  "35": 2049,
  "अनुमति": 2050,
  "45": 2051,
  "पड़े": 2052,
  "नोटिस": 2053,
  "कर्मी": 2054,
  "निजी": 2055,
  "सम्मान": 2056,
  "चौधरी": 2057,
  "बिग": 2058,
  "70": 2059,
  "संक्र": 2060,
  "शुरुआत": 2061,
  "सिर": 2062,
  "न्ना": 2063,
  "मॉ": 2064,
  "नोट": 2065,
  "धो": 2066,
  "वर्त": 2067,
  "स्ती": 2068,
  "रहेगा": 2069,
  "सों": 2070,
  "स्कू": 2071,
  "तुल": 2072,
  "कंपनियों": 2073,
  "धू": 2074,
  "जिम्मे": 2075,
  "आद": 2076,
  "आरोपियों": 2077,
  "आंद": 2078,
  "आंदोल": 2079,
  "ोह": 2080,
  "मक": 2081,
  "हादसे": 2082,
  "गठबंधन": 2083,
  "गृह": 2084,
  "सील": 2085,
  "पर्या": 2086,
  "भ्र": 2087,
  "सूत्रों": 2088,
  "कमेटी": 2089,
  "जता": 2090,
  "दोपह": 2091,
  "दोपहर": 2092,
  "याचिका": 2093,
  "ओवर": 2094,
  "अपील": 2095,
  "प्रमाण": 2096,
  "कराई": 2097,
  "अंदर": 2098,
  "शक्ति": 2099,
  "अदालत": 2100,
  "शित": 2101,
  "डाय": 2102,
  "देकर": 2103,
  "णाम": 2104,
  "ग्रामीणों": 2105,
  "दाता": 2106,
  "स्ट्री": 2107,
  "मार्च": 2108,
  "टिकट": 2109,
  "विधे": 2110,
  "हान": 2111,
  "कही": 2112,
  "जाकर": 2113,
  "ब्रि": 2114,
  "ज़ा": 2115,
  "इलाके": 2116,
  "पश्चि": 2117,
  "तह": 2118,
  "संकट": 2119,
  "बारा": 2120,
  "वैध": 2121,
  "देखकर": 2122,
  "हम्": 2123,
  "वेज": 2124,
  "काउं": 2125,
  "ेंस": 2126,
  "संक्रमित": 2127,
  "वास्त": 2128,
  "क्कर": 2129,
  "तैना": 2130,
  "अप्रैल": 2131,
  "प्रत्य": 2132,
  "झार": 2133,
  "बंगा": 2134,
  "कब्": 2135,
  "वर्ग": 2136,
  "न्द": 2137,
  "निशा": 2138,
  "देता": 2139,
  "सितंबर": 2140,
  "ड्रा": 2141,
  "छत्": 2142,
  "चोरी": 2143,
  "उत्तरा": 2144,
  "माध्यम": 2145,
  "वेब": 2146,
  "बनाकर": 2147,
  "चयन": 2148,
  "सिटी": 2149,
  "देंगे": 2150,
  "स्टेशन": 2151,
  "संजय": 2152,
  "बाबा": 2153,
  "हल": 2154,
  "र्क": 2155,
  "उनसे": 2156,
  "चालक": 2157,
  "टूबर": 2158,
  "नल": 2159,
  "बेटी": 2160,
  "आती": 2161,
  "थाने": 2162,
  "निस्तान": 2163,
  "संबंधित": 2164,
  "तंत्र": 2165,
  "शिक्षक": 2166,
  "कारो": 2167,
  "न्यायालय": 2168,
  "ज्य": 2169,
  "लॉकडाउन": 2170,
  "परिणाम": 2171,
  "प्रस्ताव": 2172,
  "ंडा": 2173,
  "आंदोलन": 2174,
  "विदेश": 2175,
  "खर": 2176,
  "तीसगढ़": 2177,
  "देना": 2178,
  "रक्षा": 2179,
  "प्रथम": 2180,
  "नेशनल": 2181,
  "पत्ति": 2182,
  "गोली": 2183,
  "दय": 2184,
  "टीएम": 2185,
  "बल्लेबाज": 2186,
  "दरअसल": 2187,
  "भोपाल": 2188,
  "साह": 2189,
  "मंजू": 2190,
  "वॉ": 2191,
  "जीव": 2192,
  "न्य": 2193,
  "म्स": 2194,
  "यता": 2195,
  "लिका": 2196,
  "समूह": 2197,
  "वर्तमान": 2198,
  "परेशा": 2199,
  "सुनवाई": 2200,
  "इन्": 2201,
  "फाइन": 2202,
  "ट्रक": 2203,
  "सिद्ध": 2204,
  "पुरु": 2205,
  "बंदी": 2206,
  "पत": 2207,
  "संस्था": 2208,
  "व्": 2209,
  "संभावना": 2210,
  "आसपास": 2211,
  "छत्तीसगढ़": 2212,
  "निरी": 2213,
  "हमारी": 2214,
  "नया": 2215,
  "खार": 2216,
  "रित": 2217,
  "om": 2218,
  "दिशा": 2219,
  "शोक": 2220,
  "एशन": 2221,
  "शरी": 2222,
  "अग्र": 2223,
  "जों": 2224,
  "कोह": 2225,
  "लगता": 2226,
  "वाही": 2227,
  "गये": 2228,
  "वृद्धि": 2229,
  "रानी": 2230,
  "दवा": 2231,
  "अक्टूबर": 2232,
  "गरीब": 2233,
  "स्वयं": 2234,
  "सामा": 2235,
  "वक्ता": 2236,
  "एंड": 2237,
  "जिसका": 2238,
  "पुरुष": 2239,
  "जैसी": 2240,
  "पढ़ा": 2241,
  "सुना": 2242,
  "ट्वी": 2243,
  "ट्रै": 2244,
  "ल्ला": 2245,
  "भीड़": 2246,
  "दस": 2247,
  "इनमें": 2248,
  "प्रसाद": 2249,
  "हम्मद": 2250,
  "लगाए": 2251,
  "सीसी": 2252,
  "जनपद": 2253,
  "मूल्य": 2254,
  "जर्": 2255,
  "लहाल": 2256,
  "बहा": 2257,
  "आर्": 2258,
  "तिहा": 2259,
  "नही": 2260,
  "जिक": 2261,
  "सुपर": 2262,
  "यानी": 2263,
  "कड़ी": 2264,
  "स्टो": 2265,
  "क्रो": 2266,
  "बंगाल": 2267,
  "उसी": 2268,
  "रिश्": 2269,
  "खिलाड़ी": 2270,
  "दिवस": 2271,
  "80": 2272,
  "विषय": 2273,
  "द्वि": 2274,
  "मजदूर": 2275,
  "फैसले": 2276,
  "दक्षिण": 2277,
  "पैसे": 2278,
  "सामान्य": 2279,
  "बेटे": 2280,
  "कानों": 2281,
  "क्षमता": 2282,
  "रल": 2283,
  "जाये": 2284,
  "मेरा": 2285,
  "बराम": 2286,
  "बरामद": 2287,
  "रेश": 2288,
  "जून": 2289,
  "भविष": 2290,
  "भविष्य": 2291,
  "दिग्": 2292,
  "दिख": 2293,
  "सुरक्षित": 2294,
  "सदस्यों": 2295,
  "घरे": 2296,
  "छोटे": 2297,
  "लने": 2298,
  "टेल": 2299,
  "लाखों": 2300,
  "इम": 2301,
  "सूची": 2302,
  "बनाई": 2303,
  "राहत": 2304,
  "ार्थियों": 2305,
  "ंभ": 2306,
  "31": 2307,
  "कुर": 2308,
  "सजा": 2309,
  "यात": 2310,
  "उत्पादन": 2311,
  "साय": 2312,
  "ऊर्जा": 2313,
  "नै": 2314,
  "खड़े": 2315,
  "अमित": 2316,
  "पूछता": 2317,
  "स्प": 2318,
  "विश्वविद्यालय": 2319,
  "मजबूत": 2320,
  "नित": 2321,
  "बढ़ाने": 2322,
  "तलब": 2323,
  "ंदगी": 2324,
  "अशोक": 2325,
  "ोसि": 2326,
  "क्रे": 2327,
  "ार्ड": 2328,
  "साबित": 2329,
  "तिवारी": 2330,
  "अचान": 2331,
  "अचानक": 2332,
  "कर्मियों": 2333,
  "राह": 2334,
  "नक": 2335,
  "किस": 2336,
  "आगा": 2337,
  "फिलहाल": 2338,
  "मौका": 2339,
  "पीएल": 2340,
  "तीनों": 2341,
  "ंकी": 2342,
  "झारखंड": 2343,
  "करेगी": 2344,
  "मोहन": 2345,
  "पूछताछ": 2346,
  "याल": 2347,
  "्‍य": 2348,
  "वायरल": 2349,
  "धारा": 2350,
  "डॉलर": 2351,
  "योगी": 2352,
  "केशन": 2353,
  "छु": 2354,
  "ha": 2355,
  "ड्र": 2356,
  "कार्": 2357,
  "बीते": 2358,
  "ग्रे": 2359,
  "इंडि": 2360,
  "मुश्किल": 2361,
  "सामना": 2362,
  "समीक्षा": 2363,
  "एसोसि": 2364,
  "28": 2365,
  "श्रे": 2366,
  "पथ": 2367,
  "अवैध": 2368,
  "पटना": 2369,
  "खराब": 2370,
  "तलाश": 2371,
  "घरेलू": 2372,
  "स्मार्ट": 2373,
  "हिर": 2374,
  "हड़": 2375,
  "2018": 2376,
  "आनंद": 2377,
  "अफगानिस्तान": 2378,
  "वितरण": 2379,
  "ल्क": 2380,
  "90": 2381,
  "रोजग": 2382,
  "ंकन": 2383,
  "ra": 2384,
  "ट्रेन": 2385,
  "अवधि": 2386,
  "निदेश": 2387,
  "कौन": 2388,
  "ताल": 2389,
  "विर": 2390,
  "उत्तराखंड": 2391,
  "नाइ": 2392,
  "गुप्ता": 2393,
  "रिकॉ": 2394,
  "चिं": 2395,
  "ूड": 2396,
  "en": 2397,
  "विधेयक": 2398,
  "2017": 2399,
  "सीरीज": 2400,
  "कारा": 2401,
  "विरा": 2402,
  "बाग": 2403,
  "कले": 2404,
  "खों": 2405,
  "तरीके": 2406,
  "मल": 2407,
  "पार्क": 2408,
  "निरा": 2409,
  "जाग": 2410,
  "नागरिक": 2411,
  "मोहम्मद": 2412,
  "चली": 2413,
  "स्ट्रेलिया": 2414,
  "चढ़": 2415,
  "अध्यक्षता": 2416,
  "धिक": 2417,
  "उससे": 2418,
  "प्रशि": 2419,
  "मतदान": 2420,
  "छि": 2421,
  "पन्न": 2422,
  "तत्": 2423,
  "रास्ते": 2424,
  "बीमारी": 2425,
  "शील": 2426,
  "मिश्रा": 2427,
  "रॉ": 2428,
  "पाने": 2429,
  "डिंग": 2430,
  "जरी": 2431,
  "लगाई": 2432,
  "ic": 2433,
  "रिकॉर्ड": 2434,
  "समार": 2435,
  "ट्वीट": 2436,
  "टीकाकरण": 2437,
  "स्टर": 2438,
  "शुभ": 2439,
  "युद्ध": 2440,
  "बनने": 2441,
  "ल्स": 2442,
  "काउंट": 2443,
  "साइट": 2444,
  "नाक": 2445,
  "किये": 2446,
  "नौकरी": 2447,
  "कील": 2448,
  "डीजल": 2449,
  "गैस": 2450,
  "ब्ल": 2451,
  "फरवरी": 2452,
  "जरिए": 2453,
  "किशो": 2454,
  "ब्यू": 2455,
  "शानदार": 2456,
  "तमाम": 2457,
  "पेट": 2458,
  "खाद्य": 2459,
  "श्रद्धा": 2460,
  "कमल": 2461,
  "पट": 2462,
  "नाटक": 2463,
  "प्राथ": 2464,
  "कने": 2465,
  "उच्च": 2466,
  "परेशानी": 2467,
  "मानव": 2468,
  "आय": 2469,
  "पर्क": 2470,
  "मात्र": 2471,
  "रहती": 2472,
  "निदेशक": 2473,
  "लक्ष्य": 2474,
  "मास्क": 2475,
  "यद": 2476,
  "पैदा": 2477,
  "पुल": 2478,
  "29": 2479,
  "गार": 2480,
  "समारोह": 2481,
  "अर्थ": 2482,
  "परियोजना": 2483,
  "छूट": 2484,
  "लक्ष्": 2485,
  "रैली": 2486,
  "अनि": 2487,
  "चिकित्सा": 2488,
  "पीड़ित": 2489,
  "लेते": 2490,
  "बिल्": 2491,
  "एजेंसी": 2492,
  "ट्री": 2493,
  "जमकर": 2494,
  "कोलका": 2495,
  "कोलकाता": 2496,
  "उसमें": 2497,
  "तहसील": 2498,
  "नियमित": 2499,
  "एसोसिएशन": 2500,
  "दूसरा": 2501,
  "कक्षा": 2502,
  "पाई": 2503,
  "शूटिंग": 2504,
  "श्न": 2505,
  "मगर": 2506,
  "बारी": 2507,
  "वैसे": 2508,
  "नु": 2509,
  "भवन": 2510,
  "पुरी": 2511,
  "ंसी": 2512,
  "पिक": 2513,
  "सहायता": 2514,
  "अध्या": 2515,
  "त्रियों": 2516,
  "लाइट": 2517,
  "कन्": 2518,
  "वर्षों": 2519,
  "तिथि": 2520,
  "डेट": 2521,
  "वां": 2522,
  "कार्यकर्ता": 2523,
  "पॉजि": 2524,
  "जरूर": 2525,
  "st": 2526,
  "पत्रकार": 2527,
  "सारे": 2528,
  "सत्ता": 2529,
  "अपराध": 2530,
  "प्रत्या": 2531,
  "नामा": 2532,
  "विश्वास": 2533,
  "संसद": 2534,
  "राग": 2535,
  "पकड़": 2536,
  "सुप्री": 2537,
  "कात": 2538,
  "मिलकर": 2539,
  "ल्‍": 2540,
  "इल": 2541,
  "लड़ा": 2542,
  "सोच": 2543,
  "निर्वा": 2544,
  "अथ": 2545,
  "घू": 2546,
  "कमि": 2547,
  "सहायक": 2548,
  "लान": 2549,
  "गार्ड": 2550,
  "वधान": 2551,
  "क्षकों": 2552,
  "चुनौ": 2553,
  "शंकर": 2554,
  "ऑफि": 2555,
  "सफलता": 2556,
  "वही": 2557,
  "प्रस्तु": 2558,
  "लेना": 2559,
  "सामाजिक": 2560,
  "स्टी": 2561,
  "टेड": 2562,
  "स्कृ": 2563,
  "खुलासा": 2564,
  "मृत": 2565,
  "विजे": 2566,
  "बाकी": 2567,
  "फिल्मों": 2568,
  "कैं": 2569,
  "प्य": 2570,
  "स्वागत": 2571,
  "तैनात": 2572,
  "ार्ट": 2573,
  "पंच": 2574,
  "गांवों": 2575,
  "भागी": 2576,
  "लौट": 2577,
  "दौरे": 2578,
  "पीट": 2579,
  "बहन": 2580,
  "लोड": 2581,
  "रावत": 2582,
  "खाना": 2583,
  "आदमी": 2584,
  "रोकने": 2585,
  "संशो": 2586,
  "लाना": 2587,
  "गलत": 2588,
  "गैर": 2589,
  "शांत": 2590,
  "समझा": 2591,
  "दृ": 2592,
  "विमान": 2593,
  "मेश": 2594,
  "गौरतलब": 2595,
  "ताब": 2596,
  "मुक्त": 2597,
  "नदी": 2598,
  "मच": 2599,
  "घे": 2600,
  "तकनी": 2601,
  "सानी": 2602,
  "एसटी": 2603,
  "पेंशन": 2604,
  "धिकारियों": 2605,
  "महाराष्ट्र": 2606,
  "पाठ": 2607,
  "उत्पाद": 2608,
  "चौक": 2609,
  "बदमा": 2610,
  "गाड़ी": 2611,
  "रखे": 2612,
  "मिलता": 2613,
  "किलोमीटर": 2614,
  "संपर्क": 2615,
  "रोजगार": 2616,
  "माने": 2617,
  "जागर": 2618,
  "सूर्य": 2619,
  "वाना": 2620,
  "जिनमें": 2621,
  "कार्यकर्ताओं": 2622,
  "har": 2623,
  "मनी": 2624,
  "संदेश": 2625,
  "सार्": 2626,
  "बां": 2627,
  "प्रभाव": 2628,
  "In": 2629,
  "रोह": 2630,
  "बादी": 2631,
  "शीर्ष": 2632,
  "वेतन": 2633,
  "गाय": 2634,
  "वर्मा": 2635,
  "मौजू": 2636,
  "मौजूदा": 2637,
  "खिलाड़ियों": 2638,
  "गतिवि": 2639,
  "सत्र": 2640,
  "शरीर": 2641,
  "दूरी": 2642,
  "मुस्": 2643,
  "सूस": 2644,
  "बेड": 2645,
  "शॉ": 2646,
  "लड़की": 2647,
  "सारा": 2648,
  "कवि": 2649,
  "लूट": 2650,
  "माइ": 2651,
  "प्रत्येक": 2652,
  "संबो": 2653,
  "बदमाश": 2654,
  "तू": 2655,
  "राजा": 2656,
  "आतंकी": 2657,
  "पुरानी": 2658,
  "सेंटर": 2659,
  "युवाओं": 2660,
  "आसान": 2661,
  "विल": 2662,
  "त्‍": 2663,
  "उपचार": 2664,
  "सव": 2665,
  "आवास": 2666,
  "सिस्ट": 2667,
  "199": 2668,
  "जानते": 2669,
  "नक्स": 2670,
  "दलों": 2671,
  "रजि": 2672,
  "चौहान": 2673,
  "मात्रा": 2674,
  "सालों": 2675,
  "दाबाद": 2676,
  "49": 2677,
  "चिकित्सक": 2678,
  "प्रदू": 2679,
  "वीन": 2680,
  "अंतरराष्ट्रीय": 2681,
  "ठि": 2682,
  "शौ": 2683,
  "पदों": 2684,
  "बीएस": 2685,
  "अग्रवाल": 2686,
  "दौर": 2687,
  "नती": 2688,
  "मुद्दे": 2689,
  "अफसर": 2690,
  "एप": 2691,
  "उंड": 2692,
  "स्टार": 2693,
  "महसूस": 2694,
  "घाट": 2695,
  "यात्रियों": 2696,
  "कानपुर": 2697,
  "इतिहा": 2698,
  "इतिहास": 2699,
  "मस्": 2700,
  "निए": 2701,
  "आजा": 2702,
  "सिया": 2703,
  "ठाकुर": 2704,
  "फाइनल": 2705,
  "निभा": 2706,
  "पान": 2707,
  "टाई": 2708,
  "मंजूरी": 2709,
  "शास": 2710,
  "द्द": 2711,
  "एक्सप्रेस": 2712,
  "तुर": 2713,
  "लेश": 2714,
  "रोज": 2715,
  "अधी": 2716,
  "शिविर": 2717,
  "मश": 2718,
  "सबुक": 2719,
  "Re": 2720,
  "चिंता": 2721,
  "अजय": 2722,
  "र्ति": 2723,
  "डू": 2724,
  "ऑस्ट्रेलिया": 2725,
  "विराट": 2726,
  "गिराव": 2727,
  "गिरावट": 2728,
  "दारों": 2729,
  "दुष्": 2730,
  "अंडर": 2731,
  "500": 2732,
  "मुलाकात": 2733,
  "वायु": 2734,
  "सर्वे": 2735,
  "शिप": 2736,
  "शर": 2737,
  "अकाउंट": 2738,
  "वेबसाइट": 2739,
  "संभव": 2740,
  "कन": 2741,
  "इंडियन": 2742,
  "निंग": 2743,
  "रखी": 2744,
  "जाति": 2745,
  "भोजन": 2746,
  "इंद": 2747,
  "सर्च": 2748,
  "ंदन": 2749,
  "रूक": 2750,
  "न्‍ह": 2751,
  "लॉन्": 2752,
  "बिल": 2753,
  "दस्ता": 2754,
  "त्ति": 2755,
  "सीटों": 2756,
  "जुट": 2757,
  "आसानी": 2758,
  "आरक्षण": 2759,
  "उनको": 2760,
  "टॉप": 2761,
  "चार्ज": 2762,
  "होम": 2763,
  "संभा": 2764,
  "नियु": 2765,
  "लंबे": 2766,
  "ष्टा": 2767,
  "मिलेगी": 2768,
  "id": 2769,
  "हालात": 2770,
  "जाएं": 2771,
  "लियों": 2772,
  "हवाई": 2773,
  "उद्योग": 2774,
  "रायपुर": 2775,
  "कीय": 2776,
  "पॉजिटिव": 2777,
  "कोत": 2778,
  "हिमा": 2779,
  "मानना": 2780,
  "दबाव": 2781,
  "न्हा": 2782,
  "अच्छे": 2783,
  "ti": 2784,
  "तोड़": 2785,
  "र्गत": 2786,
  "वाने": 2787,
  "एशिया": 2788,
  "ड्यू": 2789,
  "राजस्व": 2790,
  "हल्": 2791,
  "निर्धार": 2792,
  "प्रोफे": 2793,
  "वरण": 2794,
  "कॉन्": 2795,
  "मले": 2796,
  "बीमार": 2797,
  "त्मक": 2798,
  "हरण": 2799,
  "ट्रॉ": 2800,
  "दर्द": 2801,
  "जिद": 2802,
  "इयों": 2803,
  "वार्ता": 2804,
  "खतरा": 2805,
  "जिसकी": 2806,
  "प्रदूषण": 2807,
  "गन": 2808,
  "कृष्ण": 2809,
  "अभिने": 2810,
  "च्छ": 2811,
  "ट्रो": 2812,
  "सेल्": 2813,
  "संपत्ति": 2814,
  "ज्ञापन": 2815,
  "प्रिय": 2816,
  "अल्": 2817,
  "पश्चिम": 2818,
  "फॉर्म": 2819,
  "मंडी": 2820,
  "कर्ता": 2821,
  "बरा": 2822,
  "पैर": 2823,
  "कोहली": 2824,
  "मर्": 2825,
  "लीज": 2826,
  "परिसर": 2827,
  "जुर्": 2828,
  "निकों": 2829,
  "पांडे": 2830,
  "इनके": 2831,
  "प्राथमिक": 2832,
  "ब्रे": 2833,
  "नीचे": 2834,
  "गह": 2835,
  "दोष": 2836,
  "धम": 2837,
  "गुज": 2838,
  "चलाने": 2839,
  "मंच": 2840,
  "आवाज": 2841,
  "इंतजार": 2842,
  "भरो": 2843,
  "मनोज": 2844,
  "कृत": 2845,
  "पार्षद": 2846,
  "ड्राइ": 2847,
  "प्रयोग": 2848,
  "सार्वज": 2849,
  "मूर्ति": 2850,
  "आत्म": 2851,
  "ट्वि": 2852,
  "रुख": 2853,
  "कप्ता": 2854,
  "तीश": 2855,
  "क्सीजन": 2856,
  "आखिर": 2857,
  "चीनी": 2858,
  "एंगे": 2859,
  "चेक": 2860,
  "झू": 2861,
  "गंगा": 2862,
  "र्डर": 2863,
  "पुरस्कार": 2864,
  "चार्य": 2865,
  "तापमान": 2866,
  "वासी": 2867,
  "श्या": 2868,
  "दम": 2869,
  "आतंकि": 2870,
  "आतंकियों": 2871,
  "वाहनों": 2872,
  "फरार": 2873,
  "देगा": 2874,
  "पहुंचने": 2875,
  "अब्": 2876,
  "सदन": 2877,
  "घट": 2878,
  "पटेल": 2879,
  "आगामी": 2880,
  "शही": 2881,
  "नियुक्ति": 2882,
  "बचाव": 2883,
  "इन्हें": 2884,
  "प्रवक्ता": 2885,
  "्राम": 2886,
  "प्रशिक्षण": 2887,
  "संर": 2888,
  "मल्": 2889,
  "दास": 2890,
  "ol": 2891,
  "ch": 2892,
  "वेद": 2893,
  "लियन": 2894,
  "स्थापित": 2895,
  "रद्द": 2896,
  "हाईकोर्ट": 2897,
  "सड़कों": 2898,
  "आपने": 2899,
  "शब्": 2900,
  "व्यू": 2901,
  "सवार": 2902,
  "पूर्ति": 2903,
  "बीन": 2904,
  "सार्वजनिक": 2905,
  "नियमों": 2906,
  "वेस्ट": 2907,
  "फार्": 2908,
  "चित्र": 2909,
  "33": 2910,
  "उट": 2911,
  "प्रचार": 2912,
  "आबादी": 2913,
  "निवास": 2914,
  "घन": 2915,
  "सुनी": 2916,
  "मिलते": 2917,
  "नाराज": 2918,
  "बैठे": 2919,
  "्त": 2920,
  "खाते": 2921,
  "अभिनेत्री": 2922,
  "स्त्र": 2923,
  "निर्वाचन": 2924,
  "नियर": 2925,
  "यहाँ": 2926,
  "शिक्षकों": 2927,
  "चेयर": 2928,
  "जैन": 2929,
  "बरी": 2930,
  "जोन": 2931,
  "चुनौती": 2932,
  "गईं": 2933,
  "खेती": 2934,
  "तीसरे": 2935,
  "ew": 2936,
  "वास्तव": 2937,
  "उम्मीदवारों": 2938,
  "समाप्त": 2939,
  "रखना": 2940,
  "त्मा": 2941,
  "वहार": 2942,
  "शुल्क": 2943,
  "मधु": 2944,
  "विस्त": 2945,
  "पौधे": 2946,
  "विजेता": 2947,
  "सूरत": 2948,
  "खुश": 2949,
  "छोटी": 2950,
  "मुना": 2951,
  "अक्ष": 2952,
  "तरे": 2953,
  "लगाते": 2954,
  "तुरंत": 2955,
  "जवानों": 2956,
  "पहल": 2957,
  "सीबीआई": 2958,
  "इजा": 2959,
  "संवाददाता": 2960,
  "लिम": 2961,
  "हराया": 2962,
  "पण": 2963,
  "निर्धारित": 2964,
  "फेसबुक": 2965,
  "फायदा": 2966,
  "होटल": 2967,
  "उड़ा": 2968,
  "अनिल": 2969,
  "हिक": 2970,
  "डॉक्टरों": 2971,
  "प्रखंड": 2972,
  "जानिए": 2973,
  "लगने": 2974,
  "साव": 2975,
  "आईटी": 2976,
  "खेले": 2977,
  "एक्ट्रे": 2978,
  "इतनी": 2979,
  "जैसा": 2980,
  "कलेक्टर": 2981,
  "वालि": 2982,
  "परिवर्": 2983,
  "कथ": 2984,
  "फर्जी": 2985,
  "ट्रांस": 2986,
  "वकील": 2987,
  "सहम": 2988,
  "गर्म": 2989,
  "जागरूक": 2990,
  "रूम": 2991,
  "प्रताप": 2992,
  "जयपुर": 2993,
  "कोर": 2994,
  "जॉ": 2995,
  "आकर": 2996,
  "प्रेम": 2997,
  "यकों": 2998,
  "हंगा": 2999,
  "खड़ा": 3000,
  "महंगा": 3001,
  "लेट": 3002,
  "लेन": 3003,
  "हफ्": 3004,
  "पने": 3005,
  "स्टेट": 3006,
  "क्कत": 3007,
  "लेंस": 3008,
  "बचाने": 3009,
  "मिलती": 3010,
  "मरा": 3011,
  "इंग्": 3012,
  "शक": 3013,
  "जायेगा": 3014,
  "कारोबार": 3015,
  "मिशन": 3016,
  "अंदा": 3017,
  "दावे": 3018,
  "फ्रें": 3019,
  "कॉल": 3020,
  "मृत्य": 3021,
  "मृत्यु": 3022,
  "अंतर्गत": 3023,
  "मानत": 3024,
  "चेता": 3025,
  "चालन": 3026,
  "ंती": 3027,
  "लंबी": 3028,
  "विकसित": 3029,
  "अस्पतालों": 3030,
  "साहित": 3031,
  "कहानी": 3032,
  "षित": 3033,
  "बोल": 3034,
  "मिश्र": 3035,
  "रोधी": 3036,
  "वर्ण": 3037,
  "लिस्ट": 3038,
  "उन्": 3039,
  "विशेषज्ञ": 3040,
  "फ्त": 3041,
  "इट": 3042,
  "ंजी": 3043,
  "संशोधन": 3044,
  "पृष्ठ": 3045,
  "इंस्पे": 3046,
  "मालिक": 3047,
  "सारी": 3048,
  "लोनी": 3049,
  "ऑक्सीजन": 3050,
  "चंद्रमा": 3051,
  "ओम": 3052,
  "कैबि": 3053,
  "समस्याओं": 3054,
  "अमेरिकी": 3055,
  "प्रबंध": 3056,
  "जोड़": 3057,
  "पुन": 3058,
  "आवश्यकता": 3059,
  "चेयरमैन": 3060,
  "रोहित": 3061,
  "उन्‍ह": 3062,
  "मैचों": 3063,
  "स्य": 3064,
  "टक्कर": 3065,
  "राज्यपाल": 3066,
  "मती": 3067,
  "दै": 3068,
  "संगी": 3069,
  "पंजी": 3070,
  "टियों": 3071,
  "अध्य": 3072,
  "48": 3073,
  "व्यवहार": 3074,
  "साझा": 3075,
  "हटाने": 3076,
  "मतलब": 3077,
  "कर्नाटक": 3078,
  "अरवि": 3079,
  "वित्त": 3080,
  "गुजरात": 3081,
  "सेज": 3082,
  "चलने": 3083,
  "अभिनेता": 3084,
  "होनी": 3085,
  "लास": 3086,
  "वली": 3087,
  "सुप्रीम": 3088,
  "कैंसर": 3089,
  "सेट": 3090,
  "खोल": 3091,
  "तुलना": 3092,
  "ेंज": 3093,
  "आश्": 3094,
  "सिन्हा": 3095,
  "जागरण": 3096,
  "केत": 3097,
  "्रो": 3098,
  "न्होंने": 3099,
  "शिकार": 3100,
  "तस्वीरें": 3101,
  "चेतावनी": 3102,
  "ग़": 3103,
  "नेश": 3104,
  "स्पष्ट": 3105,
  "पना": 3106,
  "नॉ": 3107,
  "मुस्लिम": 3108,
  "पढ़ाई": 3109,
  "मला": 3110,
  "आधिकार": 3111,
  "आधिकारिक": 3112,
  "घरों": 3113,
  "मेह": 3114,
  "सीधे": 3115,
  "शीघ": 3116,
  "शीघ्र": 3117,
  "जिम्मेदारी": 3118,
  "सुख": 3119,
  "चुनावी": 3120,
  "स्वामी": 3121,
  "एक्ट्रेस": 3122,
  "198": 3123,
  "कैबिनेट": 3124,
  "हाथों": 3125,
  "डीपी": 3126,
  "पुष्टि": 3127,
  "नारे": 3128,
  "चालित": 3129,
  "36": 3130,
  "पैसा": 3131,
  "र्न": 3132,
  "रखते": 3133,
  "चाहता": 3134,
  "ंदी": 3135,
  "लड़ाई": 3136,
  "गतिविधियों": 3137,
  "नियंत्र": 3138,
  "पुराने": 3139,
  "दोबारा": 3140,
  "करनी": 3141,
  "हवा": 3142,
  "हाउस": 3143,
  "ंटा": 3144,
  "सर्व": 3145,
  "सख्": 3146,
  "जिन्हें": 3147,
  "प्रॉ": 3148,
  "गज": 3149,
  "हथि": 3150,
  "हथियार": 3151,
  "लपुर": 3152,
  "इलाकों": 3153,
  "नवा": 3154,
  "तारीख": 3155,
  "दस्त": 3156,
  "जोशी": 3157,
  "थोड़ा": 3158,
  "शहीद": 3159,
  "अमर": 3160,
  "डिजि": 3161,
  "डिजिटल": 3162,
  "फें": 3163,
  "शाला": 3164,
  "आरटी": 3165,
  "सीआर": 3166,
  "भीतर": 3167,
  "हमारा": 3168,
  "टिल": 3169,
  "विद्यार्थियों": 3170,
  "हिस्से": 3171,
  "पेड़": 3172,
  "मानित": 3173,
  "दीन": 3174,
  "रहेंगे": 3175,
  "दर्शकों": 3176,
  "सिलसि": 3177,
  "देखी": 3178,
  "द्वार": 3179,
  "धार्": 3180,
  "लगाकर": 3181,
  "बत": 3182,
  "यूज": 3183,
  "आरोपित": 3184,
  "दाखिल": 3185,
  "li": 3186,
  "मृतक": 3187,
  "लंब": 3188,
  "शायद": 3189,
  "खरीदने": 3190,
  "अरब": 3191,
  "पालिका": 3192,
  "उर्फ": 3193,
  "जोड़ी": 3194,
  "खुल": 3195,
  "खारि": 3196,
  "बान": 3197,
  "काई": 3198,
  "2014": 3199,
  "सूचित": 3200,
  "नम": 3201,
  "38": 3202,
  "ंव": 3203,
  "हिंसा": 3204,
  "पड़ी": 3205,
  "वैज्ञा": 3206,
  "लेंगे": 3207,
  "गुण": 3208,
  "पदक": 3209,
  "आउट": 3210,
  "समुदाय": 3211,
  "ज़ि": 3212,
  "लस": 3213,
  "प्स": 3214,
  "चुनावों": 3215,
  "प्रतियोग": 3216,
  "स्ना": 3217,
  "मजदूरों": 3218,
  "पीठ": 3219,
  "एंटी": 3220,
  "पात्र": 3221,
  "परिवर्तन": 3222,
  "कथित": 3223,
  "प्रती": 3224,
  "फं": 3225,
  "भले": 3226,
  "स्तानी": 3227,
  "सामग्री": 3228,
  "कियों": 3229,
  "वासियों": 3230,
  "रखें": 3231,
  "टरी": 3232,
  "मैने": 3233,
  "फ़ी": 3234,
  "च्छा": 3235,
  "बलों": 3236,
  "गिरा": 3237,
  "कल्या": 3238,
  "कल्याण": 3239,
  "जबर": 3240,
  "कितना": 3241,
  "42": 3242,
  "रफ्तार": 3243,
  "करों": 3244,
  "आधारित": 3245,
  "राजीव": 3246,
  "सैन्य": 3247,
  "तोष": 3248,
  "एटीएम": 3249,
  "परेशन": 3250,
  "लोन": 3251,
  "जाहिर": 3252,
  "गाइड": 3253,
  "ष्टाचार": 3254,
  "रुण": 3255,
  "कृति": 3256,
  "डियम": 3257,
  "संबोधित": 3258,
  "पात": 3259,
  "मुकद": 3260,
  "निकले": 3261,
  "इंग्लैंड": 3262,
  "किर": 3263,
  "ारा": 3264,
  "सच": 3265,
  "उदा": 3266,
  "बल्लेबाजी": 3267,
  "स्कूलों": 3268,
  "नय": 3269,
  "अतिक्रमण": 3270,
  "ंची": 3271,
  "धार्मिक": 3272,
  "परिवह": 3273,
  "परिवहन": 3274,
  "इस्ला": 3275,
  "कोतवाली": 3276,
  "रवाना": 3277,
  "जिसने": 3278,
  "केदार": 3279,
  "ग्रु": 3280,
  "कारों": 3281,
  "जवान": 3282,
  "सौं": 3283,
  "भरोसा": 3284,
  "अखि": 3285,
  "बातें": 3286,
  "अधीक्षक": 3287,
  "मेंट्स": 3288,
  "सॉ": 3289,
  "ट्रेलर": 3290,
  "आपूर्ति": 3291,
  "यण": 3292,
  "जनक": 3293,
  "ेंट्स": 3294,
  "उठाया": 3295,
  "प्रसार": 3296,
  "खेत": 3297,
  "प्रोफेसर": 3298,
  "दुकानों": 3299,
  "अपडेट": 3300,
  "हिसाब": 3301,
  "झु": 3302,
  "इश": 3303,
  "मकान": 3304,
  "क्यू": 3305,
  "महिलाएं": 3306,
  "ममता": 3307,
  "मुख्यालय": 3308,
  "बौ": 3309,
  "वर्ल्ड": 3310,
  "गेंदबाजी": 3311,
  "इंस्पेक्टर": 3312,
  "प्रतियोगिता": 3313,
  "रिलीज": 3314,
  "द्वितीय": 3315,
  "रूस": 3316,
  "निरीक्षक": 3317,
  "कॉलोनी": 3318,
  "डु": 3319,
  "वेयर": 3320,
  "संबंधी": 3321,
  "केन्द्र": 3322,
  "उनमें": 3323,
  "रहना": 3324,
  "रेट": 3325,
  "गेट": 3326,
  "संचालित": 3327,
  "भुग": 3328,
  "चेहरे": 3329,
  "कोट": 3330,
  "चय": 3331,
  "बाई": 3332,
  "म्प": 3333,
  "अने": 3334,
  "32": 3335,
  "फान": 3336,
  "इंदौर": 3337,
  "तिन": 3338,
  "मंद": 3339,
  "जताई": 3340,
  "वादियों": 3341,
  "लॉन्च": 3342,
  "मांगी": 3343,
  "उठ": 3344,
  "आखिरी": 3345,
  "्यु": 3346,
  "ews": 3347,
  "वाराण": 3348,
  "वाराणसी": 3349,
  "पदाधिकारी": 3350,
  "हक": 3351,
  "सीजन": 3352,
  "जला": 3353,
  "एसएस": 3354,
  "ष्‍": 3355,
  "th": 3356,
  "बताई": 3357,
  "फिया": 3358,
  "ट्रंप": 3359,
  "घुस": 3360,
  "डाला": 3361,
  "आंकड़े": 3362,
  "कालीन": 3363,
  "निप": 3364,
  "ठो": 3365,
  "तहरी": 3366,
  "इंटरनेट": 3367,
  "ग्रुप": 3368,
  "अखिलेश": 3369,
  "सफर": 3370,
  "मिट": 3371,
  "फुट": 3372,
  "प्रावधान": 3373,
  "सकेंगे": 3374,
  "चोट": 3375,
  "मार्टम": 3376,
  "ष्णु": 3377,
  "सिस्टम": 3378,
  "जमानत": 3379,
  "खारिज": 3380,
  "re": 3381,
  "जिलाधिकारी": 3382,
  "शियों": 3383,
  "डाउनलोड": 3384,
  "जयंती": 3385,
  "आदित्य": 3386,
  "आईपीएल": 3387,
  "पंप": 3388,
  "काट": 3389,
  "पदार्थ": 3390,
  "बेच": 3391,
  "बढ़कर": 3392,
  "हिंदू": 3393,
  "लक्ष्मी": 3394,
  "रहें": 3395,
  "कोच": 3396,
  "कानूनी": 3397,
  "रियल": 3398,
  "ल्या": 3399,
  "यालयों": 3400,
  "अधिनियम": 3401,
  "सुनिश्चित": 3402,
  "बीर": 3403,
  "योग्य": 3404,
  "अनुमान": 3405,
  "अहमद": 3406,
  "ढ़ी": 3407,
  "मुकाबला": 3408,
  "व्यक्त": 3409,
  "सागर": 3410,
  "आंखों": 3411,
  "भुगतान": 3412,
  "जुड़ी": 3413,
  "बढ़ो": 3414,
  "लागत": 3415,
  "डिग्री": 3416,
  "विकल्प": 3417,
  "यंत्र": 3418,
  "सिने": 3419,
  "आग्रह": 3420,
  "बेहत": 3421,
  "बेहतरी": 3422,
  "ऑफिस": 3423,
  "प्रश्न": 3424,
  "शोध": 3425,
  "तः": 3426,
  "लेंडर": 3427,
  "निकलने": 3428,
  "मध्यप्रदेश": 3429,
  "चंडी": 3430,
  "स्पी": 3431,
  "चौकी": 3432,
  "खाली": 3433,
  "2016": 3434,
  "गीत": 3435,
  "बिक्री": 3436,
  "पदाधिकारियों": 3437,
  "नियुक्त": 3438,
  "अस": 3439,
  "प्रस्तुत": 3440,
  "शै": 3441,
  "कानूनों": 3442,
  "देखें": 3443,
  "स्टेडियम": 3444,
  "सीओ": 3445,
  "कैंप": 3446,
  "गणना": 3447,
  "धमकी": 3448,
  "मॉडल": 3449,
  "हिन्": 3450,
  "टेज": 3451,
  "दुर्घटना": 3452,
  "पला": 3453,
  "मेलन": 3454,
  "सहमति": 3455,
  "हजारों": 3456,
  "ज्यो": 3457,
  "एसी": 3458,
  "बढ़ते": 3459,
  "ट्यू": 3460,
  "उपकरण": 3461,
  "मोटर": 3462,
  "चारों": 3463,
  "उतार": 3464,
  "संकेत": 3465,
  "जिन्होंने": 3466,
  "कर्ज": 3467,
  "पहुंचाने": 3468,
  "ढ़े": 3469,
  "हेल्": 3470,
  "स्टूड": 3471,
  "आशी": 3472,
  "मुद": 3473,
  "प्‍": 3474,
  "प्रत्याशी": 3475,
  "बताते": 3476,
  "अश्": 3477,
  "मद्": 3478,
  "मद्दे": 3479,
  "मद्देनजर": 3480,
  "िंग": 3481,
  "मुफ्त": 3482,
  "लड़ने": 3483,
  "उपाय": 3484,
  "सिविल": 3485,
  "काश": 3486,
  "निशाना": 3487,
  "हाबाद": 3488,
  "दुष्कर्म": 3489,
  "साथी": 3490,
  "हरि": 3491,
  "ग्रहण": 3492,
  "अक्सर": 3493,
  "वस्तु": 3494,
  "कोरिया": 3495,
  "हिमाचल": 3496,
  "रेन": 3497,
  "मलेरिया": 3498,
  "संस्कार": 3499,
  "हंगामा": 3500,
  "इरा": 3501,
  "खून": 3502,
  "शुक्ला": 3503,
  "पूत": 3504,
  "सक्रि": 3505,
  "बिल्कुल": 3506,
  "सकें": 3507,
  "र्ना": 3508,
  "प्रियं": 3509,
  "जब्त": 3510,
  "फ्रा": 3511,
  "मेर": 3512,
  "खतर": 3513,
  "नेह": 3514,
  "गुला": 3515,
  "पर्याप्त": 3516,
  "रचना": 3517,
  "जगहों": 3518,
  "बनाना": 3519,
  "Hom": 3520,
  "Home": 3521,
  "कीमतों": 3522,
  "अथवा": 3523,
  "रहीं": 3524,
  "केरल": 3525,
  "अनेक": 3526,
  "दोस्तों": 3527,
  "आपका": 3528,
  "श्याम": 3529,
  "सौर": 3530,
  "इले": 3531,
  "नज": 3532,
  "ियर": 3533,
  "कहां": 3534,
  "गोल": 3535,
  "वनडे": 3536,
  "जुड़ा": 3537,
  "रेफर": 3538,
  "उसको": 3539,
  "रिजर्": 3540,
  "स्कर": 3541,
  "सेल": 3542,
  "बहादु": 3543,
  "लाइफ": 3544,
  "नोए": 3545,
  "सेक्टर": 3546,
  "गाने": 3547,
  "इंस": 3548,
  "भ्रष्टाचार": 3549,
  "सामान": 3550,
  "विज्ञान": 3551,
  "चाहे": 3552,
  "सुझा": 3553,
  "प्लांट": 3554,
  "राकेश": 3555,
  "जस्टि": 3556,
  "जस्टिस": 3557,
  "आएगी": 3558,
  "वसू": 3559,
  "समान": 3560,
  "जुटा": 3561,
  "क्षम": 3562,
  "उल्लेख": 3563,
  "सीटें": 3564,
  "भक्त": 3565,
  "ग्रस्त": 3566,
  "पीड़िता": 3567,
  "तहरीर": 3568,
  "उपाध्यक्ष": 3569,
  "उद्देश": 3570,
  "2015": 3571,
  "पड": 3572,
  "छात्राओं": 3573,
  "चंडीगढ़": 3574,
  "सनी": 3575,
  "महो": 3576,
  "रिश्ते": 3577,
  "काने": 3578,
  "सीय": 3579,
  "पोस्टमार्टम": 3580,
  "विष्णु": 3581,
  "बंग": 3582,
  "प्रोड": 3583,
  "नामांकन": 3584,
  "विस्तार": 3585,
  "दिनेश": 3586,
  "ण्ड": 3587,
  "स्टॉ": 3588,
  "व्यवसाय": 3589,
  "डीसी": 3590,
  "परीक्षण": 3591,
  "विरोधी": 3592,
  "लैक": 3593,
  "as": 3594,
  "आइए": 3595,
  "चलाया": 3596,
  "जहा": 3597,
  "कार्यों": 3598,
  "ध्": 3599,
  "ठंड": 3600,
  "लंघन": 3601,
  "ज़ी": 3602,
  "पुण": 3603,
  "फ्यू": 3604,
  "अर्थव्यवस्था": 3605,
  "फोर्स": 3606,
  "अंग": 3607,
  "ho": 3608,
  "वापसी": 3609,
  "अंक": 3610,
  "जंग": 3611,
  "प्रियंका": 3612,
  "बद्ध": 3613,
  "रेखा": 3614,
  "55": 3615,
  "मंत्रि": 3616,
  "मानसिक": 3617,
  "ईओ": 3618,
  "ंकों": 3619,
  "प्लान": 3620,
  "दस्तावेज": 3621,
  "काउंटर": 3622,
  "आएगा": 3623,
  "टेक": 3624,
  "ूर": 3625,
  "vi": 3626,
  "PM": 3627,
  "प्रार": 3628,
  "श्रम": 3629,
  "चं": 3630,
  "बीसी": 3631,
  "रिजर्व": 3632,
  "ौती": 3633,
  "पढ़े": 3634,
  "नोएडा": 3635,
  "ौल": 3636,
  "अध्ययन": 3637,
  "औद्योग": 3638,
  "हेतु": 3639,
  "सुझाव": 3640,
  "यूनियन": 3641,
  "37": 3642,
  "एमसी": 3643,
  "आल": 3644,
  "चावल": 3645,
  "निग": 3646,
  "तियों": 3647,
  "गिरफ्": 3648,
  "गिरफ्तारी": 3649,
  "अरविंद": 3650,
  "किरदार": 3651,
  "आईसी": 3652,
  "समर्": 3653,
  "्यास": 3654,
  "सम्मानित": 3655,
  "ed": 3656,
  "प्रकाशित": 3657,
  "अके": 3658,
  "टियां": 3659,
  "सेवन": 3660,
  "परं": 3661,
  "परंपरा": 3662,
  "शहरों": 3663,
  "डेस्क": 3664,
  "आयुक्त": 3665,
  "ढे": 3666,
  "केन्द": 3667,
  "सम्मेलन": 3668,
  "उद्देश्य": 3669,
  "तकनीकी": 3670,
  "पृथ": 3671,
  "यूजर्स": 3672,
  "टिक": 3673,
  "गोपाल": 3674,
  "शाही": 3675,
  "खतरे": 3676,
  "गैंग": 3677,
  "साई": 3678,
  "पिका": 3679,
  "जेएन": 3680,
  "भरी": 3681,
  "स्पा": 3682,
  "समीप": 3683,
  "मारपीट": 3684,
  "दरा": 3685,
  "बें": 3686,
  "योगदान": 3687,
  "जिंदगी": 3688,
  "क्वि": 3689,
  "गठन": 3690,
  "ay": 3691,
  "रेन्द्र": 3692,
  "कोर्स": 3693,
  "बरे": 3694,
  "तुर्": 3695,
  "पर्यटन": 3696,
  "विदेशी": 3697,
  "हफ्ते": 3698,
  "उपभो": 3699,
  "प्यार": 3700,
  "पर्यावरण": 3701,
  "लिहा": 3702,
  "इतने": 3703,
  "स्वर्ण": 3704,
  "आकर्": 3705,
  "दून": 3706,
  "Read": 3707,
  "क्का": 3708,
  "ट्विटर": 3709,
  "पहुंचाया": 3710,
  "लुक": 3711,
  "फार": 3712,
  "निकालने": 3713,
  "कप्तान": 3714,
  "मनाया": 3715,
  "बुरी": 3716,
  "कस": 3717,
  "यात्री": 3718,
  "मिलन": 3719,
  "कार्यकाल": 3720,
  "अपार्ट": 3721,
  "कुमारी": 3722,
  "सिक्": 3723,
  "फीस": 3724,
  "सलों": 3725,
  "टूर्ना": 3726,
  "टूर्नामेंट": 3727,
  "यंस": 3728,
  "वादा": 3729,
  "चिकित्सकों": 3730,
  "ट्रि": 3731,
  "लोगो": 3732,
  "मुकेश": 3733,
  "शेर": 3734,
  "रमेश": 3735,
  "किताब": 3736,
  "आईए": 3737,
  "धीश": 3738,
  "बढ़ोतरी": 3739,
  "मंत्रिमंडल": 3740,
  "यस": 3741,
  "कब": 3742,
  "लापर": 3743,
  "क्रिके": 3744,
  "क्रिकेटर": 3745,
  "बोला": 3746,
  "बेहतरीन": 3747,
  "रोल": 3748,
  "उतर": 3749,
  "पायल": 3750,
  "खला": 3751,
  "नियां": 3752,
  "देती": 3753,
  "धीरे": 3754,
  "चढ़ा": 3755,
  "महंगाई": 3756,
  "अयो": 3757,
  "संतोष": 3758,
  "सैनिक": 3759,
  "इनकार": 3760,
  "क्लि": 3761,
  "औद्योगिक": 3762,
  "ion": 3763,
  "स्पि": 3764,
  "भरा": 3765,
  "ide": 3766,
  "गुना": 3767,
  "किनारे": 3768,
  "न्‍या": 3769,
  "मिलना": 3770,
  "राजे": 3771,
  "विनो": 3772,
  "कर्ताओं": 3773,
  "मारने": 3774,
  "प्रसिद्ध": 3775,
  "कब्जे": 3776,
  "सीन": 3777,
  "शरण": 3778,
  "am": 3779,
  "वाया": 3780,
  "2013": 3781,
  "दूध": 3782,
  "विपक्षी": 3783,
  "57": 3784,
  "लीला": 3785,
  "शंका": 3786,
  "बादल": 3787,
  "टैक्स": 3788,
  "गेहूं": 3789,
  "साध": 3790,
  "निंदा": 3791,
  "लंबित": 3792,
  "आना": 3793,
  "राजेश": 3794,
  "साइकिल": 3795,
  "तल": 3796,
  "पूजन": 3797,
  "क्षी": 3798,
  "व्यापारियों": 3799,
  "दुबे": 3800,
  "ur": 3801,
  "चाय": 3802,
  "आये": 3803,
  "लीग": 3804,
  "उपभोक्": 3805,
  "ओपी": 3806,
  "तनाव": 3807,
  "मशी": 3808,
  "पंचायतों": 3809,
  "ri": 3810,
  "गाँ": 3811,
  "मिट्टी": 3812,
  "कालेज": 3813,
  "मेहन": 3814,
  "मेहनत": 3815,
  "व्हा": 3816,
  "किरा": 3817,
  "बचने": 3818,
  "अपराधी": 3819,
  "बाला": 3820,
  "टेन": 3821,
  "उल्लंघन": 3822,
  "गुस्": 3823,
  "पुरुषों": 3824,
  "बुल": 3825,
  "गोल्ड": 3826,
  "बोले": 3827,
  "मशहू": 3828,
  "मशहूर": 3829,
  "उदय": 3830,
  "चेन्": 3831,
  "चेन्नई": 3832,
  "शेखर": 3833,
  "कन्स्ट्र": 3834,
  "सर्कल": 3835,
  "मंत्रियों": 3836,
  "सैंप": 3837,
  "लीक": 3838,
  "शाखा": 3839,
  "दिल्‍": 3840,
  "दिल्‍ली": 3841,
  "ईडी": 3842,
  "नवीन": 3843,
  "प्रभावी": 3844,
  "हिंदु": 3845,
  "पाक": 3846,
  "शिल्": 3847,
  "बायो": 3848,
  "इंटरनेशनल": 3849,
  "वित्": 3850,
  "वित्तीय": 3851,
  "परमाण": 3852,
  "परमाणु": 3853,
  "विवे": 3854,
  "न्याया": 3855,
  "लीटर": 3856,
  "अनुरोध": 3857,
  "लड़कियों": 3858,
  "पाएंगे": 3859,
  "स्वस्थ": 3860,
  "पड़ेगा": 3861,
  "आगरा": 3862,
  "सेके": 3863,
  "सब्जी": 3864,
  "टकों": 3865,
  "एनएस": 3866,
  "एयरपोर्ट": 3867,
  "नजदी": 3868,
  "तिल": 3869,
  "ज़र": 3870,
  "लादेश": 3871,
  "जेक्ट": 3872,
  "सिम": 3873,
  "पायलट": 3874,
  "मानी": 3875,
  "छोड़कर": 3876,
  "अब्दु": 3877,
  "सोई": 3878,
  "स्थिर": 3879,
  "पहन": 3880,
  "हारी": 3881,
  "मुंह": 3882,
  "कटौती": 3883,
  "दैनिक": 3884,
  "पूर्वक": 3885,
  "टिफि": 3886,
  "माही": 3887,
  "जोखि": 3888,
  "जोखिम": 3889,
  "अपराधियों": 3890,
  "क्राइम": 3891,
  "indi": 3892,
  "व्यापक": 3893,
  "महीनों": 3894,
  "संस्कृ": 3895,
  "इसको": 3896,
  "बदमाशों": 3897,
  "विनोद": 3898,
  "चक्कर": 3899,
  "असम": 3900,
  "करार": 3901,
  "धोनी": 3902,
  "बिंद": 3903,
  "अभ्यास": 3904,
  "ob": 3905,
  "le": 3906,
  "बढ़ाकर": 3907,
  "रुद्ध": 3908,
  "एक्टर": 3909,
  "एक्शन": 3910,
  "ज्यादातर": 3911,
  "स्टाफ": 3912,
  "हद": 3913,
  "इनकी": 3914,
  "बम": 3915,
  "स्वीकार": 3916,
  "नकली": 3917,
  "बधा": 3918,
  "पशु": 3919,
  "स्टिक": 3920,
  "निष्": 3921,
  "ज्योति": 3922,
  "उत्तरी": 3923,
  "रिमा": 3924,
  "दीपिका": 3925,
  "सरदार": 3926,
  "स्थानों": 3927,
  "करवाया": 3928,
  "उधर": 3929,
  "हाईवे": 3930,
  "अनुप": 3931,
  "तिर": 3932,
  "नयी": 3933,
  "लाए": 3934,
  "कपा": 3935,
  "नीत": 3936,
  "घाटन": 3937,
  "भारती": 3938,
  "साढ़े": 3939,
  "स्‍ट": 3940,
  "्यूटर": 3941,
  "ब्लॉक": 3942,
  "सिनेमा": 3943,
  "कामका": 3944,
  "पुष्": 3945,
  "अयोध्या": 3946,
  "यर्स": 3947,
  "टिया": 3948,
  "बढ़ने": 3949,
  "सेवाएं": 3950,
  "विधि": 3951,
  "ँच": 3952,
  "श्रीनगर": 3953,
  "पीएफ": 3954,
  "छापे": 3955,
  "बनर्जी": 3956,
  "मचा": 3957,
  "गठित": 3958,
  "नेशन": 3959,
  "आजम": 3960,
  "जंगल": 3961,
  "सुनील": 3962,
  "लट": 3963,
  "News": 3964,
  "अक्षय": 3965,
  "लियां": 3966,
  "पहुंचकर": 3967,
  "डायरे": 3968,
  "01": 3969,
  "पर्व": 3970,
  "एमएस": 3971,
  "केजरी": 3972,
  "केजरीवाल": 3973,
  "सोने": 3974,
  "चार्ट": 3975,
  "कन्स्ट्रक": 3976,
  "कन्स्ट्रकशन": 3977,
  "सक्रिय": 3978,
  "परिस्थिति": 3979,
  "खेलने": 3980,
  "एसडीएम": 3981,
  "आतंकवाद": 3982,
  "पाठी": 3983,
  "धारण": 3984,
  "फिट": 3985,
  "बॉर्डर": 3986,
  "पाकिस्तानी": 3987,
  "नशे": 3988,
  "अफ्री": 3989,
  "जिनके": 3990,
  "ईरान": 3991,
  "सवालों": 3992,
  "नियंत्रण": 3993,
  "मित्र": 3994,
  "न्यूज": 3995,
  "52": 3996,
  "बैंकों": 3997,
  "रक्त": 3998,
  "इच्छा": 3999
}