ا ل
ي ة
ف ي
ال م
ا ن
م ن
ا ت
ي ن
ا ر
ل ى
ا م
و ل
ال أ
ه ا
و ن
ر ي
ال ت
ر ا
م ا
ال ع
ل ا
ي ر
ي ا
و ا
ل ي
س ت
و ر
ع لى
د ي
و ال
و م
أ ن
ال ح
ال س
ال ب
ا ب
ل ك
ع د
ال ق
ن ا
و ب
إ لى
ر ب
ك ان
ل م
و ي
س ي
ا د
1 9
م ع
ال إ
ال ج
ق د
ل ل
و ت
ر ة
ه م
ال ش
ا ئ
د ة
ب ر
ال ن
و س
ال ك
ع ن
ال د
ب ي
ع ة
و د
ع ام
ال ف
ت م
ت ح
و ق
س م
ا ء
ال ي
و ج
ه ذ
الت ي
ر ك
ه ي
ح ي
0 0
ل ة
ال ر
ب ل
ب ن
ع م
س ب
ا ف
ك ل
ق ة
ا ست
ي م
ش ر
ال ص
ا ع
ي ل
ان ي
م د
و ف
ب د
س ا
أ و
ذ لك
م ة
ال خ
ال ث
ي د
ح د
ك ن
ح ت
ب ين
س ل
ال ذ
ه و
ج م
ي س
ي ت
ب ا
خ ل
و أ
ال ل
م ر
س ن
و ع
ص ر
ي ع
خ ر
ه ر
إ ن
ب عد
ر ن
ك ت
ص ل
أ ي
ان ية
و في
م ث
ت ق
ع ل
و ز
ك ر
ال ط
ب ع
ق ي
م ت
ق ت
و ك
ل س
ل ف
م ح
ين ة
ار ة
ا ص
ار ي
2 0
ن ي
ن د
هذ ا
ع لي
د ر
ال ا
ك م
هذ ه
ل ت
ول ة
ير ة
أ م
ال غ
س ة
ع ب
كان ت
الذ ي
ك ي
ه د
و الم
ث ر
و ط
ي ات
و ات
ك ون
ق ل
ر ض
2 00
أ ك
ر ف
ان ت
دي د
و ح
خ ت
ول ا
ب ح
الم د
مث ل
الأ م
ف ا
حي ث
ز ي
ط ة
أ س
ب ة
و ري
ف ر
ت ي
ت ع
غ ير
ي و
ت ش
ق ا
م ل
1 8
ث م
د م
م س
ي ش
ال ه
ن ظ
ج ن
ك ما
الع الم
ت ر
ق بل
ت ه
را ء
ف ة
س ية
ر ق
ئ يس
ح ة
لا د
و ية
ج ا
الع رب
ط ل
ل ه
رك ة
م ج
سن ة
الم ن
ب ه
ق ط
ال ية
ق ر
و قد
و ض
و من
د ا
ال ز
ح ا
را ئ
ت ا
عن د
ري ق
الم ع
و ص
ك ا
ال ات
اف ة
ور ية
سل ام
ي ز
و ان
خ ص
ح ر
ف س
ك ب
خل ال
ح ل
ت ن
الم تح
بع ض
عد د
ب را
ج ة
خر ى
ور ة
ش كل
ج ز
اري خ
ت د
ف ت
ك وم
الق رن
ج ر
ع بد
20 1
ي ق
ن ة
ط قة
ن ية
ب ت
و الت
م ي
ال ة
ب ار
ط ين
أي ض
المتح دة
س يا
حت ى
ي ف
أ ص
م ار
أن ه
اد ة
19 9
ب ق
قد م
عم ل
نا ء
الم س
ك ية
م ص
ا ض
ج د
ب ية
ع ت
أ ول
غ ة
الل ه
ع ي
الم ت
و هو
ا ه
ش ي
ق ام
الع ام
ول ي
ور وب
م لك
ج ي
ان يا
المد ينة
م ست
س ع
ئ ي
ب ط
لا ح
خ ط
و هي
ش ار
ال آ
ع ض
ر د
ال است
ت ج
أك ثر
وس ط
الس ل
و الأ
الإ ن
ا ط
ر ت
ب ري
إ س
د ول
ل لم
ذ ا
الإ سلام
ن وب
ع ية
ر ية
أ ف
لس طين
ت ت
م ق
ك رة
ب و
وال ي
الد ين
ج ت
الد ولة
ز ة
مد ينة
ص ف
ص اد
الح رب
ج ل
ث ير
و سي
ب ات
و ه
خ د
ب ها
ال نا
و كان
را ق
و ى
19 8
ع شر
و التي
م ال
ش ت
ف ق
ظ م
19 7
و ار
كوم ة
ك س
ل د
الم ست
ع ا
أ د
و ة
ر ئيس
الس يا
بل غ
لا ث
ر س
ئ ة
ال يا
ح اد
خ اص
19 6
ي وم
و لى
ج ه
ت ف
ي ط
ي ين
ح ية
خ دم
م لي
الم نا
الج ز
نا ك
مح مد
أم ري
ال ض
عد ة
العرب ية
في ها
ار ات
ي ون
ما ء
19 4
ل ق
الأ ول
الغ رب
سب ة
الي وم
س ط
الم ح
س ك
تح ت
ع ات
وق ت
يا ء
و ش
و عة
1 5
ق لي
م صر
ول كن
ف إن
أ حد
م ان
الد ول
الع ديد
سب ب
وج د
ا ث
الب لاد
ر ات
اع ت
س ين
را ض
ل ب
رك ز
الم لك
ت لك
خت لف
و ث
م ؤ
يم كن
ب شكل
س ر
ن فس
ل ها
لا ف
ا ز
ت أ
ط ا
ج ان
بد أ
ولا يات
ائ ل
ار ج
أ خرى
اب ن
غ م
أ ح
جم يع
أ ش
1 0
ق ص
ط ي
ف ن
ار ية
م سا
و إ
ال وط
1 7
رائ يل
ف ض
لك ن
و صل
و ما
من ذ
لا ق
و الع
الب ر
إ لا
ه ـ
د ون
أن ها
ه ود
الم ي
قت صاد
الأم ري
غ رب
00 0
عند ما
ذ ي
ات ه
ل ح
ج ع
أ ما
ف ل
19 5
دي دة
ت ها
وا ق
ح ول
ه ناك
س ان
ملك ة
ض افة
ب ير
الر ئيس
دي ث
ي ج
الم ؤ
ال را
أ غ
ه ل
وق ع
الإ م
ك ة
كت اب
ك و
أك بر
يا دة
من ها
ح و
ز ب
ت ص
ين ا
ب ال
م ه
1 4
1 2
ا سم
علي ه
الل غة
الن ظ
ش ا
ف قد
م جم
ف رن
ظ هر
خد ام
أ خ
1 3
ال في
e r
م ما
ق ية
و ذ
ي تم
من طقة
ت ين
ئ ية
اب ات
في ه
وج ود
س ات
الس كان
لا عب
الب حر
م ية
ح والي
د ين
برا ط
الأ ولى
ل ات
ت اريخ
ال ري
ك ار
أ لم
ا ح
الذ ين
ط ق
الج نوب
ان ون
الت ج
أ ر
و ذلك
1 6
الش ي
ض م
آ خر
ج ام
ح ق
إ لي
ش ع
ز ا
د ولة
الإ س
الث اني
19 3
ال ولايات
الم ص
الأ س
ت ل
الع ل
ر ح
ي ست
ث لاث
الح كومة
عم ال
ت ط
ف ع
ص د
كب ير
ح ين
ك ام
الأ رض
د ية
ب ان
a n
الش رق
الق دي
ح م
ق ب
ع لم
و ير
ن ها
وض ع
س كان
و غ
ز ل
ذ ات
ال ان
لم ين
ر وف
جن وب
نظ ام
أ ع
با سم
ع ادة
ه ما
انت خ
أ وروب
إس رائيل
الم سي
وا ئ
ر وس
ش خص
ط ار
الت ح
ط ر
را د
ائ ية
الأ خ
ذ كر
إ م
الات حاد
اب ة
الم ج
الف رن
ل ين
ق ائ
ل غ
ب سبب
الب ري
المن طقة
أ ث
الح ا
إ د
وا ست
ست ان
است خدام
أ هم
الش م
ص ار
عم ر
ي كون
الت اريخ
وي ت
ب م
أمري كي
ق ال
س كر
الق ر
الأ خرى
الأ وروب
ع رف
ائ ر
ون ي
ث ل
ند ا
ع الم
علي ها
ال دي
ظ مة
و دة
الع مل
حد ث
الب ي
راض ي
ت ب
ف لسطين
ب الإ
الف لسطين
اله ند
الس اب
ت رة
ا خت
لي ل
الج يش
يا ة
ر ج
ن ت
الر وم
وم ع
وج ه
الأ ح
كت ب
خ ارج
مع ظم
لا ء
ب ما
ي لي
س اب
ض د
رب ع
ل ن
الق ط
الر غم
الح ر
وال ذي
ملي ون
ب ول
ط ريق
ف اع
ض من
العالم ية
اف ظ
ار س
الس ن
ح كم
ه ب
ج لي
أوروب ا
را ف
جت ما
وري ا
أ لف
ا حت
الع راق
و دي
ان د
ن ش
أ بو
وا ح
ان ات
أ بي
ك يل
تا ج
طل ق
اص مة
ت كون
ط ان
وي ل
وب ر
ت بر
ولا ية
ي ب
غ ر
ت س
ك ات
الث انية
ري ر
ش ف
الم وا
ت رك
ب ناء
علي م
و ين
وا حد
ض ة
سم ية
o n
ن ف
شر ين
ب أن
ص ور
قا ط
ز ية
البري ط
م ين
ا ية
و كانت
خاص ة
i n
e n
ص ب
ح رب
ط ول
عض اء
ح ص
د ه
الش ر
ب اب
مج لس
ام ج
الخ اص
ت ز
فت رة
19 2
ت اب
الأ لم
الا قتصاد
الي ون
ن حو
ول م
ت ست
الص ين
جم ه
العرب ي
ائ زة
الح ديث
ل ال
الإم براط
ا دي
الق وات
ض ر
و حي
ط ية
ظ ر
ام ي
ون ية
ب ور
و أن
ال وقت
شر ق
الس وفي
ريق يا
ير ان
وز راء
غ ي
ش ركة
مث لة
ش مال
ج وم
ختلف ة
أح مد
الأ ك
ف قط
a r
در جة
وا ء
ط بي
الع ثم
ب الم
بي ل
مجم وعة
لم ة
سك ري
ز م
الت ق
كب يرة
ط ب
ام ة
ع ود
ك ث
ع بر
ش رة
ي ح
سي م
الأ ن
المنا طق
الأ د
ألم انيا
جام عة
قت ل
ا ة
الف ترة
الي هود
ل ع
الع لم
ط ن
ط ف
م رة
إ ذا
ع هد
و را
ج ائزة
م غ
ض ع
خ لي
ي ه
م مثل
بين ما
e s
الأمري كية
بالإ ضافة
دا خل
الم غ
وي س
الث الث
م ش
و ظ
ب الت
الش ع
الأ ر
ال هي
الط بي
2 5
را ك
وب عد
ق ات
را جع
يا ه
الري اض
ض اء
ت قد
الث ق
ف ه
وف ق
و غير
أ سا
واح دة
سكر ية
يم ة
الغرب ية
رك ات
أيض ا
الح كم
جز ء
المس لمين
جمه ورية
م ركز
ي ول
د اد
ب لاد
زي ز
م وا
وال ح
الوط ني
سم ى
a l
ش هر
ل إ
الش عب
الج ن
قل ال
ئ ا
وا س
الإسلام ية
ه ور
ن ق
يس ة
أ ق
ش اء
عد اد
ل بن
ر م
الأم م
س ام
ب إ
واق ع
سم ي
العام ة
ه رب
في ن
الق د
ري ف
جت مع
1 1
د را
ج ما
عمل ية
الس ا
الح د
الش مس
د ور
النظ ام
الس نة
وا ع
إ ذ
الم ملكة
3 0
ج ات
ن وع
نا صر
o r
في ما
آ ن
سن وات
الخ لي
و ء
ق وات
ح سب
ب غ
جان ب
تي جة
ط الب
ع اد
من ه
من ا
الا حت
ف ري
الأ رد
الم ر
ص لاح
فرن سا
ب الن
ج مع
انتخ ابات
ن دي
ح ركة
ج ين
أيض اً
غ ل
ت خ
ان ة
ب اد
القدي مة
مق را
أ كت
أ عضاء
سم ة
ي ص
د و
تح د
ه ار
ب حت
م وس
ب ش
اع ر
ري ب
وال إ
الب لد
خر ج
لا ب
الت ا
عد م
اني ين
وال ن
أكت وبر
م مثلة
قي ق
تف اع
وم ات
أث ناء
و على
الأ سا
أص بحت
ن ى
بري ط
نوب ل
ف ية
ج يش
أ عل
ن سبة
تم ر
الب ح
الط ا
اط ق
ص نا
ق اب
ون غ
ائ ي
و خ
الج ام
ع يد
مار س
ش ك
5 0
تق ع
2 2
الد ا
ك مة
تم د
ول وج
د خل
الص ح
من ظمة
الع م
الوط نية
ص ة
يا د
جا ه
أص بح
و حد
ئي سي
ع رب
مح ا
ع ين
نفس ه
ز ياء
الت ن
نا ئ
وال ق
س اء
ر وا
د ار
ج ار
ك ري
2 1
ث ق
ل ز
ول د
الص نا
أ صل
الإسلام ي
رائ يلي
سي س
إن شاء
ج ري
ش ق
مص ري
وق ف
م كن
الشم الية
أ ت
الأ ص
هد ف
اد ر
الك ثير
اه رة
ي وجد
آ سيا
الشي خ
لي ون
الخاص ة
ل هم
عن ي
الأ مر
النا س
ينا ير
من هم
الف ن
لا ج
ور د
م بر
الد ولي
بري ل
ر ع
a t
ش ري
لا دي
ك ين
ح زب
من اطق
في ا
ك ثير
المد ن
اف ية
وم ة
م عد
را ع
ف ار
قر ار
الح ياة
ام ل
نها ية
ست ر
ام ية
وك ذلك
م و
ب الق
غ ان
الأم ير
س ون
سم بر
الأمري كي
ال وسط
فا ق
صر ية
ور ج
ها ء
الت عليم
ض ل
نظ يم
السل طة
دي سمبر
ط ات
ات ي
الجز يرة
يون يو
ه ند
الأ راضي
الخ ام
الشرق ية
ح كومة
سل حة
لي بي
ا كت
ت ون
ها د
غ ا
لاق ات
ما يو
أ جل
ب اني
ري قة
أف ريقيا
الح م
ل أن
الل غ
ن وف
الش مال
تم بر
ع رض
الخ ط
ين ية
أ مر
الإن سان
الع زيز
بد اية
ن هر
ق سم
لي س
ل دي
بن ي
ص ح
وع ات
را ب
الس اد
ذ هب
ض ا
الق انون
سيا سي
أ ل
تم ام
الدول ية
الك ن
ش ب
م وقع
خ ذ
ي ؤ
i s
أ قل
بل د
ار ت
2 4
h e
الز را
طل ب
ثلاث ة
حل ية
سب تمبر
ون ات
رب عة
م ز
خ م
يول يو
وح دة
ح الة
المي لاد
غ يرة
م يل
با ط
أ هل
الا جتما
الخ ارج
الم قد
بدأ ت
ن سمة
لل ت
ن ز
ح ات
بر ى
حد ود
ج ون
الغرب ي
الفلسطين ية
آ ل
أي ام
قط اع
إلي ه
الت الي
الع صر
خارج ية
الن ف
الك يم
أد ى
أ عمال
د ع
است مر
عت بر
دي م
الجنوب ية
ي ار
ش به
م الي
ت هم
أش هر
ز و
ط لاق
لا ست
ا س
ض ي
الإمبراط ورية
وص ف
ث ي
19 0
ير ات
إن تاج
الم حي
سط س
ه ن
افظ ة
ا قت
وب ة
الم سا
ص ادي
ج رة
ه ام
وص ول
الفرن سية
2 3
لك تر
ج يل
i t
ه ول
ث ار
ش ل
إ حد
الع د
ج عل
نوف مبر
اف ت
ت عد
ائ رة
من ت
ا ي
الأوروب ي
إ يط
ش هد
م كان
ن ص
لا ع
هي م
الح ديد
أ بريل
وج ين
ر ش
ان تق
نا ة
قام ت
وف ر
ل غة
ر خ
ما د
الس ود
وا ف
ب س
ج ديدة
ا ك
را ج
جه ة
ج اء
ر أس
الع اصمة
وفي ات
ز ن
الإ د
المسي حية
الع سكرية
ف ص
ص بح
أغ سطس
لم ان
رف ة
مؤ س
الح زب
هم ة
التا سع
i c
يا س
م م
مت ر
بر ز
جن ة
السيا سية
لي ات
ش عب
الث لاث
201 0
الآ ن
ص الح
اه دة
أ ة
السيا سي
جز يرة
برا ير
ال ظ
الت رك
ا غ
ست ور
ا ق
اعت بار
خ فض
بي ت
200 8
مع ركة
ي ك
الفرن سي
ج راء
ع قد
س ح
أ على
م ختلفة
ق انون
ح اء
ق ول
وال يد
وس ية
ط ور
ك ذلك
ق ى
ن تيجة
الم جتمع
ل ما
حي ان
وز ير
الم جم
م ات
أ وا
ف ور
الح ض
ف براير
الم رت
لم ون
2 6
ي ان
ال انت
س لي
وائ ل
غ الب
ج ديد
ه ير
2 7
وال د
لك ل
ئ ات
دول ار
ار ب
وحي د
الم غرب
أخ ذ
ند ية
قد ر
عل ان
دم شق
الرئيس ية
شر وع
القد س
ن ات
في ر
إحد ى
الع شرين
الوسط ى
ف ريق
الب اب
حا صل
ا قتصاد
الإس رائيلي
الدي مقرا
ا ذ
الج مه
ش اف
4 0
البريط انية
وا ج
أ رض
ها ب
ت تم
الطا قة
ل ية
وت م
الي م
ف وق
كان وا
الج ديدة
الك هرب
الإن جلي
الم ث
ف تح
اليا بان
ز مة
ين ي
ك ور
قي قة
وم ي
الر س
الم ركز
الأ من
ري ا
في ذ
وت ر
م واليد
200 9
وال س
جا ز
ك يم
بر ن
تحد ث
ائ د
الت ص
ري اض
تع تبر
الط ب
أن حاء
بالن سبة
ات حاد
الأك ثر
ي كن
الأ ش
ين ات
ل لك
المع روف
اللغ ات
العثم انية
ت ك
الج ما
السل ام
ار ك
الس عود
ن ع
ال وزراء
ري د
ئا سة
سي د
الا قت
رب ة
الث ورة
سط ح
200 0
وال ص
ن قل
لل إ
الق دم
ث ة
أس ست
السعود ية
سي ط
الت قلي
السن وات
الب شر
بغ داد
ق اد
2 9
ح صل
ل و
وف اة
وي د
200 6
الاقتصاد ية
2 8
تا ح
يت ه
ل ندا
200 7
ت وجد
ف ظ
ا من
الم ياه
المص ري
الك برى
جم الي
را قي
مد ن
غ را
لاح ق
الأرد ن
ور ك
طا ق
مست وى
المسي حي
الر ئيسي
ي ام
الم وج
ب يا
وب ين
ن ين
و هذا
و إن
18 9
الأوروب ية
ت وفي
وصل ات
ح ما
201 1
الحديث ة
ج ورج
لا قة
ي عد
الس ي
ال لي
يع تبر
اب ه
العالم ي
ا ش
ت شر
اع ات
ز ع
ق ض
وت ش
مج ال
ز يا
إ ي
إد ارة
ع اصمة
ج بل
س وب
e l
إ ضافة
وال ف
مسا حة
الساب ق
6 0
الحد ود
غ ط
لبن ان
ون ة
م ك
مد ر
الألم انية
وسي قى
اني ون
ل ام
الك ت
ا هر
إلي ها
الح يو
ن يا
س وريا
فر ان
أن واع
الح ركة
اب ت
الش خص
الر ح
و ام
ب ص
الخارج ية
م ملكة
ز يد
ن س
ال ين
الد ر
ز وج
الحر ارة
بح ر
رف ض
الك تاب
ك وب
وغير ها
س بيل
ف ات
وار د
200 5
ن اب
ار تفاع
1 00
الد را
وا فق
إ سب
الج ديد
ق لة
أن ش
الم صرية
ي بلغ
ت نا
ن شر
بق يادة
الم اء
لد ى
أ ثر
قائ مة
طف ال
الإ خ
لع اب
الآ خر
بريط انيا
ؤ ول
الن بي
يق وم
الم عل
وا دي
الح ق
الج مع
غ يل
رح لة
ر وم
الكن يسة
الدا خل
ات ها
200 4
الجمه ورية
س لة
أر سل
م با
الخلي فة
وا ض
عن ه
د ري
الأ ق
الن ات
ح سن
السل طان
أ ب
ر ؤ
ع ز
وح ة
م ض
شت را
الرا بع
ري ات
انت ه
المي لادي
الك ويت
الش ام
وال ش
ط وي
روس يا
الاست قلال
الساد س
ين يات
الب رت
لا فة
s t
إن جلي
صنا عة
أ ه
رن ت
المح لي
الجز ائر
أم ام
ظهر ت
برا هيم
وم تر
نظ رية
وس يا
حا ول
وز ارة
م لا
ن سب
ك لمة
8 0
ائ لة
الح كوم
ل ذلك
خد مة
أوا خر
خ ول
وق ال
الع سكري
وك ب
الأخ يرة
ت غ
سم ح
الك بير
تل ر
الثق افة
الث امن
را ز
م ود
الا سم
ذ ر
إ ل
الدين ية
أف ضل
ائ ق
الم رك
بق ى
م ون
المت وسط
تأ سيس
ف صل
ان ظر
وي ج
يز ن
با ح
تش كل
ال انتخابات
جز اء
ق وة
ع ار
قاط عة
أمري كية
م ط
فرن سي
ج و
إ عادة
فا قية
الف ر
المج لس
وان ين
الشر قي
وك الة
عل ماء
وا ب
م وج
كام ل
o l
ب أ
با ك
وس ائل
ي حت
تأ ثير
م رك
م قد
ال ها
ل أ
ظ ل
ا جتما
الإس رائيل
البرت غ
يع رف
ملي ار
ها جر
م يم
سر عة
الخام س
c h
من ح
ت رنت
يج ب
ب ـ
الإسرائيل ية
كات ب
لا س
الق ب
ف عل
و هم
ب ك
ب است
قام ة
السوفي تي
يق ول
الق اهرة
الد فاع
عام ل
ج ها
وا ة
ل تح
ح ن
نظ ر
7 0
ب ون
الي د
قائ د
في د
الأ عمال
إ براهيم
ب اء
غ زة
س ق
الروم انية
و ست
هي ئة
الشعب ية
العل وم
ما ي
ر ام
جه زة
الم ش
قا ومة
المد ارس
ع سكري
من ع
البريط اني
أس س
الص ليبي
خط وط
الب يزن
u r
ب كر
الأ ما
i on
ات هم
ن ج
ل ول
تست خدم
فر د
الب ل
إم براط
الأ ند
يز ة
الت ش
ت را
ب ذلك
ن صف
ولوج يا
الن مسا
أم ير
ون يا
عم ار
اب ل
عل ام
لاح ظ
قلي م
ف هي
الإ لكتر
الم جر
ان ا
وا د
الأ ع
الم نظ
ل عب
اث ولي
لل أ
ث اني
واس طة
ع ر
تط ور
وي ات
ه تلر
اض ي
تش مل
الع هد
الم ختلفة
بي د
ي دة
ي وس
ثم ان
ما ع
خل ف
اليهود ية
الشي وع
الأ ف
الأ صل
l e
عا ية
ال لا
ص در
التج ارة
سل سلة
الك اثولي
م قر
الي من
ص حي
201 2
ط اع
لل ع
س ري
وت ق
م الك
كان ي
ه رة
أ ربعة
الر سمية
اب ي
العل ماء
جما عة
الجز ء
ز ين
مح افظة
وي م
ب واسطة
ث ورة
نا د
حا كم
وا ص
قي ام
ب أنه
تط وير
200 3
به ة
ص ول
مدر سة
ش اعر
ك ول
ز ال
سا عد
القر آن
اب ع
يق ع
الاقت صادي
الإنجلي زية
الع ب
ام ت
درا سة
د ائ
برن امج
عم ليات
لم دة
أ ربع
قط ر
خ مس
وم ية
لغ ات
الل بن
م قتل
ؤ ون
الن ي
الب عض
با س
ش م
وال ك
ح ياة
الس ري
الع لاقات
يع ود
ش يد
تق وم
انت شار
الع صور
ري م
أمري كا
ج بال
إيط اليا
الف لك
ار ا
الإ يط
الم شت
تق ل
ز يادة
الم در
ي صل
لا ة
وا صل
لي ف
س ير
قط ع
الإ سب
وب ي
عا ون
الل ات
الم حلية
اد ل
ع صر
الم خ
ح سين
يت ها
د ل
لف اء
ت نظيم
يست خدم
ق ه
ظ اهر
الموا د
ب استخدام
الب ار
المحي ط
o m
وه ناك
أعل ن
ذا ك
لس فة
طل ح
o f
ل ان
أ راضي
خ ان
الن ها
القدي م
وا سع
ؤ لاء
المؤ س
الم جا
المث ال
ر سم
مر ت
ني ف
التج ارية
وأ ك
د ير
البحر ية
بن ى
العل يا
3 5
an d
ح ض
وي ورك
الداخل ية
ذ ب
غ از
عد دة
م ختلف
اد ية
م تح
د ن
عن ها
الت ع
إ ف
ال رب
الم ط
بي ض
أ قدم
م كت
عام ة
بير وت
إ يران
سع ود
ق ناة
ور و
النف ط
الكيم يا
ت ضم
عض و
200 1
ف هو
مع اهدة
راك ز
انتخ اب
ع ى
الك ون
صاد ر
الأك بر
كيل ومتر
ح ديث
الم لا
الطبي عية
غي ير
معد ل
تق ري
خص وص
r e
أش خاص
ثق افة
حل ب
حق وق
الساب ع
ص غيرة
ت كن
ج ير
الهي در
البلد ان
ك سي
الألم اني
المعل ومات
قص ى
الح سن
د ينة
رب ون
تح ول
ات ب
حد اث
أسا س
و ها
در جات
ام ا
199 1
18 7
مل وك
سيا سة
ك لم
18 8
الض وء
ز ار
أ برز
م راجع
ت ان
الط رق
الأ ل
ن ب
حي اته
ه ري
أحد اث
وا كب
تح ديد
من صب
كو ين
ك لي
الأد ب
ق يم
ول ه
ب ب
ائ ع
ن طاق
وس وف
ل عام
لك رة
انت هاء
أ وائل
ج اب
ع شرة
إ سلام
نفس ها
ن ور
ش ارة
تم ي
وب التالي
لت ه
الأخ ير
جز ر
ح اليا
مح مود
أم ين
ث ناء
م خ
وس ع
است قلال
حر ارة
الم ه
د ت
وت ن
9 0
