<unk>	0
<s>	0
</s>	0
▁	-2.90342
▁ال	-3.77889
.	-3.8555
ة	-3.86569
▁في	-4.02305
،	-4.18631
ي	-4.29411
ية	-4.47794
▁و	-4.50875
▁من	-4.52408
ه	-4.67489
ا	-4.69771
ت	-4.70839
ات	-4.74454
▁م	-4.76117
▁ت	-4.96832
م	-4.99432
د	-5.0411
▁ب	-5.07304
▁(	-5.08554
ها	-5.12352
ين	-5.25791
)	-5.26126
ون	-5.27924
▁الم	-5.30719
و	-5.32698
▁ل	-5.33433
ب	-5.3492
ن	-5.38616
▁ي	-5.40297
▁على	-5.40479
ق	-5.41696
:	-5.44125
ع	-5.48487
ل	-5.53794
▁وال	-5.53805
ح	-5.54925
س	-5.56987
▁أو	-5.57332
ال	-5.64988
ان	-5.66667
ف	-5.66936
ر	-5.77484
▁لل	-5.80471
▁أ	-5.80523
▁إلى	-5.83682
ج	-5.9053
ز	-5.93496
ط	-5.96763
▁أن	-5.98448
ص	-5.98476
ما	-6.00462
ى	-6.01525
ش	-6.0742
▁-	-6.09476
ك	-6.10682
▁بن	-6.11802
▁هي	-6.12317
ض	-6.1306
وا	-6.16489
خ	-6.16889
▁مع	-6.18644
▁هو	-6.18923
اء	-6.20668
-	-6.2087
▁بال	-6.25359
ث	-6.25544
▁الأ	-6.30544
ار	-6.31795
»	-6.33665
يا	-6.35703
▁التي	-6.39832
▁عام	-6.41961
▁مدينة	-6.42521
▁مراجع	-6.43772
▁عن	-6.44053
هم	-6.44262
▁«	-6.45104
,	-6.46671
▁19	-6.50378
▁وي	-6.5094
ور	-6.51717
▁ك	-6.51883
نا	-6.5289
يل	-6.53447
غ	-6.54631
ير	-6.56216
▁وت	-6.57805
َ	-6.57826
ام	-6.57847
▁بين	-6.61355
ذ	-6.61361
▁كل	-6.62579
▁ف	-6.63779
ُ	-6.63987
يد	-6.65455
▁الت	-6.65456
بر	-6.65701
لي	-6.68195
ست	-6.69506
ّ	-6.70058
▁ن	-6.70263
▁ما	-6.71342
▁إ	-6.71398
▁الح	-6.73473
اً	-6.74334
▁بعد	-6.7445
ول	-6.75237
▁ا	-6.75486
▁ح	-6.77168
سي	-6.78798
▁ع	-6.80074
وس	-6.82162
▁كان	-6.82273
را	-6.82683
▁س	-6.82794
▁لا	-6.8288
▁الذي	-6.83114
2	-6.83392
▁هذه	-6.84966
ري	-6.86356
▁الع	-6.86905
▁ق	-6.8706
يس	-6.87119
ئ	-6.8799
اب	-6.88277
e	-6.88296
اس	-6.89295
s	-6.90195
▁حيث	-6.9257
3	-6.9275
).	-6.93834
▁الن	-6.94137
كا	-6.94574
بي	-6.94827
أ	-6.95784
▁الب	-6.96392
تر	-6.96766
يون	-6.9687
ـ	-6.97815
دي	-6.98901
i	-6.99025
وم	-6.99418
ًا	-6.99647
▁18	-7.01613
▁1	-7.02029
محافظة	-7.02473
مر	-7.03525
كر	-7.05395
▁عند	-7.05949
وت	-7.07129
▁سنة	-7.07131
▁هذا	-7.08429
▁ش	-7.08484
▁القرن	-7.09259
▁وأ	-7.09439
ته	-7.09523
شي	-7.11528
o	-7.12246
▁وهي	-7.12306
في	-7.12515
▁تأسيس	-7.12921
فر	-7.13728
▁ه	-7.14726
يات	-7.14885
جر	-7.15341
اد	-7.15661
▁عبد	-7.16703
ِ	-7.16784
▁كما	-7.17491
قل	-7.1775
a	-7.17915
وي	-7.19017
▁وهو	-7.19266
كن	-7.19461
▁الس	-7.19785
▁خ	-7.20591
وب	-7.20712
▁كانت	-7.21036
شر	-7.21535
يم	-7.21761
يت	-7.21811
▁محمد	-7.22202
▁ج	-7.2225
وف	-7.22337
اف	-7.22645
▁تم	-7.2289
▁أي	-7.23253
با	-7.23392
ود	-7.23544
ني	-7.2408
لا	-7.24378
▁الف	-7.24606
▁منطقة	-7.25119
▁الله	-7.25235
كو	-7.26971
▁الق	-7.27004
▁اليابان	-7.2738
0	-7.28928
d	-7.29416
p	-7.3013
▁انظر	-7.30194
▁مثل	-7.3268
دا	-7.32912
بة	-7.32913
▁لم	-7.33246
رو	-7.33663
▁بعض	-7.33845
▁عدد	-7.34067
رك	-7.34339
تو	-7.34562
دو	-7.34665
غا	-7.34778
بو	-7.34852
در	-7.34962
لو	-7.34995
فا	-7.361
جامعة	-7.36397
▁أيضا	-7.36521
t	-7.3702
ؤ	-7.37069
▁وقد	-7.3764
ظ	-7.37951
▁الإ	-7.38519
▁ثم	-7.38524
يف	-7.3938
اع	-7.39791
رب	-7.40802
▁وم	-7.40934
▁موالي	-7.41171
كل	-7.41683
n	-7.42762
▁مدن	-7.42825
▁المدينة	-7.43383
رج	-7.43611
▁وفي	-7.43965
جي	-7.44149
▁غير	-7.44643
▁قبل	-7.44823
تين	-7.44871
تي	-7.45215
▁تاريخ	-7.45412
بل	-7.45499
اح	-7.45965
اط	-7.46118
مل	-7.46558
5	-7.47011
c	-7.47041
من	-7.48193
▁خارجية	-7.48302
▁له	-7.48941
▁أول	-7.50012
هر	-7.5012
6	-7.50131
▁إي	-7.51321
▁سي	-7.51433
▁والم	-7.51496
ْ	-7.51764
وق	-7.52027
▁ص	-7.52185
تقع	-7.52209
فل	-7.52212
▁الج	-7.52278
▁است	-7.52912
▁حاليا	-7.53191
/	-7.53375
زي	-7.53712
تها	-7.54147
▁تقع	-7.55043
لف	-7.55467
يوم	-7.55614
1	-7.55676
صل	-7.55828
▁يمكن	-7.56054
▁ومن	-7.56085
شت	-7.56679
▁الخ	-7.56884
▁أس	-7.57528
جل	-7.58263
مي	-7.58354
▁والتي	-7.58576
▁وفيات	-7.59827
دة	-7.6008
m	-7.60426
▁توأم	-7.60511
صف	-7.60559
مو	-7.60699
▁3	-7.60801
بن	-7.6102
نس	-7.61039
▁أحد	-7.61244
يق	-7.61862
"	-7.62497
g	-7.62942
▁لغات	-7.63021
عم	-7.63628
جم	-7.63647
y	-7.63725
)،	-7.63751
طر	-7.6398
▁الش	-7.64108
u	-7.64114
زو	-7.64126
▁الك	-7.64238
يو	-7.64306
l	-7.64517
مان	-7.64773
يب	-7.65292
▁كم	-7.65497
اق	-7.65656
▁العربية	-7.66457
▁ذلك	-7.66626
▁ذات	-7.66852
▁ر	-7.66951
كي	-7.67373
▁حتى	-7.67406
▁المراجع	-7.67852
قر	-7.68055
وري	-7.68378
بلغ	-7.69341
جد	-7.69453
سب	-7.69655
حل	-7.69917
خر	-7.69928
▁اللغة	-7.703
وك	-7.70817
▁قد	-7.7096
▁جنوب	-7.71028
▁يكون	-7.71048
صلات	-7.71372
▁10	-7.71511
كون	-7.71622
▁اسم	-7.72046
▁دي	-7.72055
▁20	-7.72824
غن	-7.72912
▁كو	-7.72941
كس	-7.73332
▁وا	-7.7439
اني	-7.75623
سم	-7.75664
▁2	-7.76098
وجد	-7.77029
▁مت	-7.77292
▁بها	-7.77597
▁الص	-7.77751
▁المتحدة	-7.78147
رت	-7.78473
▁4	-7.78816
▁علم	-7.78927
سل	-7.7893
▁يتم	-7.78948
4	-7.79177
رة	-7.79238
▁عشر	-7.79422
نو	-7.7951
▁مجموعة	-7.79684
ستخدم	-7.79959
بار	-7.80159
سو	-7.8058
▁سو	-7.80706
▁لها	-7.80839
▁للم	-7.80958
حر	-7.81109
▁علي	-7.81226
رق	-7.81325
▁شمال	-7.82019
▁أهم	-7.83268
ً	-7.8353
جا	-7.83815
▁أنه	-7.83953
قا	-7.83958
▁تكون	-7.84316
يز	-7.84532
▁فيها	-7.84984
▁أماكن	-7.85149
جن	-7.85246
از	-7.85632
▁ولاية	-7.85749
▁با	-7.85906
بع	-7.85991
تان	-7.86157
▁نظام	-7.86209
جو	-7.86265
ند	-7.86606
▁الأول	-7.86845
00	-7.8688
▁المت	-7.86938
سبب	-7.87075
يع	-7.87084
▁كا	-7.87186
جمع	-7.87427
رد	-7.87473
صر	-7.87524
وز	-7.87663
▁||	-7.87831
b	-7.87924
f	-7.88241
زا	-7.89282
ائي	-7.89712
▁رئيس	-7.90297
▁رو	-7.903
▁ألمانيا	-7.90379
سر	-7.90381
9	-7.90859
(	-7.90881
▁ط	-7.92147
▁أعلام	-7.9257
▁ولكن	-7.9263
▁أيضاً	-7.9311
هما	-7.9323
يه	-7.93422
▁أخرى	-7.93637
an	-7.93657
لة	-7.93745
سك	-7.93764
خل	-7.93775
▁دول	-7.94491
اج	-7.94492
▁أيضًا	-7.9451
طل	-7.94728
▁العناصر	-7.9479
▁17	-7.95587
نت	-7.95909
▁فر	-7.95963
▁نهر	-7.96245
مة	-7.9637
▁أبو	-7.96966
آ	-7.97193
شار	-7.97227
دن	-7.9769
▁آ	-7.97909
▁الط	-7.98555
▁ان	-7.98708
عتبر	-7.9881
▁(19	-7.99027
▁فإن	-7.99586
▁مس	-7.99674
▁حسب	-7.99807
▁آل	-7.99895
▁عمل	-8.00122
فن	-8.00327
▁العالم	-8.00372
اك	-8.00527
يان	-8.00588
قة	-8.00788
▁عناصر	-8.008
َّ	-8.00964
▁بو	-8.0098
▁مقاطعة	-8.0112
جزيرة	-8.0147
▁أكثر	-8.01706
كان	-8.02383
فة	-8.02662
▁به	-8.02724
طلق	-8.02846
▁إن	-8.03706
▁أشخاص	-8.03819
يك	-8.03937
▁البحر	-8.03958
▁أكبر	-8.04391
▁نسمة	-8.04918
▁بل	-8.05202
▁وب	-8.05583
er	-8.05657
▁تت	-8.05882
▁الآ	-8.06749
▁لي	-8.06893
▁الملك	-8.07369
فترة	-8.07514
انية	-8.07616
▁ولا	-8.07822
▁تحت	-8.07902
تا	-8.07983
قول	-8.08029
▁حوالي	-8.08222
w	-8.08795
x	-8.0882
▁نا	-8.08926
10	-8.09018
▁الثاني	-8.09044
كت	-8.09456
زم	-8.0952
C	-8.09716
ء	-8.10229
▁لغة	-8.10375
▁:	-8.10822
ليل	-8.10892
دل	-8.11412
▁وكان	-8.1147
لح	-8.11686
h	-8.11856
قال	-8.11884
▁"	-8.11915
▁)	-8.11937
8	-8.11982
▁إحد	-8.1201
▁14	-8.12033
▁يُ	-8.12252
▁دو	-8.12337
▁S	-8.12393
غو	-8.12491
▁أم	-8.12566
سن	-8.12604
ائل	-8.12653
ضم	-8.13387
▁15	-8.13763
لام	-8.13797
▁11	-8.13971
▁العام	-8.13985
لند	-8.14347
▁يت	-8.14768
▁سا	-8.14872
▁المع	-8.14904
▁طريق	-8.15009
كار	-8.15076
طن	-8.15316
غر	-8.15532
▁البر	-8.15549
روس	-8.15642
شع	-8.15658
ar	-8.15799
▁بم	-8.15854
وية	-8.15873
▁خلال	-8.15933
▁المس	-8.16178
لم	-8.16325
k	-8.16467
صح	-8.16531
▁أما	-8.16574
▁الشمال	-8.16615
▁بر	-8.16812
ذلك	-8.16814
نج	-8.16977
▁أسماء	-8.17091
▁إلا	-8.17149
▁12	-8.17242
▁ز	-8.1735
▁الأم	-8.17435
▁جو	-8.17453
▁والأ	-8.17534
▁ابن	-8.17672
▁جي	-8.17717
مثل	-8.17719
>	-8.17755
مار	-8.17821
7	-8.18015
▁يوم	-8.18052
▁هناك	-8.18446
فق	-8.1903
كتب	-8.19135
▁شرق	-8.19352
▁منها	-8.19408
يين	-8.1945
▁5	-8.20339
▁منذ	-8.20375
سا	-8.20598
سان	-8.20671
اسم	-8.2093
in	-8.20943
▁مصر	-8.20996
▁عليه	-8.21024
الي	-8.21101
▁المنطقة	-8.21146
▁مح	-8.21226
أو	-8.21246
▁الغ	-8.2157
بير	-8.21586
ذر	-8.2166
en	-8.21775
▁غ	-8.2188
بت	-8.22023
▁الحرب	-8.22153
▁قائمة	-8.22216
حرك	-8.22252
تن	-8.22637
هذا	-8.22682
▁غرب	-8.22735
CH	-8.22957
جان	-8.22963
▁16	-8.23152
▁التاريخ	-8.23322
▁إذا	-8.23553
▁C	-8.23723
▁لت	-8.23839
وع	-8.24071
اخ	-8.24198
نظمة	-8.2475
عل	-8.24756
▁أنواع	-8.25146
وحدة	-8.25661
▁المجموعة	-8.25691
▁الجدول	-8.25755
▁الدين	-8.25808
شير	-8.2584
▁لو	-8.25858
▁الأولى	-8.25975
طي	-8.26299
▁خط	-8.26406
▁أسست	-8.26449
r	-8.26622
سون	-8.26641
كرة	-8.26686
▁أحمد	-8.26885
نظر	-8.27063
مثال	-8.27345
▁كتاب	-8.27534
O	-8.27551
▁مر	-8.28273
▁الولايات	-8.28282
دى	-8.28303
بان	-8.28351
طا	-8.28662
▁عمر	-8.28738
▁13	-8.28862
▁ملك	-8.29063
مملكة	-8.29138
▁|	-8.29183
عمل	-8.29257
▁بدأ	-8.29343
▁الاسم	-8.29367
▁6	-8.29497
غل	-8.29616
▁مأهولة	-8.2965
▁اتفاقي	-8.2965
▁M	-8.30087
v	-8.30952
؛	-8.31063
لك	-8.31139
▁عدة	-8.31262
قطع	-8.31493
A	-8.31966
▁والذي	-8.31974
ائية	-8.31981
▁نفس	-8.32001
▁الز	-8.32146
▁الد	-8.32167
▁شكل	-8.32464
تل	-8.32511
نتج	-8.32516
▁=	-8.32774
▁متر	-8.33359
قرأ	-8.33428
▁والت	-8.33521
▁لكن	-8.34124
ضي	-8.34231
تغير	-8.34367
تم	-8.3441
لين	-8.34486
تش	-8.3465
▁السنة	-8.35045
انغ	-8.35153
دير	-8.35418
▁المدن	-8.35591
▁شي	-8.35727
قسم	-8.35751
إ	-8.35836
▁تش	-8.35874
B	-8.35898
▁الصين	-8.36068
▁يوليو	-8.36185
▁استخدام	-8.36211
▁الأرض	-8.36322
▁ول	-8.36498
▁مايو	-8.36539
▁نو	-8.36823
z	-8.36926
رش	-8.36927
وزراء	-8.36973
دين	-8.37104
▁7	-8.37207
بال	-8.37542
▁–	-8.37675
ادة	-8.37703
▁درجة	-8.37729
▁الدولة	-8.38016
▁الأخرى	-8.38076
is	-8.38249
▁عاصمة	-8.38304
S	-8.38324
▁أكتوبر	-8.38447
▁بت	-8.38468
▁موقع	-8.38757
رمز	-8.38772
او	-8.38836
▁لأن	-8.38845
I	-8.39015
شا	-8.39043
▁أر	-8.39187
▁أبي	-8.39417
على	-8.39686
▁الثانية	-8.39779
خط	-8.40075
▁بي	-8.40091
▁تسم	-8.40352
▁العمل	-8.40521
▁نوع	-8.40631
▁دا	-8.40769
▁الكيميائية	-8.40838
وان	-8.41336
▁أغسطس	-8.4156
▁العديد	-8.41699
مس	-8.41706
ادي	-8.42078
▁الخط	-8.42336
▁حرف	-8.42376
▁اليوم	-8.42463
▁باسم	-8.42463
▁8	-8.42553
كين	-8.42753
علوم	-8.42897
مدينة	-8.42958
▁الثالث	-8.43154
نفس	-8.43406
es	-8.43463
ويل	-8.43503
▁أصل	-8.43519
صد	-8.43566
▁قو	-8.43607
وار	-8.43618
%	-8.43625
شكل	-8.43732
▁يسم	-8.43766
▁الفر	-8.43834
▁العراق	-8.44023
وال	-8.44025
▁النظام	-8.44341
▁غر	-8.44388
ثر	-8.44528
▁عليها	-8.44631
▁المح	-8.44771
رس	-8.45126
عة	-8.45237
ذا	-8.45542
▁بحر	-8.45594
▁هنري	-8.45607
شاعر	-8.45627
▁ضمن	-8.45664
▁قام	-8.45677
▁ني	-8.45687
▁جون	-8.45743
كيمياء	-8.45746
▁يستخدم	-8.45781
al	-8.45792
▁النشيد	-8.45958
▁بشكل	-8.46263
رن	-8.46302
▁سبتمبر	-8.46419
▁أبريل	-8.46422
▁نهاية	-8.46468
▁سكانها	-8.4697
ائم	-8.46984
▁اللغات	-8.47253
▁مصادر	-8.47254
▁أحداث	-8.47256
ضع	-8.47556
50	-8.47633
▁حكم	-8.47676
▁حول	-8.47723
▁واحد	-8.47754
لق	-8.47807
جز	-8.48048
▁أد	-8.482
شو	-8.48232
ده	-8.48289
عاد	-8.48364
سلسلة	-8.48398
▁الدولي	-8.48485
▁المن	-8.48503
▁إنجلترا	-8.4851
▁فقط	-8.48533
▁الوطني	-8.48533
or	-8.48758
▁مناطق	-8.48954
▁مركز	-8.48973
▁الأمريكية	-8.49507
▁كبير	-8.49636
▁الث	-8.49754
▁يناير	-8.49802
▁آخر	-8.49874
نة	-8.49918
▁الدوري	-8.49983
▁بداية	-8.50684
نباتات	-8.50934
غي	-8.51234
راب	-8.51618
قط	-8.51656
▁ري	-8.51663
نطق	-8.51894
راف	-8.51946
▁مارس	-8.51964
▁إس	-8.52038
▁أنهار	-8.5222
ديد	-8.52277
▁صفح	-8.52461
▁سياسي	-8.5249
▁السكان	-8.52602
مير	-8.52666
حق	-8.52708
▁الدول	-8.5286
سام	-8.5311
▁أل	-8.53162
▁كي	-8.5322
▁جورج	-8.5339
ستر	-8.5385
راد	-8.53868
فت	-8.53987
▁طول	-8.54118
▁نوفمبر	-8.54181
▁أع	-8.54291
▁قال	-8.54479
▁جر	-8.54597
on	-8.5502
ثور	-8.55109
ران	-8.55374
طار	-8.5538
ميل	-8.55477
▁واحدة	-8.55538
فعل	-8.55539
جعل	-8.5564
▁أنها	-8.55777
▁الجزائر	-8.56008
▁يونيو	-8.56014
زال	-8.56057
▁A	-8.56351
تسو	-8.56389
27	-8.56591
▁سكان	-8.56616
▁العرب	-8.5671
ومي	-8.56821
▁أوروبا	-8.56912
▁السودان	-8.56913
▁المواد	-8.56961
▁عالم	-8.57002
▁ألف	-8.57088
▁P	-8.57103
دور	-8.57145
لت	-8.57313
▁الوطنية	-8.57352
زار	-8.57385
اه	-8.57758
▁وع	-8.57804
▁ث	-8.58003
وضع	-8.5816
▁القديمة	-8.58234
▁s	-8.58416
▁أمريكي	-8.58533
ميز	-8.58761
ی	-8.58769
ذهب	-8.5886
▁ولد	-8.59087
ثناء	-8.59273
عملية	-8.59386
▁كلمة	-8.60116
▁الرابطة	-8.60242
▁كال	-8.60249
▁نصف	-8.60367
▁توجد	-8.60508
وج	-8.6064
▁ديسمبر	-8.60665
▁الاتحاد	-8.60665
عبد	-8.60666
برا	-8.6068
بين	-8.60897
قيم	-8.6099
كم	-8.61146
بط	-8.6145
▁بأن	-8.6156
+	-8.61627
▁المناخ	-8.61675
▁صور	-8.61861
▁جبل	-8.61922
▁يساوي	-8.62035
▁ثلاث	-8.62437
▁الرسمي	-8.62469
فضل	-8.6257
▁قياس	-8.62616
▁حرب	-8.62734
17	-8.62965
فصل	-8.63032
▁الاست	-8.63071
▁الأس	-8.63191
▁وكانت	-8.63221
دع	-8.63327
▁العربي	-8.63429
عرف	-8.63441
أن	-8.63616
60	-8.63696
▁اليونان	-8.6382
▁دور	-8.63899
عرض	-8.63973
بدأ	-8.64066
ابل	-8.64114
فيل	-8.64198
ولي	-8.64232
40	-8.6439
▁وسط	-8.64434
اري	-8.64581
جدول	-8.64591
بس	-8.64612
▁حروف	-8.64654
هو	-8.64698
زن	-8.64725
▁سورة	-8.64781
ذكر	-8.65136
باب	-8.65138
12	-8.65464
▁فرنسا	-8.65528
▁مواقع	-8.65568
="	-8.65608
▁الولاية	-8.65976
▁عادة	-8.66004
طول	-8.66158
ائر	-8.66458
▁فن	-8.66484
دالة	-8.66707
الب	-8.66753
فور	-8.66899
نغ	-8.67066
نقل	-8.6712
صنع	-8.67124
لاند	-8.67452
حكم	-8.67501
▁يعتبر	-8.67625
▁كثير	-8.67885
قيمة	-8.68019
28	-8.68051
16	-8.6809
▁الجنوب	-8.68194
▁الموقع	-8.68212
N	-8.68279
15	-8.68376
حسن	-8.68806
قام	-8.68871
▁L	-8.68917
▁غا	-8.69013
بول	-8.6906
يار	-8.69278
تكون	-8.69293
ورو	-8.69308
ساب	-8.69375
وجه	-8.69489
▁وجود	-8.69708
▁فقد	-8.69797
قاعدة	-8.69847
عاصمتها	-8.6985
عود	-8.70389
▁حر	-8.70413
دان	-8.70564
▁الموجود	-8.70725
▁البلاد	-8.70735
ch	-8.70865
علماء	-8.71124
هام	-8.71184
▁فو	-8.71334
▁وله	-8.71391
▁تن	-8.71452
صور	-8.7155
▁H	-8.7158
▁ألمان	-8.71652
▁معرض	-8.71684
طائرات	-8.71799
▁فا	-8.71866
راك	-8.72009
▁نحو	-8.72016
حدد	-8.72077
▁كبيرة	-8.72281
الم	-8.72333
رف	-8.7243
▁نظرية	-8.72501
قدم	-8.72526
▁خاصة	-8.72544
re	-8.72679
صناعة	-8.72783
F	-8.72863
▁الكبير	-8.72957
20	-8.73056
▁تلك	-8.73144
عادة	-8.73196
دخل	-8.73269
▁المر	-8.73349
أخذ	-8.73549
▁9	-8.73622
▁لأ	-8.73668
-1	-8.73696
▁الكيمياء	-8.73749
فار	-8.73855
مصطلح	-8.73902
جزء	-8.73962
▁والع	-8.73989
▁النبي	-8.74036
وش	-8.74055
▁وإ	-8.74132
يكي	-8.74141
عتمد	-8.7419
▁عبر	-8.7422
تفاعل	-8.74364
ضاء	-8.74376
▁داخل	-8.74412
برت	-8.74438
19	-8.74629
قبل	-8.75064
▁مرة	-8.75124
▁أب	-8.75409
30	-8.75603
▁را	-8.75678
هذه	-8.75856
ظهر	-8.75912
▁D	-8.76034
شف	-8.76129
▁فبراير	-8.7616
▁تعني	-8.76175
▁الشيخ	-8.76193
بايت	-8.76296
11	-8.76639
▁سن	-8.76814
▁القر	-8.76906
▁توضيح	-8.76963
▁نسبة	-8.7703
سكر	-8.77087
ٍ	-8.77283
▁المصادر	-8.77285
إنتاج	-8.77295
سرعة	-8.77369
▁الشمس	-8.77424
▁معظم	-8.77456
▁الغربية	-8.77642
▁بير	-8.77649
▁دولة	-8.77682
ينغ	-8.78079
▁العاصمة	-8.78155
▁روابط	-8.78422
▁السابق	-8.78453
H	-8.78461
نشاط	-8.78468
▁خريج	-8.78488
رين	-8.78547
قار	-8.78613
R	-8.78644
▁جميع	-8.78698
فتح	-8.78766
تفاعلات	-8.78851
حتوي	-8.78941
كاف	-8.78949
شعر	-8.78972
ولد	-8.79048
ندي	-8.79339
خارج	-8.79403
▁فال	-8.79474
رؤساء	-8.79569
ٌ	-8.79569
▁محافظات	-8.79574
متوسط	-8.79597
زاوية	-8.79706
▁الشرق	-8.80119
ظل	-8.80555
وكي	-8.80587
▁الحرف	-8.80609
جار	-8.80663
▁حال	-8.80936
رغم	-8.81001
▁الجو	-8.81398
زيد	-8.81402
▁عد	-8.81498
th	-8.816
يكو	-8.81632
َر	-8.81638
W	-8.81908
▁القرآن	-8.81926
▁الحياة	-8.81942
▁مليون	-8.81992
لفظ	-8.82215
14	-8.82307
▁غو	-8.82311
غال	-8.82376
▁الاقتصاد	-8.82391
▁الحكم	-8.82397
70	-8.83017
▁مختلفة	-8.83073
'	-8.83099
▁السياسي	-8.83109
ساحلية	-8.83118
▁القياس	-8.83122
هندسة	-8.83233
▁جبال	-8.83249
▁إيران	-8.83293
وادي	-8.83356
▁بار	-8.83439
▁بلغ	-8.83609
عيد	-8.83645
سطح	-8.83668
ايا	-8.83693
▁الكم	-8.83705
▁مدار	-8.8393
le	-8.83995
▁القانون	-8.84314
▁عربية	-8.84366
عضو	-8.84379
تحدث	-8.84442
▁كون	-8.84484
▁المغرب	-8.84623
▁المصري	-8.84732
▁شهر	-8.84759
26	-8.84843
ياما	-8.85138
▁الأح	-8.85142
▁إسبانيا	-8.85301
داد	-8.85364
tr	-8.85377
▁مصري	-8.85421
]	-8.85523
▁المناطق	-8.85524
دراسة	-8.85543
</	-8.85572
دون	-8.85655
V	-8.85735
13	-8.85828
▁فلا	-8.85887
داء	-8.85905
غير	-8.86082
▁تاي	-8.86091
▁B	-8.86095
80	-8.86126
▁البا	-8.86192
الإضافة	-8.86368
▁الأخير	-8.86386
درس	-8.86394
24	-8.86535
أساطير	-8.86763
▁المعلومات	-8.86765
▁لبنان	-8.86782
▁وحدات	-8.86789
رتبط	-8.86838
▁الغرب	-8.87126
غان	-8.87197
حدود	-8.87214
ساوي	-8.87215
▁كيميائية	-8.87401
=	-8.87478
وصف	-8.87727
▁بالم	-8.87777
▁الإسلام	-8.87805
▁الطاقة	-8.87879
ارتفاع	-8.88008
▁الكربون	-8.88009
▁الدورة	-8.88089
ساعد	-8.88185
▁الهند	-8.88259
▁وضع	-8.88418
▁الأمريكي	-8.8845
سلم	-8.88462
▁نقطة	-8.8865
▁أيام	-8.88845
▁والح	-8.88955
عام	-8.88966
▁الماء	-8.89004
▁العنصر	-8.89044
18	-8.89187
موسيقى	-8.89274
▁شركة	-8.89284
▁المركز	-8.89299
▁يح	-8.89348
يث	-8.89416
▁كارل	-8.89555
▁الشرقي	-8.89728
كلمة	-8.89729
▁رأس	-8.8988
اوي	-8.89937
بعد	-8.90079
▁مقر	-8.9016
▁b	-8.90258
وصل	-8.90314
صبح	-8.90505
▁المستوى	-8.90509
▁الإنسان	-8.90558
▁سان	-8.90588
▁الذري	-8.90601
▁أصبح	-8.90665
فريد	-8.9067
▁جمهورية	-8.90671
شم	-8.9079
▁N	-8.90977
تال	-8.91001
مصدر	-8.91127
36	-8.91161
نك	-8.91398
▁إقليم	-8.91562
P	-8.91579
▁كول	-8.92047
▁المحيط	-8.9216
▁للأ	-8.92164
اكي	-8.92325
▁تُ	-8.92592
ur	-8.92744
راء	-8.92781
بور	-8.92866
▁سوري	-8.93042
برنامج	-8.9317
▁البريطاني	-8.9319
▁الحر	-8.93272
حدث	-8.93317
▁رمز	-8.93374
شتهر	-8.93526
35	-8.93785
متد	-8.94053
▁اليابانية	-8.94055
ِّ	-8.94104
تشكل	-8.94167
▁فوق	-8.94355
وث	-8.94448
صاد	-8.94449
<	-8.9445
▁دون	-8.94513
....	-8.94673
▁الزمن	-8.94695
ستان	-8.9479
ِي	-8.94792
▁النهر	-8.9499
حسب	-8.95018
ic	-8.95025
كذلك	-8.95302
95	-8.95501
▁عقد	-8.95503
▁الحدود	-8.95605
▁الحكومة	-8.95882
at	-8.95891
▁عسكري	-8.95905
تواجد	-8.95919
▁الجديد	-8.95972
عائلة	-8.95992
▁يقع	-8.96017
▁رومان	-8.96059
▁لإ	-8.96104
▁إفريقيا	-8.96188
▁أح	-8.96215
وجب	-8.96277
▁عنصر	-8.96297
▁المدار	-8.96371
علم	-8.96378
أي	-8.96501
روب	-8.96559
▁شو	-8.96564
000	-8.96569
▁بايت	-8.96827
us	-8.9687
▁التالي	-8.9692
▁R	-8.96955
▁بول	-8.97122
▁الرياض	-8.97132
90	-8.97214
▁إسرائيل	-8.97225
▁عبارة	-8.97234
▁آسيا	-8.97235
▁30	-8.97279
▁الكويت	-8.97318
▁إضافة	-8.97362
to	-8.97362
▁الأمر	-8.97455
▁خلي	-8.97459
▁رقم	-8.97477
تميز	-8.97496
ائق	-8.97537
▁الأو	-8.97759
▁الطب	-8.9783
▁كيميائي	-8.97894
قتل	-8.98079
▁مما	-8.98274
▁بإ	-8.98359
▁غي	-8.98377
ونغ	-8.98464
▁بأ	-8.98508
ّة	-8.98575
▁الرئيس	-8.9861
▁بواسط	-8.98615
▁الثامن	-8.98617
المعروف	-8.9865
▁مصطلحات	-8.98676
لاتين	-8.98722
يوس	-8.98792
▁انت	-8.98851
▁T	-8.99019
قدر	-8.99049
يري	-8.99076
▁أقل	-8.99189
▁21	-8.99384
▁فلسطين	-8.99397
▁قدم	-8.99582
▁ميل	-8.99788
أكثر	-8.99991
▁G	-9.00118
▁K	-9.00132
بورغ	-9.00494
حرارة	-9.00642
▁أفريقيا	-9.00644
▁ماري	-9.00891
▁العالمية	-9.0091
عرب	-9.01063
▁انته	-9.01369
اجتماع	-9.01451
▁إبراهيم	-9.01451
▁برمجيات	-9.01451
▁بحيث	-9.01454
▁مساحة	-9.01455
تعرف	-9.01474
▁الهيدروجين	-9.01476
▁بلدية	-9.0148
طبق	-9.0163
أصبحت	-9.01688
▁زوج	-9.01697
▁الفرنسية	-9.01919
▁E	-9.01935
▁فون	-9.01937
رسم	-9.02049
▁إلكترون	-9.02084
▁البلد	-9.02176
▁بلاد	-9.02379
ظم	-9.02576
200	-9.02604
▁مسلم	-9.02641
▁اكتشاف	-9.02759
معهد	-9.02792
خصائص	-9.029
▁الخامس	-9.02903
▁الوقت	-9.02996
بلديات	-9.03086
as	-9.03159
▁رسمي	-9.0331
اكو	-9.03398
74	-9.03411
▁حين	-9.03449
▁حي	-9.0351
▁الألمانية	-9.03514
صورة	-9.03645
ائع	-9.03695
▁القديم	-9.03747
جامع	-9.03779
حزب	-9.0378
يّة	-9.03877
▁العلم	-9.04184
▁فت	-9.04262
ولى	-9.04299
▁فرنسي	-9.04314
▁الثلاث	-9.04371
▁شركات	-9.04376
احتمال	-9.04441
ستمر	-9.04527
▁الفترة	-9.04589
حاول	-9.04633
▁شعب	-9.04802
▁يظهر	-9.05077
اغ	-9.05082
▁بك	-9.05138
ملك	-9.05191
ليام	-9.05233
25	-9.05312
▁24	-9.05363
▁وبعد	-9.05746
▁رموز	-9.05866
▁ثابت	-9.05867
▁تعد	-9.05871
أقاليم	-9.0588
▁الجنوبية	-9.05896
راق	-9.0591
▁جزء	-9.0592
باع	-9.05922
▁يهود	-9.05932
نتيج	-9.05934
▁القدم	-9.05988
▁المق	-9.06025
▁قص	-9.06067
▁إم	-9.06075
▁لويس	-9.06173
▁[	-9.06259
فض	-9.06301
▁بور	-9.06314
▁سم	-9.06434
78	-9.06576
▁يعرف	-9.06723
de	-9.06866
قرب	-9.06998
عنى	-9.07013
غول	-9.07046
بحيرة	-9.07388
▁مجلس	-9.07393
▁الإغريق	-9.07402
عتقد	-9.07413
▁الأصلي	-9.076
▁أف	-9.07649
▁العالمي	-9.07702
لغة	-9.07705
رتبة	-9.07853
M	-9.07958
ثنائية	-9.08211
▁بناء	-9.08287
▁الغربي	-9.08362
▁شخص	-9.08376
روا	-9.08448
et	-9.08512
▁المادة	-9.08534
▁مكان	-9.08576
شبه	-9.08652
سلط	-9.08914
▁اللا	-9.0898
ro	-9.08994
45	-9.09067
معادن	-9.09185
▁ولايات	-9.0919
▁25	-9.09192
تطور	-9.09307
▁تونس	-9.09383
دري	-9.09491
هدف	-9.09565
▁شبه	-9.09622
خاصة	-9.09697
▁تسمية	-9.09733
نقطة	-9.1016
حصل	-9.10258
سكي	-9.10357
▁الأردن	-9.10532
▁السياح	-9.10576
▁ذرات	-9.10601
نظام	-9.10602
▁إله	-9.10616
▁|-	-9.10946
▁مؤسس	-9.10947
▁تضم	-9.11028
um	-9.11101
61	-9.11194
▁ضد	-9.11248
رز	-9.11301
▁ذكر	-9.11339
▁الأمير	-9.11375
▁الفرنسي	-9.11556
▁خاص	-9.11597
▁هار	-9.11628
▁ليس	-9.11677
اكس	-9.11681
▁الإسلامية	-9.11708
ta	-9.11718
▁التقويم	-9.12066
تصنيف	-9.12068
▁الواقع	-9.12069
قواعد	-9.12077
▁ويمكن	-9.1208
برامج	-9.121
تفسير	-9.12101
▁التسمية	-9.12113
▁مجال	-9.1217
▁العدد	-9.12191
ريك	-9.12212
▁رياضي	-9.12242
▁قب	-9.12388
▁الجزيرة	-9.12696
▁الأر	-9.12884
▁الكثير	-9.12929
▁تركي	-9.13309
▁المخ	-9.13636
▁طبيعي	-9.13693
▁المسيح	-9.13716
92	-9.13757
31	-9.1379
▁الأحمر	-9.13805
▁حساب	-9.13896
إذا	-9.13937
▁الشهر	-9.13975
,000	-9.14048
داخل	-9.14131
▁دوري	-9.14222
te	-9.14336
▁الشعب	-9.1437
▁قديم	-9.14399
):	-9.14447
▁نفسه	-9.14477
صاب	-9.14641
«	-9.1468
E	-9.14744
جهد	-9.14995
ra	-9.15045
اقتصاد	-9.15188
U	-9.15319
تصنيع	-9.1532
▁1000	-9.15324
طوكيو	-9.15326
زراعة	-9.15333
علاقة	-9.15333
▁حاكم	-9.15335
▁قانون	-9.15341
قبيلة	-9.15418
▁قاد	-9.15434
دام	-9.15463
▁29	-9.15508
▁طاقة	-9.15525
جير	-9.15533
طلاق	-9.15534
▁كيلو	-9.15565
it	-9.15624
مطار	-9.15678
▁أربع	-9.15696
عكس	-9.15907
64	-9.15952
▁النق	-9.16
▁أخ	-9.16075
زين	-9.16175
رَ	-9.16213
▁مربع	-9.16228
ed	-9.16312
▁باي	-9.16337
▁بيت	-9.16345
ياً	-9.16481
T	-9.16499
L	-9.16521
▁الناس	-9.16534
▁تتكون	-9.16697
▁وتم	-9.16719
ولاية	-9.16732
▁السادس	-9.16988
▁سنوات	-9.17001
يران	-9.17031
قدس	-9.17046
▁الآخر	-9.17129
▁الفرعي	-9.17144
48	-9.17279
وبي	-9.1729
▁تمثل	-9.17293
▁ثانية	-9.17306
▁ولم	-9.17372
مور	-9.1744
▁محل	-9.17595
نشأ	-9.17624
معرفة	-9.17663
يتا	-9.17753
بك	-9.17783
جمهورية	-9.17989
▁الحرارة	-9.18059
▁الآن	-9.18391
▁الأن	-9.1855
▁ظهر	-9.1861
▁كليفلاند	-9.1868
▁الوحدات	-9.18697
دار	-9.18711
كثاف	-9.18718
إدارة	-9.18741
▁نص	-9.18784
▁عهد	-9.18799
▁كلمات	-9.18814
▁سعود	-9.18894
▁ثلاثة	-9.18963
▁الحلق	-9.19047
رسوم	-9.19119
أدوات	-9.19196
▁السن	-9.19219
▁يقوم	-9.19263
▁جدا	-9.19292
حالة	-9.19394
عدم	-9.19508
▁اعت	-9.19587
▁ذو	-9.19598
▁دائرة	-9.19718
حضر	-9.19778
▁الميلاد	-9.19798
▁الحالي	-9.19854
منطقة	-9.19886
يرو	-9.20033
فيزياء	-9.20065
حافظ	-9.201
▁والإ	-9.20224
▁لكل	-9.20262
ثقافة	-9.2036
▁الوسطى	-9.20405
▁عثمان	-9.20406
▁أشهر	-9.20408
ألعاب	-9.20409
ضاف	-9.20439
el	-9.20529
قوم	-9.20556
▁الكو	-9.20598
ارد	-9.20834
شرق	-9.20841
تعد	-9.209
ألف	-9.20986
▁الأمازيغ	-9.21035
▁حجم	-9.21037
▁مالي	-9.21053
▁التعليم	-9.2106
▁قطر	-9.21107
▁ثنائي	-9.21209
▁العزيز	-9.21218
متر	-9.21249
▁كتب	-9.2128
▁تقريبا	-9.21749
▁الرئيسية	-9.21778
ولا	-9.21798
▁فان	-9.21818
▁السل	-9.21824
-2	-9.21825
▁الشمالية	-9.21959
بولي	-9.21986
ing	-9.22004
هناك	-9.2202
▁سابق	-9.22049
▁فرع	-9.22069
▁الشكل	-9.22146
آثار	-9.22186
تحول	-9.22202
اتجاه	-9.22202
▁تل	-9.22205
▁إداري	-9.22207
▁الرابع	-9.2221
حلة	-9.22299
ولوجي	-9.2231
▁فارس	-9.2232
▁وأن	-9.22368
▁النوع	-9.22506
▁جزر	-9.22541
▁التفاعل	-9.22615
▁دار	-9.22724
▁الفيزياء	-9.22771
سور	-9.2293
▁الشرقية	-9.23359
إن	-9.23619
لهذا	-9.23901
أشجار	-9.23968
▁البعض	-9.23974
▁وهذه	-9.23992
76	-9.23993
صاحب	-9.23996
أغلب	-9.24032
تعبير	-9.2404
سوف	-9.24161
▁سير	-9.24292
تركيب	-9.24295
فعال	-9.24349
▁مجموعات	-9.24482
▁كذلك	-9.24556
68	-9.24572
▁إل	-9.24576
▁الرومان	-9.24592
▁ترتيب	-9.24678
قصر	-9.24782
شحن	-9.24842
منصب	-9.2487
▁أعمال	-9.25238
la	-9.2528
غار	-9.25331
42	-9.25333
مالك	-9.25368
احية	-9.25406
▁الكهربائي	-9.25477
63	-9.2568
إحصاء	-9.25763
▁الحاسوب	-9.25764
انتخاب	-9.25765
▁شبكة	-9.25765
▁2004	-9.25766
–	-9.25782
▁تتبع	-9.25928
وصول	-9.25982
85	-9.25996
معادلة	-9.26088
▁حركة	-9.26121
بحث	-9.26165
▁أعضا	-9.26181
▁زمن	-9.26219
ليس	-9.26342
صلة	-9.26357
▁رابطة	-9.26358
▁صناع	-9.2665
▁احت	-9.26654
مرض	-9.26661
▁الأرقام	-9.26719
84	-9.26732
▁التالية	-9.26865
▁العثمانية	-9.27218
▁كيلومتر	-9.27341
جيل	-9.27348
مجموعة	-9.27367
رمان	-9.27382
وض	-9.27453
▁اسمه	-9.27468
▁22	-9.27502
بيل	-9.2752
▁ثاني	-9.27533
▁جديد	-9.27596
▁السعودية	-9.27616
▁الطريق	-9.27631
صحيح	-9.27634
مشروع	-9.27655
▁الحروف	-9.27738
يته	-9.27777
▁القائم	-9.27796
2)	-9.27817
عالم	-9.27821
أسماء	-9.27868
▁القص	-9.27872
▁توفي	-9.27911
▁تعريف	-9.28295
طلب	-9.28302
يتش	-9.28364
▁أعلى	-9.28364
46	-9.2841
تهم	-9.28732
أحد	-9.28737
▁إليها	-9.28841
ربط	-9.28868
▁صغيرة	-9.28935
▁مادة	-9.29058
▁الألماني	-9.29295
▁الصيغة	-9.29502
▁المركبات	-9.29502
▁حاصل	-9.29508
▁توماس	-9.29511
بروتون	-9.29541
▁السابع	-9.29544
▁السلطة	-9.29568
49	-9.29575
▁باشا	-9.29634
D	-9.29715
خار	-9.29801
▁وكل	-9.29809
▁جغرافيا	-9.29881
▁المستخدم	-9.29888
▁أيزو	-9.2994
معركة	-9.29994
▁الحالة	-9.30355
▁ومع	-9.30367
▁طريقة	-9.30418
طف	-9.30551
▁مركب	-9.30633
مكتبة	-9.30643
▁مقال	-9.30735
رى	-9.30834
am	-9.30839
تعا	-9.30925
ساعة	-9.31026
▁الكيميائي	-9.31261
سهل	-9.31272
لاعب	-9.31302
é	-9.31424
▁الأوروبي	-9.31429
▁الإلكتروني	-9.31439
▁الشخص	-9.31459
إلكترونات	-9.31483
▁جيمس	-9.31523
حصول	-9.31549
شق	-9.31633
روح	-9.31773
قوات	-9.32025
▁ممثل	-9.32217
75	-9.32252
▁يحتوي	-9.3233
▁الترتيب	-9.32585
▁قدر	-9.32666
يتو	-9.32712
لقب	-9.33132
▁صالح	-9.33191
إنجليزي	-9.33329
▁كهربائي	-9.33385
رئاسة	-9.33386
اختيار	-9.33387
▁توزيع	-9.33387
▁طائرة	-9.33387
▁هونشو	-9.33389
▁وغيرها	-9.33397
▁بلدات	-9.33412
مقياس	-9.3343
▁نشيد	-9.33496
كيل	-9.335
▁الرقم	-9.33503
تابعة	-9.33506
▁فإنه	-9.33511
▁of	-9.33563
66	-9.33722
▁(10	-9.33846
بعث	-9.33848
▁طرف	-9.33883
67	-9.33929
38	-9.33974
ri	-9.34325
▁الطبيعة	-9.34457
57	-9.34593
▁يتكون	-9.34607
تعمل	-9.34934
ربع	-9.35075
▁نور	-9.35098
id	-9.35312
X	-9.35385
▁عواصم	-9.35386
أشكال	-9.35387
▁المختلفة	-9.35397
▁باستخدام	-9.35414
خطوط	-9.35455
▁2011	-9.35466
أصول	-9.35597
غور	-9.35602
▁الإلكترونات	-9.35779
رسول	-9.35817
29	-9.35836
37	-9.35851
وغو	-9.361
تابع	-9.36106
محلية	-9.36142
أعمال	-9.36198
▁الأساسية	-9.36389
وشي	-9.36419
▁الياباني	-9.36435
62	-9.36587
قلب	-9.36606
▁يعد	-9.36826
▁نبات	-9.36861
يئة	-9.36948
▁السوري	-9.3703
عقد	-9.37108
▁نظرا	-9.37112
▁وقت	-9.37368
اختلاف	-9.37426
▁الرحمن	-9.37426
▁دمشق	-9.37426
▁الموسيقي	-9.37428
تنظيم	-9.37428
مقاومة	-9.37429
▁معروف	-9.37455
▁الأدب	-9.37546
ماثل	-9.37624
▁كور	-9.37627
73	-9.37668
▁الإمبراطور	-9.37691
إي	-9.37753
سار	-9.37992
شهد	-9.38
li	-9.38005
صيد	-9.38098
|	-9.38143
مقاطعة	-9.38176
▁نيو	-9.38326
▁الصينية	-9.38414
▁يعود	-9.3851
▁(18	-9.38594
▁2000	-9.38898
غرب	-9.38955
▁إيطاليا	-9.38956
▁سوريا	-9.39032
زاب	-9.39105
وحد	-9.39178
▁السفلى	-9.39511
▁الكبرى	-9.39516
▁عراقي	-9.3955
▁بالنسب	-9.39559
قوانين	-9.39592
ـ«	-9.3963
▁وعند	-9.39636
▁سلال	-9.39644
إناث	-9.39676
▁عين	-9.39688
▁النووي	-9.39708
▁بري	-9.39847
ad	-9.39859
▁الرسمية	-9.39904
▁كتابة	-9.39907
▁سابقة	-9.3993
▁القاعدة	-9.40002
▁السلام	-9.40015
فهو	-9.40033
▁أمريكية	-9.40048
كثر	-9.40185
▁دولار	-9.40282
▁فأ	-9.4031
ريش	-9.40334
▁إذ	-9.4038
▁تقوم	-9.40482
قاس	-9.40533
▁جوزي	-9.40552
1,	-9.40591
81	-9.40616
قوى	-9.40734
94	-9.40943
▁الرياضيات	-9.41075
91	-9.4114
نتشر	-9.41238
▁الكتابة	-9.41295
شغل	-9.41429
باقي	-9.41594
أجهزة	-9.41637
j	-9.41637
أقصى	-9.41639
▁البيانات	-9.41642
▁بورصة	-9.41646
قائد	-9.41647
أصوات	-9.4165
▁الخشب	-9.41659
شبكات	-9.41663
▁بيانات	-9.41676
▁ملوك	-9.41689
▁المجال	-9.41713
ذاكرة	-9.41715
▁يجب	-9.41718
▁آلهة	-9.41719
▁روبرت	-9.41734
▁التراث	-9.41761
▁للعناصر	-9.41799
▁نوبل	-9.41835
▁فمثلا	-9.41868
تخذ	-9.42022
▁مثلا	-9.42092
ُّ	-9.42123
▁لاحق	-9.42179
صم	-9.42236
▁موسيقية	-9.4236
51	-9.42494
باء	-9.42507
ائب	-9.42681
نزل	-9.4299
▁مختلف	-9.43142
▁دب	-9.4321
▁قوة	-9.43247
▁يابانية	-9.43261
جتمع	-9.43299
▁باللغ	-9.43637
Z	-9.43811
ə	-9.43811
▁المسلمين	-9.43816
▁2003	-9.4382
▁يستعمل	-9.43822
▁ليبيا	-9.43827
يتشي	-9.43848
تقنية	-9.43849
▁أهل	-9.43952
▁العصور	-9.44054
تجارة	-9.44103
▁الكهربائية	-9.44154
▁لأول	-9.4416
82	-9.44166
▁سانت	-9.44242
نواة	-9.44285
▁متعلق	-9.44501
▁قامت	-9.44629
J	-9.44635
نقسم	-9.4467
دينار	-9.44687
كتور	-9.44695
▁إليه	-9.44894
رفع	-9.44959
▁الحزب	-9.45014
رأس	-9.4506
▁الإمبراطورية	-9.45087
▁23	-9.45173
صناعات	-9.45181
▁الرومانية	-9.45246
▁وفق	-9.45265
▁نادي	-9.45292
بيع	-9.45317
سميت	-9.45336
ne	-9.45402
ريان	-9.45577
▁الضغط	-9.45641
▁لذلك	-9.4565
▁الكتاب	-9.45993
▁قيد	-9.46011
▁جاء	-9.46021
}	-9.46033
إنترنت	-9.46034
▁مؤلف	-9.46037
▁الأبيض	-9.46039
▁خواص	-9.46039
▁أمريكا	-9.46046
ío	-9.46051
استعمال	-9.46053
حيط	-9.46073
شتاين	-9.46076
▁الذرات	-9.46107
▁الاعت	-9.46138
▁ليون	-9.46171
واجه	-9.46246
سياسة	-9.46247
▁الرئيسي	-9.46459
▁العادي	-9.46534
▁الصوت	-9.46577
ter	-9.46589
صيف	-9.46647
▁اللون	-9.46713
▁آر	-9.46754
▁وسام	-9.46841
رور	-9.47008
97	-9.47025
55	-9.47331
حول	-9.47428
▁بالأ	-9.47575
54	-9.4761
▁فلز	-9.47697
ia	-9.4774
ضرب	-9.4786
▁ومنها	-9.47965
شاه	-9.48162
▁ويتم	-9.48182
صير	-9.48211
عيش	-9.48273
▁الانتقال	-9.48306
موضوع	-9.48314
▁موسى	-9.48338
▁الإنجليزية	-9.48363
▁حلقي	-9.48412
▁لندن	-9.48423
▁ميناء	-9.4843
▁الفضاء	-9.48469
▁الحركة	-9.48512
▁أوساكا	-9.48554
▁مقاطعات	-9.48612
▁سليمان	-9.48648
▁الحديد	-9.48661
▁أساس	-9.48674
▁الصلب	-9.48727
2,	-9.48784
لعب	-9.48944
حمض	-9.4898
عشر	-9.49062
▁الجغرافيا	-9.49088
عادل	-9.49114
كوب	-9.49137
99	-9.49137
▁جنس	-9.4915
درو	-9.49308
بنى	-9.49323
▁مركبات	-9.49382
ربيع	-9.49729
تعريف	-9.49783
ترابط	-9.49785
يابان	-9.49787
▁الشام	-9.49893
▁بدون	-9.49895
قاد	-9.49948
▁الإدارية	-9.50037
فرقة	-9.50258
قرار	-9.5043
نشر	-9.50522
لاحظ	-9.50592
Y	-9.50631
{	-9.50631
تأثير	-9.50632
▁كيوشو	-9.50632
▁الأعداد	-9.50633
▁إنشاء	-9.50633
▁تحديد	-9.5064
تحت	-9.50641
باليابانية	-9.50644
▁أوهايو	-9.50649
▁علوية	-9.50654
▁مدرسة	-9.50669
▁اللاتينية	-9.50678
▁العسكري	-9.50697
▁the	-9.50697
تساهم	-9.507
▁طويل	-9.50797
▁إر	-9.5096
47	-9.51176
52	-9.51205
▁تجاري	-9.51308
▁الجمهورية	-9.5138
شرف	-9.5144
▁الجنوبي	-9.51591
كوك	-9.51676
يكان	-9.51825
▁وطني	-9.52089
▁يصل	-9.5219
رئيس	-9.52417
▁بدل	-9.52608
▁الحديثة	-9.52611
ساس	-9.52656
▁الدم	-9.52764
▁الأكبر	-9.52767
▁أجل	-9.52843
▁موريتانيا	-9.53012
▁البرازيل	-9.53013
موسوعة	-9.53015
▁جزيئ	-9.53015
▁التغييرات	-9.53031
▁التونسي	-9.53042
▁الملفات	-9.53047
▁بمعنى	-9.53065
▁جائز	-9.53066
مستوى	-9.53117
▁فيزيائية	-9.53127
▁مواد	-9.5326
▁الخاص	-9.53271
راس	-9.53318
▁جديدة	-9.53342
▁فهي	-9.53391
▁وبال	-9.53405
مفهوم	-9.53452
▁قرية	-9.53525
أمر	-9.53624
77	-9.53659
98	-9.53668
خلاف	-9.53675
▁وتضم	-9.53676
يمين	-9.53897
▁النسب	-9.54081
21	-9.54126
▁الداخلي	-9.54264
سير	-9.55145
جميع	-9.55184
▁التيار	-9.5519
سعة	-9.55204
▁التشغيل	-9.55451
الأبجدية	-9.55452
تخصص	-9.55453
▁الكلمات	-9.55455
▁قبرص	-9.55458
احتلال	-9.55462
▁متعددة	-9.5547
▁العشرين	-9.55472
▁التاسع	-9.55473
رتفع	-9.55474
▁الإمام	-9.55478
▁أعداد	-9.55493
▁إسلامية	-9.55512
نطاق	-9.55549
▁1999	-9.55613
إشارة	-9.55631
▁فوجي	-9.55634
▁الراين	-9.55635
kg	-9.5565
▁وزير	-9.55738
▁كري	-9.55803
حكوم	-9.55892
▁كامل	-9.55915
أشعة	-9.56086
خليفة	-9.56158
71	-9.56428
تجه	-9.56589
غازات	-9.56647
▁(20	-9.56781
▁أرض	-9.56789
بلدة	-9.56807
96	-9.5684
▁وقو	-9.57006
▁التجارية	-9.57045
صنف	-9.571
▁أمير	-9.57191
رُ	-9.57244
مباني	-9.57295
تصبح	-9.57492
قوس	-9.57546
سلاف	-9.5756
▁غاز	-9.57607
جزر	-9.57756
فيزيائي	-9.57849
ä	-9.57951
اختصار	-9.57951
tyle	-9.57952
▁إدوارد	-9.57952
▁التوزيع	-9.57952
▁أبجدية	-9.57953
▁الحقيقي	-9.57954
▁موجود	-9.57959
بالإنجليزية	-9.57981
نحو	-9.57982
▁الفراغ	-9.58018
▁الفلسطيني	-9.58148
▁2010	-9.58156
86	-9.58157
متحف	-9.58194
أثرية	-9.58199
▁الحديث	-9.58381
▁تاكا	-9.58392
شجرة	-9.58405
▁اليمن	-9.58434
▁العلمي	-9.58506
جاز	-9.58513
▁سيد	-9.58562
انتشار	-9.5859
▁الإسلامي	-9.58591
حماية	-9.59179
ul	-9.59286
سائل	-9.59418
بريطانيا	-9.59506
حضارة	-9.59579
سيلي	-9.59614
09	-9.59665
▁الشعبية	-9.5979
نَ	-9.59796
▁يعمل	-9.59903
▁صفر	-9.59975
ائن	-9.60007
كتابة	-9.60492
تكنولوجيا	-9.60516
▁الفلزات	-9.60516
علاقات	-9.6052
ظروف	-9.60521
round	-9.60525
▁اليهود	-9.6053
▁2001	-9.60536
قارب	-9.60537
▁تحمل	-9.60542
▁2002	-9.60545
bac	-9.6056
▁الناتج	-9.60582
▁جماع	-9.60583
▁الأوراق	-9.60594
طبخ	-9.60597
▁الغاز	-9.60634
▁السورة	-9.60638
▁كويتي	-9.60652
▁المياه	-9.60676
▁دائم	-9.60677
طاقة	-9.60697
▁بذلك	-9.60722
▁حياته	-9.60744
44	-9.60827
ِن	-9.60831
▁كاتب	-9.60836
قطن	-9.60865
نخلة	-9.60948
▁ذرة	-9.6104
▁طرق	-9.61048
إضافة	-9.61112
▁عصر	-9.61316
سعد	-9.61353
السويد	-9.61355
صينية	-9.61477
▁وليس	-9.61543
▁الإله	-9.61694
▁الخارجي	-9.61745
إسلام	-9.61798
يتس	-9.61806
▁سمي	-9.61978
ac	-9.61993
▁يدع	-9.6201
ديو	-9.62074
كبر	-9.62169
08	-9.62272
os	-9.62542
بيئة	-9.62717
G	-9.62967
هيدروكربون	-9.63119
▁إنجليز	-9.63125
▁أستراليا	-9.63147
▁الأرجنتين	-9.63147
▁الصناعي	-9.63149
▁أبناء	-9.63154
▁نقاط	-9.63155
ff	-9.63163
دراسات	-9.6317
▁تشارل	-9.63177
تشابه	-9.63181
تغيير	-9.63185
;"	-9.63193
▁روسيا	-9.63207
حفظ	-9.63215
درجة	-9.63229
مقدار	-9.63336
قرى	-9.63346
▁ماك	-9.63418
▁باريس	-9.63482
حدها	-9.63598
راع	-9.63705
▁العثماني	-9.63715
▁إلي	-9.63757
تعدد	-9.63876
39	-9.64092
▁الصفر	-9.64173
▁فلزات	-9.64194
▁يحدث	-9.64219
▁مارك	-9.64227
▁القمر	-9.64371
خضر	-9.64383
▁الطبيعية	-9.64399
لوري	-9.64807
▁حجر	-9.64826
معدل	-9.64877
▁الجغرافي	-9.64938
▁شخصية	-9.65207
69	-9.65216
ائه	-9.65229
قراء	-9.6526
33	-9.65367
تشو	-9.65769
▁أمين	-9.65832
أبحاث	-9.6585
▁الجزيئي	-9.6585
▁برمجة	-9.6585
أكسجين	-9.65851
أسطورة	-9.65851
▁تشغيل	-9.65851
▁محمود	-9.65854
▁المثلث	-9.65869
▁سلطان	-9.65885
▁الجزيئات	-9.65899
▁الحسين	-9.65926
▁كندا	-9.65949
أحياء	-9.66008
▁جهة	-9.66117
راث	-9.66185
▁تحويل	-9.66273
▁جانب	-9.66302
صلاة	-9.66351
▁فريدري	-9.66422
▁مكة	-9.66511
▁استخدم	-9.66944
كاوا	-9.67025
▁الحجر	-9.67536
نظم	-9.67711
▁معالم	-9.67822
▁سياحي	-9.67877
▁مثلث	-9.67925
حقق	-9.68087
▁نسب	-9.68208
رمي	-9.6836
▁تطوير	-9.68628
تناظر	-9.68628
▁الروابط	-9.68629
▁المجموعات	-9.68631
▁حديث	-9.68634
▁يعني	-9.68679
:#	-9.68697
▁يحمل	-9.6879
اعتماد	-9.68815
حوالي	-9.68844
بدء	-9.6892
حتى	-9.68934
▁دينية	-9.68961
▁الطرق	-9.68972
▁معينة	-9.69016
الصليب	-9.69026
ma	-9.69048
ضغط	-9.69135
ّر	-9.69325
عنصر	-9.69336
un	-9.69346
▁الإداري	-9.69349
▁المقدس	-9.69506
▁أساسي	-9.69508
▁ألك	-9.6984
يابانيون	-9.69878
▁تطبيق	-9.699
▁ويكون	-9.6995
▁ليست	-9.69973
ation	-9.70017
وضح	-9.70017
▁ويسم	-9.70132
أكبر	-9.70261
▁شخصيا	-9.70297
▁زيت	-9.70489
ائها	-9.70587
وتشي	-9.70734
▁كوري	-9.70775
تشا	-9.70788
تعلق	-9.70976
▁التقسيم	-9.70979
▁سليم	-9.71119
عصب	-9.71155
▁الإحصائي	-9.71282
;	-9.71435
؟	-9.71485
گ	-9.71485
▁الأندلس	-9.71486
▁الوحيد	-9.71486
تصميم	-9.71502
▁وعدد	-9.71513
تمثيل	-9.7152
▁الكريم	-9.71522
حوسبة	-9.71527
▁نيوتن	-9.71533
كيوتو	-9.71538
▁حسين	-9.71541
أكاديمية	-9.71549
▁الجيش	-9.71569
▁حائز	-9.71586
▁القطب	-9.71591
▁شيء	-9.71645
▁الأسود	-9.71726
ميكانيكا	-9.71741
روايات	-9.71751
▁غالبا	-9.7176
ائج	-9.71823
قلعة	-9.71931
صالح	-9.71968
▁التقليدية	-9.72127
معامل	-9.72139
لدولة	-9.7217
نتهي	-9.72624
نتمي	-9.72844
ثبت	-9.72898
▁ياباني	-9.72934
▁كرو	-9.73331
خدمة	-9.74176
توفر	-9.74282
تعداد	-9.74405
▁الكلاسيكي	-9.74426
▁الألكانات	-9.74426
▁الضوء	-9.74426
▁الطائرة	-9.74428
▁بغداد	-9.74428
▁الأبعاد	-9.7443
▁يأتي	-9.74432
▁لينكس	-9.74459
بحتة	-9.74486
إجراء	-9.74497
▁يوسف	-9.74503
عطاء	-9.74531
▁2012	-9.74562
▁طالب	-9.74616
▁سبيل	-9.74736
▁الجمعة	-9.74753
دفع	-9.74773
▁1960	-9.74895
▁الجبل	-9.75081
▁مجموع	-9.75092
تسع	-9.75121
▁وإن	-9.75158
نبورغ	-9.75225
td	-9.7546
دوائر	-9.75479
▁صغير	-9.75488
حجم	-9.75489
▁إكس	-9.7549
▁الميلادي	-9.75497
عبيد	-9.75548
عاصمة	-9.75681
سقط	-9.76457
خلق	-9.76684
▁طبقا	-9.76695
حصن	-9.76817
أرثوذكس	-9.77456
▁تيفيناغ	-9.77456
▁ساكسونيا	-9.77456
▁والتطبيقية	-9.77456
enna	-9.77456
مؤرخ	-9.77457
▁جزائري	-9.77458
▁أجزاء	-9.77458
بسيطة	-9.77465
ظهور	-9.77472
▁صيغ	-9.77478
سلاسل	-9.77485
▁يوهان	-9.77487
إعلان	-9.77495
موانئ	-9.77536
الثقافة	-9.77538
▁الطعام	-9.77561
▁فولت	-9.77562
صحراء	-9.77568
خمسة	-9.77614
توفي	-9.77644
صقلية	-9.77649
باحث	-9.77688
طالع	-9.77702
▁الذرة	-9.77719
مراكز	-9.77733
معابد	-9.77739
▁الريف	-9.77989
حتوى	-9.78013
إقليم	-9.78141
▁نارا	-9.78285
▁النصف	-9.78405
عارض	-9.78496
▁الترك	-9.78752
▁أمثل	-9.78996
عترف	-9.79052
▁أطلق	-9.79264
▁اقتصادي	-9.79548
موري	-9.79703
غراف	-9.79811
موتو	-9.79836
نزلت	-9.79859
أقدم	-9.79918
موج	-9.80004
87	-9.80142
34	-9.8049
كتشف	-9.80529
▁عائشة	-9.80581
table	-9.80581
▁عيسى	-9.80588
▁البنائية	-9.80589
▁المساحة	-9.80589
▁وتعني	-9.8059
▁مسرح	-9.80614
▁دارفور	-9.80614
▁حكام	-9.80626
▁لقاح	-9.80634
▁العليا	-9.80641
▁منتصف	-9.80675
مرأة	-9.80685
▁العهد	-9.80706
تستعمل	-9.80732
جذب	-9.80774
▁رسام	-9.80855
ضخم	-9.80905
ha	-9.80925
حقوق	-9.80933
حوض	-9.80974
▁الورق	-9.81033
Ar	-9.81129
واحي	-9.81138
▁العصر	-9.81405
توضيح	-9.81489
▁جنو	-9.81528
بسط	-9.81637
ir	-9.81649
واصل	-9.81687
صعب	-9.8198
▁نجم	-9.82369
سلاح	-9.82441
▁مقابل	-9.83399
▁الجزيء	-9.83807
▁لقياس	-9.83808
▁الإسباني	-9.83814
▁2006	-9.83814
تحقيق	-9.83832
▁وبعض	-9.83832
▁النفط	-9.83837
▁شعراء	-9.83844
▁سبعة	-9.83845
▁الدنيا	-9.83847
شاهد	-9.8385
جيب	-9.83869
▁العضوية	-9.83883
مورا	-9.83899
▁اكتشف	-9.83984
سيارات	-9.83986
▁1998	-9.84013
▁الليبي	-9.84061
▁آن	-9.84176
▁ذري	-9.84221
▁عرفت	-9.84241
وجين	-9.84295
gu	-9.84315
▁قصير	-9.84352
تقسيمات	-9.84382
▁جسم	-9.84572
▁المجتمع	-9.84586
▁الأعلى	-9.84605
▁السبع	-9.8463
▁الجمل	-9.84647
إمبراطور	-9.84777
▁غالب	-9.84801
الإيطالية	-9.84887
▁يوشي	-9.84962
▁التجاري	-9.85019
0%	-9.85175
فئة	-9.85272
زياد	-9.85386
▁الجبر	-9.85405
كتوب	-9.85431
قابلة	-9.85484
حضار	-9.85672
تاريخ	-9.86099
رياح	-9.86279
دمج	-9.86475
ملاح	-9.86497
تبدل	-9.86638
▁صن	-9.86879
ستخدام	-9.86902
▁جاك	-9.86937
وستفاليا	-9.8714
Q	-9.8714
com	-9.8714
▁الغذائية	-9.87141
▁مساحتها	-9.87141
▁جزيء	-9.87141
▁الزراعية	-9.87141
تأليف	-9.87142
مفاهيم	-9.87142
▁الأسبوع	-9.87142
▁نظير	-9.87143
مستعمر	-9.87145
ستطيع	-9.87146
بحيرات	-9.87147
▁2005	-9.87148
▁مسافة	-9.87156
▁آرثر	-9.87176
دخول	-9.87191
▁ألب	-9.87197
und	-9.87213
▁ملفات	-9.87226
▁شمع	-9.87262
▁2014	-9.87271
▁فراغ	-9.87298
▁1982	-9.87375
تشمل	-9.87437
▁الجبال	-9.87443
▁1990	-9.87528
▁1980	-9.87563
▁فريق	-9.87625
▁تسميته	-9.87661
تزوج	-9.87779
صفوف	-9.87943
▁القطر	-9.88159
▁الحيوان	-9.88242
أخير	-9.88485
دائرة	-9.88584
▁عمان	-9.88864
▁رجل	-9.88885
58	-9.89032
كبار	-9.89274
89	-9.89366
▁الاستخدام	-9.89409
قصة	-9.89587
تعرض	-9.89934
رطب	-9.90124
▁ساحل	-9.90569
كاليفورنيا	-9.90589
▁التكافؤ	-9.90589
▁ضوئي	-9.90589
أغراض	-9.90589
▁مؤقت	-9.9059
▁الأراضي	-9.9059
▁المعدنية	-9.90591
▁الأوسط	-9.90601
▁عديدة	-9.90613
باكستان	-9.90614
▁الجامعات	-9.90638
▁أعلن	-9.90638
▁فرانك	-9.90651
▁الهجري	-9.90653
▁النصوص	-9.9068
أمراض	-9.90729
تدريس	-9.90853
▁1992	-9.9092
▁مياه	-9.90971
▁الجسم	-9.91164
عمارة	-9.91181
بقية	-9.91279
▁خشب	-9.91311
أفراد	-9.91367
▁لغوي	-9.91384
حملة	-9.91586
مرجع	-9.91648
لإلكترون	-9.91748
▁القومي	-9.91887
ائح	-9.92082
▁فيليب	-9.92119
ؤسس	-9.93212
لتكوين	-9.93221
ho	-9.93232
Br	-9.93808
بروتوكول	-9.9416
نيتروجين	-9.9416
▁بطريقة	-9.9416
طائفة	-9.9416
▁الأولمبية	-9.9416
▁الأطلسي	-9.94162
استبدال	-9.94162
▁الثابت	-9.94167
الفارسية	-9.94172
▁عشيرة	-9.94177
▁الرازي	-9.94191
▁خالد	-9.94208
▁النيجر	-9.9421
تبادل	-9.94211
▁2009	-9.94231
▁جامعات	-9.94281
▁فاعل	-9.9431
▁اليسار	-9.94373
▁الشاي	-9.94537
توقع	-9.94677
▁شهاد	-9.94698
مائة	-9.9474
▁عمليات	-9.9484
مضيق	-9.94944
صلاح	-9.95225
▁فكان	-9.95252
▁نظري	-9.95483
▁الزيت	-9.95643
ساكا	-9.95646
ell	-9.95703
راجع	-9.96554
أداة	-9.96805
▁لديه	-9.96913
▁إفريقي	-9.96945
رياضيات	-9.97161
القرب	-9.97326
▁الألب	-9.97577
دقيق	-9.97841
تعلم	-9.9785
_	-9.97863
*	-9.97864
▁ألكسندر	-9.97864
▁ريتشارد	-9.97864
▁تضاريس	-9.97864
▁قرطاج	-9.97864
▁البرمجة	-9.97864
-639	-9.97864
▁مشهور	-9.97864
▁اللبناني	-9.97865
▁الاستقلال	-9.97865
▁ذكور	-9.97867
▁أصغر	-9.97868
▁غينيا	-9.97876
▁العاشر	-9.97881
▁اختراعات	-9.97887
▁النباتي	-9.97892
فينيقية	-9.97894
▁تحليل	-9.97895
▁السلطان	-9.9791
▁EN	-9.97911
▁الممكن	-9.97921
▁مرتبطة	-9.97921
تقي	-9.97942
▁الماضي	-9.97951
▁المسافة	-9.97965
عوامل	-9.97968
بترول	-9.97982
▁القوة	-9.98042
▁حكومة	-9.98043
▁1987	-9.98047
▁فلكي	-9.98111
▁وفاته	-9.98122
قصيدة	-9.98165
▁الجنسي	-9.98189
▁1948	-9.98205
▁قضاء	-9.98266
جسيم	-9.98278
▁سعيد	-9.98301
متع	-9.98305
لأطفال	-9.98428
وصي	-9.98496
▁Al	-9.98514
رسل	-9.98611
مراقب	-9.98808
صاص	-9.98899
جوز	-9.98938
زواج	-9.98949
قناة	-9.99425
▁مونت	-9.9944
ايير	-9.99835
يوكو	-10.0012
كسر	-10.0032
أنواع	-10.0043
▁ماسا	-10.0068
تعدّ	-10.0129
!	-10.0171
IUPAC	-10.0171
▁الدنمارك	-10.0171
▁يختلف	-10.0171
▁مفتوح	-10.0171
▁نظائر	-10.0171
▁الاستوائية	-10.0171
▁وبالتالي	-10.0171
منشآت	-10.0171
▁مصطف	-10.0171
▁الصباح	-10.0172
▁تأسس	-10.0172
▁جعفر	-10.0172
1988	-10.0172
▁سفلية	-10.0173
▁غلاف	-10.0174
▁شهور	-10.0174
▁الإقليمية	-10.0174
▁المدرسة	-10.0175
▁المستقيم	-10.0175
استطاع	-10.0177
▁تشكيل	-10.0177
ترتيب	-10.0178
▁الشمع	-10.0178
▁يونكس	-10.0179
مشتقة	-10.0179
ائز	-10.0187
عائلات	-10.019
▁1996	-10.0195
▁الأخضر	-10.0198
▁يتبع	-10.0206
▁بيروت	-10.0207
علاج	-10.0208
تحلل	-10.0211
كهوف	-10.0213
▁بوتان	-10.0213
موقع	-10.0222
منظمات	-10.0234
باز	-10.0237
لوحة	-10.0241
II	-10.0256
حتاج	-10.0278
آيات	-10.0334
نافس	-10.0341
الحرف	-10.0348
إصلاح	-10.0437
جموع	-10.05
°	-10.0571
ک	-10.0571
▁كاثوليك	-10.0571
▁هوكايدو	-10.0571
▁الثقافي	-10.0571
▁ظاهر	-10.0571
▁انتقالية	-10.0571
▁وبلدات	-10.0571
فلسفة	-10.0571
بوليمرات	-10.0571
▁الشبكة	-10.0571
▁الصغيرة	-10.0571
▁الإمارات	-10.0571
▁2007	-10.0571
▁الرصاص	-10.0572
▁الدستور	-10.0572
▁وأيضا	-10.0575
▁جهاز	-10.0575
▁أمازيغية	-10.0575
تأثر	-10.0576
▁كتلة	-10.0576
▁اللسان	-10.0577
▁محرر	-10.0578
صوص	-10.0579
▁الفيزيائية	-10.0579
عناصر	-10.058
▁يعبر	-10.0583
▁دقيقة	-10.0584
▁ألبرت	-10.0585
▁الفنون	-10.0585
▁كينيا	-10.0585
▁ليلى	-10.0586
▁نصوص	-10.0586
▁قريب	-10.0586
معادلات	-10.0598
▁ترجم	-10.0598
▁رجال	-10.06
▁1994	-10.0601
▁شارل	-10.0604
غريق	-10.0606
▁الساحل	-10.061
تناول	-10.0613
qu	-10.0637
خفيف	-10.0637
فشل	-10.0644
تكلم	-10.0667
▁قطب	-10.0678
محور	-10.0713
tic	-10.0728
ألوان	-10.0735
تربية	-10.0743
ديمقراطية	-10.076
رابطة	-10.0797
الألمانية	-10.0857
أقرب	-10.0902
VI	-10.0914
لعدد	-10.0933
مجلة	-10.0968
1969	-10.0976
مؤسسات	-10.0977
▁الإسرائيلي	-10.0988
▁المغناطيسي	-10.0988
▁كاغوشيما	-10.0988
▁ويكيبيديا	-10.0988
▁إشعاعي	-10.0988
▁آنذاك	-10.0988
▁هيدروجين	-10.0988
▁المواقع	-10.0988
▁القاهرة	-10.0988
▁1983	-10.0988
كهرباء	-10.0988
▁تخزين	-10.0988
▁ألكانات	-10.0988
▁حقيقي	-10.0989
▁لبعض	-10.0989
▁الغلاف	-10.0989
▁حصار	-10.0989
مقارنة	-10.099
يجابايت	-10.099
▁الجهاز	-10.0991
▁عباس	-10.0991
▁معاهد	-10.0991
▁مسيحي	-10.0992
▁أبرز	-10.0995
▁السماء	-10.0996
▁العباس	-10.0997
نواتج	-10.1003
▁المهدي	-10.1005
▁1997	-10.1017
▁فروع	-10.1018
متاز	-10.1054
▁أسرة	-10.1056
▁الحروب	-10.1056
حبوب	-10.1076
أكسد	-10.1105
لعديد	-10.1151
▁يوناني	-10.1158
▁واسع	-10.1169
طبيعة	-10.119
تطبيقات	-10.1225
▁الأساسي	-10.1227
▁Ja	-10.1258
حيوانات	-10.1284
ألمانيا	-10.1314
▁إسباني	-10.1338
▁تحوي	-10.1362
1989	-10.1377
پ	-10.1422
▁إسماعيل	-10.1422
▁الدكتوراه	-10.1422
▁الغريغوري	-10.1422
市	-10.1422
▁الصفصاف	-10.1422
▁الفصيلة	-10.1422
▁مباشرة	-10.1422
▁تيسليت	-10.1422
▁مستقلة	-10.1423
▁كبيسة	-10.1423
مبرهنة	-10.1423
▁مهندس	-10.1423
▁تقريبًا	-10.1423
آسيوية	-10.1423
▁الخواص	-10.1423
▁بسهولة	-10.1424
▁البيضاء	-10.1424
تمركز	-10.1424
▁الشهير	-10.1424
▁الشعراء	-10.1425
▁الهيدروكربونية	-10.1427
▁القيام	-10.1431
بادئ	-10.1431
▁السمك	-10.1432
▁الحالات	-10.1432
▁معدوم	-10.1433
الأشهر	-10.1433
شؤون	-10.1436
▁بريمن	-10.1438
راوح	-10.1438
▁عالية	-10.1439
▁1958	-10.1442
▁1939	-10.1448
▁الأسرة	-10.1449
▁انتقل	-10.145
تجانس	-10.146
ؤثر	-10.1461
▁مغربي	-10.1463
▁النمسا	-10.1465
▁الطرف	-10.147
▁الهادي	-10.1471
متلك	-10.1475
كثير	-10.1513
نحن	-10.1545
أخرى	-10.1561
لذا	-10.1571
تولي	-10.1609
لدفاع	-10.1622
▁تماما	-10.1642
▁الطبيعي	-10.1663
أرقام	-10.1781
▁جغرافي	-10.179
محمد	-10.1793
▁أوليمبيا	-10.1877
إحداثيات	-10.1877
لأشخاص	-10.1877
▁محجوبة	-10.1877
▁الأفريقي	-10.1877
▁إغريقية	-10.1877
▁The	-10.1877
إتجاه	-10.1877
إدخال	-10.1877
تحضير	-10.1877
▁هامبورغ	-10.1877
▁الزجاج	-10.1877
▁للوحدات	-10.1878
▁الفلبين	-10.1878
معالجة	-10.1878
▁الألكين	-10.1878
▁تأتي	-10.1878
امتداد	-10.1878
▁المجلس	-10.188
إجمالي	-10.188
▁الهواء	-10.188
تجاوز	-10.188
حديقة	-10.1881
نشطة	-10.1882
▁السنغال	-10.1882
▁المقاطعات	-10.1885
▁صحاب	-10.1885
▁2008	-10.1886
▁مليار	-10.1886
شوغون	-10.1887
OH	-10.1888
رائد	-10.1888
▁الشركة	-10.1889
أحذية	-10.1895
▁كوكب	-10.1903
▁برلين	-10.1904
عمرو	-10.1924
▁حلب	-10.1925
نخفض	-10.1927
▁العلوي	-10.1953
لولايات	-10.1963
تجمعات	-10.1975
▁الويب	-10.1997
مهنة	-10.2003
▁بدوره	-10.2058
ائط	-10.2287
▁وغالبا	-10.2305
جسد	-10.2331
ميثولوجيا	-10.2353
▁الضوئي	-10.2353
▁أناشيد	-10.2353
▁العظمى	-10.2353
▁1965	-10.2353
▁برنارد	-10.2353
مفعول	-10.2353
▁السواحل	-10.2353
سايتاما	-10.2354
▁إرنست	-10.2354
▁البرلمان	-10.2354
▁بولندا	-10.2354
▁يؤدي	-10.2354
▁المسلمون	-10.2354
▁تامزا	-10.2354
▁مخطط	-10.2355
توحيد	-10.2355
▁تقدير	-10.2355
▁الشيء	-10.2356
مستويات	-10.2356
▁تعيين	-10.2356
▁الأيوبي	-10.2356
رائحة	-10.2357
▁الشيعة	-10.2357
▁كيدال	-10.2357
▁ملاحظة	-10.2357
▁مدريد	-10.2357
تكاثر	-10.2357
▁الشرعي	-10.236
زعيم	-10.2361
▁السويس	-10.2362
تسارع	-10.2363
▁قيام	-10.2364
حدوث	-10.2365
سيطرة	-10.2369
▁الميكانيك	-10.238
▁الجانب	-10.2385
يًّا	-10.2387
دلالة	-10.2396
لتحديد	-10.2406
تدفق	-10.2416
لتحرير	-10.2425
معارك	-10.2426
حصان	-10.2446
نحدر	-10.2461
ملحن	-10.2527
▁بريطاني	-10.2539
نزع	-10.2544
▁رياضياتي	-10.2555
▁سماه	-10.2568
▁اللج	-10.2583
الصوف	-10.2591
عياد	-10.2601
عزيز	-10.2646
all	-10.2652
▁إيطالي	-10.2761
K	-10.2813
ترجع	-10.283
efef	-10.2853
×	-10.2853
▁الأكتينيوم	-10.2853
▁الإسكندرية	-10.2853
▁بثلاث	-10.2853
▁رمضان	-10.2853
▁اختبار	-10.2853
▁قشتالة	-10.2853
▁مخترع	-10.2853
▁النظائر	-10.2853
يوتابايت	-10.2853
▁الأحداث	-10.2853
▁المشهور	-10.2853
▁فيلهلم	-10.2853
▁ناغانو	-10.2853
▁الإصدار	-10.2853
تكاملات	-10.2853
▁1993	-10.2853
▁السوفيتي	-10.2853
ظواهر	-10.2853
▁انقلاب	-10.2853
▁الإعلام	-10.2853
▁بوركينا	-10.2854
▁تيودور	-10.2854
▁الثقيل	-10.2854
▁البنزين	-10.2854
▁ألقاب	-10.2854
▁التحليل	-10.2854
▁أتباع	-10.2854
▁الكونغو	-10.2855
▁كانساي	-10.2855
▁الأربعة	-10.2855
▁وجنوب	-10.2855
▁تشوبو	-10.2855
▁وكاتب	-10.2855
▁الإيمان	-10.2856
▁الثانوي	-10.2856
▁الوقود	-10.2856
▁قطاع	-10.2856
تحالف	-10.2857
▁سهيل	-10.2858
▁حلقة	-10.2859
لتطوير	-10.2859
▁سيناء	-10.2859
▁سريع	-10.286
▁أصدر	-10.286
▁البورق	-10.2862
هيليوم	-10.2862
ختصر	-10.2863
أحكام	-10.2864
تقاليد	-10.2865
تجربة	-10.2873
▁فلور	-10.2874
▁بصفة	-10.2875
▁يسكن	-10.2876
▁حياة	-10.2876
شموع	-10.2889
ملاحظات	-10.2889
رماح	-10.2896
▁بوذي	-10.2898
تصرف	-10.2902
طقس	-10.2933
الكامل	-10.2943
عارف	-10.2955
عزف	-10.2969
حامل	-10.2986
▁ونظرا	-10.3075
استثناء	-10.31
جداول	-10.3143
▁تعليم	-10.3166
نشيد	-10.3195
قاعد	-10.3209
▁التقليد	-10.3262
→	-10.3379
▁بطليموس	-10.3379
▁مايكروسوفت	-10.3379
区	-10.3379
▁البلطيق	-10.338
▁مستوطن	-10.338
سلوفاكي	-10.338
▁فوكوكا	-10.338
▁تعالى	-10.338
▁تقويم	-10.338
▁انفجار	-10.338
▁الأربعاء	-10.338
▁ضريح	-10.338
▁مكعب	-10.338
كاتدرائي	-10.338
▁ديزني	-10.338
▁ملايين	-10.338
▁الخضراء	-10.338
▁النعامة	-10.338
▁ببعض	-10.3381
▁بقياد	-10.3381
▁الكتلة	-10.3382
▁السنوات	-10.3383
▁النقدية	-10.3383
▁الصحاب	-10.3384
▁عمودي	-10.3385
▁تخرج	-10.3385
▁الحكومية	-10.3386
▁منتجات	-10.3387
مشاكل	-10.3388
▁البناء	-10.339
حدائق	-10.3391
▁طبية	-10.3392
أجسام	-10.3392
ضلع	-10.3392
توافق	-10.3396
▁العالية	-10.3396
أسلوب	-10.3397
علامات	-10.3404
تغطي	-10.3406
▁الوزن	-10.3407
أسواق	-10.3409
إله	-10.3416
أشياء	-10.3417
▁ولقد	-10.3419
تغذ	-10.3426
فخرية	-10.3436
▁أوروبي	-10.3442
عاقب	-10.3445
سهول	-10.346
عطى	-10.3471
لأنها	-10.3563
محكمة	-10.3594
اصب	-10.3674
ممارس	-10.3738
القضاء	-10.3835
▁أحيانا	-10.3885
http	-10.3935
أذربيجان	-10.3935
ماساتشوستس	-10.3935
▁الاشتراكي	-10.3935
▁هيروشيما	-10.3935
\	-10.3935
▁إستونيا	-10.3935
▁الهالوجين	-10.3935
المحاصيل	-10.3935
▁الظاهر	-10.3935
افتتاح	-10.3935
▁طروادة	-10.3935
▁زراعية	-10.3935
اهتمام	-10.3935
اغتيال	-10.3935
برتغالية	-10.3935
نيويورك	-10.3935
▁نيكولا	-10.3935
تأكيد	-10.3935
▁إصدار	-10.3935
://	-10.3935
الإشعاع	-10.3936
إستونية	-10.3936
▁الشركات	-10.3936
▁الأنهار	-10.3936
▁الوهاب	-10.3937
▁النحاس	-10.3937
▁لودفي	-10.3937
▁الجسيمات	-10.3938
▁وشمال	-10.3938
▁صامت	-10.3939
▁تشيبا	-10.3939
▁الأورال	-10.3939
▁الحيوية	-10.3939
▁القلوية	-10.394
أستاذ	-10.394
▁كريستي	-10.3941
▁ثبات	-10.3942
أحماض	-10.3942
دعوة	-10.3943
أساليب	-10.3943
▁موطن	-10.3943
▁الجماع	-10.3943
▁سبأ	-10.3945
شروط	-10.3946
▁القادر	-10.3948
▁ناتج	-10.395
أسماك	-10.3954
فرنسا	-10.396
▁السماو	-10.3963
▁الذاتي	-10.3963
زرع	-10.3973
أنصار	-10.3975
ستقطب	-10.3978
▁عموم	-10.3979
تنمية	-10.3995
إلى	-10.4001
حذف	-10.4001
أغنية	-10.4028
أحياناً	-10.4051
تفرع	-10.4057
مرافق	-10.4067
تقريب	-10.4084
تعبر	-10.4153
▁الديمقراطي	-10.425
لأرض	-10.4326
▁المقابل	-10.4334
▁الاتصال	-10.4352
انتهاء	-10.4356
عنوان	-10.4412
لسكان	-10.4414
▁ميكانيك	-10.4437
Phoenix	-10.4523
▁استحداث	-10.4523
▁اصطناعي	-10.4523
▁ميخائيل	-10.4523
▁نموذج	-10.4523
color	-10.4523
ʾ	-10.4523
▁فرديناند	-10.4523
▁كاناغاوا	-10.4523
▁المجاورة	-10.4523
مسؤولية	-10.4523
▁التخزين	-10.4523
▁الجاهلي	-10.4524
▁تقديم	-10.4524
▁كالتالي	-10.4524
▁اتحاد	-10.4524
▁سكسوني	-10.4524
▁المكسيك	-10.4524
▁والجنوب	-10.4524
▁بالعربية	-10.4524
▁رخص	-10.4524
اندماج	-10.4525
الرموز	-10.4525
لتنفيذ	-10.4525
▁أنشئ	-10.4525
▁العلامة	-10.4526
جذور	-10.4536
▁سوداني	-10.4536
توقيت	-10.4537
أوكتان	-10.4543
▁هاينري	-10.4546
أمهرية	-10.4549
▁wi	-10.4549
الأماكن	-10.4558
▁سويدي	-10.4574
اكتشاف	-10.4582
خميس	-10.4584
لأخلاق	-10.4584
َلَ	-10.4584
عقب	-10.4622
عزل	-10.4637
طبعة	-10.4687
,000,000,000,000	-10.4787
أحرف	-10.4803
▁متسلسل	-10.4832
ect	-10.4854
▁وبقي	-10.4864
▁موسيقي	-10.4935
▁الإيطالي	-10.4939
nst	-10.5009
المنصور	-10.5018
▁توهوكو	-10.5148
q	-10.5705
ō	-10.5815
−	-10.6529
ü	-10.6529
ھ	-10.6529
大	-10.7298
י	-10.7298
?	-10.8132
á	-10.8132
٪	-10.8132
←	-10.8132
ó	-10.9041
ڤ	-10.9041
ł	-10.9041
∞	-10.9041
ę	-10.9041
ο	-10.9041
α	-10.9041
í	-11.0033
١	-11.0041
а	-11.0041
ٰ	-11.0041
≤	-11.0041
東	-11.0041
‌	-11.0041
—	-11.0041
ו	-11.0041
ū	-11.1152
田	-11.1152
国	-11.1152
$	-11.2402
中	-11.2402
平	-11.2402
ש	-11.2402
μ	-11.2402
ν	-11.3831
ς	-11.3831
к	-11.3831
א	-11.3831
區	-11.3831
神	-11.3831
à	-11.3831
信	-11.3831
ε	-11.3831
ת	-11.3831
#	-11.5453
་	-11.5497
ñ	-11.5497
館	-11.5497
&	-11.5497
σ	-11.5497
寺	-11.5497
長	-11.5497
у	-11.5497
ö	-11.5497
η	-11.5497
[	-11.6932
ா	-11.7497
٩	-11.7497
ß	-11.7497
ī	-11.7497
ー	-11.7497
天	-11.7497
和	-11.7497
武	-11.7497
江	-11.7497
·	-11.7497
ܡ	-11.7497
⟩	-11.7497
南	-11.7497
ç	-11.7497
ě	-11.7497
ā	-11.7497
Σ	-11.7497
λ	-11.7497
’	-11.7497
É	-11.7497
π	-11.7497
ד	-11.7497
்	-11.9997
ர	-11.9997
க	-11.9997
安	-11.9997
書	-11.9997
氏	-11.9997
“	-11.9997
イ	-11.9997
物	-11.9997
ą	-11.9997
β	-11.9997
δ	-11.9997
τ	-11.9997
р	-11.9997
ה	-11.9997
”	-11.9997
≥	-11.9997
代	-11.9997
康	-11.9997
新	-11.9997
西	-11.9997
﴾	-11.9997
﴿	-11.9997
~	-11.9997
川	-11.9997
道	-11.9997
ż	-11.9997
ק	-11.9997
原	-11.9997
С	-11.9997
藤	-11.9997
ט	-11.9997
о	-11.9997
ú	-12.3331
摂	-12.3331
皇	-12.3331
語	-12.3331
č	-12.3331
ι	-12.3331
ּ	-12.3331
פ	-12.3331
ܟ	-12.3331
ܢ	-12.3331
ད	-12.3331
‡	-12.3331
√	-12.3331
ん	-12.3331
ア	-12.3331
光	-12.3331
北	-12.3331
县	-12.3331
子	-12.3331
将	-12.3331
山	-12.3331
政	-12.3331
方	-12.3331
杉	-12.3331
河	-12.3331
法	-12.3331
町	-12.3331
縣	-12.3331
Ω	-12.3331
θ	-12.3331
タ	-12.3331
島	-12.3331
照	-12.3331
γ	-12.3331
и	-12.3331
м	-12.3331
н	-12.3331
ї	-12.3331
阪	-12.3331
時	-12.3331
κ	-12.3331
ִ	-12.3331
в	-12.3331
འ	-12.833
ི	-12.833
ு	-12.833
ས	-12.833
த	-12.833
ந	-12.833
ி	-12.833
@	-12.8331
ப	-12.8331
式	-12.8331
家	-12.8331
州	-12.8331
戸	-12.8331
白	-12.8331
茶	-12.8331
阳	-12.8331
^	-12.8331
÷	-12.8331
ǎ	-12.8331
έ	-12.8331
й	-12.8331
٢	-12.8331
ژ	-12.8331
ܝ	-12.8331
ܣ	-12.8331
ܤ	-12.8331
ܪ	-12.8331
མ	-12.8331
ལ	-12.8331
ེ	-12.8331
ሷ	-12.8331
ὰ	-12.8331
≠	-12.8331
ⵡ	-12.8331
ヌ	-12.8331
ブ	-12.8331
东	-12.8331
人	-12.8331
吉	-12.8331
宮	-12.8331
文	-12.8331
景	-12.8331
民	-12.8331
洪	-12.8331
淮	-12.8331
玄	-12.8331
紫	-12.8331
織	-12.8331
謙	-12.8331
部	-12.8331
関	-12.8331
陵	-12.8331
ב	-12.8331
豊	-12.8331
́	-12.8331
ά	-12.8331
ρ	-12.8331
К	-12.8331
ַ	-12.8331
ۈ	-12.8331
・	-12.8331
地	-12.8331
カ	-12.8331
ྲ	-12.8331
野	-13.8266
軍	-13.8267
肥	-13.8268
生	-13.8269
沈	-13.827
日	-13.8271
弥	-13.8272
库	-13.8273
屋	-13.8274
姑	-13.8275
四	-13.8276
名	-13.8277
合	-13.8278
仮	-13.8279
久	-13.828
上	-13.8281
ャ	-13.8282
ニ	-13.8283
ク	-13.8284
₭	-13.8285
አ	-13.8286
ய	-13.8287
ܩ	-13.8288
ܚ	-13.8289
ܙ	-13.829
ܘ	-13.8291
ܗ	-13.8292
ܕ	-13.8293
ܓ	-13.8294
ܐ	-13.8295
۝	-13.8296
٦	-13.8297
ٔ	-13.8298
ס	-13.8299
מ	-13.83
Я	-13.8301
У	-13.8302
Р	-13.8303
М	-13.8304
Б	-13.8305
Τ	-13.8306
Π	-13.8307
Κ	-13.8308
Θ	-13.8309
Α	-13.831
ô	-13.8311
ò	-13.8312
Ü	-13.8313
源	-13.8314
‍	-13.8315
ܒ	-13.8316
נ	-13.8317
כ	-13.8318
Ж	-13.8319
Δ	-13.832
ь	-13.8321
ί	-13.8322
⟨	-13.8323
•	-13.8324
ڨ	-13.8325
چ	-13.8326
с	-13.8327
٨	-13.8328
צ	-13.8329
ཇ	-13.833
ག	-13.833
⁄	-13.833
٥	-13.833
ங	-13.833
ட	-13.833
ண	-13.833
ம	-13.833
Î	-13.833
Ā	-13.833
ē	-13.833
š	-13.833
幕	-13.833
楷	-13.833
草	-13.833
行	-13.833
門	-13.833
Ö	-13.8331
Ø	-13.8331
ħ	-13.8331
ˁ	-13.8331
ˑ	-13.8331
״	-13.8331
亳	-13.8331
俳	-13.8331
六	-13.8331
勝	-13.8331
太	-13.8331
央	-13.8331
奈	-13.8331
岡	-13.8331
德	-13.8331
我	-13.8331
抹	-13.8331
振	-13.8331
施	-13.8331
石	-13.8331
福	-13.8331
等	-13.8331
義	-13.8331
聖	-13.8331
蘇	-13.8331
財	-13.8331
輝	-13.8331
銀	-13.8331
阜	-13.8331
馬	-13.8331
¥	-13.8331
Å	-13.8331
ð	-13.8331
ù	-13.8331
ć	-13.8331
ğ	-13.8331
ı	-13.8331
ń	-13.8331
ŋ	-13.8331
ź	-13.8331
ɣ	-13.8331
ʦ	-13.8331
̃	-13.8331
Β	-13.8331
Γ	-13.8331
Ε	-13.8331
Ζ	-13.8331
Η	-13.8331
Ι	-13.8331
Λ	-13.8331
Μ	-13.8331
Ν	-13.8331
Ξ	-13.8331
Ο	-13.8331
Ρ	-13.8331
Υ	-13.8331
Φ	-13.8331
Χ	-13.8331
Ψ	-13.8331
υ	-13.8331
ύ	-13.8331
Є	-13.8331
І	-13.8331
Ї	-13.8331
Љ	-13.8331
Њ	-13.8331
Ћ	-13.8331
Џ	-13.8331
А	-13.8331
В	-13.8331
Г	-13.8331
Д	-13.8331
Е	-13.8331
З	-13.8331
И	-13.8331
Й	-13.8331
Л	-13.8331
Н	-13.8331
О	-13.8331
П	-13.8331
Т	-13.8331
Ф	-13.8331
Х	-13.8331
Ц	-13.8331
Ч	-13.8331
Ш	-13.8331
Щ	-13.8331
Ъ	-13.8331
Ы	-13.8331
Ь	-13.8331
Ю	-13.8331
л	-13.8331
т	-13.8331
ы	-13.8331
Ґ	-13.8331
қ	-13.8331
ң	-13.8331
ү	-13.8331
ө	-13.8331
ְ	-13.8331
ָ	-13.8331
ז	-13.8331
ח	-13.8331
ך	-13.8331
ל	-13.8331
ם	-13.8331
ן	-13.8331
ע	-13.8331
ץ	-13.8331
ר	-13.8331
٤	-13.8331
٧	-13.8331
٫	-13.8331
٬	-13.8331
ٹ	-13.8331
ڈ	-13.8331
۔	-13.8331
ە	-13.8331
۱	-13.8331
ܛ	-13.8331
ܠ	-13.8331
ܥ	-13.8331
ܦ	-13.8331
ܨ	-13.8331
ܫ	-13.8331
ܬ	-13.8331
ச	-13.8331
ප	-13.8331
ය	-13.8331
ර	-13.8331
ල	-13.8331
්	-13.8331
ි	-13.8331
ු	-13.8331
ບ	-13.8331
།	-13.8331
ཀ	-13.8331
ང	-13.8331
ན	-13.8331
ཟ	-13.8331
ར	-13.8331
ུ	-13.8331
ོ	-13.8331
ᄀ	-13.8331
ᄁ	-13.8331
ᄂ	-13.8331
ᄃ	-13.8331
ᄄ	-13.8331
ᄅ	-13.8331
ᄆ	-13.8331
ᄇ	-13.8331
ᄈ	-13.8331
ᄉ	-13.8331
ᄊ	-13.8331
ᄋ	-13.8331
ᄌ	-13.8331
ᄍ	-13.8331
ᄎ	-13.8331
ᄏ	-13.8331
ᄐ	-13.8331
ᄑ	-13.8331
ᄒ	-13.8331
ᅡ	-13.8331
ᅢ	-13.8331
ᅣ	-13.8331
ᅤ	-13.8331
ᅥ	-13.8331
ᅦ	-13.8331
ᅧ	-13.8331
ᅨ	-13.8331
ᅩ	-13.8331
ᅪ	-13.8331
ᅫ	-13.8331
ᅬ	-13.8331
ᅭ	-13.8331
ᅮ	-13.8331
ᅯ	-13.8331
ᅰ	-13.8331
ᅱ	-13.8331
ᅲ	-13.8331
ᅳ	-13.8331
ᅴ	-13.8331
ᅵ	-13.8331
ል	-13.8331
ኛ	-13.8331
ደ	-13.8331
ዳ	-13.8331
ጊ	-13.8331
ፊ	-13.8331
Ṣ	-13.8331
ἰ	-13.8331
ῆ	-13.8331
₮	-13.8331
↔	-13.8331
≈	-13.8331
≡	-13.8331
ⴳ	-13.8331
ⴽ	-13.8331
か	-13.8331
が	-13.8331
し	-13.8331
せ	-13.8331
ば	-13.8331
び	-13.8331
ぶ	-13.8331
べ	-13.8331
ぼ	-13.8331
ド	-13.8331
ナ	-13.8331
バ	-13.8331
ビ	-13.8331
プ	-13.8331
ベ	-13.8331
ボ	-13.8331
ム	-13.8331
ラ	-13.8331
ㄅ	-13.8331
ㄆ	-13.8331
ㄇ	-13.8331
ㄈ	-13.8331
ㄉ	-13.8331
ㄊ	-13.8331
ㄋ	-13.8331
ㄌ	-13.8331
ㄍ	-13.8331
ㄎ	-13.8331
ㄏ	-13.8331
ㄐ	-13.8331
ㄑ	-13.8331
ㄒ	-13.8331
ㄓ	-13.8331
ㄔ	-13.8331
ㄕ	-13.8331
ㄖ	-13.8331
ㄗ	-13.8331
ㄘ	-13.8331
ㄙ	-13.8331
ㄚ	-13.8331
ㄛ	-13.8331
ㄜ	-13.8331
ㄝ	-13.8331
ㄞ	-13.8331
ㄟ	-13.8331
ㄠ	-13.8331
ㄡ	-13.8331
ㄢ	-13.8331
ㄣ	-13.8331
ㄤ	-13.8331
ㄥ	-13.8331
ㄦ	-13.8331
ㄧ	-13.8331
ㄨ	-13.8331
ㄩ	-13.8331
下	-13.8331
与	-13.8331
二	-13.8331
于	-13.8331
京	-13.8331
仁	-13.8331
倉	-13.8331
共	-13.8331
別	-13.8331
利	-13.8331
华	-13.8331
厚	-13.8331
口	-13.8331
句	-13.8331
君	-13.8331
圣	-13.8331
场	-13.8331
基	-13.8331
場	-13.8331
墨	-13.8331
士	-13.8331
宝	-13.8331
室	-13.8331
富	-13.8331
小	-13.8331
尾	-13.8331
居	-13.8331
崎	-13.8331
幌	-13.8331
幹	-13.8331
广	-13.8331
府	-13.8331
廣	-13.8331
征	-13.8331
徳	-13.8331
徽	-13.8331
応	-13.8331
怀	-13.8331
慶	-13.8331
成	-13.8331
手	-13.8331
扬	-13.8331
料	-13.8331
於	-13.8331
曳	-13.8331
月	-13.8331
木	-13.8331
本	-13.8331
札	-13.8331
村	-13.8331
条	-13.8331
林	-13.8331
枚	-13.8331
森	-13.8331
楊	-13.8331
楽	-13.8331
榮	-13.8331
橋	-13.8331
毛	-13.8331
洋	-13.8331
清	-13.8331
湖	-13.8331
澤	-13.8331
濃	-13.8331
瀋	-13.8331
災	-13.8331
為	-13.8331
爆	-13.8331
王	-13.8331
省	-13.8331
社	-13.8331
秀	-13.8331
秋	-13.8331
稲	-13.8331
箏	-13.8331
線	-13.8331
羽	-13.8331
而	-13.8331
臣	-13.8331
舟	-13.8331
良	-13.8331
芜	-13.8331
苏	-13.8331
蕪	-13.8331
虎	-13.8331
謝	-13.8331
足	-13.8331
辽	-13.8331
近	-13.8331
连	-13.8331
遠	-13.8331
遼	-13.8331
金	-13.8331
鎌	-13.8331
鐘	-13.8331
鐵	-13.8331
铁	-13.8331
閣	-13.8331
閥	-13.8331
门	-13.8331
雪	-13.8331
震	-13.8331
青	-13.8331
頼	-13.8331
風	-13.8331
鳥	-13.8331
麻	-13.8331
黑	-13.8331
齐	-13.8331
龍	-13.8331
𐡇	-13.8331
𐢊	-13.8331
𐤇	-13.8331
ڢ	-13.8331
ٱ	-13.8331
ກ	-13.8331
ີ	-13.8331
ἑ	-13.8331
ἤ	-13.8331
九	-13.8331
井	-13.8331
表	-13.8331
資	-13.8331
鲁	-13.8331
д	-13.8331
х	-13.8331
і	-13.8331
ூ	-13.8331
ማ	-13.8331
ር	-13.8331
ቡ	-13.8331
の	-13.8331
乌	-13.8331
厳	-13.8331
夷	-13.8331
戦	-13.8331
淡	-13.8331
片	-13.8331
路	-13.8331
隆	-13.8331
־	-13.8331
ײ	-13.8331
٠	-13.8331
٣	-13.8331
⟶	-13.8331
è	-13.8331
ཕ	-13.8331
