<unk>	0
<s>	0
</s>	0
s	-3.04035
▁the	-3.32481
▁	-3.42297
▁,	-3.44908
ed	-3.76193
▁.	-3.80079
▁of	-4.02101
▁and	-4.15543
▁a	-4.18613
▁in	-4.31275
▁to	-4.36554
y	-4.38019
ing	-4.45492
e	-4.50533
▁=	-4.73192
▁"	-4.74991
d	-4.95447
m	-4.96285
@	-4.96322
▁@	-5.03059
t	-5.07136
▁was	-5.08879
ly	-5.10937
▁The	-5.14786
-	-5.15399
▁'	-5.23201
▁on	-5.34397
▁for	-5.38157
▁with	-5.39586
n	-5.40659
▁that	-5.43189
al	-5.47067
▁be	-5.50444
o	-5.52921
▁as	-5.60479
▁is	-5.60734
er	-5.61749
(	-5.63496
▁)	-5.63496
▁by	-5.65204
en	-5.71427
.	-5.71867
es	-5.76327
r	-5.85579
▁his	-5.94107
▁at	-5.94658
▁fro	-5.94673
a	-5.94964
u	-5.96979
i	-5.99258
l	-6.01386
ion	-6.02852
were	-6.0558
c	-6.05819
▁A	-6.06179
on	-6.14339
▁it	-6.16079
▁he	-6.1634
in	-6.20049
▁In	-6.20443
▁an	-6.21958
▁S	-6.23618
p	-6.24026
th	-6.24564
had	-6.31298
▁which	-6.3402
or	-6.34262
▁;	-6.42
le	-6.44126
g	-6.45782
an	-6.4597
ic	-6.4725
it	-6.495
▁F	-6.50934
st	-6.51438
▁not	-6.52481
▁her	-6.52971
▁are	-6.53277
▁C	-6.55009
–	-6.56489
ies	-6.57883
▁I	-6.613
ch	-6.62527
us	-6.62613
f	-6.63843
ar	-6.64151
ish	-6.64398
ur	-6.67011
h	-6.67743
k	-6.68039
▁B	-6.68237
lso	-6.69509
▁f	-6.70484
▁or	-6.71928
ce	-6.72338
▁has	-6.74263
is	-6.74391
▁their	-6.74403
ation	-6.74495
▁R	-6.75408
▁de	-6.76993
▁He	-6.79944
▁who	-6.80519
2	-6.80669
▁:	-6.80798
b	-6.81865
1	-6.81945
4	-6.83734
▁but	-6.83856
▁re	-6.8445
▁first	-6.85113
at	-6.86926
▁one	-6.87726
two	-6.87734
3	-6.89061
▁have	-6.91727
ment	-6.92195
this	-6.93038
ra	-6.93921
▁m	-6.97767
▁G	-6.99144
▁M	-6.99595
▁its	-7.00085
▁P	-7.00546
ity	-7.00665
▁@,@	-7.0085
▁after	-7.01408
▁other	-7.0297
z	-7.03217
▁J	-7.04239
ive	-7.04801
▁year	-7.04957
▁p	-7.05193
land	-7.05311
9	-7.05349
▁she	-7.05702
ers	-7.06197
5	-7.07869
v	-7.09294
re	-7.09471
w	-7.11345
se	-7.11704
6	-7.12104
el	-7.12693
ary	-7.13066
▁1	-7.13707
▁It	-7.13787
uch	-7.15106
▁all	-7.16481
mber	-7.16789
ve	-7.17319
▁time	-7.17381
▁D	-7.17567
▁over	-7.17993
il	-7.18545
la	-7.19064
▁W	-7.20106
able	-7.20144
▁E	-7.20873
▁4	-7.21123
ri	-7.21209
▁K	-7.2153
▁play	-7.22437
▁5	-7.23477
id	-7.23563
▁up	-7.26712
▁into	-7.26931
▁un	-7.26966
▁c	-7.27438
▁more	-7.28185
est	-7.28294
ir	-7.28959
ne	-7.29238
▁most	-7.29711
0	-7.29967
▁T	-7.30859
8	-7.31088
▁him	-7.32196
un	-7.32515
▁man	-7.33058
ant	-7.33233
▁under	-7.33506
▁H	-7.33584
▁b	-7.3368
▁w	-7.34051
li	-7.34966
et	-7.3514
▁out	-7.35842
▁h	-7.35881
▁On	-7.36099
ol	-7.36698
▁St	-7.37257
▁2	-7.37268
ia	-7.37913
ist	-7.37993
during	-7.38376
▁200	-7.38432
ent	-7.39463
ver	-7.39731
▁would	-7.40158
▁game	-7.41852
x	-7.42397
7	-7.43249
▁ship	-7.44264
▁name	-7.44338
▁6	-7.4449
▁new	-7.44546
▁part	-7.45041
▁album	-7.45293
ween	-7.45299
▁season	-7.45558
▁work	-7.4584
ul	-7.46501
bout	-7.46608
▁some	-7.46809
ter	-7.47435
ro	-7.47642
▁film	-7.50444
▁V	-7.50482
ge	-7.50701
▁when	-7.51054
▁Brit	-7.51392
▁three	-7.51773
na	-7.51903
ian	-7.52785
▁again	-7.52851
▁end	-7.52969
▁no	-7.53099
▁than	-7.53232
man	-7.53554
ate	-7.54195
▁through	-7.54486
ry	-7.54783
▁O	-7.54887
▁later	-7.55715
out	-7.56442
▁bet	-7.57407
▁She	-7.57511
▁8	-7.57661
sh	-7.57975
▁so	-7.58217
▁L	-7.58282
end	-7.59462
▁cit	-7.60226
ta	-7.60251
lo	-7.6044
▁number	-7.60729
te	-7.61482
▁whil	-7.62506
um	-7.62668
am	-7.63087
and	-7.63593
▁3	-7.63859
op	-7.64107
▁record	-7.64657
▁co	-7.64734
▁Re	-7.65036
ok	-7.65101
▁large	-7.65222
▁g	-7.65317
▁war	-7.65406
▁state	-7.65803
▁four	-7.65836
▁New	-7.65909
made	-7.66365
▁9	-7.66913
gan	-7.6709
▁000	-7.6741
age	-7.67422
▁us	-7.67765
▁201	-7.68151
▁U	-7.68314
son	-7.68502
▁Al	-7.68704
ang	-7.69728
▁Ire	-7.69875
▁can	-7.69972
▁10	-7.70475
▁where	-7.70539
▁Be	-7.70762
▁0	-7.71042
if	-7.71188
▁follow	-7.71216
S	-7.71327
ma	-7.7144
both	-7.7144
came	-7.71543
▁N	-7.71743
though	-7.7196
A	-7.72062
im	-7.72094
▁second	-7.72197
▁high	-7.72483
▁This	-7.72921
mp	-7.72964
▁being	-7.731
ical	-7.73328
▁st	-7.73519
tion	-7.73519
ie	-7.74323
cause	-7.74625
▁di	-7.74716
▁al	-7.75162
ha	-7.75177
▁th	-7.75193
way	-7.76366
▁team	-7.76562
▁United	-7.76904
▁Mar	-7.7779
as	-7.7835
ous	-7.78577
▁call	-7.78702
▁character	-7.79079
▁there	-7.79104
▁War	-7.79112
ine	-7.79342
▁John	-7.79343
▁form	-7.7974
▁show	-7.80054
ance	-7.8043
ac	-7.80473
▁Co	-7.81041
▁long	-7.81137
▁well	-7.81291
ad	-7.81739
om	-7.82319
▁German	-7.82569
▁An	-7.82887
known	-7.83146
▁Lo	-7.84276
▁remain	-7.84779
▁use	-7.84825
▁State	-7.84876
▁includ	-7.84968
▁before	-7.85226
ti	-7.85254
▁199	-7.85338
ose	-7.8541
▁e	-7.85518
▁god	-7.85522
ordan	-7.85852
ell	-7.86093
▁Me	-7.86505
▁day	-7.87751
▁7	-7.87789
▁pro	-7.88052
▁12	-7.88444
▁To	-7.88479
ated	-7.88764
▁De	-7.88839
▁song	-7.89485
▁Le	-7.89688
ther	-7.90173
bo	-7.90278
▁North	-7.90529
▁seri	-7.90673
C	-7.91731
to	-7.91766
▁11	-7.91968
▁pre	-7.92936
▁May	-7.92977
▁like	-7.9333
ton	-7.94359
▁sever	-7.9439
▁Mo	-7.95112
▁York	-7.95377
▁sp	-7.9554
self	-7.95838
ern	-7.95897
ite	-7.96121
▁main	-7.96359
ten	-7.96395
▁area	-7.9661
▁do	-7.96667
▁con	-7.96716
ty	-7.96802
▁Pol	-7.97219
▁ex	-7.97656
▁After	-7.97894
▁force	-7.98962
▁line	-7.99044
▁centur	-7.99177
▁As	-8.00468
▁could	-8.00474
▁found	-8.00518
ill	-8.00544
ig	-8.01751
—	-8.02232
pe	-8.02514
vi	-8.02821
▁sai	-8.03477
▁t	-8.03555
▁place	-8.03591
ak	-8.04432
▁br	-8.045
/	-8.04929
▁near	-8.04938
▁bas	-8.04986
▁sam	-8.05179
▁book	-8.05387
▁French	-8.05844
ph	-8.06055
▁20	-8.06251
▁ra	-8.06405
▁No	-8.06491
▁describ	-8.06782
▁Wheeler	-8.07233
▁return	-8.07233
ard	-8.07527
tra	-8.07668
▁Ca	-8.07708
▁receiv	-8.08172
▁life	-8.08653
▁order	-8.08767
▁Howe	-8.09087
▁music	-8.10023
▁Bo	-8.10069
iz	-8.10449
ll	-8.10678
all	-8.10985
▁For	-8.11135
round	-8.11286
▁any	-8.11651
▁them	-8.12006
▁people	-8.12007
▁Ha	-8.12069
▁off	-8.12329
▁17	-8.12408
▁earl	-8.12682
▁Ra	-8.13155
achel	-8.13165
ure	-8.13244
ab	-8.13579
▁All	-8.13954
▁World	-8.13982
ff	-8.14039
▁did	-8.14096
▁may	-8.14804
▁Ch	-8.15026
▁point	-8.15491
be	-8.15575
ities	-8.1561
▁Na	-8.16069
ever	-8.16078
▁18	-8.16401
ck	-8.16654
▁power	-8.17365
ren	-8.17535
▁design	-8.1754
▁each	-8.17612
▁original	-8.17817
ting	-8.17989
nother	-8.18163
$	-8.18575
é	-8.18575
▁Galveston	-8.19099
▁class	-8.19099
▁American	-8.1927
▁Ap	-8.19388
va	-8.19521
ud	-8.19521
▁support	-8.19625
▁White	-8.19662
ach	-8.20013
▁Wh	-8.20086
tic	-8.20245
▁lead	-8.20254
cy	-8.20706
▁small	-8.21222
▁dis	-8.2147
▁Z	-8.21826
co	-8.22012
ward	-8.22337
▁unti	-8.22387
▁mo	-8.22721
▁group	-8.22842
▁scor	-8.22847
▁along	-8.22889
▁home	-8.23391
▁site	-8.23621
ci	-8.23886
▁back	-8.23905
▁how	-8.24005
▁13	-8.2426
lin	-8.24273
▁15	-8.24484
▁Man	-8.24553
▁list	-8.24585
tein	-8.24634
ism	-8.24989
▁final	-8.2506
ba	-8.25133
ship	-8.25142
▁own	-8.25279
▁start	-8.25363
▁down	-8.26181
L	-8.26674
▁result	-8.26732
▁since	-8.26733
▁single	-8.26745
▁At	-8.26945
ster	-8.27038
ow	-8.27272
▁Pa	-8.27467
ho	-8.28017
▁player	-8.28428
▁sign	-8.28559
ight	-8.28812
▁buil	-8.29016
▁run	-8.29049
ril	-8.29155
▁30	-8.2936
▁16	-8.29462
pa	-8.29724
▁air	-8.29752
ca	-8.30037
▁Ba	-8.3035
▁consider	-8.30634
▁publish	-8.30779
▁Black	-8.30779
ner	-8.31342
▁government	-8.31396
I	-8.31508
▁Ma	-8.316
side	-8.31797
▁school	-8.31965
▁million	-8.31966
▁arm	-8.31975
der	-8.31981
ober	-8.32206
▁militar	-8.32564
▁Oct	-8.32568
▁Ro	-8.32799
▁per	-8.32956
▁Dur	-8.32977
ap	-8.33008
▁make	-8.33184
▁Con	-8.33561
▁direct	-8.34209
▁island	-8.34516
▁art	-8.34715
▁ga	-8.34956
▁famil	-8.34982
[	-8.34996
▁great	-8.35123
B	-8.35335
▁Arm	-8.35544
▁June	-8.35688
▁even	-8.35688
▁take	-8.3583
ven	-8.361
▁position	-8.36111
▁then	-8.36138
]	-8.36234
▁Septe	-8.36236
▁histor	-8.36337
M	-8.36719
▁six	-8.36729
▁human	-8.3686
▁La	-8.37433
▁August	-8.37488
▁Nove	-8.37598
▁II	-8.37777
▁Ju	-8.37781
no	-8.37812
ture	-8.3785
▁child	-8.38125
▁world	-8.38132
▁issue	-8.38295
pp	-8.38856
▁km	-8.38883
▁Ross	-8.39004
ect	-8.39211
nt	-8.39286
ircraft	-8.39399
▁inter	-8.39519
ally	-8.39798
ial	-8.40102
▁win	-8.40126
ball	-8.4035
▁episode	-8.40694
▁career	-8.40823
ke	-8.40952
▁191	-8.41955
▁specie	-8.42005
inkel	-8.4203
▁There	-8.42298
ness	-8.42633
ence	-8.43001
▁Church	-8.43334
▁release	-8.43364
▁will	-8.4344
ful	-8.43484
one	-8.43627
▁become	-8.43839
▁Towns	-8.43878
▁period	-8.44005
▁men	-8.44029
▁hand	-8.44174
▁Y	-8.44441
▁side	-8.44551
▁public	-8.44561
▁Jam	-8.44619
▁cr	-8.44623
▁construct	-8.44681
▁short	-8.44682
tor	-8.44701
▁you	-8.44741
▁last	-8.44887
▁19	-8.44908
▁produc	-8.44946
very	-8.45159
▁West	-8.45171
j	-8.45289
▁Nicole	-8.45362
▁building	-8.45371
▁...	-8.45475
▁Li	-8.45874
▁real	-8.4594
▁Fe	-8.4598
ka	-8.46108
ide	-8.46828
▁included	-8.46871
▁194	-8.47148
▁fire	-8.47165
N	-8.4739
▁Irish	-8.47433
▁what	-8.47797
▁l	-8.47819
min	-8.4789
▁close	-8.4802
▁review	-8.4813
▁left	-8.48133
▁operation	-8.48264
tro	-8.48378
▁releas	-8.49512
▁previous	-8.49543
▁title	-8.5026
ast	-8.50761
ub	-8.50932
▁Zho	-8.51045
field	-8.51371
▁mi	-8.51474
row	-8.51553
▁general	-8.51702
▁role	-8.51718
ga	-8.51743
▁Ne	-8.51923
▁plan	-8.52037
ld	-8.52342
▁Janu	-8.52434
ong	-8.5244
▁among	-8.52444
▁head	-8.52454
▁His	-8.52471
▁National	-8.52522
▁2010	-8.52589
▁often	-8.52867
▁move	-8.52978
▁go	-8.53096
▁South	-8.5317
▁Sarnia	-8.53171
▁25	-8.53222
less	-8.53273
rote	-8.53469
▁official	-8.53607
ise	-8.5374
▁wide	-8.53893
▁won	-8.53914
00	-8.53986
▁2007	-8.54095
▁open	-8.54255
▁due	-8.54474
▁perform	-8.54623
▁set	-8.54776
ning	-8.54779
▁reach	-8.54825
wa	-8.54892
▁2006	-8.54914
▁best	-8.5492
▁Her	-8.55065
▁14	-8.55117
▁critic	-8.55117
O	-8.55131
▁We	-8.55329
▁Count	-8.5541
▁help	-8.55411
▁ten	-8.55437
▁Car	-8.55577
▁turn	-8.56165
▁popular	-8.56168
▁person	-8.56199
▁Universit	-8.56347
▁po	-8.56362
▁right	-8.5637
▁now	-8.56389
D	-8.565
▁Sa	-8.56505
▁develop	-8.56826
▁attempt	-8.56926
▁week	-8.56927
▁local	-8.56927
▁2008	-8.57146
▁include	-8.57154
ick	-8.57195
▁en	-8.57201
R	-8.57545
▁appear	-8.57654
▁Fey	-8.57672
▁population	-8.57696
▁service	-8.57713
▁present	-8.57849
rang	-8.58345
▁197	-8.5847
▁According	-8.58471
▁Yue	-8.58478
ought	-8.58597
T	-8.58652
▁live	-8.58937
▁allow	-8.5895
▁la	-8.59002
▁Ta	-8.59043
hi	-8.59152
▁style	-8.59258
▁Dece	-8.59507
still	-8.59582
ium	-8.59714
▁major	-8.59762
K	-8.59893
▁system	-8.60039
▁particular	-8.6004
▁fleet	-8.60041
rea	-8.60048
▁195	-8.60069
▁base	-8.60085
▁2013	-8.60296
▁tri	-8.60694
que	-8.60833
▁train	-8.60847
▁gold	-8.6086
▁US	-8.60947
▁Te	-8.61009
▁free	-8.61022
▁Or	-8.61475
▁water	-8.61639
▁me	-8.61935
▁198	-8.62243
▁join	-8.62443
▁came	-8.62458
ign	-8.62684
▁feature	-8.62818
▁late	-8.63172
▁draw	-8.63253
▁Jack	-8.63278
▁damage	-8.63506
▁just	-8.63709
▁led	-8.63971
▁Se	-8.64149
▁Jo	-8.64271
ndon	-8.64722
▁old	-8.6473
▁50	-8.64782
▁represent	-8.64891
▁term	-8.65083
ches	-8.65231
den	-8.65243
▁way	-8.65416
▁establish	-8.65631
▁NB	-8.65794
br	-8.65837
▁ma	-8.6589
▁fee	-8.65932
up	-8.66071
▁south	-8.66531
▁project	-8.66572
▁third	-8.66574
▁month	-8.66577
▁With	-8.66672
ler	-8.66825
▁see	-8.66951
▁24	-8.66989
ling	-8.67123
▁offer	-8.67257
▁act	-8.67265
▁seven	-8.67356
than	-8.67527
olog	-8.67702
▁creat	-8.67829
day	-8.68028
▁suggest	-8.68274
▁increase	-8.68275
ator	-8.68579
▁23	-8.68675
by	-8.6876
▁continu	-8.68786
▁Di	-8.68925
▁involv	-8.69137
▁say	-8.69167
low	-8.69398
▁port	-8.6949
▁Do	-8.69522
▁land	-8.69601
val	-8.69627
▁writ	-8.69701
▁event	-8.7
▁half	-8.70008
▁few	-8.70013
com	-8.70096
▁Ka	-8.70099
▁success	-8.70861
▁General	-8.70883
▁attack	-8.70884
▁track	-8.70885
▁death	-8.70898
▁top	-8.70934
P	-8.71081
ier	-8.71251
▁young	-8.71772
▁writer	-8.72104
ze	-8.72224
▁should	-8.72661
line	-8.72906
▁different	-8.7303
▁Gu	-8.73087
▁mov	-8.73108
▁less	-8.73185
▁full	-8.73354
▁Christmas	-8.73562
▁relationship	-8.73562
▁sentence	-8.73577
▁performance	-8.73612
da	-8.73766
▁Po	-8.74229
han	-8.74421
▁north	-8.74433
stead	-8.74488
▁chart	-8.74503
▁action	-8.74746
▁control	-8.74811
▁post	-8.75036
ox	-8.75058
▁Ja	-8.75239
▁star	-8.75375
▁further	-8.75389
bru	-8.7546
▁former	-8.75511
▁east	-8.7566
ory	-8.7576
▁ft	-8.75788
▁level	-8.75796
▁21	-8.75842
ob	-8.75918
di	-8.76158
▁Nav	-8.76225
▁friend	-8.76315
▁influence	-8.76359
qui	-8.76528
rom	-8.77018
▁dollar	-8.77249
gr	-8.77267
▁eight	-8.77368
▁want	-8.77541
ov	-8.77667
ice	-8.77722
▁Command	-8.7779
ple	-8.78009
▁Roman	-8.7817
▁initial	-8.78197
ain	-8.78279
▁every	-8.78992
ble	-8.79101
▁Egyptian	-8.79168
▁196	-8.79191
ord	-8.7924
▁count	-8.79298
▁cover	-8.79339
spect	-8.7941
▁fl	-8.79483
▁Sho	-8.79703
▁similar	-8.80106
▁claim	-8.80107
▁story	-8.80152
ifi	-8.80168
▁Mi	-8.80361
▁range	-8.80424
ves	-8.80969
ber	-8.81026
▁League	-8.81077
▁strong	-8.81078
▁church	-8.81078
▁Kingdom	-8.81083
▁grow	-8.81157
▁hav	-8.81455
▁gun	-8.81481
▁total	-8.81636
▁fel	-8.81657
ron	-8.81662
port	-8.819
▁award	-8.819
▁kill	-8.82089
ford	-8.82587
▁members	-8.82797
▁locat	-8.82805
rac	-8.82822
ile	-8.82895
▁gra	-8.82903
▁Republic	-8.83048
▁common	-8.83048
▁novel	-8.83049
▁production	-8.83126
▁sub	-8.83267
▁writing	-8.83387
▁west	-8.83591
lor	-8.8402
▁unit	-8.84027
▁antimony	-8.84048
▁Jew	-8.84053
next	-8.84198
▁important	-8.8421
ret	-8.84497
bi	-8.84689
▁ti	-8.84789
ither	-8.84821
▁put	-8.84969
▁spac	-8.85008
á	-8.85058
▁various	-8.85076
▁light	-8.85109
▁English	-8.85145
▁Lock	-8.85188
given	-8.85237
▁need	-8.85448
▁Pro	-8.85524
mar	-8.85692
▁coin	-8.8575
▁pass	-8.86061
▁version	-8.8608
▁region	-8.86081
▁Royal	-8.86087
▁Haven	-8.86129
ley	-8.86247
ock	-8.86419
▁Su	-8.86512
ese	-8.86569
▁minute	-8.8711
▁appearance	-8.87165
ious	-8.873
▁sea	-8.87365
ago	-8.87506
▁Award	-8.87561
▁country	-8.87632
▁vi	-8.87819
▁So	-8.87918
H	-8.87968
▁Wa	-8.87987
▁Europe	-8.87992
▁Catholic	-8.88151
▁club	-8.88151
ham	-8.88163
▁case	-8.88174
abilit	-8.88185
▁national	-8.88426
▁stat	-8.88446
▁Cha	-8.88866
▁destroy	-8.88885
▁GA	-8.88931
▁language	-8.89203
ja	-8.89345
▁enter	-8.89403
▁stone	-8.89439
ank	-8.89527
part	-8.90022
▁100	-8.90041
▁we	-8.90149
▁battle	-8.90251
▁video	-8.90267
▁hour	-8.90277
▁successful	-8.90294
▁Mark	-8.90701
ag	-8.90727
gen	-8.90749
▁arriv	-8.91345
▁good	-8.91347
he	-8.91416
▁father	-8.91422
mark	-8.91489
▁reported	-8.91506
▁du	-8.91578
▁Ex	-8.91673
au	-8.92099
▁serv	-8.92158
▁type	-8.92223
ular	-8.92344
▁report	-8.92387
▁space	-8.92407
▁En	-8.92411
▁Cardinal	-8.9243
▁example	-8.9243
▁Some	-8.92533
▁castle	-8.92569
▁Ga	-8.9262
▁get	-8.92946
▁Tw	-8.92958
ev	-8.92985
▁complete	-8.93077
ft	-8.93326
ade	-8.93529
▁televis	-8.9353
▁fail	-8.9353
▁finish	-8.93531
▁save	-8.93535
▁camp	-8.93544
▁India	-8.93548
▁never	-8.93573
lay	-8.93659
▁wall	-8.93689
con	-8.94131
hind	-8.94307
held	-8.94639
▁AML	-8.9464
▁Great	-8.94701
tain	-8.94762
q	-8.95305
gg	-8.95335
▁leas	-8.95442
▁By	-8.95463
▁special	-8.95513
▁El	-8.95736
▁break	-8.95764
▁visit	-8.95772
▁Route	-8.95784
▁Island	-8.95807
thing	-8.96017
▁director	-8.9609
▁command	-8.96137
▁26	-8.96184
▁town	-8.96187
▁though	-8.96227
▁Jul	-8.96244
▁22	-8.96339
go	-8.96693
▁give	-8.96759
▁view	-8.96901
▁find	-8.96914
hiva	-8.96927
▁crew	-8.96955
▁Da	-8.96992
▁activit	-8.97005
▁186	-8.97081
▁Rock	-8.97089
kin	-8.97147
MS	-8.9719
poli	-8.97196
ground	-8.97418
▁times	-8.97498
▁caus	-8.97715
▁agree	-8.97722
▁earlie	-8.97978
▁archaeolog	-8.97984
▁Constantin	-8.98049
▁monument	-8.98049
▁Blue	-8.98049
▁limit	-8.98049
▁law	-8.98181
▁Air	-8.98184
▁love	-8.98206
▁Ru	-8.98221
▁arch	-8.98293
▁abo	-8.98301
▁28	-8.98404
▁Time	-8.98619
▁And	-8.9901
▁193	-8.99089
▁guns	-8.99137
ake	-8.99204
▁depict	-8.99212
▁interest	-8.99351
▁Earl	-8.99586
formation	-8.99628
▁nav	-8.99638
▁Go	-8.99664
▁change	-8.99687
▁read	-9.00059
▁Ar	-9.00074
▁consist	-9.00334
▁surviv	-9.00388
▁protect	-9.00406
▁significant	-9.00482
▁author	-9.00487
▁Song	-9.00713
▁low	-9.0096
▁tru	-9.01544
▁Ed	-9.0155
▁Port	-9.01555
’	-9.01579
▁Trujill	-9.01579
▁modern	-9.0158
▁source	-9.0158
▁accept	-9.01581
▁discover	-9.01581
▁engag	-9.01589
▁introduc	-9.0161
▁debut	-9.01615
▁Music	-9.01625
▁trade	-9.0164
▁rank	-9.01645
▁political	-9.018
ets	-9.01857
G	-9.0191
gi	-9.02232
und	-9.02261
▁word	-9.02308
▁God	-9.02327
went	-9.02381
▁Min	-9.02515
▁does	-9.02637
▁league	-9.02783
▁figure	-9.02784
▁white	-9.02784
▁rock	-9.02799
▁eventual	-9.02813
▁189	-9.0299
her	-9.02994
▁fight	-9.03051
▁deal	-9.03173
▁non	-9.03246
▁Whil	-9.03414
▁Tr	-9.03446
gar	-9.03929
&	-9.04003
▁female	-9.04003
▁cave	-9.04072
▁mix	-9.04204
▁artist	-9.04289
vin	-9.04331
▁27	-9.04336
▁San	-9.04351
iston	-9.04996
▁cut	-9.05025
▁professional	-9.05238
▁element	-9.05239
▁You	-9.0527
▁France	-9.05283
▁NH	-9.05292
io	-9.05331
▁187	-9.05382
▁40	-9.05449
▁Pre	-9.0545
ich	-9.05463
ado	-9.05488
▁Tri	-9.05598
▁X	-9.05598
▁Mu	-9.05617
▁continue	-9.05743
board	-9.05821
▁addition	-9.05873
▁Israel	-9.05918
ough	-9.05948
▁come	-9.06363
seen	-9.06376
▁rest	-9.06401
▁ground	-9.0644
▁individual	-9.06488
▁entire	-9.0649
▁Ni	-9.06673
▁31	-9.06978
▁Ke	-9.0713
▁mak	-9.07199
▁add	-9.07233
▁cap	-9.07377
ire	-9.0743
ound	-9.0744
▁Little	-9.07753
▁advantage	-9.07753
▁appoint	-9.07753
▁Soviet	-9.07753
▁standard	-9.07768
▁hold	-9.07854
▁188	-9.0792
▁member	-9.08208
▁Lad	-9.08338
▁Bu	-9.0842
▁Cre	-9.08629
ife	-9.08635
ible	-9.08665
▁Q	-9.08665
▁provide	-9.08757
▁my	-9.08828
▁Atlant	-9.09036
▁image	-9.09042
▁Pri	-9.09098
▁miles	-9.09118
▁exist	-9.09234
▁operat	-9.0929
▁age	-9.09294
▁band	-9.09331
▁tour	-9.09441
II	-9.09661
cent	-9.09805
▁damag	-9.0993
▁round	-9.10017
▁Hu	-9.10213
ual	-9.10263
▁Indian	-9.10327
▁research	-9.10334
▁observ	-9.10334
▁First	-9.10336
▁mother	-9.10427
▁Union	-9.10512
▁European	-9.10532
▁relat	-9.10552
▁Anders	-9.10565
ger	-9.10736
▁imp	-9.1087
▁replac	-9.10875
most	-9.11063
▁opening	-9.11081
▁thought	-9.1123
▁cast	-9.11402
layer	-9.11539
▁difficult	-9.1165
▁double	-9.1165
▁Christian	-9.1165
▁commercial	-9.1166
▁assign	-9.11685
▁argu	-9.11729
▁development	-9.11829
▁Art	-9.12015
▁house	-9.12262
▁Peter	-9.12306
▁Cit	-9.12393
town	-9.12427
▁communit	-9.12585
▁wor	-9.12796
▁effect	-9.12895
▁goal	-9.12911
▁School	-9.12984
▁storm	-9.12991
▁litt	-9.12991
▁boat	-9.12998
▁born	-9.13017
▁contain	-9.13027
▁cell	-9.13267
▁Park	-9.1328
istic	-9.13614
▁Th	-9.13833
▁station	-9.1384
▁sent	-9.13937
fer	-9.14046
▁anti	-9.14243
▁don	-9.14284
▁estimat	-9.14335
▁suffer	-9.14335
▁taking	-9.14337
▁culture	-9.14353
cient	-9.14538
ulf	-9.14702
▁toward	-9.14838
▁Sap	-9.15038
ington	-9.15059
▁featur	-9.15064
bor	-9.15214
▁match	-9.15235
▁America	-9.15256
▁comed	-9.15335
za	-9.15446
▁Squadron	-9.15705
▁William	-9.15705
▁Sea	-9.15706
▁connect	-9.15721
▁excavation	-9.15753
mate	-9.15759
▁loss	-9.15798
▁Love	-9.15843
truck	-9.15923
▁East	-9.15944
▁date	-9.16056
gue	-9.16454
▁Brita	-9.16523
ker	-9.16607
▁idea	-9.16612
▁Of	-9.16752
owing	-9.168
▁bar	-9.16805
cal	-9.16933
▁material	-9.17093
▁women	-9.17094
▁police	-9.17099
▁comment	-9.17102
tention	-9.17296
vil	-9.17415
▁officers	-9.17448
▁2015	-9.1747
▁provid	-9.17491
house	-9.18036
▁body	-9.18103
▁George	-9.18502
▁Friend	-9.18502
▁look	-9.1851
▁190	-9.18575
ski	-9.18579
▁Wilde	-9.18583
▁met	-9.18681
▁raid	-9.1875
mph	-9.18818
par	-9.18871
▁Lu	-9.18895
tri	-9.18913
▁test	-9.1892
▁prov	-9.19118
▁45	-9.19141
▁Hol	-9.19275
▁religio	-9.19483
▁King	-9.19742
▁Michael	-9.1993
▁employ	-9.1993
▁pilot	-9.1993
▁defend	-9.19931
▁social	-9.19931
▁study	-9.19932
▁improv	-9.19932
▁Gold	-9.19991
▁coast	-9.20026
▁Tra	-9.20044
▁Bull	-9.2007
▁Force	-9.20324
▁earn	-9.20514
read	-9.2053
ju	-9.20733
▁Dr	-9.20792
let	-9.20919
W	-9.21023
▁corn	-9.21041
▁dat	-9.21255
▁Canada	-9.2138
▁Wood	-9.2138
▁Texa	-9.21381
▁refus	-9.21382
▁possibl	-9.21383
▁horse	-9.21384
▁select	-9.21388
▁River	-9.21396
wn	-9.21412
▁Western	-9.2146
▁Sp	-9.21617
▁Bri	-9.21751
▁2005	-9.21909
▁fift	-9.21972
ety	-9.21987
▁captur	-9.22037
▁Har	-9.22184
ix	-9.22603
▁scene	-9.22853
▁prais	-9.22854
▁attend	-9.22867
▁sometime	-9.22908
▁retir	-9.22917
across	-9.22928
▁carri	-9.22941
▁Cole	-9.23049
▁Other	-9.23059
▁son	-9.23177
▁trans	-9.23423
▁Han	-9.23461
▁sw	-9.23611
time	-9.23716
taken	-9.23742
▁experience	-9.24343
▁central	-9.24343
▁defeat	-9.24343
▁remov	-9.24345
▁propos	-9.24345
▁shot	-9.24346
▁mean	-9.24422
etic	-9.24462
▁wind	-9.24472
▁sl	-9.24618
▁Sh	-9.24654
aught	-9.24809
▁field	-9.25049
▁car	-9.25519
▁producer	-9.25613
▁recording	-9.25626
car	-9.25662
▁ask	-9.25753
▁approach	-9.25858
▁program	-9.25858
▁black	-9.25858
▁regular	-9.25858
▁current	-9.25858
▁average	-9.25863
▁center	-9.25884
▁lack	-9.2592
▁broke	-9.25941
▁Long	-9.25972
▁sound	-9.26116
▁Engl	-9.26124
vision	-9.26841
▁plann	-9.27038
iers	-9.2705
▁Qu	-9.27103
V	-9.27129
graf	-9.27266
▁announc	-9.27396
▁scholar	-9.27396
▁text	-9.27397
▁Robert	-9.27399
▁availab	-9.27399
▁contract	-9.27412
▁personal	-9.27473
ung	-9.2754
▁serious	-9.27564
▁mid	-9.28285
lock	-9.28364
▁clear	-9.2843
jo	-9.28529
▁liv	-9.28535
▁Ali	-9.28567
▁far	-9.28657
▁leader	-9.28689
▁Stan	-9.28777
ug	-9.28895
▁object	-9.28959
▁reveal	-9.28963
▁express	-9.28973
▁tower	-9.29056
▁Hor	-9.29212
▁stage	-9.29234
▁Sun	-9.29315
▁36	-9.29416
E	-9.29572
lost	-9.29891
uck	-9.30267
▁believe	-9.30384
wood	-9.30455
▁explain	-9.30546
▁flood	-9.30546
▁interview	-9.30546
▁decided	-9.30546
▁achiev	-9.30547
▁Furt	-9.30547
▁host	-9.30569
▁storyline	-9.30575
▁night	-9.30587
▁prepar	-9.3059
▁football	-9.30643
▁dock	-9.30692
▁Histor	-9.30942
▁size	-9.30967
ani	-9.31014
▁metal	-9.31049
▁past	-9.31055
ference	-9.31105
▁Gra	-9.31236
▁disc	-9.31578
cat	-9.31703
▁Archaeolog	-9.32159
▁practice	-9.32159
▁secur	-9.3216
▁Queen	-9.32163
▁reason	-9.32166
▁Japan	-9.32172
▁minor	-9.32179
▁David	-9.32183
▁crake	-9.32192
▁Chris	-9.3223
▁nine	-9.32232
▁Bar	-9.32326
▁outside	-9.32352
▁complet	-9.32828
▁court	-9.32971
rew	-9.3313
van	-9.33206
▁fly	-9.33207
▁whe	-9.3327
▁red	-9.33397
▁promot	-9.33553
coming	-9.33555
ric	-9.33612
▁Star	-9.33768
▁Academ	-9.33799
▁Pennsylvania	-9.33799
▁draft	-9.33799
▁specific	-9.33799
▁Record	-9.33799
▁learn	-9.33799
▁inspir	-9.338
▁troop	-9.33802
▁sexual	-9.33806
▁sister	-9.33811
▁Division	-9.33816
▁Col	-9.33986
acre	-9.34049
ification	-9.34368
spread	-9.34414
▁leg	-9.34871
ney	-9.34928
▁theme	-9.34958
▁Australia	-9.35012
▁Krak	-9.35129
▁vocal	-9.35465
▁education	-9.35465
▁travel	-9.35465
▁House	-9.35469
▁compar	-9.35474
▁transport	-9.35482
▁Soci	-9.35517
▁twent	-9.35539
▁tomb	-9.3558
▁box	-9.356
▁commandment	-9.35613
▁assist	-9.35623
▁Pe	-9.35755
▁1990	-9.35771
▁Town	-9.35832
▁king	-9.36024
▁fund	-9.36251
▁front	-9.36278
▁natural	-9.36297
cho	-9.36634
▁los	-9.37094
▁Bre	-9.37121
▁Associat	-9.3716
▁studio	-9.3716
rie	-9.3724
▁Per	-9.37373
work	-9.37384
▁185	-9.37443
▁Cup	-9.37463
▁29	-9.37845
▁Paul	-9.3815
put	-9.38179
ison	-9.38351
sky	-9.38388
▁require	-9.38437
▁Eat	-9.38465
▁treat	-9.38789
▁Second	-9.38884
▁launch	-9.38885
▁process	-9.38886
▁paper	-9.38886
▁charge	-9.38888
▁Film	-9.38894
▁entrance	-9.38898
▁typical	-9.38904
▁despi	-9.38967
▁Thom	-9.38996
▁Act	-9.39234
▁sold	-9.39333
▁35	-9.39409
▁traditional	-9.39444
▁oppos	-9.39723
▁But	-9.39768
ather	-9.39964
▁produce	-9.40119
▁face	-9.40465
▁rule	-9.40476
▁reduc	-9.40579
▁Service	-9.40639
▁convoy	-9.40639
▁effort	-9.40639
▁evidence	-9.40639
▁participat	-9.40639
▁Institut	-9.40639
▁conduct	-9.40639
▁piece	-9.40639
▁capital	-9.40639
▁divine	-9.4064
▁declin	-9.40657
▁Centr	-9.40661
▁Under	-9.40678
▁Game	-9.40679
▁archaeologist	-9.40737
▁believ	-9.4082
form	-9.40825
olf	-9.40917
▁Bay	-9.40969
▁serve	-9.41069
▁era	-9.41089
▁60	-9.41157
▁Can	-9.4145
▁statu	-9.41474
▁additional	-9.4151
▁structure	-9.4188
cut	-9.41929
AF	-9.42083
ection	-9.42176
ina	-9.42246
▁foot	-9.42402
▁Admiral	-9.42424
▁Valkyria	-9.42424
▁subsequent	-9.42424
▁temple	-9.42424
▁Prince	-9.42425
▁adopt	-9.42427
▁Year	-9.42428
▁indicat	-9.42442
▁concern	-9.42457
▁Villa	-9.4246
▁eastern	-9.42498
▁regime	-9.42516
▁recent	-9.4258
▁coach	-9.42598
U	-9.42775
▁might	-9.4279
▁students	-9.42944
▁Dar	-9.4308
▁Up	-9.43116
▁Play	-9.43125
▁Sb	-9.43328
▁hit	-9.43557
ize	-9.43811
▁TV	-9.43954
▁industr	-9.44218
▁Mathew	-9.44242
▁business	-9.44242
▁international	-9.44242
▁museum	-9.44242
▁brother	-9.44243
▁prevent	-9.44244
▁prior	-9.4425
▁peak	-9.44252
▁cross	-9.44253
▁Foll	-9.44269
▁litera	-9.44276
▁think	-9.44283
▁Un	-9.44562
▁Charles	-9.44583
special	-9.44651
ini	-9.44752
worth	-9.44812
▁Fre	-9.45022
uk	-9.45156
▁press	-9.45261
pri	-9.4544
war	-9.45483
▁Mont	-9.45519
▁soon	-9.45677
▁condition	-9.46094
▁positive	-9.46094
▁according	-9.46094
▁conclud	-9.46094
▁Captain	-9.46095
▁High	-9.46095
▁detail	-9.46095
▁problem	-9.46095
▁Club	-9.46095
▁course	-9.46096
▁annual	-9.46096
▁quick	-9.46096
▁regard	-9.46096
▁Fleet	-9.46097
▁extend	-9.46097
▁heavi	-9.46098
utz	-9.46114
▁deep	-9.46127
▁reaction	-9.46175
▁That	-9.46243
▁Bru	-9.46279
▁Mad	-9.46337
▁publication	-9.46425
▁Hall	-9.46484
ipp	-9.46579
▁manager	-9.46698
▁2000	-9.4672
▁80	-9.46967
▁cur	-9.47134
ative	-9.47242
▁goals	-9.47281
▁Chic	-9.47403
aire	-9.47523
atur	-9.4786
▁Clark	-9.47981
▁Victoria	-9.47981
▁magazine	-9.47981
▁purpose	-9.47981
▁blood	-9.47981
▁search	-9.47982
ouncil	-9.47982
▁feel	-9.4801
▁Battle	-9.48016
▁winning	-9.48055
▁wood	-9.4809
▁create	-9.48118
▁usual	-9.4812
▁Later	-9.48167
ili	-9.48182
▁highway	-9.48231
▁mor	-9.48454
bel	-9.48528
▁How	-9.48768
dom	-9.48824
upon	-9.49092
▁Sch	-9.49237
▁End	-9.4926
▁cm	-9.49279
▁fan	-9.4946
ute	-9.49496
▁thing	-9.496
▁Er	-9.49616
▁associat	-9.49659
nel	-9.49663
▁pop	-9.49736
▁Tu	-9.49815
▁shoot	-9.49904
▁victor	-9.49904
▁Brook	-9.49941
▁Desp	-9.49959
▁maintain	-9.49966
▁90	-9.4999
▁occurr	-9.50029
▁1940	-9.50095
▁Romanian	-9.50295
▁saw	-9.5042
▁hop	-9.50452
▁rais	-9.50529
▁fall	-9.5062
▁ever	-9.50656
▁factor	-9.50741
ji	-9.50825
F	-9.50873
▁Not	-9.51117
▁working	-9.51225
har	-9.51478
hen	-9.51479
▁authorit	-9.517
rapp	-9.5185
▁account	-9.51865
▁response	-9.51865
▁subject	-9.51865
▁campaign	-9.51865
▁equip	-9.51869
▁studie	-9.5187
▁defin	-9.51881
▁flight	-9.51919
▁division	-9.51921
▁Frank	-9.51937
▁relative	-9.51999
▁Par	-9.52045
▁Chev	-9.52106
char	-9.52149
▁184	-9.52285
▁poor	-9.5234
viation	-9.52407
▁fun	-9.52656
▁44	-9.53011
ko	-9.53374
▁Africa	-9.53411
▁Ver	-9.53483
▁territor	-9.53865
▁Geoff	-9.53865
▁distinct	-9.53865
▁immediate	-9.53865
▁heavy	-9.53865
▁societ	-9.53866
▁woman	-9.53868
▁probabl	-9.53869
▁nucle	-9.53875
▁private	-9.53888
▁Final	-9.53912
▁respective	-9.53939
▁must	-9.53954
▁comic	-9.53965
▁rating	-9.54038
▁Poland	-9.54305
▁better	-9.54314
▁destroyer	-9.54476
▁male	-9.54492
▁basi	-9.54563
▁Mor	-9.54605
▁Bra	-9.5463
▁farm	-9.54796
fensive	-9.54952
logical	-9.55474
▁Cam	-9.5551
otte	-9.55535
▁rate	-9.55539
▁nation	-9.55624
▁care	-9.55779
illboard	-9.55902
▁contribut	-9.55906
°	-9.55906
▁Catechism	-9.55906
▁Director	-9.55906
▁Tintin	-9.55906
▁submarine	-9.55906
▁avoid	-9.55906
▁cultural	-9.55906
▁Norman	-9.55907
▁advanc	-9.55908
▁decade	-9.55911
▁divide	-9.55911
▁leukemia	-9.55932
▁marriage	-9.5594
▁southern	-9.55997
▁Jesu	-9.56005
▁Cull	-9.56028
▁Austr	-9.56046
▁worker	-9.56233
▁Mag	-9.56322
▁try	-9.56331
▁miss	-9.56416
ization	-9.56427
▁keep	-9.56508
▁dead	-9.56598
▁32	-9.56727
▁super	-9.56814
fore	-9.56873
▁bomb	-9.56924
▁Mac	-9.57111
▁Pop	-9.57122
▁moral	-9.57152
▁write	-9.5723
▁severe	-9.57434
▁twi	-9.57529
▁elect	-9.57627
▁Kur	-9.57743
▁Fei	-9.57835
eath	-9.57911
alway	-9.57967
▁ultimate	-9.57989
▁declar	-9.57989
▁situation	-9.57989
▁vessel	-9.5799
▁Civil	-9.5799
▁measur	-9.57991
▁facilit	-9.57999
▁Operation	-9.57999
▁basket	-9.58006
▁enem	-9.58028
mouth	-9.58042
▁plat	-9.58052
▁Gar	-9.58117
shore	-9.58142
▁mission	-9.58239
▁overall	-9.58331
▁carv	-9.58468
▁mass	-9.58667
▁favor	-9.58817
isation	-9.58929
▁beat	-9.59075
▁Post	-9.5912
▁300	-9.59542
▁manage	-9.59757
▁officer	-9.59854
▁collect	-9.59872
▁Campbel	-9.60117
▁commission	-9.60117
▁newspaper	-9.60117
▁target	-9.60117
▁torpedo	-9.60117
▁College	-9.60117
▁Museum	-9.60117
▁secret	-9.60117
▁normal	-9.60117
▁Week	-9.60121
howitz	-9.6013
▁Barker	-9.60132
▁paint	-9.60142
▁bill	-9.6015
▁fact	-9.60175
▁Age	-9.60229
cation	-9.60239
arrow	-9.60535
ula	-9.60542
▁rare	-9.60665
▁1994	-9.60742
▁Part	-9.60817
▁historical	-9.61042
ept	-9.61077
▁sail	-9.6128
▁Will	-9.61419
▁owner	-9.61461
▁cost	-9.61462
▁conc	-9.61761
llosaur	-9.61821
atic	-9.61855
▁Charl	-9.61891
▁guide	-9.62047
▁Mexico	-9.62291
▁president	-9.62291
▁expect	-9.62291
▁Young	-9.62293
▁Thai	-9.62293
▁nature	-9.62297
▁road	-9.62303
▁Angel	-9.62321
▁Like	-9.62367
▁metre	-9.62455
▁soldier	-9.62543
play	-9.6265
▁critical	-9.6284
▁whole	-9.62847
▁Sinc	-9.62953
tta	-9.63099
▁Der	-9.63143
▁know	-9.63217
▁shar	-9.63466
cro	-9.63469
▁controll	-9.63681
▁Ko	-9.64233
▁office	-9.64316
▁combin	-9.64392
AA	-9.64432
▁civil	-9.64459
company	-9.64508
▁Chronicle	-9.64513
▁International	-9.64513
▁equal	-9.64513
▁focus	-9.64513
▁hospital	-9.64513
▁except	-9.64513
▁determin	-9.64513
▁jazz	-9.64513
▁method	-9.64513
▁certain	-9.64513
▁playoff	-9.64514
▁girl	-9.64514
lazer	-9.64519
▁access	-9.64523
▁breed	-9.64667
▁pair	-9.64709
▁historian	-9.64713
▁referr	-9.64786
▁bone	-9.64837
▁sport	-9.64884
▁amount	-9.6497
▁Mal	-9.65255
▁Mader	-9.65284
▁extra	-9.65327
nyi	-9.65641
▁180	-9.65911
▁Lin	-9.66005
▁clos	-9.66446
▁govern	-9.66705
▁Egypt	-9.66731
▁Zanzibar	-9.66786
▁screen	-9.66786
▁Department	-9.66786
▁decision	-9.66786
▁summer	-9.66786
▁teaching	-9.66786
▁Group	-9.66786
▁batter	-9.66786
▁emerg	-9.66786
▁request	-9.66786
▁Antimon	-9.66787
▁escap	-9.66787
▁village	-9.66787
▁actress	-9.66789
▁Corp	-9.66797
▁Tonin	-9.668
▁risk	-9.66806
▁beginning	-9.6681
▁health	-9.66813
rsenal	-9.66821
▁slight	-9.66826
▁stay	-9.66827
▁master	-9.66881
▁intend	-9.6691
▁fictional	-9.66928
uff	-9.66934
▁kind	-9.66956
▁radio	-9.66956
▁Book	-9.67024
▁mention	-9.67074
▁1942	-9.67157
▁ML	-9.6717
▁hard	-9.67172
▁175	-9.67185
▁Land	-9.67206
▁bridge	-9.67218
▁Bur	-9.67384
▁giv	-9.67502
▁primar	-9.6752
▁Den	-9.67569
▁architectur	-9.67623
latter	-9.6778
▁engineer	-9.67863
▁Ab	-9.67934
▁fac	-9.67996
pan	-9.68264
head	-9.6827
▁pun	-9.68438
▁Mill	-9.69083
▁increasing	-9.69111
▁Fernande	-9.69111
▁Government	-9.69111
▁instrument	-9.69111
▁responsibl	-9.69111
▁Richard	-9.69111
▁compos	-9.69112
▁Stefan	-9.69112
▁staff	-9.69112
▁preserv	-9.69114
▁value	-9.69117
▁identifi	-9.69118
▁sculpture	-9.69118
▁watch	-9.6912
▁fir	-9.69122
hood	-9.69123
▁Four	-9.69124
▁credit	-9.69124
▁route	-9.69127
▁upper	-9.69128
▁violen	-9.69136
▁separate	-9.69137
▁injur	-9.6918
▁western	-9.69199
▁transferr	-9.69244
▁Priest	-9.69246
▁1939	-9.69288
▁Wil	-9.69307
▁Old	-9.69308
▁1980	-9.6931
▁Light	-9.69324
▁pound	-9.69327
▁Russian	-9.69363
▁collection	-9.6938
▁1944	-9.6948
agle	-9.69545
▁media	-9.69591
▁Miss	-9.6978
plan	-9.69931
mond	-9.69957
▁lower	-9.69965
msel	-9.70174
▁Sever	-9.70275
▁eye	-9.70388
▁share	-9.7046
▁vari	-9.70511
▁propert	-9.70618
ink	-9.70686
ette	-9.70693
▁cor	-9.70703
▁Pet	-9.7099
▁Gi	-9.70995
FA	-9.71
▁Gre	-9.71125
itu	-9.71155
▁institution	-9.71492
▁Coldrum	-9.71492
▁begin	-9.71493
▁Office	-9.71493
▁brief	-9.71493
▁chamber	-9.71493
▁Fair	-9.71497
▁remix	-9.71498
▁discuss	-9.71503
▁room	-9.71506
▁Win	-9.71538
▁spore	-9.71618
▁Sha	-9.71656
▁respect	-9.7168
▁active	-9.7176
nell	-9.71885
▁memor	-9.71944
▁Over	-9.72036
▁store	-9.72171
▁door	-9.72521
▁Kar	-9.72548
▁armor	-9.72574
▁engine	-9.72788
▁Mari	-9.72903
▁commander	-9.72905
▁Sal	-9.72931
ario	-9.7351
▁Columbus	-9.73931
▁audience	-9.73931
▁length	-9.73931
▁prominent	-9.73931
▁weapon	-9.73931
▁Houston	-9.73931
▁question	-9.73931
▁Girl	-9.73935
▁Smith	-9.73935
▁shape	-9.73947
▁Beyon	-9.73953
▁safe	-9.73959
▁detect	-9.73965
▁actual	-9.73987
▁tree	-9.74026
▁Water	-9.74084
▁couple	-9.74124
▁step	-9.74214
▁plant	-9.74284
▁Steve	-9.74289
▁Stone	-9.74346
▁intens	-9.74451
▁seat	-9.74464
▁flow	-9.74495
hire	-9.74708
▁standing	-9.74952
▁fell	-9.75192
▁tradition	-9.75623
▁RA	-9.7616
▁recogni	-9.76212
urricane	-9.76364
▁President	-9.76431
▁Review	-9.76431
▁approximate	-9.76431
▁pursu	-9.76431
▁drama	-9.76432
▁Street	-9.76432
▁Italian	-9.76434
▁floor	-9.76435
▁adult	-9.76436
▁Latin	-9.76443
▁Adam	-9.76453
▁model	-9.76481
▁carry	-9.76531
▁futur	-9.76544
titude	-9.76559
▁speed	-9.7661
▁Night	-9.76632
▁NS	-9.76787
▁Hill	-9.7682
▁176	-9.76855
▁location	-9.77059
▁Rein	-9.77203
roll	-9.77237
▁Come	-9.77308
▁mount	-9.7752
ux	-9.7763
rum	-9.77724
PS	-9.77931
right	-9.78499
▁emb	-9.78746
▁Inter	-9.78764
▁refer	-9.78904
▁expos	-9.78944
well	-9.78967
▁distribut	-9.78995
▁guitar	-9.78995
▁square	-9.78995
▁resident	-9.78995
telligen	-9.78996
▁peace	-9.78996
▁rapid	-9.78996
▁settlement	-9.78996
▁abandon	-9.78997
▁silver	-9.78998
▁Hellb	-9.78999
▁convert	-9.78999
▁protest	-9.79001
▁job	-9.79003
▁Saint	-9.79005
▁display	-9.7903
▁Mon	-9.79049
▁organization	-9.79091
▁teacher	-9.79113
mpire	-9.79116
▁Bro	-9.7916
▁reference	-9.79197
▁1970	-9.79224
saw	-9.79313
come	-9.79335
▁179	-9.79461
▁actor	-9.79559
▁bad	-9.79612
▁79	-9.79624
▁400	-9.79766
▁gate	-9.79932
▁Bet	-9.80044
▁Commando	-9.80106
▁Thre	-9.80119
stin	-9.807
▁seem	-9.81126
ootball	-9.81499
▁fruit	-9.8158
£	-9.81627
▁Canadian	-9.81627
▁Middle	-9.81627
▁challeng	-9.81627
▁prohibit	-9.81627
▁repair	-9.81627
▁Video	-9.81628
▁vot	-9.81632
▁plot	-9.81632
▁squadron	-9.81633
▁Henry	-9.81634
▁affect	-9.81643
▁hair	-9.81647
▁captain	-9.81655
▁label	-9.81671
win	-9.81749
▁70	-9.81783
▁1930	-9.81783
▁1960	-9.81818
▁oil	-9.81825
ographic	-9.81847
▁1988	-9.8185
▁semi	-9.8187
▁log	-9.81929
▁association	-9.81964
amous	-9.82051
elph	-9.8217
▁surrounding	-9.82281
ía	-9.8232
▁guard	-9.8235
▁Australian	-9.82351
▁sixth	-9.82471
▁variet	-9.82563
▁gain	-9.8274
▁broad	-9.82862
▁Defen	-9.82965
▁More	-9.83069
▁dut	-9.83279
▁spen	-9.83434
▁meaning	-9.83744
▁Maria	-9.83782
emorial	-9.83839
east	-9.83942
▁leav	-9.84124
▁opportunit	-9.8433
▁Dominica	-9.8433
▁aerodrome	-9.8433
▁earthquake	-9.8433
▁martial	-9.8433
▁occupie	-9.8433
▁opponent	-9.8433
▁potential	-9.8433
▁shrine	-9.8433
▁surrender	-9.8433
▁regulat	-9.8433
▁Urani	-9.84332
▁photograph	-9.84332
▁birth	-9.84332
▁portray	-9.84334
▁percent	-9.84335
▁parent	-9.84336
▁bird	-9.84336
▁Center	-9.84341
▁river	-9.84358
▁buri	-9.84374
▁violat	-9.8438
▁link	-9.84386
▁Human	-9.8445
▁leave	-9.84536
▁election	-9.84654
▁federa	-9.84699
▁Iron	-9.84726
▁hir	-9.84891
▁38	-9.84989
▁requir	-9.8504
▁dance	-9.85103
▁Chap	-9.85712
▁tend	-9.86052
▁universit	-9.86102
bridge	-9.86816
▁marri	-9.87071
ó	-9.87107
▁complex	-9.87107
▁conflict	-9.87107
▁cruiser	-9.87107
▁extreme	-9.87107
▁fashion	-9.87107
▁symbol	-9.87107
▁demonstrat	-9.87108
▁1920	-9.87108
▁People	-9.87108
▁collaborat	-9.87108
▁spirit	-9.87108
abbar	-9.87109
▁skill	-9.87111
▁Work	-9.87112
▁Short	-9.87115
▁pitch	-9.87118
▁Court	-9.87123
▁chance	-9.87143
▁worship	-9.87165
▁Thak	-9.87177
▁copie	-9.87182
ography	-9.87257
▁color	-9.87258
▁Phil	-9.87285
▁Road	-9.87309
▁marked	-9.87309
▁winter	-9.87377
▁Heav	-9.87419
hannel	-9.87455
▁movement	-9.87495
▁1943	-9.87526
▁economic	-9.87527
▁Colon	-9.87537
▁Green	-9.8755
▁demon	-9.87567
NL	-9.87572
▁shell	-9.8764
▁African	-9.87744
▁physical	-9.87811
▁bab	-9.87821
▁creation	-9.87926
ull	-9.87967
▁39	-9.87989
▁alter	-9.87995
▁starr	-9.88045
▁countr	-9.88103
▁meeting	-9.88205
AT	-9.88641
▁52	-9.88751
▁42	-9.88797
arnest	-9.88826
▁chang	-9.88837
▁Nazi	-9.89115
▁stand	-9.89227
pper	-9.89483
▁Oma	-9.89681
▁ran	-9.89814
istrict	-9.89942
▁cult	-9.89964
▁Public	-9.89964
▁specimen	-9.89964
▁technique	-9.89964
▁compound	-9.89965
▁surface	-9.89965
▁Through	-9.89965
▁opinion	-9.89965
▁competition	-9.89965
▁food	-9.89965
▁Temple	-9.89965
▁defence	-9.89965
▁expand	-9.89966
▁prison	-9.89969
hemical	-9.8998
▁block	-9.90021
▁Hockey	-9.90021
▁money	-9.90024
▁sense	-9.9003
▁battleship	-9.90036
▁airport	-9.90042
▁accus	-9.90075
▁weak	-9.90105
▁attract	-9.90191
▁para	-9.90231
▁Chin	-9.90242
▁Out	-9.9026
▁Max	-9.90262
▁genu	-9.90265
▁pick	-9.9032
zi	-9.90474
▁myth	-9.90476
▁slow	-9.90602
itz	-9.90623
▁grass	-9.90665
iller	-9.91165
▁sell	-9.9123
▁origin	-9.91299
▁Anti	-9.91436
▁historic	-9.92595
▁mine	-9.92609
▁Easter	-9.92695
▁environment	-9.92906
▁investigat	-9.92906
▁Carolina	-9.92906
▁Holocaust	-9.92906
▁defense	-9.92906
▁necessar	-9.92906
▁progress	-9.92906
▁zombie	-9.92906
▁Secret	-9.92906
▁revolution	-9.92906
▁contrast	-9.92906
▁Celtic	-9.92906
▁print	-9.92908
▁matter	-9.92909
▁Bob	-9.92911
▁dedicat	-9.92912
▁driv	-9.92942
▁sex	-9.92947
▁Brack	-9.92949
▁Chart	-9.92951
▁Wales	-9.92955
▁Swed	-9.92982
▁invit	-9.9304
▁brick	-9.93041
▁independent	-9.93164
▁musician	-9.93251
▁tell	-9.93342
▁China	-9.93432
trapping	-9.93464
icket	-9.93485
▁Branc	-9.93593
astra	-9.9363
osaur	-9.93771
▁canno	-9.93785
▁demo	-9.94217
ficial	-9.94252
▁meant	-9.94294
▁thick	-9.94349
▁fung	-9.947
▁Ph	-9.94888
▁Del	-9.94995
vill	-9.95016
place	-9.95047
stone	-9.95098
▁sole	-9.95101
▁meet	-9.952
▁Historic	-9.95322
graph	-9.95634
▁120	-9.95843
▁exhibit	-9.95936
#	-9.95936
▁consecutive	-9.95936
▁escort	-9.95936
▁hundred	-9.95936
▁hygrometricu	-9.95936
▁instruct	-9.95936
▁neutrino	-9.95936
▁occasion	-9.95936
▁quot	-9.95936
▁strength	-9.95936
▁FIT	-9.95936
▁voice	-9.95936
▁daughter	-9.95936
▁Hobb	-9.95936
▁machine	-9.95937
▁graduat	-9.95937
▁murder	-9.95937
▁Minister	-9.95937
▁perfect	-9.95938
▁depend	-9.95938
▁Tower	-9.95941
▁belong	-9.95942
▁Home	-9.95943
▁Grand	-9.95945
▁difference	-9.95951
▁install	-9.95953
▁Lewis	-9.95998
▁Trans	-9.96002
▁deriv	-9.96036
oxide	-9.96039
▁jun	-9.96087
▁wound	-9.96105
▁reform	-9.96129
▁key	-9.96141
▁Board	-9.96149
▁got	-9.96171
▁threaten	-9.96175
▁1950	-9.96203
▁pay	-9.96226
▁rise	-9.96258
▁via	-9.9626
▁manag	-9.9633
▁1997	-9.9643
▁solo	-9.96511
▁medic	-9.9665
▁epi	-9.97235
tru	-9.9767
▁Span	-9.98037
ugh	-9.98371
▁Lord	-9.98423
▁card	-9.98473
▁Mik	-9.98499
▁Romania	-9.98824
▁coup	-9.99003
▁circ	-9.99051
▁frequent	-9.99061
μ	-9.99061
▁Ganganelli	-9.99061
▁Industr	-9.99061
▁Uyghur	-9.99061
▁combat	-9.99061
▁holiday	-9.99061
▁pattern	-9.99061
▁purchas	-9.99061
▁belief	-9.99061
▁pregnan	-9.99061
▁qualit	-9.99061
▁behavio	-9.99061
▁goddess	-9.99062
▁street	-9.99062
▁Critic	-9.99064
▁earth	-9.99065
▁Gwen	-9.99066
▁cloth	-9.99067
▁honor	-9.99067
▁strike	-9.99068
▁concept	-9.99071
▁financial	-9.99076
▁quarter	-9.99078
▁myelo	-9.99085
argas	-9.99091
▁Morris	-9.991
bury	-9.99127
▁civilian	-9.99139
OT	-9.99141
▁Bridge	-9.99147
▁Arab	-9.99153
uzz	-9.99154
▁reactor	-9.9916
folk	-9.99163
▁chose	-9.99195
▁treatment	-9.99245
▁bank	-9.99265
▁Alger	-9.99295
▁section	-9.99343
▁rul	-9.99482
▁BC	-9.99532
▁promotion	-9.99562
arvati	-9.99626
▁Oxf	-9.99671
▁creator	-9.99726
ody	-9.99806
▁Dan	-9.99857
▁Scott	-9.9987
▁Emm	-9.99986
▁Lake	-10
▁34	-10.003
▁deni	-10.0031
▁Shao	-10.0071
▁trial	-10.0082
drew	-10.0088
orough	-10.0137
▁greates	-10.0163
▁Tim	-10.0173
▁adapt	-10.0217
▁organiz	-10.0217
losa	-10.022
▁Palestin	-10.0223
▁agricultur	-10.0229
▁ceremon	-10.0229
▁Hungarian	-10.0229
▁MVP	-10.0229
▁attribut	-10.0229
▁expedition	-10.0229
▁reflect	-10.0229
▁speaker	-10.0229
▁controvers	-10.0229
egalith	-10.0229
▁numer	-10.0229
▁reagent	-10.0229
▁enjoy	-10.0229
▁Compan	-10.0229
▁Child	-10.0229
▁simpl	-10.023
▁market	-10.023
▁genre	-10.023
▁Patric	-10.023
chair	-10.0231
▁resign	-10.0231
▁contemporary	-10.0231
▁settl	-10.0236
▁grant	-10.0239
whil	-10.0239
▁pressure	-10.0239
600	-10.0244
hua	-10.0247
▁profi	-10.0248
ajor	-10.0256
▁recognize	-10.0257
▁Phila	-10.026
▁1918	-10.0262
▁alone	-10.0265
egon	-10.0272
▁Sound	-10.0285
▁76	-10.0303
▁75	-10.0306
▁Jim	-10.0322
▁57	-10.0331
▁exit	-10.0348
▁Bill	-10.0394
▁Naz	-10.0399
▁tall	-10.0402
nnes	-10.042
▁physic	-10.0478
▁Scot	-10.0487
▁Kra	-10.0521
ockey	-10.0561
▁Arkansas	-10.0562
▁Championship	-10.0562
▁chapel	-10.0562
▁diagnos	-10.0562
▁strateg	-10.0562
▁synagogue	-10.0562
▁convention	-10.0562
▁incident	-10.0562
▁narrat	-10.0562
▁network	-10.0562
▁respond	-10.0562
▁concentrat	-10.0562
▁degree	-10.0562
▁impress	-10.0562
▁arrest	-10.0562
▁impact	-10.0562
▁Ernest	-10.0562
▁reject	-10.0562
▁broadcast	-10.0563
▁steam	-10.0563
▁Neolithic	-10.0563
▁bodie	-10.0563
▁edition	-10.0563
▁deliver	-10.0563
▁branch	-10.0563
▁Bloo	-10.0565
stream	-10.0565
▁Airport	-10.0566
▁debate	-10.0566
wick	-10.0568
▁kne	-10.0569
▁Hind	-10.0571
▁else	-10.0571
terior	-10.0573
▁Plan	-10.0576
▁deem	-10.0583
▁effective	-10.0584
▁sacr	-10.0587
back	-10.0592
▁dry	-10.0593
▁heart	-10.0596
▁remark	-10.0597
wich	-10.0606
▁restor	-10.0617
▁movie	-10.0619
▁37	-10.0634
▁56	-10.0638
▁reli	-10.0638
▁analysi	-10.0653
▁sale	-10.0665
▁72	-10.0667
▁matche	-10.0681
older	-10.0704
▁wear	-10.0729
▁energ	-10.0734
rnia	-10.0835
▁politic	-10.0843
col	-10.0853
▁econom	-10.0855
duction	-10.0888
▁execut	-10.0898
▁Commission	-10.0907
▁Kaimanawa	-10.0907
▁Pacific	-10.0907
▁extensive	-10.0907
▁husband	-10.0907
▁struggl	-10.0907
▁approv	-10.0907
▁assembl	-10.0907
continent	-10.0907
▁Monument	-10.0907
▁acquir	-10.0907
▁invasion	-10.0907
▁obtain	-10.0907
▁middle	-10.0907
▁Flower	-10.0907
▁examin	-10.0907
▁surve	-10.0907
▁Cecil	-10.0907
▁animal	-10.0908
▁certifi	-10.0908
▁cancer	-10.0908
▁demand	-10.0909
▁Ranger	-10.091
▁native	-10.091
▁drum	-10.091
▁arrange	-10.0914
▁Andrew	-10.0914
▁harbo	-10.092
▁our	-10.0947
▁slave	-10.0951
▁Even	-10.0956
▁Fran	-10.0972
▁fill	-10.1012
▁33	-10.1036
▁Bow	-10.1049
rising	-10.108
▁Live	-10.1087
▁rail	-10.1134
▁pai	-10.1155
tract	-10.1157
uct	-10.1194
▁Bosto	-10.1249
ophy	-10.1256
ł	-10.1264
▁fragil	-10.1264
▁Imperial	-10.1264
▁Zagreb	-10.1264
▁collaps	-10.1264
▁eliminat	-10.1264
▁encourag	-10.1264
▁frigate	-10.1264
▁manufactur	-10.1264
▁occupation	-10.1264
▁Francisc	-10.1264
▁Wanderer	-10.1264
▁deploy	-10.1264
▁illustrat	-10.1264
▁legislat	-10.1264
▁blue	-10.1264
▁ritual	-10.1264
▁synth	-10.1264
▁appli	-10.1264
▁premier	-10.1264
▁journ	-10.1264
▁stopp	-10.1264
▁plain	-10.1264
▁Dream	-10.1264
▁Cross	-10.1264
▁panel	-10.1265
bishop	-10.1265
▁wild	-10.1266
▁centre	-10.1266
▁circulat	-10.1266
▁drop	-10.1266
▁southeast	-10.1266
▁burn	-10.1267
▁Yeo	-10.1267
▁representative	-10.1267
▁Hot	-10.1268
▁window	-10.1271
▁Ruler	-10.1271
dolen	-10.1272
▁Haiti	-10.1273
▁advi	-10.1276
▁Order	-10.1277
▁dai	-10.1277
burg	-10.1277
▁passage	-10.1281
▁translat	-10.1281
▁tale	-10.1281
▁Master	-10.1283
scrib	-10.1286
▁happen	-10.1287
▁Bald	-10.1287
▁gather	-10.1299
▁retain	-10.1301
▁partial	-10.1306
▁sailor	-10.1306
gua	-10.1312
▁ensur	-10.1319
▁77	-10.1324
▁Twin	-10.1342
zzo	-10.1349
▁88	-10.1355
▁multipl	-10.1369
▁AD	-10.1378
▁religion	-10.138
▁Nation	-10.1389
▁incorporat	-10.139
▁document	-10.1398
▁Gate	-10.1412
▁Jose	-10.1413
▁trip	-10.142
lash	-10.1439
▁legal	-10.147
horn	-10.1485
▁aut	-10.149
riot	-10.1496
▁student	-10.1526
▁rid	-10.1559
▁Hur	-10.1588
ackground	-10.1629
berg	-10.163
▁Alexander	-10.1634
▁Project	-10.1634
▁WASP	-10.1634
▁accomplish	-10.1634
▁benefit	-10.1634
▁distinguish	-10.1634
▁experiment	-10.1634
▁hemmema	-10.1634
▁monitor	-10.1634
▁recommend	-10.1634
▁script	-10.1634
▁Stephen	-10.1634
▁faith	-10.1634
▁Califo	-10.1634
▁resembl	-10.1634
▁possess	-10.1634
▁thousand	-10.1634
▁Greek	-10.1635
▁recall	-10.1635
▁Belgi	-10.1635
▁border	-10.1635
▁permit	-10.1635
▁recover	-10.1635
▁Type	-10.1635
▁championship	-10.1636
▁option	-10.1636
▁Commo	-10.1636
▁foreign	-10.1637
▁fear	-10.1639
▁initiative	-10.164
▁pagoda	-10.1641
▁Writ	-10.1642
▁loan	-10.1642
▁hyp	-10.1647
▁revers	-10.1647
▁generation	-10.165
but	-10.1653
▁variation	-10.1653
▁nomination	-10.1653
▁Barr	-10.1654
▁combination	-10.1655
▁Portug	-10.1655
▁rect	-10.1657
▁singer	-10.1658
▁scale	-10.1658
▁1936	-10.1661
▁Studio	-10.1661
eventeen	-10.1666
aga	-10.1679
▁hill	-10.1694
weight	-10.1718
▁fast	-10.173
▁Devi	-10.1745
▁Israeli	-10.1807
▁importan	-10.1957
▁800	-10.1964
CA	-10.2009
▁Confedera	-10.2019
▁Dynast	-10.2019
▁Governor	-10.2019
▁Mitchell	-10.2019
▁Research	-10.2019
▁Sultan	-10.2019
▁Virgin	-10.2019
▁apparent	-10.2019
▁assault	-10.2019
▁column	-10.2019
▁description	-10.2019
▁destructi	-10.2019
▁favour	-10.2019
▁maximu	-10.2019
▁romantic	-10.2019
▁categor	-10.2019
▁Veeru	-10.2019
▁disease	-10.2019
▁explor	-10.2019
▁permanent	-10.2019
▁rifle	-10.2019
▁address	-10.2019
▁unique	-10.2019
▁ylide	-10.2019
▁compris	-10.2019
▁restrict	-10.2019
▁lyrics	-10.2019
▁decorat	-10.2019
▁Castle	-10.2019
▁letter	-10.202
▁dark	-10.202
▁Jeff	-10.202
▁talk	-10.202
▁Spring	-10.202
scope	-10.2021
Arthur	-10.2022
▁Montag	-10.2022
▁district	-10.2022
▁Dut	-10.2022
▁fuel	-10.2024
▁Jai	-10.2025
▁Crusader	-10.2028
▁path	-10.2028
▁Giant	-10.2031
▁1937	-10.2039
▁Wash	-10.2041
▁1985	-10.2061
▁delay	-10.2064
▁reign	-10.2073
▁Phoe	-10.2076
▁Dail	-10.2087
▁assume	-10.2091
space	-10.2105
▁spot	-10.2108
▁acc	-10.2109
▁lot	-10.211
wide	-10.2135
▁organis	-10.2141
▁250	-10.2142
cast	-10.2165
mportan	-10.2212
cock	-10.2275
lano	-10.2295
position	-10.2303
▁chi	-10.2336
▁primari	-10.2336
▁Building	-10.2419
▁Entertainment	-10.2419
▁Pakistan	-10.2419
▁Revolution	-10.2419
▁academic	-10.2419
▁candidate	-10.2419
▁dynamic	-10.2419
▁essential	-10.2419
▁supplie	-10.2419
▁technical	-10.2419
▁volume	-10.2419
▁website	-10.2419
▁Dublin	-10.2419
▁function	-10.2419
▁1929	-10.2419
▁cinema	-10.2419
▁withdraw	-10.2419
▁devot	-10.2419
▁highlight	-10.2419
▁Valley	-10.2419
▁rescue	-10.2419
▁chief	-10.2419
▁root	-10.2419
▁relief	-10.2419
▁rural	-10.2419
▁task	-10.2419
ploit	-10.2419
▁Creek	-10.2419
▁Stopp	-10.242
▁surge	-10.242
▁park	-10.2421
▁Prime	-10.2421
▁northeast	-10.2422
▁instance	-10.2422
▁electric	-10.2422
▁grand	-10.2422
▁rough	-10.2422
▁magic	-10.2422
▁flag	-10.2425
▁Palestinian	-10.2426
▁adaptation	-10.2434
▁norther	-10.2434
▁iron	-10.2436
▁Thir	-10.244
▁Team	-10.2446
▁blow	-10.2453
▁fix	-10.2455
▁Tong	-10.2462
▁establishment	-10.2468
▁mono	-10.2472
▁boy	-10.2472
wis	-10.2487
nelli	-10.2494
▁moment	-10.2496
▁Press	-10.2496
TV	-10.2509
where	-10.2517
▁Law	-10.2525
▁Theatr	-10.255
▁150	-10.2623
▁Loos	-10.2652
▁plu	-10.2661
more	-10.2666
uardian	-10.273
▁Russia	-10.279
▁presen	-10.2791
lotilla	-10.2836
▁Journal	-10.2836
▁celebrat	-10.2836
▁chemotherap	-10.2836
▁college	-10.2836
▁dialogue	-10.2836
▁franchise	-10.2836
▁headquarter	-10.2836
▁Muslim	-10.2836
▁Survey	-10.2836
▁Communi	-10.2836
▁minister	-10.2836
▁science	-10.2836
▁streak	-10.2836
▁Leonard	-10.2836
▁compani	-10.2836
▁sector	-10.2836
▁distance	-10.2836
▁brown	-10.2836
▁replacement	-10.2836
▁concert	-10.2836
▁Milit	-10.2836
▁reception	-10.2837
▁push	-10.2837
▁Power	-10.2837
▁Evans	-10.2837
▁repeat	-10.2837
▁Treat	-10.2837
▁Hospitaller	-10.2837
▁migrat	-10.2838
▁thirt	-10.2839
wealth	-10.2843
▁agenc	-10.285
▁barrow	-10.2855
▁agent	-10.2856
▁bull	-10.2856
▁setting	-10.2856
▁identi	-10.2859
▁Vice	-10.2865
▁committe	-10.2867
▁tail	-10.2868
▁mint	-10.2873
▁Fame	-10.2878
▁1919	-10.2893
▁tape	-10.2901
aware	-10.2936
▁typ	-10.294
fort	-10.2966
▁becom	-10.2972
▁univers	-10.299
▁majorit	-10.3002
▁Lowe	-10.3049
CE	-10.3072
▁medi	-10.3084
organisation	-10.3135
haracteristics	-10.3162
motion	-10.3174
ergy	-10.3182
▁Harr	-10.3212
▁threat	-10.3236
▁Additional	-10.327
è	-10.327
▁Lieutenant	-10.327
▁complain	-10.327
▁computer	-10.327
▁divorce	-10.327
▁habitat	-10.327
▁trouble	-10.327
▁Croatia	-10.327
▁schedule	-10.327
▁Summer	-10.327
▁exchange	-10.327
▁shift	-10.327
▁Field	-10.327
▁librar	-10.327
▁Album	-10.327
▁straight	-10.327
▁colour	-10.3271
▁Claw	-10.3271
▁Louis	-10.3271
▁tropic	-10.3271
▁unlike	-10.3271
▁Feeling	-10.3271
▁crime	-10.3271
▁walk	-10.3272
▁depth	-10.3272
▁Moore	-10.3273
▁zone	-10.3273
▁narrow	-10.3274
▁missile	-10.3274
▁Style	-10.3275
▁Garden	-10.3275
▁wave	-10.3277
venue	-10.3278
▁executive	-10.3282
▁Baby	-10.3286
onica	-10.3293
▁pull	-10.3294
rí	-10.3297
▁1900	-10.3305
▁Classic	-10.3314
▁Bank	-10.3324
▁bow	-10.3329
ńsk	-10.3353
▁grade	-10.3363
▁fair	-10.3367
▁proper	-10.3435
▁suit	-10.3522
▁Name	-10.3537
▁multi	-10.3572
▁flat	-10.3589
▁Matt	-10.3593
▁impos	-10.363
fare	-10.368
▁content	-10.3716
▁differ	-10.3717
eception	-10.3725
▁casualt	-10.3725
▁Original	-10.3725
▁domestic	-10.3725
▁emphasis	-10.3725
▁possibilit	-10.3725
▁rhythm	-10.3725
▁supply	-10.3725
▁traffic	-10.3725
▁compet	-10.3725
▁conservati	-10.3725
▁turret	-10.3725
▁Science	-10.3725
▁Zapat	-10.3725
▁tactic	-10.3725
▁Chief	-10.3725
▁implement	-10.3725
▁gradual	-10.3725
▁Radio	-10.3725
▁fresh	-10.3725
▁article	-10.3725
▁gross	-10.3725
▁Knight	-10.3725
dominant	-10.3725
▁gift	-10.3726
▁editor	-10.3726
mperor	-10.3726
▁valid	-10.3726
▁temperature	-10.3726
zog	-10.3727
▁Crab	-10.3727
▁mountain	-10.3728
▁proceed	-10.3729
▁communicat	-10.3729
▁Further	-10.3729
▁labor	-10.373
▁biograph	-10.3731
▁assert	-10.3731
▁Spain	-10.3731
▁Hadd	-10.3732
▁background	-10.3744
kept	-10.3753
▁Elli	-10.3757
▁confus	-10.3771
▁criticize	-10.3788
▁absen	-10.3794
▁therap	-10.3803
aniel	-10.3815
body	-10.3858
ridge	-10.3863
structure	-10.3867
Y	-10.3869
▁radi	-10.3885
greement	-10.3889
▁gene	-10.39
differentiat	-10.401
▁architect	-10.4026
í	-10.4047
▁surround	-10.4083
▁nominat	-10.4177
▁symmetr	-10.4201
▁confront	-10.4201
▁temporar	-10.4201
▁Committee	-10.4201
▁Similar	-10.4201
▁bottom	-10.4201
▁caliber	-10.4201
▁confirm	-10.4201
▁contact	-10.4201
▁negative	-10.4201
▁neutral	-10.4201
▁outbreak	-10.4201
▁professor	-10.4201
▁prognos	-10.4201
▁propagand	-10.4201
munition	-10.4201
▁drug	-10.4201
▁journalist	-10.4201
▁check	-10.4201
▁craft	-10.4201
▁1926	-10.4201
▁sustain	-10.4201
aborator	-10.4201
▁dress	-10.4201
▁citizen	-10.4201
▁renew	-10.4201
▁Broadwa	-10.4201
▁danger	-10.4201
▁Modern	-10.4202
▁patrol	-10.4202
▁repli	-10.4202
▁rival	-10.4203
infall	-10.4204
▁jet	-10.4204
▁statistic	-10.4207
▁assassination	-10.4207
▁Martin	-10.421
fusion	-10.4211
▁Hurricane	-10.4214
▁Walk	-10.4214
▁Ferd	-10.4217
▁Geast	-10.4219
▁scrap	-10.4221
▁Corn	-10.4222
▁Angl	-10.4223
▁electron	-10.4227
▁consistent	-10.4228
1987	-10.4234
▁seiz	-10.4244
▁guid	-10.4256
▁amid	-10.4279
fold	-10.4298
▁Though	-10.4302
tress	-10.4309
clear	-10.4366
▁XI	-10.4367
power	-10.4374
imbalan	-10.439
uart	-10.4414
nett	-10.4445
▁Speci	-10.4528
grad	-10.4592
▁bio	-10.462
▁Dav	-10.4668
▁occur	-10.4668
▁leukem	-10.4695
evelopment	-10.4699
ö	-10.4701
▁Buddhis	-10.4701
▁Elephant	-10.4701
▁Gambia	-10.4701
▁budget	-10.4701
▁denomination	-10.4701
▁ensemble	-10.4701
▁evacuat	-10.4701
▁festival	-10.4701
▁hairstyle	-10.4701
▁homosexual	-10.4701
▁predecessor	-10.4701
▁responsibilit	-10.4701
▁soundtrack	-10.4701
▁speculat	-10.4701
▁supposed	-10.4701
▁suppress	-10.4701
ä	-10.4701
▁drink	-10.4701
▁fault	-10.4701
▁reinforce	-10.4701
▁senior	-10.4701
▁sulfide	-10.4701
▁interaction	-10.4701
▁sponsor	-10.4701
▁permissi	-10.4701
▁doctor	-10.4701
▁swallow	-10.4701
▁appeal	-10.4701
▁roof	-10.4701
▁sitcom	-10.4701
▁choice	-10.4701
▁composition	-10.4701
▁McC	-10.4701
▁elevat	-10.4701
▁Watson	-10.4701
ERA	-10.4702
▁orient	-10.4702
▁melod	-10.4702
▁accompany	-10.4702
▁Good	-10.4702
▁Doug	-10.4703
▁spear	-10.4703
▁parish	-10.4703
agoda	-10.4704
▁false	-10.4705
▁renam	-10.4705
▁phase	-10.4706
▁percentage	-10.471
▁wait	-10.471
▁Singh	-10.4712
▁blockade	-10.4714
▁spoke	-10.4719
▁acid	-10.4725
▁Guid	-10.4748
ophon	-10.48
BN	-10.4833
azz	-10.4846
X	-10.4894
▁documentar	-10.5032
▁entr	-10.5147
nik	-10.5161
activ	-10.5178
▁happ	-10.5194
knowledge	-10.5219
▁stee	-10.5223
▁Hospital	-10.5225
▁Festival	-10.5227
▁Magazine	-10.5227
▁calculat	-10.5227
▁circumstance	-10.5227
▁encounter	-10.5227
▁expansion	-10.5227
▁neighbor	-10.5227
▁succeed	-10.5227
▁knot	-10.5227
▁tournament	-10.5227
▁household	-10.5228
▁unusual	-10.5228
▁frame	-10.5228
▁carbonari	-10.5228
▁shut	-10.5228
▁patron	-10.5228
▁Actress	-10.5228
▁fertil	-10.5228
▁constant	-10.5228
▁outlaw	-10.5228
▁understand	-10.5228
▁armament	-10.5228
▁elegan	-10.5228
▁Bishop	-10.5228
▁enlist	-10.5228
▁prize	-10.5228
▁Fashi	-10.5228
▁amateur	-10.5228
▁stalk	-10.5228
▁priest	-10.5228
▁application	-10.5229
▁Frederic	-10.5229
▁Super	-10.5229
▁relocat	-10.5229
▁Front	-10.523
ASA	-10.523
▁Brown	-10.5231
▁weather	-10.5232
▁copy	-10.5234
▁financ	-10.5235
utstanding	-10.5236
▁preced	-10.5236
▁harm	-10.5237
▁Manual	-10.524
▁theatre	-10.524
▁stem	-10.5244
▁hot	-10.5256
metric	-10.5266
▁Tenn	-10.5302
emix	-10.5337
ES	-10.5457
▁rig	-10.5501
▁transfer	-10.553
▁supervis	-10.5536
▁Kha	-10.5648
▁prim	-10.574
▁react	-10.5763
▁Studi	-10.5772
▁separat	-10.5777
otype	-10.578
ibilit	-10.5782
appropriate	-10.5783
diterran	-10.5783
▁Independen	-10.5783
▁battalion	-10.5783
▁chapter	-10.5783
▁conclusion	-10.5783
▁custom	-10.5783
▁kilometre	-10.5783
▁maskray	-10.5783
▁recreation	-10.5783
▁recruit	-10.5783
▁sequence	-10.5783
▁substantial	-10.5783
▁unsuccessful	-10.5783
▁Treasur	-10.5783
▁alternative	-10.5783
▁correspond	-10.5783
▁knock	-10.5783
▁sketch	-10.5783
▁remember	-10.5783
▁cyclo	-10.5783
▁qualifi	-10.5783
▁dismiss	-10.5783
▁Worthing	-10.5783
▁cardinal	-10.5783
▁correct	-10.5783
▁wrong	-10.5783
▁loyal	-10.5783
▁royal	-10.5783
▁cabin	-10.5783
▁glass	-10.5783
ambton	-10.5784
▁boundar	-10.5784
▁Dunn	-10.5784
▁pack	-10.5784
▁minim	-10.5785
▁anchor	-10.5785
▁tube	-10.5786
▁neck	-10.5786
▁guest	-10.5786
▁bond	-10.5787
▁Turk	-10.5787
▁convers	-10.5788
▁industrial	-10.5791
▁medium	-10.5792
▁Single	-10.5799
ameter	-10.5854
▁invent	-10.5893
▁considerabl	-10.5924
▁salar	-10.5929
▁commun	-10.595
eacon	-10.6005
▁erect	-10.6036
pole	-10.6124
▁Univers	-10.6226
▁transform	-10.6286
▁Class	-10.6313
▁generat	-10.6348
▁abnormal	-10.6371
▁celebrit	-10.6371
▁Congress	-10.6371
▁absolute	-10.6371
▁disappear	-10.6371
▁dispatch	-10.6371
▁equivalen	-10.6371
▁exclud	-10.6371
▁fundamental	-10.6371
▁garrison	-10.6371
▁honour	-10.6371
▁mutual	-10.6371
▁parliament	-10.6371
▁culminat	-10.6371
▁tissue	-10.6371
▁Wizard	-10.6371
▁southwest	-10.6371
▁earthstar	-10.6371
disciplin	-10.6371
▁Gaelic	-10.6371
▁Personal	-10.6371
▁audio	-10.6372
▁fourteen	-10.6372
▁Ocean	-10.6372
▁Venge	-10.6372
▁visual	-10.6372
▁jump	-10.6372
▁register	-10.6372
▁prompt	-10.6372
▁Librar	-10.6372
▁clean	-10.6372
▁Tiger	-10.6373
▁solid	-10.6373
▁persist	-10.6375
▁elder	-10.6375
▁disagree	-10.6375
carbon	-10.6375
▁Pitt	-10.6375
▁consum	-10.6375
▁satir	-10.6376
▁talent	-10.6376
▁cargo	-10.6377
▁colon	-10.6377
▁laborator	-10.6377
▁Media	-10.6378
▁bann	-10.6378
▁Emil	-10.6378
▁chick	-10.6379
▁bombard	-10.6381
▁cease	-10.6387
▁Tree	-10.639
▁Produc	-10.6404
▁Cran	-10.6405
▁infra	-10.6406
▁merg	-10.6422
siege	-10.6438
genetic	-10.6464
▁Epi	-10.6465
▁isolat	-10.6471
▁suitabl	-10.6646
Q	-10.6663
J	-10.6664
what	-10.6665
testant	-10.6735
▁enabl	-10.6784
face	-10.6887
gott	-10.6911
lloy	-10.6933
▁slip	-10.6935
▁teache	-10.6967
pector	-10.6981
▁initiat	-10.6989
▁tax	-10.699
▁Character	-10.6991
sław	-10.6996
×	-10.6996
ş	-10.6996
▁Columbia	-10.6996
▁accompanie	-10.6996
▁administration	-10.6996
▁consequence	-10.6996
▁context	-10.6996
▁dictator	-10.6996
▁fragment	-10.6996
▁horror	-10.6996
▁manuscript	-10.6996
▁millimeter	-10.6996
▁nickname	-10.6996
▁principal	-10.6996
▁principle	-10.6996
▁virtue	-10.6996
▁inhabit	-10.6996
▁sacrifice	-10.6996
▁Rhode	-10.6996
▁decreas	-10.6996
▁Regiment	-10.6996
▁passenger	-10.6996
▁BBC	-10.6996
▁scatter	-10.6996
▁convinc	-10.6996
▁1927	-10.6996
▁proportion	-10.6996
▁expens	-10.6996
▁1925	-10.6996
▁1923	-10.6996
▁galley	-10.6996
▁ruin	-10.6996
▁admir	-10.6997
▁spoil	-10.6997
▁desert	-10.6997
▁Patter	-10.6997
▁crown	-10.6997
▁Susque	-10.6997
▁Earth	-10.6997
▁unrest	-10.6997
▁dominat	-10.6998
▁climat	-10.6998
▁Open	-10.6998
▁Carib	-10.6999
▁eighteen	-10.6999
▁Clair	-10.7
▁forbid	-10.7
▁ignor	-10.7001
▁photo	-10.7001
▁Jean	-10.7003
oaltender	-10.7006
▁animat	-10.7072
▁weigh	-10.7151
▁Balti	-10.7224
natural	-10.733
court	-10.733
keeper	-10.7464
consi	-10.7476
▁fiction	-10.7621
▁excavat	-10.7639
▁squad	-10.7661
ü	-10.7663
▁Adventure	-10.7663
▁Croydon	-10.7663
▁Destroyer	-10.7663
▁Observ	-10.7663
▁Squa	-10.7663
▁aggressive	-10.7663
▁cytogenetic	-10.7663
▁disrupt	-10.7663
▁immigrat	-10.7663
▁merchant	-10.7663
▁negotiat	-10.7663
▁rebuil	-10.7663
▁sufficient	-10.7663
▁synonym	-10.7663
▁vehicle	-10.7663
▁victim	-10.7663
▁DVD	-10.7663
▁Education	-10.7663
▁Territor	-10.7663
▁acclaim	-10.7663
▁complement	-10.7663
▁emphasiz	-10.7663
▁shallow	-10.7663
▁whiske	-10.7663
▁Christoph	-10.7663
▁exercise	-10.7663
▁consult	-10.7663
▁descend	-10.7663
▁sleep	-10.7663
▁northwest	-10.7663
▁scientist	-10.7663
▁skull	-10.7663
▁prefect	-10.7663
▁pupil	-10.7663
▁retreat	-10.7663
▁jewel	-10.7663
▁wreck	-10.7663
▁disband	-10.7663
▁witness	-10.7663
▁1921	-10.7663
▁emotional	-10.7663
▁superior	-10.7663
▁vegeta	-10.7663
▁alleged	-10.7663
▁ocean	-10.7663
▁activist	-10.7663
▁identify	-10.7663
▁disaster	-10.7663
▁Place	-10.7663
▁portico	-10.7664
▁green	-10.7664
▁rumor	-10.7665
▁terminal	-10.7665
▁estuar	-10.7665
▁lift	-10.7665
avanna	-10.7665
throp	-10.7665
▁loud	-10.7666
▁grey	-10.7666
▁Syria	-10.7666
▁Hartle	-10.7666
▁Glob	-10.7668
uicide	-10.767
wicz	-10.7673
axonom	-10.7675
▁catch	-10.7684
▁beaut	-10.7687
▁price	-10.7696
Fisch	-10.7701
attle	-10.7733
broad	-10.8042
cott	-10.8104
▁substitut	-10.8268
▁independen	-10.8314
after	-10.8365
▁Democra	-10.8377
▁corrupt	-10.8377
▁Cornwall	-10.8377
▁Olympic	-10.8377
▁Parliament	-10.8377
▁criminal	-10.8377
▁expert	-10.8377
▁explosive	-10.8377
▁interpretation	-10.8377
▁phrase	-10.8377
▁prince	-10.8377
▁reconstruct	-10.8377
▁substrate	-10.8377
▁suspend	-10.8377
▁typewriter	-10.8377
▁GPU	-10.8377
▁phenomen	-10.8377
▁subtype	-10.8377
▁Return	-10.8377
▁perspective	-10.8377
▁Curtis	-10.8377
▁imprison	-10.8377
▁segment	-10.8377
▁theatrical	-10.8377
▁embark	-10.8377
▁yellow	-10.8377
▁drove	-10.8377
▁entitl	-10.8377
▁urban	-10.8377
▁Atomic	-10.8377
▁Fletch	-10.8377
overeign	-10.8377
▁picture	-10.8377
▁twel	-10.8377
▁compil	-10.8377
▁speech	-10.8377
▁Release	-10.8377
▁Physic	-10.8378
▁error	-10.8378
▁Initial	-10.8378
▁blend	-10.8378
ambling	-10.8378
▁rush	-10.8378
▁Leban	-10.8378
▁exact	-10.8378
▁railroad	-10.8378
▁crowd	-10.8378
▁trend	-10.8378
▁snow	-10.8378
▁strain	-10.8378
▁Clement	-10.8378
▁split	-10.8379
▁Belf	-10.8379
▁graphic	-10.8379
▁orbit	-10.8379
▁Cultur	-10.8382
▁Antoni	-10.8382
▁resistan	-10.8383
level	-10.8445
▁antiqu	-10.8504
▁funera	-10.8606
mount	-10.8653
Neil	-10.8729
ailway	-10.8847
closure	-10.8913
▁significan	-10.9083
▁commit	-10.9088
▁influen	-10.9109
▁champion	-10.9144
▁Dangerous	-10.9146
▁Penguin	-10.9146
▁battlecruiser	-10.9146
▁colleague	-10.9146
▁component	-10.9146
▁dreadnought	-10.9146
▁explode	-10.9146
▁irregular	-10.9146
▁necessit	-10.9146
▁rebellion	-10.9146
▁resource	-10.9146
romiscu	-10.9146
â	-10.9146
▁Mysore	-10.9146
▁Program	-10.9146
▁demolition	-10.9146
▁efficien	-10.9146
▁ethnic	-10.9146
▁submitt	-10.9146
▁Conservati	-10.9146
▁Pilot	-10.9146
▁Ukrain	-10.9146
▁commend	-10.9146
▁guilt	-10.9146
▁confiden	-10.9146
▁interchange	-10.9146
▁Vatican	-10.9146
▁devastat	-10.9146
scopic	-10.9146
▁Support	-10.9146
▁destination	-10.9146
▁vertical	-10.9147
▁uniform	-10.9147
▁Draft	-10.9147
₹	-11.0889
“	-11.1889
č	-11.1889
ν	-11.3
ć	-11.3
ร	-11.3
の	-11.3
Æ	-11.425
ō	-11.425
ă	-11.425
Z	-11.5347
ก	-11.5679
ั	-11.5679
ว	-11.5679
ิ	-11.5679
ṯ	-11.5679
⁄	-11.5679
→	-11.5679
ń	-11.7017
า	-11.7345
ə	-11.7345
*	-11.7345
^	-11.7345
ย	-11.7345
ا	-11.7345
ˈ	-11.9345
ú	-11.9345
α	-11.9345
ţ	-11.9345
β	-11.9345
ό	-11.9345
ن	-11.9345
‘	-11.9345
戦	-11.9345
ā	-11.9345
เ	-11.9345
å	-11.9345
τ	-11.9345
ล	-12.1845
ś	-12.1845
ο	-12.1845
ς	-12.1845
ح	-12.1845
د	-12.1845
ص	-12.1845
ل	-12.1845
ง	-12.1845
ต	-12.1845
ม	-12.1845
ァ	-12.1845
ア	-12.1845
キ	-12.1845
ュ	-12.1845
リ	-12.1845
ル	-12.1845
ヴ	-12.1845
侗	-12.1845
同	-12.1845
場	-12.1845
,	-12.4849
ณ	-12.5178
Ü	-12.5179
đ	-12.5179
ô	-12.5179
ż	-12.5179
ι	-12.5179
ρ	-12.5179
ر	-12.5179
م	-12.5179
พ	-12.5179
ี	-12.5179
่	-12.5179
も	-12.5179
岳	-12.5179
王	-12.5179
ū	-12.5179
ø	-12.5179
а	-12.5179
ي	-12.5179
ː	-13.0178
ɪ	-13.0178
ß	-13.0179
<	-13.0179
>	-13.0179
`	-13.0179
~	-13.0179
ã	-13.0179
æ	-13.0179
ê	-13.0179
ą	-13.0179
Š	-13.0179
ź	-13.0179
ה	-13.0179
أ	-13.0179
س	-13.0179
ك	-13.0179
ป	-13.0179
แ	-13.0179
้	-13.0179
์	-13.0179
Ḥ	-13.0179
ṣ	-13.0179
ạ	-13.0179
♯	-13.0179
が	-13.0179
な	-13.0179
光	-13.0179
春	-13.0179
花	-13.0179
い	-13.0179
き	-13.0179
李	-14.015
ἀ	-14.0151
К	-14.0152
σ	-14.0153
ë	-14.0154
Å	-14.0155
δ	-14.0156
ί	-14.0157
ï	-14.0158
อ	-14.0159
Ż	-14.016
Ł	-14.0161
Ö	-14.0162
周	-14.0163
”	-14.0164
ñ	-14.0165
š	-14.0166
ç	-14.0167
É	-14.0168
−	-14.0169
+	-14.017
?	-14.0171
!	-14.0172
%	-14.0173
:	-14.0174
;	-14.0175
)	-14.0176
'	-14.0177
"	-14.0178
ɑ	-14.0178
ɾ	-14.0178
ή	-14.0178
θ	-14.0178
λ	-14.0178
υ	-14.0178
Ľ	-14.0178
Ō	-14.0178
Ñ	-14.0179
Ó	-14.0179
à	-14.0179
î	-14.0179
ĕ	-14.0179
ę	-14.0179
œ	-14.0179
ǎ	-14.0179
ș	-14.0179
ț	-14.0179
ɡ	-14.0179
ʁ	-14.0179
ʃ	-14.0179
́	-14.0179
έ	-14.0179
γ	-14.0179
ε	-14.0179
κ	-14.0179
ξ	-14.0179
в	-14.0179
з	-14.0179
й	-14.0179
к	-14.0179
н	-14.0179
ы	-14.0179
є	-14.0179
מ	-14.0179
צ	-14.0179
ש	-14.0179
إ	-14.0179
ة	-14.0179
ت	-14.0179
ث	-14.0179
ع	-14.0179
ف	-14.0179
ค	-14.0179
ช	-14.0179
ซ	-14.0179
ญ	-14.0179
ฐ	-14.0179
ด	-14.0179
บ	-14.0179
ภ	-14.0179
ษ	-14.0179
ส	-14.0179
ห	-14.0179
ึ	-14.0179
ไ	-14.0179
็	-14.0179
๊	-14.0179
ᵻ	-14.0179
ἰ	-14.0179
ὑ	-14.0179
​	-14.0179
‐	-14.0179
†	-14.0179
‡	-14.0179
₤	-14.0179
€	-14.0179
♭	-14.0179
う	-14.0179
し	-14.0179
た	-14.0179
め	-14.0179
ら	-14.0179
世	-14.0179
中	-14.0179
乙	-14.0179
云	-14.0179
人	-14.0179
傳	-14.0179
其	-14.0179
具	-14.0179
劉	-14.0179
华	-14.0179
厂	-14.0179
台	-14.0179
名	-14.0179
君	-14.0179
命	-14.0179
咲	-14.0179
國	-14.0179
圣	-14.0179
堤	-14.0179
大	-14.0179
夫	-14.0179
女	-14.0179
妙	-14.0179
姚	-14.0179
孟	-14.0179
宋	-14.0179
宗	-14.0179
宫	-14.0179
广	-14.0179
建	-14.0179
張	-14.0179
彩	-14.0179
後	-14.0179
懷	-14.0179
日	-14.0179
旭	-14.0179
明	-14.0179
晋	-14.0179
景	-14.0179
正	-14.0179
殿	-14.0179
母	-14.0179
清	-14.0179
湯	-14.0179
澤	-14.0179
灯	-14.0179
灵	-14.0179
玄	-14.0179
玩	-14.0179
珂	-14.0179
琦	-14.0179
琪	-14.0179
瘡	-14.0179
祠	-14.0179
秋	-14.0179
翠	-14.0179
肖	-14.0179
膀	-14.0179
臂	-14.0179
興	-14.0179
芳	-14.0179
英	-14.0179
蘇	-14.0179
观	-14.0179
誓	-14.0179
誡	-14.0179
誰	-14.0179
许	-14.0179
谭	-14.0179
豪	-14.0179
費	-14.0179
贵	-14.0179
金	-14.0179
銃	-14.0179
钱	-14.0179
铁	-14.0179
陈	-14.0179
集	-14.0179
霖	-14.0179
韓	-14.0179
願	-14.0179
顯	-14.0179
�	-14.0179
ḏ	-14.0179
ğ	-14.0179
ق	-14.0179
ศ	-14.0179
Ä	-14.0179
р	-14.0179
с	-14.0179
か	-14.0179
く	-14.0179
つ	-14.0179
七	-14.0179
赤	-14.0179
運	-14.0179
=	-14.0179
χ	-14.0179
