<unk>	0
<s>	0
</s>	0
▁t	-0
he	-1
▁a	-2
in	-3
▁the	-4
er	-5
on	-6
▁,	-7
re	-8
▁s	-9
▁o	-10
ed	-11
nd	-12
▁w	-13
at	-14
▁.	-15
or	-16
it	-17
is	-18
en	-19
▁c	-20
es	-21
▁f	-22
▁of	-23
ar	-24
an	-25
al	-26
▁b	-27
▁in	-28
ing	-29
▁p	-30
▁and	-31
as	-32
ic	-33
▁to	-34
▁m	-35
▁d	-36
ro	-37
▁h	-38
ion	-39
le	-40
ou	-41
▁T	-42
▁re	-43
▁=	-44
▁A	-45
▁"	-46
ent	-47
il	-48
▁S	-49
▁th	-50
▁C	-51
▁1	-52
el	-53
st	-54
▁@	-55
▁l	-56
om	-57
▁e	-58
▁n	-59
ac	-60
am	-61
ol	-62
ad	-63
ec	-64
▁was	-65
▁g	-66
▁The	-67
▁I	-68
ur	-69
▁on	-70
ly	-71
▁B	-72
▁M	-73
-@	-74
▁@-@	-75
et	-76
▁for	-77
id	-78
im	-79
▁'	-80
ir	-81
iv	-82
▁as	-83
ot	-84
ig	-85
ith	-86
ter	-87
ation	-88
ow	-89
▁H	-90
ut	-91
her	-92
ay	-93
▁2	-94
us	-95
▁st	-96
▁with	-97
▁P	-98
▁that	-99
▁R	-100
▁F	-101
▁W	-102
▁is	-103
▁be	-104
ver	-105
ch	-106
ul	-107
▁G	-108
em	-109
ce	-110
and	-111
▁al	-112
▁wh	-113
un	-114
▁N	-115
ra	-116
ers	-117
▁(	-118
▁)	-119
os	-120
est	-121
▁by	-122
th	-123
▁con	-124
um	-125
ist	-126
ag	-127
▁L	-128
▁D	-129
ct	-130
▁J	-131
▁an	-132
▁at	-133
▁19	-134
rom	-135
av	-136
▁it	-137
00	-138
▁he	-139
od	-140
▁E	-141
ri	-142
ain	-143
▁from	-144
▁his	-145
ies	-146
ort	-147
▁pro	-148
▁com	-149
op	-150
ere	-151
▁O	-152
oc	-153
▁de	-154
▁su	-155
▁were	-156
ew	-157
if	-158
res	-159
▁se	-160
ill	-161
pp	-162
ant	-163
ity	-164
ore	-165
all	-166
▁In	-167
ate	-168
ld	-169
igh	-170
ich	-171
▁v	-172
ab	-173
▁or	-174
▁sh	-175
▁ex	-176
▁r	-177
ard	-178
art	-179
ud	-180
▁pl	-181
ated	-182
pt	-183
▁ch	-184
qu	-185
ong	-186
ak	-187
gh	-188
ess	-189
ber	-190
rou	-191
se	-192
ord	-193
ip	-194
ast	-195
ish	-196
▁are	-197
rit	-198
ect	-199
ear	-200
▁sp	-201
▁U	-202
ial	-203
▁had	-204
▁which	-205
ame	-206
ment	-207
▁St	-208
ive	-209
▁K	-210
ov	-211
ian	-212
red	-213
ia	-214
▁Ch	-215
▁le	-216
▁;	-217
▁ar	-218
ell	-219
▁u	-220
our	-221
ack	-222
ost	-223
ine	-224
ue	-225
ge	-226
▁not	-227
▁k	-228
ight	-229
ary	-230
ical	-231
ap	-232
ther	-233
▁3	-234
og	-235
▁y	-236
ave	-237
ru	-238
▁her	-239
nt	-240
▁–	-241
▁200	-242
▁un	-243
ous	-244
cc	-245
ub	-246
▁inc	-247
ran	-248
ork	-249
so	-250
▁20	-251
fter	-252
own	-253
ust	-254
out	-255
land	-256
ure	-257
wo	-258
ide	-259
end	-260
▁also	-261
irst	-262
ign	-263
▁their	-264
ff	-265
ition	-266
▁has	-267
▁4	-268
ire	-269
▁V	-270
ome	-271
▁ab	-272
per	-273
ult	-274
age	-275
▁cont	-276
▁cl	-277
ould	-278
▁int	-279
man	-280
.@	-281
▁@.@	-282
▁:	-283
ok	-284
pl	-285
▁He	-286
▁its	-287
▁per	-288
ater	-289
▁whe	-290
▁rec	-291
ory	-292
▁ad	-293
ations	-294
▁but	-295
▁Y	-296
▁5	-297
▁one	-298
▁first	-299
▁play	-300
ie	-301
hed	-302
▁two	-303
ite	-304
▁Th	-305
uring	-306
▁bec	-307
▁18	-308
▁Al	-309
▁who	-310
ime	-311
ass	-312
ence	-313
▁this	-314
▁have	-315
du	-316
▁us	-317
▁been	-318
ally	-319
▁en	-320
ough	-321
▁all	-322
ond	-323
▁man	-324
▁off	-325
▁res	-326
▁201	-327
act	-328
ree	-329
ach	-330
▁des	-331
ry	-332
mer	-333
ely	-334
ction	-335
▁comp	-336
oll	-337
▁sc	-338
▁ag	-339
ke	-340
lud	-341
▁she	-342
nder	-343
,@	-344
iz	-345
▁@,@	-346
▁part	-347
▁after	-348
▁im	-349
are	-350
▁other	-351
▁dis	-352
▁ser	-353
ile	-354
▁te	-355
▁j	-356
▁year	-357
▁It	-358
ric	-359
▁app	-360
ib	-361
ang	-362
▁over	-363
▁Un	-364
int	-365
ces	-366
▁go	-367
ark	-368
ors	-369
ubl	-370
ited	-371
ice	-372
▁pre	-373
round	-374
port	-375
old	-376
ound	-377
ade	-378
ount	-379
▁ro	-380
▁includ	-381
ced	-382
ild	-383
ph	-384
ember	-385
▁they	-386
▁out	-387
ents	-388
▁comm	-389
able	-390
ious	-391
ions	-392
ace	-393
ates	-394
ock	-395
▁up	-396
ason	-397
ose	-398
wn	-399
orm	-400
oy	-401
rough	-402
ied	-403
▁6	-404
▁ev	-405
▁work	-406
een	-407
ress	-408
▁time	-409
ft	-410
ath	-411
▁rem	-412
ail	-413
▁co	-414
ep	-415
les	-416
ance	-417
ey	-418
ings	-419
▁into	-420
▁them	-421
ron	-422
▁8	-423
▁more	-424
inal	-425
▁cons	-426
▁att	-427
▁7	-428
ased	-429
reat	-430
▁most	-431
ix	-432
▁under	-433
▁ne	-434
fer	-435
ng	-436
tern	-437
▁Ar	-438
▁him	-439
urn	-440
ase	-441
▁Brit	-442
▁new	-443
▁ear	-444
ind	-445
aw	-446
ilm	-447
ict	-448
use	-449
rib	-450
▁rel	-451
etw	-452
gan	-453
▁only	-454
▁bo	-455
ular	-456
ward	-457
amp	-458
▁tr	-459
ered	-460
▁Z	-461
▁cent	-462
ual	-463
▁sec	-464
ities	-465
hip	-466
bum	-467
▁fe	-468
▁during	-469
vel	-470
▁dec	-471
▁would	-472
ens	-473
ood	-474
oth	-475
▁On	-476
one	-477
te	-478
▁199	-479
iss	-480
olog	-481
▁char	-482
ons	-483
ren	-484
▁ass	-485
▁album	-486
▁season	-487
▁kn	-488
etween	-489
ational	-490
ved	-491
▁act	-492
▁fl	-493
▁record	-494
hn	-495
▁9	-496
oss	-497
▁end	-498
▁ship	-499
▁Sh	-500
ters	-501
▁Com	-502
▁Se	-503
orn	-504
▁we	-505
▁num	-506
▁film	-507
▁when	-508
▁writ	-509
▁about	-510
▁can	-511
▁than	-512
▁three	-513
az	-514
way	-515
ake	-516
▁publ	-517
▁produ	-518
pe	-519
tle	-520
▁again	-521
▁ret	-522
ollow	-523
ames	-524
▁As	-525
▁spec	-526
▁between	-527
▁pr	-528
▁through	-529
▁reg	-530
ve	-531
orld	-532
iew	-533
ished	-534
▁later	-535
▁me	-536
ans	-537
▁so	-538
orth	-539
▁Re	-540
▁sub	-541
ick	-542
▁00	-543
▁Jo	-544
▁bu	-545
hes	-546
arn	-547
ted	-548
▁She	-549
owe	-550
▁such	-551
▁Wh	-552
▁form	-553
▁some	-554
▁Whe	-555
ob	-556
▁four	-557
ener	-558
▁Le	-559
▁ra	-560
ern	-561
ily	-562
arg	-563
▁am	-564
▁British	-565
ars	-566
ating	-567
ins	-568
▁pe	-569
▁while	-570
ten	-571
▁17	-572
oint	-573
▁acc	-574
iel	-575
▁Bl	-576
▁made	-577
▁New	-578
▁mon	-579
▁air	-580
ics	-581
▁0	-582
▁inter	-583
ove	-584
▁being	-585
▁000	-586
▁194	-587
ower	-588
▁sur	-589
▁qu	-590
▁pop	-591
fore	-592
ike	-593
ined	-594
▁ind	-595
ink	-596
ts	-597
ury	-598
▁do	-599
other	-600
▁where	-601
ific	-602
outh	-603
▁rele	-604
▁10	-605
reland	-606
very	-607
▁follow	-608
▁Ireland	-609
hel	-610
ived	-611
▁ac	-612
▁both	-613
▁there	-614
ull	-615
▁charac	-616
▁second	-617
▁number	-618
▁def	-619
▁sy	-620
ause	-621
ject	-622
als	-623
▁bl	-624
usic	-625
▁Con	-626
▁god	-627
erson	-628
ines	-629
▁This	-630
▁An	-631
aid	-632
ised	-633
though	-634
▁became	-635
ole	-636
vern	-637
air	-638
ug	-639
▁12	-640
▁sever	-641
▁main	-642
▁team	-643
▁no	-644
irect	-645
▁hist	-646
▁United	-647
▁high	-648
▁supp	-649
ral	-650
▁ent	-651
▁Ger	-652
ism	-653
▁call	-654
ck	-655
ince	-656
▁John	-657
▁city	-658
iet	-659
▁years	-660
lect	-661
▁Pol	-662
▁perf	-663
▁many	-664
▁well	-665
▁exp	-666
▁long	-667
owever	-668
ste	-669
▁Is	-670
der	-671
ool	-672
▁At	-673
▁rep	-674
▁German	-675
▁Ind	-676
▁cre	-677
▁inv	-678
ae	-679
rans	-680
▁loc	-681
▁sign	-682
▁Mar	-683
ision	-684
▁then	-685
▁used	-686
ican	-687
▁pol	-688
▁tra	-689
▁remain	-690
elf	-691
▁op	-692
▁before	-693
ife	-694
led	-695
▁em	-696
▁pres	-697
ty	-698
▁day	-699
▁met	-700
▁stud	-701
up	-702
row	-703
▁Chr	-704
▁mil	-705
▁Amer	-706
ired	-707
▁dif	-708
ordan	-709
▁arch	-710
ann	-711
▁Cl	-712
▁offic	-713
▁Jordan	-714
apt	-715
ute	-716
son	-717
urch	-718
▁war	-719
▁inf	-720
ivers	-721
▁game	-722
▁song	-723
ures	-724
▁bel	-725
ros	-726
ield	-727
view	-728
▁including	-729
raft	-730
▁lead	-731
▁known	-732
ale	-733
▁11	-734
▁desc	-735
io	-736
▁198	-737
▁All	-738
▁May	-739
imes	-740
▁Comm	-741
▁%	-742
▁ob	-743
▁est	-744
▁against	-745
my	-746
pr	-747
ful	-748
rol	-749
ank	-750
▁sm	-751
oman	-752
vers	-753
chool	-754
ists	-755
▁add	-756
▁York	-757
▁resp	-758
▁dep	-759
ather	-760
▁rece	-761
oot	-762
ise	-763
emb	-764
ony	-765
▁these	-766
aj	-767
▁Ad	-768
ually	-769
▁After	-770
▁several	-771
▁mov	-772
ople	-773
roup	-774
stru	-775
▁War	-776
▁col	-777
ided	-778
ober	-779
▁oper	-780
▁began	-781
erm	-782
velop	-783
▁trans	-784
gy	-785
▁pos	-786
ert	-787
▁bro	-788
ccess	-789
▁could	-790
ek	-791
its	-792
▁set	-793
▁Christ	-794
au	-795
▁conc	-796
▁orig	-797
▁sing	-798
▁direct	-799
▁series	-800
ially	-801
▁—	-802
▁own	-803
ional	-804
▁disc	-805
ier	-806
▁min	-807
ident	-808
▁gr	-809
ural	-810
▁any	-811
ement	-812
ized	-813
▁car	-814
▁character	-815
▁De	-816
vent	-817
▁you	-818
aking	-819
rench	-820
▁found	-821
amed	-822
eler	-823
ments	-824
▁crit	-825
▁/	-826
▁193	-827
▁show	-828
hou	-829
▁ant	-830
▁book	-831
▁imp	-832
▁French	-833
ared	-834
osed	-835
▁art	-836
ative	-837
▁prov	-838
▁describ	-839
▁contin	-840
▁return	-841
alv	-842
▁fam	-843
aged	-844
▁bat	-845
▁said	-846
▁govern	-847
▁music	-848
▁Wheeler	-849
▁ty	-850
cept	-851
▁fin	-852
▁six	-853
▁ph	-854
▁var	-855
▁near	-856
aeolog	-857
▁century	-858
ys	-859
ued	-860
▁Town	-861
▁dist	-862
▁II	-863
▁Rac	-864
▁ext	-865
▁because	-866
▁success	-867
ues	-868
ides	-869
▁191	-870
▁develop	-871
ah	-872
▁Q	-873
▁15	-874
eston	-875
▁sl	-876
▁dam	-877
▁div	-878
▁back	-879
▁feat	-880
▁count	-881
▁Ge	-882
▁gu	-883
▁win	-884
▁comple	-885
▁did	-886
▁same	-887
ton	-888
ague	-889
ball	-890
ning	-891
▁care	-892
▁open	-893
▁partic	-894
▁public	-895
ash	-896
▁Fe	-897
▁may	-898
ording	-899
▁World	-900
▁mill	-901
▁For	-902
▁prom	-903
▁people	-904
▁ep	-905
itary	-906
▁Rachel	-907
▁ref	-908
riend	-909
ex	-910
ured	-911
▁unt	-912
▁dest	-913
enn	-914
ird	-915
ram	-916
ored	-917
▁gener	-918
▁point	-919
▁And	-920
▁each	-921
▁early	-922
▁called	-923
▁design	-924
▁hum	-925
▁state	-926
▁$	-927
erv	-928
uch	-929
ven	-930
▁life	-931
ting	-932
▁Fran	-933
▁Galv	-934
ically	-935
▁class	-936
▁States	-937
▁Galveston	-938
uro	-939
uth	-940
▁White	-941
▁command	-942
ane	-943
oun	-944
▁five	-945
▁Col	-946
iation	-947
▁ships	-948
▁consid	-949
▁Jun	-950
▁gun	-951
▁occ	-952
▁serv	-953
▁small	-954
▁like	-955
▁sent	-956
▁br	-957
ible	-958
▁use	-959
▁Roman	-960
▁until	-961
alk	-962
ilt	-963
ross	-964
▁name	-965
▁along	-966
▁group	-967
▁person	-968
gg	-969
sp	-970
ook	-971
leet	-972
▁192	-973
ble	-974
roy	-975
▁13	-976
▁American	-977
any	-978
▁giv	-979
▁although	-980
und	-981
▁Sc	-982
▁ele	-983
raph	-984
▁Eng	-985
ences	-986
▁played	-987
med	-988
▁around	-989
▁released	-990
ajor	-991
▁eff	-992
▁eng	-993
▁mat	-994
▁result	-995
▁However	-996
▁support	-997
ility	-998
ution	-999
▁Euro	-1000
▁area	-1001
▁gods	-1002
▁start	-1003
▁differ	-1004
▁report	-1005
▁Br	-1006
aced	-1007
▁though	-1008
uc	-1009
▁16	-1010
ange	-1011
▁det	-1012
▁build	-1013
▁since	-1014
▁run	-1015
ended	-1016
stein	-1017
▁down	-1018
▁Europe	-1019
▁ann	-1020
▁dem	-1021
▁str	-1022
▁larg	-1023
▁line	-1024
▁following	-1025
avy	-1026
▁30	-1027
▁Be	-1028
▁ed	-1029
▁Mon	-1030
▁Nov	-1031
▁took	-1032
ission	-1033
▁Black	-1034
ulation	-1035
aim	-1036
arge	-1037
stit	-1038
used	-1039
▁Pro	-1040
▁bas	-1041
▁cast	-1042
▁port	-1043
ium	-1044
▁197	-1045
▁adv	-1046
▁school	-1047
elt	-1048
ged	-1049
omin	-1050
▁Oct	-1051
ately	-1052
▁list	-1053
▁story	-1054
▁exc	-1055
▁iss	-1056
▁King	-1057
▁island	-1058
ages	-1059
▁October	-1060
▁military	-1061
els	-1062
iod	-1063
▁Pr	-1064
▁Jan	-1065
▁mod	-1066
ected	-1067
▁They	-1068
▁appear	-1069
▁received	-1070
ik	-1071
yl	-1072
▁[	-1073
▁bre	-1074
ining	-1075
orman	-1076
▁head	-1077
▁described	-1078
▁25	-1079
ively	-1080
▁Sept	-1081
▁million	-1082
▁position	-1083
▁]	-1084
ient	-1085
▁June	-1086
▁even	-1087
▁those	-1088
▁government	-1089
ai	-1090
abl	-1091
uss	-1092
side	-1093
▁195	-1094
▁based	-1095
▁incre	-1096
▁history	-1097
▁September	-1098
yn	-1099
▁Aug	-1100
▁hand	-1101
▁August	-1102
ley	-1103
ode	-1104
uary	-1105
▁Nic	-1106
▁hel	-1107
ained	-1108
aving	-1109
craft	-1110
▁conf	-1111
▁cult	-1112
▁epis	-1113
▁child	-1114
▁world	-1115
▁During	-1116
▁another	-1117
ets	-1118
▁km	-1119
▁Can	-1120
wards	-1121
▁Ross	-1122
▁power	-1123
▁Polish	-1124
iversity	-1125
▁Or	-1126
ians	-1127
▁named	-1128
▁Sp	-1129
pril	-1130
▁expl	-1131
▁April	-1132
▁There	-1133
▁games	-1134
▁large	-1135
▁stand	-1136
▁control	-1137
ays	-1138
▁prev	-1139
▁stru	-1140
▁single	-1141
xt	-1142
▁Ir	-1143
ital	-1144
▁sim	-1145
▁dra	-1146
inkel	-1147
▁Aust	-1148
▁North	-1149
▁belie	-1150
▁November	-1151
▁included	-1152
yle	-1153
▁We	-1154
arch	-1155
send	-1156
▁prof	-1157
▁prot	-1158
▁career	-1159
anc	-1160
emp	-1161
ison	-1162
▁men	-1163
▁will	-1164
▁Finkel	-1165
▁Townsend	-1166
▁Finkelstein	-1167
..	-1168
lu	-1169
rum	-1170
gypt	-1171
ittle	-1172
▁init	-1173
▁Egypt	-1174
▁Church	-1175
▁period	-1176
▁repres	-1177
▁my	-1178
aven	-1179
imony	-1180
▁home	-1181
▁last	-1182
▁constru	-1183
▁species	-1184
iam	-1185
ret	-1186
▁es	-1187
ants	-1188
▁...	-1189
▁sit	-1190
ister	-1191
▁appro	-1192
▁Nicole	-1193
ner	-1194
▁Ph	-1195
▁old	-1196
ograph	-1197
▁built	-1198
▁major	-1199
orp	-1200
▁av	-1201
▁if	-1202
▁med	-1203
▁opp	-1204
ption	-1205
▁land	-1206
▁establ	-1207
▁Command	-1208
omet	-1209
ently	-1210
▁rest	-1211
▁Irish	-1212
▁destroy	-1213
▁archaeolog	-1214
ives	-1215
stem	-1216
▁196	-1217
▁Dec	-1218
▁tit	-1219
▁typ	-1220
▁left	-1221
▁review	-1222
▁West	-1223
▁pass	-1224
ax	-1225
▁sk	-1226
ouse	-1227
▁Air	-1228
▁much	-1229
▁great	-1230
▁previous	-1231
ef	-1232
ards	-1233
empt	-1234
iety	-1235
acing	-1236
ified	-1237
▁camp	-1238
▁requ	-1239
▁often	-1240
▁order	-1241
▁place	-1242
get	-1243
▁mar	-1244
▁best	-1245
ech	-1246
▁No	-1247
read	-1248
▁Acc	-1249
▁Zhou	-1250
▁site	-1251
ats	-1252
omb	-1253
ival	-1254
ract	-1255
ried	-1256
▁His	-1257
▁2010	-1258
▁among	-1259
▁short	-1260
▁addition	-1261
stant	-1262
▁Sarn	-1263
▁auth	-1264
▁term	-1265
▁south	-1266
▁National	-1267
off	-1268
ung	-1269
iver	-1270
line	-1271
▁2007	-1272
▁trad	-1273
▁January	-1274
alf	-1275
▁14	-1276
▁Gu	-1277
▁now	-1278
▁soc	-1279
▁2006	-1280
▁Sarnia	-1281
▁import	-1282
arl	-1283
ica	-1284
ina	-1285
arly	-1286
▁won	-1287
aster	-1288
ights	-1289
ublic	-1290
▁final	-1291
▁within	-1292
▁original	-1293
con	-1294
ves	-1295
▁tw	-1296
hern	-1297
▁Fey	-1298
▁help	-1299
▁turn	-1300
▁Count	-1301
▁organ	-1302
▁popular	-1303
▁aircraft	-1304
uk	-1305
▁Pl	-1306
▁deb	-1307
ature	-1308
▁2008	-1309
▁week	-1310
▁what	-1311
urther	-1312
orthern	-1313
▁attempt	-1314
▁University	-1315
eter	-1316
rote	-1317
▁just	-1318
▁allow	-1319
▁event	-1320
isc	-1321
aves	-1322
quad	-1323
ented	-1324
▁real	-1325
▁repl	-1326
▁still	-1327
▁wrote	-1328
▁family	-1329
▁According	-1330
▁published	-1331
iqu	-1332
tal	-1333
▁Ju	-1334
▁due	-1335
▁equ	-1336
▁human	-1337
ll	-1338
dom	-1339
hen	-1340
pped	-1341
▁led	-1342
▁top	-1343
▁2013	-1344
▁City	-1345
▁very	-1346
▁fleet	-1347
▁histor	-1348
▁system	-1349
▁episode	-1350
▁December	-1351
▁particular	-1352
▁US	-1353
▁er	-1354
▁Ant	-1355
▁Yue	-1356
▁gold	-1357
▁perform	-1358
amb	-1359
ots	-1360
self	-1361
▁gre	-1362
ached	-1363
▁make	-1364
▁different	-1365
sk	-1366
▁Me	-1367
ivil	-1368
▁arm	-1369
▁prog	-1370
▁influ	-1371
▁considered	-1372
ness	-1373
oard	-1374
▁2009	-1375
▁Jack	-1376
▁mark	-1377
ground	-1378
vision	-1379
ox	-1380
inc	-1381
▁Ne	-1382
embers	-1383
riends	-1384
▁relations	-1385
ford	-1386
hest	-1387
iers	-1388
▁capt	-1389
arm	-1390
▁Go	-1391
▁NB	-1392
▁cap	-1393
field	-1394
▁fire	-1395
eng	-1396
mar	-1397
urt	-1398
▁24	-1399
over	-1400
▁Her	-1401
▁Army	-1402
▁late	-1403
▁post	-1404
▁March	-1405
▁month	-1406
▁third	-1407
▁project	-1408
▁population	-1409
by	-1410
app	-1411
oyal	-1412
▁Bro	-1413
▁spe	-1414
▁tak	-1415
▁2011	-1416
▁Will	-1417
▁poss	-1418
estern	-1419
▁Gener	-1420
ody	-1421
osp	-1422
rop	-1423
▁23	-1424
▁ft	-1425
abor	-1426
ideo	-1427
ggest	-1428
▁away	-1429
▁foot	-1430
▁prop	-1431
▁become	-1432
▁suggest	-1433
▁Ex	-1434
ling	-1435
▁vis	-1436
▁cour	-1437
▁less	-1438
▁side	-1439
▁James	-1440
▁invol	-1441
▁north	-1442
▁stated	-1443
▁Pal	-1444
▁You	-1445
▁few	-1446
▁commun	-1447
mas	-1448
ones	-1449
iving	-1450
▁With	-1451
▁came	-1452
▁half	-1453
▁death	-1454
▁track	-1455
▁attack	-1456
▁Although	-1457
rick	-1458
▁tele	-1459
ention	-1460
▁given	-1461
▁local	-1462
▁polit	-1463
▁times	-1464
▁young	-1465
▁General	-1466
▁members	-1467
▁profess	-1468
▁recorded	-1469
par	-1470
▁Am	-1471
ched	-1472
ices	-1473
urre	-1474
uted	-1475
▁Rep	-1476
athan	-1477
ument	-1478
▁Canad	-1479
▁activ	-1480
▁County	-1481
▁author	-1482
▁should	-1483
bs	-1484
▁ca	-1485
▁inst	-1486
quadron	-1487
▁Christmas	-1488
▁performan	-1489
▁throughout	-1490
▁relationship	-1491
ior	-1492
▁21	-1493
▁el	-1494
lear	-1495
▁ten	-1496
▁comb	-1497
▁star	-1498
ctions	-1499
▁eight	-1500
▁exper	-1501
ardinal	-1502
▁former	-1503
▁produced	-1504
▁returned	-1505
osa	-1506
▁Fl	-1507
▁Im	-1508
ales	-1509
omen	-1510
pite	-1511
▁pur	-1512
ering	-1513
▁Port	-1514
▁role	-1515
astern	-1516
ection	-1517
▁further	-1518
ize	-1519
▁Em	-1520
▁hy	-1521
aces	-1522
ects	-1523
▁beh	-1524
▁pat	-1525
ances	-1526
ondon	-1527
▁conv	-1528
▁doll	-1529
▁east	-1530
▁vers	-1531
▁South	-1532
▁moved	-1533
▁London	-1534
▁Britain	-1535
▁without	-1536
ery	-1537
ilar	-1538
rael	-1539
▁che	-1540
▁level	-1541
▁react	-1542
▁Israel	-1543
▁written	-1544
cy	-1545
angu	-1546
ches	-1547
▁way	-1548
ither	-1549
▁When	-1550
▁every	-1551
▁noted	-1552
▁beg	-1553
▁mid	-1554
▁tri	-1555
▁July	-1556
▁style	-1557
irc	-1558
idge	-1559
ploy	-1560
▁One	-1561
▁nov	-1562
ience	-1563
ising	-1564
▁2012	-1565
▁Cent	-1566
▁sold	-1567
▁take	-1568
▁These	-1569
▁claim	-1570
▁GA	-1571
▁sw	-1572
▁Car	-1573
▁Des	-1574
useum	-1575
▁surv	-1576
ration	-1577
▁strong	-1578
▁Kingdom	-1579
▁building	-1580
▁continued	-1581
ws	-1582
▁X	-1583
▁jo	-1584
ains	-1585
olic	-1586
▁Hol	-1587
▁kill	-1588
▁water	-1589
▁League	-1590
▁however	-1591
com	-1592
oor	-1593
augh	-1594
cted	-1595
ring	-1596
▁Mat	-1597
▁lim	-1598
▁put	-1599
aying	-1600
▁stre	-1601
lected	-1602
▁common	-1603
▁forces	-1604
▁damaged	-1605
▁deities	-1606
▁By	-1607
lish	-1608
rang	-1609
▁Jew	-1610
▁Rec	-1611
▁fre	-1612
▁leg	-1613
duced	-1614
▁fact	-1615
▁fore	-1616
▁west	-1617
▁chart	-1618
▁having	-1619
▁Austral	-1620
▁include	-1621
▁antimony	-1622
▁important	-1623
ne	-1624
bru	-1625
umb	-1626
▁gl	-1627
oted	-1628
▁mag	-1629
▁Cath	-1630
▁Lock	-1631
▁need	-1632
▁somet	-1633
▁English	-1634
▁various	-1635
▁official	-1636
ael	-1637
ele	-1638
▁Sec	-1639
isted	-1640
▁days	-1641
▁gave	-1642
▁held	-1643
▁Royal	-1644
▁relig	-1645
▁right	-1646
▁battle	-1647
▁signific	-1648
▁tradition	-1649
val	-1650
ense	-1651
iter	-1652
▁dou	-1653
▁Hist	-1654
▁earl	-1655
▁feet	-1656
▁next	-1657
▁Haven	-1658
▁langu	-1659
▁refer	-1660
▁title	-1661
▁country	-1662
▁Northern	-1663
ML	-1664
▁50	-1665
ened	-1666
▁100	-1667
▁Mad	-1668
▁ord	-1669
atory	-1670
▁club	-1671
▁seen	-1672
▁stat	-1673
▁wind	-1674
bruary	-1675
▁player	-1676
▁release	-1677
▁February	-1678
aul	-1679
ges	-1680
key	-1681
sequ	-1682
▁arr	-1683
▁gen	-1684
▁sex	-1685
ories	-1686
stead	-1687
▁Navy	-1688
▁miss	-1689
▁Nathan	-1690
▁remained	-1691
▁reported	-1692
▁production	-1693
ls	-1694
ulf	-1695
▁Tru	-1696
▁pri	-1697
▁Mark	-1698
▁hour	-1699
▁range	-1700
▁located	-1701
ternational	-1702
▁successful	-1703
▁Af	-1704
aper	-1705
illo	-1706
▁del	-1707
igned	-1708
iness	-1709
▁good	-1710
▁father	-1711
▁similar	-1712
▁national	-1713
▁construction	-1714
ald	-1715
emy	-1716
ott	-1717
reg	-1718
▁En	-1719
echn	-1720
ront	-1721
▁Ass	-1722
▁hig	-1723
▁low	-1724
oring	-1725
▁Geor	-1726
▁circ	-1727
▁suff	-1728
▁town	-1729
▁critic	-1730
▁himself	-1731
▁Cardinal	-1732
cer	-1733
ene	-1734
▁fem	-1735
▁obs	-1736
iting	-1737
▁fail	-1738
▁guns	-1739
▁wall	-1740
▁never	-1741
▁using	-1742
▁others	-1743
▁developed	-1744
▁established	-1745
cl	-1746
ani	-1747
ask	-1748
fic	-1749
ope	-1750
▁la	-1751
ably	-1752
ords	-1753
▁AML	-1754
▁Med	-1755
enced	-1756
▁Rout	-1757
▁want	-1758
▁India	-1759
▁assoc	-1760
▁total	-1761
imately	-1762
▁scored	-1763
▁Constant	-1764
be	-1765
iva	-1766
▁22	-1767
▁26	-1768
▁Ed	-1769
alth	-1770
▁fun	-1771
▁ste	-1772
▁ter	-1773
ensive	-1774
▁novel	-1775
ination	-1776
▁Island	-1777
▁children	-1778
ape	-1779
iol	-1780
ops	-1781
▁Ac	-1782
▁186	-1783
▁too	-1784
ental	-1785
▁felt	-1786
▁find	-1787
▁read	-1788
▁view	-1789
itions	-1790
▁excav	-1791
▁damage	-1792
▁Republic	-1793
af	-1794
▁!	-1795
▁28	-1796
▁cr	-1797
rict	-1798
▁Min	-1799
▁NBA	-1800
▁law	-1801
▁rev	-1802
▁appe	-1803
▁goal	-1804
inally	-1805
▁Shiva	-1806
▁cover	-1807
▁intro	-1808
▁special	-1809
▁writing	-1810
MS	-1811
ler	-1812
ple	-1813
▁Mc	-1814
merc	-1815
ourn	-1816
▁bar	-1817
▁fig	-1818
▁par	-1819
▁val	-1820
▁Arch	-1821
▁draw	-1822
ressed	-1823
▁Afric	-1824
▁sound	-1825
▁depict	-1826
▁spacing	-1827
▁interest	-1828
▁television	-1829
▁z	-1830
itz	-1831
▁mm	-1832
cher	-1833
▁ide	-1834
pping	-1835
▁Song	-1836
▁Wild	-1837
▁base	-1838
▁decl	-1839
▁plan	-1840
▁sour	-1841
▁Route	-1842
▁least	-1843
▁super	-1844
▁present	-1845
▁significant	-1846
co	-1847
▁’	-1848
hib	-1849
ico	-1850
ayer	-1851
ivid	-1852
▁God	-1853
▁aff	-1854
iated	-1855
itted	-1856
▁Russ	-1857
▁Truj	-1858
▁does	-1859
▁rank	-1860
▁Great	-1861
▁award	-1862
▁round	-1863
▁accept	-1864
▁modern	-1865
▁created	-1866
▁players	-1867
▁training	-1868
▁represent	-1869
sh	-1870
van	-1871
ator	-1872
lant	-1873
▁189	-1874
▁adm	-1875
▁sol	-1876
▁rock	-1877
▁accom	-1878
▁chang	-1879
▁light	-1880
▁ground	-1881
▁reached	-1882
▁Trujillo	-1883
▁operations	-1884
▁&	-1885
▁27	-1886
▁UK	-1887
ster	-1888
▁Man	-1889
▁Pri	-1890
▁fav	-1891
▁mix	-1892
▁tre	-1893
oviet	-1894
▁once	-1895
aching	-1896
▁colle	-1897
▁ident	-1898
▁manag	-1899
▁seven	-1900
▁Jewish	-1901
▁service	-1902
▁characters	-1903
▁Constantine	-1904
ese	-1905
oid	-1906
▁NH	-1907
atic	-1908
eder	-1909
▁187	-1910
▁Div	-1911
▁cut	-1912
▁how	-1913
istic	-1914
▁Rock	-1915
▁agre	-1916
▁full	-1917
gether	-1918
idence	-1919
▁points	-1920
▁together	-1921
rak	-1922
▁31	-1923
▁40	-1924
▁Tr	-1925
ving	-1926
▁Lad	-1927
▁dev	-1928
▁sym	-1929
▁Char	-1930
▁grow	-1931
▁viol	-1932
atural	-1933
ishing	-1934
▁While	-1935
▁issue	-1936
▁press	-1937
▁video	-1938
mercial	-1939
▁entire	-1940
▁individ	-1941
▁respect	-1942
▁performance	-1943
aly	-1944
onn	-1945
ria	-1946
▁dr	-1947
reen	-1948
▁188	-1949
▁age	-1950
▁cou	-1951
iston	-1952
▁Mich	-1953
▁coll	-1954
▁hold	-1955
▁move	-1956
▁prim	-1957
▁earth	-1958
▁songs	-1959
▁Little	-1960
▁Soviet	-1961
▁advant	-1962
▁church	-1963
▁appoint	-1964
▁Catholic	-1965
▁political	-1966
br	-1967
ez	-1968
ago	-1969
edy	-1970
ham	-1971
ief	-1972
orr	-1973
chol	-1974
▁Bar	-1975
▁esc	-1976
▁get	-1977
▁band	-1978
▁deal	-1979
ertain	-1980
ficult	-1981
▁becom	-1982
▁occup	-1983
▁Atlant	-1984
▁league	-1985
▁general	-1986
akes	-1987
iber	-1988
iron	-1989
▁ins	-1990
▁2003	-1991
▁aver	-1992
▁conn	-1993
▁died	-1994
▁fund	-1995
▁rese	-1996
▁Early	-1997
▁First	-1998
▁Union	-1999
▁civil	-2000
▁mother	-2001
▁director	-2002
▁eventually	-2003
zz	-2004
sen	-2005
▁Gr	-2006
▁Sw	-2007
▁ke	-2008
ells	-2009
▁Pet	-2010
▁arg	-2011
ample	-2012
ranch	-2013
▁loss	-2014
▁sail	-2015
▁Music	-2016
▁break	-2017
▁mater	-2018
▁miles	-2019
▁taken	-2020
▁dollar	-2021
▁either	-2022
▁making	-2023
▁version	-2024
▁Anderson	-2025
▁language	-2026
▁difficult	-2027
day	-2028
rag	-2029
rem	-2030
rew	-2031
▁Su	-2032
aint	-2033
ukem	-2034
▁Red	-2035
▁Tex	-2036
▁fac	-2037
▁pil	-2038
itive	-2039
lying	-2040
ology	-2041
▁Best	-2042
▁Park	-2043
▁able	-2044
▁born	-2045
▁free	-2046
▁insp	-2047
▁went	-2048
elling	-2049
▁pract	-2050
▁storm	-2051
ization	-2052
▁School	-2053
▁Egyptian	-2054
▁followed	-2055
tain	-2056
uals	-2057
ying	-2058
▁Ang	-2059
▁Bat	-2060
▁Dav	-2061
▁Par	-2062
▁Sap	-2063
▁Two	-2064
▁aud	-2065
ality	-2066
conom	-2067
osing	-2068
▁lost	-2069
urrent	-2070
▁State	-2071
▁estim	-2072
▁force	-2073
▁white	-2074
▁castle	-2075
▁worked	-2076
▁leading	-2077
▁officers	-2078
AA	-2079
ado	-2080
iec	-2081
ogn	-2082
▁Gl	-2083
aval	-2084
cent	-2085
ille	-2086
utes	-2087
▁bus	-2088
▁sou	-2089
▁tow	-2090
▁tro	-2091
▁Bill	-2092
▁live	-2093
▁close	-2094
▁creat	-2095
▁impro	-2096
stitute	-2097
▁France	-2098
▁Indian	-2099
▁action	-2100
▁formed	-2101
▁indust	-2102
▁signed	-2103
▁William	-2104
▁European	-2105
▁Squadron	-2106
▁provided	-2107
▁performed	-2108
▁particularly	-2109
aff	-2110
ude	-2111
▁Pe	-2112
ores	-2113
▁Che	-2114
▁cru	-2115
▁den	-2116
▁rad	-2117
▁2015	-2118
▁Love	-2119
▁Some	-2120
▁body	-2121
▁cond	-2122
▁love	-2123
▁proc	-2124
▁occur	-2125
▁techn	-2126
ography	-2127
▁double	-2128
▁America	-2129
▁Saprang	-2130
aps	-2131
oad	-2132
oon	-2133
oph	-2134
▁45	-2135
▁Er	-2136
ases	-2137
ecut	-2138
ples	-2139
▁190	-2140
▁Act	-2141
▁pra	-2142
atter	-2143
osaur	-2144
▁2014	-2145
▁look	-2146
▁test	-2147
▁field	-2148
▁treat	-2149
▁recogn	-2150
▁taking	-2151
▁example	-2152
▁respons	-2153
▁advantage	-2154
▁development	-2155
▁professional	-2156
▁?	-2157
acy	-2158
ino	-2159
unk	-2160
▁Ab	-2161
▁Har	-2162
▁ask	-2163
thern	-2164
▁Gold	-2165
▁corn	-2166
▁educ	-2167
▁raid	-2168
▁Wilde	-2169
▁above	-2170
▁areas	-2171
▁coast	-2172
▁women	-2173
▁effect	-2174
▁employ	-2175
▁little	-2176
▁served	-2177
▁material	-2178
▁religious	-2179
▁commercial	-2180
eh	-2181
tic	-2182
ush	-2183
emor	-2184
most	-2185
ways	-2186
▁Mag	-2187
▁fif	-2188
▁red	-2189
board	-2190
ecess	-2191
▁2005	-2192
▁Blue	-2193
▁Penn	-2194
▁Wood	-2195
▁elect	-2196
▁Govern	-2197
▁events	-2198
▁forced	-2199
▁leukem	-2200
▁social	-2201
▁Western	-2202
▁earlier	-2203
▁instead	-2204
▁schools	-2205
▁thought	-2206
gra	-2207
ont	-2208
atch	-2209
ency	-2210
iral	-2211
ries	-2212
▁cal	-2213
▁see	-2214
itect	-2215
▁Camp	-2216
▁Other	-2217
▁Texas	-2218
▁broad	-2219
▁Canada	-2220
▁compet	-2221
▁writer	-2222
▁culture	-2223
▁playing	-2224
dle	-2225
▁Cr	-2226
▁To	-2227
less	-2228
medi	-2229
▁HMS	-2230
▁Que	-2231
▁bet	-2232
ators	-2233
empor	-2234
ylvan	-2235
▁Bull	-2236
▁Cole	-2237
▁East	-2238
▁crew	-2239
▁defe	-2240
▁tour	-2241
▁upon	-2242
▁vict	-2243
rought	-2244
▁plann	-2245
▁George	-2246
▁across	-2247
▁behind	-2248
▁member	-2249
▁central	-2250
▁remains	-2251
▁started	-2252
ski	-2253
rown	-2254
▁Naz	-2255
▁Off	-2256
▁far	-2257
▁ill	-2258
▁sum	-2259
arent	-2260
epend	-2261
ought	-2262
▁Long	-2263
▁grad	-2264
▁lack	-2265
▁phys	-2266
▁whom	-2267
ements	-2268
icated	-2269
▁black	-2270
▁match	-2271
▁schol	-2272
olution	-2273
▁female	-2274
▁England	-2275
▁current	-2276
▁largest	-2277
▁program	-2278
▁regular	-2279
azz	-2280
cing	-2281
elli	-2282
uter	-2283
▁Res	-2284
▁hom	-2285
▁non	-2286
▁son	-2287
azine	-2288
ockey	-2289
rance	-2290
ronic	-2291
urric	-2292
▁neut	-2293
uments	-2294
▁Rober	-2295
▁avail	-2296
▁fight	-2297
▁house	-2298
▁space	-2299
ampions	-2300
▁announ	-2301
▁econom	-2302
▁joined	-2303
▁proper	-2304
▁Aniston	-2305
▁Friends	-2306
▁opening	-2307
▁serious	-2308
▁contract	-2309
▁Christian	-2310
▁completed	-2311
vin	-2312
▁36	-2313
▁Bu	-2314
apan	-2315
chie	-2316
hips	-2317
play	-2318
rake	-2319
ript	-2320
▁III	-2321
▁Pat	-2322
▁cop	-2323
▁cor	-2324
aries	-2325
▁meet	-2326
▁reve	-2327
ential	-2328
▁object	-2329
▁police	-2330
▁brought	-2331
▁designed	-2332
▁sentence	-2333
▁initially	-2334
ara	-2335
cil	-2336
opp	-2337
rab	-2338
▁Sy	-2339
ault	-2340
graf	-2341
ises	-2342
rest	-2343
▁Adm	-2344
▁Cat	-2345
▁tom	-2346
ander	-2347
ivate	-2348
▁Acad	-2349
▁Furt	-2350
▁Mont	-2351
▁dock	-2352
▁host	-2353
▁past	-2354
▁achie	-2355
▁films	-2356
▁flood	-2357
▁states	-2358
▁struct	-2359
▁Furtado	-2360
▁decided	-2361
▁Markgraf	-2362
▁appeared	-2363
▁football	-2364
▁particip	-2365
▁interview	-2366
ma	-2367
ze	-2368
▁NHL	-2369
▁Reg	-2370
▁lik	-2371
▁ren	-2372
▁tem	-2373
▁voc	-2374
house	-2375
iding	-2376
▁Phil	-2377
▁clos	-2378
▁earn	-2379
▁pers	-2380
ending	-2381
uation	-2382
▁David	-2383
▁Japan	-2384
▁River	-2385
▁mount	-2386
▁night	-2387
▁stone	-2388
ilities	-2389
ylvania	-2390
▁reason	-2391
▁struck	-2392
▁critics	-2393
▁assigned	-2394
▁features	-2395
▁transfer	-2396
▁destroyed	-2397
▁Archaeolog	-2398
anz	-2399
ero	-2400
▁El	-2401
▁Qu	-2402
alky	-2403
olay	-2404
pper	-2405
ream	-2406
wood	-2407
▁Ali	-2408
▁Soc	-2409
▁aer	-2410
▁mer	-2411
▁reb	-2412
▁sea	-2413
▁vol	-2414
▁wid	-2415
ament	-2416
arian	-2417
asing	-2418
elled	-2419
ounds	-2420
rated	-2421
▁2004	-2422
▁Krak	-2423
▁fict	-2424
▁mean	-2425
▁nine	-2426
▁Penns	-2427
▁draft	-2428
▁separ	-2429
artment	-2430
ecutive	-2431
▁Sholay	-2432
▁engine	-2433
▁Michael	-2434
▁involved	-2435
▁research	-2436
▁appointed	-2437
▁originally	-2438
ote	-2439
rap	-2440
aled	-2441
aton	-2442
ogue	-2443
▁Bel	-2444
▁Dep	-2445
▁box	-2446
▁fru	-2447
▁syn	-2448
ector	-2449
eding	-2450
▁1990	-2451
▁Vict	-2452
ournal	-2453
▁learn	-2454
▁twent	-2455
▁weeks	-2456
ference	-2457
▁Columb	-2458
▁comment	-2459
▁outside	-2460
ification	-2461
▁Australia	-2462
▁architect	-2463
▁increased	-2464
▁sometimes	-2465
▁transport	-2466
aby	-2467
let	-2468
urb	-2469
▁29	-2470
▁Sl	-2471
▁di	-2472
aret	-2473
atin	-2474
enth	-2475
▁185	-2476
▁Cup	-2477
▁mor	-2478
▁rul	-2479
emple	-2480
erous	-2481
ormal	-2482
▁Most	-2483
▁Oper	-2484
▁Paul	-2485
▁Serv	-2486
▁army	-2487
▁know	-2488
▁Assoc	-2489
▁Valky	-2490
▁study	-2491
▁opened	-2492
▁troops	-2493
urricane	-2494
▁highest	-2495
▁station	-2496
sequently	-2497
▁students	-2498
▁surround	-2499
▁community	-2500
ms	-2501
▁35	-2502
▁mi	-2503
ston	-2504
▁Bay	-2505
▁But	-2506
▁Ste	-2507
▁abs	-2508
▁ens	-2509
▁pot	-2510
orpor	-2511
usion	-2512
▁Film	-2513
▁From	-2514
▁Rich	-2515
▁Thom	-2516
▁case	-2517
▁ever	-2518
▁laun	-2519
▁prob	-2520
ington	-2521
▁Eaton	-2522
▁House	-2523
▁demon	-2524
▁minor	-2525
▁Second	-2526
▁almost	-2527
▁caused	-2528
▁History	-2529
▁limited	-2530
▁process	-2531
▁featured	-2532
ny	-2533
ata	-2534
den	-2535
pec	-2536
ray	-2537
▁Sb	-2538
▁Sm	-2539
▁So	-2540
▁ru	-2541
▁500	-2542
▁Ale	-2543
▁Cre	-2544
▁Del	-2545
▁mot	-2546
inent	-2547
ynast	-2548
▁Capt	-2549
▁Hell	-2550
▁Many	-2551
▁Pres	-2552
▁bomb	-2553
▁come	-2554
▁piec	-2555
▁stri	-2556
▁type	-2557
▁wife	-2558
lement	-2559
ulated	-2560
▁Under	-2561
▁condu	-2562
▁debut	-2563
▁goals	-2564
▁remov	-2565
▁shown	-2566
ibility	-2567
isation	-2568
▁Palest	-2569
▁Robert	-2570
▁Victor	-2571
▁convoy	-2572
▁effort	-2573
▁region	-2574
▁carried	-2575
▁despite	-2576
▁percent	-2577
▁available	-2578
▁estimated	-2579
▁introduced	-2580
▁-	-2581
hod	-2582
ken	-2583
olf	-2584
▁60	-2585
▁Ag	-2586
▁TV	-2587
▁cm	-2588
here	-2589
hess	-2590
hews	-2591
ique	-2592
ites	-2593
▁Comp	-2594
▁Vill	-2595
▁Year	-2596
▁adop	-2597
▁pred	-2598
etball	-2599
isions	-2600
▁Colle	-2601
▁adapt	-2602
▁added	-2603
▁begin	-2604
▁might	-2605
▁names	-2606
▁divine	-2607
▁sexual	-2608
▁threat	-2609
▁concern	-2610
▁eastern	-2611
▁evidence	-2612
▁Institute	-2613
▁announced	-2614
▁recording	-2615
▁activities	-2616
▁previously	-2617
▁Pennsylvania	-2618
ett	-2619
sel	-2620
inct	-2621
ulpt	-2622
▁Per	-2623
▁bur	-2624
▁nar	-2625
▁nuc	-2626
▁sil	-2627
▁2002	-2628
▁Fern	-2629
▁Howe	-2630
▁anti	-2631
▁shot	-2632
▁soon	-2633
▁teac	-2634
▁wide	-2635
▁wood	-2636
▁block	-2637
▁liter	-2638
▁prior	-2639
▁think	-2640
▁trade	-2641
▁works	-2642
osaurus	-2643
▁Awards	-2644
▁agreed	-2645
▁itself	-2646
▁museum	-2647
ological	-2648
ormation	-2649
▁brother	-2650
▁natural	-2651
▁scoring	-2652
▁working	-2653
▁Division	-2654
▁believed	-2655
▁business	-2656
▁finished	-2657
▁replaced	-2658
▁generally	-2659
▁supported	-2660
▁underground	-2661
ait	-2662
bor	-2663
ump	-2664
utz	-2665
aker	-2666
ateg	-2667
band	-2668
iser	-2669
▁Def	-2670
▁Mex	-2671
▁enc	-2672
▁hon	-2673
iring	-2674
▁2000	-2675
▁Club	-2676
▁Hall	-2677
▁That	-2678
▁coun	-2679
▁exam	-2680
▁fell	-2681
▁heav	-2682
▁Bulls	-2683
▁Fleet	-2684
▁books	-2685
▁crake	-2686
▁quick	-2687
▁units	-2688
▁Direct	-2689
▁Follow	-2690
▁detail	-2691
▁fourth	-2692
▁friend	-2693
▁placed	-2694
▁proble	-2695
▁Mathews	-2696
▁conclud	-2697
▁friends	-2698
▁largely	-2699
▁Valkyria	-2700
▁elements	-2701
▁entrance	-2702
▁Following	-2703
▁according	-2704
▁additional	-2705
▁commandment	-2706
bar	-2707
gal	-2708
how	-2709
rea	-2710
▁80	-2711
▁Lo	-2712
▁Of	-2713
lict	-2714
reek	-2715
▁End	-2716
▁Val	-2717
▁gir	-2718
▁saw	-2719
arker	-2720
rying	-2721
▁High	-2722
▁Stud	-2723
▁ball	-2724
▁frag	-2725
▁mult	-2726
▁phot	-2727
▁purp	-2728
▁Later	-2729
▁blood	-2730
▁espec	-2731
▁front	-2732
▁metal	-2733
ability	-2734
▁nearly	-2735
▁wanted	-2736
▁Admiral	-2737
▁Coleman	-2738
▁Service	-2739
▁prevent	-2740
▁suggested	-2741
▁especially	-2742
▁+	-2743
edo	-2744
omm	-2745
oms	-2746
rif	-2747
▁Co	-2748
▁Kn	-2749
ades	-2750
aign	-2751
aire	-2752
oice	-2753
vert	-2754
▁Jes	-2755
▁sal	-2756
▁ult	-2757
ortun	-2758
▁1940	-2759
▁Cold	-2760
▁fall	-2761
▁self	-2762
▁size	-2763
▁vill	-2764
▁Brook	-2765
▁Clark	-2766
▁shoot	-2767
▁larger	-2768
▁minute	-2769
▁sculpt	-2770
▁greater	-2771
▁reviews	-2772
▁smaller	-2773
▁towards	-2774
▁winning	-2775
▁appearance	-2776
▁Association	-2777
▁traditional	-2778
AS	-2779
ee	-2780
ify	-2781
isk	-2782
▁44	-2783
▁Je	-2784
ills	-2785
oses	-2786
rain	-2787
▁184	-2788
▁Art	-2789
▁Sur	-2790
▁Tim	-2791
▁ben	-2792
▁sac	-2793
erved	-2794
icago	-2795
ithic	-2796
quare	-2797
▁2001	-2798
▁Star	-2799
▁keep	-2800
echism	-2801
idents	-2802
▁Charl	-2803
▁Frank	-2804
▁Times	-2805
▁below	-2806
▁exist	-2807
▁whose	-2808
▁center	-2809
▁closed	-2810
▁comedy	-2811
▁immedi	-2812
▁months	-2813
▁sevent	-2814
▁studio	-2815
▁turned	-2816
▁Captain	-2817
▁Chicago	-2818
▁Despite	-2819
▁Society	-2820
▁account	-2821
▁capital	-2822
▁praised	-2823
▁subject	-2824
▁Atlantic	-2825
▁directed	-2826
▁discover	-2827
▁Billboard	-2828
igg	-2829
▁Po	-2830
▁Up	-2831
hing	-2832
rast	-2833
▁Hen	-2834
▁San	-2835
▁Ter	-2836
▁har	-2837
▁imm	-2838
cient	-2839
▁appl	-2840
▁chem	-2841
▁must	-2842
▁word	-2843
inated	-2844
▁Geoff	-2845
▁going	-2846
▁heavy	-2847
▁paper	-2848
▁woman	-2849
duction	-2850
ospital	-2851
ributed	-2852
valiers	-2853
▁Africa	-2854
▁Battle	-2855
▁Poland	-2856
▁better	-2857
▁groups	-2858
▁killed	-2859
▁regard	-2860
▁saying	-2861
▁search	-2862
▁territ	-2863
▁twenty	-2864
emporary	-2865
▁Charles	-2866
▁manager	-2867
▁increase	-2868
▁possible	-2869
▁remaining	-2870
▁Chevaliers	-2871
▁international	-2872
▁°	-2873
ift	-2874
irt	-2875
uck	-2876
▁32	-2877
▁Tw	-2878
aily	-2879
ests	-2880
tles	-2881
▁300	-2882
▁Bec	-2883
▁Met	-2884
▁Mid	-2885
▁und	-2886
imate	-2887
riage	-2888
▁Cull	-2889
▁Tint	-2890
▁dead	-2891
▁poor	-2892
▁save	-2893
anding	-2894
orpedo	-2895
▁cross	-2896
▁nomin	-2897
▁polic	-2898
▁ranked	-2899
▁submar	-2900
▁Academy	-2901
▁Fernand	-2902
▁arrived	-2903
▁ordered	-2904
▁Romanian	-2905
▁greatest	-2906
▁monument	-2907
▁personal	-2908
▁southern	-2909
▁specific	-2910
▁standard	-2911
▁Catechism	-2912
II	-2913
ao	-2914
uel	-2915
▁fr	-2916
iant	-2917
olid	-2918
▁Fei	-2919
▁Sal	-2920
▁Sim	-2921
▁Ton	-2922
▁foc	-2923
asion	-2924
odies	-2925
orses	-2926
ready	-2927
thing	-2928
▁Part	-2929
▁Post	-2930
▁bask	-2931
▁chap	-2932
▁date	-2933
▁give	-2934
▁mass	-2935
▁meas	-2936
▁vess	-2937
▁Queen	-2938
▁forms	-2939
▁lines	-2940
▁offer	-2941
▁Tintin	-2942
▁invest	-2943
▁allowed	-2944
▁awarded	-2945
▁consist	-2946
▁highway	-2947
▁overall	-2948
▁private	-2949
▁Clarkson	-2950
▁cultural	-2951
▁independ	-2952
gr	-2953
awa	-2954
eth	-2955
▁cy	-2956
agod	-2957
aust	-2958
iest	-2959
onse	-2960
rian	-2961
rief	-2962
▁Cal	-2963
▁Sha	-2964
▁doc	-2965
▁don	-2966
▁inj	-2967
aught	-2968
▁1994	-2969
▁Conf	-2970
▁Week	-2971
▁cost	-2972
▁cred	-2973
▁happ	-2974
▁perm	-2975
▁targ	-2976
aining	-2977
▁Campb	-2978
▁Civil	-2979
▁favor	-2980
▁hours	-2981
▁newsp	-2982
▁visit	-2983
▁whole	-2984
▁Museum	-2985
▁enough	-2986
▁flying	-2987
▁mostly	-2988
▁necess	-2989
▁rather	-2990
▁secret	-2991
▁already	-2992
▁finally	-2993
▁torpedo	-2994
▁campaign	-2995
▁magazine	-2996
▁education	-2997
▁operation	-2998
▁commission	-2999
▁excavation	-3000
▁archaeological	-3001
bl	-3002
hy	-3003
of	-3004
bon	-3005
uan	-3006
▁90	-3007
▁Av	-3008
▁FI	-3009
▁lo	-3010
ingu	-3011
ires	-3012
▁hit	-3013
▁lab	-3014
▁pun	-3015
▁sat	-3016
heast	-3017
inals	-3018
overy	-3019
owers	-3020
▁1996	-3021
▁Ders	-3022
▁anim	-3023
▁deep	-3024
▁emer	-3025
▁road	-3026
▁thus	-3027
ederal	-3028
howitz	-3029
▁Angel	-3030
▁Carol	-3031
▁Peter	-3032
▁Young	-3033
▁armed	-3034
▁compl	-3035
▁fifth	-3036
▁image	-3037
▁teams	-3038
▁terms	-3039
▁types	-3040
▁Barker	-3041
▁Cullen	-3042
▁Mexico	-3043
▁albums	-3044
▁always	-3045
▁helped	-3046
▁horses	-3047
▁inches	-3048
▁longer	-3049
▁travel	-3050
▁College	-3051
▁Germany	-3052
▁average	-3053
▁provide	-3054
▁workers	-3055
▁writers	-3056
▁industry	-3057
▁marriage	-3058
▁response	-3059
▁Woodhouse	-3060
▁president	-3061
▁Dershowitz	-3062
ema	-3063
han	-3064
ume	-3065
▁Ty	-3066
ibar	-3067
▁Bre	-3068
▁Hum	-3069
▁pen	-3070
▁rap	-3071
▁wor	-3072
ports	-3073
▁Area	-3074
▁Foot	-3075
▁Game	-3076
▁Lady	-3077
▁hous	-3078
▁jazz	-3079
▁says	-3080
ashion	-3081
▁Domin	-3082
▁Since	-3083
▁famil	-3084
▁naval	-3085
▁shows	-3086
▁sites	-3087
▁sport	-3088
ription	-3089
▁access	-3090
▁amount	-3091
▁determ	-3092
▁except	-3093
▁failed	-3094
▁instit	-3095
▁method	-3096
▁nature	-3097
▁Central	-3098
▁Chronic	-3099
▁certain	-3100
▁company	-3101
▁divided	-3102
▁feature	-3103
▁minutes	-3104
▁officer	-3105
▁playoff	-3106
▁usually	-3107
▁becoming	-3108
▁positive	-3109
▁probably	-3110
▁required	-3111
▁services	-3112
▁suffered	-3113
▁appearances	-3114
ibr	-3115
inf	-3116
lin	-3117
nel	-3118
que	-3119
urg	-3120
urs	-3121
▁BC	-3122
▁ML	-3123
▁Te	-3124
▁ap	-3125
bour	-3126
itch	-3127
ties	-3128
ully	-3129
▁175	-3130
▁Not	-3131
▁ang	-3132
▁era	-3133
▁hop	-3134
▁let	-3135
anded	-3136
arily	-3137
ously	-3138
rical	-3139
using	-3140
▁1942	-3141
▁1995	-3142
▁Book	-3143
▁Mill	-3144
▁Stef	-3145
▁Stra	-3146
▁Zanz	-3147
▁kind	-3148
▁pair	-3149
▁rare	-3150
▁risk	-3151
istics	-3152
orship	-3153
rapped	-3154
selves	-3155
▁Group	-3156
▁clear	-3157
▁surre	-3158
▁Madero	-3159
▁health	-3160
▁slight	-3161
▁source	-3162
▁things	-3163
▁actress	-3164
▁battles	-3165
▁whether	-3166
▁Zanzibar	-3167
▁occurred	-3168
▁reaction	-3169
▁buildings	-3170
▁fictional	-3171
▁basketball	-3172
▁International	-3173
to	-3174
ama	-3175
iná	-3176
▁ey	-3177
abit	-3178
bers	-3179
cast	-3180
ceed	-3181
itte	-3182
ogen	-3183
ourt	-3184
▁Old	-3185
▁cle	-3186
▁der	-3187
▁fut	-3188
▁mus	-3189
▁unc	-3190
alled	-3191
andon	-3192
itude	-3193
odrom	-3194
senal	-3195
▁1939	-3196
▁1944	-3197
▁1980	-3198
▁Hung	-3199
▁Land	-3200
▁bill	-3201
▁hard	-3202
▁mach	-3203
▁peak	-3204
▁rail	-3205
▁tons	-3206
ipment	-3207
▁boats	-3208
▁caves	-3209
▁court	-3210
▁ended	-3211
▁staff	-3212
osition	-3213
ression	-3214
▁Golden	-3215
▁Toniná	-3216
▁course	-3217
▁figure	-3218
▁observ	-3219
▁regime	-3220
▁Because	-3221
▁Jackets	-3222
▁entered	-3223
▁instrum	-3224
▁nuclear	-3225
▁primary	-3226
▁western	-3227
ampionship	-3228
▁attempted	-3229
▁attention	-3230
▁beginning	-3231
▁storyline	-3232
▁Allosaurus	-3233
▁Department	-3234
▁increasing	-3235
▁themselves	-3236
▁constructed	-3237
su	-3238
add	-3239
fact	-3240
head	-3241
ship	-3242
▁Ark	-3243
▁Hou	-3244
▁Inf	-3245
▁Out	-3246
▁Rad	-3247
▁Sun	-3248
▁asp	-3249
▁aut	-3250
▁emb	-3251
▁hor	-3252
▁hyg	-3253
▁sem	-3254
tered	-3255
▁Dist	-3256
▁Fair	-3257
▁Four	-3258
▁Like	-3259
▁face	-3260
▁farm	-3261
▁feel	-3262
▁inch	-3263
▁true	-3264
ynasty	-3265
▁Award	-3266
▁asked	-3267
▁avoid	-3268
▁brief	-3269
▁coach	-3270
▁coins	-3271
▁frequ	-3272
▁makes	-3273
▁quest	-3274
▁remix	-3275
▁stage	-3276
▁theat	-3277
▁tower	-3278
▁upper	-3279
ication	-3280
▁assist	-3281
▁living	-3282
▁metres	-3283
▁settle	-3284
▁sister	-3285
▁Coldrum	-3286
▁artists	-3287
▁discuss	-3288
▁heavily	-3289
▁initial	-3290
▁managed	-3291
▁offered	-3292
▁refused	-3293
▁society	-3294
▁complete	-3295
▁Fernandez	-3296
▁influence	-3297
▁Government	-3298
▁responsible	-3299
gn	-3300
sw	-3301
aut	-3302
ius	-3303
▁Ev	-3304
▁Ke	-3305
▁Ll	-3306
arth	-3307
irth	-3308
oric	-3309
road	-3310
work	-3311
▁180	-3312
▁Bey	-3313
▁Gir	-3314
▁Pre	-3315
▁Ser	-3316
▁log	-3317
▁shr	-3318
ening	-3319
urity	-3320
▁1999	-3321
▁Cast	-3322
▁Ital	-3323
▁Omar	-3324
▁Stre	-3325
▁arts	-3326
▁cele	-3327
▁herd	-3328
▁leng	-3329
▁sulf	-3330
▁told	-3331
▁weap	-3332
artial	-3333
▁Sever	-3334
▁Water	-3335
▁cause	-3336
▁means	-3337
▁princ	-3338
▁winds	-3339
olithic	-3340
▁Priest	-3341
▁broken	-3342
▁issued	-3343
▁latter	-3344
▁promot	-3345
▁unable	-3346
▁Houston	-3347
▁Russian	-3348
▁claimed	-3349
▁related	-3350
struction	-3351
▁Columbus	-3352
▁Director	-3353
▁directly	-3354
▁proposed	-3355
▁soldiers	-3356
▁Commander	-3357
▁Conference	-3358
▁associated	-3359
▁subsequently	-3360
att	-3361
ipp	-3362
oes	-3363
▁Dr	-3364
▁NS	-3365
▁bi	-3366
▁ly	-3367
arts	-3368
azer	-3369
enge	-3370
iple	-3371
rate	-3372
▁176	-3373
▁400	-3374
▁Fin	-3375
▁neg	-3376
▁wat	-3377
allow	-3378
aring	-3379
ellig	-3380
ville	-3381
viron	-3382
▁Over	-3383
▁cann	-3384
▁disp	-3385
▁dram	-3386
▁prem	-3387
▁surf	-3388
iences	-3389
▁Class	-3390
▁Light	-3391
▁Smith	-3392
▁cells	-3393
▁chess	-3394
▁extra	-3395
▁fruit	-3396
▁hands	-3397
▁parts	-3398
▁pilot	-3399
▁plans	-3400
emorial	-3401
itation	-3402
▁Norman	-3403
▁Review	-3404
▁Thomas	-3405
▁approx	-3406
▁Several	-3407
▁records	-3408
▁removed	-3409
▁Antimony	-3410
▁continue	-3411
▁critical	-3412
▁distinct	-3413
▁leukemia	-3414
▁standing	-3415
▁teaching	-3416
▁conducted	-3417
▁hurricane	-3418
▁ultimately	-3419
▁archaeology	-3420
▁individuals	-3421
▁represented	-3422
▁transferred	-3423
bo	-3424
sc	-3425
men	-3426
olk	-3427
oys	-3428
rie	-3429
umn	-3430
vey	-3431
▁79	-3432
▁Bo	-3433
▁ox	-3434
agle	-3435
agre	-3436
dess	-3437
enes	-3438
hers	-3439
itor	-3440
ming	-3441
onna	-3442
▁179	-3443
▁Cro	-3444
▁Its	-3445
▁Los	-3446
▁Rev	-3447
▁Sch	-3448
▁Sen	-3449
▁Str	-3450
▁bad	-3451
▁cat	-3452
▁dut	-3453
▁job	-3454
▁pan	-3455
▁rom	-3456
inist	-3457
ishop	-3458
▁1941	-3459
▁1970	-3460
▁1998	-3461
▁Adam	-3462
▁Gang	-3463
▁Sing	-3464
▁dism	-3465
▁girl	-3466
▁guit	-3467
▁seem	-3468
▁spir	-3469
▁text	-3470
▁tomb	-3471
blazer	-3472
isters	-3473
▁labor	-3474
▁lower	-3475
▁notes	-3476
▁radio	-3477
▁rapid	-3478
▁speed	-3479
▁takes	-3480
atively	-3481
▁Creutz	-3482
▁earned	-3483
▁highly	-3484
▁listed	-3485
▁office	-3486
▁square	-3487
▁summer	-3488
▁Eastern	-3489
▁Wrapped	-3490
▁complet	-3491
▁figures	-3492
▁mention	-3493
▁captured	-3494
▁inspired	-3495
▁selected	-3496
▁President	-3497
▁equipment	-3498
▁typically	-3499
▁Chronicles	-3500
▁historical	-3501
▁respectively	-3502
▁£	-3503
AAF	-3504
agn	-3505
ati	-3506
ids	-3507
leg	-3508
ows	-3509
udd	-3510
▁Mo	-3511
▁My	-3512
adel	-3513
quar	-3514
roph	-3515
utch	-3516
▁Mil	-3517
amber	-3518
iment	-3519
ittee	-3520
ospit	-3521
rania	-3522
▁1930	-3523
▁1960	-3524
▁1988	-3525
▁Alex	-3526
▁Cons	-3527
▁More	-3528
▁RAAF	-3529
▁acqu	-3530
▁emph	-3531
▁grew	-3532
▁hair	-3533
▁male	-3534
▁quar	-3535
▁uses	-3536
ective	-3537
▁Henry	-3538
▁Saint	-3539
▁Trans	-3540
▁camps	-3541
▁chall	-3542
▁fired	-3543
▁peace	-3544
▁scene	-3545
▁sixth	-3546
▁spent	-3547
▁theme	-3548
aughter	-3549
▁annual	-3550
▁change	-3551
▁future	-3552
▁giving	-3553
▁prohib	-3554
▁silver	-3555
ansfield	-3556
▁calling	-3557
▁numbers	-3558
▁quickly	-3559
▁request	-3560
vironment	-3561
▁Football	-3562
▁allowing	-3563
▁approach	-3564
▁combined	-3565
▁intended	-3566
▁producer	-3567
▁promoted	-3568
▁referred	-3569
▁squadron	-3570
▁concluded	-3571
▁establish	-3572
▁monuments	-3573
▁sentences	-3574
▁Hellblazer	-3575
▁controlled	-3576
PS	-3577
RA	-3578
tr	-3579
gin	-3580
rey	-3581
▁38	-3582
▁Lu	-3583
▁ha	-3584
▁po	-3585
alys	-3586
ands	-3587
aped	-3588
ario	-3589
arsh	-3590
otte	-3591
phia	-3592
▁Ern	-3593
▁Hor	-3594
▁Kur	-3595
▁	-3596
e	-3597
t	-3598
a	-3599
i	-3600
n	-3601
o	-3602
r	-3603
s	-3604
h	-3605
l	-3606
d	-3607
c	-3608
u	-3609
m	-3610
f	-3611
g	-3612
p	-3613
w	-3614
y	-3615
b	-3616
,	-3617
.	-3618
v	-3619
@	-3620
k	-3621
1	-3622
T	-3623
0	-3624
A	-3625
S	-3626
=	-3627
C	-3628
"	-3629
I	-3630
2	-3631
M	-3632
B	-3633
9	-3634
-	-3635
'	-3636
H	-3637
x	-3638
P	-3639
R	-3640
F	-3641
W	-3642
G	-3643
N	-3644
L	-3645
D	-3646
(	-3647
)	-3648
3	-3649
J	-3650
4	-3651
8	-3652
5	-3653
z	-3654
E	-3655
6	-3656
7	-3657
O	-3658
j	-3659
q	-3660
K	-3661
U	-3662
;	-3663
V	-3664
–	-3665
:	-3666
Y	-3667
Z	-3668
%	-3669
—	-3670
Q	-3671
/	-3672
é	-3673
$	-3674
[	-3675
]	-3676
X	-3677
á	-3678
!	-3679
’	-3680
&	-3681
í	-3682
?	-3683
ł	-3684
+	-3685
°	-3686
£	-3687
ó	-3688
#	-3689
μ	-3690
ń	-3691
ä	-3692
ü	-3693
è	-3694
ö	-3695
ş	-3696
−	-3697
×	-3698
ă	-3699
â	-3700
É	-3701
ç	-3702
š	-3703
₹	-3704
č	-3705
“	-3706
ñ	-3707
ć	-3708
ν	-3709
ร	-3710
の	-3711
Æ	-3712
ō	-3713
”	-3714
ก	-3715
ว	-3716
ั	-3717
ิ	-3718
ṯ	-3719
⁄	-3720
→	-3721
*	-3722
^	-3723
ə	-3724
ا	-3725
ย	-3726
า	-3727
å	-3728
ú	-3729
ā	-3730
ţ	-3731
ˈ	-3732
α	-3733
β	-3734
τ	-3735
ό	-3736
ن	-3737
เ	-3738
‘	-3739
周	-3740
戦	-3741
Ö	-3742
Ł	-3743
ś	-3744
Ż	-3745
ο	-3746
ς	-3747
ح	-3748
د	-3749
ص	-3750
ل	-3751
ง	-3752
ต	-3753
ม	-3754
ล	-3755
อ	-3756
ァ	-3757
ア	-3758
キ	-3759
ュ	-3760
リ	-3761
ル	-3762
ヴ	-3763
侗	-3764
同	-3765
場	-3766
Ü	-3767
ï	-3768
ô	-3769
ø	-3770
đ	-3771
ū	-3772
ż	-3773
ί	-3774
δ	-3775
ι	-3776
ρ	-3777
а	-3778
ر	-3779
م	-3780
ي	-3781
ณ	-3782
พ	-3783
ี	-3784
่	-3785
も	-3786
岳	-3787
王	-3788
<	-3789
>	-3790
`	-3791
~	-3792
Å	-3793
ß	-3794
ã	-3795
æ	-3796
ê	-3797
ë	-3798
ą	-3799
Š	-3800
ź	-3801
ɪ	-3802
ː	-3803
σ	-3804
К	-3805
ה	-3806
أ	-3807
س	-3808
ك	-3809
ป	-3810
แ	-3811
้	-3812
์	-3813
Ḥ	-3814
ṣ	-3815
ạ	-3816
ἀ	-3817
♯	-3818
い	-3819
が	-3820
き	-3821
な	-3822
光	-3823
春	-3824
李	-3825
花	-3826
Ä	-3827
Ñ	-3828
Ó	-3829
à	-3830
î	-3831
ĕ	-3832
ę	-3833
ğ	-3834
Ľ	-3835
Ō	-3836
œ	-3837
ǎ	-3838
ș	-3839
ț	-3840
ɑ	-3841
ɡ	-3842
ɾ	-3843
ʁ	-3844
ʃ	-3845
́	-3846
έ	-3847
ή	-3848
γ	-3849
ε	-3850
θ	-3851
κ	-3852
λ	-3853
ξ	-3854
υ	-3855
χ	-3856
в	-3857
з	-3858
й	-3859
к	-3860
н	-3861
р	-3862
с	-3863
ы	-3864
є	-3865
מ	-3866
צ	-3867
ש	-3868
إ	-3869
ة	-3870
ت	-3871
ث	-3872
ع	-3873
ف	-3874
ق	-3875
ค	-3876
ช	-3877
ซ	-3878
ญ	-3879
ฐ	-3880
ด	-3881
บ	-3882
ภ	-3883
ศ	-3884
ษ	-3885
ส	-3886
ห	-3887
ึ	-3888
ไ	-3889
็	-3890
๊	-3891
ᵻ	-3892
ḏ	-3893
ἰ	-3894
ὑ	-3895
​	-3896
‐	-3897
†	-3898
‡	-3899
₤	-3900
€	-3901
♭	-3902
う	-3903
か	-3904
く	-3905
し	-3906
た	-3907
つ	-3908
め	-3909
ら	-3910
七	-3911
世	-3912
中	-3913
乙	-3914
云	-3915
人	-3916
傳	-3917
其	-3918
具	-3919
劉	-3920
华	-3921
厂	-3922
台	-3923
名	-3924
君	-3925
命	-3926
咲	-3927
國	-3928
圣	-3929
堤	-3930
大	-3931
夫	-3932
女	-3933
妙	-3934
姚	-3935
孟	-3936
宋	-3937
宗	-3938
宫	-3939
广	-3940
建	-3941
張	-3942
彩	-3943
後	-3944
懷	-3945
日	-3946
旭	-3947
明	-3948
晋	-3949
景	-3950
正	-3951
殿	-3952
母	-3953
清	-3954
湯	-3955
澤	-3956
灯	-3957
灵	-3958
玄	-3959
玩	-3960
珂	-3961
琦	-3962
琪	-3963
瘡	-3964
祠	-3965
秋	-3966
翠	-3967
肖	-3968
膀	-3969
臂	-3970
興	-3971
芳	-3972
英	-3973
蘇	-3974
观	-3975
誓	-3976
誡	-3977
誰	-3978
许	-3979
谭	-3980
豪	-3981
費	-3982
贵	-3983
赤	-3984
運	-3985
金	-3986
銃	-3987
钱	-3988
铁	-3989
陈	-3990
集	-3991
霖	-3992
韓	-3993
願	-3994
顯	-3995
�	-3996
