<unk>	0
<s>	0
</s>	0
▁के	-3.58304
।	-3.60572
▁में	-3.85786
ी	-3.96575
▁है	-4.03637
▁की	-4.05539
े	-4.17202
,	-4.25874
▁को	-4.29868
ा	-4.35786
▁से	-4.36136
ों	-4.53045
▁ने	-4.60115
▁का	-4.60278
▁और	-4.77621
▁	-4.7856
▁पर	-4.79976
.	-4.88869
न	-4.91664
▁कि	-4.92507
▁हैं	-5.05969
▁भी	-5.20419
र	-5.2442
▁इस	-5.29477
क	-5.33301
▁कर	-5.337
म	-5.40793
▁लिए	-5.43131
ल	-5.43778
ने	-5.54649
▁एक	-5.56118
त	-5.58125
▁नहीं	-5.59542
▁किया	-5.65476
स	-5.69064
-	-5.69127
ं	-5.7008
▁हो	-5.72424
▁गया	-5.77494
▁ही	-5.79809
▁स	-5.80269
▁यह	-5.85049
ि	-5.88857
ट	-5.8982
▁कहा	-5.91067
▁था	-5.92986
ो	-5.96676
कर	-5.99241
द	-6.01574
▁जा	-6.02016
▁करने	-6.02926
ित	-6.0361
▁साथ	-6.04555
▁तो	-6.06697
प	-6.08856
ना	-6.09846
▁बाद	-6.10778
▁रहे	-6.15749
ता	-6.1661
▁दिया	-6.1682
ज	-6.17288
▁न	-6.17886
▁व	-6.23255
▁आ	-6.24811
ू	-6.24958
▁गई	-6.30928
▁रहा	-6.31188
▁तक	-6.32609
य	-6.34263
्	-6.3478
▁रही	-6.34792
▁हुए	-6.35642
ब	-6.36468
ह	-6.37328
)	-6.38071
ियों	-6.38512
▁म	-6.42927
▁(	-6.43005
ां	-6.44927
▁पुलिस	-6.4517
▁उनक	-6.45944
▁सरकार	-6.46258
व	-6.46577
▁लोगों	-6.47273
▁प	-6.48959
िक	-6.49763
सी	-6.50686
श	-6.50861
▁अ	-6.51565
▁अपने	-6.51957
ु	-6.52682
▁दी	-6.54102
▁वह	-6.54896
ड	-6.55923
▁थी	-6.56021
▁थे	-6.56672
▁उस	-6.57484
▁इसक	-6.5813
▁लेकिन	-6.58687
▁उन्होंने	-6.60408
्स	-6.63512
ग	-6.64405
ण	-6.64486
▁अब	-6.64579
ओं	-6.64772
▁गए	-6.65187
फ	-6.69119
▁जो	-6.71462
▁ब	-6.71522
ार	-6.72085
िंग	-6.72166
▁होने	-6.73128
▁पहले	-6.74747
▁बताया	-6.78992
▁सिंह	-6.81586
ते	-6.82724
▁र	-6.83201
▁कुछ	-6.84204
ध	-6.84913
▁वाले	-6.86046
▁लेकर	-6.87846
▁भारत	-6.90188
▁करते	-6.92104
रा	-6.92113
▁या	-6.92649
▁साल	-6.92833
ें	-6.93966
▁जिस	-6.94955
▁दो	-6.95023
▁क	-6.96112
से	-6.96222
:	-6.96372
▁कोई	-6.96552
▁अपनी	-6.96957
च	-6.96994
▁कई	-6.97313
ए	-6.98151
िया	-6.99458
▁दौरान	-7.01194
नी	-7.013
ती	-7.01388
▁हुई	-7.0178
▁बार	-7.01942
▁आप	-7.02033
में	-7.02158
▁उसक	-7.03086
▁फ	-7.03297
▁बात	-7.03318
▁देश	-7.03507
ख	-7.03639
▁श	-7.04205
ई	-7.04458
वा	-7.04888
ला	-7.04927
▁ये	-7.05198
▁ज	-7.06198
▁सभी	-7.06912
ाई	-7.06999
▁प्रदेश	-7.07474
▁इन	-7.08601
▁तरह	-7.10606
▁लिया	-7.11175
▁दे	-7.11592
▁समय	-7.12239
री	-7.12363
▁हुआ	-7.1253
ीय	-7.14882
▁फिल्म	-7.155
ष	-7.15797
▁प्र	-7.15967
▁ह	-7.16154
ली	-7.16845
▁दिन	-7.17163
▁काम	-7.17175
्र	-7.17724
▁दिल्ली	-7.17845
▁त	-7.18744
▁कम	-7.18787
▁राज्य	-7.18967
▁घर	-7.19092
▁लोग	-7.19929
▁जाने	-7.20494
के	-7.21461
▁चुनाव	-7.22396
्य	-7.23493
पुर	-7.23499
▁टीम	-7.23576
ंग	-7.23612
▁ग	-7.24066
▁द्वारा	-7.24232
वार	-7.2446
▁कोरोना	-7.24563
▁उन्हें	-7.24572
▁क्षेत्र	-7.25307
▁बीच	-7.25344
▁वे	-7.25923
▁भ	-7.26497
▁हम	-7.26518
▁नाम	-7.26907
▁जब	-7.27321
▁मिल	-7.27478
▁शुरू	-7.28286
िल	-7.28478
▁राज	-7.29028
▁आपक	-7.30018
▁हर	-7.30514
थ	-7.30684
▁ले	-7.31025
ड़	-7.31265
▁तीन	-7.31393
▁होगा	-7.31508
गी	-7.31915
▁ऐस	-7.32162
▁रूप	-7.32397
कि	-7.33576
▁ल	-7.34155
जी	-7.35107
▁सकता	-7.35366
▁आज	-7.35976
▁'	-7.3608
▁एव	-7.3643
▁चल	-7.3655
▁मामले	-7.37751
▁जानकारी	-7.37977
▁कांग्रेस	-7.38267
▁वहीं	-7.38269
▁अधिक	-7.39435
▁जाता	-7.39528
का	-7.39737
या	-7.40227
मा	-7.41748
▁पूर्व	-7.4177
▁दोनों	-7.42114
▁लग	-7.42196
'	-7.42813
▁रुपये	-7.43419
▁कुमार	-7.43448
़	-7.43528
▁करना	-7.43547
▁वि	-7.43821
▁पास	-7.448
▁लाख	-7.46408
ंड	-7.47474
▁जारी	-7.47862
▁करोड़	-7.47934
▁सु	-7.48226
▁जाएगा	-7.48409
▁उ	-7.48476
कार	-7.48629
▁पार्टी	-7.49065
▁मैं	-7.49538
2	-7.50036
▁सं	-7.50167
▁कारण	-7.50584
▁मांग	-7.50589
भ	-7.50779
▁द	-7.50898
▁विभाग	-7.51219
▁फिर	-7.51232
▁वाली	-7.5126
ै	-7.51609
▁शामिल	-7.52203
▁जांच	-7.52765
▁च	-7.53192
▁गांव	-7.53244
▁चाहिए	-7.53637
▁पा	-7.53653
▁मोदी	-7.54139
4	-7.54788
पी	-7.55075
i	-7.55762
▁10	-7.57474
▁ज्यादा	-7.57631
टी	-7.57893
ॉ	-7.58381
▁इससे	-7.58635
▁हजार	-7.58649
▁जिले	-7.59181
▁किए	-7.59509
▁कार्य	-7.5964
▁सकते	-7.59685
▁अध्यक्ष	-7.59701
▁राम	-7.59759
डी	-7.60064
▁ए	-7.60154
सभा	-7.60413
बी	-7.60454
▁अन्य	-7.6078
ंत	-7.61926
ाने	-7.62442
▁बन	-7.62748
▁मु	-7.62777
▁ओर	-7.63688
▁लगा	-7.63705
▁किस	-7.63767
▁खिलाफ	-7.63927
▁भारतीय	-7.64102
▁प्रति	-7.65917
▁काफ	-7.66146
▁उत्तर	-7.66681
्‍	-7.66963
▁इ	-7.67026
एस	-7.67111
▁खेल	-7.67283
▁मार	-7.67316
▁आरोप	-7.67338
▁करें	-7.67703
एं	-7.67767
▁आई	-7.68098
▁जिला	-7.68278
▁देने	-7.68513
▁सी	-7.68675
▁-	-7.6868
...	-7.69027
▁बता	-7.69069
वि	-7.69537
’	-7.70071
▁मंत्री	-7.7016
ओ	-7.70779
e	-7.71569
a	-7.71665
▁होगी	-7.71734
▁भर	-7.72275
▁नि	-7.72502
▁बारे	-7.72579
▁सामने	-7.72734
▁भाजपा	-7.73025
▁पांच	-7.73027
▁देख	-7.73069
▁बहुत	-7.73079
▁3	-7.73092
5	-7.73504
ले	-7.73752
▁ली	-7.7395
▁ख	-7.74281
▁बना	-7.74748
▁मे	-7.75195
▁मौत	-7.75454
▁ना	-7.75608
ौ	-7.75694
▁‘	-7.76022
▁पूर	-7.76441
▁बढ़	-7.76838
सा	-7.76908
▁आने	-7.77229
▁अस्पताल	-7.77241
▁क्यों	-7.77243
▁:	-7.77262
▁उन	-7.77487
▁वाल	-7.77614
▁4	-7.77652
▁अभी	-7.77926
▁योजना	-7.78488
▁दिए	-7.78528
▁पहुंच	-7.78567
र्स	-7.79008
ुल	-7.79164
▁नगर	-7.796
▁जीत	-7.79879
▁वर्ष	-7.79888
स्ट	-7.80032
▁अगर	-7.80454
ास	-7.80502
▁जी	-7.80575
▁चार	-7.80771
▁सा	-7.80866
दा	-7.80918
▁6	-7.81292
्व	-7.8134
▁5	-7.81354
हर	-7.81435
▁हालांकि	-7.81672
▁स्थान	-7.81681
टर	-7.81936
▁महिला	-7.82143
▁बंद	-7.82193
ति	-7.82254
वर	-7.8257
▁दर्ज	-7.82921
1	-7.83476
बसे	-7.83563
3	-7.83698
पा	-7.83835
▁नई	-7.84108
▁19	-7.84268
▁तैयार	-7.84389
मान	-7.84556
क्ष	-7.84588
▁विकास	-7.84963
▁केंद्र	-7.85043
▁इसी	-7.85293
ठ	-7.85861
▁पी	-7.86342
▁करीब	-7.8639
▁अपना	-7.86394
▁शहर	-7.86501
▁जिसक	-7.87249
▁प्रधानमंत्री	-7.87677
▁मुख्यमंत्री	-7.8772
दार	-7.87725
ंस	-7.88149
▁मैच	-7.88405
▁बैठक	-7.88668
शन	-7.88728
▁होता	-7.88849
▁अलावा	-7.89058
▁2	-7.89159
▁बच्च	-7.8932
▁अनुसार	-7.89781
▁घटना	-7.89836
ंट	-7.90538
▁तथा	-7.91172
8	-7.9125
▁वो	-7.91332
▁वजह	-7.91887
▁हाल	-7.92127
्ट	-7.92278
की	-7.93201
▁रिपोर्ट	-7.93345
िन	-7.93683
0	-7.94035
▁निर्देश	-7.94062
▁जबकि	-7.9419
▁आए	-7.95
▁बा	-7.95204
▁बड़ी	-7.95617
स्त	-7.95726
▁बी	-7.95841
▁रुपए	-7.96299
▁पानी	-7.9645
्क	-7.96626
▁रि	-7.9683
▁बजे	-7.97044
ाइ	-7.97151
▁होती	-7.97194
▁सब	-7.97198
▁स्थिति	-7.97584
▁अधिकारी	-7.97804
वे	-7.98237
अ	-7.98254
ियां	-7.98578
▁क्या	-7.99415
▁बैंक	-8.001
▁ध	-8.0045
ेज	-8.00545
▁जान	-8.00556
▁पद	-8.00879
▁कंपनी	-8.0088
▁पिछले	-8.01083
▁महा	-8.01229
00	-8.01617
▁12	-8.01801
ाया	-8.02261
?	-8.02461
▁गिरफ्तार	-8.02461
▁कहन	-8.02491
▁नेता	-8.02581
▁सह	-8.02642
▁उप	-8.02952
को	-8.02992
प्र	-8.03066
▁इसलिए	-8.03262
▁ऐसा	-8.03481
▁रह	-8.03526
▁सदस्य	-8.04067
▁मौजूद	-8.0407
▁तहत	-8.04092
▁दिनों	-8.04227
▁खान	-8.04482
बा	-8.04729
▁संख्या	-8.0488
▁कार्यक्रम	-8.0488
▁जहां	-8.04881
▁विधान	-8.04881
▁आम	-8.04899
▁नजर	-8.05123
वी	-8.0519
▁हिंदी	-8.057
▁सकती	-8.05704
▁सुरक्षा	-8.05704
▁जाएगी	-8.0577
▁दूसरे	-8.06134
▁1	-8.06206
▁निवास	-8.06694
▁कु	-8.06903
▁रहने	-8.06945
ाव	-8.06995
रो	-8.07037
▁कोर्ट	-8.07347
िस	-8.07481
▁8	-8.07681
▁लोक	-8.07731
आई	-8.07985
▁हूं	-8.08201
▁परिवार	-8.08233
9	-8.08767
जा	-8.08797
▁मह	-8.08942
d	-8.09047
▁स्कूल	-8.09109
ुबह	-8.09241
▁आगे	-8.09447
हा	-8.09553
्ल	-8.09661
▁लेने	-8.09966
▁आधार	-8.10061
▁जनता	-8.10072
िका	-8.10426
▁सीट	-8.10656
▁बाहर	-8.10816
▁दल	-8.11412
▁मिला	-8.11477
्या	-8.11742
▁दा	-8.11816
▁दें	-8.12
शा	-8.12267
ेट	-8.12445
कल	-8.12464
▁रात	-8.12523
▁थाना	-8.1285
▁भाग	-8.12889
▁बनाने	-8.13202
▁मरीज	-8.13401
पर	-8.13518
टा	-8.14214
▁ता	-8.14256
▁मुख्य	-8.14271
▁मंदिर	-8.14289
▁हत्या	-8.14289
▁20	-8.14788
▁युवक	-8.1519
▁15	-8.15729
्यू	-8.15889
▁मुताबिक	-8.16099
▁श्री	-8.1615
▁मिली	-8.16156
▁मेर	-8.16404
▁7	-8.16454
▁नए	-8.16794
▁संबंध	-8.1682
▁परीक्षा	-8.17017
▁निकल	-8.17099
▁महीन	-8.17491
▁मान	-8.17618
▁किसानों	-8.1766
▁जाती	-8.17916
▁पंचायत	-8.17942
▁मीडिया	-8.17943
▁बिहार	-8.17981
▁करेंगे	-8.183
▁छ	-8.18841
▁मौके	-8.18895
▁पाकिस्तान	-8.1892
▁चर्चा	-8.18931
▁जगह	-8.18981
▁जाए	-8.19182
▁झ	-8.19183
▁व्यक्ति	-8.19563
▁कार्रवाई	-8.1982
▁खुद	-8.19821
▁गो	-8.19937
▁बढ़ा	-8.19957
ज़	-8.20095
▁बस	-8.20131
▁पहली	-8.20301
नि	-8.20637
▁पड़	-8.20711
▁करता	-8.20761
▁सड़क	-8.20776
गा	-8.20799
▁हाथ	-8.20811
▁योग	-8.20973
राज	-8.2101
▁स्थित	-8.21034
▁तब	-8.21193
▁11	-8.2144
▁अन	-8.21877
आर	-8.22031
▁लगे	-8.22601
t	-8.22662
▁स्वास्थ्य	-8.22705
▁कै	-8.22751
▁जल	-8.22893
▁पता	-8.22912
▁कुल	-8.2314
▁पूरे	-8.23197
▁सि	-8.23246
▁जैसे	-8.23378
जन	-8.23574
ड़ा	-8.23606
▁ट	-8.23632
▁पूरा	-8.23769
ेंद्र	-8.24686
ंज	-8.249
▁दूर	-8.25005
▁बे	-8.25285
▁मो	-8.25437
रेंद्र	-8.25537
▁जल्द	-8.25676
▁वीडियो	-8.25679
▁निकाल	-8.25705
▁खबर	-8.25706
▁डॉ	-8.25724
▁प्रदर्शन	-8.25823
▁रा	-8.25985
▁पहुंचे	-8.26053
▁ई	-8.26427
▁मदद	-8.26689
▁आर	-8.26822
माल	-8.26867
▁ला	-8.26975
▁14	-8.27494
▁कार	-8.27662
▁पढ़	-8.27713
▁बि	-8.27778
▁डाल	-8.27785
▁एस	-8.27866
▁सूचना	-8.27914
▁अलग	-8.28127
s	-8.28435
▁आदि	-8.2861
▁प्रशासन	-8.28737
▁शिक्षा	-8.28737
▁फीसद	-8.29035
6	-8.29043
▁दिल	-8.29213
ेशन	-8.29329
तर	-8.29504
▁गांधी	-8.29778
▁छोड़	-8.29779
▁विधायक	-8.2978
▁यादव	-8.2986
▁इतन	-8.29892
ोर	-8.29895
ेंट	-8.2993
▁सोमव	-8.29964
गत	-8.30075
▁न्यूज़	-8.30856
▁आग	-8.30883
त्र	-8.30928
▁सर	-8.31023
▁मामला	-8.31537
▁चलत	-8.3175
▁भेज	-8.318
▁विश्व	-8.31844
▁वापस	-8.31895
बंध	-8.31944
▁मिलने	-8.31978
ेल	-8.31993
▁अधिकारियों	-8.32003
▁हाई	-8.32211
▁दूसर	-8.32299
▁होते	-8.32373
्म	-8.3238
▁सिर्फ	-8.32971
▁ग्रामीण	-8.32972
▁विरोध	-8.32994
▁बड़े	-8.33032
▁चुक	-8.33171
▁लगाया	-8.33178
यू	-8.33207
l	-8.33212
▁आरोपी	-8.33376
▁एन	-8.33573
ेड	-8.33709
▁राजनीति	-8.34057
▁गा	-8.34238
▁पत्र	-8.3434
▁फैसला	-8.34562
▁30	-8.34862
▁करा	-8.34951
▁जे	-8.35069
▁चला	-8.3509
▁बुधवार	-8.35156
▁कभी	-8.35232
▁मुझ	-8.35327
▁महिलाओं	-8.35378
▁राष्ट्रीय	-8.35605
▁निर्माण	-8.36267
▁जीवन	-8.36308
▁रन	-8.3643
▁आया	-8.36523
भग	-8.36654
▁देते	-8.36673
▁डे	-8.36684
▁कह	-8.36687
▁अभियान	-8.37391
▁कानून	-8.37392
▁कोविड	-8.37395
दी	-8.37533
▁सवाल	-8.37614
घ	-8.3764
ंच	-8.37903
एम	-8.38001
▁जन	-8.38575
▁अनु	-8.39089
▁जिन	-8.39465
बल	-8.39497
o	-8.39621
▁व्यवस्था	-8.39676
▁शिकायत	-8.39676
▁इंडिया	-8.39681
▁दौर	-8.39711
▁लगात	-8.39946
पाल	-8.40117
▁बोल	-8.40615
▁मन	-8.40694
▁युवा	-8.40839
▁शुक्र	-8.40839
▁बाजार	-8.4084
▁शादी	-8.40841
▁मंगल	-8.40842
▁स्व	-8.4099
▁तरफ	-8.41086
नाथ	-8.4129
▁पीएम	-8.41297
▁बदल	-8.41411
▁गिर	-8.41563
्‍य	-8.41593
▁तेज	-8.41696
c	-8.42016
▁कल	-8.42017
▁समिति	-8.42079
▁यू	-8.43038
▁खास	-8.43128
▁इसका	-8.43178
▁विशेष	-8.43202
ाना	-8.43276
▁ड	-8.43405
ड़ी	-8.43416
िम	-8.43564
▁किलो	-8.43771
▁गु	-8.4379
▁कराया	-8.43952
▁चुकी	-8.44104
▁बच	-8.44214
7	-8.44386
▁प्रमुख	-8.44411
▁शनिवार	-8.44411
▁इलाक	-8.44419
▁नंबर	-8.44466
▁अगल	-8.4451
झ	-8.44694
▁मध्य	-8.44703
A	-8.44775
▁डा	-8.45062
/	-8.4563
▁घायल	-8.45631
▁बै	-8.45829
▁शर्मा	-8.45862
▁रख	-8.46199
▁वाहन	-8.46869
▁रेलवे	-8.46882
▁रखा	-8.47019
▁जरूरत	-8.47019
▁कीमत	-8.47032
▁बाल	-8.47132
चा	-8.47158
िट	-8.47313
▁थ	-8.47854
▁पार	-8.47869
▁जाना	-8.47926
▁समस्या	-8.48115
▁दुनिया	-8.48115
राम	-8.48188
u	-8.48293
▁डी	-8.48354
▁बिना	-8.48406
▁लाल	-8.48429
उ	-8.48528
वन	-8.48559
लब	-8.48609
िश	-8.49002
्री	-8.49151
ेगा	-8.49273
▁ऑफ	-8.49355
▁प्रयास	-8.49382
▁समाज	-8.49382
▁ध्यान	-8.49384
▁होंगे	-8.49398
▁लाभ	-8.49453
▁पेश	-8.4973
छ	-8.49732
त्त	-8.49765
ेंगे	-8.49915
▁करती	-8.50397
▁खड़	-8.50555
▁उपलब्ध	-8.50663
▁गंभीर	-8.50663
▁पै	-8.51023
▁जेल	-8.51428
▁इस्त	-8.51497
क्स	-8.51922
▁घोषणा	-8.51962
▁चुका	-8.52117
▁सोन	-8.52153
हित	-8.52395
▁घ	-8.52404
पूर्ण	-8.52427
िए	-8.52546
▁रे	-8.5274
▁मा	-8.5288
ियर	-8.5325
स्	-8.53395
▁सर्व	-8.53419
▁बड़ा	-8.53461
ाहुल	-8.53541
▁छात्र	-8.53626
मेत	-8.53693
▁"	-8.53763
▁25	-8.53926
क्र	-8.54528
▁दर	-8.54575
▁शिक्षक	-8.54611
▁जवाब	-8.54612
▁बाइक	-8.54612
▁भर्ती	-8.54612
▁राशि	-8.54659
▁शिव	-8.5479
▁साफ	-8.54983
▁पक्ष	-8.55095
▁आयोज	-8.55232
▁रो	-8.55334
▁यात्रा	-8.5553
▁व्यापार	-8.55962
▁संगठन	-8.55962
▁मुंबई	-8.56014
▁जाते	-8.56077
ढ़	-8.56466
▁बेट	-8.56656
देव	-8.56727
▁सके	-8.56859
▁खरीद	-8.56937
▁लिखा	-8.57042
▁शाम	-8.57294
▁प्राप्त	-8.57348
▁जोड़	-8.57424
▁आदेश	-8.57455
▁बनाया	-8.57565
ेश	-8.57581
▁स्तर	-8.57677
नगर	-8.57704
S	-8.57873
▁तय	-8.58057
▁करके	-8.58154
दर	-8.5822
▁टी	-8.58234
ये	-8.58492
▁लगाने	-8.58547
▁होना	-8.58586
▁पकड़	-8.58748
▁टेस्ट	-8.58766
▁ढ	-8.58894
मो	-8.58925
▁बल	-8.59146
▁शव	-8.59472
गर	-8.59581
मु	-8.59615
मेंट	-8.59818
▁यूपी	-8.60199
▁केवल	-8.60366
▁तौर	-8.6059
▁एम	-8.60715
वान	-8.60755
▁बर	-8.60951
▁बैठ	-8.60971
▁सात	-8.6127
मन	-8.6151
▁9	-8.61612
▁13	-8.61704
▁निगम	-8.61753
▁अंतर	-8.61783
▁अव	-8.61849
▁गठ	-8.61937
▁देव	-8.61938
▁हास	-8.6198
▁सुविधा	-8.63007
▁प्रतिशत	-8.63009
वुड	-8.63013
▁ट्रेन	-8.63019
▁विवाद	-8.63032
▁सचिव	-8.63049
ंगी	-8.63535
▁उठा	-8.63635
खा	-8.63954
्त	-8.64127
▁हार	-8.64151
▁पति	-8.64387
▁प्रा	-8.64397
p	-8.64478
▁सोशल	-8.64478
▁लौट	-8.64479
▁रविवार	-8.64495
▁कार्यालय	-8.64498
▁बल्क	-8.64563
▁बारिश	-8.6459
▁देखते	-8.64767
▁सम	-8.64873
▁क्र	-8.64882
र्द	-8.65252
▁चाहते	-8.65417
▁मै	-8.65436
▁इं	-8.65501
▁जमा	-8.65668
▁थीं	-8.65693
D	-8.6597
▁शेयर	-8.66038
▁गौर	-8.66057
क्त	-8.66217
▁आठ	-8.66398
▁50	-8.66937
र्ज	-8.6723
यों	-8.67474
▁बल्लेबाज	-8.67486
भर	-8.67568
▁खुल	-8.67601
▁सीमा	-8.677
▁धन	-8.67753
रिया	-8.67973
▁ग्राम	-8.68104
▁कमी	-8.6825
▁18	-8.68333
▁आयोजन	-8.68357
▁सो	-8.68424
▁यही	-8.68641
भी	-8.68977
▁बीजेपी	-8.69024
▁बयान	-8.69027
▁कार्यकर्ता	-8.69045
ोल	-8.6915
▁वायरस	-8.69163
▁तेल	-8.69188
बर	-8.69193
वाल	-8.69273
▁खा	-8.69337
▁देखा	-8.69359
▁मां	-8.69411
▁भा	-8.69531
▁किसान	-8.69538
ुक	-8.69724
पोर्ट	-8.69915
▁ऑ	-8.69952
इ	-8.70176
▁चि	-8.70225
▁हमारे	-8.70353
h	-8.70507
आ	-8.7058
ऊ	-8.70586
▁जुलाई	-8.70587
▁संक्रमण	-8.70595
▁आयोग	-8.70668
▁नेताओं	-8.70864
▁वै	-8.70955
ूर	-8.70981
स्व	-8.71125
ौर	-8.71169
▁बनाए	-8.71183
▁कार्ड	-8.71263
▁सही	-8.71285
▁पु	-8.71445
▁वन	-8.71902
▁फोटो	-8.72174
▁मेडि	-8.72192
▁गुरुवार	-8.7221
द्ध	-8.72242
▁वक्त	-8.72388
▁लिख	-8.7257
▁चौ	-8.72573
▁घंटे	-8.72638
I	-8.72937
▁ओ	-8.73007
र्ग	-8.73741
▁कृषि	-8.73787
▁शाह	-8.73805
▁सूत्र	-8.73809
ामी	-8.73829
▁जि	-8.7383
▁इनक	-8.74009
▁लड़	-8.74168
▁24	-8.7417
▁16	-8.74268
▁सेवा	-8.74443
गंज	-8.74447
प्त	-8.7455
▁मई	-8.74692
▁सभा	-8.74798
▁माना	-8.75015
▁शो	-8.75184
▁आतंक	-8.75241
▁उम्मीद	-8.75353
▁डि	-8.75379
▁पंजाब	-8.75426
▁सहयोग	-8.7544
▁कॉलेज	-8.75441
▁अवसर	-8.75443
▁ज़	-8.75554
▁पीछे	-8.75698
▁क्रिकेट	-8.75773
ाइड	-8.75892
▁वोट	-8.75946
र्म	-8.75993
ॉल	-8.76516
▁एयर	-8.76788
▁मत	-8.76912
▁दुकान	-8.77054
▁पे	-8.7706
▁पसंद	-8.77093
▁प्रस्ताव	-8.77093
▁कोशिश	-8.77096
▁बजट	-8.77097
▁उपयोग	-8.77106
▁बोर्ड	-8.77135
▁धर्म	-8.77153
▁गयी	-8.77161
दान	-8.7732
▁हि	-8.77546
▁पिता	-8.77557
▁मुद्द	-8.77621
▁जुड़े	-8.77667
▁कप	-8.78055
वीं	-8.78133
▁देखने	-8.78252
▁200	-8.7846
बू	-8.78513
▁17	-8.78736
”	-8.78788
▁खर्च	-8.78788
▁2021	-8.78796
▁पुत्र	-8.78967
▁आय	-8.79069
▁छह	-8.79098
▁भाई	-8.79271
▁मिले	-8.79313
▁य	-8.79349
m	-8.79396
▁बॉल	-8.79468
▁कट	-8.79635
▁रोक	-8.79697
▁हमें	-8.7972
▁तेजी	-8.79842
लो	-8.79992
▁हा	-8.80117
▁छात्रों	-8.80201
▁चीन	-8.80399
धार	-8.80418
E	-8.80512
k	-8.80512
▁सप्ताह	-8.80512
▁राजस्थान	-8.80512
▁बिजली	-8.80512
▁रास्त	-8.80579
▁माह	-8.80672
▁जाएंगे	-8.80717
▁हमला	-8.80941
▁रोड	-8.80988
▁यद	-8.81021
▁रखने	-8.81088
गढ़	-8.8129
िटी	-8.81707
▁परेशान	-8.82124
▁जमीन	-8.82284
▁मैदान	-8.82285
▁दोस्त	-8.82499
▁राय	-8.82511
▁पुरान	-8.82662
▁अज	-8.82895
▁अमेरिका	-8.82962
▁ब्र	-8.83073
ग्र	-8.83647
▁बॉ	-8.83873
िज	-8.83881
िंद	-8.83904
▁बेहतर	-8.83955
▁मोबाइल	-8.84052
▁शुरुआत	-8.84052
▁हिस्सा	-8.84052
▁उपस्थित	-8.84052
▁मंत्रालय	-8.84057
ष्ट	-8.84105
▁फोन	-8.843
बार	-8.84327
▁कश्मीर	-8.84397
▁समझ	-8.84422
▁जून	-8.84647
एन	-8.84731
क्क	-8.84902
लाइन	-8.84998
▁23	-8.85052
लाल	-8.85134
ुन	-8.85276
▁हमार	-8.85373
▁सार	-8.85385
▁ग्र	-8.85838
▁इलाज	-8.85871
▁मौसम	-8.85871
▁राष्ट्रपति	-8.85877
ेश्वर	-8.85895
▁बदलाव	-8.8592
▁चरण	-8.85924
▁वैक्सीन	-8.85945
ीजन	-8.86004
▁कैसे	-8.86065
▁सीएम	-8.86095
▁हमले	-8.86116
▁वर्षीय	-8.86123
▁ट्र	-8.86627
C	-8.86875
एल	-8.86984
▁जरूरी	-8.87037
चर	-8.87137
▁रंग	-8.87194
▁कर्मचारी	-8.87722
▁लखनऊ	-8.87722
▁परिषद	-8.87722
▁अगस्त	-8.87722
▁भूमिका	-8.87755
▁100	-8.878
▁कॉ	-8.87878
▁प्रभावित	-8.87911
▁प्रकार	-8.88045
-19	-8.88062
▁परिजनों	-8.88062
▁बेह	-8.88114
▁अधिकार	-8.88115
वास	-8.88327
हार	-8.88379
▁भू	-8.8844
▁पहुंचा	-8.88458
▁यात्र	-8.88507
‍	-8.88788
▁नव	-8.88794
▁ठ	-8.88895
▁पोस्ट	-8.89182
स्प	-8.893
▁नियम	-8.89457
▁नोट	-8.89591
▁विभिन्न	-8.89609
डाउन	-8.89614
▁ठीक	-8.89619
▁मात्र	-8.89649
▁सुन	-8.8969
▁एक्स	-8.89868
▁बने	-8.9031
ेंस	-8.90526
▁नौ	-8.90587
▁मामल	-8.90644
्न	-8.9075
▁बच्चे	-8.90845
▁सू	-8.90864
▁प्रो	-8.91051
▁पड़ा	-8.91095
▁जम	-8.91299
वत	-8.91317
▁छात्रा	-8.91479
▁नुकसान	-8.91532
▁पहचान	-8.91532
▁नागरिक	-8.91532
▁प्रवेश	-8.91532
▁विचार	-8.91533
▁प्रभारी	-8.91566
▁सौ	-8.91957
▁असर	-8.92123
ाबाद	-8.92202
▁गलत	-8.9238
▁लगी	-8.9247
▁सै	-8.9259
▁बाव	-8.92591
P	-8.9264
▁अच्छी	-8.92743
म्प	-8.92963
फ़	-8.93053
टो	-8.93183
र्ट	-8.932
▁कहत	-8.93392
in	-8.93394
ाइट	-8.93397
▁बातचीत	-8.93493
▁वृद्ध	-8.93493
▁कंपनिय	-8.93493
▁लागू	-8.93493
जूद	-8.93494
▁विषय	-8.93494
▁आवेदन	-8.93535
ेयर	-8.93581
रिए	-8.93589
▁भारी	-8.93624
50	-8.93625
▁आतंकवाद	-8.93714
▁खत्	-8.93787
▁दाम	-8.9389
▁कड़	-8.9413
जर	-8.94197
▁प्रदा	-8.94242
▁कदम	-8.9431
द्र	-8.94372
▁अच्छा	-8.94402
▁मनो	-8.94404
▁अंति	-8.94448
िग	-8.94475
▁देर	-8.94815
▁A	-8.94873
▁जिसमे	-8.95006
▁प्रधान	-8.95483
!	-8.95492
▁पत्नी	-8.95492
▁वरिष्ठ	-8.95492
▁निर्णय	-8.95493
▁भगवान	-8.95493
▁पूजा	-8.95494
रण	-8.95534
▁प्रेम	-8.95534
▁–	-8.95587
▁अपराध	-8.95605
केश	-8.95615
▁मिलेगा	-8.95639
▁मंडल	-8.95663
▁जन्म	-8.95683
▁दावा	-8.95706
▁प्रकाश	-8.95907
▁संचाल	-8.95969
▁शि	-8.96118
ाइज	-8.96165
▁पि	-8.96183
ाँ	-8.96198
▁अप	-8.9622
an	-8.96254
▁दिख	-8.96327
▁C	-8.96416
ेस्ट	-8.9673
▁फ़	-8.96777
▁समर्थ	-8.97053
▁ऐ	-8.97139
लैंड	-8.97147
न्न	-8.97302
ैक	-8.97341
▁गाड़	-8.97365
▁याद	-8.97463
▁माल	-8.97495
ोह	-8.97522
▁कर्मचारियों	-8.97533
▁नेतृत्व	-8.97533
▁पेट्रोल	-8.97533
▁स्टेशन	-8.97534
▁शराब	-8.97535
▁चयन	-8.97539
▁अमित	-8.97547
▁विपक्ष	-8.97553
चित	-8.97593
▁सांसद	-8.97602
▁मिनट	-8.97624
▁समूह	-8.97625
र्न	-8.97654
ूम	-8.97685
▁एल	-8.97872
सर	-8.97897
▁भेजा	-8.97958
▁घट	-8.98165
▁पाए	-8.98315
एच	-8.98349
तम	-8.98481
▁ऑन	-8.985
▁दिखा	-8.9853
ग्राम	-8.98769
ार्थ	-8.98905
केंद्रीय	-8.9922
वाह	-8.99289
▁पैद	-8.99339
▁हटा	-8.99418
▁40	-8.99496
g	-8.99602
्मा	-8.99615
▁चौधरी	-8.99617
▁प्रक्रिया	-8.99617
▁हादसे	-8.99617
▁दिवस	-8.99617
▁अदालत	-8.99617
▁तलाश	-8.99618
▁लूट	-8.99624
▁महत्व	-8.99636
▁नोटिस	-8.99653
▁संयुक्त	-8.99654
▁बनी	-8.99657
काल	-8.99722
▁दोपह	-8.9975
डे	-8.99774
▁लंब	-8.99816
्ड	-8.99823
▁बो	-8.99998
▁सेना	-9.00034
▁व्य	-9.00069
मार	-9.00132
▁गह	-9.00328
▁पहला	-9.00345
▁इन्ह	-9.00541
एंगे	-9.0068
▁मि	-9.00725
B	-9.00895
ियो	-9.01245
▁जय	-9.01288
20	-9.015
▁संक्रमित	-9.01744
▁माध्यम	-9.01744
▁सितंबर	-9.01745
▁मार्च	-9.01745
▁जिलों	-9.01756
▁“	-9.01772
▁कपूर	-9.01821
▁बीत	-9.01833
▁टिकट	-9.01838
ेक्ट	-9.01991
▁स्थल	-9.02067
▁हमेश	-9.02116
िस्ट	-9.02197
▁60	-9.02392
▁अभि	-9.02536
पो	-9.02599
देश	-9.02781
रु	-9.03371
▁आते	-9.03599
▁तैयारी	-9.03607
▁क्षेत्रों	-9.03845
O	-9.03918
▁तैनात	-9.03918
▁दक्षिण	-9.03918
▁ऊपर	-9.03919
▁जनवरी	-9.0392
▁सफाई	-9.03921
▁न्यायालय	-9.03925
▁विजय	-9.041
▁सिर	-9.0414
▁रहेगा	-9.04486
▁ट्रक	-9.04493
▁पाया	-9.0501
n	-9.05024
R	-9.05288
▁जुट	-9.0542
▁जैस	-9.05568
ar	-9.05715
▁परि	-9.0604
H	-9.0614
िस्तान	-9.0614
F	-9.0614
y	-9.0614
▁अतिरिक्	-9.0614
▁अप्रैल	-9.0614
▁घोषित	-9.0614
▁भोपाल	-9.06141
▁बंगाल	-9.06141
▁विकेट	-9.06143
▁मार्ग	-9.06173
▁पहुंची	-9.06184
▁राष्ट्र	-9.06191
हिर	-9.06244
▁जवान	-9.06272
▁चालक	-9.06342
▁पढ़ें	-9.06368
▁बाग	-9.06372
▁कितन	-9.06446
▁संघ	-9.06456
▁निजी	-9.06563
▁लॉक	-9.0673
▁अंत	-9.07131
"	-9.07142
▁लाइन	-9.07261
▁लिय	-9.07397
▁आता	-9.07483
▁S	-9.07518
राष्ट्रीय	-9.07584
स्थ	-9.07964
▁जु	-9.07994
▁न्याय	-9.08408
▁बु	-9.08411
▁दिसंबर	-9.08413
▁मुकाबले	-9.08413
▁जम्मू	-9.08413
▁अंदर	-9.08414
▁संजय	-9.08416
▁कब्ज	-9.08416
▁सलमान	-9.08418
▁अपील	-9.08426
▁2020	-9.08445
▁उम्र	-9.08471
▁मूल्य	-9.08474
▁सुधार	-9.08491
▁चंद्र	-9.08492
▁चुन	-9.08518
▁पैसे	-9.08599
▁डर	-9.08615
बुक	-9.08665
▁कहीं	-9.08729
▁होकर	-9.08891
म्ब	-9.08914
▁22	-9.0958
ग्रह	-9.09651
एफ	-9.09806
ट्ट	-9.09905
▁कराई	-9.09957
▁बहन	-9.09979
▁देता	-9.09993
▁हवा	-9.10504
▁सम्मान	-9.10523
च्छ	-9.10567
▁अच	-9.1058
▁गोली	-9.1065
▁गृह	-9.10739
›	-9.10739
▁ट्वीट	-9.10739
▁परिणाम	-9.10739
▁राजधानी	-9.10739
▁हरियाणा	-9.10739
▁पश्चिम	-9.10739
▁आर्थिक	-9.10739
▁खराब	-9.10743
▁सुनवाई	-9.10746
▁नवंबर	-9.10746
▁कमेटी	-9.10749
▁विदेश	-9.10801
▁वित्त	-9.10845
▁गर्म	-9.10847
▁विद्यालय	-9.1091
▁बढ़त	-9.10917
्टर	-9.11181
▁मंत्र	-9.11206
ानक	-9.11236
र्ड	-9.11334
▁26	-9.11351
▁भीड़	-9.11725
वें	-9.11882
वाला	-9.11886
र्थ	-9.11965
▁रहता	-9.12197
मंत्री	-9.12237
T	-9.12262
अलग	-9.12278
▁खिलाड़ी	-9.12283
ौल	-9.12409
राह	-9.12531
दीप	-9.12863
▁दीप	-9.1311
▁प्रतिनिधि	-9.13117
▁दरअसल	-9.1312
▁मजबूत	-9.1312
▁स्थाप	-9.13122
▁आसप	-9.13149
▁गरीब	-9.13152
▁खुश	-9.13153
▁मौका	-9.13159
▁प्रभाव	-9.1329
▁अस	-9.13404
▁थाने	-9.13593
ंडा	-9.13682
ड़े	-9.1375
गार	-9.13904
सु	-9.14057
▁करेगा	-9.14061
▁B	-9.1408
ः	-9.14082
▁टे	-9.14088
▁अल	-9.14153
▁बनाकर	-9.14179
इस	-9.14331
▁उड़	-9.14604
▁जोर	-9.14754
यी	-9.14835
▁लगाए	-9.14958
▁चाहत	-9.15173
▁उत्	-9.15355
वीर	-9.15449
▁अहम	-9.15462
▁अक्टूबर	-9.15559
▁आंदोलन	-9.15559
निश्चित	-9.1556
▁शांति	-9.15562
▁चोट	-9.15564
▁विश्वविद्यालय	-9.15564
▁आवाज	-9.15636
▁दिखाई	-9.15769
▁घाट	-9.16129
▁जिनक	-9.16132
व्य	-9.16188
▁वी	-9.16268
▁सोच	-9.16273
▁इनमें	-9.16302
आइ	-9.16395
▁एंड	-9.16401
▁मच	-9.16434
▁महामा	-9.16653
▁देवी	-9.1667
▁पीड़ित	-9.16751
गो	-9.16763
ंगा	-9.16833
▁सपा	-9.16906
▁रहते	-9.16949
▁अनुम	-9.17005
▁पालन	-9.17342
ुद्ध	-9.17655
खंड	-9.17677
r	-9.17712
▁गेंद	-9.18047
▁उत्तराखंड	-9.18059
▁गैस	-9.1806
ाउंड	-9.18074
▁ऑक्स	-9.18093
▁भोज	-9.18112
▁मुक्त	-9.18142
▁पार्क	-9.18145
▁देंगे	-9.18187
▁भवन	-9.18209
▁चौक	-9.18392
▁माता	-9.18525
▁वर्ग	-9.18676
▁वर्	-9.18845
वल	-9.19211
▁चोरी	-9.19275
▁केन्द्र	-9.19311
▁लगता	-9.1934
▁कही	-9.19357
▁रोग	-9.19453
▁ब्ल	-9.19458
|	-9.19764
▁दस	-9.19868
▁तस्वीर	-9.20518
▁मुश्किल	-9.20623
▁फिलहाल	-9.20623
▁संभावना	-9.20623
▁निवेश	-9.20623
▁शुभ	-9.20623
▁पूछ	-9.20624
▁सौंप	-9.2063
▁सुरक्षित	-9.20638
▁राहत	-9.20654
▁दिशा	-9.20661
▁वार्ड	-9.20663
▁निभा	-9.20686
ल्ल	-9.20705
▁क्ल	-9.20708
▁घरेल	-9.20851
स्था	-9.21006
,000	-9.21281
▁मानव	-9.21374
▁कं	-9.2149
ुआ	-9.21631
▁P	-9.21741
▁बाक	-9.2186
रोध	-9.21969
M	-9.22385
ँ	-9.22405
ैर	-9.22746
▁उठ	-9.22892
ासन	-9.2299
▁दर्शक	-9.23254
▁पूछताछ	-9.23254
▁समीक्षा	-9.23254
▁परियोजना	-9.23254
▁सीरीज	-9.23255
▁संसद	-9.23263
▁मास्क	-9.2327
ानदार	-9.23299
▁ओवर	-9.23325
▁रक्षा	-9.23477
▁अमर	-9.23515
▁आवास	-9.23528
▁खाद्य	-9.23538
▁बेटे	-9.2365
शंकर	-9.23672
▁बाबा	-9.23678
▁लें	-9.23689
▁पड़ता	-9.23867
ियन	-9.23879
शांत	-9.23895
हम	-9.23922
▁संबंधित	-9.23967
प्ले	-9.23974
।'	-9.24091
बाज	-9.24447
▁स्क	-9.24531
▁बढ़ाने	-9.24654
▁लाने	-9.24712
▁चले	-9.24758
ाही	-9.25053
N	-9.25082
▁2019	-9.25091
मीटर	-9.25263
जीत	-9.25318
▁बनने	-9.25374
िड	-9.25583
▁वर्त	-9.25592
शनल	-9.25647
▁नही	-9.25697
▁अंक	-9.2578
b	-9.25948
L	-9.25957
v	-9.25957
▁छत्तीसगढ़	-9.25957
▁पुरुष	-9.25957
▁रिकॉर्ड	-9.25957
▁अफगान	-9.25957
▁छूट	-9.25959
▁संकट	-9.25965
▁2017	-9.25967
▁उच्च	-9.25983
▁करेगी	-9.26011
▁टीवी	-9.2603
▁विमान	-9.26199
▁ख़	-9.2621
कू	-9.26278
ज्ञा	-9.26526
▁फै	-9.26544
▁जाएं	-9.26833
▁मतदा	-9.26878
▁रेल	-9.27172
▁I	-9.27406
▁फैसल	-9.27456
वादी	-9.27662
▁सामन	-9.27668
▁टीकाकर	-9.27943
▁1.	-9.27978
▁खाने	-9.28035
हत	-9.28066
▁फेस	-9.28098
▁बचा	-9.28289
▁सवार	-9.28317
▁बुर	-9.28447
▁नया	-9.28598
अप	-9.28722
▁एसोसिएशन	-9.28735
▁झारखंड	-9.28735
▁तिवारी	-9.28735
▁सुप्रीम	-9.28735
▁दाखिल	-9.28735
▁तरीके	-9.28736
▁तुर	-9.28741
▁रोज	-9.28823
▁खूब	-9.28842
▁पत्रकार	-9.28883
▁गये	-9.28904
▁सैनिक	-9.28905
वाड़	-9.29064
▁साबि	-9.29236
▁शासन	-9.29259
इय	-9.29449
▁महंग	-9.29918
▁गाय	-9.29942
▁पुल	-9.30138
▁रू	-9.30416
▁पूर्ण	-9.30568
▁उम्मीदवार	-9.30614
ैंड	-9.30859
▁सजा	-9.30962
▁धर	-9.3106
▁पैर	-9.31107
▁एप	-9.31136
▁31	-9.31235
▁आत्म	-9.31286
▁खोल	-9.31395
80	-9.31509
▁अकाउंट	-9.31592
▁विद्यार्थ	-9.31592
U	-9.31592
▁पेंशन	-9.31593
▁किशोर	-9.31596
▁2018	-9.3161
▁फरवरी	-9.31616
▁रैल	-9.31622
▁संदेश	-9.31669
▁ऑफिस	-9.3167
▁परेशानी	-9.31826
टिव	-9.31885
ौन	-9.31906
▁शक्ति	-9.31927
।"	-9.32146
▁तमा	-9.32188
▁एसपी	-9.32195
▁बेच	-9.32405
▁छोटे	-9.32429
▁बीमारी	-9.32471
गल	-9.32492
▁खिलाड़	-9.32609
▁सूची	-9.32612
▁खो	-9.32634
▁ताल	-9.33058
▁नीत	-9.33257
▁लेना	-9.33399
▁पीट	-9.33438
ंडर	-9.3346
▁लि	-9.33472
बंदी	-9.33671
▁मना	-9.33692
ब्ब	-9.34053
▁इंटर	-9.34202
▁दम	-9.34505
▁याचिका	-9.34526
▁क्षमता	-9.34533
▁चिकित्सक	-9.34533
▁अफसर	-9.34534
▁अवधि	-9.34534
▁बरामद	-9.34534
▁चेहर	-9.34538
▁वकील	-9.34538
▁थोड़	-9.34544
▁पटना	-9.34544
▁हालात	-9.34554
▁फसल	-9.34562
▁धारा	-9.34563
▁वितरण	-9.3458
▁सत्ता	-9.34587
हान	-9.34639
▁चेक	-9.34646
▁सहायता	-9.3473
▁साध	-9.34792
▁मगर	-9.34907
ाइन	-9.34916
न्त	-9.3504
▁दूसरा	-9.35132
▁दुर्	-9.35149
▁उत्पादन	-9.35252
▁जरूर	-9.35265
पति	-9.35306
▁पाल	-9.35337
▁बिल	-9.35399
▁मिश्रा	-9.35535
▁लगाई	-9.35621
▁21	-9.35733
▁साह	-9.35877
चल	-9.36785
ायर	-9.36794
▁उत्पाद	-9.36828
साथ	-9.37096
ल्ड	-9.37115
▁एड	-9.375
▁अच्छ	-9.37523
▁एक्सप्रेस	-9.37564
▁गतिविधिय	-9.37564
▁प्रत्येक	-9.37564
▁भविष्य	-9.37564
▁लक्ष्य	-9.37564
▁खुलासा	-9.37566
▁फुट	-9.37568
▁आंख	-9.3757
▁डॉलर	-9.37571
▁महाराष्ट्र	-9.37571
▁प्यार	-9.37572
▁चौहान	-9.37581
सूस	-9.37608
▁सामान्य	-9.37614
▁कानपुर	-9.37627
▁कमर	-9.37734
▁35	-9.37982
▁चा	-9.38017
तौर	-9.38056
▁27	-9.38094
▁सीध	-9.38232
▁नदी	-9.38281
▁चीज	-9.38305
▁रोकने	-9.38323
▁सत्र	-9.38447
ra	-9.38467
कर्मियों	-9.38655
▁फल	-9.39169
▁2.	-9.39212
(	-9.39849
कोर्ट	-9.3991
पुरा	-9.3998
▁संस्था	-9.4002
-20	-9.40366
▁गोल	-9.40373
पू	-9.4056
▁गुरु	-9.4059
W	-9.40688
▁अग्रवाल	-9.40689
▁अशोक	-9.40689
▁चिकित्सा	-9.40689
▁प्राथमिक	-9.40689
▁समुदाय	-9.40689
▁प्रदूषण	-9.40689
▁बदमाश	-9.40689
▁समारोह	-9.40689
▁आरक्षण	-9.40689
▁स्पष्ट	-9.40689
▁ठाकुर	-9.40689
▁प्रवक्त	-9.40689
▁चिंता	-9.40691
▁नौकरी	-9.40697
▁मकान	-9.40698
▁कोतवाल	-9.40701
यंत्र	-9.40731
▁तकनीक	-9.40741
▁लो	-9.4121
▁फंस	-9.41217
▁फैल	-9.413
▁निर्	-9.41467
▁चढ़	-9.41599
▁वाद	-9.41747
स्‍ट	-9.41774
ड्ड	-9.41823
▁लेख	-9.41845
▁28	-9.41924
▁लाखों	-9.42019
▁उम	-9.42177
▁किये	-9.42614
▁रु	-9.42757
▁दवा	-9.42766
▁भाव	-9.42767
▁नय	-9.42958
ढ	-9.43003
▁चली	-9.43123
जल	-9.43125
▁दु	-9.43303
ीकरण	-9.43461
▁सफल	-9.43716
▁मूल	-9.43851
▁सलाह	-9.43861
▁तहसील	-9.43914
▁प्रस्तुत	-9.43914
▁मुलाकात	-9.43914
▁अवैध	-9.43915
▁गुप्ता	-9.43915
▁कारोबार	-9.43915
▁वायरल	-9.43915
▁पटेल	-9.43916
▁जनपद	-9.43916
▁प्रथम	-9.43917
▁शिविर	-9.43918
▁शरीर	-9.4392
▁कक्षा	-9.43921
▁कोहली	-9.4394
▁परिसर	-9.43958
▁एजेंसी	-9.43989
▁रोशन	-9.44015
▁पेड़	-9.44071
▁हवाई	-9.4409
▁सफलता	-9.44134
▁संपर	-9.44137
▁प्रबंध	-9.4416
ज्ज	-9.44176
▁फ्ल	-9.44253
▁इंटरने	-9.44417
▁टूट	-9.44602
युक्त	-9.44768
▁मानना	-9.44771
▁झा	-9.4505
▁राजा	-9.45126
▁आसान	-9.45323
▁सिल	-9.45328
▁पल	-9.45347
▁खेत	-9.45432
▁आंकड़	-9.45669
▁निशान	-9.45973
▁पो	-9.45986
▁मेल	-9.46074
on	-9.462
▁रखे	-9.46218
▁वर्षों	-9.46335
G	-9.46389
▁सहाय	-9.46516
भाव	-9.46667
▁गल	-9.4695
शिप	-9.46992
▁आवश्यक	-9.47029
▁इंतजार	-9.47248
▁पॉजिटिव	-9.47248
▁आनंद	-9.47248
▁आदमी	-9.47248
▁दबाव	-9.47248
▁उपचार	-9.47249
▁प्रसाद	-9.47249
▁विराट	-9.47252
▁उद्योग	-9.47253
▁सेंटर	-9.4731
▁वर्मा	-9.47343
▁आजाद	-9.47358
▁सामाजिक	-9.47379
▁रायपुर	-9.47389
▁मिलेगी	-9.47394
▁फ्र	-9.47458
रानी	-9.47478
▁कर्ज	-9.47503
▁डीएम	-9.47529
▁रावत	-9.47531
▁डिज	-9.47706
▁ओम	-9.47897
ंद्र	-9.48502
▁बहु	-9.48511
▁R	-9.48547
▁लड़की	-9.48754
▁चलाने	-9.48973
शाल	-9.492
ल्ला	-9.4921
▁खेती	-9.49227
र्व	-9.49396
▁जला	-9.49512
▁डॉक्टर	-9.49587
-1	-9.49749
ियत	-9.4981
ार्टम	-9.50041
मंद	-9.50435
▁उन्ह	-9.50626
▁रण	-9.50683
▁अभिनेत्री	-9.50696
▁जागरूक	-9.50696
▁पौधे	-9.50696
▁मोहम्मद	-9.50696
▁शीर्ष	-9.50696
▁सार्वजनि	-9.50696
▁कप्तान	-9.50696
▁कोलकाता	-9.50696
▁संवाददाता	-9.50696
▁हफ्त	-9.50696
मूर्ति	-9.50706
▁इतिहास	-9.50707
▁स्टार	-9.50708
▁फरार	-9.50713
कलेक्टर	-9.50718
▁मंडी	-9.50723
▁उपाय	-9.50729
▁फर्जी	-9.50746
स्तर	-9.50798
▁दर्द	-9.50828
▁भक्त	-9.5086
ानंद	-9.50931
▁उतर	-9.50936
▁गीत	-9.50953
▁जग	-9.50956
▁जोन	-9.51049
ार्मिक	-9.51056
ायक	-9.51113
▁सबक	-9.51181
▁मंच	-9.51206
▁29	-9.51344
दु	-9.51416
▁अर्ज	-9.51556
त्व	-9.51564
▁मिलती	-9.51615
▁अली	-9.51691
ात्मक	-9.51811
10	-9.51832
▁सम्म	-9.51866
रोजगार	-9.51955
ुश	-9.52046
▁तीसरे	-9.52233
▁डेट	-9.52386
▁अभिन	-9.52405
वाद	-9.52632
▁रखी	-9.52659
▁तीसर	-9.52709
▁आती	-9.53257
▁मश	-9.53484
▁चम	-9.53875
मेल	-9.54177
कृति	-9.54203
▁अध्यापक	-9.54267
▁ऊर्जा	-9.54267
▁फायदा	-9.54267
▁रद्द	-9.54267
▁आबादी	-9.54268
▁संपत्ति	-9.54268
▁समाप्त	-9.54268
▁इंग्ल	-9.54269
▁प्रचार	-9.5427
▁ऑस्ट्रेलिया	-9.54271
▁अभिनेता	-9.54272
सीबीआई	-9.54282
▁नीति	-9.54309
▁बर्	-9.54313
जागरण	-9.54431
प्प	-9.54486
▁आवश्यकता	-9.54503
▁वैसे	-9.54508
▁हु	-9.54525
▁फिट	-9.5454
▁स्वाग	-9.54543
▁विश्वास	-9.54757
▁लेत	-9.5483
▁टॉप	-9.54848
▁तोड़	-9.54888
▁बह	-9.54896
▁मंजूरी	-9.55017
ाधिक	-9.55118
▁खतरा	-9.55122
▁गईं	-9.55509
▁अर	-9.55566
▁रिश्	-9.55657
▁उम्मीदवारों	-9.55672
▁खाते	-9.55805
न्द	-9.55819
इन	-9.55827
▁खंड	-9.55846
▁सच	-9.55906
▁70	-9.55951
▁न्यूज	-9.56311
न्होंने	-9.56313
▁सम्	-9.56451
▁अमेरिक	-9.56678
▁कस	-9.56812
घर	-9.56897
▁पहल	-9.56995
भाषा	-9.57115
मैं	-9.57142
▁प्ला	-9.57204
ध्या	-9.57554
ालय	-9.57751
कर्ता	-9.5793
कैबिनेट	-9.57971
▁अधीक्षक	-9.57971
▁चेयरमैन	-9.57971
▁प्रतियोगिता	-9.57971
▁वेबसाइट	-9.57971
▁निर्वाच	-9.57971
▁गिरावट	-9.57971
▁टक्कर	-9.57971
▁उन्‍ह	-9.57971
▁संभव	-9.57972
▁स्वयं	-9.57972
▁कैंप	-9.57974
▁मधु	-9.57977
▁मोहन	-9.57978
▁सूर्य	-9.57979
▁स्ट्र	-9.57979
ोग	-9.57991
▁पुष्ट	-9.58006
▁सिद्ध	-9.58032
▁संवाद	-9.58035
▁प्रयोग	-9.58045
▁दोबार	-9.58219
▁राज्यपाल	-9.58223
मेश	-9.58442
▁मृतक	-9.58578
▁असम	-9.5872
▁सुख	-9.5874
▁अंतर्	-9.58775
▁मजदूरों	-9.59047
▁45	-9.59199
▁रूस	-9.59509
▁न्यू	-9.59526
▁रहत	-9.59596
▁आरोपित	-9.59639
▁वीर	-9.59763
▁निग	-9.59855
▁टै	-9.59858
स्त्र	-9.60163
▁जानत	-9.60439
▁मिश्र	-9.60517
▁नाल	-9.60582
▁खाल	-9.6064
▁मजदूर	-9.60711
er	-9.60758
▁खिल	-9.60782
▁पारी	-9.60909
▁शाय	-9.60929
घाट	-9.60994
वां	-9.61226
▁पेट	-9.61334
▁असल	-9.61337
काश	-9.61346
▁आकर	-9.6138
j	-9.61817
▁ज्ञापन	-9.61817
▁परिवहन	-9.61817
▁पुरस्कार	-9.61817
▁मजबूर	-9.61817
▁चुनौती	-9.61817
▁सिन्हा	-9.61817
▁हिस्से	-9.61817
▁अनुभव	-9.61819
▁साझा	-9.61819
▁प्रतिभा	-9.61823
▁प्रशिक्षण	-9.61856
▁रखें	-9.61859
▁वार्ता	-9.61899
▁शिकार	-9.61934
▁रहेंगे	-9.61954
▁तस्वीरें	-9.61975
▁रुप	-9.61989
▁फाइनल	-9.62037
चना	-9.6204
▁उठाया	-9.62042
▁भूमि	-9.62072
ण्ड	-9.62087
▁कृष्ण	-9.62137
▁मालिक	-9.62142
▁लु	-9.62149
▁जंगल	-9.62155
▁निर्धार	-9.6217
▁चीनी	-9.62245
▁बद	-9.62247
49	-9.62261
▁ड्र	-9.62266
▁नियमित	-9.62327
रेशन	-9.62439
▁उद्	-9.62459
थित	-9.62589
▁बचाने	-9.62599
▁जिलाधिकार	-9.62618
ेक्शन	-9.6276
कुल	-9.62894
▁व्यक्त	-9.62921
▁मिलते	-9.63044
▁N	-9.63051
▁धु	-9.63083
▁घुस	-9.6311
30	-9.63621
▁लोन	-9.63666
ॉन	-9.63747
▁लगाते	-9.64075
▁चोर	-9.64111
पूर	-9.64153
.5	-9.64155
ेलन	-9.64316
▁M	-9.64653
.0	-9.64921
▁हित	-9.65239
▁लंबी	-9.65454
डियो	-9.65491
ध्यक्ष	-9.65669
▁ऋ	-9.65769
▁आधिकार	-9.65817
▁कर्नाटक	-9.65817
▁दुष्कर्म	-9.65817
▁मुस्लिम	-9.65817
▁शब्द	-9.65817
▁शीघ्र	-9.65817
▁इंडियन	-9.65817
▁एटीएम	-9.65817
▁व्यवसाय	-9.65817
▁दर्शन	-9.65817
▁हिंदू	-9.65817
▁सिलसिल	-9.65818
▁खारिज	-9.65818
▁ग्रुप	-9.65818
▁जायेगा	-9.65819
▁शहीद	-9.65821
▁जिन्हे	-9.65821
▁वर्ल्ड	-9.65831
▁रिलीज	-9.65836
▁युद्ध	-9.65844
▁डो	-9.65867
▁होटल	-9.65878
▁जयपुर	-9.6596
▁लाइट	-9.65961
▁एडमि	-9.65976
▁अनुमान	-9.65977
▁चौथ	-9.65991
▁आयु	-9.66113
▁एमए	-9.66167
▁किनार	-9.66266
▁कहानी	-9.66272
▁दर्जन	-9.66308
▁रवान	-9.66455
▁खोज	-9.66471
▁नील	-9.66494
▁जितन	-9.66594
▁रखना	-9.66601
▁प्लान	-9.66624
▁संस्थान	-9.66776
▁कमल	-9.66793
▁खरीदने	-9.67074
25	-9.67113
▁गेंदबाजी	-9.67228
क्षय	-9.6725
योग	-9.67337
▁नकल	-9.67341
▁चाह	-9.67421
▁क्रम	-9.67436
▁वॉ	-9.67513
▁कब	-9.67561
शाला	-9.67878
रूप	-9.67991
▁सपन	-9.68
▁आखिर	-9.68037
फर	-9.68253
▁पदक	-9.684
ममता	-9.68572
▁पड़े	-9.68578
▁पाई	-9.68581
कीय	-9.68973
▁खाना	-9.69094
गांव	-9.69167
22	-9.69435
▁विल	-9.69837
▁दि	-9.69848
▁संग	-9.69883
रफ्तार	-9.69984
▁अरविंद	-9.69984
▁इंस्पेक्टर	-9.69984
▁तत्काल	-9.69984
▁वाराणसी	-9.69984
▁विधेयक	-9.69984
▁स्टूडेंट	-9.69984
▁उर्फ	-9.69984
▁दिक्कत	-9.69984
▁पदाधिकारियों	-9.69984
▁परिवर्तन	-9.69984
▁विकसित	-9.69984
▁अपडेट	-9.69984
▁सख्त	-9.69985
▁सैन्य	-9.69985
▁ट्रंप	-9.69986
▁इस्लाम	-9.69987
▁आउट	-9.69988
▁पांडे	-9.69993
▁तहरी	-9.69996
▁विशेषज्ञ	-9.69999
ैग	-9.70009
▁मुख्यालय	-9.70018
▁जापान	-9.7002
▁प्लांट	-9.70028
▁घूम	-9.70028
सर्च	-9.70033
▁नीच	-9.70057
▁श्रमिक	-9.7006
▁लागत	-9.70099
▁जानिए	-9.701
▁कौन	-9.7014
▁हॉल	-9.70188
▁संगीत	-9.70196
▁बिगड़	-9.70252
▁सियास	-9.7026
▁रोहित	-9.70275
▁महिलाएं	-9.70299
▁सफर	-9.70359
▁रखते	-9.7039
ेन्द्र	-9.70444
▁देगा	-9.70561
▁बेल	-9.70562
▁पंच	-9.70592
कल्प	-9.70888
▁भाषा	-9.70961
▁पोस्टम	-9.71004
▁सुनी	-9.71015
▁जिम्मेदारी	-9.71033
र्डर	-9.71116
▁दोष	-9.71233
▁डॉक्टरों	-9.71346
पंप	-9.71363
िटल	-9.71478
▁अथ	-9.71641
37	-9.71831
▁माय	-9.71874
▁लाय	-9.71909
▁गुर	-9.72038
▁पीड़िता	-9.72221
▁कॉल	-9.72288
40	-9.72289
15	-9.72418
▁पार्ट	-9.72665
▁कराए	-9.72703
रेन	-9.72733
कर्मी	-9.72937
िहार	-9.72968
▁डिग	-9.73051
बीएस	-9.73272
▁चौकी	-9.73402
कश्मीर	-9.73485
▁चै	-9.73722
▁भल	-9.73731
▁सारा	-9.73957
▁कोरिया	-9.74024
नीय	-9.74029
▁नाग	-9.74165
श्त	-9.7421
▁विधि	-9.74225
ियम	-9.74314
▁अतिक्रमण	-9.74332
▁एक्ट्रेस	-9.74332
▁दुर्घटना	-9.74332
▁भुगतान	-9.74332
▁मुकाबला	-9.74332
▁स्टेडियम	-9.74332
▁हथियार	-9.74332
▁हिमाचल	-9.74332
▁संबोधित	-9.74332
▁सक्रिय	-9.74332
▁मुफ्त	-9.74332
▁हाउस	-9.74332
▁हिसाब	-9.74332
▁कॉलोनी	-9.74332
▁तापमान	-9.74332
▁Rea	-9.74332
▁तारीख	-9.74334
▁स्टेट	-9.74334
▁दौड़	-9.74335
▁सिस्टम	-9.74335
▁‘‘	-9.74337
▁जैन	-9.74338
आईपीएल	-9.74339
▁सकेंगे	-9.74342
▁इंदौर	-9.74346
▁सेक्टर	-9.74348
96	-9.74349
▁पदाधिकारी	-9.7435
▁प्रसार	-9.74352
▁कैमर	-9.74376
▁जोशी	-9.7439
▁32	-9.74421
▁क्लास	-9.74433
▁शेर	-9.74454
▁फायर	-9.74463
▁>	-9.74466
▁घेर	-9.74481
▁जब्त	-9.7455
▁सामान	-9.74572
▁बेहतरी	-9.74638
▁ट्वि	-9.74662
▁गति	-9.74853
▁बताई	-9.75045
▁नियुक्त	-9.75178
िंदा	-9.75253
▁सिटी	-9.75381
▁प्रत्याशी	-9.75429
▁चंद	-9.75748
▁बातें	-9.75921
or	-9.75955
क्सर	-9.76038
▁नेशनल	-9.76073
▁रोल	-9.76083
38	-9.76142
क्शन	-9.76245
▁जुड़ी	-9.76258
िरा	-9.76261
45	-9.76844
▁डिस्	-9.76871
प्रिय	-9.76936
▁आसानी	-9.76941
▁मौ	-9.77111
मैन	-9.77241
▁जुड़	-9.77341
▁लीग	-9.77963
▁खात	-9.77981
▁समझा	-9.77989
प्रकाश	-9.78071
ॉप	-9.78119
▁नै	-9.78512
▁रोह	-9.78529
▁अधि	-9.78531
▁लड़क	-9.78624
▁हिंसा	-9.78644
▁खूबसूरत	-9.78877
▁चंडीगढ़	-9.78877
▁चेतावनी	-9.78877
▁मध्यप्रदेश	-9.78877
▁शुक्ला	-9.78877
▁सामग्री	-9.78877
▁स्वर्ण	-9.78877
▁नामांकन	-9.78877
▁पर्यावरण	-9.78877
▁रिजर्व	-9.78877
▁विजेता	-9.78877
▁कल्याण	-9.78877
▁जस्टिस	-9.78877
▁निदेशक	-9.78878
▁विस्तार	-9.78878
▁धमकी	-9.78878
▁मारपीट	-9.78878
▁तुलना	-9.78879
▁सिविल	-9.78879
▁वस्तु	-9.78879
▁उत्साह	-9.78879
▁स्टोर	-9.7888
▁जयंती	-9.7888
▁बिक्री	-9.7888
▁संकेत	-9.7888
▁गुजरात	-9.78884
▁जताई	-9.78885
▁अखिलेश	-9.7889
▁ज्ञान	-9.78893
▁चावल	-9.78901
▁किरदार	-9.78903
▁उतार	-9.78912
▁डीजल	-9.78914
▁संस्कार	-9.78936
▁बिल्क	-9.78977
वंश	-9.78985
▁500	-9.78986
st	-9.79004
▁विवाह	-9.79018
▁गंगा	-9.79029
▁दान	-9.79036
रंग	-9.79044
▁व्यवहार	-9.79058
▁अंदाज	-9.79098
िट्टी	-9.79203
▁बुला	-9.79329
यां	-9.79364
▁देखें	-9.79415
▁लहर	-9.7942
ाणु	-9.7942
पेट	-9.79467
▁तर	-9.79529
▁लक्ष्मी	-9.79566
▁विन	-9.79836
नजर	-9.79878
▁पोल	-9.80005
▁G	-9.80068
स्टिक	-9.80097
▁33	-9.80341
▁कपड़	-9.80348
▁प्रवास	-9.80489
▁डाय	-9.808
▁आखिरी	-9.81049
▁बतात	-9.81276
ंबर	-9.81579
▁जैसा	-9.81622
▁अनि	-9.81674
तंत्र	-9.81788
▁जुड़ा	-9.81804
me	-9.81922
द्दे	-9.82095
टेक	-9.82213
ासत	-9.82245
▁अंग	-9.823
▁खाद	-9.82324
▁फीस	-9.8235
▁मुह	-9.82399
▁जुटा	-9.82415
▁टाइ	-9.82518
वंत	-9.82535
▁लड़किय	-9.82638
ैक्ट	-9.82654
▁नियुक्ति	-9.82786
वर्त	-9.82964
27	-9.83004
▁हेम	-9.83317
18	-9.83418
▁पर्या	-9.83611
▁ग्राहक	-9.83639
▁प्रियंका	-9.83639
▁लापरवाह	-9.83639
▁लॉन्च	-9.83639
▁शाहरुख	-9.83639
▁2014	-9.83639
▁हंगामा	-9.83639
▁गर्भ	-9.8364
▁वसूल	-9.8364
▁डेस्क	-9.8364
▁भरोसा	-9.8364
▁भ्रष्टाचार	-9.8364
▁कलाकार	-9.83643
▁प्रताप	-9.83646
▁तनाव	-9.83648
▁खून	-9.83654
▁मशीन	-9.83662
▁रेफर	-9.83669
▁फूल	-9.83678
▁फेंक	-9.83681
▁कालेज	-9.83687
▁वनडे	-9.83691
▁त्रि	-9.83698
▁पालिका	-9.83698
▁शूटिंग	-9.83703
▁शास	-9.83706
▁गोल्ड	-9.83706
▁स्वामी	-9.83709
▁पदार्थ	-9.83722
▁दायर	-9.8374
▁पैसा	-9.8382
पत्र	-9.83838
w	-9.83876
▁लड़ाई	-9.83902
▁आयुक्त	-9.83955
▁शुल्क	-9.83956
जोर	-9.84014
▁ईरान	-9.84045
▁अंकित	-9.84093
▁आएगी	-9.84103
▁फॉर्म	-9.84266
▁स्ल	-9.84539
जनक	-9.84595
▁गंद	-9.84602
▁आईसी	-9.85036
▁क्व	-9.8514
▁मीटर	-9.85212
▁|	-9.85272
▁टू	-9.85284
▁चाहे	-9.85351
▁T	-9.85398
▁बैग	-9.85428
▁केरल	-9.85582
▁रुक	-9.85642
पीठ	-9.85893
▁आंकड़े	-9.85956
▁दू	-9.86112
ांश	-9.86305
▁सिम	-9.8637
वाई	-9.86539
डिया	-9.86681
करण	-9.86718
▁हल	-9.87219
ri	-9.87311
तिन	-9.87335
al	-9.87498
▁क्रिकेटर	-9.87569
▁टन	-9.87726
सिंह	-9.87799
बड़	-9.8785
▁प्रभा	-9.87851
पूर्व	-9.87869
पन्न	-9.88052
्यूट	-9.88204
जात	-9.88306
▁एशिया	-9.88309
ैनिक	-9.88348
हूर	-9.88408
%	-9.88639
f	-9.88639
▁अर्थव्यवस्था	-9.88639
▁आपूर्ति	-9.88639
▁उल्लंघन	-9.88639
▁उल्लेख	-9.88639
▁औद्योगिक	-9.88639
▁केजरीवाल	-9.88639
▁गेहूं	-9.88639
▁मोर्च	-9.88639
▁संभाल	-9.88639
▁जिंदगी	-9.88639
▁परीक्षण	-9.88639
▁निर्माता	-9.88639
▁परंपरा	-9.88639
▁कर्म	-9.88639
▁Ho	-9.8864
▁निर्यात	-9.8864
▁उपाध्यक्ष	-9.8864
▁ऊंच	-9.8864
▁गैंग	-9.8864
▁अरुण	-9.8864
▁सब्जी	-9.8864
▁मैसेज	-9.8864
▁स्टाफ	-9.88641
▁विक्रम	-9.88641
▁शख्स	-9.88641
▁आश्व	-9.88641
▁मानसिक	-9.88642
▁बनर्जी	-9.88642
▁मनीष	-9.88649
▁नवीन	-9.88689
▁गार्ड	-9.88692
▁सदन	-9.88745
▁दूध	-9.88753
▁गोपाल	-9.88765
▁ऑपरे	-9.88795
▁साढ़	-9.88812
▁सत्य	-9.88814
▁गन्न	-9.88826
▁टोल	-9.88826
▁लिस्ट	-9.88881
▁मनाया	-9.8891
▁निरीक्षक	-9.88928
▁लेंगे	-9.88937
▁बांट	-9.88963
▁दिनेश	-9.88982
िमांड	-9.88984
▁सुपर	-9.8899
▁पहुंचाया	-9.89076
▁सहमत	-9.89093
वाएं	-9.89112
▁सम्मानित	-9.89182
▁चार्ज	-9.89229
▁अपर	-9.8954
▁वेस्ट	-9.89764
▁तार	-9.89792
ंधा	-9.89833
▁फैला	-9.89853
▁समर्थक	-9.89883
▁खतरे	-9.90098
एसआई	-9.90148
▁सुना	-9.90204
▁छोटी	-9.90243
▁निशाना	-9.9065
शील	-9.91046
▁समान	-9.91139
▁अल्	-9.91255
▁पुलिसकर्म	-9.91264
पीसी	-9.91336
बोध	-9.91488
तः	-9.91776
गणना	-9.91781
▁फर्	-9.92179
लोक	-9.9226
▁घंट	-9.92519
▁अरब	-9.92546
▁लॉ	-9.92847
िकल्प	-9.92905
▁करवान	-9.92923
▁90	-9.9306
सूचना	-9.93062
ur	-9.93142
▁पर्यट	-9.9344
23	-9.93586
▁विर	-9.93646
ंगू	-9.93773
▁इंडस्ट्री	-9.93902
▁नोएडा	-9.93902
▁मुकदमा	-9.93902
▁वैज्ञानिक	-9.93902
▁सीसीटीवी	-9.93902
▁सैंपल	-9.93902
▁अधिनियम	-9.93902
▁इंटरव्यू	-9.93902
▁एसडीएम	-9.93902
▁दावेदार	-9.93902
▁मार्केट	-9.93902
▁यूनियन	-9.93902
▁मॉडल	-9.93903
▁चक्कर	-9.93903
▁विज्ञान	-9.93903
▁सिनेमा	-9.93904
▁अयोध्	-9.93904
▁शर्त	-9.93904
▁श्याम	-9.93905
▁लिहाज	-9.93906
▁स्वीकार	-9.93907
त्कार	-9.93914
▁समीप	-9.93919
▁2016	-9.93926
▁निराश	-9.93927
▁जमानत	-9.93932
▁चांद	-9.93938
▁नतीज	-9.93961
▁गुजर	-9.93963
स्‍थ	-9.93969
▁स्वीकृत	-9.93977
▁अकेल	-9.94028
▁कार्यकाल	-9.94037
▁पाएंगे	-9.94051
▁यूजर	-9.94181
मेर	-9.94195
▁क्लब	-9.94267
▁रेड	-9.94274
▁वायु	-9.94301
▁चाल	-9.94334
▁पर्यटक	-9.94401
वै	-9.94403
▁अन्न	-9.94419
▁हस्त	-9.94466
▁तिथि	-9.94522
गठ	-9.94584
▁खि	-9.94598
▁चलाया	-9.94642
▁निर	-9.95024
▁फिल	-9.95261
कथा	-9.95443
▁हटान	-9.95482
▁सूच	-9.95501
▁सकें	-9.95621
▁लुक	-9.95785
57	-9.95898
▁बचत	-9.95918
▁एकत्र	-9.95921
▁पैक	-9.96227
कोट	-9.96715
काउंटर	-9.96728
▁खतर	-9.96816
19	-9.96833
▁ड्राइवर	-9.96982
▁अर्	-9.97025
▁राव	-9.9712
ाचार	-9.97161
▁गेंदबाज	-9.97547
▁इंद	-9.97689
▁जानकार	-9.97986
▁रचना	-9.98129
▁खर	-9.98142
एसपी	-9.98457
बिट	-9.99129
०	-9.99458
▁उद्देश्य	-9.99458
▁टूर्नामेंट	-9.99458
▁निरीक्षण	-9.99458
▁न्यायाधीश	-9.99458
▁प्रसिद्ध	-9.99458
▁बढ़ोतरी	-9.99458
▁मुसलमान	-9.99458
▁मेहनत	-9.99458
▁वारदात	-9.99458
▁संतोष	-9.99458
▁2013	-9.99458
▁आक्रोश	-9.99458
▁दिग्गज	-9.99458
▁आकर्ष	-9.99458
▁दिल्‍ली	-9.99458
▁युवत	-9.99458
▁क्राइम	-9.99458
▁पिटाई	-9.99459
▁प्रमाण	-9.99459
▁सिंध	-9.9946
▁व्यापक	-9.9946
▁प्लेट	-9.99463
▁ओपन	-9.99464
▁मुंह	-9.99464
▁पहाड़	-9.99465
▁पशु	-9.99465
▁बांध	-9.99465
▁सुंदर	-9.99465
▁ताकत	-9.99471
▁प्राधिकर	-9.99471
ँच	-9.99474
▁हिन्द	-9.99483
▁2015	-9.99498
▁प्रावधान	-9.99506
▁जू	-9.99515
▁बंगल	-9.99527
▁टैंक	-9.99555
▁छाप	-9.99557
▁गेम	-9.99569
▁मिशन	-9.99577
▁पड़ेगा	-9.99626
▁गैर	-9.99627
▁स्टॉ	-9.99648
ोषण	-9.99653
000	-9.99672
▁ओपी	-9.99673
▁आएगा	-9.99684
स्थल	-9.99711
▁विनो	-9.99825
▁चाय	-9.99834
▁मतदाता	-9.99914
▁बजा	-9.99933
▁करवाया	-9.99934
▁पाठ	-9.99938
▁V	-9.99979
▁सीओ	-9.99992
▁गेट	-10.0001
▁अहमद	-10.0002
धारण	-10.001
तिर	-10.0023
▁छत	-10.0026
एँ	-10.0093
▁गिरि	-10.012
▁आईटी	-10.0123
स्‍त	-10.0125
ट्रिक	-10.0126
▁रेट	-10.0152
▁अनुस	-10.0194
▁सौर	-10.0218
ैप	-10.0257
▁कॉम	-10.0274
70	-10.0288
ूंगा	-10.0366
77	-10.0371
▁सीख	-10.0384
▁साव	-10.0387
▁शह	-10.0387
▁गण	-10.0391
प्रीत	-10.0395
मिन	-10.0422
▁परिजन	-10.044
▁मॉ	-10.0455
पिता	-10.0463
च्च	-10.0477
न्द्र	-10.0524
वेज	-10.0526
सून	-10.0531
▁अध्ययन	-10.0534
▁अफ्रीक	-10.0534
▁आशंका	-10.0534
▁ओडिशा	-10.0534
▁ग्वालियर	-10.0534
▁चेन्नई	-10.0534
▁तालिबान	-10.0534
▁रसोई	-10.0534
▁शौचालय	-10.0534
▁श्रीलंका	-10.0534
​	-10.0534
▁अनिवार्य	-10.0534
▁बच्‍च	-10.0534
▁हेतु	-10.0534
▁सिलेंडर	-10.0534
ॉन्ग	-10.0534
▁पूंजी	-10.0534
▁सुरेश	-10.0534
▁इंस्टा	-10.0534
▁धोनी	-10.0534
▁कविता	-10.0534
दायिक	-10.0534
▁प्लस	-10.0534
▁स्नान	-10.0535
▁दुबे	-10.0535
▁शाखा	-10.0535
▁उधर	-10.0535
▁निधन	-10.0535
▁कामकाज	-10.0535
द्दीन	-10.0536
▁प्रोफे	-10.0536
▁स्वतंत्र	-10.0537
▁माहौल	-10.0538
▁मिमी	-10.0538
▁शेख	-10.0539
▁स्वच्छ	-10.054
▁स्वस्थ	-10.054
▁अत्य	-10.054
▁फैंस	-10.0543
th	-10.0544
▁प्रकरण	-10.0545
▁नशे	-10.0545
िमंडल	-10.0551
ूषण	-10.0557
▁नकद	-10.0558
▁बिग	-10.0558
▁दुख	-10.056
▁दत्त	-10.0561
▁01	-10.0562
▁राजेश	-10.0563
▁आरएस	-10.0563
रक्षक	-10.0564
▁भावना	-10.058
▁फार्म	-10.058
▁बजाय	-10.0592
▁आगरा	-10.0596
▁करवाई	-10.0597
▁K	-10.06
▁ट्रैक	-10.0603
▁कार्यकार	-10.0605
पीएफ	-10.0615
पक्ष	-10.0619
▁दिवा	-10.0623
न्ह	-10.0632
▁एक्टर	-10.0649
▁36	-10.0655
60	-10.0663
▁छवि	-10.0666
▁सदर	-10.0681
▁अदा	-10.0691
यंस	-10.0702
ूबर	-10.075
रीब	-10.0758
▁नाक	-10.0772
▁कन्	-10.0791
▁छोट	-10.0809
रेन्द्र	-10.0824
वासियों	-10.0841
वाया	-10.0881
ंतु	-10.0883
sh	-10.0904
गाड़	-10.0939
04	-10.0957
फेर	-10.0978
▁उठाए	-10.0989
▁बीमार	-10.1012
ज्ञ	-10.1022
21	-10.1029
▁मृत	-10.1056
▁टिक	-10.1073
खला	-10.1075
भारत	-10.1077
फोन	-10.108
99	-10.113
97	-10.1153
▁स्मार्ट	-10.1159
▁उपभोक्ता	-10.1159
▁पार्षद	-10.1159
▁बुजुर्ग	-10.1159
▁मिर्च	-10.1159
▁मेट्रो	-10.1159
▁मोटरसाइकिल	-10.1159
▁श्रीवास्तव	-10.1159
▁श्रेण	-10.1159
▁संघर्ष	-10.1159
▁संसाधन	-10.1159
▁हड़ताल	-10.1159
—	-10.1159
▁2011	-10.1159
▁इंजीनियर	-10.1159
▁ज्योति	-10.1159
▁बिलासपुर	-10.1159
▁मृत्यु	-10.1159
▁सुझाव	-10.1159
▁प्रोजेक्ट	-10.1159
▁श्रद्धालु	-10.1159
▁प्रश्न	-10.1159
▁प्रतिदिन	-10.1159
▁तस्कर	-10.1159
▁हैदराबाद	-10.1159
▁कैंसर	-10.1159
▁ब्रांच	-10.1159
▁बराबर	-10.1159
▁ऐलान	-10.1159
▁प्रिंस	-10.1159
▁रांची	-10.1159
▁स्मार्टफोन	-10.1159
▁फोर्स	-10.1159
।’’	-10.116
▁अंजा	-10.1161
▁हॉक	-10.1161
▁ठिकान	-10.1161
▁PM	-10.1162
▁दिव्या	-10.1162
▁आइए	-10.1162
▁टैक्स	-10.1163
▁लंदन	-10.1163
▁वेतन	-10.1164
▁शिफ्ट	-10.1166
▁संपन्न	-10.1167
▁एक्शन	-10.1167
▁धान	-10.1167
▁जिक्र	-10.1168
▁वैक्सीनेशन	-10.1168
ॉक्स	-10.1173
▁तत्व	-10.1174
▁सागर	-10.1182
▁डांस	-10.1182
▁संस्कृति	-10.1182
▁ब्रेक	-10.1184
en	-10.1189
▁सच्च	-10.1192
▁डोज	-10.1193
▁अंडर	-10.1194
▁पात्र	-10.1194
पिटल	-10.1195
▁पायल	-10.1202
चेंज	-10.1204
▁छीन	-10.1204
▁टैग	-10.1206
▁J	-10.1207
▁अर्थ	-10.1208
▁बीबी	-10.121
▁सेवाओं	-10.1216
सर्जन	-10.1226
▁रूम	-10.1238
▁ठो	-10.125
▁''	-10.1257
▁कैश	-10.1258
▁दिलान	-10.128
▁रवि	-10.1289
▁विध	-10.1326
▁टीका	-10.1377
▁जश्	-10.1413
▁मिन	-10.1466
म्भ	-10.1483
योजन	-10.1486
आईएम	-10.1507
ग्रस्त	-10.1515
डिट	-10.1518
▁मास	-10.1521
▁प्रतीक	-10.1521
लेख	-10.1572
▁रिक्	-10.1626
हाँ	-10.1629
▁पिछल	-10.1649
वर्ध	-10.1649
▁इनाम	-10.1694
▁शर्म	-10.1735
फॉर्म	-10.1739
92	-10.1762
▁टॉ	-10.1778
▁बीमारिय	-10.1789
मूह	-10.1799
▁एजें	-10.1826
x	-10.1826
▁अधिवक्ता	-10.1826
▁इंतजाम	-10.1826
▁डाउनलोड	-10.1826
▁डायरेक्टर	-10.1826
▁बांग्लादेश	-10.1826
▁यूनिवर्सिटी	-10.1826
▁विष्णु	-10.1826
▁शारीरिक	-10.1826
▁स्पेशल	-10.1826
▁अंग्रेज	-10.1826
▁गौतम	-10.1826
▁दीपावली	-10.1826
▁मुआवज	-10.1826
▁2012	-10.1826
▁धनबाद	-10.1826
▁स्क्रीन	-10.1826
▁राजपूत	-10.1826
▁ब्लॉक	-10.1826
▁संज्ञान	-10.1826
▁तिमाह	-10.1826
▁प्रगति	-10.1826
▁बधाई	-10.1826
▁इंसान	-10.1826
▁ब्रांड	-10.1826
▁ग्रहण	-10.1826
▁सावधानी	-10.1826
▁चैनल	-10.1826
▁टाटा	-10.1826
्पण	-10.1827
▁आर्मी	-10.1828
▁नेहरू	-10.1828
▁एसएसपी	-10.1829
▁अनुपम	-10.1829
▁दिये	-10.1829
▁छिप	-10.183
▁ठहरा	-10.1831
▁स्कोर	-10.1833
▁ब्रिट	-10.1833
▁रजिस्ट्र	-10.1833
ियस	-10.1834
▁संकल्प	-10.1834
▁मिठा	-10.1835
▁ट्रेड	-10.1835
क्षेप	-10.1836
▁सलाहकार	-10.1838
▁श्रीनगर	-10.184
प्रभु	-10.1845
फाइल	-10.1846
▁राशन	-10.1855
▁मेरठ	-10.1856
▁बहादुर	-10.1859
▁निपटने	-10.1859
▁आरटी	-10.1867
▁नाराज	-10.1868
▁51	-10.1869
▁सुनाई	-10.1871
▁मसल	-10.1872
रंजन	-10.1877
▁दस्त	-10.1886
▁टकरा	-10.1888
98	-10.1888
▁माध	-10.1889
▁टाइम	-10.1892
▁बहस	-10.1894
▁गुण	-10.1902
▁पावर	-10.1908
▁साइन	-10.1914
▁मानते	-10.1917
▁बेड	-10.1921
ल्लू	-10.1947
16	-10.1959
▁गुना	-10.1963
म्बर	-10.1968
ाएगी	-10.2002
फान	-10.2013
46	-10.2066
▁गुल	-10.2081
▁सहार	-10.2081
गाह	-10.2098
▁पाय	-10.2115
han	-10.2127
▁धीरे	-10.2153
▁जंग	-10.2187
▁चाक	-10.2246
▁Ma	-10.2261
so	-10.2294
▁कुश	-10.2308
▁डीए	-10.243
▁सीरिय	-10.2431
▁घु	-10.2453
ऑ	-10.2455
47	-10.2465
मुझ	-10.2468
58	-10.2476
▁आधा	-10.2495
मर्श	-10.2509
राज्य	-10.2515
▁मिस	-10.2521
▁ट्रांस	-10.2539
▁अभ्य	-10.254
▁पहुँच	-10.254
▁इलाहाबाद	-10.254
▁जरिये	-10.254
▁त्योहार	-10.254
▁देहरादून	-10.254
▁नजदीक	-10.254
▁महोत्सव	-10.254
▁मानवाधिकार	-10.254
▁श्रद्धांजलि	-10.254
▁संदिग्ध	-10.254
▁संविधान	-10.254
▁संशोधन	-10.254
▁सब्सिडी	-10.254
▁हेल्थ	-10.254
▁दिलचस्प	-10.254
▁रिश्तेदार	-10.254
▁इस्तीफा	-10.254
▁शुरु	-10.254
▁गुस्सा	-10.254
▁निरंतर	-10.254
▁हादसा	-10.254
▁सब्जिय	-10.254
▁पुस्तक	-10.254
▁लक्षण	-10.254
▁लाइफ	-10.254
▁उपायुक्त	-10.254
▁कौश	-10.254
▁मराठ	-10.254
▁हर्ष	-10.254
▁विवेक	-10.254
▁पूजन	-10.254
▁कार्यवाही	-10.254
▁फील्ड	-10.254
▁ट्रेलर	-10.2541
▁बरसात	-10.2541
▁जबलपुर	-10.2541
▁डूब	-10.2541
▁दशक	-10.2541
▁लिंक	-10.2541
▁चिन्ह	-10.2542
▁सेकेंड	-10.2542
▁बैनर	-10.2542
▁कामयाब	-10.2542
▁स्कूट	-10.2542
▁निकाय	-10.2542
▁गणेश	-10.2543
▁महात्म	-10.2543
▁पुनर्	-10.2544
▁ब्लैक	-10.2544
▁कमलनाथ	-10.2544
▁इजाज	-10.2545
▁प्रारंभ	-10.2545
▁ताज	-10.2545
ोलॉजी	-10.2545
▁2022	-10.2545
▁उपकरण	-10.2546
har	-10.2547
हैया	-10.2548
▁व्ह	-10.2548
▁सुशील	-10.2548
▁बिल्ड	-10.255
▁मरने	-10.255
▁डेढ़	-10.2553
▁रेखा	-10.2554
▁सराहन	-10.2556
▁दुकानदार	-10.2558
▁ऋषि	-10.2558
▁समक्ष	-10.2561
▁अमल	-10.2562
▁बॉक्स	-10.2563
▁कटौ	-10.2564
▁टाल	-10.2566
▁महाराज	-10.2568
▁टेली	-10.2569
▁छठ	-10.2571
्यादा	-10.2571
▁बसपा	-10.2574
▁अड्ड	-10.2575
▁शरण	-10.2576
▁सांस	-10.2577
▁पंजीक	-10.2578
▁बहू	-10.2582
▁शोध	-10.2589
▁कचर	-10.2593
▁कैप्	-10.2595
▁इंच	-10.26
▁अनुरा	-10.2608
▁यश	-10.261
▁ठंड	-10.2614
▁मिड	-10.264
56	-10.2643
▁सोनू	-10.2649
‍ि	-10.2678
▁जायज	-10.2679
76	-10.2685
लिव	-10.2736
▁सांप	-10.2756
तिथि	-10.2769
▁संयोज	-10.2786
▁सचि	-10.2842
▁जड़	-10.2859
टीबी	-10.2939
▁48	-10.2963
▁कायम	-10.3089
नरेश	-10.3096
▁जिम्मेदार	-10.3115
▁प्रत्याश	-10.3117
बरेल	-10.3149
▁प्रदर्श	-10.3192
K	-10.3223
चार्ज	-10.3262
17	-10.3294
▁अखिल	-10.3307
Y	-10.3309
▁̈सह	-10.3309
▁ईश्वर	-10.3309
▁औसत	-10.3309
▁कर्फ्यू	-10.3309
▁क्विंटल	-10.3309
▁जुर्माना	-10.3309
▁ठेकेदार	-10.3309
▁त्रिपाठी	-10.3309
▁महासचिव	-10.3309
▁रिजल्ट	-10.3309
▁सप्लाई	-10.3309
▁स्थिर	-10.3309
नईदुनिया	-10.3309
▁मुनाफा	-10.3309
▁इमरान	-10.3309
▁एकजुट	-10.3309
▁क्वारंटा	-10.3309
▁नियंत्रण	-10.3309
▁प्रोत्साह	-10.3309
▁रणनीति	-10.3309
▁शिल्प	-10.3309
▁अपहरण	-10.3309
▁भास्कर	-10.3309
▁रिकार्ड	-10.3309
▁गूगल	-10.3309
▁साइबर	-10.3309
▁साहित्य	-10.3309
▁जोखिम	-10.3309
▁ड्यूटी	-10.3309
▁चतुर्	-10.3309
▁मान्यता	-10.3309
जेएनएन	-10.3309
▁आपत्ति	-10.3309
▁स्वयंसेव	-10.3309
▁फ्रांस	-10.3309
▁जोधपुर	-10.3309
▁गाइडलाइ	-10.331
▁शपथ	-10.331
▁मोहल्ल	-10.331
▁पंडित	-10.331
▁इकाई	-10.331
▁खींच	-10.331
▁जताया	-10.331
▁फूड	-10.331
▁प्रतिनिधिमंडल	-10.331
▁भिड़	-10.331
▁कस्ब	-10.331
▁त्याग	-10.331
▁नारेबाज	-10.331
▁अभ्यर्थ	-10.331
▁सबूत	-10.3311
▁सूरत	-10.3311
▁छावन	-10.3311
▁तुम	-10.3311
▁सक्षम	-10.3311
▁ट्रांसफर	-10.3311
▁याचिकाकर्ता	-10.3311
▁डिजाइन	-10.3311
▁जूझ	-10.3312
▁फ्लाइट	-10.3313
▁शेष	-10.3313
▁कनेक्शन	-10.3313
िफ्ट	-10.3313
▁हरकत	-10.3313
▁नाटक	-10.3314
▁स्वरूप	-10.3314
▁अलर्ट	-10.3314
▁प्रोग्राम	-10.3315
▁लोकप्रिय	-10.3315
▁एजेंसिय	-10.3316
▁एंटी	-10.3316
▁तर्क	-10.3316
▁नक्सलवाद	-10.3317
श्‍व	-10.3317
▁अर्पित	-10.3317
▁गंवा	-10.3317
▁नाराजगी	-10.3317
▁माइक	-10.3318
फ्रेंड	-10.3318
▁कन्या	-10.3319
▁डिप्	-10.332
▁मित्र	-10.332
▁बहाल	-10.332
▁झटक	-10.332
▁बनारस	-10.3323
▁धूम	-10.3324
▁वैश्	-10.3326
▁प्रेर	-10.3329
:30	-10.3329
▁नारे	-10.3333
▁सेल्स	-10.3333
▁ड्रग	-10.3337
▁उधार	-10.3337
▁बर्फ	-10.3338
ग्राफ	-10.3342
▁प्रतिबंध	-10.3346
▁ट्रै	-10.3351
▁कम्प	-10.3354
▁रूपये	-10.3354
▁गायब	-10.336
▁हराया	-10.3375
▁उतन	-10.3402
▁आदिवास	-10.3426
बेडकर	-10.3487
83	-10.3506
निर्भर	-10.3555
ro	-10.3579
भूत	-10.359
डीआर	-10.3595
▁हुय	-10.3628
चार्य	-10.3752
▁गुहा	-10.38
ंदे	-10.382
कॉम	-10.3838
61	-10.384
ल्फ	-10.3961
▁आसार	-10.3968
ाधिकारी	-10.3995
ऐ	-10.4055
दूसरे	-10.4058
▁निपट	-10.4106
79	-10.4112
ंस्कृति	-10.4115
▁इंद्र	-10.412
▁टीएम	-10.412
▁श्रम	-10.4128
▁आदित्य	-10.414
▁लिमिटेड	-10.4143
ation	-10.4143
श्रेष्ठ	-10.4143
स्पर्धा	-10.4143
१	-10.4143
▁आवंटन	-10.4143
▁उदाहरण	-10.4143
▁एजुकेशन	-10.4143
▁काउंसिल	-10.4143
▁गुणवत्ता	-10.4143
▁गुरुद्वार	-10.4143
▁चैंपियन	-10.4143
▁छापेमारी	-10.4143
▁जनप्रतिनिधि	-10.4143
▁जबरदस्त	-10.4143
▁ट्रॉफी	-10.4143
▁पाउडर	-10.4143
▁पेयजल	-10.4143
▁फायदे	-10.4143
▁लाइसेंस	-10.4143
▁सुर्खिय	-10.4143
▁हड़कंप	-10.4143
▁सुपरस्टार	-10.4143
▁कंटेन	-10.4143
▁पहनने	-10.4143
▁बीएसएफ	-10.4143
▁बौद्ध	-10.4143
▁मैनेजर	-10.4143
▁पुण्य	-10.4143
▁रैंक	-10.4143
▁शिवसेना	-10.4143
▁एक्टिव	-10.4143
▁क्वालि	-10.4143
▁रत्न	-10.4143
▁ब्याज	-10.4143
▁संजीव	-10.4143
▁शास्त्र	-10.4143
▁शुरूआत	-10.4143
ाधीन	-10.4143
▁वंचित	-10.4143
▁धूल	-10.4144
▁इराक	-10.4144
▁तलाक	-10.4144
▁नमून	-10.4144
▁अमीर	-10.4144
▁गुलाब	-10.4144
▁ब्रिटेन	-10.4144
▁माफी	-10.4144
▁जनरल	-10.4144
▁समझौत	-10.4145
▁अहमदाबाद	-10.4145
▁आदित्यनाथ	-10.4145
▁बस्ती	-10.4146
▁पहलवान	-10.4147
▁खुफ	-10.4147
▁कूद	-10.4147
▁शतक	-10.4148
▁पैकेट	-10.4148
▁प्रकट	-10.4149
▁कोयला	-10.415
▁वास्तविक	-10.4154
▁बुलाया	-10.4155
▁सिक्क	-10.4157
▁चित्र	-10.4157
्‌	-10.4157
▁रुबी	-10.4158
▁अतिथि	-10.416
▁इंजन	-10.4161
▁अपमान	-10.4161
▁सकेगा	-10.4162
▁नमक	-10.4163
▁जॉन	-10.4164
▁शीत	-10.4164
▁सर्विस	-10.4165
▁समस्त	-10.4165
ख्याल	-10.4165
▁रुख	-10.4168
ोदय	-10.4169
वायद	-10.4171
▁चीजें	-10.4173
▁अमरीक	-10.4174
▁क्रमश	-10.4175
▁गवाह	-10.4175
▁दिखाया	-10.4185
शियल	-10.4185
▁दादा	-10.4189
▁वितर	-10.4193
ाक्षर	-10.4197
तुष्ट	-10.4204
▁चुप	-10.4233
खेड़	-10.4234
86	-10.4261
78	-10.4392
▁वाट	-10.4453
▁ठाक	-10.4453
ाहिद	-10.4457
▁चीफ	-10.4472
सीएच	-10.4518
ीएमसी	-10.4567
जिद	-10.4578
वेदन	-10.4659
59	-10.4676
▁वाक	-10.4779
रेंज	-10.4824
▁मंजूर	-10.4858
▁पप्	-10.4872
▁पीछ	-10.4929
V	-10.4965
विश्वास	-10.4966
वायरस	-10.4967
पुत्र	-10.4967
संघ	-10.4968
wa	-10.5006
ावधान	-10.5043
▁शूट	-10.5045
▁नक्सल	-10.5047
▁बायो	-10.5049
डब्ल्यू	-10.5052
दुल्हन	-10.5052
;	-10.5052
निलंबित	-10.5052
व्हाट्सएप	-10.5052
॰	-10.5052
▁News	-10.5052
▁आशीर्वाद	-10.5052
▁आह्वान	-10.5052
▁ओलंपि	-10.5052
▁कमिश्नर	-10.5052
▁केसरवानी	-10.5052
▁जनसंख्या	-10.5052
▁जायसवाल	-10.5052
▁तिब्बत	-10.5052
▁द्वितीय	-10.5052
▁द्विवेदी	-10.5052
▁नृत्य	-10.5052
▁पाठ्यक्रम	-10.5052
▁फ़ीसदी	-10.5052
▁महानिदेशक	-10.5052
▁लेनदेन	-10.5052
▁विद्युत	-10.5052
▁संदर्भ	-10.5052
▁संरक्षण	-10.5052
▁समाधान	-10.5052
▁सिफारिश	-10.5052
▁सैकड़ों	-10.5052
▁स्थगित	-10.5052
प्रत्यक्ष	-10.5052
▁आलोचना	-10.5052
▁डिवाइस	-10.5052
▁धैर्य	-10.5052
▁रक्तदान	-10.5052
▁स्रोत	-10.5052
▁अभिभावक	-10.5052
▁गडकरी	-10.5052
विभाजन	-10.5052
▁प्रतिक्रिया	-10.5052
▁क्रांति	-10.5052
▁डेब्यू	-10.5052
▁कठिन	-10.5052
▁डाक्टर	-10.5052
▁मल्टी	-10.5052
▁माइक्रो	-10.5052
▁हूँ	-10.5052
▁उजाला	-10.5052
▁बर्बाद	-10.5052
▁हिंदु	-10.5052
▁इंस्टीट	-10.5052
हनुमान	-10.5052
▁जहरील	-10.5052
▁मुखिया	-10.5052
▁साइंस	-10.5052
▁टुकड़	-10.5052
▁तुलसी	-10.5052
▁पेंटिंग	-10.5052
▁अवार्ड	-10.5052
▁प्रेरणा	-10.5052
▁लैब	-10.5052
▁खन्ना	-10.5052
▁शिमला	-10.5052
▁नीरज	-10.5052
▁पटाख	-10.5052
▁क्षति	-10.5052
▁दीक्षित	-10.5052
▁ट्रेंड	-10.5052
▁धूप	-10.5052
▁बेसिक	-10.5052
इंडीज	-10.5052
▁सूरज	-10.5053
▁इधर	-10.5053
▁भिजवा	-10.5053
▁ड्रेस	-10.5053
▁इशार	-10.5053
▁मुद्रा	-10.5053
▁फास्ट	-10.5053
▁प्राचार्य	-10.5054
▁शैल	-10.5054
▁मास्टर	-10.5055
▁अलीगढ़	-10.5056
▁राजकुमार	-10.5056
▁गोरखपुर	-10.5057
▁अंबा	-10.5057
▁भड़क	-10.5057
▁हसन	-10.5059
▁अटल	-10.5059
▁ग्रीन	-10.5059
▁नज़र	-10.506
▁जबरन	-10.5062
▁तारीफ	-10.5062
▁मदन	-10.5063
ि़य	-10.5064
▁एप्प	-10.5065
▁स्किन	-10.5066
▁टीचर	-10.5067
▁छक्क	-10.5067
▁कच्च	-10.5068
रामलीला	-10.5068
रक्षित	-10.5068
▁माल्या	-10.5069
▁तोमर	-10.5072
▁प्रणा	-10.5072
▁बाबू	-10.5074
▁किताब	-10.5076
▁हायर	-10.5077
ंकज	-10.5077
▁सामु	-10.5083
▁सलाम	-10.5087
िपल	-10.5092
▁कनेक्	-10.5128
चंद	-10.5135
घात	-10.5155
ीनियर	-10.5163
▁करवात	-10.5165
न्ट्र	-10.5382
ीआरपी	-10.5474
▁काउंट	-10.5524
▁हॉस्	-10.58
▁कॉन्	-10.5802
चालन	-10.581
त्थ	-10.5882
रक्षा	-10.5962
भूमि	-10.5966
कृष्ण	-10.5966
शक्ति	-10.5967
विजय	-10.597
व्याप	-10.6012
मंडल	-10.6031
‌	-10.6034
क्रमण	-10.6046
▁अमृत	-10.605
िफिकेशन	-10.6052
प्रोटोकॉल	-10.6052
▁अग्नि	-10.6052
▁आदर्श	-10.6052
▁इत्यादि	-10.6052
▁एफआईआर	-10.6052
▁कंप्यूटर	-10.6052
▁काउंसल	-10.6052
▁कॉन्फ्रेंस	-10.6052
▁छुट्टी	-10.6052
▁डायबिटीज	-10.6052
▁धन्यवाद	-10.6052
▁नेटवर्क	-10.6052
▁न्यूयॉर्क	-10.6052
▁पश्चात	-10.6052
▁पृष्ठभूमि	-10.6052
▁प्रशंसक	-10.6052
▁बटालियन	-10.6052
▁बेंगलुरु	-10.6052
▁मणिपुर	-10.6052
▁मथुरा	-10.6052
▁मुजफ्फर	-10.6052
▁सोयाबीन	-10.6052
▁अनदेख	-10.6052
▁दस्तावेज	-10.6052
▁दृष्टि	-10.6052
▁बिजनेस	-10.6052
▁सबकुछ	-10.6052
▁एंट्री	-10.6052
▁फ़िल्म	-10.6052
▁बृज	-10.6052
▁सेवानिवृत्त	-10.6052
▁एसडीओ	-10.6052
▁प्रयागराज	-10.6052
▁रजिस्टर	-10.6052
▁सिपाही	-10.6052
▁डीजीपी	-10.6052
@	-10.6052
▁समुद्र	-10.6052
▁जन्मदिन	-10.6052
▁जर्मनी	-10.6052
▁बैलेंस	-10.6052
▁इजाफ	-10.6052
▁रिटायर	-10.6052
▁गोविंद	-10.6052
▁मछली	-10.6052
▁हेलीक	-10.6052
▁तथ्य	-10.6052
▁रघु	-10.6052
▁आरंभ	-10.6052
▁पंक्ति	-10.6052
▁स्वदेशी	-10.6052
▁उत्सव	-10.6052
▁दंडाधिकार	-10.6052
ुभाष	-10.6052
▁उल्ट	-10.6052
▁मुल्क	-10.6052
ुग्ग	-10.6052
▁जैव	-10.6052
▁लापता	-10.6052
▁खंगाल	-10.6052
▁आश्र	-10.6053
▁छेड़	-10.6053
▁कोविंद	-10.6053
▁युग	-10.6053
▁संस्क	-10.6054
च्‍छ	-10.6054
सिरमौर	-10.6056
▁आंगन	-10.6056
▁साजिद	-10.6057
▁डिफें	-10.6057
ing	-10.6059
▁ख़बर	-10.6059
AN	-10.606
परिचय	-10.6062
▁हल्क	-10.6062
▁सितार	-10.6063
ंदन	-10.6072
▁गड़बड	-10.6072
▁फॉर	-10.6076
▁नौकरिय	-10.6079
▁नाकाम	-10.6085
▁शशि	-10.609
वश्य	-10.6096
▁बाधा	-10.6103
▁एंब	-10.6104
▁शिवान	-10.6108
▁सेंट्र	-10.6108
▁वार्	-10.6108
▁किस्म	-10.6109
▁0.	-10.6122
▁चालान	-10.6126
ाह्न	-10.6214
▁कागज	-10.6274
▁अवस्थ	-10.6298
रवरी	-10.6319
ंत्रिक	-10.6469
▁ड्राइव	-10.6524
्रेशर	-10.6663
हिमा	-10.6702
ाजीपुर	-10.6874
विद्यालय	-10.7075
J	-10.7076
फार्म	-10.7078
वायु	-10.7078
स्कूल	-10.7079
ट्वि	-10.7079
▁वास्तव	-10.7147
जिस्ट्रे	-10.715
ारंभ	-10.7156
▁चैलेंज	-10.7163
▁साइकिल	-10.7163
▁सृजन	-10.7163
आईएएनएस	-10.7163
▁अंसारी	-10.7163
▁अभियंता	-10.7163
▁अल्पसंख्यक	-10.7163
▁अश्लील	-10.7163
▁आत्महत्या	-10.7163
▁कश्यप	-10.7163
▁कांस्टेब	-10.7163
▁गाँधी	-10.7163
▁घोटाल	-10.7163
▁चित्रकूट	-10.7163
▁जख्मी	-10.7163
▁ज्‍यादा	-10.7163
▁दफ्तर	-10.7163
▁पंजीयन	-10.7163
▁पृथ्वी	-10.7163
▁प्रौद्योगिक	-10.7163
▁बदायूं	-10.7163
▁महिंद्रा	-10.7163
▁मुरादाबाद	-10.7163
▁मुलायम	-10.7163
▁मैनेजमेंट	-10.7163
▁लखीमपुर	-10.7163
▁शताब्द	-10.7163
▁सर्वेक्षण	-10.7163
▁ससुराल	-10.7163
▁स्मिथ	-10.7163
▁स्मृति	-10.7163
▁हिंदुस्तान	-10.7163
▁पलायन	-10.7163
▁प्रोडक्ट	-10.7163
▁शेट्टी	-10.7163
▁हालाँकि	-10.7163
▁इकाइय	-10.7163
▁नवरात्र	-10.7163
▁आइपीए	-10.7163
▁निराकरण	-10.7163
▁एएमजी	-10.7163
▁पठान	-10.7163
▁प्रधानाचार्य	-10.7163
▁जीएसटी	-10.7163
▁राफेल	-10.7163
▁ईमानदार	-10.7163
▁बगैर	-10.7163
▁भैंस	-10.7163
▁मत्स्य	-10.7163
▁पवित्र	-10.7163
▁धमाके	-10.7163
▁साजिश	-10.7163
▁गुर्जर	-10.7163
▁झूठ	-10.7163
▁दबिश	-10.7163
▁बुखार	-10.7163
▁मनमोह	-10.7163
▁रणबीर	-10.7163
▁माफिया	-10.7163
▁छुपा	-10.7163
▁प्रसन्न	-10.7163
▁हज़ार	-10.7163
▁कैलाश	-10.7163
▁प्रवीण	-10.7163
▁स्थानांतर	-10.7163
▁साहिब	-10.7163
▁पूर्णिमा	-10.7163
▁योग्यता	-10.7163
▁लाइव	-10.7163
▁जहाज	-10.7163
▁खुरा	-10.7163
▁सशक्त	-10.7163
▁जवाहर	-10.7163
▁भागलपुर	-10.7163
▁कमांडर	-10.7163
▁अनूप	-10.7163
▁दरवाज	-10.7163
▁दुश्	-10.7163
▁जरुर	-10.7163
▁02	-10.7163
▁जटिल	-10.7164
▁चुरा	-10.7164
▁ईयर	-10.7164
▁शोधकर्ता	-10.7164
▁इराद	-10.7164
▁भंडार	-10.7164
▁सानिया	-10.7164
▁पंवार	-10.7164
▁अमृतसर	-10.7164
▁परिस्थितियों	-10.7164
▁शौक	-10.7165
▁आमिर	-10.7165
▁फीचर	-10.7165
एलईडी	-10.7166
▁अंश	-10.7166
▁रजनी	-10.7166
▁सेल्फी	-10.7166
▁मौर्य	-10.7167
▁समाचार	-10.7167
णमू	-10.7168
एनडीए	-10.7169
▁ढेर	-10.717
यूएई	-10.7171
▁चरम	-10.7171
ड्यूल	-10.7173
आजमगढ़	-10.7184
▁निकास	-10.7199
हकीक	-10.7229
▁द्रव	-10.7241
ब्राह	-10.7253
▁बितान	-10.7289
▁घिर	-10.7317
फोर्	-10.7454
कंप	-10.7496
▁अनन्	-10.7759
एसटीए	-10.7883
ीएमओ	-10.8007
▁लक्ष्म	-10.8218
लॉग	-10.8252
▁द्वार	-10.8285
राष्ट्र	-10.8316
शुल्क	-10.8327
जगह	-10.8331
नुसार	-10.8398
▁प्रशिक्ष	-10.84
▁गोरख	-10.8409
▁परिस्थिति	-10.8411
▁श्रद्धा	-10.8413
com	-10.8413
वृत्ति	-10.8413
३	-10.8413
▁इलेक्ट्र	-10.8413
▁मुठभेड़	-10.8413
▁विक्रेताओं	-10.8413
]	-10.8413
z	-10.8413
मस्तिष्क	-10.8413
▁अफ़ग़ान	-10.8413
▁उपचुनाव	-10.8413
▁कंट्रोल	-10.8413
▁कुरुक्षेत्र	-10.8413
▁गैलेक्सी	-10.8413
▁चिकित्साधिकारी	-10.8413
▁चूंकि	-10.8413
▁त्यौहार	-10.8413
▁दबोच	-10.8413
▁दूल्ह	-10.8413
▁पॉलिसी	-10.8413
▁बेगूसराय	-10.8413
▁मार्गदर्श	-10.8413
▁वाणिज्य	-10.8413
▁वाहिनी	-10.8413
▁विद्रोह	-10.8413
▁सिलेबस	-10.8413
▁स्टाइल	-10.8413
▁हृदय	-10.8413
í	-10.8413
▁धातु	-10.8413
▁रॉयल	-10.8413
▁संभाग	-10.8413
▁सक्सेना	-10.8413
ोष्ठ	-10.8413
▁अपलोड	-10.8413
▁चौटाला	-10.8413
▁बगावत	-10.8413
▁श्रृं	-10.8413
▁सरस्वती	-10.8413
▁हिस्ट्री	-10.8413
▁तूफान	-10.8413
▁नौजवान	-10.8413
▁पॉपुल	-10.8413
▁शॉर्ट	-10.8413
▁अनुकूल	-10.8413
▁तब्दी	-10.8413
▁दर्शा	-10.8413
▁दुबई	-10.8413
▁बॉन्ड	-10.8413
▁आँख	-10.8413
▁अखबार	-10.8413
▁गाँव	-10.8413
▁टेक्न	-10.8413
▁यूरोप	-10.8413
ुख्यात	-10.8413
▁उग्रवाद	-10.8413
▁शत्रु	-10.8413
▁एचआर	-10.8413
▁फॉलो	-10.8413
▁स्टैंड	-10.8413
▁बुद्धि	-10.8413
▁बेहोश	-10.8413
▁उद्यम	-10.8413
▁श्वेत	-10.8413
टाउन	-10.8413
▁इटली	-10.8413
▁घातक	-10.8413
▁तरीका	-10.8413
बैक्टीरिय	-10.8413
▁राठौ	-10.8413
▁अटकल	-10.8413
▁आंसू	-10.8414
▁गर्ल	-10.8414
▁मामू	-10.8414
▁लाठी	-10.8414
▁गोयल	-10.8414
▁दखल	-10.8414
▁मुरली	-10.8414
▁बोतल	-10.8414
▁जगदीश	-10.8414
▁स्ट्राइक	-10.8414
▁पुणे	-10.8414
▁तिरंग	-10.8415
▁बढा	-10.8415
▁डीलर	-10.8415
▁कोहराम	-10.8416
▁व्रत	-10.8416
rea	-10.8417
1984	-10.8417
शिव	-10.8417
ुष्‍क	-10.8418
जीडीपी	-10.842
पीड़न	-10.8421
निष्क	-10.8421
▁शोभा	-10.8421
▁कारखान	-10.8424
▁भटक	-10.8424
स्ट्रक्	-10.8433
प्रयाग	-10.8435
▁मूड	-10.8438
▁गढ़वा	-10.8439
शुद	-10.8447
▁चंब	-10.8449
▁रैन	-10.8466
▁एचए	-10.8471
गौड़	-10.8472
ीएलए	-10.8473
प्‍प	-10.8478
▁पहिय	-10.8486
दंगल	-10.8491
▁आगाज	-10.8525
2002	-10.8538
▁स्वास्	-10.8586
क्वीन	-10.8587
गुजार	-10.8643
▁इश्	-10.8707
नवमी	-10.8792
त्‍त	-10.89
्रीमिय	-10.9343
ूपेश	-10.9353
धिकारियों	-10.9523
्पीड	-10.9586
कुमार	-10.9751
निरीक्षक	-10.9755
फाइनल	-10.9756
छात्रा	-10.9756
वैक्सीन	-10.9757
मुख्यमंत्री	-10.9757
फिल्म	-10.9757
वर्ष	-10.9758
िरकत	-10.9834
तिहास	-10.9837
स्ट्रेलिया	-10.984
द्घ	-10.9841
▁बुलंद	-10.9841
India	-10.9841
हिन्दुस्तान	-10.9841
२	-10.9841
▁BJP	-10.9841
▁आंध्र	-10.9841
▁आयुर्वेद	-10.9841
▁उत्कृष्ट	-10.9841
▁उदयपुर	-10.9841
▁उदासीन	-10.9841
▁उपाध्याय	-10.9841
▁गड्ढ	-10.9841
▁चोपड़ा	-10.9841
▁टिहरी	-10.9841
▁टोक्यो	-10.9841
▁तमिलनाडु	-10.9841
▁तृतीय	-10.9841
▁तोड़फोड़	-10.9841
▁ध्रुव	-10.9841
▁नाबालिग	-10.9841
▁पीडि़त	-10.9841
▁फेस्टिव	-10.9841
▁मरम्मत	-10.9841
▁मलेशिया	-10.9841
▁महाप्रबंधक	-10.9841
▁मुखर्जी	-10.9841
▁वर्चुअल	-10.9841
▁वातावरण	-10.9841
▁विशिष्ट	-10.9841
▁विश्लेषण	-10.9841
▁सहूलियत	-10.9841
७	-10.9841
–	-11.1423
+	-11.1508
🔊	-11.1508
*	-11.3508
Q	-11.3508
X	-11.3508
५	-11.3508
>	-11.5922
ऱ	-11.6008
Z	-11.6008
	-11.6008
‘	-11.9253
ï	-11.9341
८	-11.9341
ऋ	-12.4257
“	-12.4258
_	-12.4341
४	-12.4341
�	-12.4341
९	-13.433
×	-13.4331
#	-13.4332
६	-13.4333
&	-13.4334
ऩ	-13.4335
[	-13.4336
̈	-13.4337
»	-13.4338
ॅ	-13.4339
ञ	-13.434
ृ	-13.4341
и	-13.4341
л	-13.4341
о	-13.4341
£	-13.4341
^	-13.4341
q	-13.4341
Ó	-13.4341
Ü	-13.4341
в	-13.4341
т	-13.4341
я	-13.4341
ا	-13.4341
ت	-13.4341
ل	-13.4341
و	-13.4341
ی	-13.4341
ऌ	-13.4341
ङ	-13.4341
‎	-13.4341
←	-13.4341
➽	-13.4341
﻿	-13.4341
🔵	-13.4341
=	-13.4342
औ	-13.4342
