<unk>	0
<s>	0
</s>	0
,	-3.4864
.	-3.64748
▁ve	-4.22667
▁	-4.30594
k	-4.3193
n	-4.43342
i	-4.59585
▁bir	-4.70997
e	-4.73907
a	-4.79539
s	-4.92402
▁için	-5.00393
t	-5.0198
ı	-5.12617
u	-5.1738
m	-5.18773
r	-5.26089
li	-5.27778
ler	-5.31392
lar	-5.37846
▁S	-5.38206
ları	-5.46028
:	-5.49328
leri	-5.50109
z	-5.50299
in	-5.51916
y	-5.5245
lı	-5.53534
si	-5.54786
o	-5.55071
p	-5.56675
da	-5.59279
ma	-5.61078
l	-5.61127
de	-5.62833
)	-5.70335
er	-5.71665
-	-5.72663
▁ile	-5.78062
'	-5.80602
ü	-5.81103
▁A	-5.8181
an	-5.83786
ya	-5.84434
en	-5.85734
g	-5.87757
▁(	-5.93399
sı	-5.93678
▁T	-5.93875
▁P	-5.94189
d	-5.94293
▁K	-5.96106
▁-	-5.98306
me	-5.9874
f	-6.02644
la	-6.02671
▁bu	-6.03228
le	-6.06156
al	-6.07598
▁Bu	-6.10771
▁M	-6.11944
▁G	-6.12494
▁D	-6.12577
T	-6.16402
ş	-6.16688
il	-6.17046
ar	-6.18811
den	-6.20049
te	-6.20232
▁olarak	-6.2135
ne	-6.22821
A	-6.22998
ye	-6.2434
▁C	-6.2517
▁H	-6.25396
ir	-6.26164
▁da	-6.26381
ın	-6.29996
on	-6.30209
▁veya	-6.31481
di	-6.33612
▁B	-6.34854
dir	-6.35046
re	-6.35084
h	-6.35409
ta	-6.35546
▁E	-6.3848
▁de	-6.39395
el	-6.39873
▁s	-6.4022
P	-6.41508
na	-6.41799
ra	-6.42125
S	-6.42241
lama	-6.4226
lik	-6.4408
ki	-6.44639
▁daha	-6.49008
D	-6.50518
▁,	-6.50801
b	-6.5115
lık	-6.5139
im	-6.53463
▁3	-6.53807
c	-6.53984
▁en	-6.54056
M	-6.54289
2	-6.55356
ti	-6.55743
un	-6.56286
lu	-6.57086
▁her	-6.57712
dır	-6.5852
et	-6.58813
or	-6.59877
▁O	-6.60053
B	-6.60335
▁k	-6.65968
▁F	-6.66532
ni	-6.67073
E	-6.67262
ik	-6.68013
C	-6.68896
ol	-6.69807
L	-6.70418
▁p	-6.7062
O	-6.70724
▁2	-6.71466
v	-6.71634
▁gibi	-6.74392
ç	-6.7542
4	-6.76314
▁olan	-6.76509
▁b	-6.76799
▁ya	-6.76831
at	-6.77159
nın	-6.78161
▁çok	-6.78357
R	-6.78518
iz	-6.78838
dan	-6.80727
w	-6.81427
nin	-6.81719
▁g	-6.81905
▁a	-6.8198
▁iyi	-6.83029
▁Y	-6.84012
6	-6.84907
1	-6.85046
ca	-6.85686
3	-6.86145
ur	-6.86585
ro	-6.88704
I	-6.90639
ce	-6.92119
▁zaman	-6.92591
sa	-6.93702
ri	-6.9388
lan	-6.94076
um	-6.9582
it	-6.96559
lü	-6.98487
G	-6.98672
se	-6.99519
mek	-7.00266
yı	-7.00337
mak	-7.00559
H	-7.01441
8	-7.01725
▁5	-7.0173
▁4	-7.0176
ak	-7.03201
ini	-7.03675
▁tüm	-7.05665
;	-7.06635
ay	-7.07157
▁o	-7.07305
▁yüksek	-7.07615
lerin	-7.07833
niz	-7.08269
nda	-7.08651
leme	-7.09181
5	-7.10027
ların	-7.10031
ır	-7.11308
▁Hotel	-7.11636
▁Bir	-7.11808
sel	-7.11888
7	-7.12211
▁yer	-7.12231
▁fazla	-7.13709
am	-7.14161
00	-7.14426
K	-7.14735
▁İ	-7.15015
İ	-7.16883
?	-7.169
ter	-7.16912
▁su	-7.17053
▁iş	-7.17515
▁f	-7.17777
▁vardır	-7.18088
▁e	-7.1843
▁1	-7.18789
▁U	-7.18807
9	-7.19845
▁Çin	-7.205
▁özel	-7.20876
ci	-7.20996
yi	-7.21451
U	-7.2293
larını	-7.23113
ge	-7.23161
▁Ma	-7.23227
ğ	-7.24765
es	-7.26293
os	-7.27323
tır	-7.27657
▁I	-7.28384
▁W	-7.2857
ch	-7.29054
dur	-7.29164
ün	-7.29324
liği	-7.29507
x	-7.29719
"	-7.30683
▁tarafından	-7.30801
tan	-7.31334
ul	-7.31392
tik	-7.31926
▁_	-7.3214
▁sonra	-7.33038
va	-7.35131
0	-7.35753
Y	-7.35859
▁çalışma	-7.3586
▁"	-7.3601
▁büyük	-7.36115
▁10	-7.36171
ış	-7.36215
▁al	-7.37101
F	-7.37218
dı	-7.37246
▁önce	-7.37279
▁ko	-7.37644
▁V	-7.38223
▁sahip	-7.38494
tı	-7.38838
lerini	-7.40069
V	-7.40844
bi	-7.41447
eri	-7.41669
lere	-7.41703
▁Ka	-7.41707
▁Yüksek	-7.42651
len	-7.42748
man	-7.4308
▁ha	-7.43247
ebilir	-7.43671
▁kadar	-7.44061
maktadır	-7.44234
ba	-7.44677
yla	-7.44956
ab	-7.45582
lara	-7.45984
▁Co	-7.46068
▁d	-7.46692
▁m	-7.47593
ing	-7.48104
st	-7.48204
mi	-7.48242
inde	-7.48259
▁t	-7.48823
▁Otel	-7.494
ot	-7.49706
ev	-7.49746
▁var	-7.50405
▁L	-7.51344
▁doğru	-7.51415
▁diğer	-7.51416
▁ma	-7.51862
▁ne	-7.52018
daki	-7.52599
▁kendi	-7.52959
▁sa	-7.53743
ad	-7.54192
...	-7.55987
▁şekilde	-7.56212
▁otel	-7.56234
id	-7.56981
▁N	-7.57207
siz	-7.57235
abilir	-7.57376
ah	-7.57455
mm	-7.5774
▁içinde	-7.57789
du	-7.57991
larda	-7.58441
ine	-7.58685
▁yıldızlı	-7.59356
hangi	-7.59626
cı	-7.59697
to	-7.59724
▁De	-7.60056
▁yeni	-7.60816
▁R	-7.61188
▁açık	-7.61284
nı	-7.6174
yle	-7.61881
▁Her	-7.62341
▁göre	-7.62376
ve	-7.62537
ha	-7.6262
bo	-7.62702
▁bulunmaktadır	-7.62751
▁yılında	-7.62917
ze	-7.62956
us	-7.63799
ması	-7.64051
az	-7.64167
▁sadece	-7.64459
ül	-7.64799
▁En	-7.65201
▁hizmet	-7.65732
▁h	-7.65796
co	-7.65814
ür	-7.66152
▁ç	-7.66173
is	-7.66569
▁makinesi	-7.66872
po	-7.66882
lığı	-7.66933
nizi	-7.67264
let	-7.67615
▁olduğu	-7.67865
leştir	-7.68084
▁ürün	-7.68758
ım	-7.68929
!	-7.698
▁ilgili	-7.699
▁sistemi	-7.70453
▁20	-7.70802
res	-7.71015
▁Me	-7.72063
▁Ç	-7.72281
ında	-7.72339
▁6	-7.72449
ını	-7.72521
▁c	-7.7255
tir	-7.72738
uz	-7.72934
ran	-7.73138
vi	-7.73725
▁göster	-7.73857
▁0	-7.74274
Z	-7.76058
ken	-7.76434
ça	-7.76611
acak	-7.76964
▁yapı	-7.77464
larının	-7.77482
▁yap	-7.77538
▁Su	-7.77658
lerde	-7.77714
▁Eğ	-7.77823
▁X	-7.78144
▁ev	-7.78568
▁olmak	-7.78735
▁oteller	-7.79292
ga	-7.7941
▁uzaklıkta	-7.79423
▁şey	-7.7946
▁Re	-7.79471
▁farklı	-7.79476
▁üretim	-7.79528
▁sağlar	-7.79678
sal	-7.79858
arak	-7.8011
ic	-7.80328
arı	-7.80373
▁an	-7.8052
çe	-7.80713
ip	-7.81106
ö	-7.81111
▁be	-7.81639
▁iki	-7.81736
▁8	-7.82072
ed	-7.82221
sini	-7.82226
▁Z	-7.82904
▁:	-7.82915
mız	-7.83019
sh	-7.83132
▁kontrol	-7.83219
miş	-7.83239
▁Ayrıca	-7.83547
▁nasıl	-7.83547
▁arasında	-7.8355
▁yardımcı	-7.83567
▁karşı	-7.83618
▁çek	-7.83633
▁tür	-7.84103
sını	-7.84141
mektedir	-7.84256
▁üzerinde	-7.84435
▁ön	-7.84456
mış	-7.84795
ten	-7.84868
▁te	-7.84876
ndan	-7.85496
asyon	-7.85509
▁hakkında	-7.85709
▁Makinesi	-7.85765
▁alan	-7.86455
üz	-7.86667
deki	-7.87178
su	-7.87728
▁LED	-7.87849
▁tamam	-7.87915
sinde	-7.88529
▁Ko	-7.88718
nde	-7.89139
lerine	-7.89202
lerinin	-7.89301
▁gün	-7.8959
com	-7.89661
▁kat	-7.89807
▁km	-7.90064
▁Çelik	-7.90072
th	-7.90075
▁oyun	-7.90077
▁Yeni	-7.90083
▁araç	-7.9024
▁at	-7.90628
▁alanı	-7.91176
ey	-7.91222
pa	-7.91354
ck	-7.91425
AN	-7.91428
▁biz	-7.91717
▁in	-7.92077
▁değil	-7.92164
▁dünya	-7.92344
▁olduğunu	-7.92461
▁olabilir	-7.92464
▁Al	-7.92847
ast	-7.92935
▁orta	-7.93645
N	-7.93663
tal	-7.93842
luk	-7.94048
▁ke	-7.94227
▁önemli	-7.94648
▁uygun	-7.94669
▁Ürün	-7.9467
▁bağlı	-7.94883
nız	-7.95504
▁para	-7.95827
▁olma	-7.95936
▁Li	-7.95956
▁yıl	-7.96063
▁yol	-7.96407
▁son	-7.96442
▁Ba	-7.96454
yan	-7.96508
uş	-7.97142
▁hızlı	-7.97191
om	-7.97241
▁geri	-7.9737
▁Be	-7.97624
▁veri	-7.97723
▁Ta	-7.97773
▁do	-7.98037
ağı	-7.98385
ilmesi	-7.98545
çi	-7.98608
ecek	-7.99046
▁geniş	-7.99433
▁aynı	-7.99537
▁ek	-7.99687
ke	-7.99704
erek	-7.99733
larında	-8.00402
▁oda	-8.00599
tu	-8.01062
iş	-8.01817
▁destek	-8.01989
▁video	-8.0199
▁göz	-8.01993
▁olur	-8.02003
ına	-8.02906
unu	-8.03687
lerinde	-8.03793
ER	-8.03842
▁işlem	-8.04127
▁7	-8.04359
▁Özel	-8.04526
▁koruma	-8.04555
▁çelik	-8.04558
▁ilk	-8.04736
▁yüz	-8.04777
larına	-8.0513
ep	-8.0526
mo	-8.05493
sız	-8.05615
▁Ne	-8.05745
20	-8.05979
▁Ş	-8.06047
ının	-8.06353
ıl	-8.06564
▁iç	-8.06703
yo	-8.06888
▁30	-8.06899
▁el	-8.06932
▁kolay	-8.0711
▁belir	-8.07177
▁sıra	-8.07239
▁saat	-8.07436
▁gelen	-8.07471
bu	-8.07515
▁St	-8.07839
▁az	-8.08282
▁bilgi	-8.08338
▁etmek	-8.08371
bir	-8.08406
W	-8.08528
çok	-8.08548
▁ama	-8.08776
do	-8.09162
▁9	-8.09458
▁Do	-8.09546
▁kişi	-8.09557
▁...	-8.09642
▁hareket	-8.09887
▁küçük	-8.09887
▁hazır	-8.09888
▁kullanılır	-8.09956
▁kişisel	-8.09971
▁bulunan	-8.10157
lerimiz	-8.10488
▁almak	-8.10858
nden	-8.10953
▁Ro	-8.10971
▁ara	-8.1165
▁r	-8.11845
▁teknoloji	-8.11988
yum	-8.12616
▁değer	-8.12661
▁getir	-8.12669
▁birlikte	-8.12676
▁kullan	-8.12731
▁kal	-8.13043
▁kaliteli	-8.13116
▁i	-8.13214
▁bi	-8.13468
▁banyo	-8.13614
yor	-8.14538
yoruz	-8.1491
▁şirket	-8.15522
▁üzere	-8.15522
▁Web	-8.15586
▁yüzey	-8.15599
▁hava	-8.15659
sine	-8.15679
dığı	-8.15757
▁gel	-8.15987
▁La	-8.16019
go	-8.16072
leyici	-8.16152
ru	-8.16454
▁Pe	-8.16459
▁çeşitli	-8.16933
▁ş	-8.17064
▁1.	-8.17069
J	-8.1737
▁Ve	-8.17457
▁dosya	-8.1758
▁ürünler	-8.18141
▁fiyat	-8.18332
▁kar	-8.18366
▁dakika	-8.18448
▁uzun	-8.18467
▁servis	-8.18467
▁top	-8.18478
ör	-8.1849
▁yakın	-8.18591
per	-8.18602
▁başla	-8.18714
▁bak	-8.18815
▁bulun	-8.18884
▁kasa	-8.18911
▁15	-8.1892
lat	-8.1896
ho	-8.1913
▁Ku	-8.19349
▁No	-8.19594
▁süre	-8.19786
▁ulaş	-8.19985
▁yanı	-8.20146
maya	-8.20194
▁merkezi	-8.20761
net	-8.20971
▁parça	-8.21127
▁bölge	-8.21449
▁derece	-8.21495
▁benzer	-8.21497
▁devam	-8.21497
▁vb	-8.21502
▁Motor	-8.21508
▁ücretsiz	-8.21511
▁araba	-8.21561
▁sahiptir	-8.21602
der	-8.21884
▁ana	-8.22032
▁kaynak	-8.22178
▁ka	-8.22221
▁ay	-8.22576
mı	-8.22722
ist	-8.228
▁dil	-8.22957
▁Mar	-8.23106
▁yaz	-8.23439
▁yağ	-8.23485
▁(2	-8.23713
▁ad	-8.23816
▁24	-8.23853
lay	-8.24406
10	-8.24585
▁sitesi	-8.24594
▁geliş	-8.2461
▁yok	-8.24633
▁birkaç	-8.24636
▁üç	-8.24637
eği	-8.24708
▁tah	-8.2478
içi	-8.24995
▁El	-8.25
▁bazı	-8.25159
▁Ya	-8.26149
▁tek	-8.26566
ğı	-8.2662
▁sunar	-8.2664
▁bile	-8.26641
iyor	-8.26732
▁bilgileri	-8.2689
rken	-8.2708
▁etme	-8.27197
hi	-8.27297
▁üret	-8.27328
▁mümkün	-8.27844
▁web	-8.27845
▁ancak	-8.27881
▁size	-8.2789
min	-8.27922
▁kullanılan	-8.28074
▁saç	-8.28108
▁olacak	-8.28192
▁kalite	-8.28341
▁test	-8.2835
▁Biz	-8.28684
▁Bar	-8.28815
kü	-8.28833
▁geliştirme	-8.28913
tra	-8.28939
▁olması	-8.29307
ği	-8.29374
eb	-8.29495
▁l	-8.2958
IN	-8.29777
▁kazan	-8.30152
▁kay	-8.30361
▁proje	-8.30603
ebilirsiniz	-8.30607
▁geç	-8.3061
▁kan	-8.30708
mesi	-8.31059
▁ku	-8.31101
50	-8.31106
▁fotoğraf	-8.31178
▁Türkiye	-8.31178
▁boyut	-8.3118
▁mükemmel	-8.31197
▁2019	-8.312
▁edilen	-8.31304
luğu	-8.31446
▁12	-8.31451
▁mesafede	-8.31454
diği	-8.32052
▁ak	-8.3267
inin	-8.32748
▁mi	-8.32858
be	-8.32892
çı	-8.33152
▁İş	-8.33344
nun	-8.33576
▁uygulama	-8.33902
▁renk	-8.34102
▁yan	-8.34276
▁altında	-8.34355
ley	-8.3443
▁deneyim	-8.34626
▁oyna	-8.34629
▁Ekran	-8.34631
▁başka	-8.34644
▁profesyonel	-8.34651
▁Mo	-8.34699
▁ekran	-8.34702
▁Metal	-8.34715
▁sık	-8.34799
▁hem	-8.34831
▁Pas	-8.3486
▁metre	-8.34896
60	-8.34936
▁is	-8.35025
lardan	-8.35988
▁zamanda	-8.36236
▁ayar	-8.36361
ilmiş	-8.36618
▁hizmeti	-8.36624
ız	-8.36691
▁eder	-8.37
▁kullanıcı	-8.37013
▁ö	-8.3737
ver	-8.37374
▁Kar	-8.37407
ucu	-8.37459
van	-8.37691
sin	-8.37756
ğu	-8.37814
▁kap	-8.37857
▁konu	-8.38048
EN	-8.38055
▁di	-8.38064
tıcı	-8.38159
▁marka	-8.38198
▁Kalite	-8.382
▁dahil	-8.38211
▁satış	-8.38235
▁sunul	-8.3826
▁In	-8.3829
▁gerekir	-8.38319
▁tam	-8.38401
▁cam	-8.3848
▁kur	-8.38627
▁plan	-8.38803
larımız	-8.38833
▁Ak	-8.39075
sına	-8.39349
▁suna	-8.39451
▁et	-8.39452
▁uy	-8.39454
▁taşı	-8.39913
sınız	-8.39993
▁sağ	-8.40167
▁müşteri	-8.40298
▁Bil	-8.40305
mer	-8.40313
▁Ara	-8.40401
▁neden	-8.40493
fer	-8.40532
X	-8.40539
nızı	-8.40695
▁tedavi	-8.40781
▁Bo	-8.40879
tür	-8.40945
▁konum	-8.4104
▁adı	-8.411
ster	-8.41828
▁ışık	-8.41904
AR	-8.41949
▁man	-8.42004
▁konaklama	-8.42005
ly	-8.42098
oz	-8.42179
▁malzeme	-8.42233
▁ki	-8.42367
▁gerçek	-8.42469
▁hi	-8.42787
▁re	-8.4334
▁San	-8.43791
fi	-8.44177
Ü	-8.44364
▁Son	-8.44401
▁etki	-8.44404
ber	-8.44627
▁(1	-8.44774
jen	-8.44957
lerle	-8.45339
▁va	-8.45355
AL	-8.45446
▁oluştur	-8.45521
▁fabrika	-8.45747
▁Hava	-8.45759
▁bakım	-8.45818
ton	-8.46094
▁toplam	-8.46482
▁seç	-8.46521
ov	-8.46663
▁mm	-8.46899
▁etkin	-8.46966
siniz	-8.47023
nce	-8.47143
30	-8.47187
▁yapmak	-8.47226
▁eğitim	-8.47299
ans	-8.47327
▁19	-8.47335
▁program	-8.47396
▁gö	-8.47521
▁ser	-8.47666
▁Tek	-8.47722
▁Ar	-8.48005
▁Ben	-8.48062
ıyor	-8.48291
▁hizmetleri	-8.48534
▁çıkar	-8.48734
tur	-8.48741
ilen	-8.48867
▁ürünleri	-8.49121
▁yapma	-8.49435
▁değiş	-8.49549
▁dön	-8.49582
▁mevcut	-8.49737
▁internet	-8.49747
▁PVC	-8.49748
▁sırasında	-8.49748
▁25	-8.49748
▁otomatik	-8.4975
▁Ltd	-8.49752
▁tarih	-8.49752
▁Gizli	-8.49754
▁hasta	-8.49759
▁Top	-8.49766
▁kabul	-8.49774
▁olmayan	-8.49814
▁yaş	-8.49925
15	-8.49949
▁Vi	-8.49956
▁diş	-8.50114
▁Daha	-8.50183
inç	-8.50245
▁Pi	-8.50528
▁verme	-8.5073
enellikle	-8.50762
abilirsiniz	-8.50885
▁Wi	-8.50927
▁Ö	-8.50966
▁masa	-8.51115
▁insan	-8.51178
if	-8.51403
▁eş	-8.51718
▁Üreticiler	-8.51739
met	-8.51744
MA	-8.51883
▁edin	-8.52065
▁Isı	-8.52105
▁ortak	-8.52151
yon	-8.52238
▁sol	-8.52463
▁özellikleri	-8.52655
▁nokta	-8.52676
▁telefon	-8.52716
▁biri	-8.52988
▁güç	-8.53228
sinin	-8.53264
▁sistem	-8.53511
ec	-8.53572
12	-8.53583
▁görüntü	-8.53808
▁temiz	-8.53826
ə	-8.53914
▁televizyon	-8.53914
▁çözüm	-8.53915
▁Güç	-8.53918
▁Orta	-8.53925
▁Android	-8.53947
▁temel	-8.5396
▁güçlü	-8.5401
▁duş	-8.54033
▁sağlık	-8.54093
muz	-8.54101
▁varsa	-8.54218
acağı	-8.5425
▁madde	-8.54397
cak	-8.54476
▁kapa	-8.54487
▁düşük	-8.54624
▁Bel	-8.54644
▁yöntem	-8.54665
j	-8.54807
▁For	-8.54839
000	-8.55147
▁duy	-8.55184
▁değiştir	-8.55264
▁Ü	-8.55369
▁tasarım	-8.55476
ktan	-8.55508
▁kullanıl	-8.55628
▁odaları	-8.55637
▁ağ	-8.55999
▁he	-8.56163
kar	-8.56376
▁site	-8.56428
▁yük	-8.57344
rak	-8.57878
▁bağ	-8.57926
▁yön	-8.5808
ünü	-8.58103
▁ülke	-8.58256
▁çevrim	-8.58262
▁Müşteri	-8.58262
▁modern	-8.58262
▁uygulan	-8.58262
▁çoğu	-8.58262
▁güncel	-8.58263
▁doku	-8.58264
▁boyunca	-8.58293
▁satın	-8.584
▁aç	-8.58405
tığı	-8.5841
layın	-8.58596
lanan	-8.58627
▁kullanma	-8.58669
je	-8.59064
▁sür	-8.59113
▁na	-8.59239
ang	-8.5944
▁tel	-8.59537
▁ise	-8.59726
▁baş	-8.59882
▁özellikle	-8.59975
▁alma	-8.6027
▁so	-8.60276
leştirilmiş	-8.60653
rası	-8.61237
▁anti	-8.61873
▁tanı	-8.61885
larından	-8.62123
cil	-8.62198
▁genel	-8.62452
▁araştırma	-8.62802
▁Avrupa	-8.62807
▁Hidrolik	-8.62807
▁Plastik	-8.62807
▁ilişki	-8.62807
▁standart	-8.62807
▁hafif	-8.62808
▁ödeme	-8.62809
▁Ancak	-8.62811
▁sağlamak	-8.62812
▁Tüm	-8.62848
▁Satış	-8.62875
▁kullanılabilir	-8.62891
▁otur	-8.62925
iyet	-8.62976
posta	-8.63093
▁iz	-8.63108
▁Toz	-8.6316
▁gerekli	-8.63216
ris	-8.6326
diğiniz	-8.63287
▁toz	-8.63299
ment	-8.63371
dür	-8.63546
▁ses	-8.6363
▁200	-8.63796
elde	-8.63851
▁Ça	-8.6393
▁Live	-8.63968
ex	-8.64086
ıldı	-8.64129
▁mü	-8.64178
art	-8.6443
▁geliştir	-8.64528
▁Ay	-8.64931
▁Ho	-8.6509
▁nedenle	-8.65312
lanmaz	-8.65386
lerden	-8.65966
(	-8.66223
▁Ev	-8.67238
▁Kap	-8.67247
mez	-8.6729
▁Ni	-8.67325
▁sıcak	-8.67415
miştir	-8.67426
▁donatılmış	-8.67493
▁Tasarım	-8.67569
▁bölüm	-8.67569
▁fonksiyon	-8.67569
▁üzerine	-8.67569
▁teslim	-8.67569
▁sayfa	-8.67569
▁çevre	-8.67569
▁güzel	-8.6757
▁çift	-8.6757
▁dikkat	-8.6757
▁model	-8.67571
▁olup	-8.67572
▁Video	-8.67577
▁gıda	-8.67584
▁rahat	-8.67585
▁Konuklar	-8.67592
▁Gıda	-8.67599
▁Ekipmanları	-8.67623
▁amacı	-8.67683
▁mu	-8.67794
▁doğal	-8.67795
est	-8.67944
▁Işık	-8.6804
syon	-8.6807
EL	-8.68114
hir	-8.68571
▁Veri	-8.6879
ılabilir	-8.6884
▁yolu	-8.68952
▁to	-8.69514
▁performans	-8.69616
yse	-8.69668
▁Tam	-8.69827
▁yapılan	-8.69863
▁Kat	-8.69873
▁Alan	-8.69877
▁Oda	-8.70333
▁So	-8.70406
▁alt	-8.70578
▁yapar	-8.70633
suz	-8.70779
ME	-8.70821
▁Pro	-8.70827
▁makine	-8.70928
▁Na	-8.70941
ngel	-8.7108
▁art	-8.71179
▁Ana	-8.71227
▁ediyor	-8.7141
▁zor	-8.71568
▁durum	-8.71595
▁18	-8.71729
landırma	-8.71749
▁Lo	-8.71781
ici	-8.72194
▁çalış	-8.72215
▁odası	-8.72532
▁Büyük	-8.72569
▁Otomatik	-8.72569
▁Sistemi	-8.72569
▁Uygulama	-8.72569
▁ziyaret	-8.72569
▁pompa	-8.72569
▁konusunda	-8.72569
▁motor	-8.7257
▁tedarikçi	-8.72581
▁Çok	-8.72583
▁yemek	-8.72585
▁düzey	-8.72605
▁başarı	-8.72622
▁CNC	-8.7264
▁erişim	-8.72646
▁Araba	-8.72656
▁edilir	-8.72671
▁The	-8.72686
▁ağır	-8.72688
▁metal	-8.72703
▁süresi	-8.72723
▁hiç	-8.72734
▁kaplama	-8.72803
▁parçaları	-8.72959
▁değildir	-8.72974
▁kanal	-8.73005
▁izin	-8.73081
▁yazılım	-8.73196
atör	-8.73229
▁hata	-8.73264
vo	-8.73338
EK	-8.73419
▁Bunun	-8.73427
▁karar	-8.73437
ong	-8.736
▁Cam	-8.73623
11	-8.73629
ılmış	-8.73679
▁düzen	-8.74538
▁ora	-8.74844
iji	-8.74882
aj	-8.74971
65	-8.7501
▁ayrı	-8.75281
masını	-8.75557
▁bar	-8.75558
ob	-8.75639
lanır	-8.75799
▁yapıl	-8.75857
▁ekipman	-8.7594
lanmış	-8.75947
▁vi	-8.76231
▁Tedarikçiler	-8.76335
▁kullanım	-8.76699
▁gönder	-8.76942
▁Ön	-8.77028
▁Bay	-8.77219
▁yat	-8.77221
oks	-8.77257
▁elektrik	-8.77301
yabilir	-8.77409
▁Üniversite	-8.77418
▁şekil	-8.77467
ılır	-8.77628
▁for	-8.77649
▁yardım	-8.77781
▁ütü	-8.77832
▁İstanbul	-8.77832
▁anahtar	-8.77832
▁plastik	-8.77832
▁kristal	-8.77832
▁şehir	-8.77833
▁enerji	-8.77833
▁giriş	-8.77833
▁yaklaşı	-8.77833
▁uzman	-8.77835
▁Beyaz	-8.77836
▁Sıcak	-8.77836
▁sınıf	-8.77842
▁ucuz	-8.77848
▁sürekli	-8.77853
▁mevcuttur	-8.77862
▁yarar	-8.77864
▁adresi	-8.77868
▁firma	-8.77877
▁üst	-8.7788
▁akıl	-8.7789
▁Boru	-8.77893
▁kullanarak	-8.77912
bot	-8.77952
▁yatak	-8.7796
▁em	-8.78074
▁uza	-8.78085
▁çalışan	-8.78111
▁sağlaya	-8.78396
▁etkili	-8.78574
▁fa	-8.78592
ktör	-8.78618
▁ait	-8.78628
dığınız	-8.78691
▁poli	-8.7875
▁adım	-8.78764
han	-8.7886
ğa	-8.78897
tif	-8.78907
▁Yapı	-8.7898
▁ince	-8.79
imiz	-8.79027
▁İçin	-8.79271
▁olduk	-8.79363
▁(4	-8.79732
▁kablo	-8.79821
ınız	-8.79897
▁100	-8.79922
mıştır	-8.79934
▁sorun	-8.8005
▁bağlantı	-8.80069
laş	-8.80364
ından	-8.80519
bilir	-8.80525
ent	-8.80559
fe	-8.80632
80	-8.80754
ğe	-8.80772
▁tak	-8.81582
▁bunu	-8.82036
▁kol	-8.82077
ard	-8.8225
san	-8.82376
una	-8.82416
malıdır	-8.82691
▁özellikler	-8.83082
hal	-8.83146
▁Açık	-8.83221
▁'	-8.83244
lenmesi	-8.83318
▁boru	-8.83338
▁Site	-8.83357
▁seviye	-8.83388
▁yaygın	-8.83388
▁Düşü	-8.83388
▁duvar	-8.83388
▁grubu	-8.83388
▁paket	-8.83389
▁GPS	-8.83392
▁güneş	-8.83393
▁resim	-8.834
▁mekan	-8.83408
▁edilmiştir	-8.83413
▁Proje	-8.83424
▁daire	-8.83442
oloji	-8.83452
▁böylece	-8.83461
▁j	-8.83472
▁gücü	-8.8349
▁olun	-8.83505
nkü	-8.83514
▁sosyal	-8.83537
▁üreticisi	-8.83588
ug	-8.83603
▁kız	-8.83648
yal	-8.83706
cuz	-8.83873
▁kart	-8.83934
▁13	-8.83946
▁Diş	-8.83954
▁ısı	-8.84002
▁Kapı	-8.841
▁güvenlik	-8.84283
▁yanında	-8.84362
▁sert	-8.84378
▁Merkezi	-8.84534
▁TV	-8.84536
▁kuru	-8.84568
▁tedavisi	-8.84595
▁Kol	-8.84626
▁16	-8.8479
▁Kapa	-8.84824
▁Kur	-8.84961
▁Gö	-8.85366
▁tanım	-8.857
▁Le	-8.85741
▁park	-8.86117
men	-8.86299
-1	-8.86378
70	-8.86857
▁şu	-8.86884
▁tipi	-8.87067
Ç	-8.87285
ON	-8.87399
nıza	-8.87439
▁Adı	-8.87528
larla	-8.87651
▁İs	-8.87725
▁sağlan	-8.87734
▁kalın	-8.87753
▁11	-8.8811
▁çık	-8.88139
▁17	-8.88152
azı	-8.88156
lendir	-8.88168
▁gerek	-8.88436
▁yerde	-8.8846
▁misafir	-8.88716
▁yaşam	-8.88809
acaktır	-8.8896
▁gerçekte	-8.8901
▁oluş	-8.89075
▁giy	-8.89172
▁çap	-8.8918
▁Elektrik	-8.8927
▁Havaalanı	-8.8927
▁vücut	-8.8927
▁Amerika	-8.8927
▁Antalya	-8.8927
▁sayesinde	-8.8927
▁sorumlu	-8.8927
▁Çift	-8.89271
▁Eğitim	-8.89271
▁zarar	-8.89271
▁medya	-8.89271
üncü	-8.89272
▁genç	-8.89273
▁Uzun	-8.89274
▁Model	-8.89274
▁kurutma	-8.89276
▁teknik	-8.89277
▁Oyun	-8.8929
▁Kızlar	-8.89293
▁Kişisel	-8.89299
▁tut	-8.89302
▁apartman	-8.89303
▁Ulus	-8.89329
▁içerik	-8.89387
▁asit	-8.89402
▁oluşturmak	-8.89422
▁yönetim	-8.89429
▁içerir	-8.89435
▁Ri	-8.89521
▁adet	-8.89628
▁dal	-8.89684
▁İyi	-8.89739
▁yarı	-8.89792
▁Ad	-8.89822
▁elektrikli	-8.89869
▁as	-8.89921
▁yeniden	-8.9005
▁sayısı	-8.9009
▁tu	-8.90177
▁Er	-8.90235
üks	-8.90285
lenme	-8.90334
vir	-8.90345
ülü	-8.90364
▁kapı	-8.90564
leyin	-8.90693
▁can	-8.90774
▁tar	-8.91117
▁Tur	-8.91339
▁görev	-8.91422
▁Fi	-8.91826
▁görün	-8.92055
lanması	-8.92154
1)	-8.92219
larıyla	-8.92255
▁Car	-8.92487
▁şehrinde	-8.92739
▁çocuk	-8.9286
tion	-8.9316
▁insanlar	-8.9338
▁değiştirme	-8.93572
▁CO	-8.93592
▁sen	-8.93682
▁Baz	-8.94137
arası	-8.94982
▁ihtiyaç	-8.95001
nizin	-8.95026
ji	-8.95041
▁kullanımı	-8.95317
mizi	-8.95416
▁yoğun	-8.95481
▁çöz	-8.95519
▁Küçük	-8.9552
▁Yazılım	-8.9552
▁küveti	-8.9552
▁vücudu	-8.9552
▁çiçek	-8.9552
▁döşeme	-8.9552
▁hidroli	-8.9552
▁sahibi	-8.9552
▁seçenek	-8.9552
▁minibar	-8.9552
▁hayvan	-8.95521
▁arkadaş	-8.95521
▁alerji	-8.95521
▁işaret	-8.95522
▁sunmaktadır	-8.95526
▁verimli	-8.95541
▁onları	-8.95543
▁fren	-8.95543
▁Kaynak	-8.95546
▁sürücü	-8.95564
ilikon	-8.95565
▁soğutma	-8.95584
▁işlemi	-8.95604
▁tasarlanmış	-8.95619
▁Parçaları	-8.95621
▁gider	-8.95669
▁çalışır	-8.95702
duğu	-8.95707
▁Açıklama	-8.95716
▁Para	-8.95728
▁uluslara	-8.95731
layan	-8.95758
▁New	-8.95804
▁yerine	-8.95877
▁biridir	-8.95942
▁bizim	-8.95966
▁Baş	-8.96114
▁verileri	-8.96217
▁alır	-8.96418
▁IP	-8.96442
▁40	-8.96931
▁Val	-8.96932
▁(3	-8.97118
▁Tedarikçi	-8.97345
mesini	-8.97378
▁emin	-8.97488
▁dakikada	-8.97489
▁alanında	-8.97656
▁14	-8.97718
▁sayıda	-8.97733
▁belirti	-8.97788
▁takım	-8.97861
▁olmalı	-8.97885
▁anda	-8.98158
40	-8.98356
▁Sür	-8.98559
likle	-8.98651
iciler	-8.98935
istan	-8.99018
▁50	-8.99184
trik	-8.99215
▁miktar	-8.99554
7)	-8.99585
▁tur	-9.00105
rlak	-9.00122
▁hangi	-9.01078
leyen	-9.0121
▁güven	-9.01394
bilmek	-9.01623
ecektir	-9.01818
▁hız	-9.01893
▁taban	-9.01948
osyal	-9.02128
▁aşağı	-9.02131
▁Yan	-9.0217
▁ekonomi	-9.02187
▁eğlence	-9.02187
▁ihracat	-9.02187
▁montaj	-9.02187
▁Çiçek	-9.02187
▁Standart	-9.02187
▁maliyet	-9.02188
▁yürüyüş	-9.02188
▁nedeniyle	-9.02188
▁etiket	-9.02188
▁pazar	-9.02188
▁Karbon	-9.02189
▁resmi	-9.02191
▁bitki	-9.02191
▁ağrı	-9.02192
▁CAS	-9.02192
▁Bilgi	-9.02192
▁kök	-9.02195
▁kayıt	-9.02197
▁nerede	-9.022
▁Kullanım	-9.02201
▁kaynağı	-9.02206
▁Panel	-9.02214
▁seçeneği	-9.02218
▁Servis	-9.02234
oji	-9.02243
▁Park	-9.02248
▁tıklayın	-9.02262
▁yönet	-9.02277
▁basit	-9.02281
▁yarat	-9.02449
▁yeterli	-9.02464
▁seçim	-9.02481
▁bil	-9.02567
▁geçir	-9.02585
▁sunuyor	-9.02612
▁Kart	-9.02857
▁bunları	-9.02899
02	-9.02934
▁sat	-9.03061
tasyon	-9.03157
▁spor	-9.03316
▁sarı	-9.03336
▁Q	-9.035
ladı	-9.03544
▁kullanmak	-9.03554
ırmızı	-9.03679
▁Ra	-9.03759
▁çü	-9.03935
▁As	-9.03948
▁gaz	-9.04108
tor	-9.04285
asyonu	-9.04568
▁pil	-9.04659
▁199	-9.04947
best	-9.0544
yorum	-9.0551
LE	-9.05567
▁der	-9.05597
ezi	-9.05653
US	-9.05758
lap	-9.06234
▁üzerinden	-9.06267
▁kurul	-9.0632
▁manzara	-9.06493
▁tesis	-9.07014
▁etti	-9.07215
zyon	-9.07394
▁listesi	-9.0754
Q	-9.07938
▁odalar	-9.0808
lanabilir	-9.0867
▁par	-9.08708
▁önem	-9.08924
▁ben	-9.09171
ücü	-9.09204
35	-9.09208
▁inşa	-9.09212
▁hakkı	-9.09227
▁dolayı	-9.0923
▁kahve	-9.0933
о	-9.0933
▁zengin	-9.0933
▁Alüminyum	-9.0933
▁Ayakkabı	-9.0933
▁Basınç	-9.0933
▁Hassas	-9.0933
▁Mutfak	-9.0933
▁asansör	-9.0933
▁hortum	-9.0933
▁mutfak	-9.0933
▁rezervasyon	-9.0933
▁tercih	-9.0933
▁güvenilir	-9.0933
▁şimdi	-9.0933
▁Çalışma	-9.09331
▁istasyonu	-9.09331
▁Beach	-9.09332
▁Ekstr	-9.09332
▁hedef	-9.09333
▁dök	-9.09333
▁Dünya	-9.09334
▁fırın	-9.09334
▁tekrar	-9.09334
▁kaldırma	-9.09337
ömür	-9.0934
▁biçim	-9.09346
▁cilt	-9.0935
▁eski	-9.09356
▁girme	-9.09374
▁yayın	-9.09379
led	-9.09379
▁gerektir	-9.0939
▁şart	-9.09391
▁İlk	-9.09394
▁Kira	-9.09408
▁Özellikler	-9.09409
▁Geri	-9.09443
▁seks	-9.095
19	-9.09525
▁sonuçlar	-9.09567
▁sıcaklık	-9.09572
▁dizi	-9.09607
▁ayak	-9.09638
▁Tekni	-9.09781
▁gelir	-9.09872
▁sizin	-9.09968
▁hemen	-9.10008
emin	-9.1016
▁bas	-9.10243
▁halin	-9.10265
▁olum	-9.10424
▁yapan	-9.1049
▁Dış	-9.10648
▁yorum	-9.10798
▁içer	-9.10899
App	-9.11087
▁of	-9.11192
atif	-9.11346
▁Kes	-9.11367
▁sap	-9.11385
32	-9.11427
99	-9.11454
dalga	-9.11477
▁büyü	-9.11559
▁Kara	-9.11594
▁kıl	-9.11717
▁am	-9.11762
▁yaşa	-9.11832
lenen	-9.1206
▁kim	-9.12183
▁özelliği	-9.12212
IS	-9.12222
Ş	-9.12294
▁çocuklar	-9.12638
▁bel	-9.12646
▁paslanma	-9.12753
▁Art	-9.12952
16	-9.13139
makta	-9.1315
AD	-9.13301
▁PC	-9.1347
ılması	-9.13562
lenmiş	-9.13716
ox	-9.13743
▁içeriği	-9.14034
unuzu	-9.14138
▁Ol	-9.14528
▁kalitesi	-9.14579
▁programı	-9.14648
AT	-9.1465
▁dakikalı	-9.14675
▁anlam	-9.15347
abilecek	-9.15402
Ö	-9.15633
▁yöntemleri	-9.15634
▁po	-9.15643
▁onay	-9.1582
▁22	-9.15941
▁görü	-9.16003
▁ürünlerin	-9.16395
▁edi	-9.16416
▁baz	-9.16482
▁ölçü	-9.16539
▁doğa	-9.16709
▁Şa	-9.16914
▁böyle	-9.16919
▁dört	-9.16924
▁bütün	-9.16955
▁azalt	-9.16964
▁Diğer	-9.17022
▁Filtre	-9.17022
▁balataları	-9.17022
▁dayanıklı	-9.17022
▁iletişim	-9.17022
▁rağmen	-9.17022
▁yumuşa	-9.17022
р	-9.17022
▁mesaj	-9.17022
▁olsun	-9.17022
▁Pompa	-9.17022
▁hesap	-9.17023
▁lazer	-9.17023
▁LCD	-9.17023
▁Lamba	-9.17023
▁bebek	-9.17023
▁Giriş	-9.17024
▁Etiket	-9.17024
▁döküm	-9.17024
▁yalnız	-9.17024
▁çanta	-9.17025
▁Ticar	-9.17026
▁İtalya	-9.17027
▁beyaz	-9.17028
▁harika	-9.1703
▁kısa	-9.17033
ağlayıcı	-9.17034
▁Euro	-9.17039
▁ısıtma	-9.17039
▁Fiyat	-9.17039
▁geçirmez	-9.17044
▁mesafesinde	-9.17047
▁geçerli	-9.1705
▁film	-9.17054
▁Fiber	-9.17056
▁Tipi	-9.1706
▁aşağıdaki	-9.17088
▁sözleşme	-9.1709
▁etmektedir	-9.1712
▁desen	-9.17147
▁yükleme	-9.1719
▁basın	-9.17235
yüzü	-9.17261
▁restoran	-9.17304
▁katı	-9.17356
▁amaç	-9.17392
▁gereken	-9.1743
▁Ju	-9.17449
▁çay	-9.17467
▁Alanya	-9.17528
▁artı	-9.17616
top	-9.17645
▁öz	-9.17978
eot	-9.18045
AC	-9.18145
itap	-9.18245
▁kontrolü	-9.18275
▁öğ	-9.18281
▁açıl	-9.18289
▁ortam	-9.18356
▁onun	-9.18451
▁Sho	-9.18584
▁kas	-9.18641
DR	-9.18726
▁boya	-9.1882
17	-9.18892
OS	-9.1902
▁Ray	-9.19263
IL	-9.19287
▁düşü	-9.19509
▁testi	-9.196
▁kullanıcılar	-9.19679
▁altın	-9.19745
vet	-9.1994
Fi	-9.1999
8)	-9.2008
star	-9.20342
▁tip	-9.20391
▁Pri	-9.20407
▁taş	-9.20422
▁üreticileri	-9.20505
▁uygulamaları	-9.20519
▁Dr	-9.20705
▁Is	-9.20755
▁Ama	-9.2077
liğini	-9.20801
▁birey	-9.21279
▁ekle	-9.21296
▁kurum	-9.21308
▁serisi	-9.21542
▁İşlem	-9.21665
3)	-9.21818
▁taraf	-9.21894
▁anlamın	-9.21978
▁tasarımı	-9.2212
▁ilaç	-9.22258
İN	-9.22289
▁kalma	-9.22496
▁Har	-9.22574
▁müşteriler	-9.2284
▁sana	-9.2284
landı	-9.23105
▁Spor	-9.23375
▁(5	-9.23423
▁tema	-9.23731
▁Genel	-9.23803
▁ila	-9.24126
eks	-9.2416
mızı	-9.24362
▁hale	-9.24406
▁dik	-9.24499
▁hastalar	-9.24888
▁onu	-9.24909
▁ticar	-9.2521
gıç	-9.25281
aşınabilir	-9.25285
▁Ambalaj	-9.25355
▁garanti	-9.25355
▁Görüntüle	-9.25355
▁Havalimanı	-9.25355
▁Malzeme	-9.25355
▁düğme	-9.25355
▁fırsat	-9.25355
▁hücre	-9.25355
▁profil	-9.25355
▁yelpaze	-9.25355
▁çubuk	-9.25355
а	-9.25355
▁platform	-9.25355
▁yetenek	-9.25355
▁şifre	-9.25355
auçuk	-9.25356
▁meyve	-9.25356
▁Daire	-9.25356
▁Erkek	-9.25356
▁Turkey	-9.25356
▁Bebek	-9.25357
▁Destek	-9.25357
▁lisans	-9.25357
▁saniye	-9.25357
▁yavaş	-9.25357
▁İnsan	-9.25357
▁talep	-9.25358
▁hafta	-9.25358
▁kısm	-9.25359
▁sahne	-9.25359
▁oyuncu	-9.25361
▁aktar	-9.25368
▁Kendi	-9.25373
ting	-9.25379
▁Vana	-9.25381
▁kutusu	-9.25393
▁Perde	-9.25395
▁kuruluş	-9.254
▁süt	-9.254
▁2016	-9.25411
▁baskı	-9.25427
▁popüler	-9.2543
veriş	-9.2545
▁kesme	-9.25457
▁Jeneratörü	-9.25478
▁Şiş	-9.2548
▁numarası	-9.2549
▁opti	-9.25503
▁detay	-9.25511
▁Mobilya	-9.2553
glas	-9.25539
▁benim	-9.25559
▁aracı	-9.25561
▁yapılır	-9.2558
▁çapında	-9.25584
▁Ayak	-9.25682
▁Host	-9.25696
▁Poli	-9.25758
▁olmadan	-9.25837
▁Seks	-9.25845
izasyon	-9.25874
▁Konu	-9.25944
▁Alaşım	-9.26112
ood	-9.26119
cılık	-9.26203
larınızı	-9.26318
▁takı	-9.26437
şırı	-9.26487
▁Chi	-9.26512
▁pek	-9.26545
burg	-9.26555
▁beri	-9.2663
▁sey	-9.26734
mize	-9.26828
formu	-9.26847
▁yasa	-9.26848
▁odakl	-9.2686
▁tutar	-9.2691
▁Yor	-9.26993
▁doz	-9.27036
▁onlar	-9.2725
istik	-9.27409
▁Hizmet	-9.27643
▁Onlar	-9.27668
▁açı	-9.27694
▁PE	-9.27959
▁sürü	-9.28032
▁tesisi	-9.28175
out	-9.28382
▁örneği	-9.28934
▁başladı	-9.29865
▁yerleş	-9.30016
▁şehrin	-9.30239
▁dönüş	-9.30363
▁ister	-9.30648
▁eğitimi	-9.30778
meyen	-9.30843
▁tasarla	-9.30967
▁AC	-9.31036
▁banyolar	-9.31305
▁oldu	-9.31785
▁seçme	-9.32012
İK	-9.3209
▁Siz	-9.32362
OL	-9.32444
▁pas	-9.32524
asında	-9.32909
▁Sağ	-9.33066
▁Yer	-9.33068
ince	-9.33075
SS	-9.33172
▁Düz	-9.33351
sanız	-9.34006
▁Renk	-9.34008
▁Makine	-9.34057
▁düz	-9.3416
▁ilgi	-9.34183
dığını	-9.34245
-5	-9.34247
bilmeniz	-9.34357
▁tıkla	-9.34372
▁ücret	-9.34391
▁bilet	-9.34408
▁boş	-9.34433
â	-9.34446
▁başvuru	-9.34446
ý	-9.34446
и	-9.34446
▁Fabrika	-9.34446
▁Güvenlik	-9.34446
▁Istanbul	-9.34446
▁Kontrol	-9.34446
▁Makinası	-9.34446
▁alüminyum	-9.34446
▁buzdolabı	-9.34446
▁escort	-9.34446
▁kurtarma	-9.34446
▁lütfen	-9.34446
▁yukarı	-9.34446
▁yıkama	-9.34446
▁öğrenme	-9.34446
▁Şirket	-9.34446
▁şablon	-9.34446
▁Boyut	-9.34446
▁Silindir	-9.34446
▁reklam	-9.34446
▁İlgi	-9.34446
▁şarj	-9.34446
▁Duvar	-9.34446
▁Online	-9.34446
▁açısından	-9.34446
▁örnek	-9.34446
▁Enerji	-9.34447
▁online	-9.34447
▁siyah	-9.34447
▁Siyah	-9.34447
▁grup	-9.34448
▁iklim	-9.34448
▁işbirliği	-9.34448
▁Endüstriyel	-9.34449
▁arka	-9.34449
▁Geniş	-9.34449
▁gerektiği	-9.3445
▁kağıt	-9.34451
▁Kayıt	-9.34451
▁ideal	-9.34451
▁Yuva	-9.34451
▁Verimli	-9.34452
▁korku	-9.34452
▁Ağır	-9.34453
▁Çanta	-9.34454
▁Kurulu	-9.34457
▁Kadın	-9.34458
▁işlev	-9.34468
▁kamera	-9.34471
▁indirme	-9.34471
▁tren	-9.34474
▁Mac	-9.34475
▁artırma	-9.34486
▁2017	-9.34505
▁dışında	-9.34512
▁raf	-9.3452
▁mikro	-9.34523
▁tarım	-9.34526
▁durumunda	-9.34539
▁üye	-9.34544
▁Free	-9.34545
▁beklen	-9.34546
▁geçiş	-9.34552
▁düşünü	-9.34556
▁Resimler	-9.3456
▁tutmak	-9.34578
▁kurulum	-9.34581
▁Üst	-9.34588
▁koyu	-9.34591
▁Hız	-9.34601
▁inşaat	-9.34606
▁ticaret	-9.3461
▁Burada	-9.34623
ebilen	-9.34629
ulanık	-9.34632
▁akış	-9.34647
▁temizleme	-9.34647
▁Windows	-9.34654
▁İngilizce	-9.34654
▁hayal	-9.34662
▁öneril	-9.3469
▁uç	-9.34694
▁görüş	-9.34711
▁denge	-9.34755
▁katman	-9.34836
▁parçalar	-9.34918
▁kira	-9.34943
▁Renkli	-9.34989
▁dış	-9.3504
▁Genç	-9.3507
▁alış	-9.35099
▁Üniversitesi	-9.3518
▁durumda	-9.35194
▁etkileri	-9.35217
▁Anti	-9.35223
▁Fran	-9.35225
lendirme	-9.35286
▁yapısı	-9.35381
yorsanız	-9.3539
▁dayan	-9.35409
PC	-9.3545
▁gösterir	-9.35473
▁Test	-9.35499
▁no	-9.35714
▁durumu	-9.3575
▁türü	-9.35802
lış	-9.35818
▁Gaz	-9.35825
▁bilgilerinizi	-9.35848
sunu	-9.36063
▁içi	-9.36137
▁Ja	-9.36192
▁edebilir	-9.36211
▁kez	-9.36259
54	-9.36299
▁edilme	-9.3637
▁çağ	-9.36447
▁cihaz	-9.36602
olum	-9.3663
▁eden	-9.36788
▁ettiği	-9.36814
▁İki	-9.36814
▁yapabilir	-9.36933
▁Birleş	-9.36942
▁Fit	-9.37055
-20	-9.37092
matik	-9.37306
ünün	-9.37348
port	-9.37371
ness	-9.37412
▁organi	-9.37503
UN	-9.37509
▁Gol	-9.37725
▁Spa	-9.37771
▁Oteller	-9.37796
ılmıştır	-9.38159
▁çıkarma	-9.38227
▁süreç	-9.38547
▁derin	-9.38581
▁işleme	-9.38657
▁Şu	-9.39024
▁Yağ	-9.39227
yel	-9.39443
▁düş	-9.39475
▁çeşit	-9.39486
▁Üretici	-9.39488
NA	-9.39854
▁Yıl	-9.399
arbe	-9.40134
▁seri	-9.40605
28	-9.40637
▁oku	-9.40919
05	-9.40973
▁deniz	-9.41148
▁edil	-9.41169
▁Çocuklar	-9.41241
▁kadınlar	-9.41376
▁gerçekleştir	-9.41443
▁Fer	-9.41506
31	-9.41597
▁Hizmetleri	-9.41754
EC	-9.41879
▁uygulaması	-9.42368
ğini	-9.42373
ngste	-9.42473
lığını	-9.42515
▁ton	-9.42582
▁sektör	-9.42725
▁mimarisi	-9.42818
▁suyu	-9.42856
▁fayda	-9.43017
Harita	-9.43086
▁Yap	-9.43101
▁ürünü	-9.4325
▁imkan	-9.43815
▁güvenli	-9.43855
▁makineleri	-9.43856
▁tarayıcı	-9.44002
▁Eki	-9.44321
▁köp	-9.44437
▁Kategori	-9.44446
Ğ	-9.44446
▁Anahtar	-9.44446
▁Bölge	-9.44446
▁Sandalye	-9.44446
▁konfor	-9.44446
▁tavsiye	-9.44446
▁tespit	-9.44446
▁Çubuk	-9.44446
▁şüphe	-9.44446
▁Güneş	-9.44446
▁potansiyel	-9.44446
▁yemeği	-9.44446
▁Kullanıcı	-9.44446
▁Terminal	-9.44446
▁erkek	-9.44447
▁havuz	-9.44447
▁www	-9.44447
▁Aşağıda	-9.44447
▁Cihaz	-9.44447
▁aktivite	-9.44447
▁öğreti	-9.44447
▁Doğal	-9.44447
▁sağlamaktadır	-9.44447
▁Şimdi	-9.44447
▁zorunda	-9.44448
▁Lastik	-9.44449
▁şerit	-9.44449
▁PDF	-9.4445
▁bırak	-9.4445
▁Grup	-9.4445
▁besleme	-9.44451
▁Sultan	-9.44451
▁işletme	-9.44451
▁sinyal	-9.44453
▁kafa	-9.44454
▁Kemer	-9.44454
▁hassasiyet	-9.44455
▁karakteri	-9.44456
▁City	-9.44456
▁tüp	-9.44456
▁köpek	-9.44459
▁kalıp	-9.44461
▁Serisi	-9.44462
▁görünüm	-9.44464
▁kamu	-9.44466
▁Yön	-9.44473
▁Etki	-9.44476
▁kilo	-9.44478
▁Dosya	-9.44481
▁değerlendirme	-9.44482
igara	-9.44483
OKU	-9.44485
▁anlaşma	-9.4449
▁sınır	-9.44493
▁gerekiyor	-9.44495
▁herkes	-9.44495
▁ayır	-9.44496
▁risk	-9.44496
▁yine	-9.44513
▁üretilen	-9.4452
▁yoktur	-9.44523
▁Bra	-9.44524
▁kutu	-9.44525
▁toprak	-9.44529
▁koku	-9.44533
▁taşınabilir	-9.44533
arıştırıcı	-9.44534
▁plaka	-9.44536
▁halk	-9.44541
▁Oksi	-9.44546
▁sonucu	-9.44557
▁günlük	-9.44559
▁çıkış	-9.44563
▁the	-9.44597
▁burada	-9.44614
▁uyum	-9.44618
▁kenar	-9.44632
▁aile	-9.44633
▁Port	-9.44633
dışı	-9.44636
▁kimlik	-9.44703
▁filtre	-9.4471
▁Jo	-9.44721
▁dokunma	-9.44733
ktif	-9.44793
▁mavi	-9.44801
▁alacak	-9.44823
▁oluşturur	-9.44832
▁Raf	-9.44838
▁dönem	-9.44876
▁artış	-9.44876
▁Hızlı	-9.44912
▁toplu	-9.44943
▁alaşım	-9.44949
▁normal	-9.44978
▁Ji	-9.45091
▁veren	-9.4516
2.5	-9.45254
▁Led	-9.45289
▁yerinde	-9.4537
zmeti	-9.45429
▁cild	-9.45533
▁mor	-9.45659
▁Bakı	-9.4577
▁Ekle	-9.45783
▁içere	-9.45799
▁İç	-9.4591
lenebilir	-9.45976
▁kalan	-9.46032
abileceği	-9.46183
▁inan	-9.46239
▁sitemiz	-9.46254
▁mini	-9.46504
▁Yük	-9.46751
lüğü	-9.46801
şık	-9.46927
▁teknolojisi	-9.47016
▁koşul	-9.47037
yabilirsiniz	-9.4737
▁faaliyet	-9.47539
▁başın	-9.47633
▁mühendis	-9.47765
▁odada	-9.47802
▁Diz	-9.4799
▁sürüm	-9.4806
▁vermek	-9.48116
cal	-9.48199
▁terası	-9.48233
▁delik	-9.48415
▁Pay	-9.48484
▁miktarda	-9.48602
▁manzarasın	-9.48642
-100	-9.4873
55	-9.48747
altı	-9.48863
▁süreci	-9.48964
▁günü	-9.4909
▁malzemeler	-9.49293
▁bin	-9.49414
▁malzemeleri	-9.50522
▁öğrenci	-9.506
▁45	-9.50752
▁indiri	-9.50875
▁düzenl	-9.51348
▁cihazlar	-9.51422
uyor	-9.51441
▁aldı	-9.51635
▁bilgiler	-9.52286
ju	-9.52336
ation	-9.5243
▁sistemleri	-9.52551
IK	-9.53319
▁edilmesi	-9.53664
▁sayı	-9.53708
rmektedir	-9.53946
▁kır	-9.54046
▁üretici	-9.54065
▁gelme	-9.54355
▁verile	-9.54357
18	-9.54498
▁mı	-9.54542
▁bilgisayar	-9.54877
▁verir	-9.54977
▁kaç	-9.54982
üstü	-9.55141
▁restor	-9.55147
▁ulus	-9.55216
alıcı	-9.55247
örü	-9.55251
▁uygulamalar	-9.55286
▁esnek	-9.5539
ünlük	-9.55437
▁yedek	-9.55467
duğunuz	-9.55482
ükemmel	-9.55492
▁endüstri	-9.55505
laştırılm	-9.55525
▁kapsam	-9.55526
▁Çevrim	-9.55557
Bodrum	-9.55557
Ý	-9.55557
▁Hafif	-9.55557
▁avantaj	-9.55557
▁bağımsız	-9.55557
▁kötü	-9.55557
▁monitörü	-9.55557
▁problem	-9.55557
▁zayıf	-9.55557
▁Aydınlatma	-9.55557
▁Dedektörü	-9.55557
▁Hareket	-9.55557
▁Kirovograd	-9.55557
▁Sertifika	-9.55557
▁Standoff	-9.55557
▁Telefon	-9.55557
▁Tracker	-9.55557
▁danışman	-9.55557
▁enfeksiyon	-9.55557
▁gümüş	-9.55557
▁iPhone	-9.55557
▁kahvaltı	-9.55557
▁karaciğer	-9.55557
▁koruyucu	-9.55557
▁mağaza	-9.55557
▁pantolon	-9.55557
▁pencere	-9.55557
▁tuvalet	-9.55557
▁yetkisi	-9.55557
▁Çerçeve	-9.55557
▁Ücret	-9.55557
▁Ankara	-9.55557
▁Köpek	-9.55557
▁levha	-9.55557
▁Türbin	-9.55558
▁iddia	-9.55558
▁bahçe	-9.55558
▁sıvı	-9.55558
▁zaten	-9.55558
▁2013	-9.55558
▁içerisinde	-9.55558
▁imalat	-9.55559
▁Japon	-9.55559
▁Hattı	-9.55559
▁Güzel	-9.5556
▁Rulo	-9.5556
▁soğuk	-9.5556
▁DVD	-9.5556
▁İlaç	-9.55561
▁OEM	-9.55561
▁maruz	-9.55562
▁Yıka	-9.55562
▁şeffaf	-9.55563
STE	-9.55564
▁istiyorsanız	-9.55564
▁kelime	-9.55565
▁Sınıf	-9.55565
pozit	-9.55566
▁parlak	-9.55567
▁İkinci	-9.55568
▁endüstriyel	-9.55568
▁sergi	-9.55568
▁Hasta	-9.55569
▁analiz	-9.55569
▁grafik	-9.5557
▁zemin	-9.55571
▁ruh	-9.55572
ıbbi	-9.55573
▁şeker	-9.55579
▁tarama	-9.55579
▁Türk	-9.55581
▁Pazar	-9.55587
▁tüketici	-9.55593
▁balık	-9.55598
agaj	-9.55602
▁istediğiniz	-9.55605
dll	-9.55607
▁Buhar	-9.55611
▁masaj	-9.55616
▁yoğunluk	-9.55629
▁kafe	-9.5565
▁Havuz	-9.55684
▁durumlarda	-9.55685
▁isteyen	-9.55686
roliz	-9.55699
▁edildi	-9.55726
▁esneklik	-9.55735
ght	-9.55756
▁aktif	-9.55762
▁düzenleme	-9.55781
▁tane	-9.5581
▁genişlet	-9.55827
▁olduğundan	-9.55846
ümüz	-9.55855
▁Asit	-9.55881
▁bakır	-9.5591
▁büyüme	-9.55949
▁Berry	-9.55985
▁bakteri	-9.55992
▁metr	-9.56032
▁fiyatları	-9.56078
▁Bilim	-9.56094
▁önleme	-9.56127
▁ihtiyacın	-9.56257
▁Yönetimi	-9.56382
▁kullanın	-9.56383
▁vida	-9.56487
▁önemlidir	-9.56497
▁Odalar	-9.56538
▁misafirleri	-9.56641
▁görmek	-9.56655
ahat	-9.56794
▁okuma	-9.56882
▁alıcı	-9.57005
▁anne	-9.57008
pek	-9.57143
▁arama	-9.57231
▁deri	-9.57251
▁renkli	-9.57407
▁mimari	-9.57411
▁Pet	-9.57426
ja	-9.57813
▁Çap	-9.57874
▁hayat	-9.57982
▁zorlu	-9.57999
▁olmadığını	-9.5813
▁alanda	-9.58191
lığında	-9.58418
▁Tah	-9.58582
▁noktası	-9.59062
▁kadın	-9.59111
▁sonrası	-9.59172
▁Çocuk	-9.59265
Star	-9.5943
▁dosyası	-9.59483
▁araya	-9.59628
laşma	-9.59694
▁izleme	-9.59754
▁ekipmanı	-9.59801
▁hari	-9.60073
24	-9.60073
IF	-9.60355
rici	-9.60748
▁öğrenciler	-9.60773
▁yıllar	-9.61078
▁lez	-9.61082
▁kab	-9.62067
▁seçil	-9.62289
▁şeklin	-9.62605
▁izle	-9.62645
bet	-9.62657
larımızı	-9.62697
eçici	-9.62776
▁söyle	-9.63278
▁kablosu	-9.63321
▁olası	-9.63462
▁belirtile	-9.63927
▁ortamı	-9.64087
▁birimi	-9.64168
▁etkisi	-9.64219
▁boy	-9.64486
▁gösteril	-9.64545
lanmıştır	-9.64862
üğün	-9.6547
▁hayatı	-9.65636
▁yazılımın	-9.66447
▁kayna	-9.66545
Daha	-9.66697
▁malzemesi	-9.66757
diğimiz	-9.66793
▁mesafe	-9.66938
▁cihazı	-9.67246
▁tas	-9.67331
▁yatırım	-9.67377
▁kapılar	-9.67409
kap	-9.6745
▁yeter	-9.67562
diğinde	-9.67659
▁dosyalarını	-9.67674
▁500	-9.67787
▁eriş	-9.67873
hşap	-9.67929
▁tüket	-9.68014
▁Taban	-9.68019
▁hastalık	-9.6803
qua	-9.68046
▁aşama	-9.6805
▁Bunu	-9.68051
▁personel	-9.68057
▁çerçeve	-9.68057
▁Dayanıklı	-9.68057
▁Doğru	-9.68057
▁Facebook	-9.68057
▁Geogrid	-9.68057
▁Google	-9.68057
▁Organi	-9.68057
▁Rezervasyon	-9.68057
▁Tekerlek	-9.68057
▁bisiklet	-9.68057
▁bünyesinde	-9.68057
▁donanım	-9.68057
▁fiziksel	-9.68057
▁hesabınız	-9.68057
▁kombinasyon	-9.68057
▁pozisyon	-9.68057
▁tasarruf	-9.68057
▁transfer	-9.68057
▁zincir	-9.68057
▁Design	-9.68057
▁Sayfa	-9.68057
▁cevap	-9.68057
▁itibar	-9.68057
▁karmaşık	-9.68057
▁engelleme	-9.68058
▁operasyon	-9.68058
▁piyasa	-9.68058
▁Baskı	-9.68058
▁cüzdan	-9.68058
▁toplantı	-9.68058
▁Levha	-9.68058
▁gelecekte	-9.68058
▁lamba	-9.68058
▁pürüz	-9.68058
▁Şarj	-9.68058
▁fırça	-9.68058
▁rapor	-9.68058
▁Böyle	-9.68058
▁görebilirsiniz	-9.68058
▁kağıdı	-9.68058
▁doğum	-9.68058
▁hediye	-9.68058
▁Modern	-9.68059
▁beslenme	-9.68059
▁havlu	-9.68059
▁Sensör	-9.68059
▁aydınlatma	-9.68059
▁villa	-9.6806
▁Sonuç	-9.6806
▁bonus	-9.6806
▁kumaş	-9.68061
▁dostu	-9.68061
▁Rapor	-9.68062
▁monte	-9.68062
▁eğer	-9.68062
▁yeşil	-9.68062
▁yolcu	-9.68062
▁rengi	-9.68063
▁Zaman	-9.68063
▁ikinci	-9.68064
▁ödül	-9.68064
▁Villa	-9.68066
▁Değer	-9.68066
▁devre	-9.68067
▁ABD	-9.68068
▁Off	-9.68069
▁Dokun	-9.6807
▁Haber	-9.6807
▁teklif	-9.6807
▁valf	-9.68072
▁karşılamak	-9.68073
▁panel	-9.68076
▁önünde	-9.68077
▁Grou	-9.68079
▁maksimum	-9.6808
▁konuşma	-9.68085
▁İndir	-9.68086
work	-9.68091
▁Eski	-9.68094
▁gece	-9.68094
▁elektronik	-9.68102
▁lider	-9.68105
▁katkı	-9.68107
ESİ	-9.68116
▁içecekler	-9.68116
▁Dök	-9.68126
▁Saç	-9.68134
▁ulaşılabilir	-9.68135
▁büyüklüğü	-9.68142
▁saygı	-9.68143
▁Ofis	-9.68145
▁Cuma	-9.68153
▁pişirme	-9.68156
▁etkinlikler	-9.68158
▁sonsuz	-9.68161
▁ahşap	-9.68186
▁silindir	-9.68196
▁belge	-9.68206
▁azaltır	-9.68209
▁Akıl	-9.68209
▁2012	-9.68212
▁Tavan	-9.68213
▁geçmiş	-9.68225
▁bugün	-9.68246
▁uyumlu	-9.68251
▁Bina	-9.68256
▁eylem	-9.68264
▁Şö	-9.68274
▁işlenmesi	-9.68289
▁gezi	-9.68294
▁ofis	-9.68294
▁alabilirsiniz	-9.68303
ASA	-9.6832
ebileceğiniz	-9.68331
▁ayrıca	-9.68346
▁sunmak	-9.68356
▁dövme	-9.68359
▁duru	-9.6836
▁Çö	-9.68361
▁sanayi	-9.68375
▁Flo	-9.68388
▁cep	-9.68412
▁tatil	-9.68497
erapi	-9.68502
▁değişik	-9.68532
▁Teknoloji	-9.68546
▁RF	-9.68604
▁Je	-9.68668
▁alabilir	-9.68737
▁çıkan	-9.68751
▁kolaydır	-9.688
ading	-9.68845
▁imkanı	-9.68864
ırıcı	-9.68922
▁tadını	-9.68928
▁tekne	-9.69007
▁oranı	-9.69012
▁ölçüm	-9.69057
▁cins	-9.69077
▁senin	-9.69077
▁eşya	-9.69106
68	-9.69112
anayi	-9.69158
▁and	-9.69165
▁Göz	-9.69179
▁tat	-9.69249
embe	-9.69323
▁Boya	-9.6933
▁kişili	-9.69341
İŞ	-9.69459
İR	-9.69547
şek	-9.69553
hoş	-9.69579
▁Benz	-9.6964
▁Medi	-9.69655
▁Şek	-9.69669
ikasyon	-9.69697
47	-9.69709
▁27	-9.69748
▁İste	-9.69943
▁olanak	-9.70053
▁Prof	-9.70068
▁hattı	-9.70647
▁sonuçlan	-9.71095
▁güvenliği	-9.71542
▁kara	-9.71612
▁sonun	-9.72284
▁okul	-9.72453
▁geliştirile	-9.72469
sunuz	-9.72879
LER	-9.72953
▁söyleme	-9.73077
▁ilaçlar	-9.73201
▁tarafı	-9.73543
▁120	-9.73711
▁dola	-9.73789
ekli	-9.73979
▁Ant	-9.7409
38	-9.74589
ilmeye	-9.74791
▁150	-9.74828
▁RE	-9.75557
ınızın	-9.75722
hou	-9.75794
▁gerçekleştiril	-9.75839
▁yanlış	-9.76168
▁bağlantısı	-9.76307
lmas	-9.76365
90	-9.77553
▁gereksinimleri	-9.77624
yorsunuz	-9.77738
▁müşterilerin	-9.78155
kadem	-9.78208
▁sürümü	-9.78261
▁koşulları	-9.78679
NC	-9.79114
▁Satı	-9.79987
romo	-9.80433
▁blog	-9.80846
▁görme	-9.8107
▁Işı	-9.81212
▁aşı	-9.8123
▁hatt	-9.81255
▁Yönetim	-9.81275
▁sizi	-9.81285
▁ihtiyacı	-9.81362
▁merkez	-9.81567
▁olmadığı	-9.81608
▁sektörün	-9.81649
rseniz	-9.81687
▁Rady	-9.81928
▁fark	-9.81955
▁Mobil	-9.82045
▁Tüp	-9.82081
ştırıcı	-9.82083
eramik	-9.82164
opüler	-9.82211
▁söz	-9.82217
▁düzel	-9.82228
▁tedarik	-9.82307
düğü	-9.8232
▁eksik	-9.8233
▁yürüy	-9.82342
▁Bildirimi	-9.82343
▁Brülörü	-9.82343
▁Casino	-9.82343
▁Eylül	-9.82343
▁Geliştir	-9.82343
▁Kayışı	-9.82343
▁Misafirler	-9.82343
▁Ultrasonik	-9.82343
▁dağıtım	-9.82343
▁hormon	-9.82343
▁hükümet	-9.82343
▁kesinlikle	-9.82343
▁olmuştur	-9.82343
▁pigment	-9.82343
▁prosedür	-9.82343
▁rekabet	-9.82343
▁sohbet	-9.82343
▁yeteneği	-9.82343
▁İnternet	-9.82343
▁Bitcoin	-9.82343
▁Dekorasyon	-9.82343
▁Excel	-9.82343
▁Londra	-9.82343
▁Tedavi	-9.82343
▁mutfağı	-9.82343
▁protein	-9.82343
▁steroid	-9.82343
▁Çeşitl	-9.82343
▁Üretim	-9.82343
▁çerezler	-9.82343
▁Arıtma	-9.82343
▁Sepeti	-9.82343
▁altyapı	-9.82343
▁aracılığıyla	-9.82343
▁direnci	-9.82343
▁gemisi	-9.82343
▁kuvvet	-9.82343
▁memnun	-9.82343
▁girişimci	-9.82343
▁havalimanı	-9.82343
▁kimyasal	-9.82343
▁onarım	-9.82343
▁rulman	-9.82343
▁sebep	-9.82343
▁yuva	-9.82343
landırılması	-9.82343
▁reaksiyon	-9.82343
▁Tekstil	-9.82344
▁ardından	-9.82344
▁klinik	-9.82344
nömatik	-9.82344
▁blok	-9.82344
▁geldiniz	-9.82344
erakende	-9.82344
landırıcı	-9.82344
▁verilmektedir	-9.82344
▁dönüştürme	-9.82344
▁komut	-9.82344
▁savaş	-9.82345
▁Ultra	-9.82345
▁kanepe	-9.82345
▁işletim	-9.82345
▁Masaj	-9.82345
▁madencili	-9.82345
▁bebeğin	-9.82345
▁görsel	-9.82345
▁Kamyon	-9.82345
▁Kapasite	-9.82345
▁ayrıntı	-9.82345
▁tahtası	-9.82345
▁zehir	-9.82345
▁Döv	-9.82346
▁sabah	-9.82346
▁trafi	-9.82346
▁bilezik	-9.82346
▁makara	-9.82347
▁LTD	-9.82347
▁bulabilirsiniz	-9.82347
▁Nasıl	-9.82347
▁website	-9.82347
▁Uzman	-9.82347
önüştürücü	-9.82348
▁fiber	-9.82348
▁makina	-9.82348
▁Bitki	-9.82349
▁yönelik	-9.82349
▁algıla	-9.8235
▁bilinen	-9.82353
▁Takip	-9.82354
▁çarp	-9.82354
▁Tarih	-9.82354
▁kemik	-9.82354
▁sefer	-9.82356
▁Nokta	-9.82356
▁Demir	-9.82357
▁kitle	-9.82358
▁Akdeniz	-9.82358
▁yarışma	-9.8236
hotel	-9.8236
▁Yatak	-9.8236
▁çaba	-9.8236
ulmuş	-9.82366
▁Kazan	-9.82366
▁Kimya	-9.82366
▁öldü	-9.82372
▁hoparlör	-9.82372
qui	-9.82373
siyonu	-9.82377
▁Film	-9.82378
▁dekorasyon	-9.82378
▁orijinal	-9.8238
ripto	-9.82382
▁isteğ	-9.82383
▁özgü	-9.82384
▁ekibi	-9.82385
▁tabi	-9.82386
▁akımı	-9.82388
▁faktör	-9.82389
▁demir	-9.82391
▁uyku	-9.82395
▁endüstrisinde	-9.82398
▁mono	-9.82398
▁klima	-9.82399
▁sivilce	-9.82401
▁dışarı	-9.82416
▁kapsamında	-9.82418
▁ihtiyacınız	-9.82418
olekül	-9.82418
▁Yayın	-9.82431
▁Fren	-9.82434
▁tarzı	-9.82442
▁Hint	-9.82445
▁kullanıldığı	-9.8245
▁bana	-9.82458
▁sırt	-9.82463
▁ilacı	-9.82467
▁sipariş	-9.82473
▁gizlilik	-9.82476
▁kolaylaştır	-9.82478
▁çekici	-9.82483
ilişim	-9.82484
volt	-9.82493
▁asker	-9.82495
▁oluşmaktadır	-9.82503
iyoloji	-9.82508
▁Satılık	-9.82514
▁bildirim	-9.82515
▁sürecinde	-9.82521
▁seramik	-9.82531
▁sağladığı	-9.82538
▁Saf	-9.82538
▁etmiş	-9.82539
▁Altın	-9.82541
▁istiyor	-9.82543
▁Asker	-9.82557
▁mobilya	-9.82564
▁kullanılması	-9.82565
▁ederken	-9.82565
POR	-9.82575
▁donatılmıştır	-9.82582
▁haber	-9.8261
▁yapılması	-9.8261
▁bildir	-9.82619
▁kanama	-9.82627
▁oluşur	-9.82638
▁tank	-9.82644
▁LIN	-9.82645
▁2008	-9.8266
▁Tüpü	-9.82667
▁üretmek	-9.82729
▁bilim	-9.82738
▁Kodu	-9.82744
▁Radyo	-9.82777
melisiniz	-9.82819
▁Sitemiz	-9.82822
APK	-9.82832
▁Rus	-9.82884
▁üstün	-9.82896
lgun	-9.82969
▁Sabi	-9.82979
▁hastalıkları	-9.82999
▁Benim	-9.83005
▁çıkarın	-9.8312
▁Yüz	-9.83154
▁boyun	-9.83184
▁esas	-9.8319
slında	-9.83363
▁kont	-9.83386
▁edecek	-9.83477
yıcı	-9.83558
▁ihtiyaçların	-9.8359
▁esn	-9.83638
▁tedavisinde	-9.83712
▁cas	-9.83714
▁oto	-9.83986
▁verilerinizi	-9.84157
eşil	-9.84204
laka	-9.84215
angın	-9.84345
erilim	-9.84427
▁faydaları	-9.84478
▁paylaşıl	-9.84582
VB	-9.84762
▁etkileye	-9.84815
▁gönderil	-9.84919
post	-9.8499
▁yükley	-9.85341
0.000	-9.85436
▁sektöründe	-9.85636
Plus	-9.85723
▁konuların	-9.86146
▁liste	-9.86165
oyma	-9.86233
▁Arka	-9.86334
▁kullanımını	-9.86488
rük	-9.86508
▁siteniz	-9.86664
▁merkezinde	-9.86895
▁gereksinim	-9.87299
ŞA	-9.874
▁wi	-9.87572
▁havaalanın	-9.88278
pire	-9.88307
▁başta	-9.88742
gua	-9.88973
ated	-9.8925
ağlam	-9.89821
▁dönüşü	-9.90641
▁Bunlar	-9.90728
uydu	-9.91066
üsü	-9.91304
▁performansın	-9.91745
▁süreçlerin	-9.92328
▁görüle	-9.93096
hite	-9.93536
▁Bilgisayar	-9.93539
▁sorunu	-9.93746
▁faaliyetleri	-9.93892
▁bulunma	-9.94547
sonuç	-9.94723
▁Apart	-9.95113
▁üre	-9.96049
▁olacağını	-9.96356
LARI	-9.96509
▁İzle	-9.97177
▁soru	-9.97253
_	-9.9765
▁çıkma	-9.97709
▁Doğu	-9.98243
grafi	-9.98498
▁döv	-9.98602
▁numara	-9.9873
oğutma	-9.98831
▁silin	-9.98877
işirme	-9.98881
rofesyonel	-9.98881
▁Suyu	-9.98893
adece	-9.98919
▁Kişi	-9.98948
öşe	-9.99002
е	-9.9901
▁Bölüm	-9.9901
▁ebeveyn	-9.9901
refabrik	-9.9901
Örneğin	-9.9901
üskürtme	-9.9901
▁Fethiye	-9.9901
▁Galvanizli	-9.9901
▁Laboratuvar	-9.9901
▁Madalya	-9.9901
▁Maskesi	-9.9901
▁Otomotiv	-9.9901
▁Restoran	-9.9901
▁Sistemleri	-9.9901
▁Strateji	-9.9901
▁Transfer	-9.9901
▁Vücut	-9.9901
▁anlayışı	-9.9901
▁efekti	-9.9901
▁egzersiz	-9.9901
▁etkileşim	-9.9901
▁futbol	-9.9901
▁küresel	-9.9901
▁kılavuz	-9.9901
▁lezzetli	-9.9901
▁mukavemet	-9.9901
▁otomobil	-9.9901
▁referans	-9.9901
▁semptom	-9.9901
▁tabaka	-9.9901
▁tablo	-9.9901
▁teşekkür	-9.9901
▁titreşim	-9.9901
▁xHamster	-9.9901
▁Öğrenci	-9.9901
▁çamaşır	-9.9901
▁çizgi	-9.9901
▁ışığın	-9.9901
▁şahıs	-9.9901
л	-9.9901
▁Avustralya	-9.9901
▁Derneği	-9.9901
▁Fotoğraf	-9.9901
▁Italian	-9.9901
▁Sıfır	-9.9901
▁Yumuşa	-9.9901
▁ambalaj	-9.9901
▁otobüs	-9.9901
▁Hediye	-9.9901
▁Kimyasalları	-9.9901
ppartementhotel	-9.9901
▁ifade	-9.9901
▁karışım	-9.9901
▁Marmaris	-9.9901
▁kapasitesi	-9.9901
▁klasik	-9.9901
▁modül	-9.9901
▁salonu	-9.9901
Т	-9.9901
▁Grubu	-9.9901
▁nitelikl	-9.9901
▁reçete	-9.9901
▁tablet	-9.9901
▁arıza	-9.9901
▁Blender	-9.99011
▁logo	-9.99011
▁zorunlu	-9.99011
▁Machine	-9.99011
▁sprey	-9.99011
▁Tallin	-9.99011
▁2014	-9.99011
▁Bahçe	-9.99011
▁Talebi	-9.99011
▁terminal	-9.99011
▁varsayılan	-9.99011
▁kurşun	-9.99011
▁zevk	-9.99011
▁arzu	-9.99012
▁Atlanti	-9.99012
▁beceri	-9.99012
▁imza	-9.99012
▁Restaurant	-9.99012
lmüş	-9.99012
▁Derece	-9.99012
▁bahis	-9.99012
remium	-9.99012
▁keyif	-9.99012
▁Politikası	-9.99012
▁tüketimi	-9.99013
▁pratik	-9.99013
▁olağanüstü	-9.99013
▁süper	-9.99013
▁Asyalı	-9.99014
▁House	-9.99014
▁parola	-9.99015
▁Durum	-9.99015
▁azalma	-9.99016
▁tepki	-9.99017
▁ISO	-9.99017
▁amino	-9.99017
▁sokak	-9.99018
▁foto	-9.99018
market	-9.99019
▁Hangi	-9.99019
▁sabit	-9.99019
▁Club	-9.99019
▁belirlemek	-9.9902
▁tutkal	-9.9902
▁Yamalar	-9.9902
▁Takım	-9.9902
▁kredi	-9.99022
▁Başkan	-9.99023
▁Center	-9.99023
▁torna	-9.99024
▁fitnes	-9.99029
▁Apartment	-9.9903
▁bulmak	-9.99031
▁Koruma	-9.99031
▁macun	-9.99032
iezo	-9.99035
▁kilit	-9.99038
RIA	-9.99038
▁Plaj	-9.99038
▁ülkemiz	-9.99041
karışık	-9.99042
▁edilmiş	-9.99042
▁makul	-9.99043
▁yatırma	-9.99044
▁Tatil	-9.99044
▁lok	-9.99046
▁kayded	-9.99054
▁dekor	-9.99057
▁amatör	-9.9906
▁eksen	-9.99063
▁farkında	-9.99067
▁pişiri	-9.99068
▁entegre	-9.9907
▁ayarlanabilir	-9.99073
▁kesim	-9.99076
▁eksiksiz	-9.9908
▁Centr	-9.9908
▁yangın	-9.99087
▁2018	-9.99088
▁saklı	-9.99093
▁tarif	-9.99097
▁defa	-9.99097
▁Araçlar	-9.99104
ASI	-9.99106
▁Saat	-9.99117
▁toplumu	-9.99119
▁edilebilir	-9.99123
LERİ	-9.99131
▁kartuş	-9.99134
▁süsle	-9.99143
hrin	-9.99145
▁arazi	-9.9915
▁yedekleme	-9.99152
▁takip	-9.99168
ronik	-9.99183
▁Anne	-9.99187
▁borusu	-9.99195
▁yaparken	-9.99202
▁Post	-9.99207
▁yargı	-9.99211
köy	-9.9923
▁hastalığı	-9.99237
Tube	-9.99246
▁duyula	-9.99261
▁genelinde	-9.99264
▁diyet	-9.99267
▁bölgesinde	-9.9927
▁Room	-9.99271
▁tasarımcı	-9.99272
gsm	-9.99277
▁2010	-9.99296
▁isten	-9.99302
▁sıklıkl	-9.99321
▁Step	-9.99374
laştırma	-9.99409
▁silme	-9.99443
▁görüntüleme	-9.99451
▁Ölü	-9.99458
▁ürünlerimiz	-9.99507
▁kullanır	-9.9954
▁Kolay	-9.99564
▁giyim	-9.99624
▁Tok	-9.99935
▁düğün	-10
try	-10.0023
▁hom	-10.003
▁varlıklarını	-10.0034
kayık	-10.0034
▁ismi	-10.0044
Resim	-10.0045
rill	-10.0068
urizm	-10.0092
aria	-10.0094
▁Tene	-10.0105
▁And	-10.0116
▁Serv	-10.0127
▁kurslar	-10.0145
▁birimleri	-10.015
▁güçlendir	-10.0158
ALARI	-10.016
▁suyunu	-10.0194
aritası	-10.0195
▁Çeki	-10.0196
vent	-10.021
blue	-10.0268
▁İnc	-10.0333
Porn	-10.0406
▁odaların	-10.0421
▁bileşenler	-10.0434
▁kazanı	-10.047
▁kalınlığı	-10.0507
▁içeriğini	-10.0614
▁gerçekleş	-10.0637
▁şekli	-10.0701
▁büyümesin	-10.0836
▁ulaşma	-10.0869
TEL	-10.087
▁Soru	-10.0871
▁almanı	-10.0944
andar	-10.097
stati	-10.0978
örneğin	-10.1043
▁sürecini	-10.1058
▁sağlığ	-10.1072
▁havaalanı	-10.1103
▁Metr	-10.1155
▁eşleş	-10.1182
▁gizli	-10.1214
▁bileşen	-10.1287
▁güvenliğini	-10.1389
lmadan	-10.1402
emel	-10.1441
▁karbon	-10.1583
▁programını	-10.1646
▁şehri	-10.1658
Genç	-10.176
▁tadın	-10.1772
düğünü	-10.1804
▁ölç	-10.1816
▁mobil	-10.1869
▁Jeneratör	-10.187
ipariş	-10.1883
q	-10.1886
kopi	-10.1888
▁yapıştır	-10.189
evcut	-10.1894
▁ömrü	-10.1897
▁hassas	-10.1899
▁yürüt	-10.1901
я	-10.1901
▁hukuk	-10.1901
androlon	-10.1901
н	-10.1901
▁Abdul	-10.1901
▁Deneyim	-10.1901
▁Firmamız	-10.1901
▁Köpük	-10.1901
▁Kıbrıs	-10.1901
▁Lütfen	-10.1901
▁Mahmutlar	-10.1901
▁Oludeniz	-10.1901
▁Sözleşme	-10.1901
▁Taşıma	-10.1901
▁Technology	-10.1901
▁Tehlike	-10.1901
▁Zengin	-10.1901
▁böcekler	-10.1901
▁bıçağı	-10.1901
▁coğraf	-10.1901
▁dedektörü	-10.1901
▁drenaj	-10.1901
▁festival	-10.1901
▁fosfat	-10.1901
▁gerçeği	-10.1901
▁heyecan	-10.1901
▁kaşığı	-10.1901
▁kıyafet	-10.1901
▁laboratuvar	-10.1901
▁resepsiyon	-10.1901
▁sembol	-10.1901
▁soruşturma	-10.1901
▁strateji	-10.1901
▁şiddet	-10.1901
Ukrayna	-10.1901
ompresör	-10.1901
▁Afrika	-10.1901
▁Aksesuar	-10.1901
▁Başvuru	-10.1901
▁Christi	-10.1901
▁Donanım	-10.1901
▁Emniyet	-10.1901
▁Nakliye	-10.1901
▁Otomasyon	-10.1901
▁Reklam	-10.1901
▁Savaş	-10.1901
▁Tarayıcı	-10.1901
▁Universit	-10.1901
▁bozukluğu	-10.1901
▁boğaz	-10.1901
▁kabartma	-10.1901
▁karayolu	-10.1901
▁otopark	-10.1901
▁tüccar	-10.1901
▁yükseltme	-10.1901
▁örgü	-10.1901
▁şarap	-10.1901
▁Arabistan	-10.1901
▁Internet	-10.1901
▁Seviye	-10.1901
▁tekerlek	-10.1901
ikolata	-10.1901
▁High	-10.1901
▁Kaydet	-10.1901
▁temsil	-10.1901
▁görünüyor	-10.1901
▁kavram	-10.1901
▁parametre	-10.1901
▁Çekme	-10.1901
▁Fatih	-10.1901
▁machine	-10.1901
▁sanatçı	-10.1901
▁sensör	-10.1901
▁yenilikçi	-10.1901
▁Blok	-10.1901
Arşiv	-10.1901
▁VPN	-10.1901
▁Önceki	-10.1901
▁iPad	-10.1901
▁banka	-10.1901
▁Şehir	-10.1901
▁akşam	-10.1901
▁stator	-10.1901
▁Soğuk	-10.1901
▁meydan	-10.1901
▁Doktor	-10.1901
▁Teslim	-10.1901
▁Madencili	-10.1901
▁arkasında	-10.1901
▁dinlenme	-10.1901
▁nikel	-10.1901
▁Office	-10.1901
▁gövde	-10.1901
▁bobin	-10.1901
Performans	-10.1901
▁Tablet	-10.1901
▁proto	-10.1901
▁şişe	-10.1901
▁Banka	-10.1901
▁dinami	-10.1901
▁Müdür	-10.1901
▁örtü	-10.1901
▁bükme	-10.1901
▁Glob	-10.1901
▁plaj	-10.1901
▁Project	-10.1901
▁arttırmak	-10.1901
▁müzik	-10.1901
njeksiyon	-10.1901
▁önlemler	-10.1901
▁duyarlı	-10.1901
▁mutlu	-10.1901
▁Finans	-10.1901
▁Black	-10.1901
▁Tesis	-10.1901
▁İşletme	-10.1901
▁oluyor	-10.1902
▁maske	-10.1902
▁torba	-10.1902
▁Kumaş	-10.1902
▁Torba	-10.1902
▁saldırı	-10.1902
▁Toplum	-10.1902
▁fikir	-10.1902
▁organizasyon	-10.1902
▁vergi	-10.1902
▁benimser	-10.1902
▁Yöntem	-10.1902
▁Amatör	-10.1902
▁Mikro	-10.1902
▁eleman	-10.1902
▁seviyor	-10.1902
ürosu	-10.1902
▁versiyonu	-10.1902
▁sınav	-10.1902
▁aşamasında	-10.1902
▁damga	-10.1902
▁nakit	-10.1902
▁Mayıs	-10.1902
▁tutulması	-10.1903
▁KES	-10.1903
▁kabuk	-10.1903
▁Cafe	-10.1903
▁dayanımı	-10.1903
▁araştırmacılar	-10.1904
▁çatı	-10.1904
▁yaratıcı	-10.1904
▁Garden	-10.1904
▁alkol	-10.1904
▁Basit	-10.1904
▁ateş	-10.1905
▁stok	-10.1905
▁kurulmuş	-10.1905
irkaç	-10.1905
que	-10.1905
▁Iron	-10.1905
▁metin	-10.1906
▁kullanıyoruz	-10.1906
üslü	-10.1907
mpany	-10.1907
▁mekanizma	-10.1907
▁iyileştirme	-10.1907
▁lenf	-10.1908
▁kullanırken	-10.1908
▁Yüzey	-10.1908
▁Kamera	-10.1908
▁aygıt	-10.1909
▁bulunama	-10.1909
▁aydınl	-10.1909
▁Leno	-10.1909
bancı	-10.1909
▁ilerleme	-10.1909
▁ajan	-10.1909
▁korur	-10.1909
▁çalıştığı	-10.191
▁Plaz	-10.191
▁disk	-10.191
▁boşluk	-10.1911
▁ısıtıcı	-10.1911
▁butonu	-10.1911
▁bulaşı	-10.1911
▁sağlayacak	-10.1911
▁Güm	-10.1912
hats	-10.1912
yıklama	-10.1913
▁atık	-10.1913
▁Yaka	-10.1913
▁Yapımı	-10.1914
Sonraki	-10.1915
oskopi	-10.1916
▁tutku	-10.1918
▁alabil	-10.1918
▁Cap	-10.1919
▁Derin	-10.1919
▁deneme	-10.1919
▁gitme	-10.192
▁katılma	-10.1922
ngxi	-10.1922
▁çalışanlarımız	-10.1923
atırım	-10.1923
▁kanıt	-10.1924
▁kullanıyor	-10.1925
▁Manu	-10.1926
▁kalbin	-10.1927
▁kurallar	-10.1927
▁kalem	-10.1928
▁Kapağı	-10.1931
▁iletim	-10.1933
▁haddele	-10.1936
akviye	-10.1939
ostero	-10.1942
▁ekimi	-10.1946
▁Soka	-10.1948
▁ölçek	-10.1956
▁düzeltil	-10.1956
▁Opti	-10.1958
▁Parlat	-10.196
▁Dağıtı	-10.1961
NIM	-10.1962
erfor	-10.1968
▁kaybol	-10.197
ografisi	-10.1971
▁sakin	-10.1973
rtesi	-10.1976
eceğiniz	-10.1982
▁anlatı	-10.1989
amuk	-10.1993
arayıcınızın	-10.1995
▁muslu	-10.2003
▁konukları	-10.2039
▁You	-10.2048
▁meta	-10.2056
nstant	-10.2059
▁term	-10.2063
ternati	-10.2065
▁kırılma	-10.207
▁binalar	-10.2072
lendirici	-10.2102
▁nitr	-10.2104
▁istediği	-10.2106
▁Kablosu	-10.2124
Dönem	-10.2126
▁yayıl	-10.2128
▁biliyor	-10.2131
▁bilgisayarınız	-10.2136
tepe	-10.215
yfin	-10.2225
andy	-10.2232
labildiğin	-10.224
▁saklan	-10.2278
▁projesin	-10.2285
▁cihazınız	-10.2345
▁korunması	-10.235
partman	-10.2384
▁sözlük	-10.242
▁hakları	-10.2437
▁Ters	-10.2448
▁edildiği	-10.2464
▁telefonunuz	-10.2548
▁Madde	-10.2724
Mavi	-10.2849
indirim	-10.2849
aşımı	-10.3032
addesi	-10.3156
bük	-10.3171
iyim	-10.3176
▁teras	-10.3488
leşmesi	-10.364
roduct	-10.3689
▁Kurut	-10.369
▁işlemlerin	-10.3838
▁korun	-10.3859
▁Dön	-10.4125
ağlığı	-10.4196
ocuğun	-10.4247
normal	-10.4264
▁karşılaştı	-10.4305
özlükler	-10.4322
▁Parça	-10.4358
▁istey	-10.4372
▁Kullan	-10.4389
üvenliği	-10.4389
ağlantı	-10.4389
▁sivil	-10.439
ntegre	-10.4393
oparlör	-10.4396
▁Tedarik	-10.4397
▁muhte	-10.4398
ışıklık	-10.4401
▁elektro	-10.4401
arsayılan	-10.4401
ultipleks	-10.4401
в	-10.4401
▁atölye	-10.4401
▁keşfedi	-10.4401
Shanghai	-10.4401
é	-10.4401
í	-10.4401
▁Süpürge	-10.4401
▁segment	-10.4401
▁yetişkin	-10.4401
ofloksasin	-10.4401
üspansiyon	-10.4401
ütüphanesi	-10.4401
м	-10.4401
▁Bisiklet	-10.4401
▁Cinsiyet	-10.4401
▁Fabric	-10.4401
▁Fermuar	-10.4401
▁Festival	-10.4401
▁Frekans	-10.4401
▁Kahvaltı	-10.4401
▁Kavrama	-10.4401
▁Konferans	-10.4401
▁Konteyn	-10.4401
▁Mektup	-10.4401
▁Merdiven	-10.4401
▁Oluştur	-10.4401
▁Porsche	-10.4401
▁Program	-10.4401
▁Smartphone	-10.4401
▁Twitter	-10.4401
▁Uygun	-10.4401
▁Victori	-10.4401
▁Yardımcı	-10.4401
▁Zımpara	-10.4401
▁belediye	-10.4401
▁bozulması	-10.4401
▁dükkanı	-10.4401
▁eVET	-10.4401
▁global	-10.4401
▁gübre	-10.4401
▁hissed	-10.4401
▁ipuçları	-10.4401
▁istanbul	-10.4401
▁kompozisyon	-10.4401
▁mülteci	-10.4401
▁patojen	-10.4401
▁reaktivite	-10.4401
▁sandalye	-10.4401
▁sertifika	-10.4401
▁soğutucu	-10.4401
▁talimat	-10.4401
▁tehlike	-10.4401
▁ultrason	-10.4401
▁unutmayın	-10.4401
▁unutulma	-10.4401
▁yetkili	-10.4401
▁zencefil	-10.4401
▁zımpara	-10.4401
▁Çözüm	-10.4401
▁İletişim	-10.4401
▁Şampiyon	-10.4401
▁şantiye	-10.4401
▁şemsiye	-10.4401
▁şırınga	-10.4401
ezgahı	-10.4401
▁Barselona	-10.4401
▁Chrome	-10.4401
▁Danışman	-10.4401
▁Duyuru	-10.4401
▁Ekonomi	-10.4401
▁Garanti	-10.4401
▁KALİTE	-10.4401
▁Katkısı	-10.4401
▁Linux	-10.4401
▁Power	-10.4401
▁World	-10.4401
▁aksesuar	-10.4401
▁ayakkabı	-10.4401
▁implant	-10.4401
▁istikrar	-10.4401
▁makyaj	-10.4401
▁muayene	-10.4401
▁söylüyor	-10.4401
▁teşhis	-10.4401
▁İzolasyon	-10.4401
lezbiyen	-10.4401
peptid	-10.4401
propilen	-10.4401
▁Ayarlanabilir	-10.4401
▁Kaldırma	-10.4401
▁Tablo	-10.4401
▁Venedik	-10.4401
▁Yargı	-10.4401
▁balkon	-10.4401
▁barındırma	-10.4401
▁bıçak	-10.4401
▁doktorunuz	-10.4401
▁dâhi	-10.4401
▁kariyer	-10.4401
▁katılımcılar	-10.4401
▁komisyon	-10.4401
▁paylaşma	-10.4401
▁politikası	-10.4401
▁vakıf	-10.4401
▁çoğal	-10.4401
▁İlişki	-10.4401
▁Bıçak	-10.4401
▁Müzesi	-10.4401
▁ayarlandığı	-10.4401
▁sıfır	-10.4401
▁yalıtım	-10.4401
kelepçe	-10.4401
▁Dedektörler	-10.4401
▁Yazıcı	-10.4401
▁oluşturulması	-10.4401
ä	-10.4401
▁Ecza	-10.4401
▁rehber	-10.4401
▁Bruns	-10.4401
Deluxe	-10.4401
▁Elbise	-10.4401
▁Tipard	-10.4401
▁düzgün	-10.4401
▁tencere	-10.4401
▁çeviri	-10.4401
egülatör	-10.4401
etenolon	-10.4401
▁YENİ	-10.4401
HDPE	-10.4401
с	-10.4401
▁Gümüş	-10.4401
▁mikrosko	-10.4401
▁huzur	-10.4401
▁talebi	-10.4401
▁uğra	-10.4401
▁egzo	-10.4401
▁klasör	-10.4401
▁Aşınma	-10.4401
▁Ceket	-10.4401
▁Esnek	-10.4401
▁tırnak	-10.4401
▁sarhoş	-10.4401
▁çorba	-10.4401
▁Suites	-10.4401
▁eğilim	-10.4401
▁göğüsl	-10.4401
▁Çevre	-10.4401
▁Arkadaş	-10.4401
▁animasyon	-10.4401
▁başardı	-10.4401
▁formül	-10.4401
▁okuyun	-10.4401
▁vatandaşl	-10.4401
▁işçilik	-10.4401
▁Granül	-10.4401
▁Yedek	-10.4401
▁yığın	-10.4401
▁kamyon	-10.4401
▁doktor	-10.4401
▁artırır	-10.4401
▁eğitme	-10.4401
▁RGB	-10.4401
▁iğne	-10.4401
▁sunumun	-10.4401
olyester	-10.4401
▁Almanya	-10.4401
▁Güney	-10.4401
▁jakar	-10.4401
▁dantel	-10.4401
▁hizmetinizde	-10.4401
▁kullanışlı	-10.4401
▁aerob	-10.4401
▁yazıcı	-10.4401
eceğiz	-10.4401
▁Mesaj	-10.4401
▁örtüsü	-10.4401
▁Tayvan	-10.4401
▁çizim	-10.4401
▁Kurumu	-10.4401
▁element	-10.4401
▁uyandır	-10.4401
▁yerleşimin	-10.4401
▁Kongre	-10.4401
▁denetim	-10.4401
▁kuzey	-10.4401
▁tanıtım	-10.4401
▁Protein	-10.4402
▁hazine	-10.4402
▁Hayır	-10.4402
▁Bağış	-10.4402
▁Etkinlik	-10.4402
▁rakip	-10.4402
▁kılıf	-10.4402
▁otomasyon	-10.4402
▁hasarı	-10.4402
▁organizma	-10.4402
▁ağaç	-10.4402
▁kırışıklık	-10.4402
▁nefes	-10.4402
sfalt	-10.4402
▁elyaf	-10.4402
▁Riyali	-10.4402
▁Word	-10.4402
▁aktarımı	-10.4402
▁aldığınızda	-10.4402
:04	-10.4402
▁kompl	-10.4402
▁durağı	-10.4402
▁ütüsü	-10.4402
▁hakkınızda	-10.4402
▁modu	-10.4402
▁hepsi	-10.4402
▁Koyun	-10.4402
▁staj	-10.4402
▁slot	-10.4402
▁Tekrar	-10.4402
▁Nokia	-10.4403
▁ambar	-10.4403
▁Süper	-10.4403
▁buldu	-10.4403
Devamı	-10.4403
▁değişiklikleri	-10.4403
▁yapışma	-10.4403
evimli	-10.4403
▁Okuma	-10.4403
-23	-10.4403
▁SCH	-10.4403
▁hotels	-10.4403
▁Foto	-10.4403
▁görüntüsü	-10.4403
oltuğu	-10.4404
▁özelleştirme	-10.4404
▁Bugün	-10.4404
▁kopya	-10.4404
▁Lisans	-10.4404
▁cnc	-10.4404
▁Aletleri	-10.4404
▁Kalem	-10.4404
▁muhtemel	-10.4404
ülfüri	-10.4404
▁stres	-10.4404
▁şişme	-10.4404
▁direk	-10.4404
faza	-10.4405
▁Şekillendir	-10.4405
▁MET	-10.4405
▁erişilebilirli	-10.4405
▁ömrünü	-10.4406
▁düzeltme	-10.4406
▁Parti	-10.4406
▁püre	-10.4407
▁nesil	-10.4407
▁kaydırma	-10.4408
▁Ödül	-10.4408
▁Palet	-10.4408
▁makam	-10.4409
▁Kullanıla	-10.4409
▁ilha	-10.4409
▁paten	-10.4409
▁Muse	-10.4409
▁Onay	-10.441
▁kesici	-10.4411
▁kardiy	-10.4411
NKO	-10.4411
▁öğeleri	-10.4416
▁tuşu	-10.4416
▁yaptık	-10.4416
▁bilmiyor	-10.4418
izikler	-10.4418
▁paralel	-10.4424
view	-10.4424
▁Poke	-10.4427
▁olaylar	-10.4437
▁Interna	-10.4437
▁aşınma	-10.4438
▁edebilme	-10.4438
udaklar	-10.4438
▁Ermeni	-10.4451
▁sağlıyor	-10.4452
eraber	-10.4457
olayısıyla	-10.446
setat	-10.4467
lektronik	-10.4491
▁Yakın	-10.4492
▁Nitr	-10.4513
abancası	-10.4515
▁edebileceği	-10.4568
▁binası	-10.4571
SET	-10.4576
Aakg	-10.4584
ılmaz	-10.4658
ıyasla	-10.4662
▁kaçınma	-10.473
aygı	-10.4748
aşkın	-10.4796
▁olacağı	-10.4833
▁onaylanma	-10.4861
▁Tung	-10.4969
▁Düzenl	-10.5065
▁olasılıkla	-10.5459
▁Kitle	-10.623
▁kültür	-10.6286
▁ayarlanma	-10.6475
▁organ	-10.6554
ettiğimiz	-10.6913
▁Merkez	-10.6976
▁paylaşı	-10.718
▁olabil	-10.7291
▁Kablo	-10.7349
Teknoloji	-10.7591
Berry	-10.7592
bakteri	-10.7592
▁dürüst	-10.7597
▁konakla	-10.7631
▁filtr	-10.7636
▁Dönüş	-10.764
▁Ekipman	-10.7691
▁Havu	-10.7692
▁anlatma	-10.7701
apılacak	-10.7707
ndroid	-10.7715
eçeneği	-10.7717
▁Görünü	-10.7718
eçerli	-10.7723
rijinal	-10.7725
aksimum	-10.7728
▁Endüstri	-10.7733
▁olağan	-10.7734
▁meslek	-10.7734
α	-10.7734
б	-10.7734
д	-10.7734
▁Baharatı	-10.7734
▁püskürtü	-10.7734
▁avukat	-10.7734
▁ekstrü	-10.7734
▁eldiven	-10.7734
▁olgunlaş	-10.7734
▁yetkilendir	-10.7734
▁Öğret	-10.7734
Arjantin	-10.7734
Download	-10.7734
Güncelleme	-10.7734
Orgazm	-10.7734
abarcıklar	-10.7734
cyclin	-10.7734
eseptör	-10.7734
laştırıldığında	-10.7734
script	-10.7734
yabilmemiz	-10.7734
ν	-10.7734
п	-10.7734
ь	-10.7734
▁0-0,	-10.7734
▁Akvaryum	-10.7734
▁Aquatec	-10.7734
▁Archive	-10.7734
▁Ayaydın	-10.7734
▁Cerrahi	-10.7734
▁Collection	-10.7734
▁Cumhuriyet	-10.7734
▁Dergisi	-10.7734
▁Electronic	-10.7734
▁Ethereum	-10.7734
▁Giyinik	-10.7734
▁Holding	-10.7734
▁Industrial	-10.7734
▁Karşılaştırma	-10.7734
▁Kilisesi	-10.7734
▁Kulübü	-10.7734
▁Kusadasi	-10.7734
▁Mercedes	-10.7734
▁Normalde	-10.7734
▁Otomobil	-10.7734
▁Otopark	-10.7734
▁Packag	-10.7734
▁Pipedrive	-10.7734
▁Potansiyel	-10.7734
▁Residence	-10.7734
▁Swift	-10.7734
▁Söndürücü	-10.7734
▁Sözlük	-10.7734
▁Sıkıştırma	-10.7734
▁Temizleyici	-10.7734
▁Vintage	-10.7734
▁YAZILIM	-10.7734
▁Yalıtım	-10.7734
▁adlandırılı	-10.7734
▁atmosfer	-10.7734
▁batarya	-10.7734
▁bloğu	-10.7734
▁bornozlar	-10.7734
▁bulunmuştur	-10.7734
▁buluştu	-10.7734
▁büzülme	-10.7734
▁dezavantaj	-10.7734
▁distribütör	-10.7734
▁efektler	-10.7734
▁gürültü	-10.7734
▁intoleransı	-10.7734
▁konektörü	-10.7734
▁konfigürasyon	-10.7734
▁konsantrasyonl	-10.7734
▁kuaför	-10.7734
▁laminasyon	-10.7734
▁müdahale	-10.7734
▁mülkiyet	-10.7734
▁olabileceğini	-10.7734
▁patates	-10.7734
▁peyzaj	-10.7734
▁spektrum	-10.7734
▁standardı	-10.7734
▁sterilizasyon	-10.7734
▁sunucularımız	-10.7734
▁sızıntı	-10.7734
▁tezahür	-10.7734
▁toplayıp	-10.7734
▁trombo	-10.7734
▁yetiştirme	-10.7734
▁yumurta	-10.7734
▁Çeviri	-10.7734
▁Örnek	-10.7734
▁ÜRETİCİLER	-10.7734
▁çekinmeyin	-10.7734
▁östrojen	-10.7734
▁özerklik	-10.7734
▁öğretmen	-10.7734
▁üniversite	-10.7734
▁İhtiyacınız	-10.7734
▁İsviçre	-10.7734
▁şezlonglar	-10.7734
▁şikayet	-10.7734
▁şövalye	-10.7734
Miroglio	-10.7734
keşfetme	-10.7734
milimetre	-10.7734
▁Araştırma	-10.7734
▁Avrasya	-10.7734
▁Bütün	-10.7734
▁Hesabınız	-10.7734
▁Kurtarma	-10.7734
▁Köyü	-10.7734
▁Küresel	-10.7734
▁Mağaza	-10.7734
▁Muğla	-10.7734
▁Zayıf	-10.7734
▁albüm	-10.7734
▁alındığında	-10.7734
▁frekans	-10.7734
▁gerginli	-10.7734
▁ittifak	-10.7734
▁ligasyonu	-10.7734
▁peynir	-10.7734
▁turnuva	-10.7734
▁uygulayıcı	-10.7734
▁uğrun	-10.7734
▁çatlak	-10.7734
▁çatışmalar	-10.7734
▁üniform	-10.7734
mülatörü	-10.7734
odülatör	-10.7734
sigorta	-10.7734
ıldönümü	-10.7734
▁Boyunlu	-10.7734
▁Cıvata	-10.7734
▁Hücre	-10.7734
▁Photoshop	-10.7734
▁Psikoloji	-10.7734
▁Transformat	-10.7734
▁ceketi	-10.7734
▁direksiyon	-10.7734
▁fikstür	-10.7734
▁kabiliyet	-10.7734
▁metalurji	-10.7734
▁metalürji	-10.7734
▁solüsyonu	-10.7734
▁yapışkan	-10.7734
ömork	-10.7734
ر	-10.7734
у	-10.7734
Р	-10.7734
т	-11.2734
ð	-11.2734
Â	-11.2734
ê	-11.2734
þ	-11.2734
Ə	-11.2734
В	-11.2734
й	-11.2734
י	-11.2734
ت	-11.2734
ی	-11.2734
ộ	-11.2734
Ð	-11.2734
æ	-11.2734
ι	-11.2734
א	-11.2734
ר	-11.2734
λ	-11.2734
Б	-12.2734
щ	-12.2734
ë	-12.2734
Č	-12.2734
š	-12.2734
Φ	-12.2734
С	-12.2734
Ø	-12.2734
À	-12.2734
Á	-12.2734
à	-12.2734
è	-12.2734
î	-12.2734
ñ	-12.2734
ô	-12.2734
û	-12.2734
ł	-12.2734
ń	-12.2734
ɪ	-12.2734
ά	-12.2734
έ	-12.2734
κ	-12.2734
τ	-12.2734
І	-12.2734
А	-12.2734
Ж	-12.2734
М	-12.2734
П	-12.2734
г	-12.2734
з	-12.2734
х	-12.2734
ц	-12.2734
ч	-12.2734
ш	-12.2734
ъ	-12.2734
ы	-12.2734
ҫ	-12.2734
ה	-12.2734
נ	-12.2734
ת	-12.2734
ا	-12.2734
ب	-12.2734
ي	-12.2734
ک	-12.2734
ヤ	-12.2734
ル	-12.2734
中	-12.2734
乐	-12.2734
体	-12.2734
国	-12.2734
城	-12.2734
娱	-12.2734
导	-12.2734
文	-12.2734
日	-12.2734
本	-12.2734
者	-12.2734
語	-12.2734
际	-12.2734
국	-12.2734
니	-12.2734
아	-12.2734
어	-12.2734
오	-12.2734
일	-12.2734
전	-12.2734
텔	-12.2734
한	-12.2734
호	-12.2734
س	-12.2734
ش	-12.2734
ع	-12.2734
و	-12.2734
简	-12.2734
Ε	-12.2734
η	-12.2734
Г	-12.2734
Е	-12.2734
З	-12.2734
ב	-12.2734
ו	-12.2734
ע	-12.2734
ק	-12.2734
ア	-12.2734
タ	-12.2734
ン	-12.2734
领	-12.2734
к	-12.8166
