t h
i n
e r
a n
th e
o n
e d
o r
a t
r e
e n
a l
a r
a s
i s
o f
e s
an d
in g
i t
t o
i c
o u
i on
s t
h e
r o
l e
a c
en t
s e
i l
o l
a d
f or
a m
o m
w as
l y
b e
c h
i r
u r
d e
i m
v e
t er
i th
o w
T he
at ion
i g
a y
u n
w h
w ith
v er
th at
c t
c on
u m
er e
c e
u l
o t
a g
e l
i d
b y
a p
e t
1 9
h is
p l
u s
u t
t r
p ro
e m
re s
a in
l o
s h
s u
c om
n d
a b
al l
0 0
er s
o d
is t
w ere
ro m
es t
i v
i es
o p
or d
e ar
a re
e x
f rom
is h
ar t
at e
I n
i f
an t
en d
p o
e w
s o
ig h
th er
ic h
a f
a v
b er
t e
or t
at ed
m an
i p
a k
p e
p er
c l
r it
g h
on g
l d
i ve
ar d
es s
am e
il l
r ou
it y
m ent
q u
h ad
ac t
i an
i a
ow n
i al
wh ich
p r
on e
st r
ou t
o ver
m o
C h
ac k
t w
h er
p t
u d
l i
ou r
c r
n ot
p ort
ar y
as s
2 0
o g
a ve
igh t
d u
i de
in e
in t
2 00
a w
e v
or k
o c
g e
b ut
a ir
for m
al so
it s
the ir
u p
t im
it ion
re c
f ir
as t
ac h
ic al
r an
ig n
S t
or e
u b
H e
pl ay
l ow
ou s
ol d
at t
b o
un d
ou ld
p art
n e
ou nd
p res
om e
of f
ct ion
20 1
u re
T h
sh ip
at er
wh o
s c
v i
u e
h as
i b
k e
fir st
ar k
po s
o ther
ou n
ul t
ur ing
i re
ou gh
l l
s er
b um
d is
c re
th is
a u
A r
g od
m on
tw o
ag e
an s
al bum
or y
f e
ation s
i ed
1 8
re e
c o
h ave
s he
con t
en ce
o k
as on
be en
in d
p h
i z
y ear
af ter
al ly
it ies
d es
g r
ad e
i le
ord an
p re
m e
I t
el l
J ordan
it ed
i e
P ol
tim e
it e
ap p
com p
g u
c ed
ar ch
l and
c k
r u
s p
S h
m ain
r on
f er
com m
und er
ol og
le as
l es
ent s
U n
ic t
il m
n ew
in ter
re g
B rit
l ar
an ce
f l
m ore
the y
al s
A n
in cl
se ason
th ough
w ork
ub l
ab le
R e
rou gh
an n
ic e
rec ord
c ess
con d
re t
19 9
mo st
c es
p ubl
F e
g an
f in
ur n
in to
m in
c ent
rou nd
re leas
s ing
t en
o b
s on
v ed
s pe
il d
S e
ar r
ing s
a il
f ilm
m y
the m
e f
j e
us ed
pro du
w e
ul ar
ct ed
s y
ac e
n o
h im
ic k
d uring
str u
s k
g o
incl ud
w ould
ion s
for e
t ed
us ic
se l
he el
a e
su b
en er
W heel
or s
god s
T own
t y
c ame
on ly
n um
ul l
man y
Wheel er
c ial
on y
p ol
at es
N o
t s
a z
ation al
g ame
I nd
re n
G er
s ome
h igh
po int
be ing
er ed
e ver
m er
d r
w ay
Brit ish
f our
or th
af t
b as
i x
th ree
g y
A s
I I
m ber
s ong
o y
ro w
v is
ae olog
th rough
D e
u se
r ed
l ed
c i
te am
se cond
a th
ol low
ard s
je ct
b u
in s
re l
ish ed
am es
wh ere
s end
Y ork
Pol ish
w rit
ch ar
wh ile
c er
r a
A u
p ed
S he
i el
A l
e le
o s
an y
t on
ak e
su ch
ter n
ter s
re at
the n
e en
Ch r
Town send
con s
ab out
ou th
ag ain
ar m
ver s
O n
00 0
is s
l ater
m ade
his t
A f
th an
i ous
E gy
at ing
or ld
o se
pres ent
wh en
m em
c ol
ic an
a id
s ur
N ew
k n
w ar
le ad
m as
Egy pt
su p
d ay
or n
m et
Ger man
f ollow
t ain
num ber
be fore
ic s
c lo
an g
b all
19 8
b ack
en s
re main
C om
publ ic
f t
s ign
il y
bo th
o st
d o
b r
Chr ist
c av
is ed
in v
ow er
o h
l ong
op er
lo c
the se
ist s
L e
ch o
c an
am p
to p
se ver
iel d
if ic
sel f
w ell
ant im
Fe y
e p
th ere
B l
19 4
iv ed
vi ew
on d
W h
u st
m usic
it t
ar s
li ke
be tw
betw een
over n
year s
cr aft
u al
al e
A t
m a
releas ed
ad d
a h
cont in
app ear
C l
be gan
Af ter
ear ly
s s
sc or
g round
ser v
fe at
u res
se t
c ord
m b
c oun
v ar
c ur
off ic
f ul
c ould
3 0
e k
be came
if e
Un ited
st ud
w in
ct or
de p
oc k
E n
d ol
1 0
h um
s ide
is e
T his
C on
o ot
all ed
f ield
char ac
ex t
n ing
i o
en g
1 5
arch aeolog
ion al
a i
et s
s m
g un
c ap
Egypt ian
re ce
su c
ut e
ur y
g old
N B
antim ony
al k
d iv
cl ass
as h
st ate
s ed
et y
g g
rou p
ret urn
v en
ag ed
to w
at ive
m ed
ig in
per i
kn own
sever al
d am
c ar
cho ol
st it
air craft
de ities
ve lo
des ign
d ire
tr ans
d if
p ers
de c
id ent
im e
C ol
c over
Christ mas
ship s
l ay
ment s
c rit
f ound
he ad
tr y
dol lar
iz ed
suc cess
l ight
end ed
includ ing
F or
p op
ir ed
r i
A ll
b ers
in es
ener al
ow ever
c ut
de velo
M ay
op le
at ch
J oh
so ci
ag ue
or igin
id ed
c au
ill ion
G A
again st
ak ing
in ed
h al
on es
h y
ser ies
p ar
itt le
ur al
pl ac
1 7
T ru
No ve
pos ition
er n
s aid
Joh n
re port
sh ow
l a
st and
id es
g l
gu st
st e
1 2
s is
des cr
b ro
con tr
m il
res s
play ed
is m
w o
c ult
iv a
on s
act ion
ran g
pro m
A mer
Nove mber
ce pt
r y
is su
A c
B e
sm all
om in
l ine
Sh iva
NB A
W ar
ur t
p ower
pro ject
tr ack
O c
g roup
d own
ib le
he l
f ive
cau se
as e
c are
f le
s ame
al though
le g
ve l
in ce
st art
hist ory
A ir
Tru j
il lo
bo ok
pl ace
om an
part ic
d id
c alled
f am
res ult
Truj illo
b att
con stru
aw ay
a ther
19 3
201 3
lar ge
e ach
comp le
em p
ord er
sup port
l ist
ur ed
re present
am ed
form ed
5 0
1 1
Oc to
Octo ber
J an
m iss
qu ad
sing le
to ok
be li
Ind ia
ir d
al ong
un g
u ally
ap pro
l ess
il ity
r al
m ark
m illion
i um
ex cav
h and
com e
1 3
fl u
cord ing
bu ild
overn ment
j o
g iv
ro y
follow ing
u ch
p ur
b ar
ro ss
cont ro
av y
un t
w orld
un e
an k
N orth
c our
descr ib
200 7
A m
ide o
rece ived
i er
h ome
j or
s ite
at ter
le ft
includ ed
19 7
19 2
en n
K ing
j ust
charac ter
contin u
o th
R ock
u c
C ar
i vers
S ap
ain ed
op en
pers on
s ix
1 4
pe ople
care er
S o
f ic
v es
t ing
if ied
cr u
use um
l ife
ab l
at or
um b
S tr
um ent
Sap rang
es e
releas e
spe c
pe ct
act iv
re qu
A pr
Apr il
A d
p ass
M ark
De ce
it ary
re st
dif fer
add ition
l s
hal f
U S
in cre
h o
or gan
200 6
Dece mber
y r
em pl
cons id
em pt
I s
ev en
ch ild
s chool
ut ion
g ames
l im
in k
Com m
C A
il t
St ates
r um
g en
all ow
a im
ro te
A w
hum an
pl an
R ou
S b
The y
oun g
res p
mo ved
peri od
Au gust
ent ly
c y
ag re
for d
we ek
tr ad
re w
n ational
Rou te
f ig
b l
Ch ar
ar ound
ar g
with in
ain ing
pr of
W orld
est abl
an other
c up
describ ed
y s
sk i
ad o
B r
for man
gr af
ate ly
J une
n ame
th or
n ear
M e
i ety
ther n
F ran
L ond
Lond on
quad ron
E u
ach ed
produ ced
sy n
pt em
ch art
re view
S outh
at ure
f ur
b and
in flu
r ight
in ch
u ary
vi ous
point s
i but
po st
b od
b le
r ic
d er
n ow
ro pe
s ol
il ot
Mark graf
F urt
Furt ado
pos ed
ou se
G eneral
v ol
N e
Se ptem
Septem ber
pres s
R o
18 6
1 6
T r
om en
19 5
d om
er o
th ird
re al
av ing
D uring
d en
ap h
P ro
fin al
L ittle
and er
n amed
J ack
att empt
ical ly
go al
19 6
gg est
in a
Sh ol
Shol ay
lo ck
Th ere
ma jor
inv ol
m uch
or m
he ld
re ad
W est
mon th
fam ily
w rote
P r
re ak
R oman
ir c
per forman
V alk
ro le
pre vious
ial ly
th ose
s im
le ct
d est
wh at
i k
f ac
M usic
g ener
U K
v al
ev ent
ron t
bu ilt
Amer ican
publ ished
im es
su ggest
ant i
se en
W e
A li
en al
201 0
origin al
as k
se qu
c or
partic ular
pro v
h old
v ent
ction s
ag es
f ly
of ten
al y
Eu rope
Ar ch
comm er
n ed
pol it
pr im
Valk yr
al es
t urn
le ar
t ro
M a
l ast
ch an
prom ot
ive ly
i or
le t
em ent
c he
m ay
v an
m i
rel ig
comm un
im port
J u
ull s
y ing
return ed
mem bers
fe ct
Ar my
f em
in it
at on
pos s
s ince
Ind ian
be cause
be h
2 5
n orth
k m
C an
2 1
form er
Jan uary
differ ent
st em
g reat
O r
unt il
vis ion
b ru
p ut
nd er
are a
C ity
w on
scor ed
R ed
Brit ain
M ad
Valkyr ia
record ed
end ing
through out
st at
M ar
c ity
st ated
Fe bru
Febru ary
E x
t it
l an
song s
constru ction
s it
dr aw
i ver
ro ad
w ater
a el
Au str
ul f
H owever
ev ed
c irc
a er
E aton
Arch aeolog
B ulls
mil itary
oper ations
play er
c us
s old
m ake
du e
p ite
um ents
ste ad
m en
e qu
s outh
de f
F in
div ine
s ound
p or
th ing
f ire
not ed
continu ed
H is
f oot
E ar
sh ot
plac ed
n er
m id
iz e
commer cial
M c
ap point
form ation
So vi
II I
r un
cre t
o to
t ake
sy stem
us ing
w ill
bas ed
pop ular
c as
le y
g overnment
au thor
s ent
G u
de ath
A nd
l ate
P ar
m atch
D es
G r
v oc
e as
in du
o x
201 1
develo p
loc al
d ist
af f
ark er
st y
ak en
Bl ue
cl ub
M arch
sign ed
L ong
l ab
at ory
fur ther
f ather
hist or
dep ict
cl aim
giv en
G e
at s
a ver
King dom
ro ck
p ilot
is ion
W ith
him self
dest roy
success ful
il ar
P e
Bl ack
te le
build ing
4 0
incre as
var ious
gun s
f un
m ar
bo ard
Al though
w or
P h
contr act
lay er
S quadron
C ull
met al
Cl ark
under ground
p an
for ces
ver y
or ed
aw ard
v ing
f el
mem ber
sh ort
consid ered
b est
produ ction
en e
f ront
ter m
L o
Col umb
N ational
ant s
200 9
f r
t est
m ix
n y
C old
201 4
with out
A S
crit ic
u als
report ed
ir on
i ent
coun try
prof ess
l ing
end s
ic es
am b
h our
Th ese
H L
1 00
ad em
wo od
cru is
Clark son
ic les
es tern
ul ation
att ack
spe cial
it al
m od
low er
u de
ition s
M in
ed er
iv il
op e
w omen
H er
200 8
scor ing
port s
ic a
ar ian
Cull en
app ed
excav ation
J ew
Pol and
develo ped
M ed
c arr
i qu
ar ed
ne ver
n ext
l ive
201 2
B y
su re
pl ann
en ces
se arch
ke y
ist ed
e ast
S te
f lo
oc cup
B arker
u es
G o
Le ague
de but
ivers ity
ant a
R oy
e z
ed y
ren ch
D ev
h ip
fle et
ith ic
dire ct
way s
be come
tr ibut
tim es
g in
iv es
se ven
2 3
at a
p at
beh ind
p air
activ ities
ab o
g er
comp et
ll ed
F I
s ch
h ost
F ern
Fern and
F rench
ian s
Mad ero
An tim
fer red
g et
ex pl
ev ents
k ill
st ill
en ced
sh ould
se mb
h ib
it er
le vel
s ou
n ess
Jack ets
import ant
U nder
stru ck
B est
con cer
od rom
stit ute
cav es
Ch ron
E m
it ted
batt le
for ce
h owever
writ ten
ent er
an ces
in ation
B o
2 4
col le
lab or
r ap
pol ice
cent ury
f und
iv ate
se x
appear ed
re ached
b reak
appoint ed
iv al
Fernand ez
ar ies
Cold rum
to mb
w ent
tr a
c amp
S c
iv ing
is ing
it ing
loc ated
w ide
h am
c al
am ong
remain ed
ear li
Austr al
om et
clo sed
S er
M ich
beli eved
performan ce
an e
og ue
reg ime
Sovi et
v ideo
st ory
ex p
to m
g row
mo ve
lim ited
s w
fem ale
for t
su f
h op
n al
no vel
O f
ist ic
J ames
f act
ie f
sign ific
soci ation
ro p
ed uc
Ear ly
k en
ol id
us h
ac ross
sh r
o v
c ou
Columb us
Ph il
se ll
co in
ef fect
m m
Ju ly
Roy al
dam age
vi ol
trad ition
r apped
album s
co ins
dis cover
Antim ony
Chron icles
av en
contro l
iv id
t re
id ence
x im
m ater
form s
b on
S ome
f eder
ser ved
er y
P er
n or
k et
ab ly
day s
per formed
l er
is ter
ing ton
de v
ion ed
g re
w ind
ent ion
fe et
de al
le ague
st ar
fer ence
B ill
vers ion
Car ol
Aw ards
y ou
T e
fl ight
fly ing
app ing
ch am
mon ument
W rapped
B att
m aking
ak es
ial s
ith er
i ers
ne ed
lead ing
w ard
dam aged
T wo
m useum
establ ished
offic ers
Un ion
g ed
f ew
au gh
S oc
olid ay
d i
bas e
c ave
Is land
N HL
t al
tr aining
Un iversity
m is
jo ined
writ ing
ever y
s ay
A A
Y ear
r ain
id ing
ic o
re action
s a
Jew ish
f ree
ind ivid
h aving
c a
ab ility
inter est
cre ated
Wh en
sim ilar
ar a
ough t
Ac cording
com ing
Ar k
cent ral
st one
is on
ap er
be l
f av
w ife
child ren
im p
Can ad
4 4
av i
at ic
Mich ael
follow ed
ound s
to ur
in ess
de cl
aer odrom
U ran
Wh ile
t emp
op s
ch ang
O ne
com b
g ave
p ie
stand ing
go als
w all
in stead
P res
b ur
F air
ot t
stit ut
ve y
r ad
am ent
est im
clo se
om b
B C
At l
Th ak
d ess
ap pl
Uran ia
ab bar
In stitute
com mon
play ers
or ies
al ed
en se
U p
b en
f ull
i ke
gr aph
E d
oth ers
f oc
con ne
t aken
d on
N avy
p ain
S ur
Soc iety
school s
f ri
G ir
T im
ran ge
C o
M on
f ail
Ac adem
st orm
sh own
b lock
6 0
int ro
ny i
g al
V ideo
Fin als
ol ithic
archaeolog ical
ant ed
En g
2 2
ex ist
h ouse
ch es
g eneral
c op
b al
suf fer
M useum
tele vision
tow n
ber t
part ment
sp ir
b rough
spe ct
c ing
8 0
con du
relig ious
ph oto
le ast
play off
polit ical
y l
prim ary
batt les
oper ation
sk y
sub mar
Y oung
bas ket
develop ment
s cr
charac ters
y oung
bod y
dec ided
al ity
S N
sty le
incl ude
h ow
en ed
act ions
start ed
empl oy
chan ge
st ation
ot ed
f if
signific ant
e ight
m oun
r ican
c m
ap e
tr ade
S u
B ar
s il
sub sequ
Bill board
t or
rel ation
ens ive
reg ular
pro p
s aw
fig ure
cult ural
at i
Dev in
ag ogue
FI T
Lo ose
per form
dire ctor
il ities
ran k
C ro
lo ss
mater ial
work ed
re ve
issu e
t ail
w est
s um
ann oun
poss ible
t ic
St ate
pro cess
ip p
av al
brough t
id ge
str ong
V e
S chool
a ut
mark ed
f re
Black ie
ic ated
Gir ls
un ch
r ay
reg ion
R us
earli er
f all
record ing
201 5
n ight
de mon
indu str
god dess
S layer
trans port
s ulf
L lo
Ger many
v ati
Str apping
G abbar
ans field
Batt le
out side
P ort
it ive
appro ach
oc cur
fic ult
al th
Re g
D ar
st er
cer tain
ci ent
re f
up on
invol ved
though t
R ich
in j
B u
comm iss
pre ad
tro ops
S m
M ost
r if
lo st
ad el
adel ph
adelph ia
Re cord
abo ve
w ord
profess ional
m ag
l ittle
mo ther
Ge or
og n
As sociation
l ot
K r
med i
cr ed
remain s
F le
a ud
D av
re et
st ro
l aw
com edy
al in
d ate
s at
y n
battles hip
H ung
my th
de ity
im age
pol ic
cou p
V arg
Varg as
Llo sa
E nd
SN L
Par vati
feat ures
m ult
R a
an im
ran ch
G ame
dif ficult
min or
ign ed
n ames
ev idence
be gin
st aff
u k
fel t
to o
u str
Ark ans
pro b
ob serv
a x
m arr
she ll
pr ivate
olog y
rec ogn
Austral ia
l ack
at in
4 5
to tal
at ors
min ute
iz ation
suggest ed
le ment
pt ion
ac cept
Carol ina
film s
F ilm
h ur
E ast
t reat
Egyptian s
cult ure
D omin
re am
ass ass
re ag
is land
W AS
WAS P
cham ber
L ad
basket ball
play ing
ip t
f an
gr ad
ap s
D ire
in c
f ace
work s
pro te
comm and
re vol
des pite
Y ou
our nal
particular ly
writ er
feat ured
announ ced
c ast
T ower
Arkans as
m itted
for ced
S an
show s
sur round
p ast
Eng land
bro ken
so cial
N or
er ry
M any
n ature
fir ed
week s
str ict
b i
lan gu
H igh
Academ y
ac cording
S ing
or us
m ir
A ct
T V
intro du
r z
fig ures
D ef
Fle et
h oliday
D í
Dí az
Re public
syn agogue
O T
archaeolog y
n ation
se le
ep is
ele ments
on ce
e ither
hel p
ex peri
ty p
po se
lo ok
design ed
in str
p rec
av ail
p ot
in st
H ist
tow er
remain ing
arm s
2 8
comple ted
cut ive
issu ed
De partment
establ ish
c ase
b orn
one y
h on
stud io
ch n
200 5
pl ain
i am
to ge
toge ther
s l
l ic
199 0
200 3
commun ity
inch es
cre w
com ment
7 0
f ict
ist an
h ar
us iness
eas tern
empl es
r ul
P et
Amer ica
M int
er u
Domin ican
Z agre
Zagre b
German s
Ne olithic
st ones
Th ai
Se cond
pr a
el s
l in
miss ion
he avy
im pro
mod ern
appear ance
ro s
2 9
am a
L ight
W ill
qu ar
G overnment
ne y
l ines
agre ed
person al
b or
Record s
fav or
us es
199 4
book s
omet imes
sou thern
t aking
f ind
amp ion
sch ol
W estern
end er
win ning
M an
m ight
de ad
ic ation
represent ed
ist ics
It al
te en
Atl anta
Char les
the at
sh oot
w ing
pr act
increas ing
V P
ag and
FIT s
St ansfield
the me
carr ied
T o
ac qu
do es
me th
as ed
m ot
stru ct
set t
init ially
ib ility
ly r
list ed
5 00
as pect
3 1
res pect
200 1
sit u
c ivil
de li
3 5
R iver
a ign
n early
pre par
con cl
act s
me et
large ly
G reat
educ ation
p en
claim ed
d ied
d ou
e y
foot ball
199 8
ac cess
cour se
row n
sur v
p ick
dr aft
Phil adelphia
high est
min ut
h it
four th
Con ference
CA A
s un
ate g
er a
sil ver
cur ren
tw ent
ul ated
v ice
c lear
pilot s
h a
K ar
off er
wor ship
ob ject
car bon
ac re
dollar s
R AA
RAA F
M VP
ł aw
archaeolog ist
Ve eru
S en
C al
open ing
d ict
or ary
ac c
dep end
R am
re ason
arm ed
begin ning
w anted
inter view
am oun
origin ally
pie ce
2 7
go od
B ut
comp any
Ar t
Sm ith
g overn
Pres ident
allow ed
comple te
so on
ag o
it ors
ur ch
d le
M y
f ru
stud ents
av es
n at
pl es
F A
F oot
200 2
act ing
gre ater
estim ated
ce ed
St ar
man ag
i ew
fif th
minut es
ar ily
met res
subsequ ently
C are
contro lled
p ow
red u
K h
wh om
support ed
Hung arian
t emples
amp le
bod ies
produ cer
ul pt
Archaeolog ical
Rus s
g a
P lay
ip le
g ress
ent ial
A b
kill ed
part s
track s
avail able
En gl
Engl ish
ne g
gener ally
az ine
sc ene
turn ed
K ur
art ists
event ually
An t
m un
ele ct
gr am
p ly
qu ick
g es
18 5
i ber
open ed
mil es
attempt ed
pres sed
9 0
lar ger
Ch ic
Chic ago
S im
sis ter
are n
ver t
l iter
condu cted
cap t
influ enced
l if
spec ies
con om
bro ad
pro min
s ize
allow ing
pr ior
own er
pro test
Des pite
Ital ian
langu age
M et
Dav id
high way
Se cret
Comm ander
mir al
m ass
Aw ard
n omin
review s
se e
c ere
CA T
Au stro
he av
cre ation
de fin
v iron
viron ment
v ill
tr u
mon uments
shr ine
200 4
id er
aerodrom es
Europe an
193 9
Z r
z y
Dire ctor
s al
sc ulpt
M ex
pres ident
C or
ell ig
N az
agand a
bar row
Med way
ex it
R ev
addition al
rel ated
c all
h app
v ict
ent ire
kn ow
f ight
sold iers
s ion
lead er
ke ep
revol ution
requ ired
mo de
pe cted
gu it
work ing
resp ons
lyr ics
de tail
F l
n et
prov ided
plann ed
Ro ad
F lower
Ar s
Ars enal
Cl ub
ne cess
de m
se cur
sub ject
Th at
cons isted
camp aign
ith s
n aval
month s
fin ally
col labor
198 5
E le
al d
s ometimes
s ac
att ention
H ouse
W ales
T re
partic ip
Foot ball
il i
be low
olog ical
th reat
th us
term s
O per
arch ite
archite ct
h ill
twent y
st ep
C oun
ree k
ac y
tor ped
torped o
Ad miral
P enn
relation ship
cere mon
Canad a
M S
Cro at
ab s
relig ion
O ther
ex ample
He aven
avi ation
rad io
Zr í
Zrí nyi
m int
e ter
P ak
Pak istan
cop ies
rican e
J ai
pr ed
n ine
al ways
P o
award ed
im in
num bers
M il
offic er
destroy ed
ask ed
most ly
ter rit
com es
sel ves
fin ished
resp on
respon se
pol y
sp ace
if y
eng ine
Pe ople
M ag
high ly
ap t
s top
tit le
comm ander
new ly
or es
ord ered
im ent
e e
ex e
s af
pro per
f ell
b atter
re en
is to
contin ue
i ence
c am
ous ly
ach ing
F ollow
Follow ing
co ast
photo graph
4 9
be at
la unch
e conom
n uc
individ uals
stud y
sex ual
re placed
season s
con se
ish ing
il le
re fle
J ul
great est
te e
8 8
not es
Care y
mix ed
voc als
B ob
new sp
tr ave
198 6
wind s
ant ic
h ard
b usiness
199 1
beli ef
b omb
t ur
battleship s
sy mb
symb ol
Fran k
coun ter
th ink
cruis er
f ung
Long acre
Z ap
sol o
is c
us z
St ation
I m
crit ics
f ranch
to ld
it ch
me an
s en
them selves
con f
se par
main tain
m us
n on
issu es
o de
pur ch
in sp
requ est
pr i
feder al
resp ond
pre vent
al most
k er
prob ably
ex hib
suffer ed
9 5
Fair ies
n s
og rap
ent ered
194 0
ip s
sh ire
h om
th ings
194 3
P rom
soci ety
W ay
G amb
C up
hour s
M or
An other
un ity
mas k
m ale
ain s
f ar
ca used
conse cutive
p ing
Sh ort
D iv
it tee
ph ys
b an
P a
ct ing
ol ly
industr y
in em
c is
az z
act ed
flo od
as tern
w orth
E rz
Erz her
Erzher z
Erzherz og
F er
cruis ers
group s
Am un
ex ts
reg ard
cour t
incre ase
reag ents
Go at
ag ing
lo an
ur i
J er
St ones
gal iths
Ex eter
Tim bal
Timbal and
pl oy
us ion
franch ise
div ided
l ink
meth od
who se
w oman
pro posed
xim ately
re moved
ble m
b ass
constru cted
j ournal
pl ans
offic ial
aspect s
r ing
sum mer
insp ired
an a
Bu ild
Hist ory
199 7
ars enal
W ork
C ivil
trans ferred
ter min
ul tim
read y
p p
hand s
ex cept
re pair
ot e
3 6
p aper
P ost
gu ard
is tr
do or
ent ran
m oney
occup ied
g est
L ater
commiss ioned
k ind
19 20
19 18
att end
ret ired
plann ing
influ ence
pr int
te chn
an aly
198 8
on t
or ial
An g
ampion ship
act ive
d ed
L atin
me as
be coming
var iety
result ed
miss ed
D r
hel ped
dis cus
dou ble
John son
S ch
re strict
de part
ific ation
m ic
V al
C our
Penn sy
Pennsy l
Pennsyl van
iver se
es cap
Sing h
shoot ing
Thak ur
introdu ced
hum ans
k ing
or b
Ele ph
promot ed
temp le
cer t
voc al
sit es
sell ing
sever e
assass ination
ol k
n ick
li de
Zap ata
fict ional
C O
excav ations
hur ricane
ew ay
T OT
comp ounds
Archaeolog y
ap an
el ess
w estern
rou te
sele cted
un its
spec ific
P ers
S pe
T ro
at tribut
ar my
cons ist
se y
ar rest
tow ards
off ered
sc en
major ity
pro blem
guit ar
syn the
reve aled
de mo
feat uring
own ed
ex cl
em ed
c ited
appear ances
k a
increas ed
is l
w a
H ar
int ended
em er
st ant
serv ice
ph y
surround ing
C enter
pr ing
Bo ok
d augh
19 0
t ies
H ill
G l
co st
T imes
Geor ge
E l
194 4
Gamb ia
inter national
D em
as soci
Will iam
ar ia
fail ed
Ad d
go ing
7 6
ot s
T ran
pro gram
B et
Se ver
contr ibut
arm or
e h
th r
olly wood
crit ical
con v
G old
198 4
Te am
199 6
m p
ex am
say ing
it self
d in
ud ed
t exts
en vironment
cre ator
w ides
ves sel
com pl
h air
c at
performan ces
s in
vi ation
eng aged
stand ards
Sur vey
W ars
Chr is
stit ution
B ow
y lide
Mex ico
G ar
ellig ence
A ge
L ow
St reet
sk a
A o
Ao T
J apan
G all
bl ack
giv ing
pos itive
high er
lo ve
iqu e
we ap
cap ital
su per
short ly
appro ximately
ide a
er r
over all
Of fic
m or
epis ode
pur pose
Build ing
M ac
P ark
Ro bert
man ent
leg isl
inter pre
b es
v ic
d oc
tr ain
O ver
histor ic
f low
C ome
compet ition
ro om
ir st
P en
m el
B oy
S al
be t
19 50
Tre as
s port
d rew
init ial
A dam
mask ray
h ab
occur red
m outh
promin ent
de ep
inj ury
j ud
C ent
mis sing
st age
dec ision
br idge
og r
curren t
writ e
ful ly
ann ual
ton s
spe ed
G od
pass ed
s ail
ly ing
A sh
S p
199 5
S MS
van ced
second ary
r are
li ed
st ates
ad op
c ateg
b ound
in formation
n a
A viation
Fran ce
re plac
Cl ass
pro hib
For ce
carbon aria
em s
as ion
discover ed
Cour t
n arr
T enn
Tenn ant
Th ail
Thail and
un it
se cret
pra ised
grow th
direct ly
up per
ur g
ef fort
fac ed
M o
ative ly
l atter
ten s
re search
ank s
in ct
previous ly
oc key
C ap
consid er
quick ly
semb le
situ ation
ad es
author ities
Con feder
z e
2 6
comp an
ac coun
om as
g ather
ob tain
p ay
em an
ind ic
so le
lo y
B arr
entran ce
de ploy
pos es
ra ised
inv ited
fin an
press ion
att ended
ac es
pres er
D or
ograp hy
fri ends
And rew
M id
do ing
F irst
o od
S w
ch ap
qu al
B ack
contin ent
dis c
ch a
In tern
on om
R es
is ation
comple x
wor st
playoff s
ef f
along side
s low
sh o
3 8
ir ing
T or
h u
im medi
d rop
B el
ch er
P ope
F our
ex per
i en
f ix
g ar
S ound
d ance
the ast
N S
Sever al
se a
Secret ary
occup ation
18 0
y d
grad u
ro les
D an
D h
st arr
Fran cis
project s
S ou
med ia
We ek
f f
199 2
199 3
ire ment
199 9
Fer din
Ferdin and
Ma x
Al lied
rit uals
nat ural
object s
F rom
g rew
H orus
ear th
w atch
who le
ty pe
wides pread
re me
cial ly
le ts
heav ily
la bel
field s
er t
polic y
R ad
submar ine
submar ines
qu are
ch ief
on ium
treat y
Dar win
ut ch
NB C
N ight
ow ski
Pol es
ń ski
Bar row
archaeolog ists
fre eway
aud ience
S ipp
Sipp y
ac id
re ferred
writ ers
s ales
O ut
E ach
sk ill
Comm and
if t
t arg
feat ure
record s
offic ially
ang er
ad v
act or
al leg
K o
po or
p leas
not ing
fe el
Pro ject
A k
ill ustr
Ant iqu
b ir
186 1
t ell
f ut
T ele
col l
st ay
for ts
con ver
s mo
8 6
m ust
equ ip
D un
sc ope
off ice
re nd
B ro
marr ied
add ed
flo or
P l
197 0
Ch ild
Christ ian
Ch urch
mid dle
sp ent
u ck
en ough
g ive
fri end
wh ite
et t
ill a
B ur
respect ively
Se a
S un
pan el
launch ed
ap ed
v ia
Wh ite
nuc lear
itt ing
sh ore
Nor thern
ist ant
N ash
el es
f ans
cent er
3 3
qu est
n es
P ho
represent ative
re ct
ceed ed
Div ision
m ates
n orm
8 9
th i
perform ing
se ction
c ross
I ron
m ph
ph en
T y
ak ed
comment ed
pres sure
g ment
is f
s quadron
demon str
B ay
Kh an
d ial
em ot
M umb
Mumb ai
E astern
sis ters
tur ret
cover ed
It aly
ma at
ar gu
and s
foc us
im ages
depend ent
G reek
iv ity
p s
G roup
een th
tradition al
es pe
espe cially
present ed
mic ro
air man
con cent
concent r
tru ction
x is
fung us
b urn
produ ce
pr ison
O ro
Oro z
Oroz co
C ab
promot ion
Eleph anta
fund ing
inv asion
Naz i
prop aganda
W iz
Wiz ards
tomb s
R I
Thak sin
d one
stand ard
h i
en em
v o
loc ation
al ter
con cept
comb ined
ke pt
ra ther
de feat
ben ef
amoun t
cor por
sing er
trans fer
ic le
Ar th
Arth ur
194 2
bir th
Ma jor
9 1
h or
ill ery
per mitted
re in
al ready
necess ary
n ance
H all
6 00
Jack son
led ge
prepar ed
establish ment
v ation
station ed
ars en
small er
pur poses
quar ter
lar gest
li br
design ated
C roy
Croy don
influ ences
daugh ter
her self
is er
prov ide
un k
se c
196 1
serv ices
ey e
in stitut
institut ions
ag en
194 1
V er
193 7
Treas ury
team s
reg ional
match es
pat tern
Intern ational
like ly
chang es
us ually
comp ared
fun ction
H um
Sc ott
K ings
st reak
chang ed
t t
t ied
bet ter
St an
D ay
be ll
S am
back ground
S il
jo in
d ro
G reg
in o
cred ited
O b
Col le
art s
contr ast
aw are
ident ified
capt ured
am id
redu ced
re li
b b
p ush
N ot
Pennsylvan ia
accept ed
op pos
M ah
En ter
is es
seven th
can cer
ar ing
sh are
off s
ret irement
s to
ell ed
T ur
I sis
plac es
w he
ord in
phys ical
emp has
h en
me ant
ext reme
increasing ly
A p
D ream
fru it
P op
ob served
200 0
rec re
land ing
air ports
flight s
no ise
air space
ain t
tre es
c and
cand id
sulf ide
ele ctions
dict ator
Cab ral
doc ument
Min ister
B road
Gr am
ceremon y
Low e
discover y
te ach
Wars aw
flood ing
n ut
R ho
Rho de
Kur st
Kurst in
N am
serv ing
lo ad
ass igned
targ et
vict ory
dis tribut
typ es
fore ign
the less
ce ll
fel low
D ah
it or
w ear
Em p
an cient
tr ue
i y
It s
gr ade
cre ate
col or
them es
ex pected
mus ical
instr uments
s po
fe cted
H ind
ser ious
scen es
oc cas
dire cted
re fer
ex tens
B lo
vol um
S ince
h ous
museum s
Mil itary
start ing
G overn
Cap tain
u el
secur ity
h aps
le aving
m orn
morn ing
M iss
cal iber
pr ising
V an
m ach
successful ly
s ort
activ ity
bo at
G reen
S um
six th
ins ide
cond ition
iz ations
19 11
M ary
g ir
ho od
s es
mag azine
st ained
Q ue
pain t
art ist
liter ature
se mi
V ict
Vict or
vis ited
pur su
fun er
favor ite
an ch
ro ll
19 30
b a
Back ground
econom ic
val ue
ir t
second s
stru gg
z a
lo g
on to
invol ving
immedi ately
el imin
Short ly
id ents
ct s
instr ument
i us
pat ron
3 00
tw ice
histor ical
ogr aph
Mar ia
er ing
J o
ail y
ex pressed
Bet we
Betwe en
sup pl
conne cted
me ans
arr ived
sp ot
b ad
aren t
ur der
e th
host ed
b illion
j a
Gr and
prec ed
b rit
ce le
as ter
bro ther
s ought
concer ned
ch ampionship
it ation
ct ors
ou d
est s
d read
Croat ia
character istics
depict ed
depict s
whe ther
Be cause
B a
O s
H orn
al one
bas ic
f ill
f est
sch ed
se ctor
mark et
c il
Air craft
to uring
pow ered
concl uded
