{
  "<unk>": 0,
  "<pad>": 1,
  " ": 3,
  "!": 4,
  "\"": 5,
  "#": 6,
  "$": 7,
  "%": 8,
  "&": 9,
  "'": 10,
  "(": 11,
  ")": 12,
  "*": 13,
  "+": 14,
  ",": 15,
  "-": 16,
  ".": 17,
  "/": 18,
  "0": 19,
  "1": 20,
  "2": 21,
  "3": 22,
  "4": 23,
  "5": 24,
  "6": 25,
  "7": 26,
  "8": 27,
  "9": 28,
  ":": 29,
  ";": 30,
  "<": 31,
  "=": 32,
  "?": 33,
  "@": 34,
  "A": 35,
  "B": 36,
  "C": 37,
  "D": 38,
  "E": 39,
  "F": 40,
  "G": 41,
  "H": 42,
  "I": 43,
  "J": 44,
  "K": 45,
  "L": 46,
  "M": 47,
  "N": 48,
  "O": 49,
  "P": 50,
  "Q": 51,
  "R": 52,
  "S": 53,
  "T": 54,
  "U": 55,
  "V": 56,
  "W": 57,
  "X": 58,
  "Y": 59,
  "Z": 60,
  "[": 61,
  "]": 62,
  "^": 63,
  "a": 64,
  "b": 65,
  "c": 66,
  "d": 67,
  "e": 68,
  "f": 69,
  "g": 70,
  "h": 71,
  "i": 72,
  "j": 73,
  "k": 74,
  "l": 75,
  "m": 76,
  "n": 77,
  "o": 78,
  "p": 79,
  "q": 80,
  "r": 81,
  "s": 82,
  "t": 83,
  "u": 84,
  "v": 85,
  "w": 86,
  "x": 87,
  "y": 88,
  "z": 89,
  "~": 90,
  "£": 91,
  "°": 92,
  "²": 93,
  "µ": 94,
  "º": 95,
  "Ä": 96,
  "Å": 97,
  "Æ": 98,
  "Ñ": 99,
  "Ö": 100,
  "ß": 101,
  "á": 102,
  "ä": 103,
  "å": 104,
  "è": 105,
  "é": 106,
  "í": 107,
  "ñ": 108,
  "ó": 109,
  "ô": 110,
  "ö": 111,
  "ú": 112,
  "ü": 113,
  "ā": 114,
  "ą": 115,
  "ć": 116,
  "č": 117,
  "đ": 118,
  "ę": 119,
  "ğ": 120,
  "Ł": 121,
  "ł": 122,
  "ń": 123,
  "Ō": 124,
  "ō": 125,
  "ś": 126,
  "Š": 127,
  "š": 128,
  "ū": 129,
  "ź": 130,
  "Ż": 131,
  "ż": 132,
  "ɪ": 133,
  "ή": 134,
  "ί": 135,
  "α": 136,
  "β": 137,
  "δ": 138,
  "θ": 139,
  "ι": 140,
  "μ": 141,
  "ν": 142,
  "ο": 143,
  "ς": 144,
  "σ": 145,
  "τ": 146,
  "χ": 147,
  "ό": 148,
  "К": 149,
  "а": 150,
  "в": 151,
  "з": 152,
  "й": 153,
  "к": 154,
  "н": 155,
  "р": 156,
  "с": 157,
  "ы": 158,
  "إ": 159,
  "ت": 160,
  "ث": 161,
  "د": 162,
  "س": 163,
  "م": 164,
  "ي": 165,
  "ก": 166,
  "ค": 167,
  "ง": 168,
  "ช": 169,
  "ซ": 170,
  "ญ": 171,
  "ฐ": 172,
  "ณ": 173,
  "ด": 174,
  "ต": 175,
  "บ": 176,
  "ป": 177,
  "พ": 178,
  "ภ": 179,
  "ม": 180,
  "ย": 181,
  "ร": 182,
  "ล": 183,
  "ว": 184,
  "ศ": 185,
  "ษ": 186,
  "ส": 187,
  "ห": 188,
  "อ": 189,
  "ั": 190,
  "า": 191,
  "ิ": 192,
  "ี": 193,
  "ึ": 194,
  "เ": 195,
  "แ": 196,
  "ไ": 197,
  "็": 198,
  "่": 199,
  "้": 200,
  "๊": 201,
  "์": 202,
  "ḏ": 203,
  "ṯ": 204,
  "ἀ": 205,
  "ἰ": 206,
  "–": 207,
  "—": 208,
  "‘": 209,
  "’": 210,
  "“": 211,
  "”": 212,
  "†": 213,
  "‡": 214,
  "…": 215,
  "₤": 216,
  "₹": 217,
  "→": 218,
  "−": 219,
  "い": 220,
  "う": 221,
  "か": 222,
  "が": 223,
  "き": 224,
  "く": 225,
  "し": 226,
  "た": 227,
  "つ": 228,
  "な": 229,
  "の": 230,
  "め": 231,
  "も": 232,
  "ら": 233,
  "ァ": 234,
  "ア": 235,
  "キ": 236,
  "ュ": 237,
  "リ": 238,
  "ル": 239,
  "ヴ": 240,
  "乙": 241,
  "光": 242,
  "名": 243,
  "君": 244,
  "命": 245,
  "咲": 246,
  "場": 247,
  "女": 248,
  "戦": 249,
  "灯": 250,
  "瘡": 251,
  "花": 252,
  "誓": 253,
  "誰": 254,
  "赤": 255,
  "運": 256,
  "銃": 257,
  "願": 258,
  "３": 259,
  "�": 260,
  "th": 260,
  "in": 261,
  "er": 262,
  "an": 263,
  "the": 264,
  "on": 265,
  "ed": 266,
  "or": 267,
  "at": 268,
  "re": 269,
  "en": 270,
  "al": 271,
  "ar": 272,
  "as": 273,
  "is": 274,
  "of": 275,
  "es": 276,
  "and": 277,
  "ing": 278,
  "it": 279,
  "to": 280,
  "ic": 281,
  "ou": 282,
  "ion": 283,
  "st": 284,
  "he": 285,
  "ro": 286,
  "le": 287,
  "ac": 288,
  "ent": 289,
  "se": 290,
  "il": 291,
  "ol": 292,
  "ad": 293,
  "for": 294,
  "am": 295,
  "om": 296,
  "was": 297,
  "ly": 298,
  "be": 299,
  "ch": 300,
  "ir": 301,
  "ur": 302,
  "de": 303,
  "im": 304,
  "ve": 305,
  "ter": 306,
  "ith": 307,
  "ow": 308,
  "The": 309,
  "ation": 310,
  "ig": 311,
  "ay": 312,
  "un": 313,
  "wh": 314,
  "with": 315,
  "ver": 316,
  "that": 317,
  "ct": 318,
  "con": 319,
  "um": 320,
  "ere": 321,
  "ce": 322,
  "ul": 323,
  "ot": 324,
  "ag": 325,
  "el": 326,
  "id": 327,
  "by": 328,
  "ap": 329,
  "et": 330,
  "19": 331,
  "his": 332,
  "pl": 333,
  "us": 334,
  "ut": 335,
  "tr": 336,
  "pro": 337,
  "em": 338,
  "res": 339,
  "ain": 340,
  "lo": 341,
  "sh": 342,
  "su": 343,
  "com": 344,
  "nd": 345,
  "ab": 346,
  "all": 347,
  "00": 348,
  "ers": 349,
  "od": 350,
  "ist": 351,
  "were": 352,
  "rom": 353,
  "est": 354,
  "iv": 355,
  "ies": 356,
  "op": 357,
  "ord": 358,
  "ear": 359,
  "are": 360,
  "ex": 361,
  "from": 362,
  "ish": 363,
  "art": 364,
  "ate": 365,
  "In": 366,
  "if": 367,
  "ant": 368,
  "end": 369,
  "po": 370,
  "ew": 371,
  "so": 372,
  "igh": 373,
  "ther": 374,
  "ich": 375,
  "af": 376,
  "av": 377,
  "ber": 378,
  "te": 379,
  "ort": 380,
  "ated": 381,
  "man": 382,
  "ip": 383,
  "ak": 384,
  "pe": 385,
  "per": 386,
  "cl": 387,
  "rit": 388,
  "gh": 389,
  "ong": 390,
  "ld": 391,
  "ive": 392,
  "ard": 393,
  "ess": 394,
  "ame": 395,
  "ill": 396,
  "rou": 397,
  "ity": 398,
  "ment": 399,
  "qu": 400,
  "had": 401,
  "act": 402,
  "ian": 403,
  "ia": 404,
  "own": 405,
  "ial": 406,
  "which": 407,
  "pr": 408,
  "one": 409,
  "str": 410,
  "out": 411,
  "over": 412,
  "mo": 413,
  "Ch": 414,
  "ack": 415,
  "tw": 416,
  "her": 417,
  "pt": 418,
  "ud": 419,
  "li": 420,
  "our": 421,
  "cr": 422,
  "not": 423,
  "port": 424,
  "ary": 425,
  "ass": 426,
  "20": 427,
  "og": 428,
  "ave": 429,
  "ight": 430,
  "du": 431,
  "ide": 432,
  "ine": 433,
  "int": 434,
  "200": 435,
  "aw": 436,
  "ev": 437,
  "ork": 438,
  "oc": 439,
  "ge": 440,
  "but": 441,
  "air": 442,
  "form": 443,
  "also": 444,
  "its": 445,
  "their": 446,
  "up": 447,
  "tim": 448,
  "ition": 449,
  "rec": 450,
  "fir": 451,
  "ast": 452,
  "ach": 453,
  "ical": 454,
  "ran": 455,
  "ign": 456,
  "St": 457,
  "ore": 458,
  "ub": 459,
  "He": 460,
  "play": 461,
  "low": 462,
  "ous": 463,
  "old": 464,
  "att": 465,
  "bo": 466,
  "und": 467,
  "ould": 468,
  "part": 469,
  "ne": 470,
  "ound": 471,
  "pres": 472,
  "ome": 473,
  "off": 474,
  "ction": 475,
  "201": 476,
  "ure": 477,
  "Th": 478,
  "ship": 479,
  "ater": 480,
  "who": 481,
  "sc": 482,
  "vi": 483,
  "ue": 484,
  "has": 485,
  "ib": 486,
  "ke": 487,
  "first": 488,
  "ark": 489,
  "pos": 490,
  "other": 491,
  "oun": 492,
  "ult": 493,
  "uring": 494,
  "ire": 495,
  "ough": 496,
  "ll": 497,
  "ser": 498,
  "bum": 499,
  "dis": 500,
  "cre": 501,
  "this": 502,
  "au": 503,
  "Ar": 504,
  "god": 505,
  "mon": 506,
  "two": 507,
  "age": 508,
  "ans": 509,
  "album": 510,
  "ory": 511,
  "fe": 512,
  "ations": 513,
  "ied": 514,
  "18": 515,
  "ree": 516,
  "co": 517,
  "have": 518,
  "she": 519,
  "cont": 520,
  "ence": 521,
  "ok": 522,
  "ason": 523,
  "been": 524,
  "ind": 525,
  "ph": 526,
  "iz": 527,
  "year": 528,
  "after": 529,
  "ally": 530,
  "ities": 531,
  "des": 532,
  "gr": 533,
  "ade": 534,
  "ile": 535,
  "ordan": 536,
  "pre": 537,
  "me": 538,
  "It": 539,
  "ell": 540,
  "Jordan": 541,
  "ited": 542,
  "ie": 543,
  "Pol": 544,
  "time": 545,
  "ite": 546,
  "app": 547,
  "comp": 548,
  "gu": 549,
  "ced": 550,
  "arch": 551,
  "land": 552,
  "ck": 553,
  "ru": 554,
  "sp": 555,
  "Sh": 556,
  "main": 557,
  "ron": 558,
  "fer": 559,
  "comm": 560,
  "under": 561,
  "olog": 562,
  "leas": 563,
  "les": 564,
  "ents": 565,
  "Un": 566,
  "ict": 567,
  "ilm": 568,
  "new": 569,
  "inter": 570,
  "reg": 571,
  "Brit": 572,
  "lar": 573,
  "ance": 574,
  "fl": 575,
  "more": 576,
  "they": 577,
  "als": 578,
  "An": 579,
  "incl": 580,
  "season": 581,
  "though": 582,
  "work": 583,
  "ubl": 584,
  "able": 585,
  "Re": 586,
  "rough": 587,
  "ann": 588,
  "ice": 589,
  "record": 590,
  "cess": 591,
  "cond": 592,
  "ret": 593,
  "199": 594,
  "most": 595,
  "ces": 596,
  "publ": 597,
  "Fe": 598,
  "gan": 599,
  "fin": 600,
  "urn": 601,
  "into": 602,
  "min": 603,
  "cent": 604,
  "round": 605,
  "releas": 606,
  "sing": 607,
  "ten": 608,
  "ob": 609,
  "son": 610,
  "ved": 611,
  "spe": 612,
  "ild": 613,
  "Se": 614,
  "arr": 615,
  "ings": 616,
  "ail": 617,
  "film": 618,
  "my": 619,
  "them": 620,
  "ef": 621,
  "je": 622,
  "used": 623,
  "produ": 624,
  "we": 625,
  "ular": 626,
  "cted": 627,
  "sy": 628,
  "ace": 629,
  "no": 630,
  "him": 631,
  "ick": 632,
  "during": 633,
  "stru": 634,
  "sk": 635,
  "go": 636,
  "includ": 637,
  "would": 638,
  "ions": 639,
  "fore": 640,
  "ted": 641,
  "usic": 642,
  "sel": 643,
  "heel": 644,
  "ae": 645,
  "sub": 646,
  "ener": 647,
  "Wheel": 648,
  "ors": 649,
  "gods": 650,
  "Town": 651,
  "ty": 652,
  "came": 653,
  "only": 654,
  "num": 655,
  "ull": 656,
  "many": 657,
  "Wheeler": 658,
  "cial": 659,
  "ony": 660,
  "pol": 661,
  "ates": 662,
  "No": 663,
  "ts": 664,
  "az": 665,
  "ational": 666,
  "game": 667,
  "Ind": 668,
  "ren": 669,
  "Ger": 670,
  "some": 671,
  "high": 672,
  "point": 673,
  "being": 674,
  "ered": 675,
  "ever": 676,
  "mer": 677,
  "dr": 678,
  "way": 679,
  "British": 680,
  "four": 681,
  "orth": 682,
  "aft": 683,
  "bas": 684,
  "ix": 685,
  "three": 686,
  "gy": 687,
  "As": 688,
  "II": 689,
  "mber": 690,
  "song": 691,
  "oy": 692,
  "row": 693,
  "vis": 694,
  "aeolog": 695,
  "through": 696,
  "De": 697,
  "use": 698,
  "red": 699,
  "led": 700,
  "ci": 701,
  "team": 702,
  "second": 703,
  "ath": 704,
  "ollow": 705,
  "ards": 706,
  "ject": 707,
  "bu": 708,
  "ins": 709,
  "rel": 710,
  "ished": 711,
  "ames": 712,
  "where": 713,
  "send": 714,
  "York": 715,
  "Polish": 716,
  "writ": 717,
  "char": 718,
  "while": 719,
  "cer": 720,
  "ra": 721,
  "Au": 722,
  "ped": 723,
  "She": 724,
  "iel": 725,
  "Al": 726,
  "ele": 727,
  "os": 728,
  "any": 729,
  "ton": 730,
  "ake": 731,
  "such": 732,
  "tern": 733,
  "ters": 734,
  "reat": 735,
  "then": 736,
  "een": 737,
  "Chr": 738,
  "Townsend": 739,
  "cons": 740,
  "about": 741,
  "outh": 742,
  "again": 743,
  "arm": 744,
  "vers": 745,
  "On": 746,
  "000": 747,
  "iss": 748,
  "later": 749,
  "made": 750,
  "hist": 751,
  "Af": 752,
  "than": 753,
  "ious": 754,
  "Egy": 755,
  "ating": 756,
  "orld": 757,
  "ose": 758,
  "present": 759,
  "when": 760,
  "mem": 761,
  "col": 762,
  "ican": 763,
  "aid": 764,
  "sur": 765,
  "New": 766,
  "kn": 767,
  "war": 768,
  "lead": 769,
  "mas": 770,
  "Egypt": 771,
  "sup": 772,
  "day": 773,
  "orn": 774,
  "met": 775,
  "German": 776,
  "follow": 777,
  "tain": 778,
  "number": 779,
  "before": 780,
  "ics": 781,
  "clo": 782,
  "ang": 783,
  "ball": 784,
  "198": 785,
  "back": 786,
  "ens": 787,
  "remain": 788,
  "Com": 789,
  "public": 790,
  "ft": 791,
  "sign": 792,
  "ily": 793,
  "both": 794,
  "ost": 795,
  "do": 796,
  "br": 797,
  "Christ": 798,
  "cav": 799,
  "ised": 800,
  "inv": 801,
  "ower": 802,
  "oh": 803,
  "long": 804,
  "oper": 805,
  "loc": 806,
  "these": 807,
  "ists": 808,
  "Le": 809,
  "cho": 810,
  "can": 811,
  "amp": 812,
  "top": 813,
  "sever": 814,
  "ield": 815,
  "ific": 816,
  "self": 817,
  "well": 818,
  "antim": 819,
  "Fey": 820,
  "ep": 821,
  "there": 822,
  "Bl": 823,
  "194": 824,
  "ived": 825,
  "view": 826,
  "ond": 827,
  "Wh": 828,
  "ust": 829,
  "music": 830,
  "itt": 831,
  "ars": 832,
  "like": 833,
  "betw": 834,
  "between": 835,
  "overn": 836,
  "years": 837,
  "craft": 838,
  "ual": 839,
  "ale": 840,
  "At": 841,
  "ma": 842,
  "released": 843,
  "add": 844,
  "ah": 845,
  "contin": 846,
  "appear": 847,
  "Cl": 848,
  "began": 849,
  "After": 850,
  "early": 851,
  "ss": 852,
  "scor": 853,
  "ground": 854,
  "serv": 855,
  "feat": 856,
  "ures": 857,
  "set": 858,
  "cord": 859,
  "mb": 860,
  "coun": 861,
  "var": 862,
  "cur": 863,
  "offic": 864,
  "ful": 865,
  "could": 866,
  "30": 867,
  "ek": 868,
  "became": 869,
  "ife": 870,
  "United": 871,
  "stud": 872,
  "win": 873,
  "ctor": 874,
  "dep": 875,
  "ock": 876,
  "En": 877,
  "dol": 878,
  "10": 879,
  "hum": 880,
  "side": 881,
  "ise": 882,
  "This": 883,
  "Con": 884,
  "oot": 885,
  "alled": 886,
  "field": 887,
  "charac": 888,
  "ext": 889,
  "ning": 890,
  "io": 891,
  "eng": 892,
  "15": 893,
  "archaeolog": 894,
  "ional": 895,
  "ai": 896,
  "ets": 897,
  "sm": 898,
  "gun": 899,
  "cap": 900,
  "Egyptian": 901,
  "rece": 902,
  "suc": 903,
  "ute": 904,
  "ury": 905,
  "gold": 906,
  "NB": 907,
  "antimony": 908,
  "alk": 909,
  "div": 910,
  "class": 911,
  "ash": 912,
  "state": 913,
  "sed": 914,
  "ety": 915,
  "gg": 916,
  "roup": 917,
  "return": 918,
  "ven": 919,
  "aged": 920,
  "tow": 921,
  "ative": 922,
  "med": 923,
  "igin": 924,
  "peri": 925,
  "known": 926,
  "several": 927,
  "dam": 928,
  "car": 929,
  "chool": 930,
  "stit": 931,
  "aircraft": 932,
  "deities": 933,
  "velo": 934,
  "design": 935,
  "dire": 936,
  "trans": 937,
  "dif": 938,
  "pers": 939,
  "dec": 940,
  "ident": 941,
  "ime": 942,
  "Col": 943,
  "cover": 944,
  "Christmas": 945,
  "ships": 946,
  "lay": 947,
  "ments": 948,
  "crit": 949,
  "found": 950,
  "head": 951,
  "try": 952,
  "dollar": 953,
  "ized": 954,
  "success": 955,
  "light": 956,
  "ended": 957,
  "including": 958,
  "For": 959,
  "pop": 960,
  "ired": 961,
  "ri": 962,
  "All": 963,
  "bers": 964,
  "ines": 965,
  "eneral": 966,
  "owever": 967,
  "cut": 968,
  "develo": 969,
  "May": 970,
  "ople": 971,
  "atch": 972,
  "Joh": 973,
  "soci": 974,
  "ague": 975,
  "origin": 976,
  "ided": 977,
  "cau": 978,
  "illion": 979,
  "GA": 980,
  "against": 981,
  "aking": 982,
  "ined": 983,
  "hal": 984,
  "ones": 985,
  "hy": 986,
  "series": 987,
  "par": 988,
  "ittle": 989,
  "ural": 990,
  "plac": 991,
  "17": 992,
  "Tru": 993,
  "Nove": 994,
  "position": 995,
  "ern": 996,
  "said": 997,
  "John": 998,
  "report": 999,
  "show": 1000,
  "la": 1001,
  "stand": 1002,
  "ides": 1003,
  "gl": 1004,
  "gust": 1005,
  "ste": 1006,
  "12": 1007,
  "sis": 1008,
  "descr": 1009,
  "bro": 1010,
  "contr": 1011,
  "mil": 1012,
  "ress": 1013,
  "played": 1014,
  "ism": 1015,
  "wo": 1016,
  "cult": 1017,
  "iva": 1018,
  "ons": 1019,
  "action": 1020,
  "rang": 1021,
  "prom": 1022,
  "Amer": 1023,
  "November": 1024,
  "cept": 1025,
  "ry": 1026,
  "issu": 1027,
  "Ac": 1028,
  "Be": 1029,
  "small": 1030,
  "omin": 1031,
  "line": 1032,
  "Shiva": 1033,
  "NBA": 1034,
  "War": 1035,
  "urt": 1036,
  "power": 1037,
  "project": 1038,
  "track": 1039,
  "Oc": 1040,
  "group": 1041,
  "down": 1042,
  "ible": 1043,
  "hel": 1044,
  "five": 1045,
  "cause": 1046,
  "ase": 1047,
  "care": 1048,
  "fle": 1049,
  "same": 1050,
  "although": 1051,
  "leg": 1052,
  "vel": 1053,
  "ince": 1054,
  "start": 1055,
  "history": 1056,
  "Air": 1057,
  "Truj": 1058,
  "illo": 1059,
  "book": 1060,
  "place": 1061,
  "oman": 1062,
  "partic": 1063,
  "did": 1064,
  "called": 1065,
  "fam": 1066,
  "result": 1067,
  "Trujillo": 1068,
  "batt": 1069,
  "constru": 1070,
  "away": 1071,
  "ather": 1072,
  "193": 1073,
  "2013": 1074,
  "large": 1075,
  "each": 1076,
  "comple": 1077,
  "emp": 1078,
  "order": 1079,
  "support": 1080,
  "list": 1081,
  "ured": 1082,
  "represent": 1083,
  "amed": 1084,
  "formed": 1085,
  "50": 1086,
  "11": 1087,
  "Octo": 1088,
  "October": 1089,
  "Jan": 1090,
  "miss": 1091,
  "quad": 1092,
  "single": 1093,
  "took": 1094,
  "beli": 1095,
  "India": 1096,
  "ird": 1097,
  "along": 1098,
  "ung": 1099,
  "ually": 1100,
  "appro": 1101,
  "less": 1102,
  "ility": 1103,
  "ral": 1104,
  "mark": 1105,
  "million": 1106,
  "ium": 1107,
  "excav": 1108,
  "hand": 1109,
  "come": 1110,
  "13": 1111,
  "flu": 1112,
  "cording": 1113,
  "build": 1114,
  "overnment": 1115,
  "jo": 1116,
  "giv": 1117,
  "roy": 1118,
  "following": 1119,
  "uch": 1120,
  "pur": 1121,
  "bar": 1122,
  "ross": 1123,
  "contro": 1124,
  "avy": 1125,
  "unt": 1126,
  "world": 1127,
  "une": 1128,
  "ank": 1129,
  "North": 1130,
  "cour": 1131,
  "describ": 1132,
  "2007": 1133,
  "Am": 1134,
  "ideo": 1135,
  "received": 1136,
  "ier": 1137,
  "home": 1138,
  "jor": 1139,
  "site": 1140,
  "atter": 1141,
  "left": 1142,
  "included": 1143,
  "197": 1144,
  "192": 1145,
  "enn": 1146,
  "King": 1147,
  "just": 1148,
  "character": 1149,
  "continu": 1150,
  "oth": 1151,
  "Rock": 1152,
  "uc": 1153,
  "Car": 1154,
  "ivers": 1155,
  "Sap": 1156,
  "ained": 1157,
  "open": 1158,
  "person": 1159,
  "six": 1160,
  "14": 1161,
  "people": 1162,
  "career": 1163,
  "So": 1164,
  "fic": 1165,
  "ves": 1166,
  "ting": 1167,
  "ified": 1168,
  "cru": 1169,
  "useum": 1170,
  "life": 1171,
  "abl": 1172,
  "ator": 1173,
  "umb": 1174,
  "Str": 1175,
  "ument": 1176,
  "Saprang": 1177,
  "ese": 1178,
  "release": 1179,
  "spec": 1180,
  "pect": 1181,
  "activ": 1182,
  "requ": 1183,
  "Apr": 1184,
  "April": 1185,
  "Ad": 1186,
  "pass": 1187,
  "Mark": 1188,
  "Dece": 1189,
  "itary": 1190,
  "rest": 1191,
  "differ": 1192,
  "addition": 1193,
  "ls": 1194,
  "half": 1195,
  "US": 1196,
  "incre": 1197,
  "ho": 1198,
  "organ": 1199,
  "2006": 1200,
  "December": 1201,
  "yr": 1202,
  "empl": 1203,
  "consid": 1204,
  "empt": 1205,
  "Is": 1206,
  "even": 1207,
  "child": 1208,
  "school": 1209,
  "ution": 1210,
  "games": 1211,
  "lim": 1212,
  "ink": 1213,
  "Comm": 1214,
  "CA": 1215,
  "ilt": 1216,
  "States": 1217,
  "rum": 1218,
  "gen": 1219,
  "allow": 1220,
  "aim": 1221,
  "rote": 1222,
  "Aw": 1223,
  "human": 1224,
  "plan": 1225,
  "Rou": 1226,
  "Sb": 1227,
  "They": 1228,
  "oung": 1229,
  "resp": 1230,
  "moved": 1231,
  "period": 1232,
  "August": 1233,
  "ently": 1234,
  "cy": 1235,
  "agre": 1236,
  "ford": 1237,
  "week": 1238,
  "trad": 1239,
  "rew": 1240,
  "national": 1241,
  "Route": 1242,
  "fig": 1243,
  "bl": 1244,
  "Char": 1245,
  "around": 1246,
  "arg": 1247,
  "within": 1248,
  "aining": 1249,
  "prof": 1250,
  "World": 1251,
  "establ": 1252,
  "another": 1253,
  "cup": 1254,
  "described": 1255,
  "ys": 1256,
  "ski": 1257,
  "ado": 1258,
  "Br": 1259,
  "forman": 1260,
  "graf": 1261,
  "ately": 1262,
  "June": 1263,
  "name": 1264,
  "thor": 1265,
  "near": 1266,
  "Me": 1267,
  "iety": 1268,
  "thern": 1269,
  "Fran": 1270,
  "Lond": 1271,
  "London": 1272,
  "quadron": 1273,
  "Eu": 1274,
  "ached": 1275,
  "produced": 1276,
  "syn": 1277,
  "ptem": 1278,
  "chart": 1279,
  "review": 1280,
  "South": 1281,
  "ature": 1282,
  "fur": 1283,
  "band": 1284,
  "influ": 1285,
  "right": 1286,
  "inch": 1287,
  "uary": 1288,
  "vious": 1289,
  "points": 1290,
  "ibut": 1291,
  "post": 1292,
  "bod": 1293,
  "ble": 1294,
  "ric": 1295,
  "der": 1296,
  "now": 1297,
  "rope": 1298,
  "sol": 1299,
  "ilot": 1300,
  "Markgraf": 1301,
  "Furt": 1302,
  "Furtado": 1303,
  "posed": 1304,
  "ouse": 1305,
  "General": 1306,
  "vol": 1307,
  "Ne": 1308,
  "Septem": 1309,
  "September": 1310,
  "press": 1311,
  "Ro": 1312,
  "186": 1313,
  "16": 1314,
  "Tr": 1315,
  "omen": 1316,
  "195": 1317,
  "dom": 1318,
  "ero": 1319,
  "third": 1320,
  "real": 1321,
  "aving": 1322,
  "During": 1323,
  "den": 1324,
  "aph": 1325,
  "Pro": 1326,
  "final": 1327,
  "Little": 1328,
  "ander": 1329,
  "named": 1330,
  "Jack": 1331,
  "attempt": 1332,
  "ically": 1333,
  "goal": 1334,
  "196": 1335,
  "ggest": 1336,
  "ina": 1337,
  "Shol": 1338,
  "Sholay": 1339,
  "lock": 1340,
  "There": 1341,
  "major": 1342,
  "invol": 1343,
  "much": 1344,
  "orm": 1345,
  "held": 1346,
  "read": 1347,
  "West": 1348,
  "month": 1349,
  "family": 1350,
  "wrote": 1351,
  "Pr": 1352,
  "reak": 1353,
  "Roman": 1354,
  "irc": 1355,
  "performan": 1356,
  "Valk": 1357,
  "role": 1358,
  "previous": 1359,
  "ially": 1360,
  "those": 1361,
  "sim": 1362,
  "lect": 1363,
  "dest": 1364,
  "what": 1365,
  "ik": 1366,
  "fac": 1367,
  "Music": 1368,
  "gener": 1369,
  "UK": 1370,
  "val": 1371,
  "event": 1372,
  "ront": 1373,
  "built": 1374,
  "American": 1375,
  "published": 1376,
  "imes": 1377,
  "suggest": 1378,
  "anti": 1379,
  "seen": 1380,
  "We": 1381,
  "Ali": 1382,
  "enal": 1383,
  "2010": 1384,
  "original": 1385,
  "ask": 1386,
  "sequ": 1387,
  "cor": 1388,
  "particular": 1389,
  "prov": 1390,
  "hold": 1391,
  "vent": 1392,
  "ctions": 1393,
  "ages": 1394,
  "fly": 1395,
  "often": 1396,
  "aly": 1397,
  "Europe": 1398,
  "Arch": 1399,
  "commer": 1400,
  "ned": 1401,
  "polit": 1402,
  "prim": 1403,
  "Valkyr": 1404,
  "ales": 1405,
  "turn": 1406,
  "lear": 1407,
  "tro": 1408,
  "Ma": 1409,
  "last": 1410,
  "chan": 1411,
  "promot": 1412,
  "ively": 1413,
  "ior": 1414,
  "let": 1415,
  "ement": 1416,
  "che": 1417,
  "may": 1418,
  "van": 1419,
  "mi": 1420,
  "relig": 1421,
  "commun": 1422,
  "import": 1423,
  "Ju": 1424,
  "ulls": 1425,
  "ying": 1426,
  "returned": 1427,
  "members": 1428,
  "fect": 1429,
  "Army": 1430,
  "fem": 1431,
  "init": 1432,
  "aton": 1433,
  "poss": 1434,
  "since": 1435,
  "Indian": 1436,
  "because": 1437,
  "beh": 1438,
  "25": 1439,
  "north": 1440,
  "km": 1441,
  "Can": 1442,
  "21": 1443,
  "former": 1444,
  "January": 1445,
  "different": 1446,
  "stem": 1447,
  "great": 1448,
  "Or": 1449,
  "until": 1450,
  "vision": 1451,
  "bru": 1452,
  "put": 1453,
  "nder": 1454,
  "area": 1455,
  "City": 1456,
  "won": 1457,
  "scored": 1458,
  "Red": 1459,
  "Britain": 1460,
  "Mad": 1461,
  "Valkyria": 1462,
  "recorded": 1463,
  "ending": 1464,
  "throughout": 1465,
  "stat": 1466,
  "Mar": 1467,
  "city": 1468,
  "stated": 1469,
  "Febru": 1470,
  "February": 1471,
  "Ex": 1472,
  "tit": 1473,
  "lan": 1474,
  "songs": 1475,
  "construction": 1476,
  "sit": 1477,
  "draw": 1478,
  "iver": 1479,
  "road": 1480,
  "water": 1481,
  "ael": 1482,
  "Austr": 1483,
  "ulf": 1484,
  "However": 1485,
  "eved": 1486,
  "circ": 1487,
  "aer": 1488,
  "Eaton": 1489,
  "Archaeolog": 1490,
  "Bulls": 1491,
  "military": 1492,
  "operations": 1493,
  "player": 1494,
  "cus": 1495,
  "sold": 1496,
  "make": 1497,
  "due": 1498,
  "pite": 1499,
  "uments": 1500,
  "stead": 1501,
  "men": 1502,
  "equ": 1503,
  "south": 1504,
  "def": 1505,
  "Fin": 1506,
  "divine": 1507,
  "sound": 1508,
  "por": 1509,
  "thing": 1510,
  "fire": 1511,
  "noted": 1512,
  "continued": 1513,
  "His": 1514,
  "foot": 1515,
  "Ear": 1516,
  "shot": 1517,
  "placed": 1518,
  "ner": 1519,
  "mid": 1520,
  "ize": 1521,
  "commercial": 1522,
  "Mc": 1523,
  "appoint": 1524,
  "formation": 1525,
  "Sovi": 1526,
  "III": 1527,
  "run": 1528,
  "cret": 1529,
  "oto": 1530,
  "take": 1531,
  "system": 1532,
  "using": 1533,
  "will": 1534,
  "based": 1535,
  "popular": 1536,
  "cas": 1537,
  "ley": 1538,
  "government": 1539,
  "author": 1540,
  "sent": 1541,
  "Gu": 1542,
  "death": 1543,
  "And": 1544,
  "late": 1545,
  "Par": 1546,
  "match": 1547,
  "Des": 1548,
  "Gr": 1549,
  "voc": 1550,
  "eas": 1551,
  "indu": 1552,
  "ox": 1553,
  "2011": 1554,
  "develop": 1555,
  "local": 1556,
  "dist": 1557,
  "aff": 1558,
  "arker": 1559,
  "sty": 1560,
  "aken": 1561,
  "Blue": 1562,
  "club": 1563,
  "March": 1564,
  "signed": 1565,
  "Long": 1566,
  "lab": 1567,
  "atory": 1568,
  "further": 1569,
  "father": 1570,
  "histor": 1571,
  "depict": 1572,
  "claim": 1573,
  "given": 1574,
  "Ge": 1575,
  "ats": 1576,
  "aver": 1577,
  "Kingdom": 1578,
  "rock": 1579,
  "pilot": 1580,
  "ision": 1581,
  "With": 1582,
  "himself": 1583,
  "destroy": 1584,
  "successful": 1585,
  "ilar": 1586,
  "Pe": 1587,
  "Black": 1588,
  "tele": 1589,
  "building": 1590,
  "40": 1591,
  "increas": 1592,
  "various": 1593,
  "guns": 1594,
  "fun": 1595,
  "mar": 1596,
  "board": 1597,
  "Although": 1598,
  "wor": 1599,
  "Ph": 1600,
  "contract": 1601,
  "layer": 1602,
  "Squadron": 1603,
  "Cull": 1604,
  "metal": 1605,
  "Clark": 1606,
  "underground": 1607,
  "pan": 1608,
  "forces": 1609,
  "very": 1610,
  "ored": 1611,
  "award": 1612,
  "ving": 1613,
  "fel": 1614,
  "member": 1615,
  "short": 1616,
  "considered": 1617,
  "best": 1618,
  "production": 1619,
  "ene": 1620,
  "front": 1621,
  "term": 1622,
  "Lo": 1623,
  "Columb": 1624,
  "National": 1625,
  "ants": 1626,
  "2009": 1627,
  "fr": 1628,
  "test": 1629,
  "mix": 1630,
  "ny": 1631,
  "Cold": 1632,
  "2014": 1633,
  "without": 1634,
  "AS": 1635,
  "critic": 1636,
  "uals": 1637,
  "reported": 1638,
  "iron": 1639,
  "ient": 1640,
  "country": 1641,
  "profess": 1642,
  "ling": 1643,
  "ends": 1644,
  "ices": 1645,
  "amb": 1646,
  "hour": 1647,
  "These": 1648,
  "HL": 1649,
  "100": 1650,
  "adem": 1651,
  "wood": 1652,
  "cruis": 1653,
  "Clarkson": 1654,
  "icles": 1655,
  "estern": 1656,
  "ulation": 1657,
  "attack": 1658,
  "special": 1659,
  "ital": 1660,
  "mod": 1661,
  "lower": 1662,
  "ude": 1663,
  "itions": 1664,
  "Min": 1665,
  "eder": 1666,
  "ivil": 1667,
  "ope": 1668,
  "women": 1669,
  "Her": 1670,
  "2008": 1671,
  "scoring": 1672,
  "ports": 1673,
  "ica": 1674,
  "arian": 1675,
  "Cullen": 1676,
  "apped": 1677,
  "excavation": 1678,
  "Jew": 1679,
  "Poland": 1680,
  "developed": 1681,
  "Med": 1682,
  "carr": 1683,
  "iqu": 1684,
  "ared": 1685,
  "never": 1686,
  "next": 1687,
  "live": 1688,
  "2012": 1689,
  "By": 1690,
  "sure": 1691,
  "plann": 1692,
  "ences": 1693,
  "search": 1694,
  "key": 1695,
  "isted": 1696,
  "east": 1697,
  "Ste": 1698,
  "flo": 1699,
  "occup": 1700,
  "Barker": 1701,
  "ues": 1702,
  "Go": 1703,
  "League": 1704,
  "debut": 1705,
  "iversity": 1706,
  "anta": 1707,
  "Roy": 1708,
  "ez": 1709,
  "edy": 1710,
  "rench": 1711,
  "Dev": 1712,
  "hip": 1713,
  "fleet": 1714,
  "ithic": 1715,
  "direct": 1716,
  "ways": 1717,
  "become": 1718,
  "tribut": 1719,
  "times": 1720,
  "gin": 1721,
  "ives": 1722,
  "seven": 1723,
  "23": 1724,
  "ata": 1725,
  "pat": 1726,
  "behind": 1727,
  "pair": 1728,
  "activities": 1729,
  "abo": 1730,
  "ger": 1731,
  "compet": 1732,
  "lled": 1733,
  "FI": 1734,
  "sch": 1735,
  "host": 1736,
  "Fern": 1737,
  "Fernand": 1738,
  "French": 1739,
  "ians": 1740,
  "Madero": 1741,
  "Antim": 1742,
  "ferred": 1743,
  "get": 1744,
  "expl": 1745,
  "events": 1746,
  "kill": 1747,
  "still": 1748,
  "enced": 1749,
  "should": 1750,
  "semb": 1751,
  "hib": 1752,
  "iter": 1753,
  "level": 1754,
  "sou": 1755,
  "ness": 1756,
  "Jackets": 1757,
  "important": 1758,
  "Under": 1759,
  "struck": 1760,
  "Best": 1761,
  "concer": 1762,
  "odrom": 1763,
  "stitute": 1764,
  "caves": 1765,
  "Chron": 1766,
  "Em": 1767,
  "itted": 1768,
  "battle": 1769,
  "force": 1770,
  "however": 1771,
  "written": 1772,
  "enter": 1773,
  "ances": 1774,
  "ination": 1775,
  "Bo": 1776,
  "24": 1777,
  "colle": 1778,
  "labor": 1779,
  "rap": 1780,
  "police": 1781,
  "century": 1782,
  "fund": 1783,
  "ivate": 1784,
  "sex": 1785,
  "appeared": 1786,
  "reached": 1787,
  "break": 1788,
  "appointed": 1789,
  "ival": 1790,
  "Fernandez": 1791,
  "aries": 1792,
  "Coldrum": 1793,
  "tomb": 1794,
  "went": 1795,
  "tra": 1796,
  "camp": 1797,
  "Sc": 1798,
  "iving": 1799,
  "ising": 1800,
  "iting": 1801,
  "located": 1802,
  "wide": 1803,
  "ham": 1804,
  "cal": 1805,
  "among": 1806,
  "remained": 1807,
  "earli": 1808,
  "Austral": 1809,
  "omet": 1810,
  "closed": 1811,
  "Ser": 1812,
  "Mich": 1813,
  "believed": 1814,
  "performance": 1815,
  "ane": 1816,
  "ogue": 1817,
  "regime": 1818,
  "Soviet": 1819,
  "video": 1820,
  "story": 1821,
  "exp": 1822,
  "tom": 1823,
  "grow": 1824,
  "move": 1825,
  "limited": 1826,
  "sw": 1827,
  "female": 1828,
  "fort": 1829,
  "suf": 1830,
  "hop": 1831,
  "nal": 1832,
  "novel": 1833,
  "Of": 1834,
  "istic": 1835,
  "James": 1836,
  "fact": 1837,
  "ief": 1838,
  "signific": 1839,
  "sociation": 1840,
  "rop": 1841,
  "educ": 1842,
  "Early": 1843,
  "ken": 1844,
  "olid": 1845,
  "ush": 1846,
  "across": 1847,
  "shr": 1848,
  "ov": 1849,
  "cou": 1850,
  "Columbus": 1851,
  "Phil": 1852,
  "sell": 1853,
  "coin": 1854,
  "effect": 1855,
  "mm": 1856,
  "July": 1857,
  "Royal": 1858,
  "damage": 1859,
  "viol": 1860,
  "tradition": 1861,
  "rapped": 1862,
  "albums": 1863,
  "coins": 1864,
  "discover": 1865,
  "Antimony": 1866,
  "Chronicles": 1867,
  "aven": 1868,
  "control": 1869,
  "ivid": 1870,
  "tre": 1871,
  "idence": 1872,
  "xim": 1873,
  "mater": 1874,
  "forms": 1875,
  "bon": 1876,
  "Some": 1877,
  "feder": 1878,
  "served": 1879,
  "ery": 1880,
  "Per": 1881,
  "nor": 1882,
  "ket": 1883,
  "ably": 1884,
  "days": 1885,
  "performed": 1886,
  "ler": 1887,
  "ister": 1888,
  "ington": 1889,
  "dev": 1890,
  "ioned": 1891,
  "gre": 1892,
  "wind": 1893,
  "ention": 1894,
  "feet": 1895,
  "deal": 1896,
  "league": 1897,
  "star": 1898,
  "ference": 1899,
  "Bill": 1900,
  "version": 1901,
  "Carol": 1902,
  "Awards": 1903,
  "you": 1904,
  "Te": 1905,
  "flight": 1906,
  "flying": 1907,
  "apping": 1908,
  "cham": 1909,
  "monument": 1910,
  "Wrapped": 1911,
  "Batt": 1912,
  "making": 1913,
  "akes": 1914,
  "ials": 1915,
  "ither": 1916,
  "iers": 1917,
  "need": 1918,
  "leading": 1919,
  "ward": 1920,
  "damaged": 1921,
  "Two": 1922,
  "museum": 1923,
  "established": 1924,
  "officers": 1925,
  "Union": 1926,
  "ged": 1927,
  "few": 1928,
  "augh": 1929,
  "Soc": 1930,
  "oliday": 1931,
  "di": 1932,
  "base": 1933,
  "cave": 1934,
  "Island": 1935,
  "NHL": 1936,
  "tal": 1937,
  "training": 1938,
  "University": 1939,
  "mis": 1940,
  "joined": 1941,
  "writing": 1942,
  "every": 1943,
  "say": 1944,
  "AA": 1945,
  "Year": 1946,
  "rain": 1947,
  "iding": 1948,
  "ico": 1949,
  "reaction": 1950,
  "sa": 1951,
  "Jewish": 1952,
  "free": 1953,
  "individ": 1954,
  "having": 1955,
  "ca": 1956,
  "ability": 1957,
  "interest": 1958,
  "created": 1959,
  "When": 1960,
  "similar": 1961,
  "ara": 1962,
  "ought": 1963,
  "According": 1964,
  "coming": 1965,
  "Ark": 1966,
  "central": 1967,
  "stone": 1968,
  "ison": 1969,
  "aper": 1970,
  "bel": 1971,
  "fav": 1972,
  "wife": 1973,
  "children": 1974,
  "imp": 1975,
  "Canad": 1976,
  "44": 1977,
  "avi": 1978,
  "atic": 1979,
  "Michael": 1980,
  "followed": 1981,
  "ounds": 1982,
  "tour": 1983,
  "iness": 1984,
  "decl": 1985,
  "aerodrom": 1986,
  "Uran": 1987,
  "While": 1988,
  "temp": 1989,
  "ops": 1990,
  "chang": 1991,
  "One": 1992,
  "comb": 1993,
  "gave": 1994,
  "pie": 1995,
  "standing": 1996,
  "goals": 1997,
  "wall": 1998,
  "instead": 1999,
  "Pres": 2000,
  "bur": 2001,
  "Fair": 2002,
  "ott": 2003,
  "stitut": 2004,
  "vey": 2005,
  "rad": 2006,
  "ament": 2007,
  "estim": 2008,
  "close": 2009,
  "omb": 2010,
  "BC": 2011,
  "Atl": 2012,
  "Thak": 2013,
  "dess": 2014,
  "appl": 2015,
  "Urania": 2016,
  "abbar": 2017,
  "Institute": 2018,
  "common": 2019,
  "players": 2020,
  "ories": 2021,
  "aled": 2022,
  "ense": 2023,
  "Up": 2024,
  "ben": 2025,
  "full": 2026,
  "ike": 2027,
  "graph": 2028,
  "Ed": 2029,
  "others": 2030,
  "foc": 2031,
  "conne": 2032,
  "taken": 2033,
  "don": 2034,
  "Navy": 2035,
  "pain": 2036,
  "Sur": 2037,
  "Society": 2038,
  "schools": 2039,
  "fri": 2040,
  "Gir": 2041,
  "Tim": 2042,
  "range": 2043,
  "Co": 2044,
  "Mon": 2045,
  "fail": 2046,
  "Academ": 2047,
  "storm": 2048,
  "shown": 2049,
  "block": 2050,
  "60": 2051,
  "intro": 2052,
  "nyi": 2053,
  "gal": 2054,
  "Video": 2055,
  "Finals": 2056,
  "olithic": 2057,
  "archaeological": 2058,
  "anted": 2059,
  "Eng": 2060,
  "22": 2061,
  "exist": 2062,
  "house": 2063,
  "ches": 2064,
  "general": 2065,
  "cop": 2066,
  "bal": 2067,
  "suffer": 2068,
  "Museum": 2069,
  "television": 2070,
  "town": 2071,
  "bert": 2072,
  "partment": 2073,
  "spir": 2074,
  "brough": 2075,
  "spect": 2076,
  "cing": 2077,
  "80": 2078,
  "condu": 2079,
  "religious": 2080,
  "photo": 2081,
  "least": 2082,
  "playoff": 2083,
  "political": 2084,
  "yl": 2085,
  "primary": 2086,
  "battles": 2087,
  "operation": 2088,
  "sky": 2089,
  "submar": 2090,
  "Young": 2091,
  "basket": 2092,
  "development": 2093,
  "scr": 2094,
  "characters": 2095,
  "young": 2096,
  "body": 2097,
  "decided": 2098,
  "ality": 2099,
  "SN": 2100,
  "style": 2101,
  "include": 2102,
  "how": 2103,
  "ened": 2104,
  "actions": 2105,
  "started": 2106,
  "employ": 2107,
  "change": 2108,
  "station": 2109,
  "oted": 2110,
  "fif": 2111,
  "significant": 2112,
  "eight": 2113,
  "moun": 2114,
  "rican": 2115,
  "cm": 2116,
  "ape": 2117,
  "trade": 2118,
  "Su": 2119,
  "Bar": 2120,
  "sil": 2121,
  "subsequ": 2122,
  "Billboard": 2123,
  "tor": 2124,
  "relation": 2125,
  "ensive": 2126,
  "regular": 2127,
  "prop": 2128,
  "saw": 2129,
  "figure": 2130,
  "cultural": 2131,
  "ati": 2132,
  "Devin": 2133,
  "agogue": 2134,
  "FIT": 2135,
  "Loose": 2136,
  "perform": 2137,
  "director": 2138,
  "ilities": 2139,
  "rank": 2140,
  "Cro": 2141,
  "loss": 2142,
  "material": 2143,
  "worked": 2144,
  "reve": 2145,
  "issue": 2146,
  "tail": 2147,
  "west": 2148,
  "sum": 2149,
  "announ": 2150,
  "possible": 2151,
  "tic": 2152,
  "State": 2153,
  "process": 2154,
  "ipp": 2155,
  "aval": 2156,
  "brought": 2157,
  "idge": 2158,
  "strong": 2159,
  "Ve": 2160,
  "School": 2161,
  "aut": 2162,
  "marked": 2163,
  "fre": 2164,
  "Blackie": 2165,
  "icated": 2166,
  "Girls": 2167,
  "unch": 2168,
  "ray": 2169,
  "region": 2170,
  "Rus": 2171,
  "earlier": 2172,
  "fall": 2173,
  "recording": 2174,
  "2015": 2175,
  "night": 2176,
  "demon": 2177,
  "industr": 2178,
  "goddess": 2179,
  "Slayer": 2180,
  "transport": 2181,
  "sulf": 2182,
  "Llo": 2183,
  "Germany": 2184,
  "vati": 2185,
  "Strapping": 2186,
  "Gabbar": 2187,
  "ansfield": 2188,
  "Battle": 2189,
  "outside": 2190,
  "Port": 2191,
  "itive": 2192,
  "approach": 2193,
  "occur": 2194,
  "ficult": 2195,
  "alth": 2196,
  "Reg": 2197,
  "Dar": 2198,
  "ster": 2199,
  "certain": 2200,
  "cient": 2201,
  "ref": 2202,
  "upon": 2203,
  "involved": 2204,
  "thought": 2205,
  "Rich": 2206,
  "inj": 2207,
  "Bu": 2208,
  "commiss": 2209,
  "pread": 2210,
  "troops": 2211,
  "Sm": 2212,
  "Most": 2213,
  "rif": 2214,
  "lost": 2215,
  "adel": 2216,
  "adelph": 2217,
  "adelphia": 2218,
  "Record": 2219,
  "above": 2220,
  "word": 2221,
  "professional": 2222,
  "mag": 2223,
  "little": 2224,
  "mother": 2225,
  "Geor": 2226,
  "ogn": 2227,
  "Association": 2228,
  "lot": 2229,
  "Kr": 2230,
  "medi": 2231,
  "cred": 2232,
  "remains": 2233,
  "Fle": 2234,
  "aud": 2235,
  "Dav": 2236,
  "reet": 2237,
  "stro": 2238,
  "law": 2239,
  "comedy": 2240,
  "alin": 2241,
  "date": 2242,
  "sat": 2243,
  "yn": 2244,
  "battleship": 2245,
  "Hung": 2246,
  "myth": 2247,
  "deity": 2248,
  "image": 2249,
  "polic": 2250,
  "coup": 2251,
  "Varg": 2252,
  "Vargas": 2253,
  "Llosa": 2254,
  "End": 2255,
  "SNL": 2256,
  "Parvati": 2257,
  "features": 2258,
  "mult": 2259,
  "Ra": 2260,
  "anim": 2261,
  "ranch": 2262,
  "Game": 2263,
  "difficult": 2264,
  "minor": 2265,
  "igned": 2266,
  "names": 2267,
  "evidence": 2268,
  "begin": 2269,
  "staff": 2270,
  "uk": 2271,
  "felt": 2272,
  "too": 2273,
  "ustr": 2274,
  "Arkans": 2275,
  "prob": 2276,
  "observ": 2277,
  "ax": 2278,
  "marr": 2279,
  "shell": 2280,
  "private": 2281,
  "ology": 2282,
  "recogn": 2283,
  "Australia": 2284,
  "lack": 2285,
  "atin": 2286,
  "45": 2287,
  "total": 2288,
  "ators": 2289,
  "minute": 2290,
  "ization": 2291,
  "suggested": 2292,
  "lement": 2293,
  "ption": 2294,
  "accept": 2295,
  "Carolina": 2296,
  "films": 2297,
  "Film": 2298,
  "hur": 2299,
  "East": 2300,
  "treat": 2301,
  "Egyptians": 2302,
  "culture": 2303,
  "Domin": 2304,
  "ream": 2305,
  "assass": 2306,
  "reag": 2307,
  "island": 2308,
  "WAS": 2309,
  "WASP": 2310,
  "chamber": 2311,
  "Lad": 2312,
  "basketball": 2313,
  "playing": 2314,
  "ipt": 2315,
  "fan": 2316,
  "grad": 2317,
  "aps": 2318,
  "Dire": 2319,
  "inc": 2320,
  "face": 2321,
  "works": 2322,
  "prote": 2323,
  "command": 2324,
  "revol": 2325,
  "despite": 2326,
  "You": 2327,
  "ournal": 2328,
  "particularly": 2329,
  "writer": 2330,
  "featured": 2331,
  "announced": 2332,
  "cast": 2333,
  "Tower": 2334,
  "Arkansas": 2335,
  "mitted": 2336,
  "forced": 2337,
  "San": 2338,
  "shows": 2339,
  "surround": 2340,
  "past": 2341,
  "England": 2342,
  "broken": 2343,
  "social": 2344,
  "Nor": 2345,
  "erry": 2346,
  "Many": 2347,
  "nature": 2348,
  "fired": 2349,
  "weeks": 2350,
  "strict": 2351,
  "bi": 2352,
  "langu": 2353,
  "High": 2354,
  "Academy": 2355,
  "according": 2356,
  "Sing": 2357,
  "orus": 2358,
  "mir": 2359,
  "Act": 2360,
  "TV": 2361,
  "introdu": 2362,
  "rz": 2363,
  "figures": 2364,
  "Def": 2365,
  "Fleet": 2366,
  "holiday": 2367,
  "Dí": 2368,
  "Díaz": 2369,
  "Republic": 2370,
  "synagogue": 2371,
  "OT": 2372,
  "archaeology": 2373,
  "nation": 2374,
  "sele": 2375,
  "epis": 2376,
  "elements": 2377,
  "once": 2378,
  "either": 2379,
  "help": 2380,
  "experi": 2381,
  "typ": 2382,
  "pose": 2383,
  "look": 2384,
  "designed": 2385,
  "instr": 2386,
  "prec": 2387,
  "avail": 2388,
  "pot": 2389,
  "inst": 2390,
  "Hist": 2391,
  "tower": 2392,
  "remaining": 2393,
  "arms": 2394,
  "28": 2395,
  "completed": 2396,
  "cutive": 2397,
  "issued": 2398,
  "Department": 2399,
  "establish": 2400,
  "case": 2401,
  "born": 2402,
  "oney": 2403,
  "hon": 2404,
  "studio": 2405,
  "chn": 2406,
  "2005": 2407,
  "plain": 2408,
  "iam": 2409,
  "toge": 2410,
  "together": 2411,
  "sl": 2412,
  "lic": 2413,
  "1990": 2414,
  "2003": 2415,
  "community": 2416,
  "inches": 2417,
  "crew": 2418,
  "comment": 2419,
  "70": 2420,
  "fict": 2421,
  "istan": 2422,
  "har": 2423,
  "usiness": 2424,
  "eastern": 2425,
  "emples": 2426,
  "rul": 2427,
  "Pet": 2428,
  "America": 2429,
  "Mint": 2430,
  "eru": 2431,
  "Dominican": 2432,
  "Zagre": 2433,
  "Zagreb": 2434,
  "Germans": 2435,
  "Neolithic": 2436,
  "stones": 2437,
  "Thai": 2438,
  "Second": 2439,
  "pra": 2440,
  "els": 2441,
  "lin": 2442,
  "mission": 2443,
  "heavy": 2444,
  "impro": 2445,
  "modern": 2446,
  "appearance": 2447,
  "ros": 2448,
  "29": 2449,
  "ama": 2450,
  "Light": 2451,
  "Will": 2452,
  "quar": 2453,
  "Government": 2454,
  "ney": 2455,
  "lines": 2456,
  "agreed": 2457,
  "personal": 2458,
  "bor": 2459,
  "Records": 2460,
  "favor": 2461,
  "uses": 2462,
  "1994": 2463,
  "books": 2464,
  "ometimes": 2465,
  "southern": 2466,
  "taking": 2467,
  "find": 2468,
  "ampion": 2469,
  "schol": 2470,
  "Western": 2471,
  "ender": 2472,
  "winning": 2473,
  "Man": 2474,
  "might": 2475,
  "dead": 2476,
  "ication": 2477,
  "represented": 2478,
  "istics": 2479,
  "Ital": 2480,
  "teen": 2481,
  "Atlanta": 2482,
  "Charles": 2483,
  "theat": 2484,
  "shoot": 2485,
  "wing": 2486,
  "pract": 2487,
  "increasing": 2488,
  "VP": 2489,
  "agand": 2490,
  "FITs": 2491,
  "Stansfield": 2492,
  "theme": 2493,
  "carried": 2494,
  "To": 2495,
  "acqu": 2496,
  "does": 2497,
  "meth": 2498,
  "ased": 2499,
  "mot": 2500,
  "struct": 2501,
  "sett": 2502,
  "initially": 2503,
  "ibility": 2504,
  "lyr": 2505,
  "listed": 2506,
  "500": 2507,
  "aspect": 2508,
  "31": 2509,
  "respect": 2510,
  "2001": 2511,
  "situ": 2512,
  "civil": 2513,
  "deli": 2514,
  "35": 2515,
  "River": 2516,
  "aign": 2517,
  "nearly": 2518,
  "prepar": 2519,
  "concl": 2520,
  "acts": 2521,
  "meet": 2522,
  "largely": 2523,
  "Great": 2524,
  "education": 2525,
  "pen": 2526,
  "claimed": 2527,
  "died": 2528,
  "dou": 2529,
  "ey": 2530,
  "football": 2531,
  "1998": 2532,
  "access": 2533,
  "course": 2534,
  "rown": 2535,
  "surv": 2536,
  "pick": 2537,
  "draft": 2538,
  "Philadelphia": 2539,
  "highest": 2540,
  "minut": 2541,
  "hit": 2542,
  "fourth": 2543,
  "Conference": 2544,
  "CAA": 2545,
  "sun": 2546,
  "ateg": 2547,
  "era": 2548,
  "silver": 2549,
  "curren": 2550,
  "twent": 2551,
  "ulated": 2552,
  "vice": 2553,
  "clear": 2554,
  "pilots": 2555,
  "ha": 2556,
  "Kar": 2557,
  "offer": 2558,
  "worship": 2559,
  "object": 2560,
  "carbon": 2561,
  "acre": 2562,
  "dollars": 2563,
  "RAA": 2564,
  "RAAF": 2565,
  "MVP": 2566,
  "ław": 2567,
  "archaeologist": 2568,
  "Veeru": 2569,
  "Sen": 2570,
  "Cal": 2571,
  "opening": 2572,
  "dict": 2573,
  "orary": 2574,
  "acc": 2575,
  "depend": 2576,
  "Ram": 2577,
  "reason": 2578,
  "armed": 2579,
  "beginning": 2580,
  "wanted": 2581,
  "interview": 2582,
  "amoun": 2583,
  "originally": 2584,
  "piece": 2585,
  "27": 2586,
  "good": 2587,
  "But": 2588,
  "company": 2589,
  "Art": 2590,
  "Smith": 2591,
  "govern": 2592,
  "President": 2593,
  "allowed": 2594,
  "complete": 2595,
  "soon": 2596,
  "ago": 2597,
  "itors": 2598,
  "urch": 2599,
  "dle": 2600,
  "My": 2601,
  "fru": 2602,
  "students": 2603,
  "aves": 2604,
  "nat": 2605,
  "ples": 2606,
  "FA": 2607,
  "Foot": 2608,
  "2002": 2609,
  "acting": 2610,
  "greater": 2611,
  "estimated": 2612,
  "ceed": 2613,
  "Star": 2614,
  "manag": 2615,
  "iew": 2616,
  "fifth": 2617,
  "minutes": 2618,
  "arily": 2619,
  "metres": 2620,
  "subsequently": 2621,
  "Care": 2622,
  "controlled": 2623,
  "pow": 2624,
  "redu": 2625,
  "Kh": 2626,
  "whom": 2627,
  "supported": 2628,
  "Hungarian": 2629,
  "temples": 2630,
  "ample": 2631,
  "bodies": 2632,
  "producer": 2633,
  "ulpt": 2634,
  "Archaeological": 2635,
  "Russ": 2636,
  "ga": 2637,
  "Play": 2638,
  "iple": 2639,
  "gress": 2640,
  "ential": 2641,
  "Ab": 2642,
  "killed": 2643,
  "parts": 2644,
  "tracks": 2645,
  "available": 2646,
  "Engl": 2647,
  "English": 2648,
  "neg": 2649,
  "generally": 2650,
  "azine": 2651,
  "scene": 2652,
  "turned": 2653,
  "Kur": 2654,
  "artists": 2655,
  "eventually": 2656,
  "Ant": 2657,
  "mun": 2658,
  "elect": 2659,
  "gram": 2660,
  "ply": 2661,
  "quick": 2662,
  "ges": 2663,
  "185": 2664,
  "iber": 2665,
  "opened": 2666,
  "miles": 2667,
  "attempted": 2668,
  "pressed": 2669,
  "90": 2670,
  "larger": 2671,
  "Chic": 2672,
  "Chicago": 2673,
  "Sim": 2674,
  "sister": 2675,
  "aren": 2676,
  "vert": 2677,
  "liter": 2678,
  "conducted": 2679,
  "capt": 2680,
  "influenced": 2681,
  "lif": 2682,
  "species": 2683,
  "conom": 2684,
  "broad": 2685,
  "promin": 2686,
  "size": 2687,
  "allowing": 2688,
  "prior": 2689,
  "owner": 2690,
  "protest": 2691,
  "Despite": 2692,
  "Italian": 2693,
  "language": 2694,
  "Met": 2695,
  "David": 2696,
  "highway": 2697,
  "Secret": 2698,
  "Commander": 2699,
  "miral": 2700,
  "mass": 2701,
  "Award": 2702,
  "nomin": 2703,
  "reviews": 2704,
  "see": 2705,
  "cere": 2706,
  "CAT": 2707,
  "Austro": 2708,
  "heav": 2709,
  "creation": 2710,
  "defin": 2711,
  "viron": 2712,
  "vironment": 2713,
  "vill": 2714,
  "tru": 2715,
  "monuments": 2716,
  "shrine": 2717,
  "2004": 2718,
  "ider": 2719,
  "aerodromes": 2720,
  "European": 2721,
  "1939": 2722,
  "Zr": 2723,
  "zy": 2724,
  "Director": 2725,
  "sal": 2726,
  "sculpt": 2727,
  "Mex": 2728,
  "president": 2729,
  "Cor": 2730,
  "ellig": 2731,
  "Naz": 2732,
  "aganda": 2733,
  "barrow": 2734,
  "Medway": 2735,
  "exit": 2736,
  "Rev": 2737,
  "additional": 2738,
  "related": 2739,
  "call": 2740,
  "happ": 2741,
  "vict": 2742,
  "entire": 2743,
  "know": 2744,
  "fight": 2745,
  "soldiers": 2746,
  "sion": 2747,
  "leader": 2748,
  "keep": 2749,
  "revolution": 2750,
  "required": 2751,
  "mode": 2752,
  "pected": 2753,
  "guit": 2754,
  "working": 2755,
  "respons": 2756,
  "lyrics": 2757,
  "detail": 2758,
  "Fl": 2759,
  "net": 2760,
  "provided": 2761,
  "planned": 2762,
  "Road": 2763,
  "Flower": 2764,
  "Ars": 2765,
  "Arsenal": 2766,
  "Club": 2767,
  "necess": 2768,
  "dem": 2769,
  "secur": 2770,
  "subject": 2771,
  "That": 2772,
  "consisted": 2773,
  "campaign": 2774,
  "iths": 2775,
  "naval": 2776,
  "months": 2777,
  "finally": 2778,
  "collabor": 2779,
  "1985": 2780,
  "Ele": 2781,
  "ald": 2782,
  "sometimes": 2783,
  "sac": 2784,
  "attention": 2785,
  "House": 2786,
  "Wales": 2787,
  "Tre": 2788,
  "particip": 2789,
  "Football": 2790,
  "ili": 2791,
  "below": 2792,
  "ological": 2793,
  "threat": 2794,
  "thus": 2795,
  "terms": 2796,
  "Oper": 2797,
  "archite": 2798,
  "architect": 2799,
  "hill": 2800,
  "twenty": 2801,
  "step": 2802,
  "Coun": 2803,
  "reek": 2804,
  "acy": 2805,
  "torped": 2806,
  "torpedo": 2807,
  "Admiral": 2808,
  "Penn": 2809,
  "relationship": 2810,
  "ceremon": 2811,
  "Canada": 2812,
  "MS": 2813,
  "Croat": 2814,
  "abs": 2815,
  "religion": 2816,
  "Other": 2817,
  "example": 2818,
  "Heaven": 2819,
  "aviation": 2820,
  "radio": 2821,
  "Zrí": 2822,
  "Zrínyi": 2823,
  "mint": 2824,
  "eter": 2825,
  "Pak": 2826,
  "Pakistan": 2827,
  "copies": 2828,
  "ricane": 2829,
  "Jai": 2830,
  "pred": 2831,
  "nine": 2832,
  "always": 2833,
  "Po": 2834,
  "awarded": 2835,
  "imin": 2836,
  "numbers": 2837,
  "Mil": 2838,
  "officer": 2839,
  "destroyed": 2840,
  "asked": 2841,
  "mostly": 2842,
  "territ": 2843,
  "comes": 2844,
  "selves": 2845,
  "finished": 2846,
  "respon": 2847,
  "response": 2848,
  "poly": 2849,
  "space": 2850,
  "ify": 2851,
  "engine": 2852,
  "People": 2853,
  "Mag": 2854,
  "highly": 2855,
  "apt": 2856,
  "stop": 2857,
  "title": 2858,
  "commander": 2859,
  "newly": 2860,
  "ores": 2861,
  "ordered": 2862,
  "iment": 2863,
  "ee": 2864,
  "exe": 2865,
  "saf": 2866,
  "proper": 2867,
  "fell": 2868,
  "batter": 2869,
  "reen": 2870,
  "isto": 2871,
  "continue": 2872,
  "ience": 2873,
  "cam": 2874,
  "ously": 2875,
  "aching": 2876,
  "Follow": 2877,
  "Following": 2878,
  "coast": 2879,
  "photograph": 2880,
  "49": 2881,
  "beat": 2882,
  "launch": 2883,
  "econom": 2884,
  "nuc": 2885,
  "individuals": 2886,
  "study": 2887,
  "sexual": 2888,
  "replaced": 2889,
  "seasons": 2890,
  "conse": 2891,
  "ishing": 2892,
  "ille": 2893,
  "refle": 2894,
  "Jul": 2895,
  "greatest": 2896,
  "tee": 2897,
  "88": 2898,
  "notes": 2899,
  "Carey": 2900,
  "mixed": 2901,
  "vocals": 2902,
  "Bob": 2903,
  "newsp": 2904,
  "trave": 2905,
  "1986": 2906,
  "winds": 2907,
  "antic": 2908,
  "hard": 2909,
  "business": 2910,
  "1991": 2911,
  "belief": 2912,
  "bomb": 2913,
  "tur": 2914,
  "battleships": 2915,
  "symb": 2916,
  "symbol": 2917,
  "Frank": 2918,
  "counter": 2919,
  "think": 2920,
  "cruiser": 2921,
  "fung": 2922,
  "Longacre": 2923,
  "Zap": 2924,
  "solo": 2925,
  "isc": 2926,
  "usz": 2927,
  "Station": 2928,
  "Im": 2929,
  "critics": 2930,
  "franch": 2931,
  "told": 2932,
  "itch": 2933,
  "mean": 2934,
  "sen": 2935,
  "themselves": 2936,
  "conf": 2937,
  "separ": 2938,
  "maintain": 2939,
  "mus": 2940,
  "non": 2941,
  "issues": 2942,
  "ode": 2943,
  "purch": 2944,
  "insp": 2945,
  "request": 2946,
  "pri": 2947,
  "federal": 2948,
  "respond": 2949,
  "prevent": 2950,
  "almost": 2951,
  "ker": 2952,
  "probably": 2953,
  "exhib": 2954,
  "suffered": 2955,
  "95": 2956,
  "Fairies": 2957,
  "ns": 2958,
  "ograp": 2959,
  "entered": 2960,
  "1940": 2961,
  "ips": 2962,
  "shire": 2963,
  "hom": 2964,
  "things": 2965,
  "1943": 2966,
  "Prom": 2967,
  "society": 2968,
  "Way": 2969,
  "Gamb": 2970,
  "Cup": 2971,
  "hours": 2972,
  "Mor": 2973,
  "Another": 2974,
  "unity": 2975,
  "mask": 2976,
  "male": 2977,
  "ains": 2978,
  "far": 2979,
  "caused": 2980,
  "consecutive": 2981,
  "ping": 2982,
  "Short": 2983,
  "Div": 2984,
  "ittee": 2985,
  "phys": 2986,
  "ban": 2987,
  "Pa": 2988,
  "cting": 2989,
  "olly": 2990,
  "industry": 2991,
  "inem": 2992,
  "cis": 2993,
  "azz": 2994,
  "acted": 2995,
  "flood": 2996,
  "astern": 2997,
  "worth": 2998,
  "Erz": 2999,
  "Erzher": 3000,
  "Erzherz": 3001,
  "Erzherzog": 3002,
  "Fer": 3003,
  "cruisers": 3004,
  "groups": 3005,
  "Amun": 3006,
  "exts": 3007,
  "regard": 3008,
  "court": 3009,
  "increase": 3010,
  "reagents": 3011,
  "Goat": 3012,
  "aging": 3013,
  "loan": 3014,
  "uri": 3015,
  "Jer": 3016,
  "Stones": 3017,
  "galiths": 3018,
  "Exeter": 3019,
  "Timbal": 3020,
  "Timbaland": 3021,
  "ploy": 3022,
  "usion": 3023,
  "franchise": 3024,
  "divided": 3025,
  "link": 3026,
  "method": 3027,
  "whose": 3028,
  "woman": 3029,
  "proposed": 3030,
  "ximately": 3031,
  "removed": 3032,
  "blem": 3033,
  "bass": 3034,
  "constructed": 3035,
  "journal": 3036,
  "plans": 3037,
  "official": 3038,
  "aspects": 3039,
  "ring": 3040,
  "summer": 3041,
  "inspired": 3042,
  "ana": 3043,
  "Build": 3044,
  "History": 3045,
  "1997": 3046,
  "arsenal": 3047,
  "Work": 3048,
  "Civil": 3049,
  "transferred": 3050,
  "termin": 3051,
  "ultim": 3052,
  "ready": 3053,
  "pp": 3054,
  "hands": 3055,
  "except": 3056,
  "repair": 3057,
  "ote": 3058,
  "36": 3059,
  "paper": 3060,
  "Post": 3061,
  "guard": 3062,
  "istr": 3063,
  "door": 3064,
  "entran": 3065,
  "money": 3066,
  "occupied": 3067,
  "gest": 3068,
  "Later": 3069,
  "commissioned": 3070,
  "kind": 3071,
  "1920": 3072,
  "1918": 3073,
  "attend": 3074,
  "retired": 3075,
  "planning": 3076,
  "influence": 3077,
  "print": 3078,
  "techn": 3079,
  "analy": 3080,
  "1988": 3081,
  "ont": 3082,
  "orial": 3083,
  "Ang": 3084,
  "ampionship": 3085,
  "active": 3086,
  "ded": 3087,
  "Latin": 3088,
  "meas": 3089,
  "becoming": 3090,
  "variety": 3091,
  "resulted": 3092,
  "missed": 3093,
  "Dr": 3094,
  "helped": 3095,
  "discus": 3096,
  "double": 3097,
  "Johnson": 3098,
  "Sch": 3099,
  "restrict": 3100,
  "depart": 3101,
  "ification": 3102,
  "mic": 3103,
  "Val": 3104,
  "Cour": 3105,
  "Pennsy": 3106,
  "Pennsyl": 3107,
  "Pennsylvan": 3108,
  "iverse": 3109,
  "escap": 3110,
  "Singh": 3111,
  "shooting": 3112,
  "Thakur": 3113,
  "introduced": 3114,
  "humans": 3115,
  "king": 3116,
  "orb": 3117,
  "Eleph": 3118,
  "promoted": 3119,
  "temple": 3120,
  "cert": 3121,
  "vocal": 3122,
  "sites": 3123,
  "selling": 3124,
  "severe": 3125,
  "assassination": 3126,
  "olk": 3127,
  "nick": 3128,
  "lide": 3129,
  "Zapata": 3130,
  "fictional": 3131,
  "CO": 3132,
  "excavations": 3133,
  "hurricane": 3134,
  "eway": 3135,
  "TOT": 3136,
  "compounds": 3137,
  "Archaeology": 3138,
  "apan": 3139,
  "eless": 3140,
  "western": 3141,
  "route": 3142,
  "selected": 3143,
  "units": 3144,
  "specific": 3145,
  "Pers": 3146,
  "Spe": 3147,
  "Tro": 3148,
  "attribut": 3149,
  "army": 3150,
  "consist": 3151,
  "sey": 3152,
  "arrest": 3153,
  "towards": 3154,
  "offered": 3155,
  "scen": 3156,
  "majority": 3157,
  "problem": 3158,
  "guitar": 3159,
  "synthe": 3160,
  "revealed": 3161,
  "demo": 3162,
  "featuring": 3163,
  "owned": 3164,
  "excl": 3165,
  "emed": 3166,
  "cited": 3167,
  "appearances": 3168,
  "ka": 3169,
  "increased": 3170,
  "isl": 3171,
  "wa": 3172,
  "Har": 3173,
  "intended": 3174,
  "emer": 3175,
  "stant": 3176,
  "service": 3177,
  "phy": 3178,
  "surrounding": 3179,
  "Center": 3180,
  "pring": 3181,
  "Book": 3182,
  "daugh": 3183,
  "190": 3184,
  "ties": 3185,
  "Hill": 3186,
  "Gl": 3187,
  "cost": 3188,
  "Times": 3189,
  "George": 3190,
  "El": 3191,
  "1944": 3192,
  "Gambia": 3193,
  "international": 3194,
  "Dem": 3195,
  "associ": 3196,
  "William": 3197,
  "aria": 3198,
  "failed": 3199,
  "Add": 3200,
  "going": 3201,
  "76": 3202,
  "ots": 3203,
  "Tran": 3204,
  "program": 3205,
  "Bet": 3206,
  "Sever": 3207,
  "contribut": 3208,
  "armor": 3209,
  "eh": 3210,
  "thr": 3211,
  "ollywood": 3212,
  "critical": 3213,
  "conv": 3214,
  "Gold": 3215,
  "1984": 3216,
  "Team": 3217,
  "1996": 3218,
  "mp": 3219,
  "exam": 3220,
  "saying": 3221,
  "itself": 3222,
  "din": 3223,
  "uded": 3224,
  "texts": 3225,
  "environment": 3226,
  "creator": 3227,
  "wides": 3228,
  "vessel": 3229,
  "compl": 3230,
  "hair": 3231,
  "cat": 3232,
  "performances": 3233,
  "sin": 3234,
  "viation": 3235,
  "engaged": 3236,
  "standards": 3237,
  "Survey": 3238,
  "Wars": 3239,
  "Chris": 3240,
  "stitution": 3241,
  "Bow": 3242,
  "ylide": 3243,
  "Mexico": 3244,
  "Gar": 3245,
  "elligence": 3246,
  "Age": 3247,
  "Low": 3248,
  "Street": 3249,
  "ska": 3250,
  "Ao": 3251,
  "AoT": 3252,
  "Japan": 3253,
  "Gall": 3254,
  "black": 3255,
  "giving": 3256,
  "positive": 3257,
  "higher": 3258,
  "love": 3259,
  "ique": 3260,
  "weap": 3261,
  "capital": 3262,
  "super": 3263,
  "shortly": 3264,
  "approximately": 3265,
  "idea": 3266,
  "err": 3267,
  "overall": 3268,
  "Offic": 3269,
  "mor": 3270,
  "episode": 3271,
  "purpose": 3272,
  "Building": 3273,
  "Mac": 3274,
  "Park": 3275,
  "Robert": 3276,
  "manent": 3277,
  "legisl": 3278,
  "interpre": 3279,
  "bes": 3280,
  "vic": 3281,
  "doc": 3282,
  "train": 3283,
  "Over": 3284,
  "historic": 3285,
  "flow": 3286,
  "Come": 3287,
  "competition": 3288,
  "room": 3289,
  "irst": 3290,
  "Pen": 3291,
  "mel": 3292,
  "Boy": 3293,
  "Sal": 3294,
  "bet": 3295,
  "1950": 3296,
  "Treas": 3297,
  "sport": 3298,
  "drew": 3299,
  "initial": 3300,
  "Adam": 3301,
  "maskray": 3302,
  "hab": 3303,
  "occurred": 3304,
  "mouth": 3305,
  "prominent": 3306,
  "deep": 3307,
  "injury": 3308,
  "jud": 3309,
  "Cent": 3310,
  "missing": 3311,
  "stage": 3312,
  "decision": 3313,
  "bridge": 3314,
  "ogr": 3315,
  "current": 3316,
  "write": 3317,
  "fully": 3318,
  "annual": 3319,
  "tons": 3320,
  "speed": 3321,
  "God": 3322,
  "passed": 3323,
  "sail": 3324,
  "lying": 3325,
  "Ash": 3326,
  "Sp": 3327,
  "1995": 3328,
  "SMS": 3329,
  "vanced": 3330,
  "secondary": 3331,
  "rare": 3332,
  "lied": 3333,
  "states": 3334,
  "adop": 3335,
  "categ": 3336,
  "bound": 3337,
  "information": 3338,
  "na": 3339,
  "Aviation": 3340,
  "France": 3341,
  "replac": 3342,
  "Class": 3343,
  "prohib": 3344,
  "Force": 3345,
  "carbonaria": 3346,
  "ems": 3347,
  "asion": 3348,
  "discovered": 3349,
  "Court": 3350,
  "narr": 3351,
  "Tenn": 3352,
  "Tennant": 3353,
  "Thail": 3354,
  "Thailand": 3355,
  "unit": 3356,
  "secret": 3357,
  "praised": 3358,
  "growth": 3359,
  "directly": 3360,
  "upper": 3361,
  "urg": 3362,
  "effort": 3363,
  "faced": 3364,
  "Mo": 3365,
  "atively": 3366,
  "latter": 3367,
  "tens": 3368,
  "research": 3369,
  "anks": 3370,
  "inct": 3371,
  "previously": 3372,
  "ockey": 3373,
  "Cap": 3374,
  "consider": 3375,
  "quickly": 3376,
  "semble": 3377,
  "situation": 3378,
  "ades": 3379,
  "authorities": 3380,
  "Confeder": 3381,
  "ze": 3382,
  "26": 3383,
  "compan": 3384,
  "accoun": 3385,
  "omas": 3386,
  "gather": 3387,
  "obtain": 3388,
  "pay": 3389,
  "eman": 3390,
  "indic": 3391,
  "sole": 3392,
  "loy": 3393,
  "Barr": 3394,
  "entrance": 3395,
  "deploy": 3396,
  "poses": 3397,
  "raised": 3398,
  "invited": 3399,
  "finan": 3400,
  "pression": 3401,
  "attended": 3402,
  "aces": 3403,
  "preser": 3404,
  "Dor": 3405,
  "ography": 3406,
  "friends": 3407,
  "Andrew": 3408,
  "Mid": 3409,
  "doing": 3410,
  "First": 3411,
  "ood": 3412,
  "Sw": 3413,
  "chap": 3414,
  "qual": 3415,
  "Back": 3416,
  "continent": 3417,
  "disc": 3418,
  "cha": 3419,
  "Intern": 3420,
  "onom": 3421,
  "Res": 3422,
  "isation": 3423,
  "complex": 3424,
  "worst": 3425,
  "playoffs": 3426,
  "eff": 3427,
  "alongside": 3428,
  "slow": 3429,
  "sho": 3430,
  "38": 3431,
  "iring": 3432,
  "Tor": 3433,
  "hu": 3434,
  "immedi": 3435,
  "drop": 3436,
  "Bel": 3437,
  "cher": 3438,
  "Pope": 3439,
  "Four": 3440,
  "exper": 3441,
  "ien": 3442,
  "fix": 3443,
  "gar": 3444,
  "Sound": 3445,
  "dance": 3446,
  "theast": 3447,
  "NS": 3448,
  "Several": 3449,
  "sea": 3450,
  "Secretary": 3451,
  "occupation": 3452,
  "180": 3453,
  "yd": 3454,
  "gradu": 3455,
  "roles": 3456,
  "Dan": 3457,
  "Dh": 3458,
  "starr": 3459,
  "Francis": 3460,
  "projects": 3461,
  "Sou": 3462,
  "media": 3463,
  "Week": 3464,
  "ff": 3465,
  "1992": 3466,
  "1993": 3467,
  "irement": 3468,
  "1999": 3469,
  "Ferdin": 3470,
  "Ferdinand": 3471,
  "Max": 3472,
  "Allied": 3473,
  "rituals": 3474,
  "natural": 3475,
  "objects": 3476,
  "From": 3477,
  "grew": 3478,
  "Horus": 3479,
  "earth": 3480,
  "watch": 3481,
  "whole": 3482,
  "type": 3483,
  "widespread": 3484,
  "reme": 3485,
  "cially": 3486,
  "lets": 3487,
  "heavily": 3488,
  "label": 3489,
  "fields": 3490,
  "ert": 3491,
  "policy": 3492,
  "Rad": 3493,
  "submarine": 3494,
  "submarines": 3495,
  "quare": 3496,
  "chief": 3497,
  "onium": 3498,
  "treaty": 3499,
  "Darwin": 3500,
  "utch": 3501,
  "NBC": 3502,
  "Night": 3503,
  "owski": 3504,
  "Poles": 3505,
  "ński": 3506,
  "Barrow": 3507,
  "archaeologists": 3508,
  "freeway": 3509,
  "audience": 3510,
  "Sipp": 3511,
  "Sippy": 3512,
  "acid": 3513,
  "referred": 3514,
  "writers": 3515,
  "sales": 3516,
  "Out": 3517,
  "Each": 3518,
  "skill": 3519,
  "Command": 3520,
  "ift": 3521,
  "targ": 3522,
  "feature": 3523,
  "records": 3524,
  "officially": 3525,
  "anger": 3526,
  "adv": 3527,
  "actor": 3528,
  "alleg": 3529,
  "Ko": 3530,
  "poor": 3531,
  "pleas": 3532,
  "noting": 3533,
  "feel": 3534,
  "Project": 3535,
  "Ak": 3536,
  "illustr": 3537,
  "Antiqu": 3538,
  "bir": 3539,
  "1861": 3540,
  "tell": 3541,
  "fut": 3542,
  "Tele": 3543,
  "coll": 3544,
  "stay": 3545,
  "forts": 3546,
  "conver": 3547,
  "smo": 3548,
  "86": 3549,
  "must": 3550,
  "equip": 3551,
  "Dun": 3552,
  "scope": 3553,
  "office": 3554,
  "rend": 3555,
  "Bro": 3556,
  "married": 3557,
  "added": 3558,
  "floor": 3559,
  "Pl": 3560,
  "1970": 3561,
  "Child": 3562,
  "Christian": 3563,
  "Church": 3564,
  "middle": 3565,
  "spent": 3566,
  "uck": 3567,
  "enough": 3568,
  "give": 3569,
  "friend": 3570,
  "white": 3571,
  "ett": 3572,
  "illa": 3573,
  "Bur": 3574,
  "respectively": 3575,
  "Sea": 3576,
  "Sun": 3577,
  "panel": 3578,
  "launched": 3579,
  "aped": 3580,
  "via": 3581,
  "White": 3582,
  "nuclear": 3583,
  "itting": 3584,
  "shore": 3585,
  "Northern": 3586,
  "istant": 3587,
  "Nash": 3588,
  "eles": 3589,
  "fans": 3590,
  "center": 3591,
  "33": 3592,
  "quest": 3593,
  "nes": 3594,
  "Pho": 3595,
  "representative": 3596,
  "rect": 3597,
  "ceeded": 3598,
  "Division": 3599,
  "mates": 3600,
  "norm": 3601,
  "89": 3602,
  "thi": 3603,
  "performing": 3604,
  "section": 3605,
  "cross": 3606,
  "Iron": 3607,
  "mph": 3608,
  "phen": 3609,
  "Ty": 3610,
  "aked": 3611,
  "commented": 3612,
  "pressure": 3613,
  "gment": 3614,
  "isf": 3615,
  "squadron": 3616,
  "demonstr": 3617,
  "Bay": 3618,
  "Khan": 3619,
  "dial": 3620,
  "emot": 3621,
  "Mumb": 3622,
  "Mumbai": 3623,
  "Eastern": 3624,
  "sisters": 3625,
  "turret": 3626,
  "covered": 3627,
  "Italy": 3628,
  "maat": 3629,
  "argu": 3630,
  "ands": 3631,
  "focus": 3632,
  "images": 3633,
  "dependent": 3634,
  "Greek": 3635,
  "ivity": 3636,
  "ps": 3637,
  "Group": 3638,
  "eenth": 3639,
  "traditional": 3640,
  "espe": 3641,
  "especially": 3642,
  "presented": 3643,
  "micro": 3644,
  "airman": 3645,
  "concent": 3646,
  "concentr": 3647,
  "truction": 3648,
  "xis": 3649,
  "fungus": 3650,
  "burn": 3651,
  "produce": 3652,
  "prison": 3653,
  "Oro": 3654,
  "Oroz": 3655,
  "Orozco": 3656,
  "Cab": 3657,
  "promotion": 3658,
  "Elephanta": 3659,
  "funding": 3660,
  "invasion": 3661,
  "Nazi": 3662,
  "propaganda": 3663,
  "Wiz": 3664,
  "Wizards": 3665,
  "tombs": 3666,
  "RI": 3667,
  "Thaksin": 3668,
  "done": 3669,
  "standard": 3670,
  "hi": 3671,
  "enem": 3672,
  "vo": 3673,
  "location": 3674,
  "alter": 3675,
  "concept": 3676,
  "combined": 3677,
  "kept": 3678,
  "rather": 3679,
  "defeat": 3680,
  "benef": 3681,
  "amount": 3682,
  "corpor": 3683,
  "singer": 3684,
  "transfer": 3685,
  "icle": 3686,
  "Arth": 3687,
  "Arthur": 3688,
  "1942": 3689,
  "birth": 3690,
  "Major": 3691,
  "91": 3692,
  "hor": 3693,
  "illery": 3694,
  "permitted": 3695,
  "rein": 3696,
  "already": 3697,
  "necessary": 3698,
  "nance": 3699,
  "Hall": 3700,
  "600": 3701,
  "Jackson": 3702,
  "ledge": 3703,
  "prepared": 3704,
  "establishment": 3705,
  "vation": 3706,
  "stationed": 3707,
  "arsen": 3708,
  "smaller": 3709,
  "purposes": 3710,
  "quarter": 3711,
  "largest": 3712,
  "libr": 3713,
  "designated": 3714,
  "Croy": 3715,
  "Croydon": 3716,
  "influences": 3717,
  "daughter": 3718,
  "herself": 3719,
  "iser": 3720,
  "provide": 3721,
  "unk": 3722,
  "sec": 3723,
  "1961": 3724,
  "services": 3725,
  "eye": 3726,
  "institut": 3727,
  "institutions": 3728,
  "agen": 3729,
  "1941": 3730,
  "Ver": 3731,
  "1937": 3732,
  "Treasury": 3733,
  "teams": 3734,
  "regional": 3735,
  "matches": 3736,
  "pattern": 3737,
  "International": 3738,
  "likely": 3739,
  "changes": 3740,
  "usually": 3741,
  "compared": 3742,
  "function": 3743,
  "Hum": 3744,
  "Scott": 3745,
  "Kings": 3746,
  "streak": 3747,
  "changed": 3748,
  "tt": 3749,
  "tied": 3750,
  "better": 3751,
  "Stan": 3752,
  "Day": 3753,
  "bell": 3754,
  "Sam": 3755,
  "background": 3756,
  "Sil": 3757,
  "join": 3758,
  "dro": 3759,
  "Greg": 3760,
  "ino": 3761,
  "credited": 3762,
  "Ob": 3763,
  "Colle": 3764,
  "arts": 3765,
  "contrast": 3766,
  "aware": 3767,
  "identified": 3768,
  "captured": 3769,
  "amid": 3770,
  "reduced": 3771,
  "reli": 3772,
  "bb": 3773,
  "push": 3774,
  "Not": 3775,
  "Pennsylvania": 3776,
  "accepted": 3777,
  "oppos": 3778,
  "Mah": 3779,
  "Enter": 3780,
  "ises": 3781,
  "seventh": 3782,
  "cancer": 3783,
  "aring": 3784,
  "share": 3785,
  "offs": 3786,
  "retirement": 3787,
  "sto": 3788,
  "elled": 3789,
  "Tur": 3790,
  "Isis": 3791,
  "places": 3792,
  "whe": 3793,
  "ordin": 3794,
  "physical": 3795,
  "emphas": 3796,
  "hen": 3797,
  "meant": 3798,
  "extreme": 3799,
  "increasingly": 3800,
  "Ap": 3801,
  "Dream": 3802,
  "fruit": 3803,
  "Pop": 3804,
  "observed": 3805,
  "2000": 3806,
  "recre": 3807,
  "landing": 3808,
  "airports": 3809,
  "flights": 3810,
  "noise": 3811,
  "airspace": 3812,
  "aint": 3813,
  "trees": 3814,
  "cand": 3815,
  "candid": 3816,
  "sulfide": 3817,
  "elections": 3818,
  "dictator": 3819,
  "Cabral": 3820,
  "document": 3821,
  "Minister": 3822,
  "Broad": 3823,
  "Gram": 3824,
  "ceremony": 3825,
  "Lowe": 3826,
  "discovery": 3827,
  "teach": 3828,
  "Warsaw": 3829,
  "flooding": 3830,
  "nut": 3831,
  "Rho": 3832,
  "Rhode": 3833,
  "Kurst": 3834,
  "Kurstin": 3835,
  "Nam": 3836,
  "serving": 3837,
  "load": 3838,
  "assigned": 3839,
  "target": 3840,
  "victory": 3841,
  "distribut": 3842,
  "types": 3843,
  "foreign": 3844,
  "theless": 3845,
  "cell": 3846,
  "fellow": 3847,
  "Dah": 3848,
  "itor": 3849,
  "wear": 3850,
  "Emp": 3851,
  "ancient": 3852,
  "true": 3853,
  "iy": 3854,
  "Its": 3855,
  "grade": 3856,
  "create": 3857,
  "color": 3858,
  "themes": 3859,
  "expected": 3860,
  "musical": 3861,
  "instruments": 3862,
  "spo": 3863,
  "fected": 3864,
  "Hind": 3865,
  "serious": 3866,
  "scenes": 3867,
  "occas": 3868,
  "directed": 3869,
  "refer": 3870,
  "extens": 3871,
  "Blo": 3872,
  "volum": 3873,
  "Since": 3874,
  "hous": 3875,
  "museums": 3876,
  "Military": 3877,
  "starting": 3878,
  "Govern": 3879,
  "Captain": 3880,
  "uel": 3881,
  "security": 3882,
  "haps": 3883,
  "leaving": 3884,
  "morn": 3885,
  "morning": 3886,
  "Miss": 3887,
  "caliber": 3888,
  "prising": 3889,
  "Van": 3890,
  "mach": 3891,
  "successfully": 3892,
  "sort": 3893,
  "activity": 3894,
  "boat": 3895,
  "Green": 3896,
  "Sum": 3897,
  "sixth": 3898,
  "inside": 3899,
  "condition": 3900,
  "izations": 3901,
  "1911": 3902,
  "Mary": 3903,
  "gir": 3904,
  "hood": 3905,
  "ses": 3906,
  "magazine": 3907,
  "stained": 3908,
  "Que": 3909,
  "paint": 3910,
  "artist": 3911,
  "literature": 3912,
  "semi": 3913,
  "Vict": 3914,
  "Victor": 3915,
  "visited": 3916,
  "pursu": 3917,
  "funer": 3918,
  "favorite": 3919,
  "anch": 3920,
  "roll": 3921,
  "1930": 3922,
  "ba": 3923,
  "Background": 3924,
  "economic": 3925,
  "value": 3926,
  "irt": 3927,
  "seconds": 3928,
  "strugg": 3929,
  "za": 3930,
  "log": 3931,
  "onto": 3932,
  "involving": 3933,
  "immediately": 3934,
  "elimin": 3935,
  "Shortly": 3936,
  "idents": 3937,
  "cts": 3938,
  "instrument": 3939,
  "ius": 3940,
  "patron": 3941,
  "300": 3942,
  "twice": 3943,
  "historical": 3944,
  "ograph": 3945,
  "Maria": 3946,
  "ering": 3947,
  "Jo": 3948,
  "aily": 3949,
  "expressed": 3950,
  "Betwe": 3951,
  "Between": 3952,
  "suppl": 3953,
  "connected": 3954,
  "means": 3955,
  "arrived": 3956,
  "spot": 3957,
  "bad": 3958,
  "arent": 3959,
  "urder": 3960,
  "eth": 3961,
  "hosted": 3962,
  "billion": 3963,
  "ja": 3964,
  "Grand": 3965,
  "preced": 3966,
  "brit": 3967,
  "cele": 3968,
  "aster": 3969,
  "brother": 3970,
  "sought": 3971,
  "concerned": 3972,
  "championship": 3973,
  "itation": 3974,
  "ctors": 3975,
  "oud": 3976,
  "ests": 3977,
  "dread": 3978,
  "Croatia": 3979,
  "characteristics": 3980,
  "depicted": 3981,
  "depicts": 3982,
  "whether": 3983,
  "Because": 3984,
  "Ba": 3985,
  "Os": 3986,
  "Horn": 3987,
  "alone": 3988,
  "basic": 3989,
  "fill": 3990,
  "fest": 3991,
  "sched": 3992,
  "sector": 3993,
  "market": 3994,
  "cil": 3995,
  "Aircraft": 3996,
  "touring": 3997,
  "powered": 3998,
  "concluded": 3999
}