{
  "<unk>": 0,
  "<pad>": 1,
  " ": 3,
  "!": 4,
  "\"": 5,
  "#": 6,
  "$": 7,
  "%": 8,
  "&": 9,
  "'": 10,
  "(": 11,
  ")": 12,
  "*": 13,
  "+": 14,
  ",": 15,
  "-": 16,
  ".": 17,
  "/": 18,
  "0": 19,
  "1": 20,
  "2": 21,
  "3": 22,
  "4": 23,
  "5": 24,
  "6": 25,
  "7": 26,
  "8": 27,
  "9": 28,
  ":": 29,
  ";": 30,
  ">": 31,
  "?": 32,
  "@": 33,
  "A": 34,
  "B": 35,
  "C": 36,
  "D": 37,
  "E": 38,
  "F": 39,
  "G": 40,
  "H": 41,
  "I": 42,
  "J": 43,
  "K": 44,
  "L": 45,
  "M": 46,
  "N": 47,
  "O": 48,
  "P": 49,
  "Q": 50,
  "R": 51,
  "S": 52,
  "T": 53,
  "U": 54,
  "V": 55,
  "W": 56,
  "X": 57,
  "Y": 58,
  "Z": 59,
  "[": 60,
  "]": 61,
  "^": 62,
  "_": 63,
  "a": 64,
  "b": 65,
  "c": 66,
  "d": 67,
  "e": 68,
  "f": 69,
  "g": 70,
  "h": 71,
  "i": 72,
  "j": 73,
  "k": 74,
  "l": 75,
  "m": 76,
  "n": 77,
  "o": 78,
  "p": 79,
  "q": 80,
  "r": 81,
  "s": 82,
  "t": 83,
  "u": 84,
  "v": 85,
  "w": 86,
  "x": 87,
  "y": 88,
  "z": 89,
  "|": 90,
  "": 91,
  "°": 92,
  "²": 93,
  "»": 94,
  "×": 95,
  "ï": 96,
  "в": 97,
  "и": 98,
  "л": 99,
  "о": 100,
  "т": 101,
  "я": 102,
  "ا": 103,
  "ت": 104,
  "ل": 105,
  "و": 106,
  "ی": 107,
  "ँ": 108,
  "ं": 109,
  "ः": 110,
  "अ": 111,
  "आ": 112,
  "इ": 113,
  "ई": 114,
  "उ": 115,
  "ऊ": 116,
  "ऋ": 117,
  "ए": 118,
  "ऐ": 119,
  "ऑ": 120,
  "ओ": 121,
  "औ": 122,
  "क": 123,
  "ख": 124,
  "ग": 125,
  "घ": 126,
  "च": 127,
  "छ": 128,
  "ज": 129,
  "झ": 130,
  "ञ": 131,
  "ट": 132,
  "ठ": 133,
  "ड": 134,
  "ढ": 135,
  "ण": 136,
  "त": 137,
  "थ": 138,
  "द": 139,
  "ध": 140,
  "न": 141,
  "ऩ": 142,
  "प": 143,
  "फ": 144,
  "ब": 145,
  "भ": 146,
  "म": 147,
  "य": 148,
  "र": 149,
  "ऱ": 150,
  "ल": 151,
  "व": 152,
  "श": 153,
  "ष": 154,
  "स": 155,
  "ह": 156,
  "़": 157,
  "ा": 158,
  "ि": 159,
  "ी": 160,
  "ु": 161,
  "ू": 162,
  "ृ": 163,
  "ॅ": 164,
  "े": 165,
  "ै": 166,
  "ॉ": 167,
  "ो": 168,
  "ौ": 169,
  "्": 170,
  "।": 171,
  "०": 172,
  "१": 173,
  "३": 174,
  "५": 175,
  "८": 176,
  "९": 177,
  "॰": 178,
  "​": 179,
  "‌": 180,
  "‍": 181,
  "‎": 182,
  "–": 183,
  "—": 184,
  "‘": 185,
  "’": 186,
  "“": 187,
  "”": 188,
  "…": 189,
  "›": 190,
  "←": 191,
  "﻿": 192,
  "🔊": 193,
  "के": 193,
  "ार": 194,
  "ने": 195,
  "ें": 196,
  "्र": 197,
  "है": 198,
  "या": 199,
  "में": 200,
  "की": 201,
  "ों": 202,
  "का": 203,
  "कर": 204,
  "से": 205,
  "को": 206,
  "कि": 207,
  "ना": 208,
  "स्": 209,
  "र्": 210,
  "ता": 211,
  "ला": 212,
  "क्": 213,
  "रा": 214,
  "वा": 215,
  "ले": 216,
  "पर": 217,
  "ही": 218,
  "लि": 219,
  "जा": 220,
  "हा": 221,
  "प्र": 222,
  "्य": 223,
  "मा": 224,
  "और": 225,
  "सा": 226,
  "वि": 227,
  "इस": 228,
  "ड़": 229,
  "भी": 230,
  "हो": 231,
  "बा": 232,
  "कार": 233,
  "दि": 234,
  "नि": 235,
  "गा": 236,
  "हैं": 237,
  "ते": 238,
  "दे": 239,
  "नी": 240,
  "ली": 241,
  "सी": 242,
  "त्र": 243,
  "ति": 244,
  "मि": 245,
  "पा": 246,
  "लिए": 247,
  "ती": 248,
  "हु": 249,
  "न्": 250,
  "था": 251,
  "क्ष": 252,
  "री": 253,
  "सं": 254,
  "हीं": 255,
  "सि": 256,
  "ंग": 257,
  "जि": 258,
  "यों": 259,
  "एक": 260,
  "रह": 261,
  "पु": 262,
  "त्": 263,
  "दी": 264,
  "टी": 265,
  "ोग": 266,
  "मु": 267,
  "दा": 268,
  "ल्": 269,
  "वार": 270,
  "अप": 271,
  "किया": 272,
  "नहीं": 273,
  "रो": 274,
  "शा": 275,
  "ित": 276,
  "चा": 277,
  "सर": 278,
  "जी": 279,
  "गया": 280,
  "सम": 281,
  "रि": 282,
  "भा": 283,
  "नों": 284,
  "बाद": 285,
  "देश": 286,
  "मी": 287,
  "ट्र": 288,
  "पी": 289,
  "करने": 290,
  "मं": 291,
  "मार": 292,
  "्या": 293,
  "पू": 294,
  "तो": 295,
  "कहा": 296,
  "ंद": 297,
  "खा": 298,
  "हि": 299,
  "न्ह": 300,
  "रे": 301,
  "यह": 302,
  "कु": 303,
  "सु": 304,
  "िक": 305,
  "राज": 306,
  "लोग": 307,
  "शि": 308,
  "गी": 309,
  "उन": 310,
  "बी": 311,
  "रू": 312,
  "वे": 313,
  "स्ट": 314,
  "उन्ह": 315,
  "साथ": 316,
  "दिया": 317,
  "ये": 318,
  "द्": 319,
  "मे": 320,
  "ंड": 321,
  "पह": 322,
  "तक": 323,
  "उस": 324,
  "क्र": 325,
  "ारी": 326,
  "जन": 327,
  "धा": 328,
  "रु": 329,
  "ढ़": 330,
  "ियों": 331,
  "वी": 332,
  "20": 333,
  "अध": 334,
  "ंच": 335,
  "लिस": 336,
  "पुलिस": 337,
  "ओं": 338,
  "टर": 339,
  "गई": 340,
  "आप": 341,
  "तर": 342,
  "रहे": 343,
  "मंत्र": 344,
  "भार": 345,
  "दो": 346,
  "किन": 347,
  "बता": 348,
  "अन": 349,
  "बार": 350,
  "ष्": 351,
  "सक": 352,
  "शन": 353,
  "मान": 354,
  "हर": 355,
  "इन": 356,
  "हुए": 357,
  "मिल": 358,
  "सरकार": 359,
  "ोंने": 360,
  "थी": 361,
  "पुर": 362,
  "श्": 363,
  "लगा": 364,
  "लेकिन": 365,
  "जब": 366,
  "प्": 367,
  "गे": 368,
  "ार्": 369,
  "जाए": 370,
  "जो": 371,
  "ग्र": 372,
  "िया": 373,
  "अपने": 374,
  "हम": 375,
  "रहा": 376,
  "अब": 377,
  "उन्होंने": 378,
  "मंत्री": 379,
  "गर": 380,
  "ैं": 381,
  "कों": 382,
  "चु": 383,
  "बि": 384,
  "यो": 385,
  "बर": 386,
  "एस": 387,
  "फि": 388,
  "बना": 389,
  "एम": 390,
  "वह": 391,
  "यर": 392,
  "गए": 393,
  "वाले": 394,
  "थे": 395,
  "जिस": 396,
  "रही": 397,
  "मो": 398,
  "जे": 399,
  "होने": 400,
  "वर्": 401,
  "स्त": 402,
  "बे": 403,
  "शु": 404,
  "ंह": 405,
  "स्थ": 406,
  "सब": 407,
  "टा": 408,
  "टे": 409,
  "लोगों": 410,
  "माम": 411,
  "श्र": 412,
  "डी": 413,
  "कारी": 414,
  "आई": 415,
  "जान": 416,
  "र्ट": 417,
  "पहले": 418,
  "बताया": 419,
  "योग": 420,
  "सिंह": 421,
  "ड़ा": 422,
  "रान": 423,
  "ड़ी": 424,
  "भारत": 425,
  "लग": 426,
  "दू": 427,
  "चार": 428,
  "मौ": 429,
  "सू": 430,
  "इसके": 431,
  "धान": 432,
  "कोई": 433,
  "व्य": 434,
  "द्र": 435,
  "रुप": 436,
  "क्षा": 437,
  "लिया": 438,
  "कार्य": 439,
  "च्": 440,
  "टि": 441,
  "यु": 442,
  "क्त": 443,
  "उप": 444,
  "ंत": 445,
  "हार": 446,
  "बात": 447,
  "ंद्र": 448,
  "हुई": 449,
  "ंध": 450,
  "परि": 451,
  "साल": 452,
  "सो": 453,
  "ंप": 454,
  "र्व": 455,
  "हां": 456,
  "पे": 457,
  "ौरान": 458,
  "दौरान": 459,
  "दु": 460,
  "करते": 461,
  "कम": 462,
  "कई": 463,
  "ेत्र": 464,
  "क्षेत्र": 465,
  "घर": 466,
  "राम": 467,
  "लो": 468,
  "लेकर": 469,
  "द्वार": 470,
  "काम": 471,
  "दिन": 472,
  "खि": 473,
  "चि": 474,
  "ीय": 475,
  "निर्": 476,
  "किसी": 477,
  "दोनों": 478,
  "ोड़": 479,
  "अपनी": 480,
  "स्था": 481,
  "लों": 482,
  "कर्": 483,
  "करा": 484,
  "10": 485,
  "तरह": 486,
  "प्रदेश": 487,
  "जार": 488,
  "जाने": 489,
  "ेस": 490,
  "डि": 491,
  "रूप": 492,
  "निक": 493,
  "फी": 494,
  "म्": 495,
  "ल्ली": 496,
  "चल": 497,
  "वन": 498,
  "ौर": 499,
  "राज्य": 500,
  "पि": 501,
  "पहु": 502,
  "द्वारा": 503,
  "दिल्ली": 504,
  "आर": 505,
  "समय": 506,
  "जु": 507,
  "कुछ": 508,
  "डा": 509,
  "क्यों": 510,
  "मुख": 511,
  "रोना": 512,
  "कोरोना": 513,
  "रों": 514,
  "तार": 515,
  "मत": 516,
  "पो": 517,
  "लय": 518,
  "दर्": 519,
  "गु": 520,
  "ज़": 521,
  "खिला": 522,
  "हिला": 523,
  "सार": 524,
  "ष्ट्र": 525,
  "शे": 526,
  "पास": 527,
  "होगा": 528,
  "अनु": 529,
  "नाम": 530,
  "महिला": 531,
  "पता": 532,
  "ंस": 533,
  "छा": 534,
  "सकता": 535,
  "सन": 536,
  "स्ता": 537,
  "जाता": 538,
  "चुना": 539,
  "उत्": 540,
  "प्रति": 541,
  "दार": 542,
  "धार": 543,
  "वर": 544,
  "क्स": 545,
  "ंग्र": 546,
  "ब्": 547,
  "भाग": 548,
  "मुख्य": 549,
  "ग्रा": 550,
  "पूर्व": 551,
  "वाई": 552,
  "जारी": 553,
  "्यू": 554,
  "यू": 555,
  "कह": 556,
  "मामले": 557,
  "एव": 558,
  "करना": 559,
  "00": 560,
  "बढ़": 561,
  "ंगा": 562,
  "वाली": 563,
  "एन": 564,
  "आज": 565,
  "जर": 566,
  "करी": 567,
  "यक": 568,
  "ार्टी": 569,
  "पार्टी": 570,
  "बन": 571,
  "साम": 572,
  "करोड़": 573,
  "त्रों": 574,
  "फा": 575,
  "वज": 576,
  "मह": 577,
  "ताओं": 578,
  "जय": 579,
  "ंक": 580,
  "तीय": 581,
  "क्रम": 582,
  "कांग्र": 583,
  "ोल": 584,
  "प्रा": 585,
  "योज": 586,
  "ड़े": 587,
  "सद": 588,
  "मन": 589,
  "ंव": 590,
  "ैस": 591,
  "कारण": 592,
  "टीम": 593,
  "गि": 594,
  "बै": 595,
  "ल्म": 596,
  "यत": 597,
  "त्य": 598,
  "अव": 599,
  "कुमार": 600,
  "कारियों": 601,
  "कांग्रेस": 602,
  "दिनों": 603,
  "हन": 604,
  "कॉ": 605,
  "ोट": 606,
  "श्री": 607,
  "राष्ट्र": 608,
  "्स": 609,
  "जानकारी": 610,
  "किए": 611,
  "अध्य": 612,
  "चुनाव": 613,
  "फिल्म": 614,
  "शी": 615,
  "पोर्ट": 616,
  "होगी": 617,
  "हुआ": 618,
  "केंद्र": 619,
  "बद": 620,
  "ूल": 621,
  "तियों": 622,
  "ज्या": 623,
  "कंप": 624,
  "यन": 625,
  "स्व": 626,
  "दान": 627,
  "धि": 628,
  "जग": 629,
  "जीत": 630,
  "जाएगा": 631,
  "नगर": 632,
  "स्क": 633,
  "पाल": 634,
  "ैय": 635,
  "ची": 636,
  "धियों": 637,
  "जनों": 638,
  "योजना": 639,
  "शामिल": 640,
  "अधिक": 641,
  "सकते": 642,
  "आए": 643,
  "तैय": 644,
  "क्टर": 645,
  "चे": 646,
  "ध्य": 647,
  "मैं": 648,
  "सुर": 649,
  "बारे": 650,
  "कान": 651,
  "फर": 652,
  "पहुंच": 653,
  "ेंद्र": 654,
  "ंट": 655,
  "जिले": 656,
  "सानों": 657,
  "माण": 658,
  "फ्": 659,
  "हाला": 660,
  "बु": 661,
  "भारतीय": 662,
  "फिर": 663,
  "टना": 664,
  "सभी": 665,
  "गांव": 666,
  "हाल": 667,
  "खे": 668,
  "किसानों": 669,
  "नर": 670,
  "हजार": 671,
  "हत": 672,
  "संब": 673,
  "निया": 674,
  "सह": 675,
  "भर": 676,
  "र्स": 677,
  "हिए": 678,
  "मांग": 679,
  "त्या": 680,
  "इसी": 681,
  "्रा": 682,
  "हुत": 683,
  "बहुत": 684,
  "षण": 685,
  "अन्य": 686,
  "कियों": 687,
  "मद": 688,
  "त्रा": 689,
  "प्रधान": 690,
  "उनके": 691,
  "चाहिए": 692,
  "र्ड": 693,
  "अधि": 694,
  "भग": 695,
  "अगर": 696,
  "मै": 697,
  "आत": 698,
  "रोप": 699,
  "परिजनों": 700,
  "मियों": 701,
  "नई": 702,
  "ंबर": 703,
  "आरोप": 704,
  "्ड": 705,
  "अधिकारियों": 706,
  "पद": 707,
  "तीन": 708,
  "केट": 709,
  "छात्रों": 710,
  "धन": 711,
  "अपना": 712,
  "ओर": 713,
  "वाद": 714,
  "ट्रे": 715,
  "चला": 716,
  "वाल": 717,
  "दियों": 718,
  "आने": 719,
  "हनों": 720,
  "हमार": 721,
  "30": 722,
  "नेता": 723,
  "क्ट": 724,
  "वान": 725,
  "मौत": 726,
  "फैस": 727,
  "जिला": 728,
  "काल": 729,
  "खु": 730,
  "यल": 731,
  "रेल": 732,
  "पड़": 733,
  "द्य": 734,
  "गिर": 735,
  "राज्यों": 736,
  "प्रधानमंत्री": 737,
  "चौ": 738,
  "रात": 739,
  "न्न": 740,
  "त्व": 741,
  "वासी": 742,
  "मित": 743,
  "वाला": 744,
  "क्या": 745,
  "करण": 746,
  "इं": 747,
  "चाह": 748,
  "न्या": 749,
  "एं": 750,
  "करे": 751,
  "थियों": 752,
  "सामने": 753,
  "चना": 754,
  "र्म": 755,
  "रत": 756,
  "होता": 757,
  "वल": 758,
  "तीनों": 759,
  "नियों": 760,
  "कारों": 761,
  "यपुर": 762,
  "लाल": 763,
  "डल": 764,
  "एल": 765,
  "ज्": 766,
  "सियों": 767,
  "201": 768,
  "त्रियों": 769,
  "यात्रियों": 770,
  "रिया": 771,
  "दिए": 772,
  "क्षकों": 773,
  "सल": 774,
  "वाहनों": 775,
  "सरे": 776,
  "स्पता": 777,
  "अस्पता": 778,
  "क्षेत्रों": 779,
  "लियों": 780,
  "वानों": 781,
  "चारों": 782,
  "लयों": 783,
  "शासन": 784,
  "ड़ियों": 785,
  "इला": 786,
  "अभ": 787,
  "जू": 788,
  "निय": 789,
  "कर्मियों": 790,
  "ंकियों": 791,
  "आतंकियों": 792,
  "राधियों": 793,
  "अपराधियों": 794,
  "चारियों": 795,
  "मचारियों": 796,
  "कर्मचारियों": 797,
  "जवानों": 798,
  "अनुसार": 799,
  "रीज": 800,
  "वै": 801,
  "अलग": 802,
  "अला": 803,
  "मुख्यमंत्री": 804,
  "उन्हें": 805,
  "रायपुर": 806,
  "जै": 807,
  "बह": 808,
  "स्थान": 809,
  "कानों": 810,
  "र्ण": 811,
  "सूत्रों": 812,
  "पूरी": 813,
  "लपुर": 814,
  "सरों": 815,
  "उत्तर": 816,
  "वारों": 817,
  "कानपुर": 818,
  "भाव": 819,
  "आरोपियों": 820,
  "कै": 821,
  "वर्ष": 822,
  "देख": 823,
  "विधियों": 824,
  "तिविधियों": 825,
  "गतिविधियों": 826,
  "शिक्षकों": 827,
  "स्यों": 828,
  "सदस्यों": 829,
  "दर्ज": 830,
  "ार्थियों": 831,
  "कंपनियों": 832,
  "भाज": 833,
  "गत": 834,
  "इट": 835,
  "जल": 836,
  "रिपोर्ट": 837,
  "क्षण": 838,
  "धिकारियों": 839,
  "तकों": 840,
  "ड़कों": 841,
  "बीच": 842,
  "डिया": 843,
  "श्व": 844,
  "ख्या": 845,
  "करीब": 846,
  "ोन": 847,
  "वजह": 848,
  "कोर्ट": 849,
  "थाना": 850,
  "मिले": 851,
  "पत्र": 852,
  "दर": 853,
  "्यालय": 854,
  "वादियों": 855,
  "फल": 856,
  "देने": 857,
  "ॉल": 858,
  "दारों": 859,
  "इयों": 860,
  "तैयार": 861,
  "पार": 862,
  "प्त": 863,
  "वासियों": 864,
  "्यों": 865,
  "स्थित": 866,
  "द्यार्थियों": 867,
  "विद्यार्थियों": 868,
  "स्थानों": 869,
  "रुपए": 870,
  "सड़कों": 871,
  "दुकानों": 872,
  "क्टरों": 873,
  "शुरू": 874,
  "गल": 875,
  "इंड": 876,
  "माल": 877,
  "लाख": 878,
  "ड़कियों": 879,
  "लड़कियों": 880,
  "दन": 881,
  "क्सी": 882,
  "विका": 883,
  "घटना": 884,
  "निकों": 885,
  "वास": 886,
  "मानों": 887,
  "लकों": 888,
  "कुल": 889,
  "अग": 890,
  "खान": 891,
  "खिलाड़ियों": 892,
  "गो": 893,
  "पूर्ण": 894,
  "परे": 895,
  "शान": 896,
  "सान": 897,
  "टकों": 898,
  "विभाग": 899,
  "युक्त": 900,
  "दवारों": 901,
  "मीदवारों": 902,
  "म्मीदवारों": 903,
  "उम्मीदवारों": 904,
  "दाधिकारियों": 905,
  "पदाधिकारियों": 906,
  "टियों": 907,
  "क्तियों": 908,
  "सपुर": 909,
  "नपुर": 910,
  "दूरों": 911,
  "ारों": 912,
  "नजर": 913,
  "कंपनी": 914,
  "सकों": 915,
  "अं": 916,
  "करें": 917,
  "यटकों": 918,
  "र्यटकों": 919,
  "पर्यटकों": 920,
  "ैंकों": 921,
  "बैंकों": 922,
  "निर्देश": 923,
  "जयपुर": 924,
  "यकों": 925,
  "अस्पताल": 926,
  "हीनों": 927,
  "महीनों": 928,
  "ठनों": 929,
  "गठनों": 930,
  "संगठनों": 931,
  "हजारों": 932,
  "कार्यों": 933,
  "्यालयों": 934,
  "जदूरों": 935,
  "मजदूरों": 936,
  "पकों": 937,
  "्यापकों": 938,
  "अध्यापकों": 939,
  "क्सलियों": 940,
  "नक्सलियों": 941,
  "बनाने": 942,
  "ेज": 943,
  "त्सकों": 944,
  "कित्सकों": 945,
  "चिकित्सकों": 946,
  "मार्": 947,
  "राष्ट्रीय": 948,
  "इड": 949,
  "रहने": 950,
  "हरा": 951,
  "शिका": 952,
  "शहर": 953,
  "ंकवादियों": 954,
  "आतंकवादियों": 955,
  "जबलपुर": 956,
  "फसरों": 957,
  "अफसरों": 958,
  "करों": 959,
  "करता": 960,
  "वकों": 961,
  "व्यक्तियों": 962,
  "शकों": 963,
  "स्ते": 964,
  "लासपुर": 965,
  "बिलासपुर": 966,
  "पारियों": 967,
  "्यापारियों": 968,
  "व्यापारियों": 969,
  "यालयों": 970,
  "ॉक्टरों": 971,
  "डॉक्टरों": 972,
  "ोरों": 973,
  "द्यालयों": 974,
  "विद्यालयों": 975,
  "मंत्रियों": 976,
  "परी": 977,
  "व्यव": 978,
  "बिक": 979,
  "ुक": 980,
  "वरी": 981,
  "इलाकों": 982,
  "सिल": 983,
  "दरों": 984,
  "हकों": 985,
  "ग्राहकों": 986,
  "पुलिसकर्मियों": 987,
  "दर्शकों": 988,
  "बरों": 989,
  "मपुर": 990,
  "हारों": 991,
  "सरकारों": 992,
  "िय": 993,
  "रण": 994,
  "ितियों": 995,
  "स्थितियों": 996,
  "जित": 997,
  "इक": 998,
  "ट्रेनों": 999,
  "दपुर": 1000,
  "होती": 1001,
  "गानों": 1002,
  "विकास": 1003,
  "दिरों": 1004,
  "मंदिरों": 1005,
  "जीवन": 1006,
  "ूनों": 1007,
  "रिकों": 1008,
  "गरिकों": 1009,
  "नागरिकों": 1010,
  "शहरों": 1011,
  "त्तियों": 1012,
  "ोहारों": 1013,
  "त्योहारों": 1014,
  "ानिकों": 1015,
  "ञानिकों": 1016,
  "ज्ञानिकों": 1017,
  "वैज्ञानिकों": 1018,
  "साथियों": 1019,
  "घरों": 1020,
  "थकों": 1021,
  "यायालयों": 1022,
  "‍यायालयों": 1023,
  "न्‍यायालयों": 1024,
  "रियों": 1025,
  "चालकों": 1026,
  "वरों": 1027,
  "र्मियों": 1028,
  "दर्जनों": 1029,
  "परिस्थितियों": 1030,
  "रख": 1031,
  "ध्या": 1032,
  "जगह": 1033,
  "निवासी": 1034,
  "ेंट": 1035,
  "लेने": 1036,
  "लाई": 1037,
  "धायकों": 1038,
  "विधायकों": 1039,
  "थानों": 1040,
  "गपुर": 1041,
  "कार्र": 1042,
  "कार्रवाई": 1043,
  "खबरों": 1044,
  "षियों": 1045,
  "शियों": 1046,
  "रखपुर": 1047,
  "गोरखपुर": 1048,
  "ेंसियों": 1049,
  "जेंसियों": 1050,
  "एजेंसियों": 1051,
  "सलमानों": 1052,
  "मुसलमानों": 1053,
  "र्थकों": 1054,
  "समर्थकों": 1055,
  "दूसरों": 1056,
  "परिवारों": 1057,
  "कमरों": 1058,
  "कानदारों": 1059,
  "दुकानदारों": 1060,
  "वीरों": 1061,
  "स्वीरों": 1062,
  "तस्वीरों": 1063,
  "गर्मियों": 1064,
  "पायों": 1065,
  "उपायों": 1066,
  "भाइयों": 1067,
  "नीतियों": 1068,
  "षयों": 1069,
  "विषयों": 1070,
  "तरों": 1071,
  "मिकों": 1072,
  "श्रमिकों": 1073,
  "पक": 1074,
  "छले": 1075,
  "पिछले": 1076,
  "इल": 1077,
  "ंज": 1078,
  "मना": 1079,
  "दिवासियों": 1080,
  "आदिवासियों": 1081,
  "मित्रों": 1082,
  "तहत": 1083,
  "शेदपुर": 1084,
  "मशेदपुर": 1085,
  "जमशेदपुर": 1086,
  "वीर": 1087,
  "फ्तार": 1088,
  "तैयारियों": 1089,
  "ैनिकों": 1090,
  "सैनिकों": 1091,
  "बेटियों": 1092,
  "ैल": 1093,
  "सेवकों": 1094,
  "खियों": 1095,
  "र्खियों": 1096,
  "सुर्खियों": 1097,
  "ट्रकों": 1098,
  "हियों": 1099,
  "पत्तियों": 1100,
  "दोषियों": 1101,
  "हपुर": 1102,
  "ीमपुर": 1103,
  "खीमपुर": 1104,
  "लखीमपुर": 1105,
  "विचारों": 1106,
  "शनों": 1107,
  "ेशनों": 1108,
  "स्टेशनों": 1109,
  "अधिकारों": 1110,
  "पत्रकारों": 1111,
  "निधियों": 1112,
  "प्रतिनिधियों": 1113,
  "दानों": 1114,
  "चोरों": 1115,
  "वेदारों": 1116,
  "दावेदारों": 1117,
  "शनकारियों": 1118,
  "दर्शनकारियों": 1119,
  "जातकों": 1120,
  "ंगापुर": 1121,
  "सिंगापुर": 1122,
  "भागलपुर": 1123,
  "पत्रों": 1124,
  "िपुर": 1125,
  "णिपुर": 1126,
  "मणिपुर": 1127,
  "बहनों": 1128,
  "युवकों": 1129,
  "केंद्रों": 1130,
  "ृतकों": 1131,
  "मृतकों": 1132,
  "रामपुर": 1133,
  "दयपुर": 1134,
  "उदयपुर": 1135,
  "खोरों": 1136,
  "द्वारों": 1137,
  "रुद्वारों": 1138,
  "गुरुद्वारों": 1139,
  "धपुर": 1140,
  "जोधपुर": 1141,
  "ओवादियों": 1142,
  "माओवादियों": 1143,
  "ूट": 1144,
  "पै": 1145,
  "ठा": 1146,
  "विश्व": 1147,
  "गाड़ियों": 1148,
  "मिली": 1149,
  "स्य": 1150,
  "कट": 1151,
  "जाएगी": 1152,
  "ठक": 1153,
  "कहना": 1154,
  "खरी": 1155,
  "याद": 1156,
  "नकरों": 1157,
  "बुनकरों": 1158,
  "गरों": 1159,
  "कारीगरों": 1160,
  "पैरों": 1161,
  "ठकों": 1162,
  "पाठकों": 1163,
  "स्तकों": 1164,
  "पुस्तकों": 1165,
  "कानूनों": 1166,
  "इकों": 1167,
  "बाइकों": 1168,
  "लरों": 1169,
  "ेपुर": 1170,
  "शपुर": 1171,
  "नागपुर": 1172,
  "क्ष्यों": 1173,
  "लक्ष्यों": 1174,
  "गियों": 1175,
  "संपत्तियों": 1176,
  "जपुर": 1177,
  "पतियों": 1178,
  "योगियों": 1179,
  "सहयोगियों": 1180,
  "णयों": 1181,
  "निर्णयों": 1182,
  "मरों": 1183,
  "कैमरों": 1184,
  "रपुर": 1185,
  "यारों": 1186,
  "लियारों": 1187,
  "गलियारों": 1188,
  "श्नों": 1189,
  "नदियों": 1190,
  "धारकों": 1191,
  "धानों": 1192,
  "कमियों": 1193,
  "्थियों": 1194,
  "भार्थियों": 1195,
  "लाभार्थियों": 1196,
  "जीपुर": 1197,
  "जरों": 1198,
  "प्रदर्शनकारियों": 1199,
  "यरों": 1200,
  "भजनों": 1201,
  "जानवरों": 1202,
  "ियारों": 1203,
  "थियारों": 1204,
  "हथियारों": 1205,
  "ौतियों": 1206,
  "नौतियों": 1207,
  "चुनौतियों": 1208,
  "सामानों": 1209,
  "रुपयों": 1210,
  "टरों": 1211,
  "ंदपुर": 1212,
  "नीपुर": 1213,
  "लोनियों": 1214,
  "डाक्टरों": 1215,
  "तपुर": 1216,
  "ौजवानों": 1217,
  "नौजवानों": 1218,
  "डरों": 1219,
  "लाकारों": 1220,
  "कलाकारों": 1221,
  "जापुर": 1222,
  "र्जापुर": 1223,
  "मिर्जापुर": 1224,
  "ार्टियों": 1225,
  "पार्टियों": 1226,
  "दारपुर": 1227,
  "सरदारपुर": 1228,
  "प्रवासियों": 1229,
  "भावकों": 1230,
  "िभावकों": 1231,
  "अभिभावकों": 1232,
  "अंकों": 1233,
  "दखोरों": 1234,
  "सूदखोरों": 1235,
  "बालकों": 1236,
  "संख्या": 1237,
  "50": 1238,
  "इनों": 1239,
  "ंब": 1240,
  "मिला": 1241,
  "युव": 1242,
  "पियों": 1243,
  "बंद": 1244,
  "िकानों": 1245,
  "ठिकानों": 1246,
  "स्त्रों": 1247,
  "शास्त्रों": 1248,
  "दायों": 1249,
  "मुदायों": 1250,
  "समुदायों": 1251,
  "ाड़ियों": 1252,
  "झाड़ियों": 1253,
  "खंड": 1254,
  "बस": 1255,
  "नापुर": 1256,
  "दानापुर": 1257,
  "ूल्यों": 1258,
  "मूल्यों": 1259,
  "ल्हनों": 1260,
  "दुल्हनों": 1261,
  "दूसरे": 1262,
  "ड़गपुर": 1263,
  "खड़गपुर": 1264,
  "डीलरों": 1265,
  "ंसेवकों": 1266,
  "यंसेवकों": 1267,
  "ूतियों": 1268,
  "भूतियों": 1269,
  "राजेपुर": 1270,
  "थ्यों": 1271,
  "तथ्यों": 1272,
  "र्दियों": 1273,
  "सर्दियों": 1274,
  "व्यों": 1275,
  "देश्यों": 1276,
  "द्देश्यों": 1277,
  "उद्देश्यों": 1278,
  "तिथियों": 1279,
  "ंदियों": 1280,
  "बंदियों": 1281,
  "पाबंदियों": 1282,
  "गायों": 1283,
  "भागियों": 1284,
  "प्रतिभागियों": 1285,
  "नायकों": 1286,
  "ोहियों": 1287,
  "द्रोहियों": 1288,
  "तेहपुर": 1289,
  "फतेहपुर": 1290,
  "गालियों": 1291,
  "तगालियों": 1292,
  "र्तगालियों": 1293,
  "पुर्तगालियों": 1294,
  "धनों": 1295,
  "साधनों": 1296,
  "संसाधनों": 1297,
  "वनों": 1298,
  "भवनों": 1299,
  "रनों": 1300,
  "त्याशियों": 1301,
  "प्रत्याशियों": 1302,
  "ौनपुर": 1303,
  "जौनपुर": 1304,
  "ईयों": 1305,
  "भाईयों": 1306,
  "नरों": 1307,
  "टनरों": 1308,
  "ार्टनरों": 1309,
  "पार्टनरों": 1310,
  "बत्तियों": 1311,
  "चियों": 1312,
  "‍यों": 1313,
  "क्‍यों": 1314,
  "मानपुर": 1315,
  "विरों": 1316,
  "शिविरों": 1317,
  "क्षियों": 1318,
  "पक्षियों": 1319,
  "मूनों": 1320,
  "नमूनों": 1321,
  "्यकों": 1322,
  "ख्यकों": 1323,
  "संख्यकों": 1324,
  "पसंख्यकों": 1325,
  "ल्पसंख्यकों": 1326,
  "अल्पसंख्यकों": 1327,
  "प्रश्नों": 1328,
  "कायों": 1329,
  "निकायों": 1330,
  "तनों": 1331,
  "मारियों": 1332,
  "बैकों": 1333,
  "वधानों": 1334,
  "प्रावधानों": 1335,
  "हाजीपुर": 1336,
  "विमानों": 1337,
  "राजपुर": 1338,
  "ट्रियों": 1339,
  "मौकों": 1340,
  "हलकों": 1341,
  "ारपुर": 1342,
  "झारपुर": 1343,
  "ंझारपुर": 1344,
  "झंझारपुर": 1345,
  "ओवरों": 1346,
  "पालपुर": 1347,
  "जानकारियों": 1348,
  "स्कों": 1349,
  "यस्कों": 1350,
  "वयस्कों": 1351,
  "ग्रियों": 1352,
  "ोगियों": 1353,
  "रोगियों": 1354,
  "गलतियों": 1355,
  "़यों": 1356,
  "डि़यों": 1357,
  "ालयों": 1358,
  "मंत्रालयों": 1359,
  "मीरियों": 1360,
  "श्मीरियों": 1361,
  "कश्मीरियों": 1362,
  "किनारों": 1363,
  "संस्थानों": 1364,
  "ठाइयों": 1365,
  "मिठाइयों": 1366,
  "हांपुर": 1367,
  "जहांपुर": 1368,
  "हजहांपुर": 1369,
  "शाहजहांपुर": 1370,
  "ेयकों": 1371,
  "धेयकों": 1372,
  "विधेयकों": 1373,
  "वानीपुर": 1374,
  "भवानीपुर": 1375,
  "काइयों": 1376,
  "इकाइयों": 1377,
  "कॉलोनियों": 1378,
  "द्रों": 1379,
  "न्द्रों": 1380,
  "वजनों": 1381,
  "स्वजनों": 1382,
  "हरों": 1383,
  "ौलपुर": 1384,
  "धौलपुर": 1385,
  "ेमियों": 1386,
  "प्रेमियों": 1387,
  "गलियों": 1388,
  "विश्वविद्यालयों": 1389,
  "शेयरों": 1390,
  "शाहपुर": 1391,
  "बादशाहपुर": 1392,
  "राबादशाहपुर": 1393,
  "ंगराबादशाहपुर": 1394,
  "मुंगराबादशाहपुर": 1395,
  "ेंटरों": 1396,
  "सेंटरों": 1397,
  "द्रपुर": 1398,
  "रुद्रपुर": 1399,
  "नेजरों": 1400,
  "मैनेजरों": 1401,
  "ूतरों": 1402,
  "बूतरों": 1403,
  "कबूतरों": 1404,
  "बाड़ियों": 1405,
  "कबाड़ियों": 1406,
  "णपुर": 1407,
  "यणपुर": 1408,
  "ायणपुर": 1409,
  "ारायणपुर": 1410,
  "नारायणपुर": 1411,
  "यियों": 1412,
  "सायियों": 1413,
  "व्यवसायियों": 1414,
  "पाइयों": 1415,
  "भाजपाइयों": 1416,
  "खतरों": 1417,
  "न्दरों": 1418,
  "बन्दरों": 1419,
  "करियों": 1420,
  "ेसरों": 1421,
  "फेसरों": 1422,
  "ोफेसरों": 1423,
  "प्रोफेसरों": 1424,
  "लड़कों": 1425,
  "रोजपुर": 1426,
  "फिरोजपुर": 1427,
  "खदानों": 1428,
  "सदियों": 1429,
  "ट्रों": 1430,
  "क्ट्रों": 1431,
  "ैक्ट्रों": 1432,
  "इलैक्ट्रों": 1433,
  "रोटियों": 1434,
  "ुपुर": 1435,
  "ल्कों": 1436,
  "मुल्कों": 1437,
  "तारों": 1438,
  "ल्डरों": 1439,
  "फील्डरों": 1440,
  "लापुर": 1441,
  "त्कारों": 1442,
  "मत्कारों": 1443,
  "चमत्कारों": 1444,
  "डे": 1445,
  "सूचना": 1446,
  "तापुर": 1447,
  "सीतापुर": 1448,
  "दीपुर": 1449,
  "मोदीपुर": 1450,
  "मरीज": 1451,
  "लाइनों": 1452,
  "ल्पियों": 1453,
  "शिल्पियों": 1454,
  "स्तशिल्पियों": 1455,
  "हस्तशिल्पियों": 1456,
  "कीमत": 1457,
  "सनपुर": 1458,
  "हसनपुर": 1459,
  "स्थ्य": 1460,
  "वास्थ्य": 1461,
  "स्वास्थ्य": 1462,
  "जुरों": 1463,
  "डर": 1464,
  "उसके": 1465,
  "साड़ियों": 1466,
  "ुकों": 1467,
  "भुकों": 1468,
  "लाभुकों": 1469,
  "वयंसेवकों": 1470,
  "‍वयंसेवकों": 1471,
  "स्‍वयंसेवकों": 1472,
  "विभूतियों": 1473,
  "सदनों": 1474,
  "गहनों": 1475,
  "क्करों": 1476,
  "चक्करों": 1477,
  "धानियों": 1478,
  "राजधानियों": 1479,
  "खेलियों": 1480,
  "ठखेलियों": 1481,
  "अठखेलियों": 1482,
  "दावारों": 1483,
  "मदावारों": 1484,
  "म्मदावारों": 1485,
  "उम्मदावारों": 1486,
  "दव्यों": 1487,
  "सुरों": 1488,
  "धिकारों": 1489,
  "वाधिकारों": 1490,
  "मानवाधिकारों": 1491,
  "कापुर": 1492,
  "बिकापुर": 1493,
  "म्बिकापुर": 1494,
  "अम्बिकापुर": 1495,
  "जशपुर": 1496,
  "ठानों": 1497,
  "ष्ठानों": 1498,
  "प्रतिष्ठानों": 1499,
  "ब्धियों": 1500,
  "लब्धियों": 1501,
  "उपलब्धियों": 1502,
  "फिरों": 1503,
  "साफिरों": 1504,
  "मुसाफिरों": 1505,
  "गीरों": 1506,
  "हगीरों": 1507,
  "राहगीरों": 1508,
  "ब्दियों": 1509,
  "ताब्दियों": 1510,
  "शताब्दियों": 1511,
  "्रों": 1512,
  "ब्रों": 1513,
  "जानकारों": 1514,
  "देशद्रोहियों": 1515,
  "बागियों": 1516,
  "यानपुर": 1517,
  "ल्यानपुर": 1518,
  "कल्यानपुर": 1519,
  "ातकों": 1520,
  "घातकों": 1521,
  "बाजपुर": 1522,
  "हबाजपुर": 1523,
  "शहबाजपुर": 1524,
  "स्वयंसेवकों": 1525,
  "इंसानों": 1526,
  "लोकों": 1527,
  "राष्ट्रपतियों": 1528,
  "बादियों": 1529,
  "ंकबादियों": 1530,
  "आतंकबादियों": 1531,
  "हारनपुर": 1532,
  "सहारनपुर": 1533,
  "नकों": 1534,
  "जिनकों": 1535,
  "ऋषियों": 1536,
  "नेशपुर": 1537,
  "दिनेशपुर": 1538,
  "योजनों": 1539,
  "आयोजनों": 1540,
  "अगरबत्तियों": 1541,
  "क्तव्यों": 1542,
  "वक्तव्यों": 1543,
  "सूचियों": 1544,
  "ज़दूरों": 1545,
  "मज़दूरों": 1546,
  "मीरपुर": 1547,
  "हमीरपुर": 1548,
  "रानों": 1549,
  "घरानों": 1550,
  "ियजनों": 1551,
  "प्रियजनों": 1552,
  "क्सियों": 1553,
  "ैक्सियों": 1554,
  "टैक्सियों": 1555,
  "जोरों": 1556,
  "जनप्रतिनिधियों": 1557,
  "अनुदानों": 1558,
  "मरपुर": 1559,
  "अमरपुर": 1560,
  "र्तनों": 1561,
  "कीर्तनों": 1562,
  "सिरों": 1563,
  "इलधारकों": 1564,
  "बाइलधारकों": 1565,
  "मोबाइलधारकों": 1566,
  "बिमारियों": 1567,
  "जियों": 1568,
  "्जियों": 1569,
  "सब्जियों": 1570,
  "कारकों": 1571,
  "लकर्मियों": 1572,
  "कलकर्मियों": 1573,
  "मकलकर्मियों": 1574,
  "दमकलकर्मियों": 1575,
  "ूकों": 1576,
  "चूकों": 1577,
  "‍तियों": 1578,
  "त्‍तियों": 1579,
  "पत्‍तियों": 1580,
  "संपत्‍तियों": 1581,
  "वाहियों": 1582,
  "कार्यवाहियों": 1583,
  "क्षकारों": 1584,
  "पक्षकारों": 1585,
  "्श्नों": 1586,
  "प्र्श्नों": 1587,
  "ोरियों": 1588,
  "बोरियों": 1589,
  "जोनों": 1590,
  "ंसकों": 1591,
  "शंसकों": 1592,
  "प्रशंसकों": 1593,
  "सोनपुर": 1594,
  "तीपुर": 1595,
  "स्तीपुर": 1596,
  "समस्तीपुर": 1597,
  "च्चियों": 1598,
  "बच्चियों": 1599,
  "क्षरों": 1600,
  "अक्षरों": 1601,
  "कुलपतियों": 1602,
  "र्जरों": 1603,
  "गुर्जरों": 1604,
  "पालकों": 1605,
  "शुपालकों": 1606,
  "पशुपालकों": 1607,
  "तदारों": 1608,
  "मानतदारों": 1609,
  "जमानतदारों": 1610,
  "नियरों": 1611,
  "जीनियरों": 1612,
  "इंजीनियरों": 1613,
  "ुकारों": 1614,
  "स्तुकारों": 1615,
  "वास्तुकारों": 1616,
  "स्ट्रियों": 1617,
  "इंडस्ट्रियों": 1618,
  "मदनपुर": 1619,
  "बारियों": 1620,
  "ोबारियों": 1621,
  "कारोबारियों": 1622,
  "पालियों": 1623,
  "चारकों": 1624,
  "प्रचारकों": 1625,
  "गारों": 1626,
  "कामगारों": 1627,
  "प्रहारों": 1628,
  "डियाकर्मियों": 1629,
  "मीडियाकर्मियों": 1630,
  "धेपुर": 1631,
  "मधेपुर": 1632,
  "ापुर": 1633,
  "णापुर": 1634,
  "ंगणापुर": 1635,
  "शिंगणापुर": 1636,
  "फिल्मकारों": 1637,
  "दासपुर": 1638,
  "खूनों": 1639,
  "नाखूनों": 1640,
  "बदरपुर": 1641,
  "देपालपुर": 1642,
  "शानियों": 1643,
  "परेशानियों": 1644,
  "कलपुर": 1645,
  "साधिकारियों": 1646,
  "त्साधिकारियों": 1647,
  "कित्साधिकारियों": 1648,
  "चिकित्साधिकारियों": 1649,
  "आकारों": 1650,
  "खरों": 1651,
  "जाइनों": 1652,
  "डिजाइनों": 1653,
  "सामग्रियों": 1654,
  "मरियों": 1655,
  "बीमरियों": 1656,
  "्याधियों": 1657,
  "व्याधियों": 1658,
  "यनों": 1659,
  "अध्ययनों": 1660,
  "तानों": 1661,
  "संतानों": 1662,
  "बडि़यों": 1663,
  "ड़बडि़यों": 1664,
  "गड़बडि़यों": 1665,
  "्टियों": 1666,
  "ट्टियों": 1667,
  "ुट्टियों": 1668,
  "छुट्टियों": 1669,
  "‍बरों": 1670,
  "म्‍बरों": 1671,
  "नम्‍बरों": 1672,
  "म्बरों": 1673,
  "नम्बरों": 1674,
  "नाकों": 1675,
  "टीकरों": 1676,
  "स्टीकरों": 1677,
  "चाधिकारियों": 1678,
  "च्चाधिकारियों": 1679,
  "उच्चाधिकारियों": 1680,
  "तोनों": 1681,
  "खनपुर": 1682,
  "लखनपुर": 1683,
  "नगरवासियों": 1684,
  "चाइयों": 1685,
  "ंचाइयों": 1686,
  "ऊंचाइयों": 1687,
  "संचालकों": 1688,
  "र्गियों": 1689,
  "मुर्गियों": 1690,
  "प्रधानों": 1691,
  "ण्यों": 1692,
  "पुण्यों": 1693,
  "मिथकों": 1694,
  "विद्रोहियों": 1695,
  "वेक्षकों": 1696,
  "यवेक्षकों": 1697,
  "र्यवेक्षकों": 1698,
  "पर्यवेक्षकों": 1699,
  "ोटियों": 1700,
  "चोटियों": 1701,
  "टेरों": 1702,
  "ुटेरों": 1703,
  "लुटेरों": 1704,
  "दयालयों": 1705,
  "विदयालयों": 1706,
  "विश्वविदयालयों": 1707,
  "धार्थियों": 1708,
  "विधार्थियों": 1709,
  "ोटरों": 1710,
  "वोटरों": 1711,
  "‍कों": 1712,
  "ल्‍कों": 1713,
  "मुल्‍कों": 1714,
  "तानपुर": 1715,
  "ल्तानपुर": 1716,
  "सुल्तानपुर": 1717,
  "वेशकों": 1718,
  "निवेशकों": 1719,
  "क्ट्रियों": 1720,
  "ैक्ट्रियों": 1721,
  "फैक्ट्रियों": 1722,
  "शीपुर": 1723,
  "काशीपुर": 1724,
  "जसपुर": 1725,
  "आरियों": 1726,
  "जुआरियों": 1727,
  "हमानों": 1728,
  "मेहमानों": 1729,
  "माणपत्रों": 1730,
  "प्रमाणपत्रों": 1731,
  "चरों": 1732,
  "अनुचरों": 1733,
  "गोलियों": 1734,
  "बकरों": 1735,
  "चांदपुर": 1736,
  "राचांदपुर": 1737,
  "चुराचांदपुर": 1738,
  "ननों": 1739,
  "प्यों": 1740,
  "शतकों": 1741,
  "ैनों": 1742,
  "समैनों": 1743,
  "ल्समैनों": 1744,
  "सेल्समैनों": 1745,
  "मीपुर": 1746,
  "्मीपुर": 1747,
  "क्ष्मीपुर": 1748,
  "लक्ष्मीपुर": 1749,
  "लरामपुर": 1750,
  "बलरामपुर": 1751,
  "ंथियों": 1752,
  "पंथियों": 1753,
  "मपंथियों": 1754,
  "वामपंथियों": 1755,
  "्गियों": 1756,
  "ग्गियों": 1757,
  "ुग्गियों": 1758,
  "झुग्गियों": 1759,
  "निवासियों": 1760,
  "तरपुर": 1761,
  "छतरपुर": 1762,
  "पात्रों": 1763,
  "लीयों": 1764,
  "दलीयों": 1765,
  "निर्दलीयों": 1766,
  "ववादियों": 1767,
  "लगाववादियों": 1768,
  "अलगाववादियों": 1769,
  "़ियों": 1770,
  "ख़ियों": 1771,
  "र्ख़ियों": 1772,
  "सुर्ख़ियों": 1773,
  "स्तिथियों": 1774,
  "परिस्तिथियों": 1775,
  "शानों": 1776,
  "मशानों": 1777,
  "श्मशानों": 1778,
  "केन्द्रों": 1779,
  "चौलियों": 1780,
  "विचौलियों": 1781,
  "चेहरों": 1782,
  "भरतपुर": 1783,
  "ोपुर": 1784,
  "धोपुर": 1785,
  "माधोपुर": 1786,
  "वाईमाधोपुर": 1787,
  "सवाईमाधोपुर": 1788,
  "केटप्रेमियों": 1789,
  "िकेटप्रेमियों": 1790,
  "क्रिकेटप्रेमियों": 1791,
  "नगरों": 1792,
  "हानगरों": 1793,
  "महानगरों": 1794,
  "लादपुर": 1795,
  "्लादपुर": 1796,
  "ह्लादपुर": 1797,
  "प्रह्लादपुर": 1798,
  "स्तियों": 1799,
  "बस्तियों": 1800,
  "र्पियों": 1801,
  "कॉर्पियों": 1802,
  "स्कॉर्पियों": 1803,
  "धकों": 1804,
  "रोधकों": 1805,
  "निरोधकों": 1806,
  "ुकसानों": 1807,
  "नुकसानों": 1808,
  "पेशियों": 1809,
  "ंसपेशियों": 1810,
  "मांसपेशियों": 1811,
  "जातियों": 1812,
  "वारियों": 1813,
  "सवारियों": 1814,
  "पपुर": 1815,
  "ूपपुर": 1816,
  "अनूपपुर": 1817,
  "ंगियों": 1818,
  "जरंगियों": 1819,
  "बजरंगियों": 1820,
  "बीमारियों": 1821,
  "ताखोरों": 1822,
  "गोताखोरों": 1823,
  "द्वानों": 1824,
  "विद्वानों": 1825,
  "मालपुर": 1826,
  "कमालपुर": 1827,
  "गाजीपुर": 1828,
  "शनपत्रों": 1829,
  "प्रशनपत्रों": 1830,
  "गीदारों": 1831,
  "भागीदारों": 1832,
  "्रतियों": 1833,
  "व्रतियों": 1834,
  "ोसियों": 1835,
  "पड़ोसियों": 1836,
  "शेवरों": 1837,
  "पेशेवरों": 1838,
  "ेंडरों": 1839,
  "वेंडरों": 1840,
  "्पत्तियों": 1841,
  "सम्पत्तियों": 1842,
  "त्यारों": 1843,
  "हत्यारों": 1844,
  "रहानपुर": 1845,
  "बुरहानपुर": 1846,
  "दूकानों": 1847,
  "ीक्षकों": 1848,
  "अधीक्षकों": 1849,
  "ंतकों": 1850,
  "चिंतकों": 1851,
  "भचिंतकों": 1852,
  "शुभचिंतकों": 1853,
  "पदर्शनकारियों": 1854,
  "नकारियों": 1855,
  "यानकारियों": 1856,
  "टायानकारियों": 1857,
  "हटायानकारियों": 1858,
  "मानकों": 1859,
  "क्रों": 1860,
  "चक्रों": 1861,
  "युक्तियों": 1862,
  "नियुक्तियों": 1863,
  "शेरों": 1864,
  "रोधियों": 1865,
  "विरोधियों": 1866,
  "फ्तरों": 1867,
  "दफ्तरों": 1868,
  "अलापुर": 1869,
  "जैतपुर": 1870,
  "भारतवासियों": 1871,
  "सलियों": 1872,
  "‍सलियों": 1873,
  "क्‍सलियों": 1874,
  "नक्‍सलियों": 1875,
  "रीक्षकों": 1876,
  "निरीक्षकों": 1877,
  "पाहियों": 1878,
  "सिपाहियों": 1879,
  "िकों": 1880,
  "शिकों": 1881,
  "आशिकों": 1882,
  "क्सीनों": 1883,
  "वैक्सीनों": 1884,
  "बाकियों": 1885,
  "ितरों": 1886,
  "पितरों": 1887,
  "ंतियों": 1888,
  "दंतियों": 1889,
  "ंवदंतियों": 1890,
  "किंवदंतियों": 1891,
  "खिलाडि़यों": 1892,
  "झटकों": 1893,
  "मारदारों": 1894,
  "तीमारदारों": 1895,
  "धिकरियों": 1896,
  "प्राधिकरियों": 1897,
  "तकारों": 1898,
  "श्तकारों": 1899,
  "काश्तकारों": 1900,
  "र्थियों": 1901,
  "्यर्थियों": 1902,
  "अभ्यर्थियों": 1903,
  "लेमपुर": 1904,
  "सलेमपुर": 1905,
  "कार्यालयों": 1906,
  "ड़ीपुर": 1907,
  "माड़ीपुर": 1908,
  "प्पुर": 1909,
  "णप्पुर": 1910,
  "मणप्पुर": 1911,
  "न्यायालयों": 1912,
  "ूलरों": 1913,
  "जूलरों": 1914,
  "वतपुर": 1915,
  "रावतपुर": 1916,
  "ेसियों": 1917,
  "कांग्रेसियों": 1918,
  "ेरियों": 1919,
  "फेरियों": 1920,
  "आरक्षकों": 1921,
  "लिकों": 1922,
  "मालिकों": 1923,
  "एक्टरों": 1924,
  "रिएक्टरों": 1925,
  "स्थानिकों": 1926,
  "समस्थानिकों": 1927,
  "वर्तनों": 1928,
  "परिवर्तनों": 1929,
  "वियों": 1930,
  "जीवियों": 1931,
  "परजीवियों": 1932,
  "ढ़ियों": 1933,
  "पीढ़ियों": 1934,
  "ौनों": 1935,
  "बौनों": 1936,
  "जारों": 1937,
  "बाजारों": 1938,
  "दीकियों": 1939,
  "जदीकियों": 1940,
  "नजदीकियों": 1941,
  "बियों": 1942,
  "नबियों": 1943,
  "योजकों": 1944,
  "आयोजकों": 1945,
  "ुतियों": 1946,
  "स्तुतियों": 1947,
  "प्रस्तुतियों": 1948,
  "ड़ीयों": 1949,
  "छड़ीयों": 1950,
  "पुत्रों": 1951,
  "तयों": 1952,
  "नीतयों": 1953,
  "अवसरों": 1954,
  "हकारों": 1955,
  "लाहकारों": 1956,
  "सलाहकारों": 1957,
  "दारियों": 1958,
  "मेदारियों": 1959,
  "म्मेदारियों": 1960,
  "जिम्मेदारियों": 1961,
  "क्षार्थियों": 1962,
  "परीक्षार्थियों": 1963,
  "मकानों": 1964,
  "कंदपुर": 1965,
  "मुकंदपुर": 1966,
  "जादपुर": 1967,
  "आजादपुर": 1968,
  "णियों": 1969,
  "मणियों": 1970,
  "ूपुर": 1971,
  "टूपुर": 1972,
  "ष्टूपुर": 1973,
  "बिष्टूपुर": 1974,
  "नाइयों": 1975,
  "िनाइयों": 1976,
  "ठिनाइयों": 1977,
  "कठिनाइयों": 1978,
  "मतपत्रों": 1979,
  "ंधवासियों": 1980,
  "सिंधवासियों": 1981,
  "प्रतिभूतियों": 1982,
  "खानों": 1983,
  "षधियों": 1984,
  "औषधियों": 1985,
  "चार्यों": 1986,
  "नाचार्यों": 1987,
  "धानाचार्यों": 1988,
  "प्रधानाचार्यों": 1989,
  "नियनों": 1990,
  "यूनियनों": 1991,
  "सरामपुर": 1992,
  "परसरामपुर": 1993,
  "ौकरियों": 1994,
  "नौकरियों": 1995,
  "धुपुर": 1996,
  "मधुपुर": 1997,
  "मेलरों": 1998,
  "कमेलरों": 1999,
  "ैकमेलरों": 2000,
  "लैकमेलरों": 2001,
  "ब्लैकमेलरों": 2002,
  "येदारों": 2003,
  "कायेदारों": 2004,
  "बकायेदारों": 2005,
  "कालोनियों": 2006,
  "पुलिसर्मियों": 2007,
  "लहरों": 2008,
  "फरपुर": 2009,
  "फ्फरपुर": 2010,
  "ज़फ्फरपुर": 2011,
  "मुज़फ्फरपुर": 2012,
  "त्रकों": 2013,
  "चित्रकों": 2014,
  "कीनों": 2015,
  "ौकीनों": 2016,
  "शौकीनों": 2017,
  "छरों": 2018,
  "च्छरों": 2019,
  "मच्छरों": 2020,
  "ेशपुर": 2021,
  "णेशपुर": 2022,
  "गणेशपुर": 2023,
  "लाईयों": 2024,
  "कलाईयों": 2025,
  "वेशियों": 2026,
  "मवेशियों": 2027,
  "माग्रियों": 2028,
  "सामाग्रियों": 2029,
  "दाकर्मियों": 2030,
  "विदाकर्मियों": 2031,
  "संविदाकर्मियों": 2032,
  "शीनों": 2033,
  "मशीनों": 2034,
  "अवतारों": 2035,
  "लानों": 2036,
  "ढलानों": 2037,
  "बिरों": 2038,
  "मुखबिरों": 2039,
  "रीकों": 2040,
  "तरीकों": 2041,
  "मालापुर": 2042,
  "बारों": 2043,
  "खबारों": 2044,
  "अखबारों": 2045,
  "सितारों": 2046,
  "स्वास्थ्यकर्मियों": 2047,
  "देशवासियों": 2048,
  "शक्तियों": 2049,
  "टमपुर": 2050,
  "ाटमपुर": 2051,
  "घाटमपुर": 2052,
  "ंबदियों": 2053,
  "पांबदियों": 2054,
  "विपक्षियों": 2055,
  "लाधिकारियों": 2056,
  "आलाधिकारियों": 2057,
  "विंदपुर": 2058,
  "गोविंदपुर": 2059,
  "ाधिकारियों": 2060,
  "ंडाधिकारियों": 2061,
  "दंडाधिकारियों": 2062,
  "रणार्थियों": 2063,
  "शरणार्थियों": 2064,
  "नेकों": 2065,
  "अनेकों": 2066,
  "यलापुर": 2067,
  "मायलापुर": 2068,
  "धमपुर": 2069,
  "उधमपुर": 2070,
  "सरियों": 2071,
  "कहानियों": 2072,
  "खकों": 2073,
  "लेखकों": 2074,
  "थालियों": 2075,
  "लालपुर": 2076,
  "दीनपुर": 2077,
  "द्दीनपुर": 2078,
  "उद्दीनपुर": 2079,
  "हिउद्दीनपुर": 2080,
  "मोहिउद्दीनपुर": 2081,
  "हरपालपुर": 2082,
  "दर्शियों": 2083,
  "क्षदर्शियों": 2084,
  "त्यक्षदर्शियों": 2085,
  "प्रत्यक्षदर्शियों": 2086,
  "दिनीपुर": 2087,
  "मेदिनीपुर": 2088,
  "णुपुर": 2089,
  "ष्णुपुर": 2090,
  "विष्णुपुर": 2091,
  "तीयों": 2092,
  "भारतीयों": 2093,
  "ेनों": 2094,
  "दाेनों": 2095,
  "यानों": 2096,
  "बयानों": 2097,
  "वपुर": 2098,
  "धवपुर": 2099,
  "जाधवपुर": 2100,
  "हमारे": 2101,
  "हरी": 2102,
  "वायर": 2103,
  "एवं": 2104,
  "बाहर": 2105,
  "सकती": 2106,
  "हत्या": 2107,
  "रोक": 2108,
  "बैठक": 2109,
  "विधान": 2110,
  "प्ता": 2111,
  "मारी": 2112,
  "तिक": 2113,
  "जनता": 2114,
  "खेल": 2115,
  "रन": 2116,
  "संप": 2117,
  "ून": 2118,
  "जाना": 2119,
  "जाती": 2120,
  "निर्माण": 2121,
  "क्ति": 2122,
  "इसलिए": 2123,
  "राजनी": 2124,
  "दुनिया": 2125,
  "विड": 2126,
  "यहां": 2127,
  "क्रमण": 2128,
  "दिर": 2129,
  "मंदिर": 2130,
  "शो": 2131,
  "नव": 2132,
  "खुद": 2133,
  "फीस": 2134,
  "वहीं": 2135,
  "नए": 2136,
  "चित": 2137,
  "परिवार": 2138,
  "तौर": 2139,
  "स्तान": 2140,
  "देते": 2141,
  "फैसला": 2142,
  "अधिकारी": 2143,
  "शिकायत": 2144,
  "सरा": 2145,
  "बिहार": 2146,
  "निग": 2147,
  "पूरा": 2148,
  "सोम": 2149,
  "तु": 2150,
  "मीडिया": 2151,
  "प्रशासन": 2152,
  "बल": 2153,
  "फोन": 2154,
  "सोमवार": 2155,
  "लगातार": 2156,
  "ऐसे": 2157,
  "संग": 2158,
  "रुपये": 2159,
  "सुबह": 2160,
  "नरेंद्र": 2161,
  "सदस्य": 2162,
  "कोविड": 2163,
  "नीय": 2164,
  "मदद": 2165,
  "लाइन": 2166,
  "मीण": 2167,
  "इत": 2168,
  "बेह": 2169,
  "आम": 2170,
  "मध्य": 2171,
  "चान": 2172,
  "ब्ल": 2173,
  "वेश": 2174,
  "पहली": 2175,
  "टन": 2176,
  "त्म": 2177,
  "निकल": 2178,
  "ंचा": 2179,
  "पानी": 2180,
  "सुन": 2181,
  "ग्रामीण": 2182,
  "मोदी": 2183,
  "जिन": 2184,
  "सभा": 2185,
  "रूरत": 2186,
  "लोक": 2187,
  "टिंग": 2188,
  "चुका": 2189,
  "ग्राम": 2190,
  "गिरफ्तार": 2191,
  "मिक": 2192,
  "दूर": 2193,
  "पेश": 2194,
  "पोस्ट": 2195,
  "उनका": 2196,
  "19": 2197,
  "त्त": 2198,
  "पल": 2199,
  "युवक": 2200,
  "ंगल": 2201,
  "महिलाओं": 2202,
  "लगाया": 2203,
  "पूरे": 2204,
  "खरीद": 2205,
  "कद": 2206,
  "बाइक": 2207,
  "अभिया": 2208,
  "अभियान": 2209,
  "शव": 2210,
  "इसका": 2211,
  "ठन": 2212,
  "ज्यादा": 2213,
  "उपल": 2214,
  "मेंट": 2215,
  "मामला": 2216,
  "राब": 2217,
  "लब": 2218,
  "माना": 2219,
  "मुता": 2220,
  "मिलने": 2221,
  "जरूरत": 2222,
  "धायक": 2223,
  "विधायक": 2224,
  "प्ला": 2225,
  "तेल": 2226,
  "ोज": 2227,
  "होते": 2228,
  "तरा": 2229,
  "तब": 2230,
  "मीद": 2231,
  "मंडल": 2232,
  "स्या": 2233,
  "ब्र": 2234,
  "बज": 2235,
  "मुताबिक": 2236,
  "सबसे": 2237,
  "श्य": 2238,
  "सरकारी": 2239,
  "हाई": 2240,
  "सफल": 2241,
  "अंत": 2242,
  "प्रया": 2243,
  "आधार": 2244,
  "रानी": 2245,
  "हारा": 2246,
  "टिव": 2247,
  "ल्ड": 2248,
  "सवाल": 2249,
  "बाजार": 2250,
  "स्ट्र": 2251,
  "घा": 2252,
  "निवार": 2253,
  "बने": 2254,
  "माह": 2255,
  "व्या": 2256,
  "तरी": 2257,
  "वाप": 2258,
  "कृ": 2259,
  "त्री": 2260,
  "वाब": 2261,
  "ॉक": 2262,
  "कार्ड": 2263,
  "दल": 2264,
  "बो": 2265,
  "जेल": 2266,
  "पीएम": 2267,
  "म्मीद": 2268,
  "उम्मीद": 2269,
  "मर": 2270,
  "कराया": 2271,
  "जाते": 2272,
  "भीर": 2273,
  "यान": 2274,
  "ैंक": 2275,
  "वायरस": 2276,
  "वित": 2277,
  "खिलाफ": 2278,
  "पन": 2279,
  "भाई": 2280,
  "मीर": 2281,
  "तला": 2282,
  "लड़": 2283,
  "सेना": 2284,
  "कराने": 2285,
  "शल": 2286,
  "र्य": 2287,
  "चलते": 2288,
  "लेज": 2289,
  "तन": 2290,
  "भेज": 2291,
  "नंबर": 2292,
  "वापस": 2293,
  "ेंद": 2294,
  "गेंद": 2295,
  "मार्ग": 2296,
  "ंदी": 2297,
  "आव": 2298,
  "सीट": 2299,
  "उसने": 2300,
  "थिक": 2301,
  "हित": 2302,
  "वैक्सी": 2303,
  "मैंने": 2304,
  "लक": 2305,
  "भू": 2306,
  "खन": 2307,
  "गण": 2308,
  "काली": 2309,
  "समस्या": 2310,
  "सहित": 2311,
  "ष्ट": 2312,
  "बनाया": 2313,
  "इससे": 2314,
  "शुक्र": 2315,
  "चंद्र": 2316,
  "आयोग": 2317,
  "संक्रमण": 2318,
  "ंदर": 2319,
  "ोषण": 2320,
  "घोषण": 2321,
  "घायल": 2322,
  "लाने": 2323,
  "पट": 2324,
  "केवल": 2325,
  "शाम": 2326,
  "क्षक": 2327,
  "आया": 2328,
  "सित": 2329,
  "बिज": 2330,
  "अपरा": 2331,
  "‍य": 2332,
  "संगठन": 2333,
  "खास": 2334,
  "धवार": 2335,
  "ंभीर": 2336,
  "गंभीर": 2337,
  "उसे": 2338,
  "कत": 2339,
  "कल": 2340,
  "चाहते": 2341,
  "जूद": 2342,
  "मौजूद": 2343,
  "पिता": 2344,
  "छात्रा": 2345,
  "देव": 2346,
  "हीने": 2347,
  "महीने": 2348,
  "ंचायत": 2349,
  "पंचायत": 2350,
  "राव": 2351,
  "दाल": 2352,
  "र्थिक": 2353,
  "आर्थिक": 2354,
  "शाह": 2355,
  "काश": 2356,
  "मजब": 2357,
  "सत": 2358,
  "वो": 2359,
  "200": 2360,
  "बुधवार": 2361,
  "शिश": 2362,
  "कोशिश": 2363,
  "जाएंग": 2364,
  "40": 2365,
  "बजट": 2366,
  "टेस्ट": 2367,
  "अध्यक्ष": 2368,
  "माज": 2369,
  "रिक": 2370,
  "दर्शन": 2371,
  "वेदन": 2372,
  "ल्ले": 2373,
  "प्रे": 2374,
  "ष्य": 2375,
  "रिका": 2376,
  "र्क": 2377,
  "मार्ट": 2378,
  "विद": 2379,
  "बिना": 2380,
  "इस्ते": 2381,
  "इस्तेमाल": 2382,
  "बदला": 2383,
  "ूत": 2384,
  "उनकी": 2385,
  "भारी": 2386,
  "हमने": 2387,
  "शत": 2388,
  "ंका": 2389,
  "ॉली": 2390,
  "काब": 2391,
  "बैंक": 2392,
  "जांच": 2393,
  "उसका": 2394,
  "स्तर": 2395,
  "शुक्रवार": 2396,
  "जवाब": 2397,
  "विवार": 2398,
  "रविवार": 2399,
  "ंत्र": 2400,
  "यम": 2401,
  "समाज": 2402,
  "ध्यान": 2403,
  "ैंड": 2404,
  "निगम": 2405,
  "यादव": 2406,
  "मेरिका": 2407,
  "अमेरिका": 2408,
  "छोड़": 2409,
  "खाने": 2410,
  "महा": 2411,
  "आपको": 2412,
  "योजन": 2413,
  "ान": 2414,
  "ैक": 2415,
  "ाम": 2416,
  "डाउन": 2417,
  "कार्यक्रम": 2418,
  "भगवान": 2419,
  "षित": 2420,
  "न्द्र": 2421,
  "ड्र": 2422,
  "र्जी": 2423,
  "एयर": 2424,
  "भव": 2425,
  "अंतर": 2426,
  "कित": 2427,
  "ट्रोल": 2428,
  "क्षम": 2429,
  "ताप": 2430,
  "करती": 2431,
  "मेरे": 2432,
  "जुलाई": 2433,
  "सलमान": 2434,
  "संद": 2435,
  "पसंद": 2436,
  "प्रयास": 2437,
  "महारा": 2438,
  "उपयोग": 2439,
  "कर्म": 2440,
  "एक्स": 2441,
  "जाम": 2442,
  "रुवार": 2443,
  "गुरुवार": 2444,
  "र्ग": 2445,
  "दारी": 2446,
  "स्ती": 2447,
  "ट्रा": 2448,
  "ारे": 2449,
  "ड़क": 2450,
  "धर": 2451,
  "फोट": 2452,
  "रज": 2453,
  "मुंब": 2454,
  "मुंबई": 2455,
  "इंडिया": 2456,
  "ल्प": 2457,
  "अवसर": 2458,
  "टिस": 2459,
  "सात": 2460,
  "‍या": 2461,
  "र्ती": 2462,
  "गय": 2463,
  "लखन": 2464,
  "क्शन": 2465,
  "टिक": 2466,
  "मेड": 2467,
  "िकल": 2468,
  "धर्म": 2469,
  "होना": 2470,
  "सीएम": 2471,
  "बदलाव": 2472,
  "प्री": 2473,
  "अहम": 2474,
  "आस": 2475,
  "किस्तान": 2476,
  "ष्ण": 2477,
  "इंटर": 2478,
  "तम": 2479,
  "लगी": 2480,
  "पाए": 2481,
  "आग": 2482,
  "क्रिया": 2483,
  "बाज": 2484,
  "स्कूल": 2485,
  "श्मीर": 2486,
  "कश्मीर": 2487,
  "तारी": 2488,
  "तेज": 2489,
  "विजय": 2490,
  "डाल": 2491,
  "तथा": 2492,
  "सोशल": 2493,
  "मेडिकल": 2494,
  "बिजली": 2495,
  "चने": 2496,
  "शनिवार": 2497,
  "प्रतिशत": 2498,
  "िकेट": 2499,
  "बाइल": 2500,
  "मोबाइल": 2501,
  "आदेश": 2502,
  "वर्षीय": 2503,
  "गौर": 2504,
  "नेताओं": 2505,
  "ूं": 2506,
  "नियम": 2507,
  "ऐसी": 2508,
  "लैंड": 2509,
  "सला": 2510,
  "केंद्रीय": 2511,
  "भर्ती": 2512,
  "अर": 2513,
  "60": 2514,
  "ेश": 2515,
  "टल": 2516,
  "त्नी": 2517,
  "पत्नी": 2518,
  "विद्यालय": 2519,
  "ेक": 2520,
  "ूह": 2521,
  "खिल": 2522,
  "मीटर": 2523,
  "सरी": 2524,
  "लन": 2525,
  "इलाज": 2526,
  "शिव": 2527,
  "ोर": 2528,
  "नेट": 2529,
  "क्रिकेट": 2530,
  "मुकाब": 2531,
  "बयान": 2532,
  "ूद": 2533,
  "पाकिस्तान": 2534,
  "गरी": 2535,
  "पूर": 2536,
  "ूर": 2537,
  "वाह": 2538,
  "खबर": 2539,
  "प्राप्त": 2540,
  "ूम": 2541,
  "साब": 2542,
  "फ़": 2543,
  "म्म": 2544,
  "रिए": 2545,
  "क्षित": 2546,
  "वैक्सीन": 2547,
  "तेजी": 2548,
  "पीड़": 2549,
  "पित": 2550,
  "स्थानीय": 2551,
  "मिश्र": 2552,
  "पड़ता": 2553,
  "बोर्ड": 2554,
  "कानून": 2555,
  "प्रकाश": 2556,
  "तैयारी": 2557,
  "लगाने": 2558,
  "झा": 2559,
  "चीन": 2560,
  "िश": 2561,
  "ग्री": 2562,
  "पेट्रोल": 2563,
  "मंगल": 2564,
  "ंधन": 2565,
  "विक": 2566,
  "ोटिस": 2567,
  "नोटिस": 2568,
  "हुल": 2569,
  "आवेदन": 2570,
  "बनी": 2571,
  "यात्रा": 2572,
  "स्वीर": 2573,
  "तस्वीर": 2574,
  "ेशन": 2575,
  "कर्ता": 2576,
  "ेंस": 2577,
  "मीन": 2578,
  "हमले": 2579,
  "बदल": 2580,
  "ूबर": 2581,
  "टक": 2582,
  "प्ले": 2583,
  "प्रत्य": 2584,
  "मई": 2585,
  "अदाल": 2586,
  "अदालत": 2587,
  "लॉक": 2588,
  "रखने": 2589,
  "आयोजन": 2590,
  "ूब": 2591,
  "मण": 2592,
  "ॉलर": 2593,
  "योगी": 2594,
  "निर्ण": 2595,
  "स्थि": 2596,
  "ृह": 2597,
  "हाद": 2598,
  "कॉलेज": 2599,
  "ुड": 2600,
  "वुड": 2601,
  "निकाल": 2602,
  "कप": 2603,
  "सिक": 2604,
  "ेट": 2605,
  "न्याया": 2606,
  "परेशान": 2607,
  "बंधन": 2608,
  "मिन": 2609,
  "प्रदर्शन": 2610,
  "स्प": 2611,
  "संबर": 2612,
  "दिसंबर": 2613,
  "वारी": 2614,
  "लगभग": 2615,
  "ेत": 2616,
  "एड": 2617,
  "देखते": 2618,
  "प्रकार": 2619,
  "100": 2620,
  "70": 2621,
  "ौट": 2622,
  "लौट": 2623,
  "000": 2624,
  "किस": 2625,
  "जीव": 2626,
  "सप्ता": 2627,
  "योजित": 2628,
  "ल्द": 2629,
  "जल्द": 2630,
  "ञान": 2631,
  "ज्ञान": 2632,
  "पहला": 2633,
  "सड़क": 2634,
  "अगस्त": 2635,
  "िन्न": 2636,
  "भिन्न": 2637,
  "विभिन्न": 2638,
  "रंग": 2639,
  "भावना": 2640,
  "शिया": 2641,
  "खर": 2642,
  "डॉलर": 2643,
  "हे": 2644,
  "असर": 2645,
  "लित": 2646,
  "ट्": 2647,
  "पाया": 2648,
  "फ्र": 2649,
  "राजस्थान": 2650,
  "भावित": 2651,
  "न्यू": 2652,
  "सिए": 2653,
  "छह": 2654,
  "ग्रह": 2655,
  "्मान": 2656,
  "सम्मान": 2657,
  "समेत": 2658,
  "प्रवेश": 2659,
  "कोह": 2660,
  "मेरी": 2661,
  "वाना": 2662,
  "सप्ताह": 2663,
  "न्ना": 2664,
  "ैन": 2665,
  "मूल": 2666,
  "न्म": 2667,
  "आयोजित": 2668,
  "नोट": 2669,
  "राष्ट्रप": 2670,
  "लॉकडाउन": 2671,
  "ल्ल": 2672,
  "छता": 2673,
  "लिक": 2674,
  "‍त": 2675,
  "80": 2676,
  "अल": 2677,
  "दाय": 2678,
  "निर्णय": 2679,
  "फैसले": 2680,
  "्त": 2681,
  "मल": 2682,
  "फाय": 2683,
  "ार्क": 2684,
  "संकट": 2685,
  "कील": 2686,
  "खाई": 2687,
  "विचार": 2688,
  "चन": 2689,
  "श्यक": 2690,
  "वाओं": 2691,
  "ोसिए": 2692,
  "एसोसिए": 2693,
  "राहुल": 2694,
  "बल्ले": 2695,
  "बराम": 2696,
  "बरामद": 2697,
  "आंक": 2698,
  "विप": 2699,
  "चले": 2700,
  "नेत": 2701,
  "अगले": 2702,
  "वास्त": 2703,
  "ाई": 2704,
  "ड़ने": 2705,
  "श्वर": 2706,
  "हालत": 2707,
  "लिका": 2708,
  "स्वय": 2709,
  "कदम": 2710,
  "ब्रा": 2711,
  "हमला": 2712,
  "वाहन": 2713,
  "िता": 2714,
  "पालन": 2715,
  "पर्य": 2716,
  "ृत्य": 2717,
  "खूब": 2718,
  "पुत्र": 2719,
  "काफी": 2720,
  "बेहतर": 2721,
  "एज": 2722,
  "गृह": 2723,
  "जाकर": 2724,
  "लाइट": 2725,
  "धानी": 2726,
  "बनाए": 2727,
  "र्या": 2728,
  "सिटी": 2729,
  "धी": 2730,
  "आवश्यक": 2731,
  "मंगलवार": 2732,
  "अधिकार": 2733,
  "शेष": 2734,
  "मेटी": 2735,
  "कमेटी": 2736,
  "मैन": 2737,
  "साद": 2738,
  "चिव": 2739,
  "सचिव": 2740,
  "दोपह": 2741,
  "दोपहर": 2742,
  "कार्यालय": 2743,
  "फरवरी": 2744,
  "धरी": 2745,
  "चिका": 2746,
  "याचिका": 2747,
  "हासिल": 2748,
  "आते": 2749,
  "जन्म": 2750,
  "जमीन": 2751,
  "ंधित": 2752,
  "शेयर": 2753,
  "तरण": 2754,
  "जाब": 2755,
  "समूह": 2756,
  "रोड": 2757,
  "ल्क": 2758,
  "ंगाल": 2759,
  "राय": 2760,
  "विर": 2761,
  "त्ता": 2762,
  "विदेश": 2763,
  "देता": 2764,
  "कॉर्ड": 2765,
  "चरण": 2766,
  "राजनीतिक": 2767,
  "ोषित": 2768,
  "घोषित": 2769,
  "ारा": 2770,
  "थन": 2771,
  "लाग": 2772,
  "बाजी": 2773,
  "डीएम": 2774,
  "ॉलीवुड": 2775,
  "द्ध": 2776,
  "मंत्रा": 2777,
  "मंत्रालय": 2778,
  "टाने": 2779,
  "रूरी": 2780,
  "माध्य": 2781,
  "चर": 2782,
  "क्ला": 2783,
  "केश": 2784,
  "ीक": 2785,
  "महत्व": 2786,
  "दोस्त": 2787,
  "एसोसिएशन": 2788,
  "श्रे": 2789,
  "ार्ड": 2790,
  "ॉप": 2791,
  "संयुक्त": 2792,
  "जम्म": 2793,
  "स्थल": 2794,
  "स्ट्रे": 2795,
  "2020": 2796,
  "न्याय": 2797,
  "ृत्व": 2798,
  "नेतृत्व": 2799,
  "तय": 2800,
  "अक्ट": 2801,
  "अक्टूबर": 2802,
  "द्योग": 2803,
  "चीज": 2804,
  "धित": 2805,
  "दिव": 2806,
  "सुनवाई": 2807,
  "पहचान": 2808,
  "कर्ताओं": 2809,
  "पान": 2810,
  "ंकन": 2811,
  "तिम": 2812,
  "नय": 2813,
  "रिकॉर्ड": 2814,
  "हान": 2815,
  "विरा": 2816,
  "छात्र": 2817,
  "मुला": 2818,
  "चेक": 2819,
  "कोल": 2820,
  "विकेट": 2821,
  "बनाकर": 2822,
  "सामान": 2823,
  "शराब": 2824,
  "प्रभावित": 2825,
  "प्रेस": 2826,
  "दिखाई": 2827,
  "देर": 2828,
  "वाज": 2829,
  "नुक": 2830,
  "प्रक्रिया": 2831,
  "गार्ड": 2832,
  "मेरा": 2833,
  "वधान": 2834,
  "होकर": 2835,
  "अचान": 2836,
  "अचानक": 2837,
  "चौधरी": 2838,
  "संजय": 2839,
  "वानी": 2840,
  "किसान": 2841,
  "विष्य": 2842,
  "भविष्य": 2843,
  "डॉ": 2844,
  "गढ़": 2845,
  "गंज": 2846,
  "संक्र": 2847,
  "घरेल": 2848,
  "ठीक": 2849,
  "स्मार्ट": 2850,
  "महाराष्ट्र": 2851,
  "सिंग": 2852,
  "थाने": 2853,
  "जिक": 2854,
  "ंजाब": 2855,
  "पंजाब": 2856,
  "फैल": 2857,
  "विवाद": 2858,
  "मौसम": 2859,
  "करेगी": 2860,
  "संपर्क": 2861,
  "प्रदान": 2862,
  "अंतिम": 2863,
  "दर्श": 2864,
  "दूसरी": 2865,
  "उम": 2866,
  "िज": 2867,
  "पुल": 2868,
  "त्ती": 2869,
  "्‍य": 2870,
  "किंग": 2871,
  "दाम": 2872,
  "धिकारी": 2873,
  "हरिया": 2874,
  "बॉलीवुड": 2875,
  "फाई": 2876,
  "सफाई": 2877,
  "जरूरी": 2878,
  "राजधानी": 2879,
  "रिंग": 2880,
  "स्कार": 2881,
  "नेशन": 2882,
  "किल": 2883,
  "अनुम": 2884,
  "महत्वपूर्ण": 2885,
  "वकील": 2886,
  "डीजल": 2887,
  "पुरा": 2888,
  "क्षमता": 2889,
  "शोक": 2890,
  "अशोक": 2891,
  "दीप": 2892,
  "जिन्ह": 2893,
  "प्रसाद": 2894,
  "जता": 2895,
  "पटना": 2896,
  "उंड": 2897,
  "रुआत": 2898,
  "शुरुआत": 2899,
  "पहल": 2900,
  "सिर": 2901,
  "खाद्य": 2902,
  "होम": 2903,
  "प्रमाण": 2904,
  "ंसी": 2905,
  "गाइड": 2906,
  "कने": 2907,
  "अप्र": 2908,
  "सुपर": 2909,
  "वर्त": 2910,
  "बच्": 2911,
  "बंगाल": 2912,
  "ल्ला": 2913,
  "डाय": 2914,
  "बीमारी": 2915,
  "साय": 2916,
  "देकर": 2917,
  "ौन": 2918,
  "ेंटर": 2919,
  "रूर": 2920,
  "इंत": 2921,
  "सारे": 2922,
  "आवास": 2923,
  "प्रस्ता": 2924,
  "मिका": 2925,
  "बहन": 2926,
  "स्ट्री": 2927,
  "संदेश": 2928,
  "टीका": 2929,
  "श्चित": 2930,
  "निश्चित": 2931,
  "ेयक": 2932,
  "धेयक": 2933,
  "विधेयक": 2934,
  "हालां": 2935,
  "हालांकि": 2936,
  "हरियाण": 2937,
  "स्थिति": 2938,
  "रहते": 2939,
  "इतना": 2940,
  "शिप": 2941,
  "वजूद": 2942,
  "संभव": 2943,
  "मेश": 2944,
  "तलब": 2945,
  "मुक्त": 2946,
  "ुल": 2947,
  "मिलेगा": 2948,
  "नुकसान": 2949,
  "ंता": 2950,
  "मिनट": 2951,
  "बेहद": 2952,
  "शरी": 2953,
  "चुन": 2954,
  "ौती": 2955,
  "मैदान": 2956,
  "असल": 2957,
  "्ता": 2958,
  "ोपाल": 2959,
  "भोपाल": 2960,
  "दिग": 2961,
  "संक्रमित": 2962,
  "ुओं": 2963,
  "ील": 2964,
  "बोल": 2965,
  "चालक": 2966,
  "गरीब": 2967,
  "सफलता": 2968,
  "सुधार": 2969,
  "प्रस्त": 2970,
  "माजिक": 2971,
  "सामाजिक": 2972,
  "आय": 2973,
  "हटाने": 2974,
  "वर्तमान": 2975,
  "रहेगा": 2976,
  "शिक्षण": 2977,
  "लिंग": 2978,
  "मात्र": 2979,
  "चलाने": 2980,
  "पादन": 2981,
  "द्द": 2982,
  "जिटिव": 2983,
  "परिण": 2984,
  "परिणाम": 2985,
  "डिंग": 2986,
  "मृत्य": 2987,
  "मिट": 2988,
  "सोन": 2989,
  "भूमिका": 2990,
  "कहते": 2991,
  "शिविर": 2992,
  "सितंबर": 2993,
  "सांस": 2994,
  "ूड": 2995,
  "परियोजना": 2996,
  "रोग": 2997,
  "टिकट": 2998,
  "विराट": 2999,
  "वक्त": 3000,
  "उत्तरा": 3001,
  "मजबूत": 3002,
  "र्थन": 3003,
  "समर्थन": 3004,
  "अच्": 3005,
  "पीए": 3006,
  "बड़ी": 3007,
  "कले": 3008,
  "प्रतिब": 3009,
  "सहयोग": 3010,
  "माध्यम": 3011,
  "बावजूद": 3012,
  "दूषण": 3013,
  "प्रदूषण": 3014,
  "आन": 3015,
  "हिंद": 3016,
  "पार्क": 3017,
  "देखने": 3018,
  "वाने": 3019,
  "गैस": 3020,
  "छे": 3021,
  "ोटी": 3022,
  "करेगा": 3023,
  "स्टेशन": 3024,
  "मुकाबले": 3025,
  "पाई": 3026,
  "तलाश": 3027,
  "शानदार": 3028,
  "हल": 3029,
  "केस": 3030,
  "अपील": 3031,
  "क्कर": 3032,
  "गीत": 3033,
  "्री": 3034,
  "आती": 3035,
  "धिक": 3036,
  "ैना": 3037,
  "तैना": 3038,
  "इम": 3039,
  "रिक्त": 3040,
  "अंदर": 3041,
  "ैली": 3042,
  "लेना": 3043,
  "प्रव": 3044,
  "क्ता": 3045,
  "स्टी": 3046,
  "वितरण": 3047,
  "खुला": 3048,
  "उत्पादन": 3049,
  "जूरी": 3050,
  "मंजूरी": 3051,
  "सिले": 3052,
  "ॉट": 3053,
  "निदेश": 3054,
  "न्यायालय": 3055,
  "ॉजिटिव": 3056,
  "पॉजिटिव": 3057,
  "जरूर": 3058,
  "ैंसर": 3059,
  "कैंसर": 3060,
  "महामारी": 3061,
  "आसपास": 3062,
  "ऊपर": 3063,
  "अजय": 3064,
  "उट": 3065,
  "ोरी": 3066,
  "पकड़": 3067,
  "केन्द्र": 3068,
  "क्रिय": 3069,
  "नारा": 3070,
  "गाय": 3071,
  "शांत": 3072,
  "ेंसी": 3073,
  "नया": 3074,
  "ट्रांस": 3075,
  "बीते": 3076,
  "ाने": 3077,
  "अंतरराष्ट्रीय": 3078,
  "कृष्ण": 3079,
  "बारिश": 3080,
  "पर्या": 3081,
  "गौरतलब": 3082,
  "सामना": 3083,
  "न्स": 3084,
  "ेल": 3085,
  "तापमान": 3086,
  "रल": 3087,
  "श्या": 3088,
  "सत्र": 3089,
  "व्यापार": 3090,
  "विशेष": 3091,
  "रोहित": 3092,
  "टीएम": 3093,
  "बल्लेबाज": 3094,
  "दूसरा": 3095,
  "बिग": 3096,
  "छूट": 3097,
  "लगाए": 3098,
  "ंगी": 3099,
  "जेक्ट": 3100,
  "सुरक्षित": 3101,
  "सीसी": 3102,
  "बरा": 3103,
  "कोहली": 3104,
  "सीए": 3105,
  "नवंबर": 3106,
  "भवन": 3107,
  "कला": 3108,
  "दिल": 3109,
  "लेट": 3110,
  "हता": 3111,
  "चीत": 3112,
  "बातचीत": 3113,
  "बेटी": 3114,
  "जनवरी": 3115,
  "हड़": 3116,
  "ऑन": 3117,
  "इए": 3118,
  "टेड": 3119,
  "एंड": 3120,
  "निका": 3121,
  "एसएस": 3122,
  "प्रशिक्षण": 3123,
  "ैंप": 3124,
  "मतदान": 3125,
  "विंद": 3126,
  "ट्रक": 3127,
  "बाल": 3128,
  "अम": 3129,
  "लोमीटर": 3130,
  "किलोमीटर": 3131,
  "माने": 3132,
  "मुद्र": 3133,
  "आवाज": 3134,
  "प्य": 3135,
  "डॉक्टर": 3136,
  "निदेशक": 3137,
  "लियन": 3138,
  "बत": 3139,
  "मिश्रा": 3140,
  "मास्क": 3141,
  "विल": 3142,
  "संभावना": 3143,
  "ेंज": 3144,
  "जैसी": 3145,
  "पण": 3146,
  "जानते": 3147,
  "प्रयोग": 3148,
  "छत्ती": 3149,
  "छत्तीस": 3150,
  "आत्म": 3151,
  "500": 3152,
  "रोकने": 3153,
  "लाना": 3154,
  "वत": 3155,
  "आता": 3156,
  "ैर": 3157,
  "सके": 3158,
  "प्रभारी": 3159,
  "प्रिय": 3160,
  "जम": 3161,
  "कात": 3162,
  "थम": 3163,
  "साइट": 3164,
  "अभी": 3165,
  "नित": 3166,
  "खार": 3167,
  "गंगा": 3168,
  "पढ़": 3169,
  "ग्रे": 3170,
  "कपूर": 3171,
  "नियमित": 3172,
  "लागत": 3173,
  "िमंडल": 3174,
  "मंत्रिमंडल": 3175,
  "जैन": 3176,
  "अग्र": 3177,
  "तिवारी": 3178,
  "ंदन": 3179,
  "नाग": 3180,
  "जरिए": 3181,
  "रेश": 3182,
  "नती": 3183,
  "खराब": 3184,
  "श्न": 3185,
  "जाय": 3186,
  "क्वार": 3187,
  "पेट": 3188,
  "वास्तव": 3189,
  "ाण": 3190,
  "टेल": 3191,
  "राजीव": 3192,
  "चंड": 3193,
  "ार्ज": 3194,
  "लहाल": 3195,
  "मौका": 3196,
  "सैन": 3197,
  "ैट": 3198,
  "शाला": 3199,
  "तिरिक्त": 3200,
  "अतिरिक्त": 3201,
  "चाव": 3202,
  "बचाव": 3203,
  "संबंधित": 3204,
  "इन्ह": 3205,
  "अप्रैल": 3206,
  "जिसका": 3207,
  "चौक": 3208,
  "्राम": 3209,
  "90": 3210,
  "मरा": 3211,
  "झार": 3212,
  "ृत": 3213,
  "ल्टी": 3214,
  "वार्ड": 3215,
  "ट्रेन": 3216,
  "रहता": 3217,
  "रास्ते": 3218,
  "ार्मिक": 3219,
  "धार्मिक": 3220,
  "माता": 3221,
  "सेंटर": 3222,
  "भागी": 3223,
  "पूछता": 3224,
  "मनोज": 3225,
  "संवाद": 3226,
  "दाता": 3227,
  "केत": 3228,
  "षद": 3229,
  "ड्रा": 3230,
  "ार्वज": 3231,
  "सार्वज": 3232,
  "चौहान": 3233,
  "केशन": 3234,
  "इसे": 3235,
  "हमारी": 3236,
  "मुलाकात": 3237,
  "दाबाद": 3238,
  "लिटी": 3239,
  "िण": 3240,
  "सागर": 3241,
  "शर": 3242,
  "खाते": 3243,
  "ौल": 3244,
  "राग": 3245,
  "नाक": 3246,
  "विमान": 3247,
  "अली": 3248,
  "श्किल": 3249,
  "मुश्किल": 3250,
  "परमाण": 3251,
  "बारा": 3252,
  "अलावा": 3253,
  "हाउस": 3254,
  "जोर": 3255,
  "श्याम": 3256,
  "सर्व": 3257,
  "हूं": 3258,
  "चेयर": 3259,
  "बरी": 3260,
  "चिम": 3261,
  "श्चिम": 3262,
  "पश्चिम": 3263,
  "जाग": 3264,
  "‍ह": 3265,
  "न्‍ह": 3266,
  "चली": 3267,
  "दौर": 3268,
  "ऐसा": 3269,
  "दरअसल": 3270,
  "फरार": 3271,
  "साह": 3272,
  "जुट": 3273,
  "वोट": 3274,
  "ॉन": 3275,
  "खत्म": 3276,
  "ओवर": 3277,
  "स्ट्रेलिया": 3278,
  "सानी": 3279,
  "बेड": 3280,
  "राज्यपाल": 3281,
  "आगा": 3282,
  "कमल": 3283,
  "फिलहाल": 3284,
  "सैन्य": 3285,
  "चारी": 3286,
  "कराई": 3287,
  "ऑनलाइन": 3288,
  "माप्त": 3289,
  "समाप्त": 3290,
  "निए": 3291,
  "प्लांट": 3292,
  "लूट": 3293,
  "बुल": 3294,
  "यानी": 3295,
  "सिया": 3296,
  "फाइन": 3297,
  "झारखंड": 3298,
  "दास": 3299,
  "डेट": 3300,
  "तैनात": 3301,
  "शील": 3302,
  "वली": 3303,
  "कौन": 3304,
  "आरोपित": 3305,
  "केदार": 3306,
  "उत्तराखंड": 3307,
  "लर": 3308,
  "जवान": 3309,
  "अमित": 3310,
  "खरीदने": 3311,
  "उसी": 3312,
  "ौरे": 3313,
  "दौरे": 3314,
  "पालिका": 3315,
  "ॉय": 3316,
  "आंद": 3317,
  "आंदोल": 3318,
  "आंदोलन": 3319,
  "कर्ज": 3320,
  "सांसद": 3321,
  "मांकन": 3322,
  "नामांकन": 3323,
  "मनी": 3324,
  "सार्वजनिक": 3325,
  "टीकाकरण": 3326,
  "हिसाब": 3327,
  "मला": 3328,
  "मुदाय": 3329,
  "षय": 3330,
  "विषय": 3331,
  "तीश": 3332,
  "मात्रा": 3333,
  "देना": 3334,
  "सक्रिय": 3335,
  "बनने": 3336,
  "सुप्री": 3337,
  "ल्कुल": 3338,
  "बिल्कुल": 3339,
  "खतरा": 3340,
  "एजेंसी": 3341,
  "मिलकर": 3342,
  "क्षिण": 3343,
  "पारी": 3344,
  "अका": 3345,
  "तान": 3346,
  "वेब": 3347,
  "हरे": 3348,
  "चयन": 3349,
  "सील": 3350,
  "ड़ाई": 3351,
  "ौकरी": 3352,
  "नौकरी": 3353,
  "ंदगी": 3354,
  "सहम": 3355,
  "नियंत्र": 3356,
  "ोजन": 3357,
  "एसए": 3358,
  "चेयरमैन": 3359,
  "रूक": 3360,
  "नागरिक": 3361,
  "एयरपोर्ट": 3362,
  "ट्टी": 3363,
  "सलाह": 3364,
  "दस्ता": 3365,
  "वेज": 3366,
  "पीएस": 3367,
  "प्रताप": 3368,
  "मगर": 3369,
  "काने": 3370,
  "देगा": 3371,
  "ूप": 3372,
  "जनपद": 3373,
  "बारी": 3374,
  "टक्कर": 3375,
  "इज": 3376,
  "निकलने": 3377,
  "उपस्थित": 3378,
  "नम": 3379,
  "‍ट": 3380,
  "ोए": 3381,
  "हाय": 3382,
  "सहाय": 3383,
  "ंजी": 3384,
  "मिलेगी": 3385,
  "ुत": 3386,
  "कर्मचारी": 3387,
  "हालात": 3388,
  "प्रत्येक": 3389,
  "मस": 3390,
  "पात": 3391,
  "मुकद": 3392,
  "धम": 3393,
  "ेंड": 3394,
  "पुरानी": 3395,
  "ोनी": 3396,
  "गुज": 3397,
  "गुजरात": 3398,
  "र्पित": 3399,
  "निवेश": 3400,
  "चलने": 3401,
  "वर्ग": 3402,
  "मूल्य": 3403,
  "ार्ट": 3404,
  "ूनी": 3405,
  "ोबार": 3406,
  "कारोबार": 3407,
  "मोहन": 3408,
  "‍स": 3409,
  "ूला": 3410,
  "रवाना": 3411,
  "मुना": 3412,
  "एक्सप्रेस": 3413,
  "आसान": 3414,
  "आद": 3415,
  "ुप": 3416,
  "दुकान": 3417,
  "मिया": 3418,
  "कार्यकर्ताओं": 3419,
  "बाव": 3420,
  "दबाव": 3421,
  "निल": 3422,
  "पाय": 3423,
  "प्रावधान": 3424,
  "प्रस्ताव": 3425,
  "संकेत": 3426,
  "राजस्व": 3427,
  "सवार": 3428,
  "चिंता": 3429,
  "हाइड": 3430,
  "हाइड्र": 3431,
  "फ्ट": 3432,
  "गुण": 3433,
  "आउट": 3434,
  "सीरीज": 3435,
  "चोरी": 3436,
  "क्सर": 3437,
  "जिद": 3438,
  "साव": 3439,
  "वार्ता": 3440,
  "निरी": 3441,
  "लोनी": 3442,
  "शेखर": 3443,
  "चंद्रशेखर": 3444,
  "इतनी": 3445,
  "ट्री": 3446,
  "कलेक्टर": 3447,
  "आतंक": 3448,
  "दक्षिण": 3449,
  "थित": 3450,
  "एंग": 3451,
  "उंट": 3452,
  "प्रती": 3453,
  "वेबसाइट": 3454,
  "र्न": 3455,
  "दस": 3456,
  "कोलका": 3457,
  "कोलकाता": 3458,
  "भले": 3459,
  "धारण": 3460,
  "वीन": 3461,
  "रखते": 3462,
  "र्डर": 3463,
  "नेह": 3464,
  "जुन": 3465,
  "काट": 3466,
  "लड़ाई": 3467,
  "क्योंकि": 3468,
  "आईए": 3469,
  "बनाना": 3470,
  "मांड": 3471,
  "निरा": 3472,
  "साबित": 3473,
  "निजी": 3474,
  "रक्त": 3475,
  "जताई": 3476,
  "चुनौती": 3477,
  "जागरूक": 3478,
  "उन्‍ह": 3479,
  "मोहम": 3480,
  "्मद": 3481,
  "मोहम्मद": 3482,
  "गिरा": 3483,
  "मारे": 3484,
  "रूम": 3485,
  "जून": 3486,
  "टेक": 3487,
  "गोल": 3488,
  "कोर": 3489,
  "आकर": 3490,
  "मारा": 3491,
  "पांच": 3492,
  "लीज": 3493,
  "चार्ज": 3494,
  "ैनिक": 3495,
  "पीड़ित": 3496,
  "पीएल": 3497,
  "परेशन": 3498,
  "सहायता": 3499,
  "नियुक्त": 3500,
  "अध्या": 3501,
  "क्कत": 3502,
  "आरटी": 3503,
  "निस्तान": 3504,
  "टिल": 3505,
  "विता": 3506,
  "प्रवक्ता": 3507,
  "शुल्क": 3508,
  "न्‍या": 3509,
  "िस": 3510,
  "तंत्र": 3511,
  "गणना": 3512,
  "आएगी": 3513,
  "पेड़": 3514,
  "संर": 3515,
  "ॉडल": 3516,
  "मॉडल": 3517,
  "जिस्ट": 3518,
  "रोजग": 3519,
  "ट्रंप": 3520,
  "तुल": 3521,
  "वाया": 3522,
  "यात": 3523,
  "सूरत": 3524,
  "पत": 3525,
  "तहरी": 3526,
  "मिशन": 3527,
  "ज्य": 3528,
  "युवाओं": 3529,
  "कन": 3530,
  "दाखिल": 3531,
  "ग्रुप": 3532,
  "पाने": 3533,
  "मानना": 3534,
  "तुर": 3535,
  "सव": 3536,
  "आना": 3537,
  "यद": 3538,
  "ुट": 3539,
  "पीट": 3540,
  "दरा": 3541,
  "र्गत": 3542,
  "ब्लैक": 3543,
  "वनी": 3544,
  "परिषद": 3545,
  "जनक": 3546,
  "लाया": 3547,
  "बीन": 3548,
  "क्ताओं": 3549,
  "प्यार": 3550,
  "फ़र": 3551,
  "मनाली": 3552,
  "सिविल": 3553,
  "हरण": 3554,
  "भीड़": 3555,
  "सुनिश्चित": 3556,
  "दर्द": 3557,
  "क्षय": 3558,
  "पर्व": 3559,
  "बाग": 3560,
  "बिनेट": 3561,
  "गैर": 3562,
  "ेंगे": 3563,
  "रहना": 3564,
  "जमकर": 3565,
  "गेट": 3566,
  "समस्याओं": 3567,
  "ड्रग": 3568,
  "ैंपल": 3569,
  "सैंपल": 3570,
  "टीज": 3571,
  "वर्तन": 3572,
  "परिवर्तन": 3573,
  "कथित": 3574,
  "आईएम": 3575,
  "प्रथम": 3576,
  "ीन": 3577,
  "सामान्य": 3578,
  "गन": 3579,
  "बढ़ाने": 3580,
  "ियन": 3581,
  "आदि": 3582,
  "चार्य": 3583,
  "ंकर": 3584,
  "ंद्रा": 3585,
  "निंग": 3586,
  "कूल": 3587,
  "भ्र": 3588,
  "बाई": 3589,
  "दायर": 3590,
  "वाचन": 3591,
  "निर्वाचन": 3592,
  "दोबारा": 3593,
  "गर्म": 3594,
  "शारी": 3595,
  "शारीरिक": 3596,
  "मानसिक": 3597,
  "नियर": 3598,
  "12": 3599,
  "लान": 3600,
  "शरीर": 3601,
  "गोली": 3602,
  "दय": 3603,
  "दूरी": 3604,
  "शोर": 3605,
  "ंटर": 3606,
  "माश": 3607,
  "खिरी": 3608,
  "आखिरी": 3609,
  "स्टार": 3610,
  "कितना": 3611,
  "ोजेक्ट": 3612,
  "प्रोजेक्ट": 3613,
  "तीसरे": 3614,
  "तमाम": 3615,
  "आरक्षण": 3616,
  "ेंडर": 3617,
  "धीरे": 3618,
  "मेल": 3619,
  "मुंह": 3620,
  "पटेल": 3621,
  "मध्यप्रदेश": 3622,
  "अध्यक्षता": 3623,
  "महंगा": 3624,
  "हीद": 3625,
  "शहीद": 3626,
  "ॉर": 3627,
  "एनसी": 3628,
  "पने": 3629,
  "स्टेट": 3630,
  "उम्मीदवार": 3631,
  "टाइन": 3632,
  "भीतर": 3633,
  "रखना": 3634,
  "क्रा": 3635,
  "रुण": 3636,
  "क्रे": 3637,
  "शानी": 3638,
  "परेशानी": 3639,
  "चावल": 3640,
  "निगरानी": 3641,
  "मिलना": 3642,
  "आपरा": 3643,
  "आपराधिक": 3644,
  "कुर": 3645,
  "गह": 3646,
  "मिलता": 3647,
  "निकले": 3648,
  "जापान": 3649,
  "डीए": 3650,
  "मल्टी": 3651,
  "ैले": 3652,
  "रोजगार": 3653,
  "शक": 3654,
  "ुस": 3655,
  "घुस": 3656,
  "मंड": 3657,
  "उम्र": 3658,
  "छोटी": 3659,
  "बम": 3660,
  "आश": 3661,
  "निपट": 3662,
  "वागत": 3663,
  "स्वागत": 3664,
  "सराय": 3665,
  "सली": 3666,
  "मेलन": 3667,
  "्मेलन": 3668,
  "सम्मेलन": 3669,
  "स्थापित": 3670,
  "क्‍स": 3671,
  "ताल": 3672,
  "एसी": 3673,
  "मजबूर": 3674,
  "खत": 3675,
  "पर्यटक": 3676,
  "शनी": 3677,
  "बढ़ते": 3678,
  "तुरंत": 3679,
  "उपचार": 3680,
  "कॉल": 3681,
  "हाईकोर्ट": 3682,
  "ौरा": 3683,
  "सत्ता": 3684,
  "मार्टम": 3685,
  "हराया": 3686,
  "न्होने": 3687,
  "खुल": 3688,
  "लगाई": 3689,
  "सिस्ट": 3690,
  "टरी": 3691,
  "तिया": 3692,
  "स्तार": 3693,
  "आदित्य": 3694,
  "कोर्स": 3695,
  "र्द": 3696,
  "वीट": 3697,
  "ट्वीट": 3698,
  "खेत": 3699,
  "श्वास": 3700,
  "विश्वास": 3701,
  "प्रभाव": 3702,
  "दिवस": 3703,
  "सिने": 3704,
  "इतने": 3705,
  "पढ़ाई": 3706,
  "विश्वविद्यालय": 3707,
  "धारा": 3708,
  "क्लब": 3709,
  "धाओं": 3710,
  "आइए": 3711,
  "रैली": 3712,
  "र्त": 3713,
  "शर्त": 3714,
  "कप्ता": 3715,
  "कप्तान": 3716,
  "मनाया": 3717,
  "मेदारी": 3718,
  "घन": 3719,
  "म्स": 3720,
  "जानिए": 3721,
  "स्ना": 3722,
  "्मण": 3723,
  "वस्त": 3724,
  "शोरी": 3725,
  "किशोरी": 3726,
  "ेंग": 3727,
  "इंस्टी": 3728,
  "किड": 3729,
  "अंग": 3730,
  "कॉलोनी": 3731,
  "ओम": 3732,
  "जंग": 3733,
  "नाराज": 3734,
  "कैबिनेट": 3735,
  "भाजपा": 3736,
  "र्चा": 3737,
  "ल्स": 3738,
  "व्यक्त": 3739,
  "चालित": 3740,
  "जब्त": 3741,
  "फर्जी": 3742,
  "अकाउंट": 3743,
  "तह": 3744,
  "पर्याप्त": 3745,
  "इंडियन": 3746,
  "इंग": 3747,
  "ताब": 3748,
  "सिस": 3749,
  "वर्सिटी": 3750,
  "निवर्सिटी": 3751,
  "ैम": 3752,
  "करनी": 3753,
  "ापन": 3754,
  "ञापन": 3755,
  "ज्ञापन": 3756,
  "ख्त": 3757,
  "िन": 3758,
  "ड़िया": 3759,
  "देखकर": 3760,
  "गज": 3761,
  "अग्रवाल": 3762,
  "थिय": 3763,
  "हथिय": 3764,
  "हथियार": 3765,
  "रक": 3766,
  "खेती": 3767,
  "ल्या": 3768,
  "एनका": 3769,
  "उंटर": 3770,
  "एनकाउंटर": 3771,
  "फिस": 3772,
  "ज़र": 3773,
  "नक": 3774,
  "ल्ट": 3775,
  "रात्र": 3776,
  "सूस": 3777,
  "महसूस": 3778,
  "तकनी": 3779,
  "पहुंचने": 3780,
  "आसानी": 3781,
  "हंगा": 3782,
  "घट": 3783,
  "देती": 3784,
  "लियर": 3785,
  "सेल": 3786,
  "पैड": 3787,
  "नल": 3788,
  "नोए": 3789,
  "हक": 3790,
  "बिक्री": 3791,
  "बनाई": 3792,
  "ौंप": 3793,
  "सौंप": 3794,
  "फगा": 3795,
  "अफगा": 3796,
  "अफगानिस्तान": 3797,
  "लायक": 3798,
  "प्रस्तुत": 3799,
  "झाव": 3800,
  "सुझाव": 3801,
  "निर": 3802,
  "दक": 3803,
  "अना": 3804,
  "कैंप": 3805,
  "फ्तारी": 3806,
  "गिरफ्तारी": 3807,
  "फाइनल": 3808,
  "वित्त": 3809,
  "हवाई": 3810,
  "उत्प": 3811,
  "मानित": 3812,
  "जागर": 3813,
  "दीन": 3814,
  "शास": 3815,
  "कालीन": 3816,
  "लीला": 3817,
  "सेवन": 3818,
  "शह": 3819,
  "अकाली": 3820,
  "वीकार": 3821,
  "येगा": 3822,
  "कीय": 3823,
  "तहरीर": 3824,
  "ोड": 3825,
  "छात्राओं": 3826,
  "खने": 3827,
  "कमरे": 3828,
  "िका": 3829,
  "सेट": 3830,
  "रोशनी": 3831,
  "कल्प": 3832,
  "इंतजार": 3833,
  "सरदार": 3834,
  "शायद": 3835,
  "सफर": 3836,
  "दुर्ग": 3837,
  "फुट": 3838,
  "ीप": 3839,
  "समीप": 3840,
  "चोट": 3841,
  "ीक्षक": 3842,
  "अधीक्षक": 3843,
  "दात": 3844,
  "वारदात": 3845,
  "पोस्टमार्टम": 3846,
  "सुना": 3847,
  "आपने": 3848,
  "पियन": 3849,
  "योगदान": 3850,
  "अंतर्गत": 3851,
  "खाया": 3852,
  "बान": 3853,
  "पावर": 3854,
  "वाए": 3855,
  "जानने": 3856,
  "सबुक": 3857,
  "सूचित": 3858,
  "ंतर": 3859,
  "फ्ते": 3860,
  "प्रत्या": 3861,
  "रावत": 3862,
  "खाना": 3863,
  "वर्ड": 3864,
  "स्म": 3865,
  "क्षाओं": 3866,
  "योध्या": 3867,
  "अयोध्या": 3868,
  "एडमिट": 3869,
  "रोहता": 3870,
  "रोहतांग": 3871,
  "देनजर": 3872,
  "द्देनजर": 3873,
  "मद्देनजर": 3874,
  "दून": 3875,
  "क्का": 3876,
  "समुदाय": 3877,
  "ऑस्ट्रेलिया": 3878,
  "कानूनी": 3879,
  "बचने": 3880,
  "उपाय": 3881,
  "अनिल": 3882,
  "ंचाया": 3883,
  "पहुंचाया": 3884,
  "गिराव": 3885,
  "गिरावट": 3886,
  "म्मेदारी": 3887,
  "मुख्यालय": 3888,
  "ष्कर्म": 3889,
  "दुष्कर्म": 3890,
  "पेक्टर": 3891,
  "स्पेक्टर": 3892,
  "इंस्पेक्टर": 3893,
  "प्रतियोग": 3894,
  "अक्षय": 3895,
  "ज़ार": 3896,
  "गोल्ड": 3897,
  "एशिया": 3898,
  "डेंग": 3899,
  "गलत": 3900,
  "ब्बत": 3901,
  "स्जिद": 3902,
  "मस्जिद": 3903,
  "इस्ती": 3904,
  "मुकाबला": 3905,
  "चीनी": 3906,
  "इसकी": 3907,
  "प्रब": 3908,
  "ंधक": 3909,
  "ॉक्स": 3910,
  "कोट": 3911,
  "चाहता": 3912,
  "रमेश": 3913,
  "पुरस्कार": 3914,
  "र्जुन": 3915,
  "अर्जुन": 3916,
  "यूनिवर्सिटी": 3917,
  "सामग्री": 3918,
  "नियंत्रण": 3919,
  "केरल": 3920,
  "रिज": 3921,
  "अने": 3922,
  "घूम": 3923,
  "हायक": 3924,
  "फान": 3925,
  "झे": 3926,
  "्जी": 3927,
  "सब्जी": 3928,
  "इंद": 3929,
  "जोन": 3930,
  "एनएस": 3931,
  "केटर": 3932,
  "िकेटर": 3933,
  "क्रिकेटर": 3934,
  "सौर": 3935,
  "आग्रह": 3936,
  "सुरक्षा": 3937,
  "‍ता": 3938,
  "दत्त": 3939,
  "बेहत": 3940,
  "बेहतरी": 3941,
  "ॉर्म": 3942,
  "प्लान": 3943,
  "मांगी": 3944,
  "बिल": 3945,
  "फसल": 3946,
  "रोल": 3947,
  "आएगा": 3948,
  "महज": 3949,
  "रफ्तार": 3950,
  "लगता": 3951,
  "प्रेम": 3952,
  "वाराण": 3953,
  "वाराणसी": 3954,
  "रेफर": 3955,
  "सदन": 3956,
  "सोई": 3957,
  "दित": 3958,
  "हारी": 3959,
  "आधारित": 3960,
  "पुरी": 3961,
  "परिसर": 3962,
  "एसटी": 3963,
  "खाली": 3964,
  "लेन": 3965,
  "सेक्टर": 3966,
  "भाल": 3967,
  "लोन": 3968,
  "हिर": 3969,
  "माहौल": 3970,
  "नाटक": 3971,
  "बीआई": 3972,
  "सीजन": 3973,
  "सीआर": 3974,
  "अनिवार": 3975,
  "अनिवार्य": 3976,
  "राहत": 3977,
  "हमारा": 3978,
  "हास": 3979,
  "तिहास": 3980,
  "इतिहास": 3981,
  "विज्ञान": 3982,
  "व्यवह": 3983,
  "व्यवहार": 3984,
  "िंग": 3985,
  "निकाली": 3986,
  "धारी": 3987,
  "वरण": 3988,
  "बदमाश": 3989,
  "जिश": 3990,
  "बताई": 3991,
  "एमजी": 3992,
  "धोनी": 3993,
  "सेज": 3994,
  "उत्पन्न": 3995,
  "्यास": 3996,
  "फिया": 3997,
  "श्रीवास्तव": 3998,
  "टाई": 3999
}