s z
e l
e t
e r
e n
g y
a n
a l
a t
é s
e k
o r
a r
a z
o l
o n
á r
á l
e s
i n
a k
á s
á n
e g
e m
i k
e z
o k
i s
1 9
é n
o s
t t
k ö
a gy
é g
e gy
a m
é r
c s
i l
á g
a d
u s
ü l
a i
b an
á t
í t
a p
é l
o z
o m
sz t
b en
et t
m eg
é sz
b b
é t
i t
a s
u l
e d
sz er
n y
o tt
j a
k i
u t
é k
é p
a g
c i
á k
r e
s ég
t ö
agy ar
f el
o g
kö z
2 0
in t
el y
i g
én y
án y
é v
r a
o t
l e
en t
r ó
á m
o d
el l
1 8
h at
a j
á z
m agyar
i z
t er
b er
S z
t a
ál l
n em
A z
e v
en d
v al
i d
h o
n i
ó l
k or
ál t
s ág
u d
f or
i r
a b
i a
ho gy
u m
n ak
o v
í n
j el
m ű
ol t
sz ág
ő l
n ek
u r
c h
t e
ar t
p r
or szág
b e
r end
l eg
á b
el ő
e j
k ez
ol y
in d
e p
u n
ö n
al m
ér t
ik us
é m
ik ai
ö r
á ban
il l
sz ám
ál y
a sz
v e
h et
d e
sz ín
n agy
on t
s ő
tö r
em ber
ö k
v ár
v et
20 0
ö l
i m
z et
z ő
v ez
s t
v olt
ö s
ó k
es t
r an
ül et
k er
r i
á sz
í r
al k
el m
ó d
el v
á j
ás a
v er
u g
t art
o p
h oz
n ap
m ás
u k
t el
an g
h ely
1 6
és e
i v
ö tt
1 7
t ár
k ül
19 9
ul t
el ső
l en
m er
am ely
n ev
at t
ás ok
k ép
v agy
o b
i c
én ek
f og
ár a
z s
é ben
r ész
f ő
i szt
an d
ci ó
19 8
ek et
d í
f ej
ny elv
tö bb
jel ent
1 5
í ró
e i
al ap
í v
án ak
h áz
ú j
on y
n ő
él y
o sz
é d
m ag
t an
m ár
e b
ó g
v ég
ül t
dí j
ú l
M agyar
én t
al om
n ál
szín ész
l ó
il ág
on d
s or
e szt
ü k
ő s
a v
19 7
él et
t al
m int
am er
hat ó
á bb
h asz
d i
mű v
or t
t ud
19 4
v ált
m ind
an y
v ilág
k el
A n
amer ikai
0 0
f i
E z
f il
ett e
ol g
vár os
ém et
ö v
t ó
om ány
al ak
E gy
ít ott
ki r
áb or
en y
for m
t én
ci a
b a
kö r
l et
ut án
a szt
v is
el em
ol d
rend szer
ös sz
j ák
vez et
v an
G y
k ap
ek t
z i
un k
ít ás
u szt
sz ó
e bb
cs ak
i p
ő k
ál is
19 6
sz ak
u ár
sz em
kir ály
k ét
oz ó
m ely
i ai
in g
ér e
v ál
I I
ok at
i sz
ált al
kö vet
A l
19 5
á ció
as ág
e h
el t
1 4
m ány
ell en
h al
j e
et i
het ő
hasz nál
é z
f oly
for d
v a
b ól
19 3
p ont
en c
aj d
t ag
tör tén
ény ek
alm az
19 2
1 0
v án
o f
köz ött
ü n
z en
ran cia
m i
ol óg
ik a
az on
ez ő
h ar
kül ön
sz ab
á d
t at
ö z
l ét
p ol
o bb
f öl
oz at
j át
t ek
is t
k al
b el
él d
á val
kez d
t ő
b iz
v on
o szt
n ök
n é
n émet
k ed
ut at
M ar
szer int
kö l
ás t
és ek
is mer
műv ész
at i
ár t
díj as
ir od
án os
c í
m ér
p l
ás i
er ed
m ég
val ó
n a
en g
s p
m in
r it
h a
og r
fil m
1 2
u ró
ú t
év el
n e
ter ület
1 3
v éd
k ént
e sz
á v
h ad
k at
h ez
am i
f ü
b ől
E r
í z
B ud
p er
F er
sz áz
a c
egy ik
d és
i us
a bb
tár s
et len
C s
p éld
pol it
ít ó
p ed
u sz
l ő
f rancia
s em
I n
I st
a h
k ész
á ja
ov ább
nev ez
es en
o c
e f
tal ál
ter m
h ábor
uró p
m ény
es ség
ap est
á ul
ut ó
ver s
g g
v el
an t
ó t
i um
p ar
r on
k ol
az d
n ok
t et
n ép
jel en
ét el
ang ol
h aj
b et
19 0
szer ző
is ta
j ár
h e
s ok
j og
1 1
ró l
l ak
ny v
j an
at ok
at a
ped ig
Bud apest
id ő
N em
j ú
nem zet
fü gg
r om
l át
cs ol
mind en
hábor ú
t ak
ért ék
k is
n év
száz ad
sz or
án d
le het
m ar
v as
t ám
Magyar ország
at al
ogr am
l ás
hat ár
gy ű
gy el
v ény
f él
og at
és i
g azd
í gy
á cs
el nök
o w
m ell
ig az
h er
és t
h ang
nagy obb
i b
szab ad
ár m
ep t
Ist ván
fog l
vis sz
irod alom
l ett
péld ául
o h
ak i
al att
es et
ó s
m a
azon ban
m ai
oly an
oz ott
n ov
m us
ép ít
il is
kor mány
áll am
J ános
et e
gy an
m ajd
f iz
val am
ü gy
er m
tel j
k on
l at
ad ó
n él
áj us
jan uár
ás át
d r
18 9
az t
iv el
vál aszt
m at
ő z
pr ogram
ő r
a y
m unk
sz int
et em
gy ak
k om
M i
g ép
g at
g ó
t ól
ez t
szer ep
in k
úl ius
ét er
ő bb
ci us
m en
ar d
ug uszt
m ód
tó ber
uguszt us
em l
t ák
rész e
t on
m ájus
eb r
j án
követ kez
ö g
t ér
os an
nov ember
E l
ill et
r eg
tud omány
pr ilis
ill i
sz él
ept ember
j úlius
vers eny
m ond
iszt er
ak kor
as s
ég i
ek ben
or v
ni us
ok tóber
K öz
er g
szer ű
a ugusztus
k ell
k és
már cius
u b
föl d
eg ész
in ek
N agy
ett ék
i on
f ér
ér d
Fer enc
alk ot
s al
d ély
r ől
sz eptember
színész nő
ik er
kö nyv
és ét
ker eszt
y en
h ár
mi att
á prilis
l am
ebr uár
O r
ad ás
ség es
jú nius
S t
J ó
od ik
alm i
oz ás
külön b
ol l
Nem zet
any ag
em at
os sz
szem ély
c ember
l an
össz e
ász ló
j ai
E uróp
m án
egy es
f r
sz ület
ü tt
os ság
áb ól
F or
for r
f ebruár
er n
s er
l ov
t ovább
os s
18 8
t or
ö t
ra j
de cember
elm élet
ó z
h iv
tag ja
ab d
en s
illet ve
sz olg
lét re
j egy
ész et
z el
es s
em ény
Jó zs
ez és
elm i
nap ja
k a
an i
s iker
ú gy
ö vet
min iszter
v ány
valam int
at k
kap csol
iz s
r o
kés őbb
egy ütt
op er
2 2
áll ó
ség e
cs al
k ar
é szt
hár om
ny i
ny om
2 1
ill ag
Á l
árm az
al l
i tt
en i
u gyan
E n
ci ók
cs ap
op ort
cs ász
N y
a utó
Józs ef
m oz
ül ő
h on
il yen
z a
18 7
le szt
ur g
as on
áb a
s aj
k ív
v isz
in ak
rend el
vezet ő
ó i
kör ül
m od
r ák
c él
mat emat
sz ármaz
c ik
t ől
cs oport
f in
ár i
d olg
j ell
polit ikus
elő tt
an n
el ekt
al a
is kol
ik or
l i
ad ott
telj es
2 5
p en
K ár
s eg
im p
A r
om b
cs at
gazd aság
iz mus
gyű l
társ aság
L ászló
f ont
cs k
köl tő
mű kö
fogl al
ir ány
h agy
mar ad
ez et
u c
eml ék
cí m
18 6
zen e
ének es
b ev
ai t
mell ett
ör gy
er ő
e x
biz ony
sz i
ó ta
szám ít
3 0
jelent ős
alk od
v íz
or osz
or s
h an
r á
í l
h i
cí mű
alk almaz
köz el
em ények
kat on
ó ja
tö tt
köz i
h u
szer k
of t
fej leszt
t i
más odik
2 3
k it
ser eg
Egy es
m es
Z s
ut h
ar k
tör ök
ított a
re p
egy etem
M eg
ó r
í g
in form
d ik
áció s
Gy örgy
t ék
l ép
18 4
zet ek
ott a
verseny ző
f f
es ég
sz ör
m egy
N ap
mag as
csal ád
b ar
s on
ad at
ű r
foly am
d ő
t iszt
cs illag
ur alkod
g e
ber t
ek ed
l ap
egy en
ez ett
hat ás
i cs
b aj
ánd or
B r
ol asz
es emények
p ár
ít ett
os t
c eg
rend ező
M ik
Sz ent
ár ól
fil ozó
m ent
j uk
ah ol
e c
ü z
f ed
hal ál
en n
sor án
as sz
ok ban
öl d
s ó
tel en
B p
ar i
vissz a
l abd
egy ség
é cs
n öv
P r
er ős
ul a
on g
r égi
m illi
ny ug
tám ogat
Kár oly
k utat
ú r
h ány
eng er
ít és
ír ás
is ég
ker ült
saj át
oz ik
h ossz
old al
tek int
ker es
án t
id e
sz ig
S p
j et
f est
talál ható
hiv atal
kív ül
ul l
s ér
n ep
b urg
autó versenyző
d al
leg nagyobb
el et
f ia
ó c
ológ us
h ason
her ceg
ov jet
v it
alak ul
J egy
K oss
ez ek
2 6
fej ed
gyak or
d ön
p us
N émet
cik k
m ad
á hoz
m et
g ond
l og
b ék
d ött
Jegy zetek
ját ék
er t
amely ek
B al
or d
vált ozat
l ég
Nemzet i
köz ös
tör vény
seg ít
2 4
jel öl
sz av
á ciók
szám ára
t áv
ó ri
l em
á p
kor i
b rit
Koss uth
ö kö
é b
e it
j ed
font os
J oh
d él
ár d
ú z
alap ján
ű n
in cs
r észt
sz áll
baj nok
ow s
m utat
ország ban
hoz z
T ör
öv eg
ul ajd
ut as
ulajd on
ö ző
dély i
el i
b ár
kép vis
tel ep
T he
z és
ő en
N e
f aj
ít ása
ir t
u x
rendel kez
b o
A d
zene szerző
ar ú
an nak
in a
kel et
sor ozat
ch n
k od
né gy
ol imp
L e
áll ap
k l
t est
sz ult
k ult
ség et
u p
in e
2 8
ün nep
le hető
l a
ség i
egy ház
ör ög
ü r
o ci
p ály
t enger
kapcsol at
m el
oc k
függ etlen
ford ul
í pus
t em
t es
sz övet
szám os
ság a
igaz gat
sz öveg
ek kel
har c
al á
o x
ó gy
aj os
A p
es szor
tö meg
i f
ológ ia
P éter
han em
2 7
W ind
T A
g el
00 0
q u
gy ors
öv id
C h
oz ások
f ény
S ándor
h át
fel elő
arú gó
any ol
r el
í sér
egy ed
hasz n
T ovább
köz ép
t h
2 9
18 5
szult án
F ran
szület ett
labd arúgó
sz ól
ás ú
tart almaz
t ulajdon
M ár
am ikor
k ev
en ek
fel használ
d er
óg ép
ez te
S Z
ez ért
bet ű
el és
fest ő
nap ok
ít ő
val l
ej én
f ok
t r
s el
erm ek
h ír
ün k
be szél
z ett
L ajos
ül és
h id
F öld
pl om
O l
200 0
ob el
or g
érd ek
m ivel
úl y
szig et
tö l
eh ér
d in
l ist
ny il
ért elm
t étel
U ni
tan ár
különb öző
hason ló
t és
term észet
év ek
orv os
nyelv ek
ít ja
en erg
e y
szer vezet
izs g
II I
Wind ows
köz ül
N obel
u ni
kis ebb
b oly
Tovább i
I m
at om
ott ák
Sz ín
ok kal
uróp ai
e urópai
sz ik
nél kül
R ák
p olg
oszt rák
Egyes ült
csász ár
mer t
fél e
v izsg
sz ük
é hez
ló s
l ag
k ísér
ró mai
volt ak
ak t
ered mény
j obb
j ó
bel ül
ar ch
vez ér
egy más
rep ülő
köz pont
t úl
A mer
r övid
k ér
K ir
év es
f al
B ar
m ények
I l
i ch
i an
tan ul
ad ém
el ked
ított ák
ár s
i o
and ó
sz ék
kör ny
gy ógy
val lás
szerk eszt
B él
történ et
d ig
t os
A k
őz tes
kezd ő
elekt ron
ap án
k ód
által ában
j ában
at on
számít ógép
Ál lam
az az
p árt
An dr
el ér
más ik
uszt r
I r
ter vez
esz köz
t ípus
ró f
ati on
leg es
T an
ás ára
ol ikus
ni a
len gyel
fej lő
m íg
pr oc
gazdaság i
H a
k an
D e
ér ől
le x
jell em
S ch
pr ot
ismer t
m an
P ál
olimp iai
ter jed
M a
B irodalom
képvis elő
m al
inform ációk
hat alm
m e
fog ad
ől eg
milli ó
h it
ok on
T h
b r
b i
ár os
s ug
új ság
el ve
ud omány
ább i
orv át
p art
m un
h ő
h am
né hány
Sz er
am it
ett ek
szín ház
199 0
at lan
le sz
reg ény
f egy
er délyi
moz g
l er
fejed elem
ker ül
következ ő
ság i
biz tos
sz lov
ország i
ök k
v ol
ód ó
v étel
ők et
át or
r os
K i
es ebb
k il
név en
t ábor
e um
Bél a
H al
ó n
f us
200 8
ki fej
L in
M on
része csk
ak ik
ség ek
mes ter
200 7
ró n
l ik
f enn
elnök e
M TA
án i
m ed
200 6
ri szt
K ap
i e
kö n
proc esszor
szab ály
kormány z
v ér
polit ikai
j ának
te chn
szám a
fegy ver
Joh n
Sz ab
gyűl és
p ort
Mik lós
v áll
á i
ások at
an cs
Kir ály
v en
vizsg ál
ar ab
gy ermek
ez zel
ez en
ek en
200 4
Szín ház
á tt
ob ban
zi ó
M ind
s úly
tár gy
F rancia
E m
E d
von al
Mi h
g örög
B o
vált oz
át y
v ar
18 3
ológ iai
áj át
r ét
K ar
en nek
Európ a
K or
ok nak
meg jelen
sz ob
szolg ál
int éz
óc zi
ut ol
l y
f ehér
n er
g ra
szem ben
föl di
nemzet közi
haszn ált
elő ször
R o
mely ek
áz ó
h ív
r ed
Gy őztes
m on
ink ább
il eg
ás ának
ez ik
eb ben
Mih ály
visz ony
es sz
p al
gond ol
m érték
Er dély
hely ett
r at
ered et
200 3
v él
o gy
f er
c e
én z
t it
által ános
ű z
G e
For r
sp anyol
folyam at
v id
Rák óczi
ki ad
fel eség
O S
köz l
raj z
meg határ
j ut
G ábor
j ekt
Ez ek
rom án
meg felelő
B er
át um
an ak
H ab
sz ovjet
ír t
es ek
t iz
cs ökk
ék eny
200 5
lat in
b or
M ag
s burg
Magyarország on
b em
for g
m ik
ák at
ob l
ar ra
alak ult
l el
ez er
év ekben
újság író
é be
G r
áll ít
kat olikus
matemat ikus
nemzet i
is s
A m
k os
T r
g a
k ett
ség ét
j t
világ háború
t ur
c z
Im re
v é
K ö
c ég
M ic
v ette
s eb
n es
személy ek
és ével
utol só
Andr ás
200 1
kész ült
P a
d a
ic e
fel fed
ac k
k rit
it ás
H ar
5 0
g en
ab ban
p énz
ne ut
h ol
szolg ált
h y
ny er
ak at
á ig
r y
b irt
fogl alk
P et
c a
f a
köz vet
Mar i
har mad
p ró
nagy díj
ig en
használ at
sz ent
200 2
ít ette
k m
marad t
keres ked
n incs
198 9
j ük
történ ész
társ ad
Egy etem
sug ár
pr obl
fiz ikus
ó ra
i er
Mic ros
birt ok
ford ító
bb i
ott ak
kísér let
k y
C ar
par ancs
ő t
cs er
oszt ály
Hab sburg
le vel
sz eg
fi gyel
forr ás
egy etlen
probl ém
g al
s ék
s a
20 10
g er
egyetem i
szer vez
amely et
eng ed
áb ban
Ú j
g r
van nak
kereszt ény
át ól
táv ol
ság ot
és ére
fel é
n al
list ája
sz en
ek kor
mér nök
ered eti
mely nek
cs eh
199 4
köz társaság
vol na
ind ul
had sereg
király i
ve sz
ú ra
szint én
nyil ván
hivatal os
szó cikk
visz ont
Forr ások
it a
re form
t ett
terület én
leg több
l ám
k ik
mag a
B e
sp ort
ész eti
ját sz
ad i
3 1
új ra
L en
katon ai
fi gy
men ny
n eh
él ő
J ász
s e
ú ja
on a
un g
ügy i
ás ával
in i
198 0
194 5
at ív
l o
ur ális
us t
di ó
kön ny
b al
ány a
En nek
gyak ran
köl cs
lak osság
or y
k o
ű v
ás ár
ak ént
sor ban
t rón
8 0
or i
at ot
T am
B en
oz s
r og
ár is
csillag ász
t om
ot el
d ok
Lin ux
Ez t
st b
ol vas
ezt ék
Gy ula
un d
20 11
uralkod ó
b it
mag át
is m
k ém
Micros oft
meg sz
R om
nev e
Ak adém
mod ell
oft ver
L a
alap ító
k in
h az
c ent
um ent
foly tat
17 9
szabad ság
h ét
g l
hagy omány
t ette
vár i
b ben
198 4
T er
ü t
v ett
ell ent
d re
származ ású
f ut
h ó
c k
r ak
et ett
haj t
i ában
nagy on
g it
O s
egy szerű
á gy
A T
tan ács
il ag
Ne w
sz im
mér sék
Jász ai
mű ve
ok tat
j ét
ol ta
usztr ál
kor ábbi
szerző dés
mod ern
ás sal
tart omány
fel tétel
uk at
áz s
v ad
jell eg
segít ség
j ött
int er
h ull
telj esen
N ép
R ó
st r
ün tet
T udomány
azon os
é ből
ér kez
bel i
hely i
em elked
m it
199 1
ő je
állap ot
közl eked
ip ar
6 4
C om
kap ott
irod almi
meg jelent
200 9
az z
r ég
sz oci
t he
hossz ú
áll t
j eszt
nevez ett
vas út
váll al
hozz á
í ció
jellem ző
D él
oll and
kom p
M áty
mind ig
és ű
Európ ai
199 7
ö m
199 8
egy re
c ar
V al
ép ület
év ben
6 0
sz oftver
kelet kez
forr ad
ás ra
amely nek
b ud
te in
ek v
l and
ogr á
j ából
es i
194 4
Hal ál
hely zet
el foglal
d et
il a
u z
énekes nő
ik ában
vég ül
e inek
ell a
F el
e ci
or k
szolgált at
k ín
B iz
oz ta
tanul mány
tovább i
k ő
199 9
ny íl
ve szt
sz éd
v iz
l ic
ek nek
kor ábban
J an
s véd
alm a
Z olt
ör ök
év i
h almaz
műkö dés
b ő
nyug ati
boly gó
18 0
p áp
te hát
úz eum
I V
u tt
p or
szín ű
vég re
menny iség
év ő
iz ál
létre hoz
megy e
t ev
b án
M er
4 0
ny it
O sz
z ár
ány i
eg ed
tudomány os
Zolt án
F il
k éz
s sz
K on
v ásár
h egy
lam ent
h old
r al
20 12
m ot
Köz társaság
B et
oper ációs
ény i
ít i
In ter
ej t
W illi
S A
p uszt
sz ok
1 00
ése i
város i
csász ári
é zet
von atk
h ál
H en
l évő
nev ű
20 16
o u
seb esség
az ok
M an
ism ét
mely et
199 3
bar át
on i
G al
egy éb
el ég
v egy
198 8
D un
tem plom
l es
energ i
ol f
198 6
j apán
festő művész
ci on
Máty ás
át h
követ ően
D i
im n
ak ar
elt ér
199 6
P er
bizony os
ind ult
év e
em es
és ének
k ó
Willi am
filozó fus
vet ő
harmad ik
A tt
több i
mód szer
való s
gy őz
tám ad
Fer din
áll ítás
Már ia
eket e
ek re
tal an
csap at
között i
t ény
Or osz
as t
T e
Á r
század ban
ás ban
Tam ás
20 14
a ch
199 2
8 6
első sorban
oz nak
otel ész
a ut
köz t
V er
f l
197 7
egy ez
m ező
ör ös
fel ső
kép es
kel eti
in s
H at
repülő gép
Állam ok
el te
tör t
fejlő dés
B el
alm as
ra b
bem utat
r án
át us
í zi
Len gyel
f ikus
sz ár
rog én
enc e
t ém
Kap csol
en z
fér fi
ökö k
L eg
aszt al
t o
p le
ch a
K er
en ci
án c
hely ez
csat lak
P ar
szem pont
mérsék let
ál d
H e
úja bb
v i
199 5
g róf
r ín
20 15
ész ak
ip tom
p ia
198 5
k ár
R e
term ék
A riszt
ok ra
197 9
Amer ikai
ók at
kö tött
vég én
20 20
w eb
eset én
idő szak
T ur
gyógy szer
meg hal
rész ét
Király ság
en ő
miniszter elnök
É szak
oz za
hull ám
h í
foly ó
pró b
K is
történ ete
zs a
198 7
e an
l ény
áj ában
különb öz
L ip
ít ani
kölcs ön
é j
b l
id eg
szav ak
ony i
vid ék
ak ár
al ista
ny el
oz z
Kö nyv
pr o
k ény
köz é
Pa ul
Or szág
gy árt
meg old
c o
hő mérséklet
meg figyel
Osz mán
össz es
kell ett
nyelv ű
ér z
t en
sz ön
E sem
f ran
F ri
magyar országi
Esem ények
könyv tár
kev és
b um
csökk ent
l in
kö ny
film rendező
bék e
ön álló
tev ékeny
on ok
szer kez
zs id
am b
es ter
el ején
köz ben
B écs
K r
P éld
Kapcsol ódó
együtt es
ny t
ár am
dr ám
198 3
ist en
ell em
kezd et
s k
m em
jelent i
elem ben
s í
szócikk ek
end ő
ott ság
D r
Ir od
T árs
Sz ület
19 18
ít ják
közvet len
kereszt ül
mint egy
szerkeszt ő
b om
em ok
m éter
osz mán
att ák
kom mun
B rit
ú n
kö tel
t il
utó bbi
C l
eny i
oz ása
hat ók
ter em
197 0
siker ült
ut az
város ban
eset ben
íl us
H orvát
ogat ott
oz ni
197 5
J el
i án
kö t
ít ése
később i
a inak
ellen ére
é ch
filozó fi
jegy z
Att ila
köl t
gat ó
ig ény
rész ben
196 0
197 8
szer es
198 2
ház as
I z
195 6
áll andó
sp eci
hal l
ni e
b ek
úl t
áj ának
Zs ig
ismer te
áz is
p e
ír ta
sugár z
Tör tén
Sz ovjet
mű fordító
pr od
kö szön
17 0
ék ony
ker ület
b író
Zsig mond
Ferdin ánd
szlov ák
b első
k e
ill a
szob r
c om
197 4
Ariszt otelész
er ek
on ban
külön ös
tábor nok
O pen
f ot
Német ország
neut rín
ud var
o ur
uni ó
194 8
éd ia
ember ek
Sz ék
f áj
segítség ével
nép szerű
parancs nok
Sz éch
ad ta
198 1
p oz
Halál ozások
h isz
Szület ések
le v
hid rogén
Ap ple
ki adó
H er
B ár
ez i
197 6
kor on
f on
in n
bet eg
ü sp
z ó
B or
j öv
3 2
Tan ács
utas ítás
M ás
fel ett
hu nyt
Z r
l áz
P est
oper a
r ad
ut al
al bum
C ol
páp a
ez red
hál óz
20 17
osz l
al g
Akadém ia
194 0
ber g
fontos abb
par lament
szín művész
o y
el nevez
Nemzet közi
h ód
le y
r ag
id ej
197 3
ok a
16 9
P ol
rendszer ek
192 2
id ején
197 2
zen ész
áv á
20 13
l ít
csap atok
F ő
193 0
p ap
ul ó
be foly
tárgy al
tart ott
sok kal
ad ai
r obban
W ik
ód ik
194 6
Francia ország
195 0
n egyed
nő i
écs i
ökö s
Ist en
B áth
el terjed
k r
ki adás
J os
at ur
ad ja
u ális
nev ek
ad atok
mód on
gy il
G éz
t íz
halál a
Tudomány os
Lip ót
S c
ét ől
ad dig
P ár
gra fikus
ológ i
F i
ez ése
ument um
M ivel
re c
7 0
elm et
művész et
ág nes
ap ja
haj ó
üz em
tart ozik
al d
p üsp
vall ási
ch an
r ia
szük ség
mell ék
ver zió
ember i
fiz ikai
g áz
öl gy
lény eg
ok ból
ál ta
C har
elekt rom
cs ony
jelen leg
kap ta
ít él
19 20
olt ák
b in
és re
idő ben
T el
ép ült
Sp ort
tud ós
lem ond
P árt
fáj l
j ól
É let
és ben
új t
h ir
Géz a
lát ható
Ez en
v es
öl cs
Ro bert
magas abb
ő ség
ri ch
É r
ett el
Széch enyi
gyűl ési
ov ics
sz ül
pont os
szövet ség
n or
S y
r ek
Al bert
kín ai
kutat ó
k van
azz al
iskol a
szint e
K ül
K l
alkot mány
ag e
oz tat
t um
körny ezet
fi atal
é ki
k án
be széd
it er
Os car
ellent ét
I s
K ál
ol ó
19 19
fő város
V ilág
Á g
fér fin
U gyan
196 8
196 9
talál k
f őleg
ít vány
ú tt
ak ad
v ed
zen ek
ít ették
á ki
ib or
ir at
tör ökök
de fin
hely en
k ur
ran d
való színű
ör ökös
D av
tört ént
Ki adó
Ol asz
16 8
kap it
szól ó
hiv atk
tag jai
or n
Ny ug
v ív
polg ár
Sz ám
ország gyűlés
ol ja
ük et
leg jobb
zet es
Mi cha
har d
amely ben
f unk
szak asz
f ogy
et et
ö köl
b il
össz et
ét a
ál ó
meg állap
érdek ében
v áj
véd elmi
fel szín
j ön
alapító ja
ú s
kl assz
b íz
a u
szük séges
el fogad
bo cs
használ ják
hó nap
z ik
k v
or e
kan adai
kép ző
mód os
16 0
et ében
h olland
kit er
ala csony
t áj
áll om
ép pen
T ibor
K ol
20 18
r ik
ist ák
nap tár
ér vény
h t
E k
196 2
s ek
192 7
av a
p ád
ob s
ít ások
l egyen
szerep lő
tart ó
194 1
tö m
ic a
20 19
s ter
t áb
log ika
történ elmi
munk a
J enő
energ ia
I g
u el
z ük
ez ni
19 14
jelent ette
hető en
d or
is e
cs i
Micha el
M at
E lő
ek ént
j ára
l ott
tiz ed
p án
ért elemben
ar any
192 6
r em
k b
ol a
h len
gyű jt
díj at
ch e
világ bajnok
nő tt
függ vény
Ár pád
int ern
feleség e
egy szer
h orvát
Báth ory
b ont
ak ter
ágnes es
változ tat
Í gy
bel e
Uni ó
E N
S im
át lag
me chan
nyíl t
szen ved
kor szak
gy ár
é ig
oz ási
növ eked
h om
ff ice
vissz at
l ing
di plom
O ffice
lehető vé
An tal
R ich
k érd
kult urális
űr ű
ant i
av ar
Sz il
kon c
és sel
m ez
re ak
in o
bev ezet
F r
ít eni
es k
195 7
meg alap
ol ás
194 9
Sz lov
vagy is
közös ség
mér et
több ek
cs om
A b
kifej ezés
K an
St ar
érd emes
ú szó
ít mény
m os
J obs
egész en
ód ott
