{
  "<unk>": 0,
  "<pad>": 1,
  " ": 3,
  "!": 4,
  "\"": 5,
  "#": 6,
  "$": 7,
  "%": 8,
  "&": 9,
  "'": 10,
  "(": 11,
  ")": 12,
  "*": 13,
  "+": 14,
  ",": 15,
  "-": 16,
  ".": 17,
  "/": 18,
  "0": 19,
  "1": 20,
  "2": 21,
  "3": 22,
  "4": 23,
  "5": 24,
  "6": 25,
  "7": 26,
  "8": 27,
  "9": 28,
  ":": 29,
  ";": 30,
  "<": 31,
  "=": 32,
  ">": 33,
  "?": 34,
  "@": 35,
  "A": 36,
  "B": 37,
  "C": 38,
  "D": 39,
  "E": 40,
  "F": 41,
  "G": 42,
  "H": 43,
  "I": 44,
  "J": 45,
  "K": 46,
  "L": 47,
  "M": 48,
  "N": 49,
  "O": 50,
  "P": 51,
  "Q": 52,
  "R": 53,
  "S": 54,
  "T": 55,
  "U": 56,
  "V": 57,
  "W": 58,
  "X": 59,
  "Y": 60,
  "Z": 61,
  "[": 62,
  "\\": 63,
  "]": 64,
  "^": 65,
  "_": 66,
  "`": 67,
  "a": 68,
  "b": 69,
  "c": 70,
  "d": 71,
  "e": 72,
  "f": 73,
  "g": 74,
  "h": 75,
  "i": 76,
  "j": 77,
  "k": 78,
  "l": 79,
  "m": 80,
  "n": 81,
  "o": 82,
  "p": 83,
  "q": 84,
  "r": 85,
  "s": 86,
  "t": 87,
  "u": 88,
  "v": 89,
  "w": 90,
  "x": 91,
  "y": 92,
  "z": 93,
  "{": 94,
  "|": 95,
  "}": 96,
  "~": 97,
  "": 98,
  "¡": 99,
  "£": 100,
  "§": 101,
  "©": 102,
  "«": 103,
  "¬": 104,
  "­": 105,
  "®": 106,
  "¯": 107,
  "°": 108,
  "±": 109,
  "²": 110,
  "³": 111,
  "´": 112,
  "µ": 113,
  "·": 114,
  "¸": 115,
  "¹": 116,
  "»": 117,
  "¼": 118,
  "½": 119,
  "¾": 120,
  "¿": 121,
  "À": 122,
  "Á": 123,
  "Â": 124,
  "Ä": 125,
  "Å": 126,
  "Æ": 127,
  "Ç": 128,
  "È": 129,
  "É": 130,
  "Ë": 131,
  "Í": 132,
  "Î": 133,
  "Ð": 134,
  "Ñ": 135,
  "Ó": 136,
  "Ô": 137,
  "Ö": 138,
  "×": 139,
  "Ø": 140,
  "Ú": 141,
  "Ü": 142,
  "Ý": 143,
  "Þ": 144,
  "ß": 145,
  "à": 146,
  "á": 147,
  "â": 148,
  "ã": 149,
  "ä": 150,
  "å": 151,
  "æ": 152,
  "ç": 153,
  "è": 154,
  "é": 155,
  "ê": 156,
  "ë": 157,
  "ì": 158,
  "í": 159,
  "î": 160,
  "ï": 161,
  "ð": 162,
  "ñ": 163,
  "ò": 164,
  "ó": 165,
  "ô": 166,
  "õ": 167,
  "ö": 168,
  "ø": 169,
  "ù": 170,
  "ú": 171,
  "û": 172,
  "ü": 173,
  "ý": 174,
  "þ": 175,
  "ÿ": 176,
  "ā": 177,
  "Ă": 178,
  "ă": 179,
  "Ą": 180,
  "ą": 181,
  "Ć": 182,
  "ć": 183,
  "Ĉ": 184,
  "ĉ": 185,
  "Ċ": 186,
  "ċ": 187,
  "Č": 188,
  "č": 189,
  "Ď": 190,
  "ď": 191,
  "Đ": 192,
  "đ": 193,
  "ē": 194,
  "ė": 195,
  "Ę": 196,
  "ę": 197,
  "ě": 198,
  "Ĝ": 199,
  "ĝ": 200,
  "Ğ": 201,
  "ğ": 202,
  "Ġ": 203,
  "ġ": 204,
  "ģ": 205,
  "Ĥ": 206,
  "ĥ": 207,
  "Ħ": 208,
  "ħ": 209,
  "ĩ": 210,
  "ī": 211,
  "ĭ": 212,
  "İ": 213,
  "ı": 214,
  "Ĵ": 215,
  "ĵ": 216,
  "Ķ": 217,
  "ķ": 218,
  "ļ": 219,
  "Ľ": 220,
  "ľ": 221,
  "ŀ": 222,
  "Ł": 223,
  "ł": 224,
  "Ń": 225,
  "ń": 226,
  "ņ": 227,
  "ň": 228,
  "ŋ": 229,
  "Ō": 230,
  "ō": 231,
  "ŏ": 232,
  "Ő": 233,
  "ő": 234,
  "Œ": 235,
  "œ": 236,
  "ŕ": 237,
  "ř": 238,
  "Ś": 239,
  "ś": 240,
  "Ŝ": 241,
  "ŝ": 242,
  "Ş": 243,
  "ş": 244,
  "Š": 245,
  "š": 246,
  "Ţ": 247,
  "ţ": 248,
  "ť": 249,
  "ũ": 250,
  "ū": 251,
  "Ŭ": 252,
  "ŭ": 253,
  "ů": 254,
  "Ű": 255,
  "ű": 256,
  "ų": 257,
  "Ź": 258,
  "ź": 259,
  "Ż": 260,
  "ż": 261,
  "Ž": 262,
  "ž": 263,
  "ſ": 264,
  "ƙ": 265,
  "ơ": 266,
  "ư": 267,
  "ƿ": 268,
  "ǃ": 269,
  "ǎ": 270,
  "ǐ": 271,
  "ǒ": 272,
  "ǔ": 273,
  "ȃ": 274,
  "Ș": 275,
  "ș": 276,
  "Ț": 277,
  "ț": 278,
  "Ȧ": 279,
  "ȧ": 280,
  "ɑ": 281,
  "ɒ": 282,
  "ɓ": 283,
  "ɔ": 284,
  "ɕ": 285,
  "ɖ": 286,
  "ɗ": 287,
  "ɘ": 288,
  "ə": 289,
  "ɛ": 290,
  "ɡ": 291,
  "ɦ": 292,
  "ɧ": 293,
  "ɨ": 294,
  "ɪ": 295,
  "ɫ": 296,
  "ɭ": 297,
  "ɳ": 298,
  "ɹ": 299,
  "ɾ": 300,
  "ʁ": 301,
  "ʂ": 302,
  "ʃ": 303,
  "ʈ": 304,
  "ʉ": 305,
  "ʊ": 306,
  "ʌ": 307,
  "ʒ": 308,
  "ʔ": 309,
  "ʟ": 310,
  "ʰ": 311,
  "ʱ": 312,
  "ʲ": 313,
  "ʹ": 314,
  "ʻ": 315,
  "ʾ": 316,
  "ʿ": 317,
  "ˆ": 318,
  "ˇ": 319,
  "ˈ": 320,
  "ˌ": 321,
  "ː": 322,
  "˙": 323,
  "˚": 324,
  "̃": 325,
  "̆": 326,
  "̈": 327,
  "̪": 328,
  "̯": 329,
  "̱": 330,
  "͡": 331,
  "Α": 332,
  "Β": 333,
  "Γ": 334,
  "Δ": 335,
  "Ε": 336,
  "Ζ": 337,
  "Η": 338,
  "Θ": 339,
  "Ι": 340,
  "Κ": 341,
  "Λ": 342,
  "Μ": 343,
  "Ν": 344,
  "Ξ": 345,
  "Ο": 346,
  "Π": 347,
  "Ρ": 348,
  "Σ": 349,
  "Τ": 350,
  "Υ": 351,
  "Φ": 352,
  "Χ": 353,
  "Ψ": 354,
  "Ω": 355,
  "ά": 356,
  "έ": 357,
  "ή": 358,
  "ί": 359,
  "α": 360,
  "β": 361,
  "γ": 362,
  "δ": 363,
  "ε": 364,
  "ζ": 365,
  "η": 366,
  "θ": 367,
  "ι": 368,
  "κ": 369,
  "λ": 370,
  "μ": 371,
  "ν": 372,
  "ξ": 373,
  "ο": 374,
  "π": 375,
  "ρ": 376,
  "ς": 377,
  "σ": 378,
  "τ": 379,
  "υ": 380,
  "φ": 381,
  "χ": 382,
  "ψ": 383,
  "ω": 384,
  "ό": 385,
  "ύ": 386,
  "ώ": 387,
  "Є": 388,
  "Ћ": 389,
  "А": 390,
  "Б": 391,
  "В": 392,
  "Г": 393,
  "Д": 394,
  "Е": 395,
  "Ж": 396,
  "З": 397,
  "И": 398,
  "К": 399,
  "Л": 400,
  "М": 401,
  "Н": 402,
  "О": 403,
  "П": 404,
  "Р": 405,
  "С": 406,
  "Т": 407,
  "У": 408,
  "Ф": 409,
  "Х": 410,
  "Ц": 411,
  "Ч": 412,
  "Ш": 413,
  "Э": 414,
  "Ю": 415,
  "Я": 416,
  "а": 417,
  "б": 418,
  "в": 419,
  "г": 420,
  "д": 421,
  "е": 422,
  "ж": 423,
  "з": 424,
  "и": 425,
  "й": 426,
  "к": 427,
  "л": 428,
  "м": 429,
  "н": 430,
  "о": 431,
  "п": 432,
  "р": 433,
  "с": 434,
  "т": 435,
  "у": 436,
  "ф": 437,
  "х": 438,
  "ц": 439,
  "ч": 440,
  "ш": 441,
  "щ": 442,
  "ъ": 443,
  "ы": 444,
  "ь": 445,
  "э": 446,
  "ю": 447,
  "я": 448,
  "ё": 449,
  "і": 450,
  "ї": 451,
  "ј": 452,
  "ћ": 453,
  "ғ": 454,
  "қ": 455,
  "ҡ": 456,
  "ң": 457,
  "ұ": 458,
  "Ա": 459,
  "ա": 460,
  "գ": 461,
  "զ": 462,
  "ի": 463,
  "ծ": 464,
  "կ": 465,
  "հ": 466,
  "մ": 467,
  "յ": 468,
  "ն": 469,
  "շ": 470,
  "ո": 471,
  "պ": 472,
  "վ": 473,
  "տ": 474,
  "ր": 475,
  "ְ": 476,
  "ֱ": 477,
  "ֲ": 478,
  "ִ": 479,
  "ֶ": 480,
  "ַ": 481,
  "ָ": 482,
  "ֹ": 483,
  "ּ": 484,
  "־": 485,
  "ׁ": 486,
  "א": 487,
  "ב": 488,
  "ג": 489,
  "ד": 490,
  "ה": 491,
  "ו": 492,
  "ח": 493,
  "ט": 494,
  "י": 495,
  "ל": 496,
  "ם": 497,
  "מ": 498,
  "ן": 499,
  "נ": 500,
  "ס": 501,
  "ע": 502,
  "ף": 503,
  "פ": 504,
  "צ": 505,
  "ק": 506,
  "ר": 507,
  "ש": 508,
  "ת": 509,
  "ء": 510,
  "أ": 511,
  "ؤ": 512,
  "إ": 513,
  "ئ": 514,
  "ا": 515,
  "ب": 516,
  "ة": 517,
  "ت": 518,
  "ث": 519,
  "ج": 520,
  "ح": 521,
  "خ": 522,
  "د": 523,
  "ذ": 524,
  "ر": 525,
  "ز": 526,
  "س": 527,
  "ش": 528,
  "ص": 529,
  "ض": 530,
  "ط": 531,
  "ظ": 532,
  "ع": 533,
  "غ": 534,
  "ف": 535,
  "ق": 536,
  "ك": 537,
  "ل": 538,
  "م": 539,
  "ن": 540,
  "ه": 541,
  "و": 542,
  "ى": 543,
  "ي": 544,
  "ً": 545,
  "ٌ": 546,
  "ٍ": 547,
  "َ": 548,
  "ُ": 549,
  "ِ": 550,
  "ّ": 551,
  "ْ": 552,
  "پ": 553,
  "ک": 554,
  "ی": 555,
  "ە": 556,
  "۱": 557,
  "ܐ": 558,
  "ܘ": 559,
  "ܡ": 560,
  "ܬ": 561,
  "ँ": 562,
  "ं": 563,
  "इ": 564,
  "क": 565,
  "ग": 566,
  "च": 567,
  "ज": 568,
  "ड": 569,
  "त": 570,
  "द": 571,
  "ध": 572,
  "न": 573,
  "प": 574,
  "भ": 575,
  "म": 576,
  "य": 577,
  "र": 578,
  "ल": 579,
  "व": 580,
  "श": 581,
  "स": 582,
  "ह": 583,
  "ा": 584,
  "ि": 585,
  "ी": 586,
  "ु": 587,
  "ू": 588,
  "ॆ": 589,
  "े": 590,
  "ै": 591,
  "ो": 592,
  "्": 593,
  "ં": 594,
  "ક": 595,
  "ગ": 596,
  "ચ": 597,
  "દ": 598,
  "ધ": 599,
  "ન": 600,
  "મ": 601,
  "ર": 602,
  "સ": 603,
  "હ": 604,
  "ા": 605,
  "ી": 606,
  "ો": 607,
  "த": 608,
  "ம": 609,
  "ழ": 610,
  "ஸ": 611,
  "ா": 612,
  "ி": 613,
  "ோ": 614,
  "்": 615,
  "ം": 616,
  "ഗ": 617,
  "ത": 618,
  "ദ": 619,
  "ധ": 620,
  "ന": 621,
  "പ": 622,
  "ര": 623,
  "സ": 624,
  "ാ": 625,
  "ി": 626,
  "ൂ": 627,
  "്": 628,
  "ค": 629,
  "ง": 630,
  "ช": 631,
  "ฑ": 632,
  "ณ": 633,
  "ต": 634,
  "ถ": 635,
  "น": 636,
  "บ": 637,
  "ม": 638,
  "ย": 639,
  "ร": 640,
  "ส": 641,
  "ห": 642,
  "อ": 643,
  "ั": 644,
  "า": 645,
  "ำ": 646,
  "ิ": 647,
  "้": 648,
  "ა": 649,
  "ბ": 650,
  "ე": 651,
  "თ": 652,
  "ი": 653,
  "მ": 654,
  "ო": 655,
  "ს": 656,
  "ḗ": 657,
  "Ḥ": 658,
  "ḥ": 659,
  "ḫ": 660,
  "ḵ": 661,
  "ḷ": 662,
  "ṇ": 663,
  "ṣ": 664,
  "ṭ": 665,
  "ẓ": 666,
  "ẖ": 667,
  "ạ": 668,
  "ả": 669,
  "ấ": 670,
  "ầ": 671,
  "ẩ": 672,
  "ẫ": 673,
  "ậ": 674,
  "ắ": 675,
  "ằ": 676,
  "ẳ": 677,
  "ẵ": 678,
  "ặ": 679,
  "ẹ": 680,
  "ẻ": 681,
  "ẽ": 682,
  "ế": 683,
  "ề": 684,
  "ể": 685,
  "ễ": 686,
  "ệ": 687,
  "ỉ": 688,
  "ị": 689,
  "ọ": 690,
  "ỏ": 691,
  "ố": 692,
  "ồ": 693,
  "ổ": 694,
  "ỗ": 695,
  "ộ": 696,
  "Ớ": 697,
  "ớ": 698,
  "ờ": 699,
  "ở": 700,
  "ỡ": 701,
  "ợ": 702,
  "ụ": 703,
  "ủ": 704,
  "ứ": 705,
  "ừ": 706,
  "ử": 707,
  "ữ": 708,
  "ự": 709,
  "ỳ": 710,
  "ỵ": 711,
  "ỷ": 712,
  "ỹ": 713,
  "ἁ": 714,
  "Ἄ": 715,
  "ἔ": 716,
  "Ἑ": 717,
  "ἠ": 718,
  "ἤ": 719,
  "Ἠ": 720,
  "Ἥ": 721,
  "ἰ": 722,
  "ἴ": 723,
  "ὀ": 724,
  "ὄ": 725,
  "ὅ": 726,
  "ὐ": 727,
  "ὕ": 728,
  "ὰ": 729,
  "ὶ": 730,
  "ᾍ": 731,
  "ᾰ": 732,
  "ᾶ": 733,
  "Ὰ": 734,
  "ῆ": 735,
  "ῖ": 736,
  "ῥ": 737,
  "Ῥ": 738,
  "ῶ": 739,
  "‌": 740,
  "‍": 741,
  "‑": 742,
  "‒": 743,
  "–": 744,
  "—": 745,
  "―": 746,
  "‘": 747,
  "’": 748,
  "“": 749,
  "”": 750,
  "„": 751,
  "†": 752,
  "‡": 753,
  "•": 754,
  "…": 755,
  "‰": 756,
  "′": 757,
  "″": 758,
  "›": 759,
  "⁄": 760,
  "ⁿ": 761,
  "₤": 762,
  "€": 763,
  "ℕ": 764,
  "ℙ": 765,
  "ℚ": 766,
  "ℝ": 767,
  "™": 768,
  "ℤ": 769,
  "⅓": 770,
  "⅔": 771,
  "Ⅱ": 772,
  "←": 773,
  "→": 774,
  "↔": 775,
  "⇌": 776,
  "⇒": 777,
  "⇔": 778,
  "∀": 779,
  "∈": 780,
  "∉": 781,
  "−": 782,
  "√": 783,
  "∞": 784,
  "∫": 785,
  "≈": 786,
  "≠": 787,
  "≡": 788,
  "≤": 789,
  "≥": 790,
  "⊢": 791,
  "─": 792,
  "├": 793,
  "┬": 794,
  "■": 795,
  "□": 796,
  "☿": 797,
  "♃": 798,
  "♄": 799,
  "♅": 800,
  "♭": 801,
  "✝": 802,
  "⟨": 803,
  "⟩": 804,
  "⠁": 805,
  "⸻": 806,
  "、": 807,
  "。": 808,
  "々": 809,
  "《": 810,
  "》": 811,
  "「": 812,
  "」": 813,
  "『": 814,
  "』": 815,
  "あ": 816,
  "い": 817,
  "う": 818,
  "お": 819,
  "が": 820,
  "く": 821,
  "し": 822,
  "じ": 823,
  "た": 824,
  "ち": 825,
  "で": 826,
  "な": 827,
  "に": 828,
  "の": 829,
  "は": 830,
  "び": 831,
  "ふ": 832,
  "ら": 833,
  "り": 834,
  "わ": 835,
  "ゐ": 836,
  "ゑ": 837,
  "を": 838,
  "ん": 839,
  "ア": 840,
  "ィ": 841,
  "イ": 842,
  "ウ": 843,
  "オ": 844,
  "カ": 845,
  "コ": 846,
  "ゴ": 847,
  "シ": 848,
  "ジ": 849,
  "ス": 850,
  "タ": 851,
  "ダ": 852,
  "チ": 853,
  "テ": 854,
  "ト": 855,
  "ド": 856,
  "ナ": 857,
  "ニ": 858,
  "ハ": 859,
  "バ": 860,
  "フ": 861,
  "ブ": 862,
  "ベ": 863,
  "マ": 864,
  "ム": 865,
  "ョ": 866,
  "ラ": 867,
  "リ": 868,
  "ル": 869,
  "レ": 870,
  "ヰ": 871,
  "ヱ": 872,
  "ヲ": 873,
  "ン": 874,
  "ヴ": 875,
  "・": 876,
  "ー": 877,
  "㏖": 878,
  "一": 879,
  "七": 880,
  "三": 881,
  "上": 882,
  "下": 883,
  "世": 884,
  "中": 885,
  "主": 886,
  "习": 887,
  "乾": 888,
  "事": 889,
  "五": 890,
  "人": 891,
  "仁": 892,
  "介": 893,
  "代": 894,
  "伊": 895,
  "会": 896,
  "体": 897,
  "何": 898,
  "余": 899,
  "供": 900,
  "俊": 901,
  "個": 902,
  "倭": 903,
  "健": 904,
  "元": 905,
  "入": 906,
  "八": 907,
  "公": 908,
  "共": 909,
  "具": 910,
  "切": 911,
  "前": 912,
  "剣": 913,
  "勝": 914,
  "包": 915,
  "化": 916,
  "北": 917,
  "南": 918,
  "原": 919,
  "叢": 920,
  "古": 921,
  "司": 922,
  "吉": 923,
  "向": 924,
  "命": 925,
  "和": 926,
  "員": 927,
  "哲": 928,
  "団": 929,
  "国": 930,
  "國": 931,
  "塩": 932,
  "士": 933,
  "売": 934,
  "夕": 935,
  "外": 936,
  "大": 937,
  "天": 938,
  "好": 939,
  "如": 940,
  "委": 941,
  "子": 942,
  "孟": 943,
  "学": 944,
  "孫": 945,
  "宇": 946,
  "安": 947,
  "実": 948,
  "室": 949,
  "家": 950,
  "寂": 951,
  "寛": 952,
  "尊": 953,
  "尋": 954,
  "小": 955,
  "山": 956,
  "岐": 957,
  "巻": 958,
  "巾": 959,
  "常": 960,
  "平": 961,
  "府": 962,
  "廈": 963,
  "彦": 964,
  "忠": 965,
  "怎": 966,
  "思": 967,
  "恒": 968,
  "恩": 969,
  "懐": 970,
  "成": 971,
  "我": 972,
  "手": 973,
  "抹": 974,
  "推": 975,
  "摩": 976,
  "敬": 977,
  "文": 978,
  "新": 979,
  "方": 980,
  "无": 981,
  "日": 982,
  "旭": 983,
  "昌": 984,
  "是": 985,
  "時": 986,
  "普": 987,
  "書": 988,
  "會": 989,
  "月": 990,
  "木": 991,
  "本": 992,
  "杂": 993,
  "杓": 994,
  "東": 995,
  "林": 996,
  "柴": 997,
  "样": 998,
  "棗": 999,
  "歌": 1000,
  "正": 1001,
  "武": 1002,
  "死": 1003,
  "殉": 1004,
  "比": 1005,
  "永": 1006,
  "汗": 1007,
  "江": 1008,
  "治": 1009,
  "法": 1010,
  "波": 1011,
  "洱": 1012,
  "洲": 1013,
  "流": 1014,
  "清": 1015,
  "湯": 1016,
  "炉": 1017,
  "点": 1018,
  "烏": 1019,
  "烟": 1020,
  "焙": 1021,
  "煎": 1022,
  "特": 1023,
  "玄": 1024,
  "玖": 1025,
  "珠": 1026,
  "琵": 1027,
  "生": 1028,
  "田": 1029,
  "男": 1030,
  "略": 1031,
  "畴": 1032,
  "病": 1033,
  "登": 1034,
  "的": 1035,
  "皇": 1036,
  "盆": 1037,
  "盈": 1038,
  "県": 1039,
  "石": 1040,
  "研": 1041,
  "碎": 1042,
  "碗": 1043,
  "磐": 1044,
  "礼": 1045,
  "祐": 1046,
  "神": 1047,
  "种": 1048,
  "種": 1049,
  "立": 1050,
  "章": 1051,
  "筅": 1052,
  "箱": 1053,
  "米": 1054,
  "糸": 1055,
  "紀": 1056,
  "紅": 1057,
  "納": 1058,
  "紙": 1059,
  "習": 1060,
  "能": 1061,
  "臨": 1062,
  "艾": 1063,
  "花": 1064,
  "范": 1065,
  "茶": 1066,
  "葦": 1067,
  "蔣": 1068,
  "虫": 1069,
  "行": 1070,
  "訂": 1071,
  "記": 1072,
  "誌": 1073,
  "語": 1074,
  "语": 1075,
  "谷": 1076,
  "賢": 1077,
  "輝": 1078,
  "辑": 1079,
  "迦": 1080,
  "通": 1081,
  "逻": 1082,
  "運": 1083,
  "道": 1084,
  "達": 1085,
  "郎": 1086,
  "都": 1087,
  "野": 1088,
  "量": 1089,
  "録": 1090,
  "門": 1091,
  "間": 1092,
  "际": 1093,
  "降": 1094,
  "雑": 1095,
  "雲": 1096,
  "頃": 1097,
  "顷": 1098,
  "風": 1099,
  "香": 1100,
  "験": 1101,
  "鰐": 1102,
  "黑": 1103,
  "龍": 1104,
  "꧅": 1105,
  "가": 1106,
  "개": 1107,
  "공": 1108,
  "구": 1109,
  "국": 1110,
  "내": 1111,
  "널": 1112,
  "는": 1113,
  "도": 1114,
  "를": 1115,
  "립": 1116,
  "마": 1117,
  "법": 1118,
  "부": 1119,
  "사": 1120,
  "선": 1121,
  "셔": 1122,
  "어": 1123,
  "언": 1124,
  "역": 1125,
  "외": 1126,
  "원": 1127,
  "의": 1128,
  "인": 1129,
  "조": 1130,
  "터": 1131,
  "통": 1132,
  "하": 1133,
  "한": 1134,
  "﷽": 1135,
  "﻿": 1136,
  "＊": 1137,
  "𒈙": 1138,
  "𒐫": 1139,
  "sz": 1139,
  "el": 1140,
  "et": 1141,
  "er": 1142,
  "en": 1143,
  "gy": 1144,
  "an": 1145,
  "al": 1146,
  "at": 1147,
  "és": 1148,
  "ek": 1149,
  "or": 1150,
  "ar": 1151,
  "az": 1152,
  "ol": 1153,
  "on": 1154,
  "ár": 1155,
  "ál": 1156,
  "es": 1157,
  "in": 1158,
  "ak": 1159,
  "ás": 1160,
  "án": 1161,
  "eg": 1162,
  "em": 1163,
  "ik": 1164,
  "ez": 1165,
  "ok": 1166,
  "is": 1167,
  "19": 1168,
  "én": 1169,
  "os": 1170,
  "tt": 1171,
  "kö": 1172,
  "agy": 1173,
  "ég": 1174,
  "egy": 1175,
  "am": 1176,
  "ér": 1177,
  "cs": 1178,
  "il": 1179,
  "ág": 1180,
  "ad": 1181,
  "us": 1182,
  "ül": 1183,
  "ai": 1184,
  "ban": 1185,
  "át": 1186,
  "ít": 1187,
  "ap": 1188,
  "él": 1189,
  "oz": 1190,
  "om": 1191,
  "szt": 1192,
  "ben": 1193,
  "ett": 1194,
  "meg": 1195,
  "ész": 1196,
  "bb": 1197,
  "ét": 1198,
  "it": 1199,
  "as": 1200,
  "ul": 1201,
  "ed": 1202,
  "szer": 1203,
  "ny": 1204,
  "ott": 1205,
  "ja": 1206,
  "ki": 1207,
  "ut": 1208,
  "ék": 1209,
  "ép": 1210,
  "ag": 1211,
  "ci": 1212,
  "ák": 1213,
  "re": 1214,
  "ség": 1215,
  "tö": 1216,
  "agyar": 1217,
  "fel": 1218,
  "og": 1219,
  "köz": 1220,
  "20": 1221,
  "int": 1222,
  "ely": 1223,
  "ig": 1224,
  "ény": 1225,
  "ány": 1226,
  "év": 1227,
  "ra": 1228,
  "ot": 1229,
  "le": 1230,
  "ent": 1231,
  "ró": 1232,
  "ám": 1233,
  "od": 1234,
  "ell": 1235,
  "18": 1236,
  "hat": 1237,
  "aj": 1238,
  "áz": 1239,
  "magyar": 1240,
  "iz": 1241,
  "ter": 1242,
  "ber": 1243,
  "Sz": 1244,
  "ta": 1245,
  "áll": 1246,
  "nem": 1247,
  "Az": 1248,
  "ev": 1249,
  "end": 1250,
  "val": 1251,
  "id": 1252,
  "ho": 1253,
  "ni": 1254,
  "ól": 1255,
  "kor": 1256,
  "ált": 1257,
  "ság": 1258,
  "ud": 1259,
  "for": 1260,
  "ir": 1261,
  "ab": 1262,
  "ia": 1263,
  "hogy": 1264,
  "um": 1265,
  "nak": 1266,
  "ov": 1267,
  "ín": 1268,
  "jel": 1269,
  "mű": 1270,
  "olt": 1271,
  "szág": 1272,
  "ől": 1273,
  "nek": 1274,
  "ur": 1275,
  "ch": 1276,
  "te": 1277,
  "art": 1278,
  "pr": 1279,
  "ország": 1280,
  "be": 1281,
  "rend": 1282,
  "leg": 1283,
  "áb": 1284,
  "elő": 1285,
  "ej": 1286,
  "kez": 1287,
  "oly": 1288,
  "ind": 1289,
  "ep": 1290,
  "un": 1291,
  "ön": 1292,
  "alm": 1293,
  "ért": 1294,
  "ikus": 1295,
  "ém": 1296,
  "ikai": 1297,
  "ör": 1298,
  "ában": 1299,
  "ill": 1300,
  "szám": 1301,
  "ály": 1302,
  "asz": 1303,
  "ve": 1304,
  "het": 1305,
  "de": 1306,
  "szín": 1307,
  "nagy": 1308,
  "ont": 1309,
  "ső": 1310,
  "tör": 1311,
  "ember": 1312,
  "ök": 1313,
  "vár": 1314,
  "vet": 1315,
  "200": 1316,
  "öl": 1317,
  "im": 1318,
  "zet": 1319,
  "ző": 1320,
  "vez": 1321,
  "st": 1322,
  "volt": 1323,
  "ös": 1324,
  "ók": 1325,
  "est": 1326,
  "ran": 1327,
  "ület": 1328,
  "ker": 1329,
  "ri": 1330,
  "ász": 1331,
  "ír": 1332,
  "alk": 1333,
  "elm": 1334,
  "ód": 1335,
  "elv": 1336,
  "áj": 1337,
  "ása": 1338,
  "ver": 1339,
  "ug": 1340,
  "tart": 1341,
  "op": 1342,
  "hoz": 1343,
  "nap": 1344,
  "más": 1345,
  "uk": 1346,
  "tel": 1347,
  "ang": 1348,
  "hely": 1349,
  "16": 1350,
  "ése": 1351,
  "iv": 1352,
  "ött": 1353,
  "17": 1354,
  "tár": 1355,
  "kül": 1356,
  "199": 1357,
  "ult": 1358,
  "első": 1359,
  "len": 1360,
  "mer": 1361,
  "amely": 1362,
  "nev": 1363,
  "att": 1364,
  "ások": 1365,
  "kép": 1366,
  "vagy": 1367,
  "ob": 1368,
  "ic": 1369,
  "ének": 1370,
  "fog": 1371,
  "ára": 1372,
  "zs": 1373,
  "ében": 1374,
  "rész": 1375,
  "fő": 1376,
  "iszt": 1377,
  "and": 1378,
  "ció": 1379,
  "198": 1380,
  "eket": 1381,
  "dí": 1382,
  "fej": 1383,
  "nyelv": 1384,
  "több": 1385,
  "jelent": 1386,
  "15": 1387,
  "író": 1388,
  "ei": 1389,
  "alap": 1390,
  "ív": 1391,
  "ának": 1392,
  "ház": 1393,
  "új": 1394,
  "ony": 1395,
  "nő": 1396,
  "ély": 1397,
  "osz": 1398,
  "éd": 1399,
  "mag": 1400,
  "tan": 1401,
  "már": 1402,
  "eb": 1403,
  "óg": 1404,
  "vég": 1405,
  "ült": 1406,
  "díj": 1407,
  "úl": 1408,
  "Magyar": 1409,
  "ént": 1410,
  "alom": 1411,
  "nál": 1412,
  "színész": 1413,
  "ló": 1414,
  "ilág": 1415,
  "ond": 1416,
  "sor": 1417,
  "eszt": 1418,
  "ük": 1419,
  "ős": 1420,
  "av": 1421,
  "197": 1422,
  "élet": 1423,
  "tal": 1424,
  "mint": 1425,
  "amer": 1426,
  "ható": 1427,
  "ább": 1428,
  "hasz": 1429,
  "di": 1430,
  "műv": 1431,
  "ort": 1432,
  "tud": 1433,
  "194": 1434,
  "vált": 1435,
  "mind": 1436,
  "any": 1437,
  "világ": 1438,
  "kel": 1439,
  "An": 1440,
  "amerikai": 1441,
  "00": 1442,
  "fi": 1443,
  "Ez": 1444,
  "fil": 1445,
  "ette": 1446,
  "olg": 1447,
  "város": 1448,
  "émet": 1449,
  "öv": 1450,
  "tó": 1451,
  "omány": 1452,
  "alak": 1453,
  "Egy": 1454,
  "ított": 1455,
  "kir": 1456,
  "ábor": 1457,
  "eny": 1458,
  "form": 1459,
  "tén": 1460,
  "cia": 1461,
  "ba": 1462,
  "kör": 1463,
  "let": 1464,
  "után": 1465,
  "aszt": 1466,
  "vis": 1467,
  "elem": 1468,
  "old": 1469,
  "rendszer": 1470,
  "össz": 1471,
  "ják": 1472,
  "vezet": 1473,
  "van": 1474,
  "Gy": 1475,
  "kap": 1476,
  "ekt": 1477,
  "zi": 1478,
  "unk": 1479,
  "ítás": 1480,
  "uszt": 1481,
  "szó": 1482,
  "ebb": 1483,
  "csak": 1484,
  "ip": 1485,
  "ők": 1486,
  "ális": 1487,
  "196": 1488,
  "szak": 1489,
  "uár": 1490,
  "szem": 1491,
  "király": 1492,
  "két": 1493,
  "ozó": 1494,
  "mely": 1495,
  "iai": 1496,
  "ing": 1497,
  "ére": 1498,
  "vál": 1499,
  "II": 1500,
  "okat": 1501,
  "isz": 1502,
  "által": 1503,
  "követ": 1504,
  "Al": 1505,
  "195": 1506,
  "áció": 1507,
  "aság": 1508,
  "eh": 1509,
  "elt": 1510,
  "14": 1511,
  "mány": 1512,
  "ellen": 1513,
  "hal": 1514,
  "je": 1515,
  "eti": 1516,
  "hető": 1517,
  "használ": 1518,
  "éz": 1519,
  "foly": 1520,
  "ford": 1521,
  "va": 1522,
  "ból": 1523,
  "193": 1524,
  "pont": 1525,
  "enc": 1526,
  "ajd": 1527,
  "tag": 1528,
  "történ": 1529,
  "ények": 1530,
  "almaz": 1531,
  "192": 1532,
  "10": 1533,
  "ván": 1534,
  "of": 1535,
  "között": 1536,
  "ün": 1537,
  "zen": 1538,
  "rancia": 1539,
  "mi": 1540,
  "ológ": 1541,
  "ika": 1542,
  "azon": 1543,
  "ező": 1544,
  "har": 1545,
  "külön": 1546,
  "szab": 1547,
  "ád": 1548,
  "tat": 1549,
  "öz": 1550,
  "lét": 1551,
  "pol": 1552,
  "obb": 1553,
  "föl": 1554,
  "ozat": 1555,
  "ját": 1556,
  "tek": 1557,
  "ist": 1558,
  "kal": 1559,
  "bel": 1560,
  "éld": 1561,
  "ával": 1562,
  "kezd": 1563,
  "tő": 1564,
  "biz": 1565,
  "von": 1566,
  "oszt": 1567,
  "nök": 1568,
  "né": 1569,
  "német": 1570,
  "ked": 1571,
  "utat": 1572,
  "Mar": 1573,
  "szerint": 1574,
  "köl": 1575,
  "ást": 1576,
  "ések": 1577,
  "ismer": 1578,
  "művész": 1579,
  "ati": 1580,
  "árt": 1581,
  "díjas": 1582,
  "irod": 1583,
  "ános": 1584,
  "cí": 1585,
  "mér": 1586,
  "pl": 1587,
  "ási": 1588,
  "ered": 1589,
  "még": 1590,
  "való": 1591,
  "na": 1592,
  "eng": 1593,
  "sp": 1594,
  "min": 1595,
  "rit": 1596,
  "ha": 1597,
  "ogr": 1598,
  "film": 1599,
  "12": 1600,
  "uró": 1601,
  "út": 1602,
  "ével": 1603,
  "ne": 1604,
  "terület": 1605,
  "13": 1606,
  "véd": 1607,
  "ként": 1608,
  "esz": 1609,
  "áv": 1610,
  "had": 1611,
  "kat": 1612,
  "hez": 1613,
  "ami": 1614,
  "fü": 1615,
  "ből": 1616,
  "Er": 1617,
  "íz": 1618,
  "Bud": 1619,
  "per": 1620,
  "Fer": 1621,
  "száz": 1622,
  "ac": 1623,
  "egyik": 1624,
  "dés": 1625,
  "ius": 1626,
  "abb": 1627,
  "társ": 1628,
  "etlen": 1629,
  "Cs": 1630,
  "péld": 1631,
  "polit": 1632,
  "ító": 1633,
  "ped": 1634,
  "usz": 1635,
  "lő": 1636,
  "francia": 1637,
  "sem": 1638,
  "In": 1639,
  "Ist": 1640,
  "ah": 1641,
  "kész": 1642,
  "ája": 1643,
  "ovább": 1644,
  "nevez": 1645,
  "esen": 1646,
  "oc": 1647,
  "ef": 1648,
  "talál": 1649,
  "term": 1650,
  "hábor": 1651,
  "uróp": 1652,
  "mény": 1653,
  "esség": 1654,
  "apest": 1655,
  "ául": 1656,
  "utó": 1657,
  "vers": 1658,
  "gg": 1659,
  "vel": 1660,
  "ant": 1661,
  "ót": 1662,
  "ium": 1663,
  "par": 1664,
  "ron": 1665,
  "kol": 1666,
  "azd": 1667,
  "nok": 1668,
  "tet": 1669,
  "nép": 1670,
  "jelen": 1671,
  "étel": 1672,
  "angol": 1673,
  "haj": 1674,
  "bet": 1675,
  "190": 1676,
  "szerző": 1677,
  "ista": 1678,
  "jár": 1679,
  "he": 1680,
  "sok": 1681,
  "jog": 1682,
  "11": 1683,
  "ról": 1684,
  "lak": 1685,
  "nyv": 1686,
  "jan": 1687,
  "atok": 1688,
  "ata": 1689,
  "pedig": 1690,
  "Budapest": 1691,
  "idő": 1692,
  "Nem": 1693,
  "jú": 1694,
  "nemzet": 1695,
  "függ": 1696,
  "rom": 1697,
  "lát": 1698,
  "csol": 1699,
  "minden": 1700,
  "háború": 1701,
  "tak": 1702,
  "érték": 1703,
  "kis": 1704,
  "név": 1705,
  "század": 1706,
  "szor": 1707,
  "ánd": 1708,
  "lehet": 1709,
  "mar": 1710,
  "vas": 1711,
  "tám": 1712,
  "Magyarország": 1713,
  "atal": 1714,
  "ogram": 1715,
  "lás": 1716,
  "határ": 1717,
  "gyű": 1718,
  "gyel": 1719,
  "vény": 1720,
  "fél": 1721,
  "ogat": 1722,
  "ési": 1723,
  "gazd": 1724,
  "így": 1725,
  "ács": 1726,
  "elnök": 1727,
  "ow": 1728,
  "mell": 1729,
  "igaz": 1730,
  "her": 1731,
  "ést": 1732,
  "hang": 1733,
  "nagyobb": 1734,
  "ib": 1735,
  "szabad": 1736,
  "árm": 1737,
  "ept": 1738,
  "István": 1739,
  "fogl": 1740,
  "vissz": 1741,
  "irodalom": 1742,
  "lett": 1743,
  "például": 1744,
  "oh": 1745,
  "aki": 1746,
  "alatt": 1747,
  "eset": 1748,
  "ós": 1749,
  "ma": 1750,
  "azonban": 1751,
  "mai": 1752,
  "olyan": 1753,
  "ozott": 1754,
  "nov": 1755,
  "mus": 1756,
  "épít": 1757,
  "ilis": 1758,
  "kormány": 1759,
  "állam": 1760,
  "János": 1761,
  "ete": 1762,
  "gyan": 1763,
  "majd": 1764,
  "fiz": 1765,
  "valam": 1766,
  "ügy": 1767,
  "erm": 1768,
  "telj": 1769,
  "kon": 1770,
  "lat": 1771,
  "adó": 1772,
  "nél": 1773,
  "ájus": 1774,
  "január": 1775,
  "ását": 1776,
  "dr": 1777,
  "189": 1778,
  "azt": 1779,
  "ivel": 1780,
  "választ": 1781,
  "mat": 1782,
  "őz": 1783,
  "program": 1784,
  "őr": 1785,
  "ay": 1786,
  "munk": 1787,
  "szint": 1788,
  "etem": 1789,
  "gyak": 1790,
  "kom": 1791,
  "Mi": 1792,
  "gép": 1793,
  "gat": 1794,
  "gó": 1795,
  "tól": 1796,
  "ezt": 1797,
  "szerep": 1798,
  "ink": 1799,
  "úlius": 1800,
  "éter": 1801,
  "őbb": 1802,
  "cius": 1803,
  "men": 1804,
  "ard": 1805,
  "uguszt": 1806,
  "mód": 1807,
  "tóber": 1808,
  "ugusztus": 1809,
  "eml": 1810,
  "ták": 1811,
  "része": 1812,
  "ton": 1813,
  "május": 1814,
  "ebr": 1815,
  "ján": 1816,
  "következ": 1817,
  "ög": 1818,
  "tér": 1819,
  "osan": 1820,
  "november": 1821,
  "El": 1822,
  "illet": 1823,
  "reg": 1824,
  "tudomány": 1825,
  "prilis": 1826,
  "illi": 1827,
  "szél": 1828,
  "eptember": 1829,
  "július": 1830,
  "verseny": 1831,
  "mond": 1832,
  "iszter": 1833,
  "akkor": 1834,
  "ass": 1835,
  "égi": 1836,
  "ekben": 1837,
  "orv": 1838,
  "nius": 1839,
  "október": 1840,
  "Köz": 1841,
  "erg": 1842,
  "szerű": 1843,
  "augusztus": 1844,
  "kell": 1845,
  "kés": 1846,
  "március": 1847,
  "ub": 1848,
  "föld": 1849,
  "egész": 1850,
  "inek": 1851,
  "Nagy": 1852,
  "ették": 1853,
  "ion": 1854,
  "fér": 1855,
  "érd": 1856,
  "Ferenc": 1857,
  "alkot": 1858,
  "sal": 1859,
  "dély": 1860,
  "ről": 1861,
  "szeptember": 1862,
  "színésznő": 1863,
  "iker": 1864,
  "könyv": 1865,
  "ését": 1866,
  "kereszt": 1867,
  "yen": 1868,
  "hár": 1869,
  "miatt": 1870,
  "április": 1871,
  "lam": 1872,
  "ebruár": 1873,
  "Or": 1874,
  "adás": 1875,
  "séges": 1876,
  "június": 1877,
  "St": 1878,
  "Jó": 1879,
  "odik": 1880,
  "almi": 1881,
  "ozás": 1882,
  "különb": 1883,
  "oll": 1884,
  "Nemzet": 1885,
  "anyag": 1886,
  "emat": 1887,
  "ossz": 1888,
  "személy": 1889,
  "cember": 1890,
  "lan": 1891,
  "össze": 1892,
  "ászló": 1893,
  "jai": 1894,
  "Európ": 1895,
  "mán": 1896,
  "egyes": 1897,
  "fr": 1898,
  "szület": 1899,
  "ütt": 1900,
  "osság": 1901,
  "ából": 1902,
  "For": 1903,
  "forr": 1904,
  "február": 1905,
  "ern": 1906,
  "ser": 1907,
  "lov": 1908,
  "tovább": 1909,
  "oss": 1910,
  "188": 1911,
  "tor": 1912,
  "öt": 1913,
  "raj": 1914,
  "december": 1915,
  "elmélet": 1916,
  "óz": 1917,
  "hiv": 1918,
  "tagja": 1919,
  "abd": 1920,
  "ens": 1921,
  "illetve": 1922,
  "szolg": 1923,
  "létre": 1924,
  "jegy": 1925,
  "észet": 1926,
  "zel": 1927,
  "ess": 1928,
  "emény": 1929,
  "Józs": 1930,
  "ezés": 1931,
  "elmi": 1932,
  "napja": 1933,
  "ka": 1934,
  "ani": 1935,
  "siker": 1936,
  "úgy": 1937,
  "övet": 1938,
  "miniszter": 1939,
  "vány": 1940,
  "valamint": 1941,
  "atk": 1942,
  "kapcsol": 1943,
  "izs": 1944,
  "ro": 1945,
  "később": 1946,
  "együtt": 1947,
  "oper": 1948,
  "22": 1949,
  "álló": 1950,
  "sége": 1951,
  "csal": 1952,
  "kar": 1953,
  "észt": 1954,
  "három": 1955,
  "nyi": 1956,
  "nyom": 1957,
  "21": 1958,
  "illag": 1959,
  "Ál": 1960,
  "ármaz": 1961,
  "all": 1962,
  "itt": 1963,
  "eni": 1964,
  "ugyan": 1965,
  "En": 1966,
  "ciók": 1967,
  "csap": 1968,
  "oport": 1969,
  "csász": 1970,
  "Ny": 1971,
  "autó": 1972,
  "József": 1973,
  "moz": 1974,
  "ülő": 1975,
  "hon": 1976,
  "ilyen": 1977,
  "za": 1978,
  "187": 1979,
  "leszt": 1980,
  "urg": 1981,
  "ason": 1982,
  "ába": 1983,
  "saj": 1984,
  "kív": 1985,
  "visz": 1986,
  "inak": 1987,
  "rendel": 1988,
  "vezető": 1989,
  "ói": 1990,
  "körül": 1991,
  "mod": 1992,
  "rák": 1993,
  "cél": 1994,
  "matemat": 1995,
  "származ": 1996,
  "cik": 1997,
  "től": 1998,
  "csoport": 1999,
  "fin": 2000,
  "ári": 2001,
  "dolg": 2002,
  "jell": 2003,
  "politikus": 2004,
  "előtt": 2005,
  "ann": 2006,
  "elekt": 2007,
  "ala": 2008,
  "iskol": 2009,
  "ikor": 2010,
  "li": 2011,
  "adott": 2012,
  "teljes": 2013,
  "25": 2014,
  "pen": 2015,
  "Kár": 2016,
  "seg": 2017,
  "imp": 2018,
  "Ar": 2019,
  "omb": 2020,
  "csat": 2021,
  "gazdaság": 2022,
  "izmus": 2023,
  "gyűl": 2024,
  "társaság": 2025,
  "László": 2026,
  "font": 2027,
  "csk": 2028,
  "költő": 2029,
  "műkö": 2030,
  "foglal": 2031,
  "irány": 2032,
  "hagy": 2033,
  "marad": 2034,
  "ezet": 2035,
  "uc": 2036,
  "emlék": 2037,
  "cím": 2038,
  "186": 2039,
  "zene": 2040,
  "énekes": 2041,
  "bev": 2042,
  "ait": 2043,
  "mellett": 2044,
  "örgy": 2045,
  "erő": 2046,
  "ex": 2047,
  "bizony": 2048,
  "szi": 2049,
  "óta": 2050,
  "számít": 2051,
  "30": 2052,
  "jelentős": 2053,
  "alkod": 2054,
  "víz": 2055,
  "orosz": 2056,
  "ors": 2057,
  "han": 2058,
  "rá": 2059,
  "íl": 2060,
  "hi": 2061,
  "című": 2062,
  "alkalmaz": 2063,
  "közel": 2064,
  "emények": 2065,
  "katon": 2066,
  "ója": 2067,
  "tött": 2068,
  "közi": 2069,
  "hu": 2070,
  "szerk": 2071,
  "oft": 2072,
  "fejleszt": 2073,
  "ti": 2074,
  "második": 2075,
  "23": 2076,
  "kit": 2077,
  "sereg": 2078,
  "Egyes": 2079,
  "mes": 2080,
  "Zs": 2081,
  "uth": 2082,
  "ark": 2083,
  "török": 2084,
  "ította": 2085,
  "rep": 2086,
  "egyetem": 2087,
  "Meg": 2088,
  "ór": 2089,
  "íg": 2090,
  "inform": 2091,
  "dik": 2092,
  "ációs": 2093,
  "György": 2094,
  "ték": 2095,
  "lép": 2096,
  "184": 2097,
  "zetek": 2098,
  "otta": 2099,
  "versenyző": 2100,
  "ff": 2101,
  "eség": 2102,
  "ször": 2103,
  "megy": 2104,
  "Nap": 2105,
  "magas": 2106,
  "család": 2107,
  "bar": 2108,
  "son": 2109,
  "adat": 2110,
  "űr": 2111,
  "folyam": 2112,
  "dő": 2113,
  "tiszt": 2114,
  "csillag": 2115,
  "uralkod": 2116,
  "ge": 2117,
  "bert": 2118,
  "eked": 2119,
  "lap": 2120,
  "egyen": 2121,
  "ezett": 2122,
  "hatás": 2123,
  "ics": 2124,
  "baj": 2125,
  "ándor": 2126,
  "Br": 2127,
  "olasz": 2128,
  "események": 2129,
  "pár": 2130,
  "ített": 2131,
  "ost": 2132,
  "ceg": 2133,
  "rendező": 2134,
  "Mik": 2135,
  "Szent": 2136,
  "áról": 2137,
  "filozó": 2138,
  "ment": 2139,
  "juk": 2140,
  "ahol": 2141,
  "ec": 2142,
  "üz": 2143,
  "fed": 2144,
  "halál": 2145,
  "enn": 2146,
  "során": 2147,
  "assz": 2148,
  "okban": 2149,
  "öld": 2150,
  "só": 2151,
  "telen": 2152,
  "Bp": 2153,
  "ari": 2154,
  "vissza": 2155,
  "labd": 2156,
  "egység": 2157,
  "écs": 2158,
  "növ": 2159,
  "Pr": 2160,
  "erős": 2161,
  "ula": 2162,
  "ong": 2163,
  "régi": 2164,
  "milli": 2165,
  "nyug": 2166,
  "támogat": 2167,
  "Károly": 2168,
  "kutat": 2169,
  "úr": 2170,
  "hány": 2171,
  "enger": 2172,
  "ítés": 2173,
  "írás": 2174,
  "iség": 2175,
  "került": 2176,
  "saját": 2177,
  "ozik": 2178,
  "hossz": 2179,
  "oldal": 2180,
  "tekint": 2181,
  "keres": 2182,
  "ánt": 2183,
  "ide": 2184,
  "szig": 2185,
  "Sp": 2186,
  "jet": 2187,
  "fest": 2188,
  "található": 2189,
  "hivatal": 2190,
  "kívül": 2191,
  "ull": 2192,
  "sér": 2193,
  "nep": 2194,
  "burg": 2195,
  "autóversenyző": 2196,
  "dal": 2197,
  "legnagyobb": 2198,
  "elet": 2199,
  "fia": 2200,
  "óc": 2201,
  "ológus": 2202,
  "hason": 2203,
  "herceg": 2204,
  "ovjet": 2205,
  "vit": 2206,
  "alakul": 2207,
  "Jegy": 2208,
  "Koss": 2209,
  "ezek": 2210,
  "26": 2211,
  "fejed": 2212,
  "gyakor": 2213,
  "dön": 2214,
  "pus": 2215,
  "Német": 2216,
  "cikk": 2217,
  "mad": 2218,
  "ához": 2219,
  "met": 2220,
  "gond": 2221,
  "log": 2222,
  "bék": 2223,
  "dött": 2224,
  "Jegyzetek": 2225,
  "játék": 2226,
  "ert": 2227,
  "amelyek": 2228,
  "Bal": 2229,
  "ord": 2230,
  "változat": 2231,
  "lég": 2232,
  "Nemzeti": 2233,
  "közös": 2234,
  "törvény": 2235,
  "segít": 2236,
  "24": 2237,
  "jelöl": 2238,
  "szav": 2239,
  "ációk": 2240,
  "számára": 2241,
  "táv": 2242,
  "óri": 2243,
  "lem": 2244,
  "áp": 2245,
  "kori": 2246,
  "brit": 2247,
  "Kossuth": 2248,
  "ökö": 2249,
  "éb": 2250,
  "eit": 2251,
  "jed": 2252,
  "fontos": 2253,
  "Joh": 2254,
  "dél": 2255,
  "árd": 2256,
  "úz": 2257,
  "alapján": 2258,
  "űn": 2259,
  "incs": 2260,
  "részt": 2261,
  "száll": 2262,
  "bajnok": 2263,
  "ows": 2264,
  "mutat": 2265,
  "országban": 2266,
  "hozz": 2267,
  "Tör": 2268,
  "öveg": 2269,
  "ulajd": 2270,
  "utas": 2271,
  "ulajdon": 2272,
  "öző": 2273,
  "délyi": 2274,
  "eli": 2275,
  "bár": 2276,
  "képvis": 2277,
  "telep": 2278,
  "The": 2279,
  "zés": 2280,
  "ően": 2281,
  "Ne": 2282,
  "faj": 2283,
  "ítása": 2284,
  "irt": 2285,
  "ux": 2286,
  "rendelkez": 2287,
  "bo": 2288,
  "Ad": 2289,
  "zeneszerző": 2290,
  "arú": 2291,
  "annak": 2292,
  "ina": 2293,
  "kelet": 2294,
  "sorozat": 2295,
  "chn": 2296,
  "kod": 2297,
  "négy": 2298,
  "olimp": 2299,
  "Le": 2300,
  "állap": 2301,
  "kl": 2302,
  "test": 2303,
  "szult": 2304,
  "kult": 2305,
  "séget": 2306,
  "up": 2307,
  "ine": 2308,
  "28": 2309,
  "ünnep": 2310,
  "lehető": 2311,
  "la": 2312,
  "ségi": 2313,
  "egyház": 2314,
  "örög": 2315,
  "ür": 2316,
  "oci": 2317,
  "pály": 2318,
  "tenger": 2319,
  "kapcsolat": 2320,
  "mel": 2321,
  "ock": 2322,
  "független": 2323,
  "fordul": 2324,
  "ípus": 2325,
  "tem": 2326,
  "tes": 2327,
  "szövet": 2328,
  "számos": 2329,
  "sága": 2330,
  "igazgat": 2331,
  "szöveg": 2332,
  "ekkel": 2333,
  "harc": 2334,
  "alá": 2335,
  "ox": 2336,
  "ógy": 2337,
  "ajos": 2338,
  "Ap": 2339,
  "esszor": 2340,
  "tömeg": 2341,
  "if": 2342,
  "ológia": 2343,
  "Péter": 2344,
  "hanem": 2345,
  "27": 2346,
  "Wind": 2347,
  "TA": 2348,
  "gel": 2349,
  "000": 2350,
  "qu": 2351,
  "gyors": 2352,
  "övid": 2353,
  "Ch": 2354,
  "ozások": 2355,
  "fény": 2356,
  "Sándor": 2357,
  "hát": 2358,
  "felelő": 2359,
  "arúgó": 2360,
  "anyol": 2361,
  "rel": 2362,
  "ísér": 2363,
  "egyed": 2364,
  "haszn": 2365,
  "Tovább": 2366,
  "közép": 2367,
  "th": 2368,
  "29": 2369,
  "185": 2370,
  "szultán": 2371,
  "Fran": 2372,
  "született": 2373,
  "labdarúgó": 2374,
  "szól": 2375,
  "ású": 2376,
  "tartalmaz": 2377,
  "tulajdon": 2378,
  "Már": 2379,
  "amikor": 2380,
  "kev": 2381,
  "enek": 2382,
  "felhasznál": 2383,
  "der": 2384,
  "ógép": 2385,
  "ezte": 2386,
  "SZ": 2387,
  "ezért": 2388,
  "betű": 2389,
  "elés": 2390,
  "festő": 2391,
  "napok": 2392,
  "ítő": 2393,
  "vall": 2394,
  "ején": 2395,
  "fok": 2396,
  "tr": 2397,
  "sel": 2398,
  "ermek": 2399,
  "hír": 2400,
  "ünk": 2401,
  "beszél": 2402,
  "zett": 2403,
  "Lajos": 2404,
  "ülés": 2405,
  "hid": 2406,
  "Föld": 2407,
  "plom": 2408,
  "Ol": 2409,
  "2000": 2410,
  "obel": 2411,
  "org": 2412,
  "érdek": 2413,
  "mivel": 2414,
  "úly": 2415,
  "sziget": 2416,
  "töl": 2417,
  "ehér": 2418,
  "din": 2419,
  "list": 2420,
  "nyil": 2421,
  "értelm": 2422,
  "tétel": 2423,
  "Uni": 2424,
  "tanár": 2425,
  "különböző": 2426,
  "hasonló": 2427,
  "tés": 2428,
  "természet": 2429,
  "évek": 2430,
  "orvos": 2431,
  "nyelvek": 2432,
  "ítja": 2433,
  "energ": 2434,
  "ey": 2435,
  "szervezet": 2436,
  "izsg": 2437,
  "III": 2438,
  "Windows": 2439,
  "közül": 2440,
  "Nobel": 2441,
  "uni": 2442,
  "kisebb": 2443,
  "boly": 2444,
  "További": 2445,
  "Im": 2446,
  "atom": 2447,
  "ották": 2448,
  "Szín": 2449,
  "okkal": 2450,
  "urópai": 2451,
  "európai": 2452,
  "szik": 2453,
  "nélkül": 2454,
  "Rák": 2455,
  "polg": 2456,
  "osztrák": 2457,
  "Egyesült": 2458,
  "császár": 2459,
  "mert": 2460,
  "féle": 2461,
  "vizsg": 2462,
  "szük": 2463,
  "éhez": 2464,
  "lós": 2465,
  "lag": 2466,
  "kísér": 2467,
  "római": 2468,
  "voltak": 2469,
  "akt": 2470,
  "eredmény": 2471,
  "jobb": 2472,
  "jó": 2473,
  "belül": 2474,
  "arch": 2475,
  "vezér": 2476,
  "egymás": 2477,
  "repülő": 2478,
  "központ": 2479,
  "túl": 2480,
  "Amer": 2481,
  "rövid": 2482,
  "kér": 2483,
  "Kir": 2484,
  "éves": 2485,
  "fal": 2486,
  "Bar": 2487,
  "mények": 2488,
  "Il": 2489,
  "ich": 2490,
  "ian": 2491,
  "tanul": 2492,
  "adém": 2493,
  "elked": 2494,
  "ították": 2495,
  "árs": 2496,
  "io": 2497,
  "andó": 2498,
  "szék": 2499,
  "körny": 2500,
  "gyógy": 2501,
  "vallás": 2502,
  "szerkeszt": 2503,
  "Bél": 2504,
  "történet": 2505,
  "dig": 2506,
  "tos": 2507,
  "Ak": 2508,
  "őztes": 2509,
  "kezdő": 2510,
  "elektron": 2511,
  "apán": 2512,
  "kód": 2513,
  "általában": 2514,
  "jában": 2515,
  "aton": 2516,
  "számítógép": 2517,
  "Állam": 2518,
  "azaz": 2519,
  "párt": 2520,
  "Andr": 2521,
  "elér": 2522,
  "másik": 2523,
  "usztr": 2524,
  "Ir": 2525,
  "tervez": 2526,
  "eszköz": 2527,
  "típus": 2528,
  "róf": 2529,
  "ation": 2530,
  "leges": 2531,
  "Tan": 2532,
  "ására": 2533,
  "olikus": 2534,
  "nia": 2535,
  "lengyel": 2536,
  "fejlő": 2537,
  "míg": 2538,
  "proc": 2539,
  "gazdasági": 2540,
  "Ha": 2541,
  "kan": 2542,
  "De": 2543,
  "éről": 2544,
  "lex": 2545,
  "jellem": 2546,
  "Sch": 2547,
  "prot": 2548,
  "ismert": 2549,
  "man": 2550,
  "Pál": 2551,
  "olimpiai": 2552,
  "terjed": 2553,
  "Ma": 2554,
  "Birodalom": 2555,
  "képviselő": 2556,
  "mal": 2557,
  "információk": 2558,
  "hatalm": 2559,
  "me": 2560,
  "fogad": 2561,
  "őleg": 2562,
  "millió": 2563,
  "hit": 2564,
  "okon": 2565,
  "Th": 2566,
  "br": 2567,
  "bi": 2568,
  "áros": 2569,
  "sug": 2570,
  "újság": 2571,
  "elve": 2572,
  "udomány": 2573,
  "ábbi": 2574,
  "orvát": 2575,
  "part": 2576,
  "mun": 2577,
  "hő": 2578,
  "ham": 2579,
  "néhány": 2580,
  "Szer": 2581,
  "amit": 2582,
  "ettek": 2583,
  "színház": 2584,
  "1990": 2585,
  "atlan": 2586,
  "lesz": 2587,
  "regény": 2588,
  "fegy": 2589,
  "erdélyi": 2590,
  "mozg": 2591,
  "ler": 2592,
  "fejedelem": 2593,
  "kerül": 2594,
  "következő": 2595,
  "sági": 2596,
  "biztos": 2597,
  "szlov": 2598,
  "országi": 2599,
  "ökk": 2600,
  "vol": 2601,
  "ódó": 2602,
  "vétel": 2603,
  "őket": 2604,
  "átor": 2605,
  "ros": 2606,
  "Ki": 2607,
  "esebb": 2608,
  "kil": 2609,
  "néven": 2610,
  "tábor": 2611,
  "eum": 2612,
  "Béla": 2613,
  "Hal": 2614,
  "ón": 2615,
  "fus": 2616,
  "2008": 2617,
  "kifej": 2618,
  "Lin": 2619,
  "Mon": 2620,
  "részecsk": 2621,
  "akik": 2622,
  "ségek": 2623,
  "mester": 2624,
  "2007": 2625,
  "rón": 2626,
  "lik": 2627,
  "fenn": 2628,
  "elnöke": 2629,
  "MTA": 2630,
  "áni": 2631,
  "med": 2632,
  "2006": 2633,
  "riszt": 2634,
  "Kap": 2635,
  "ie": 2636,
  "kön": 2637,
  "processzor": 2638,
  "szabály": 2639,
  "kormányz": 2640,
  "vér": 2641,
  "politikai": 2642,
  "jának": 2643,
  "techn": 2644,
  "száma": 2645,
  "fegyver": 2646,
  "John": 2647,
  "Szab": 2648,
  "gyűlés": 2649,
  "port": 2650,
  "Miklós": 2651,
  "váll": 2652,
  "ái": 2653,
  "ásokat": 2654,
  "ancs": 2655,
  "Király": 2656,
  "ven": 2657,
  "vizsgál": 2658,
  "arab": 2659,
  "gyermek": 2660,
  "ezzel": 2661,
  "ezen": 2662,
  "eken": 2663,
  "2004": 2664,
  "Színház": 2665,
  "átt": 2666,
  "obban": 2667,
  "zió": 2668,
  "Mind": 2669,
  "súly": 2670,
  "tárgy": 2671,
  "Francia": 2672,
  "Em": 2673,
  "Ed": 2674,
  "vonal": 2675,
  "Mih": 2676,
  "görög": 2677,
  "Bo": 2678,
  "változ": 2679,
  "áty": 2680,
  "var": 2681,
  "183": 2682,
  "ológiai": 2683,
  "áját": 2684,
  "rét": 2685,
  "Kar": 2686,
  "ennek": 2687,
  "Európa": 2688,
  "Kor": 2689,
  "oknak": 2690,
  "megjelen": 2691,
  "szob": 2692,
  "szolgál": 2693,
  "intéz": 2694,
  "óczi": 2695,
  "utol": 2696,
  "ly": 2697,
  "fehér": 2698,
  "ner": 2699,
  "gra": 2700,
  "szemben": 2701,
  "földi": 2702,
  "nemzetközi": 2703,
  "használt": 2704,
  "először": 2705,
  "Ro": 2706,
  "melyek": 2707,
  "ázó": 2708,
  "hív": 2709,
  "red": 2710,
  "Győztes": 2711,
  "mon": 2712,
  "inkább": 2713,
  "ileg": 2714,
  "ásának": 2715,
  "ezik": 2716,
  "ebben": 2717,
  "Mihály": 2718,
  "viszony": 2719,
  "essz": 2720,
  "pal": 2721,
  "gondol": 2722,
  "mérték": 2723,
  "Erdély": 2724,
  "helyett": 2725,
  "rat": 2726,
  "eredet": 2727,
  "2003": 2728,
  "vél": 2729,
  "ogy": 2730,
  "fer": 2731,
  "ce": 2732,
  "énz": 2733,
  "tit": 2734,
  "általános": 2735,
  "űz": 2736,
  "Ge": 2737,
  "Forr": 2738,
  "spanyol": 2739,
  "folyamat": 2740,
  "vid": 2741,
  "Rákóczi": 2742,
  "kiad": 2743,
  "feleség": 2744,
  "OS": 2745,
  "közl": 2746,
  "rajz": 2747,
  "meghatár": 2748,
  "jut": 2749,
  "Gábor": 2750,
  "jekt": 2751,
  "Ezek": 2752,
  "román": 2753,
  "megfelelő": 2754,
  "Ber": 2755,
  "átum": 2756,
  "anak": 2757,
  "Hab": 2758,
  "szovjet": 2759,
  "írt": 2760,
  "esek": 2761,
  "tiz": 2762,
  "csökk": 2763,
  "ékeny": 2764,
  "2005": 2765,
  "latin": 2766,
  "bor": 2767,
  "Mag": 2768,
  "sburg": 2769,
  "Magyarországon": 2770,
  "bem": 2771,
  "forg": 2772,
  "mik": 2773,
  "ákat": 2774,
  "obl": 2775,
  "arra": 2776,
  "alakult": 2777,
  "lel": 2778,
  "ezer": 2779,
  "években": 2780,
  "újságíró": 2781,
  "ébe": 2782,
  "Gr": 2783,
  "állít": 2784,
  "katolikus": 2785,
  "matematikus": 2786,
  "nemzeti": 2787,
  "iss": 2788,
  "Am": 2789,
  "kos": 2790,
  "Tr": 2791,
  "ga": 2792,
  "kett": 2793,
  "ségét": 2794,
  "jt": 2795,
  "világháború": 2796,
  "tur": 2797,
  "cz": 2798,
  "Imre": 2799,
  "vé": 2800,
  "Kö": 2801,
  "cég": 2802,
  "Mic": 2803,
  "vette": 2804,
  "seb": 2805,
  "nes": 2806,
  "személyek": 2807,
  "ésével": 2808,
  "utolsó": 2809,
  "András": 2810,
  "2001": 2811,
  "készült": 2812,
  "Pa": 2813,
  "da": 2814,
  "ice": 2815,
  "felfed": 2816,
  "ack": 2817,
  "krit": 2818,
  "itás": 2819,
  "Har": 2820,
  "50": 2821,
  "gen": 2822,
  "abban": 2823,
  "pénz": 2824,
  "neut": 2825,
  "hol": 2826,
  "szolgált": 2827,
  "hy": 2828,
  "nyer": 2829,
  "akat": 2830,
  "áig": 2831,
  "ry": 2832,
  "birt": 2833,
  "foglalk": 2834,
  "Pet": 2835,
  "ca": 2836,
  "fa": 2837,
  "közvet": 2838,
  "Mari": 2839,
  "harmad": 2840,
  "pró": 2841,
  "nagydíj": 2842,
  "igen": 2843,
  "használat": 2844,
  "szent": 2845,
  "2002": 2846,
  "ítette": 2847,
  "km": 2848,
  "maradt": 2849,
  "keresked": 2850,
  "nincs": 2851,
  "1989": 2852,
  "jük": 2853,
  "történész": 2854,
  "társad": 2855,
  "Egyetem": 2856,
  "sugár": 2857,
  "probl": 2858,
  "fizikus": 2859,
  "óra": 2860,
  "ier": 2861,
  "Micros": 2862,
  "birtok": 2863,
  "fordító": 2864,
  "bbi": 2865,
  "ottak": 2866,
  "kísérlet": 2867,
  "ky": 2868,
  "Car": 2869,
  "parancs": 2870,
  "őt": 2871,
  "cser": 2872,
  "osztály": 2873,
  "Habsburg": 2874,
  "level": 2875,
  "szeg": 2876,
  "figyel": 2877,
  "forrás": 2878,
  "egyetlen": 2879,
  "problém": 2880,
  "gal": 2881,
  "sék": 2882,
  "sa": 2883,
  "2010": 2884,
  "ger": 2885,
  "egyetemi": 2886,
  "szervez": 2887,
  "amelyet": 2888,
  "enged": 2889,
  "ábban": 2890,
  "Új": 2891,
  "gr": 2892,
  "vannak": 2893,
  "keresztény": 2894,
  "ától": 2895,
  "távol": 2896,
  "ságot": 2897,
  "ésére": 2898,
  "felé": 2899,
  "nal": 2900,
  "listája": 2901,
  "szen": 2902,
  "ekkor": 2903,
  "mérnök": 2904,
  "eredeti": 2905,
  "melynek": 2906,
  "cseh": 2907,
  "1994": 2908,
  "köztársaság": 2909,
  "volna": 2910,
  "indul": 2911,
  "hadsereg": 2912,
  "királyi": 2913,
  "vesz": 2914,
  "úra": 2915,
  "szintén": 2916,
  "nyilván": 2917,
  "hivatalos": 2918,
  "szócikk": 2919,
  "viszont": 2920,
  "Források": 2921,
  "ita": 2922,
  "reform": 2923,
  "tett": 2924,
  "területén": 2925,
  "legtöbb": 2926,
  "lám": 2927,
  "kik": 2928,
  "maga": 2929,
  "Be": 2930,
  "sport": 2931,
  "észeti": 2932,
  "játsz": 2933,
  "adi": 2934,
  "31": 2935,
  "újra": 2936,
  "Len": 2937,
  "katonai": 2938,
  "figy": 2939,
  "menny": 2940,
  "neh": 2941,
  "élő": 2942,
  "Jász": 2943,
  "se": 2944,
  "úja": 2945,
  "ona": 2946,
  "ung": 2947,
  "ügyi": 2948,
  "ásával": 2949,
  "ini": 2950,
  "1980": 2951,
  "1945": 2952,
  "atív": 2953,
  "lo": 2954,
  "urális": 2955,
  "ust": 2956,
  "dió": 2957,
  "könny": 2958,
  "bal": 2959,
  "ánya": 2960,
  "Ennek": 2961,
  "gyakran": 2962,
  "kölcs": 2963,
  "lakosság": 2964,
  "ory": 2965,
  "ko": 2966,
  "űv": 2967,
  "ásár": 2968,
  "aként": 2969,
  "sorban": 2970,
  "trón": 2971,
  "80": 2972,
  "ori": 2973,
  "atot": 2974,
  "Tam": 2975,
  "Ben": 2976,
  "ozs": 2977,
  "rog": 2978,
  "áris": 2979,
  "csillagász": 2980,
  "tom": 2981,
  "otel": 2982,
  "dok": 2983,
  "Linux": 2984,
  "Ezt": 2985,
  "stb": 2986,
  "olvas": 2987,
  "ezték": 2988,
  "Gyula": 2989,
  "und": 2990,
  "2011": 2991,
  "uralkodó": 2992,
  "bit": 2993,
  "magát": 2994,
  "ism": 2995,
  "kém": 2996,
  "Microsoft": 2997,
  "megsz": 2998,
  "Rom": 2999,
  "neve": 3000,
  "Akadém": 3001,
  "modell": 3002,
  "oftver": 3003,
  "La": 3004,
  "alapító": 3005,
  "kin": 3006,
  "haz": 3007,
  "cent": 3008,
  "ument": 3009,
  "folytat": 3010,
  "179": 3011,
  "szabadság": 3012,
  "hét": 3013,
  "gl": 3014,
  "hagyomány": 3015,
  "tette": 3016,
  "vári": 3017,
  "bben": 3018,
  "1984": 3019,
  "Ter": 3020,
  "üt": 3021,
  "vett": 3022,
  "ellent": 3023,
  "dre": 3024,
  "származású": 3025,
  "fut": 3026,
  "hó": 3027,
  "ck": 3028,
  "rak": 3029,
  "etett": 3030,
  "hajt": 3031,
  "iában": 3032,
  "nagyon": 3033,
  "git": 3034,
  "Os": 3035,
  "egyszerű": 3036,
  "ágy": 3037,
  "AT": 3038,
  "tanács": 3039,
  "ilag": 3040,
  "New": 3041,
  "szim": 3042,
  "mérsék": 3043,
  "Jászai": 3044,
  "műve": 3045,
  "oktat": 3046,
  "jét": 3047,
  "olta": 3048,
  "usztrál": 3049,
  "korábbi": 3050,
  "szerződés": 3051,
  "modern": 3052,
  "ással": 3053,
  "tartomány": 3054,
  "feltétel": 3055,
  "ukat": 3056,
  "ázs": 3057,
  "vad": 3058,
  "jelleg": 3059,
  "segítség": 3060,
  "jött": 3061,
  "inter": 3062,
  "hull": 3063,
  "teljesen": 3064,
  "Nép": 3065,
  "Ró": 3066,
  "str": 3067,
  "üntet": 3068,
  "Tudomány": 3069,
  "azonos": 3070,
  "éből": 3071,
  "érkez": 3072,
  "beli": 3073,
  "helyi": 3074,
  "emelked": 3075,
  "mit": 3076,
  "1991": 3077,
  "ője": 3078,
  "állapot": 3079,
  "közleked": 3080,
  "ipar": 3081,
  "64": 3082,
  "Com": 3083,
  "kapott": 3084,
  "irodalmi": 3085,
  "megjelent": 3086,
  "2009": 3087,
  "azz": 3088,
  "rég": 3089,
  "szoci": 3090,
  "the": 3091,
  "hosszú": 3092,
  "állt": 3093,
  "jeszt": 3094,
  "nevezett": 3095,
  "vasút": 3096,
  "vállal": 3097,
  "hozzá": 3098,
  "íció": 3099,
  "jellemző": 3100,
  "Dél": 3101,
  "olland": 3102,
  "komp": 3103,
  "Máty": 3104,
  "mindig": 3105,
  "ésű": 3106,
  "Európai": 3107,
  "1997": 3108,
  "öm": 3109,
  "1998": 3110,
  "egyre": 3111,
  "car": 3112,
  "Val": 3113,
  "épület": 3114,
  "évben": 3115,
  "60": 3116,
  "szoftver": 3117,
  "keletkez": 3118,
  "forrad": 3119,
  "ásra": 3120,
  "amelynek": 3121,
  "bud": 3122,
  "tein": 3123,
  "ekv": 3124,
  "land": 3125,
  "ográ": 3126,
  "jából": 3127,
  "esi": 3128,
  "1944": 3129,
  "Halál": 3130,
  "helyzet": 3131,
  "elfoglal": 3132,
  "det": 3133,
  "ila": 3134,
  "uz": 3135,
  "énekesnő": 3136,
  "ikában": 3137,
  "végül": 3138,
  "einek": 3139,
  "ella": 3140,
  "Fel": 3141,
  "eci": 3142,
  "ork": 3143,
  "szolgáltat": 3144,
  "kín": 3145,
  "Biz": 3146,
  "ozta": 3147,
  "tanulmány": 3148,
  "további": 3149,
  "kő": 3150,
  "1999": 3151,
  "nyíl": 3152,
  "veszt": 3153,
  "széd": 3154,
  "viz": 3155,
  "lic": 3156,
  "eknek": 3157,
  "korábban": 3158,
  "Jan": 3159,
  "svéd": 3160,
  "alma": 3161,
  "Zolt": 3162,
  "örök": 3163,
  "évi": 3164,
  "halmaz": 3165,
  "működés": 3166,
  "bő": 3167,
  "nyugati": 3168,
  "bolygó": 3169,
  "180": 3170,
  "páp": 3171,
  "tehát": 3172,
  "úzeum": 3173,
  "IV": 3174,
  "utt": 3175,
  "por": 3176,
  "színű": 3177,
  "végre": 3178,
  "mennyiség": 3179,
  "évő": 3180,
  "izál": 3181,
  "létrehoz": 3182,
  "megye": 3183,
  "tev": 3184,
  "bán": 3185,
  "Mer": 3186,
  "40": 3187,
  "nyit": 3188,
  "Osz": 3189,
  "zár": 3190,
  "ányi": 3191,
  "eged": 3192,
  "tudományos": 3193,
  "Zoltán": 3194,
  "Fil": 3195,
  "kéz": 3196,
  "ssz": 3197,
  "Kon": 3198,
  "vásár": 3199,
  "hegy": 3200,
  "lament": 3201,
  "hold": 3202,
  "ral": 3203,
  "2012": 3204,
  "mot": 3205,
  "Köztársaság": 3206,
  "Bet": 3207,
  "operációs": 3208,
  "ényi": 3209,
  "íti": 3210,
  "Inter": 3211,
  "ejt": 3212,
  "Willi": 3213,
  "SA": 3214,
  "puszt": 3215,
  "szok": 3216,
  "100": 3217,
  "ései": 3218,
  "városi": 3219,
  "császári": 3220,
  "ézet": 3221,
  "vonatk": 3222,
  "hál": 3223,
  "Hen": 3224,
  "lévő": 3225,
  "nevű": 3226,
  "2016": 3227,
  "ou": 3228,
  "sebesség": 3229,
  "azok": 3230,
  "Man": 3231,
  "ismét": 3232,
  "melyet": 3233,
  "1993": 3234,
  "barát": 3235,
  "oni": 3236,
  "Gal": 3237,
  "egyéb": 3238,
  "elég": 3239,
  "vegy": 3240,
  "1988": 3241,
  "Dun": 3242,
  "templom": 3243,
  "les": 3244,
  "energi": 3245,
  "olf": 3246,
  "1986": 3247,
  "japán": 3248,
  "festőművész": 3249,
  "cion": 3250,
  "Mátyás": 3251,
  "áth": 3252,
  "követően": 3253,
  "Di": 3254,
  "imn": 3255,
  "akar": 3256,
  "eltér": 3257,
  "1996": 3258,
  "Per": 3259,
  "bizonyos": 3260,
  "indult": 3261,
  "éve": 3262,
  "emes": 3263,
  "ésének": 3264,
  "kó": 3265,
  "William": 3266,
  "filozófus": 3267,
  "vető": 3268,
  "harmadik": 3269,
  "Att": 3270,
  "többi": 3271,
  "módszer": 3272,
  "valós": 3273,
  "győz": 3274,
  "támad": 3275,
  "Ferdin": 3276,
  "állítás": 3277,
  "Mária": 3278,
  "ekete": 3279,
  "ekre": 3280,
  "talan": 3281,
  "csapat": 3282,
  "közötti": 3283,
  "tény": 3284,
  "Orosz": 3285,
  "ast": 3286,
  "Te": 3287,
  "Ár": 3288,
  "században": 3289,
  "ásban": 3290,
  "Tamás": 3291,
  "2014": 3292,
  "ach": 3293,
  "1992": 3294,
  "86": 3295,
  "elsősorban": 3296,
  "oznak": 3297,
  "otelész": 3298,
  "aut": 3299,
  "közt": 3300,
  "Ver": 3301,
  "fl": 3302,
  "1977": 3303,
  "egyez": 3304,
  "mező": 3305,
  "örös": 3306,
  "felső": 3307,
  "képes": 3308,
  "keleti": 3309,
  "ins": 3310,
  "Hat": 3311,
  "repülőgép": 3312,
  "Államok": 3313,
  "elte": 3314,
  "tört": 3315,
  "fejlődés": 3316,
  "Bel": 3317,
  "almas": 3318,
  "rab": 3319,
  "bemutat": 3320,
  "rán": 3321,
  "átus": 3322,
  "ízi": 3323,
  "Lengyel": 3324,
  "fikus": 3325,
  "szár": 3326,
  "rogén": 3327,
  "ence": 3328,
  "tém": 3329,
  "Kapcsol": 3330,
  "enz": 3331,
  "férfi": 3332,
  "ökök": 3333,
  "Leg": 3334,
  "asztal": 3335,
  "to": 3336,
  "ple": 3337,
  "cha": 3338,
  "Ker": 3339,
  "enci": 3340,
  "ánc": 3341,
  "helyez": 3342,
  "csatlak": 3343,
  "Par": 3344,
  "szempont": 3345,
  "mérséklet": 3346,
  "áld": 3347,
  "He": 3348,
  "újabb": 3349,
  "vi": 3350,
  "1995": 3351,
  "gróf": 3352,
  "rín": 3353,
  "2015": 3354,
  "észak": 3355,
  "iptom": 3356,
  "pia": 3357,
  "1985": 3358,
  "kár": 3359,
  "Re": 3360,
  "termék": 3361,
  "Ariszt": 3362,
  "okra": 3363,
  "1979": 3364,
  "Amerikai": 3365,
  "ókat": 3366,
  "kötött": 3367,
  "végén": 3368,
  "2020": 3369,
  "web": 3370,
  "esetén": 3371,
  "időszak": 3372,
  "Tur": 3373,
  "gyógyszer": 3374,
  "meghal": 3375,
  "részét": 3376,
  "Királyság": 3377,
  "enő": 3378,
  "miniszterelnök": 3379,
  "Észak": 3380,
  "ozza": 3381,
  "hullám": 3382,
  "hí": 3383,
  "folyó": 3384,
  "prób": 3385,
  "Kis": 3386,
  "története": 3387,
  "zsa": 3388,
  "1987": 3389,
  "ean": 3390,
  "lény": 3391,
  "ájában": 3392,
  "különböz": 3393,
  "Lip": 3394,
  "ítani": 3395,
  "kölcsön": 3396,
  "éj": 3397,
  "bl": 3398,
  "ideg": 3399,
  "szavak": 3400,
  "onyi": 3401,
  "vidék": 3402,
  "akár": 3403,
  "alista": 3404,
  "nyel": 3405,
  "ozz": 3406,
  "Könyv": 3407,
  "pro": 3408,
  "kény": 3409,
  "közé": 3410,
  "Paul": 3411,
  "Ország": 3412,
  "gyárt": 3413,
  "megold": 3414,
  "co": 3415,
  "hőmérséklet": 3416,
  "megfigyel": 3417,
  "Oszmán": 3418,
  "összes": 3419,
  "kellett": 3420,
  "nyelvű": 3421,
  "érz": 3422,
  "ten": 3423,
  "szön": 3424,
  "Esem": 3425,
  "fran": 3426,
  "Fri": 3427,
  "magyarországi": 3428,
  "Események": 3429,
  "könyvtár": 3430,
  "kevés": 3431,
  "bum": 3432,
  "csökkent": 3433,
  "lin": 3434,
  "köny": 3435,
  "filmrendező": 3436,
  "béke": 3437,
  "önálló": 3438,
  "tevékeny": 3439,
  "onok": 3440,
  "szerkez": 3441,
  "zsid": 3442,
  "amb": 3443,
  "ester": 3444,
  "elején": 3445,
  "közben": 3446,
  "Bécs": 3447,
  "Kr": 3448,
  "Péld": 3449,
  "Kapcsolódó": 3450,
  "együttes": 3451,
  "nyt": 3452,
  "áram": 3453,
  "drám": 3454,
  "1983": 3455,
  "isten": 3456,
  "ellem": 3457,
  "kezdet": 3458,
  "sk": 3459,
  "mem": 3460,
  "jelenti": 3461,
  "elemben": 3462,
  "sí": 3463,
  "szócikkek": 3464,
  "endő": 3465,
  "ottság": 3466,
  "Dr": 3467,
  "Irod": 3468,
  "Társ": 3469,
  "Szület": 3470,
  "1918": 3471,
  "ítják": 3472,
  "közvetlen": 3473,
  "keresztül": 3474,
  "mintegy": 3475,
  "szerkesztő": 3476,
  "bom": 3477,
  "emok": 3478,
  "méter": 3479,
  "oszmán": 3480,
  "atták": 3481,
  "kommun": 3482,
  "Brit": 3483,
  "ún": 3484,
  "kötel": 3485,
  "til": 3486,
  "utóbbi": 3487,
  "Cl": 3488,
  "enyi": 3489,
  "ozása": 3490,
  "hatók": 3491,
  "terem": 3492,
  "1970": 3493,
  "sikerült": 3494,
  "utaz": 3495,
  "városban": 3496,
  "esetben": 3497,
  "ílus": 3498,
  "Horvát": 3499,
  "ogatott": 3500,
  "ozni": 3501,
  "1975": 3502,
  "Jel": 3503,
  "ián": 3504,
  "köt": 3505,
  "ítése": 3506,
  "későbbi": 3507,
  "ainak": 3508,
  "ellenére": 3509,
  "éch": 3510,
  "filozófi": 3511,
  "jegyz": 3512,
  "Attila": 3513,
  "költ": 3514,
  "gató": 3515,
  "igény": 3516,
  "részben": 3517,
  "1960": 3518,
  "1978": 3519,
  "szeres": 3520,
  "1982": 3521,
  "házas": 3522,
  "Iz": 3523,
  "1956": 3524,
  "állandó": 3525,
  "speci": 3526,
  "hall": 3527,
  "nie": 3528,
  "bek": 3529,
  "últ": 3530,
  "ájának": 3531,
  "Zsig": 3532,
  "ismerte": 3533,
  "ázis": 3534,
  "pe": 3535,
  "írta": 3536,
  "sugárz": 3537,
  "Történ": 3538,
  "Szovjet": 3539,
  "műfordító": 3540,
  "prod": 3541,
  "köszön": 3542,
  "170": 3543,
  "ékony": 3544,
  "kerület": 3545,
  "bíró": 3546,
  "Zsigmond": 3547,
  "Ferdinánd": 3548,
  "szlovák": 3549,
  "belső": 3550,
  "ke": 3551,
  "illa": 3552,
  "szobr": 3553,
  "com": 3554,
  "1974": 3555,
  "Arisztotelész": 3556,
  "erek": 3557,
  "onban": 3558,
  "különös": 3559,
  "tábornok": 3560,
  "Open": 3561,
  "fot": 3562,
  "Németország": 3563,
  "neutrín": 3564,
  "udvar": 3565,
  "our": 3566,
  "unió": 3567,
  "1948": 3568,
  "édia": 3569,
  "emberek": 3570,
  "Szék": 3571,
  "fáj": 3572,
  "segítségével": 3573,
  "népszerű": 3574,
  "parancsnok": 3575,
  "Széch": 3576,
  "adta": 3577,
  "1981": 3578,
  "poz": 3579,
  "Halálozások": 3580,
  "hisz": 3581,
  "Születések": 3582,
  "lev": 3583,
  "hidrogén": 3584,
  "Apple": 3585,
  "kiadó": 3586,
  "Her": 3587,
  "Bár": 3588,
  "ezi": 3589,
  "1976": 3590,
  "koron": 3591,
  "fon": 3592,
  "inn": 3593,
  "beteg": 3594,
  "üsp": 3595,
  "zó": 3596,
  "Bor": 3597,
  "jöv": 3598,
  "32": 3599,
  "Tanács": 3600,
  "utasítás": 3601,
  "Más": 3602,
  "felett": 3603,
  "hunyt": 3604,
  "Zr": 3605,
  "láz": 3606,
  "Pest": 3607,
  "opera": 3608,
  "rad": 3609,
  "utal": 3610,
  "album": 3611,
  "Col": 3612,
  "pápa": 3613,
  "ezred": 3614,
  "hálóz": 3615,
  "2017": 3616,
  "oszl": 3617,
  "alg": 3618,
  "Akadémia": 3619,
  "1940": 3620,
  "berg": 3621,
  "fontosabb": 3622,
  "parlament": 3623,
  "színművész": 3624,
  "oy": 3625,
  "elnevez": 3626,
  "Nemzetközi": 3627,
  "hód": 3628,
  "ley": 3629,
  "rag": 3630,
  "idej": 3631,
  "1973": 3632,
  "oka": 3633,
  "169": 3634,
  "Pol": 3635,
  "rendszerek": 3636,
  "1922": 3637,
  "idején": 3638,
  "1972": 3639,
  "zenész": 3640,
  "ává": 3641,
  "2013": 3642,
  "lít": 3643,
  "csapatok": 3644,
  "Fő": 3645,
  "1930": 3646,
  "pap": 3647,
  "uló": 3648,
  "befoly": 3649,
  "tárgyal": 3650,
  "tartott": 3651,
  "sokkal": 3652,
  "adai": 3653,
  "robban": 3654,
  "Wik": 3655,
  "ódik": 3656,
  "1946": 3657,
  "Franciaország": 3658,
  "1950": 3659,
  "negyed": 3660,
  "női": 3661,
  "écsi": 3662,
  "ökös": 3663,
  "Isten": 3664,
  "Báth": 3665,
  "elterjed": 3666,
  "kr": 3667,
  "kiadás": 3668,
  "Jos": 3669,
  "atur": 3670,
  "adja": 3671,
  "uális": 3672,
  "nevek": 3673,
  "adatok": 3674,
  "módon": 3675,
  "gyil": 3676,
  "Géz": 3677,
  "tíz": 3678,
  "halála": 3679,
  "Tudományos": 3680,
  "Lipót": 3681,
  "Sc": 3682,
  "étől": 3683,
  "addig": 3684,
  "Pár": 3685,
  "grafikus": 3686,
  "ológi": 3687,
  "Fi": 3688,
  "ezése": 3689,
  "umentum": 3690,
  "Mivel": 3691,
  "rec": 3692,
  "70": 3693,
  "elmet": 3694,
  "művészet": 3695,
  "ágnes": 3696,
  "apja": 3697,
  "hajó": 3698,
  "üzem": 3699,
  "tartozik": 3700,
  "ald": 3701,
  "püsp": 3702,
  "vallási": 3703,
  "chan": 3704,
  "ria": 3705,
  "szükség": 3706,
  "mellék": 3707,
  "verzió": 3708,
  "emberi": 3709,
  "fizikai": 3710,
  "gáz": 3711,
  "ölgy": 3712,
  "lényeg": 3713,
  "okból": 3714,
  "álta": 3715,
  "Char": 3716,
  "elektrom": 3717,
  "csony": 3718,
  "jelenleg": 3719,
  "kapta": 3720,
  "ítél": 3721,
  "1920": 3722,
  "olták": 3723,
  "bin": 3724,
  "ésre": 3725,
  "időben": 3726,
  "Tel": 3727,
  "épült": 3728,
  "Sport": 3729,
  "tudós": 3730,
  "lemond": 3731,
  "Párt": 3732,
  "fájl": 3733,
  "jól": 3734,
  "Élet": 3735,
  "ésben": 3736,
  "újt": 3737,
  "hir": 3738,
  "Géza": 3739,
  "látható": 3740,
  "Ezen": 3741,
  "ves": 3742,
  "ölcs": 3743,
  "Robert": 3744,
  "magasabb": 3745,
  "őség": 3746,
  "rich": 3747,
  "Ér": 3748,
  "ettel": 3749,
  "Széchenyi": 3750,
  "gyűlési": 3751,
  "ovics": 3752,
  "szül": 3753,
  "pontos": 3754,
  "szövetség": 3755,
  "nor": 3756,
  "Sy": 3757,
  "rek": 3758,
  "Albert": 3759,
  "kínai": 3760,
  "kutató": 3761,
  "kvan": 3762,
  "azzal": 3763,
  "iskola": 3764,
  "szinte": 3765,
  "Kül": 3766,
  "Kl": 3767,
  "alkotmány": 3768,
  "age": 3769,
  "oztat": 3770,
  "tum": 3771,
  "környezet": 3772,
  "fiatal": 3773,
  "éki": 3774,
  "kán": 3775,
  "beszéd": 3776,
  "iter": 3777,
  "Oscar": 3778,
  "ellentét": 3779,
  "Is": 3780,
  "Kál": 3781,
  "oló": 3782,
  "1919": 3783,
  "főváros": 3784,
  "Világ": 3785,
  "Ág": 3786,
  "férfin": 3787,
  "Ugyan": 3788,
  "1968": 3789,
  "1969": 3790,
  "találk": 3791,
  "főleg": 3792,
  "ítvány": 3793,
  "útt": 3794,
  "akad": 3795,
  "ved": 3796,
  "zenek": 3797,
  "ítették": 3798,
  "áki": 3799,
  "ibor": 3800,
  "irat": 3801,
  "törökök": 3802,
  "defin": 3803,
  "helyen": 3804,
  "kur": 3805,
  "rand": 3806,
  "valószínű": 3807,
  "örökös": 3808,
  "Dav": 3809,
  "történt": 3810,
  "Kiadó": 3811,
  "Olasz": 3812,
  "168": 3813,
  "kapit": 3814,
  "szóló": 3815,
  "hivatk": 3816,
  "tagjai": 3817,
  "orn": 3818,
  "Nyug": 3819,
  "vív": 3820,
  "polgár": 3821,
  "Szám": 3822,
  "országgyűlés": 3823,
  "olja": 3824,
  "üket": 3825,
  "legjobb": 3826,
  "zetes": 3827,
  "Micha": 3828,
  "hard": 3829,
  "amelyben": 3830,
  "funk": 3831,
  "szakasz": 3832,
  "fogy": 3833,
  "etet": 3834,
  "ököl": 3835,
  "bil": 3836,
  "összet": 3837,
  "éta": 3838,
  "áló": 3839,
  "megállap": 3840,
  "érdekében": 3841,
  "váj": 3842,
  "védelmi": 3843,
  "felszín": 3844,
  "jön": 3845,
  "alapítója": 3846,
  "ús": 3847,
  "klassz": 3848,
  "bíz": 3849,
  "au": 3850,
  "szükséges": 3851,
  "elfogad": 3852,
  "bocs": 3853,
  "használják": 3854,
  "hónap": 3855,
  "zik": 3856,
  "kv": 3857,
  "ore": 3858,
  "kanadai": 3859,
  "képző": 3860,
  "módos": 3861,
  "160": 3862,
  "etében": 3863,
  "holland": 3864,
  "kiter": 3865,
  "alacsony": 3866,
  "táj": 3867,
  "állom": 3868,
  "éppen": 3869,
  "Tibor": 3870,
  "Kol": 3871,
  "2018": 3872,
  "rik": 3873,
  "isták": 3874,
  "naptár": 3875,
  "érvény": 3876,
  "ht": 3877,
  "Ek": 3878,
  "1962": 3879,
  "sek": 3880,
  "1927": 3881,
  "ava": 3882,
  "pád": 3883,
  "obs": 3884,
  "ítások": 3885,
  "legyen": 3886,
  "szereplő": 3887,
  "tartó": 3888,
  "1941": 3889,
  "töm": 3890,
  "ica": 3891,
  "2019": 3892,
  "ster": 3893,
  "táb": 3894,
  "logika": 3895,
  "történelmi": 3896,
  "munka": 3897,
  "Jenő": 3898,
  "energia": 3899,
  "Ig": 3900,
  "uel": 3901,
  "zük": 3902,
  "ezni": 3903,
  "1914": 3904,
  "jelentette": 3905,
  "hetően": 3906,
  "dor": 3907,
  "ise": 3908,
  "csi": 3909,
  "Michael": 3910,
  "Mat": 3911,
  "Elő": 3912,
  "eként": 3913,
  "jára": 3914,
  "lott": 3915,
  "tized": 3916,
  "pán": 3917,
  "értelemben": 3918,
  "arany": 3919,
  "1926": 3920,
  "rem": 3921,
  "kb": 3922,
  "ola": 3923,
  "hlen": 3924,
  "gyűjt": 3925,
  "díjat": 3926,
  "che": 3927,
  "világbajnok": 3928,
  "nőtt": 3929,
  "függvény": 3930,
  "Árpád": 3931,
  "intern": 3932,
  "felesége": 3933,
  "egyszer": 3934,
  "horvát": 3935,
  "Báthory": 3936,
  "bont": 3937,
  "akter": 3938,
  "ágneses": 3939,
  "változtat": 3940,
  "Így": 3941,
  "bele": 3942,
  "Unió": 3943,
  "EN": 3944,
  "Sim": 3945,
  "átlag": 3946,
  "mechan": 3947,
  "nyílt": 3948,
  "szenved": 3949,
  "korszak": 3950,
  "gyár": 3951,
  "éig": 3952,
  "ozási": 3953,
  "növeked": 3954,
  "hom": 3955,
  "ffice": 3956,
  "visszat": 3957,
  "ling": 3958,
  "diplom": 3959,
  "Office": 3960,
  "lehetővé": 3961,
  "Antal": 3962,
  "Rich": 3963,
  "kérd": 3964,
  "kulturális": 3965,
  "űrű": 3966,
  "anti": 3967,
  "avar": 3968,
  "Szil": 3969,
  "konc": 3970,
  "éssel": 3971,
  "mez": 3972,
  "reak": 3973,
  "ino": 3974,
  "bevezet": 3975,
  "Fr": 3976,
  "íteni": 3977,
  "esk": 3978,
  "1957": 3979,
  "megalap": 3980,
  "olás": 3981,
  "1949": 3982,
  "Szlov": 3983,
  "vagyis": 3984,
  "közösség": 3985,
  "méret": 3986,
  "többek": 3987,
  "csom": 3988,
  "Ab": 3989,
  "kifejezés": 3990,
  "Kan": 3991,
  "Star": 3992,
  "érdemes": 3993,
  "úszó": 3994,
  "ítmény": 3995,
  "mos": 3996,
  "Jobs": 3997,
  "egészen": 3998,
  "ódott": 3999
}