{
  "<unk>": 0,
  "<pad>": 1,
  " ": 3,
  "!": 4,
  "\"": 5,
  "#": 6,
  "$": 7,
  "%": 8,
  "&": 9,
  "'": 10,
  "(": 11,
  ")": 12,
  "*": 13,
  "+": 14,
  ",": 15,
  "-": 16,
  ".": 17,
  "/": 18,
  "0": 19,
  "1": 20,
  "2": 21,
  "3": 22,
  "4": 23,
  "5": 24,
  "6": 25,
  "7": 26,
  "8": 27,
  "9": 28,
  ":": 29,
  ";": 30,
  "<": 31,
  "=": 32,
  ">": 33,
  "?": 34,
  "@": 35,
  "A": 36,
  "B": 37,
  "C": 38,
  "D": 39,
  "E": 40,
  "F": 41,
  "G": 42,
  "H": 43,
  "I": 44,
  "J": 45,
  "K": 46,
  "L": 47,
  "M": 48,
  "N": 49,
  "O": 50,
  "P": 51,
  "Q": 52,
  "R": 53,
  "S": 54,
  "T": 55,
  "U": 56,
  "V": 57,
  "W": 58,
  "X": 59,
  "Y": 60,
  "Z": 61,
  "[": 62,
  "\\": 63,
  "]": 64,
  "^": 65,
  "_": 66,
  "`": 67,
  "a": 68,
  "b": 69,
  "c": 70,
  "d": 71,
  "e": 72,
  "f": 73,
  "g": 74,
  "h": 75,
  "i": 76,
  "j": 77,
  "k": 78,
  "l": 79,
  "m": 80,
  "n": 81,
  "o": 82,
  "p": 83,
  "q": 84,
  "r": 85,
  "s": 86,
  "t": 87,
  "u": 88,
  "v": 89,
  "w": 90,
  "x": 91,
  "y": 92,
  "z": 93,
  "{": 94,
  "|": 95,
  "}": 96,
  "~": 97,
  "": 98,
  "¡": 99,
  "£": 100,
  "¤": 101,
  "§": 102,
  "¨": 103,
  "©": 104,
  "ª": 105,
  "«": 106,
  "­": 107,
  "¯": 108,
  "°": 109,
  "±": 110,
  "²": 111,
  "³": 112,
  "µ": 113,
  "·": 114,
  "¸": 115,
  "¹": 116,
  "º": 117,
  "»": 118,
  "¼": 119,
  "½": 120,
  "À": 121,
  "Á": 122,
  "Ä": 123,
  "Å": 124,
  "Ç": 125,
  "É": 126,
  "Í": 127,
  "Î": 128,
  "Ñ": 129,
  "Ó": 130,
  "Õ": 131,
  "Ö": 132,
  "×": 133,
  "Ø": 134,
  "Ú": 135,
  "Ü": 136,
  "Þ": 137,
  "ß": 138,
  "à": 139,
  "á": 140,
  "â": 141,
  "ã": 142,
  "ä": 143,
  "å": 144,
  "æ": 145,
  "ç": 146,
  "è": 147,
  "é": 148,
  "ê": 149,
  "ë": 150,
  "ì": 151,
  "í": 152,
  "î": 153,
  "ï": 154,
  "ð": 155,
  "ñ": 156,
  "ò": 157,
  "ó": 158,
  "ô": 159,
  "õ": 160,
  "ö": 161,
  "÷": 162,
  "ø": 163,
  "ù": 164,
  "ú": 165,
  "û": 166,
  "ü": 167,
  "ý": 168,
  "þ": 169,
  "ÿ": 170,
  "Ā": 171,
  "ā": 172,
  "ă": 173,
  "ą": 174,
  "ć": 175,
  "ĉ": 176,
  "Č": 177,
  "č": 178,
  "ď": 179,
  "đ": 180,
  "Ē": 181,
  "ē": 182,
  "ė": 183,
  "ę": 184,
  "ě": 185,
  "Ĝ": 186,
  "ĝ": 187,
  "ğ": 188,
  "Ģ": 189,
  "ĥ": 190,
  "ħ": 191,
  "Ī": 192,
  "ī": 193,
  "ĭ": 194,
  "İ": 195,
  "ı": 196,
  "ĵ": 197,
  "Ķ": 198,
  "Ļ": 199,
  "ļ": 200,
  "Ľ": 201,
  "ł": 202,
  "ń": 203,
  "Ņ": 204,
  "ņ": 205,
  "ň": 206,
  "ŋ": 207,
  "Ō": 208,
  "ō": 209,
  "Ő": 210,
  "ő": 211,
  "Œ": 212,
  "œ": 213,
  "ř": 214,
  "Ś": 215,
  "ś": 216,
  "Ŝ": 217,
  "ŝ": 218,
  "Ş": 219,
  "ş": 220,
  "Š": 221,
  "š": 222,
  "ţ": 223,
  "Ū": 224,
  "ū": 225,
  "ŭ": 226,
  "Ű": 227,
  "ű": 228,
  "ų": 229,
  "ŷ": 230,
  "ź": 231,
  "ż": 232,
  "Ž": 233,
  "ž": 234,
  "Ə": 235,
  "ƒ": 236,
  "Ɣ": 237,
  "ǎ": 238,
  "ǣ": 239,
  "ǧ": 240,
  "ǫ": 241,
  "ș": 242,
  "ț": 243,
  "ɑ": 244,
  "ɒ": 245,
  "ɔ": 246,
  "ə": 247,
  "ɛ": 248,
  "ɡ": 249,
  "ɣ": 250,
  "ɪ": 251,
  "ɬ": 252,
  "ɲ": 253,
  "ɹ": 254,
  "ɽ": 255,
  "ɾ": 256,
  "ʁ": 257,
  "ʃ": 258,
  "ʊ": 259,
  "ʒ": 260,
  "ʔ": 261,
  "ʤ": 262,
  "ʲ": 263,
  "ʷ": 264,
  "ʹ": 265,
  "ʻ": 266,
  "ʾ": 267,
  "ʿ": 268,
  "ˈ": 269,
  "ˌ": 270,
  "ː": 271,
  "ˑ": 272,
  "˘": 273,
  "ˠ": 274,
  "ˤ": 275,
  "̀": 276,
  "́": 277,
  "̃": 278,
  "̊": 279,
  "̯": 280,
  "͡": 281,
  "΄": 282,
  "Ά": 283,
  "Έ": 284,
  "Α": 285,
  "Β": 286,
  "Γ": 287,
  "Δ": 288,
  "Ε": 289,
  "Ζ": 290,
  "Η": 291,
  "Θ": 292,
  "Κ": 293,
  "Λ": 294,
  "Μ": 295,
  "Ν": 296,
  "Ο": 297,
  "Π": 298,
  "Ρ": 299,
  "Σ": 300,
  "Υ": 301,
  "Φ": 302,
  "Χ": 303,
  "Ω": 304,
  "ά": 305,
  "έ": 306,
  "ή": 307,
  "ί": 308,
  "α": 309,
  "β": 310,
  "γ": 311,
  "δ": 312,
  "ε": 313,
  "ζ": 314,
  "η": 315,
  "θ": 316,
  "ι": 317,
  "κ": 318,
  "λ": 319,
  "μ": 320,
  "ν": 321,
  "ξ": 322,
  "ο": 323,
  "π": 324,
  "ρ": 325,
  "ς": 326,
  "σ": 327,
  "τ": 328,
  "υ": 329,
  "φ": 330,
  "χ": 331,
  "ψ": 332,
  "ω": 333,
  "ό": 334,
  "ύ": 335,
  "ώ": 336,
  "ϕ": 337,
  "ϝ": 338,
  "ϣ": 339,
  "Є": 340,
  "Ј": 341,
  "Ў": 342,
  "А": 343,
  "Б": 344,
  "В": 345,
  "Г": 346,
  "Д": 347,
  "Ж": 348,
  "И": 349,
  "К": 350,
  "М": 351,
  "Н": 352,
  "П": 353,
  "Р": 354,
  "С": 355,
  "Т": 356,
  "У": 357,
  "Ф": 358,
  "Х": 359,
  "Ю": 360,
  "а": 361,
  "б": 362,
  "в": 363,
  "г": 364,
  "д": 365,
  "е": 366,
  "ж": 367,
  "з": 368,
  "и": 369,
  "й": 370,
  "к": 371,
  "л": 372,
  "м": 373,
  "н": 374,
  "о": 375,
  "п": 376,
  "р": 377,
  "с": 378,
  "т": 379,
  "у": 380,
  "ф": 381,
  "х": 382,
  "ц": 383,
  "ч": 384,
  "ш": 385,
  "щ": 386,
  "ъ": 387,
  "ы": 388,
  "ь": 389,
  "ю": 390,
  "я": 391,
  "ѕ": 392,
  "і": 393,
  "ї": 394,
  "ј": 395,
  "љ": 396,
  "Қ": 397,
  "қ": 398,
  "ң": 399,
  "ү": 400,
  "ө": 401,
  "Ե": 402,
  "Հ": 403,
  "ա": 404,
  "ե": 405,
  "կ": 406,
  "յ": 407,
  "ն": 408,
  "ր": 409,
  "ւ": 410,
  "և": 411,
  "ְ": 412,
  "ִ": 413,
  "ֵ": 414,
  "ַ": 415,
  "ָ": 416,
  "ֹ": 417,
  "ּ": 418,
  "ׁ": 419,
  "ׂ": 420,
  "א": 421,
  "ב": 422,
  "ג": 423,
  "ד": 424,
  "ה": 425,
  "ו": 426,
  "ז": 427,
  "ח": 428,
  "ט": 429,
  "י": 430,
  "ך": 431,
  "כ": 432,
  "ל": 433,
  "ם": 434,
  "מ": 435,
  "ן": 436,
  "נ": 437,
  "ס": 438,
  "ע": 439,
  "ף": 440,
  "פ": 441,
  "ץ": 442,
  "צ": 443,
  "ק": 444,
  "ר": 445,
  "ש": 446,
  "ת": 447,
  "،": 448,
  "ؐ": 449,
  "؛": 450,
  "؜": 451,
  "؟": 452,
  "ء": 453,
  "آ": 454,
  "أ": 455,
  "ؤ": 456,
  "إ": 457,
  "ئ": 458,
  "ا": 459,
  "ب": 460,
  "ة": 461,
  "ت": 462,
  "ث": 463,
  "ج": 464,
  "ح": 465,
  "خ": 466,
  "د": 467,
  "ذ": 468,
  "ر": 469,
  "ز": 470,
  "س": 471,
  "ش": 472,
  "ص": 473,
  "ض": 474,
  "ط": 475,
  "ظ": 476,
  "ع": 477,
  "غ": 478,
  "ؿ": 479,
  "ـ": 480,
  "ف": 481,
  "ق": 482,
  "ك": 483,
  "ل": 484,
  "م": 485,
  "ن": 486,
  "ه": 487,
  "و": 488,
  "ى": 489,
  "ي": 490,
  "ً": 491,
  "ٌ": 492,
  "ٍ": 493,
  "َ": 494,
  "ُ": 495,
  "ِ": 496,
  "ّ": 497,
  "ْ": 498,
  "ٓ": 499,
  "ٔ": 500,
  "ٕ": 501,
  "ٞ": 502,
  "٠": 503,
  "١": 504,
  "٢": 505,
  "٣": 506,
  "٤": 507,
  "٥": 508,
  "٦": 509,
  "٧": 510,
  "٨": 511,
  "٩": 512,
  "٪": 513,
  "٫": 514,
  "٬": 515,
  "٭": 516,
  "ٰ": 517,
  "ٱ": 518,
  "ٲ": 519,
  "ٳ": 520,
  "ٹ": 521,
  "پ": 522,
  "ٿ": 523,
  "چ": 524,
  "ڈ": 525,
  "ژ": 526,
  "ڠ": 527,
  "ڤ": 528,
  "ڨ": 529,
  "ک": 530,
  "ڪ": 531,
  "ڭ": 532,
  "گ": 533,
  "ں": 534,
  "ھ": 535,
  "ہ": 536,
  "ۆ": 537,
  "ۈ": 538,
  "ی": 539,
  "ێ": 540,
  "ے": 541,
  "۔": 542,
  "ە": 543,
  "ۖ": 544,
  "ۚ": 545,
  "ۡ": 546,
  "۱": 547,
  "۳": 548,
  "۹": 549,
  "ܐ": 550,
  "ܒ": 551,
  "ܓ": 552,
  "ܕ": 553,
  "ܗ": 554,
  "ܘ": 555,
  "ܙ": 556,
  "ܚ": 557,
  "ܛ": 558,
  "ܝ": 559,
  "ܟ": 560,
  "ܠ": 561,
  "ܡ": 562,
  "ܢ": 563,
  "ܣ": 564,
  "ܤ": 565,
  "ܥ": 566,
  "ܦ": 567,
  "ܨ": 568,
  "ܩ": 569,
  "ܪ": 570,
  "ܫ": 571,
  "ܬ": 572,
  "ݘ": 573,
  "ݣ": 574,
  "ހ": 575,
  "ރ": 576,
  "އ": 577,
  "ވ": 578,
  "މ": 579,
  "ދ": 580,
  "ގ": 581,
  "ޔ": 582,
  "ޖ": 583,
  "ާ": 584,
  "ި": 585,
  "ު": 586,
  "ޫ": 587,
  "ެ": 588,
  "ޭ": 589,
  "ް": 590,
  "ऀ": 591,
  "ँ": 592,
  "ं": 593,
  "अ": 594,
  "आ": 595,
  "ओ": 596,
  "क": 597,
  "ग": 598,
  "च": 599,
  "ज": 600,
  "ण": 601,
  "त": 602,
  "द": 603,
  "ध": 604,
  "न": 605,
  "फ": 606,
  "ब": 607,
  "म": 608,
  "र": 609,
  "ल": 610,
  "व": 611,
  "श": 612,
  "स": 613,
  "ह": 614,
  "़": 615,
  "ा": 616,
  "ि": 617,
  "ु": 618,
  "ू": 619,
  "े": 620,
  "ो": 621,
  "्": 622,
  "ং": 623,
  "অ": 624,
  "ঐ": 625,
  "ঔ": 626,
  "ক": 627,
  "খ": 628,
  "গ": 629,
  "চ": 630,
  "জ": 631,
  "ট": 632,
  "ঢ": 633,
  "ণ": 634,
  "ত": 635,
  "দ": 636,
  "ধ": 637,
  "ন": 638,
  "প": 639,
  "ব": 640,
  "ভ": 641,
  "ম": 642,
  "য": 643,
  "র": 644,
  "ল": 645,
  "শ": 646,
  "ষ": 647,
  "স": 648,
  "হ": 649,
  "়": 650,
  "া": 651,
  "ি": 652,
  "ী": 653,
  "ু": 654,
  "ে": 655,
  "ো": 656,
  "্": 657,
  "ਖ": 658,
  "ਸ": 659,
  "ਿ": 660,
  "ੀ": 661,
  "ੱ": 662,
  "இ": 663,
  "க": 664,
  "ங": 665,
  "ச": 666,
  "ன": 667,
  "ர": 668,
  "ல": 669,
  "ு": 670,
  "ை": 671,
  "்": 672,
  "ಕ": 673,
  "ರ": 674,
  "ಶ": 675,
  "ು": 676,
  "್": 677,
  "ං": 678,
  "ක": 679,
  "ර": 680,
  "ල": 681,
  "ව": 682,
  "ශ": 683,
  "්": 684,
  "ා": 685,
  "ී": 686,
  "ก": 687,
  "ข": 688,
  "ค": 689,
  "ง": 690,
  "จ": 691,
  "ช": 692,
  "ฐ": 693,
  "ฒ": 694,
  "ณ": 695,
  "ต": 696,
  "ท": 697,
  "ธ": 698,
  "น": 699,
  "บ": 700,
  "ผ": 701,
  "พ": 702,
  "ภ": 703,
  "ม": 704,
  "ย": 705,
  "ร": 706,
  "ว": 707,
  "ศ": 708,
  "ส": 709,
  "อ": 710,
  "ั": 711,
  "า": 712,
  "ิ": 713,
  "ี": 714,
  "ื": 715,
  "ุ": 716,
  "ู": 717,
  "฿": 718,
  "เ": 719,
  "แ": 720,
  "โ": 721,
  "ไ": 722,
  "่": 723,
  "้": 724,
  "์": 725,
  "ງ": 726,
  "ຊ": 727,
  "ດ": 728,
  "ຕ": 729,
  "ທ": 730,
  "ນ": 731,
  "ປ": 732,
  "ມ": 733,
  "ລ": 734,
  "ວ": 735,
  "ສ": 736,
  "ອ": 737,
  "ະ": 738,
  "ັ": 739,
  "າ": 740,
  "ິ": 741,
  "ື": 742,
  "ົ": 743,
  "ເ": 744,
  "ໄ": 745,
  "້": 746,
  "ა": 747,
  "ბ": 748,
  "გ": 749,
  "დ": 750,
  "ე": 751,
  "ვ": 752,
  "თ": 753,
  "ი": 754,
  "კ": 755,
  "ლ": 756,
  "მ": 757,
  "ნ": 758,
  "ო": 759,
  "რ": 760,
  "ს": 761,
  "ტ": 762,
  "უ": 763,
  "ქ": 764,
  "ღ": 765,
  "ჩ": 766,
  "ძ": 767,
  "ხ": 768,
  "ል": 769,
  "ማ": 770,
  "ም": 771,
  "ሠ": 772,
  "ሥ": 773,
  "ሪ": 774,
  "ር": 775,
  "ሮ": 776,
  "ሷ": 777,
  "በ": 778,
  "ቡ": 779,
  "ተ": 780,
  "ት": 781,
  "ቶ": 782,
  "ነ": 783,
  "ን": 784,
  "ኛ": 785,
  "አ": 786,
  "ኢ": 787,
  "ኣ": 788,
  "ወ": 789,
  "ዘ": 790,
  "ያ": 791,
  "ይ": 792,
  "ዮ": 793,
  "ደ": 794,
  "ዳ": 795,
  "ድ": 796,
  "ጃ": 797,
  "ገ": 798,
  "ጉ": 799,
  "ጊ": 800,
  "ጋ": 801,
  "ጵ": 802,
  "ፊ": 803,
  "ᒾ": 804,
  "ក": 805,
  "ខ": 806,
  "ជ": 807,
  "ទ": 808,
  "ន": 809,
  "ប": 810,
  "ព": 811,
  "ម": 812,
  "រ": 813,
  "ល": 814,
  "ស": 815,
  "ា": 816,
  "ុ": 817,
  "េ": 818,
  "ែ": 819,
  "្": 820,
  "ᵍ": 821,
  "ᶜ": 822,
  "ḕ": 823,
  "ḗ": 824,
  "Ḥ": 825,
  "ṓ": 826,
  "ṣ": 827,
  "ṭ": 828,
  "ẓ": 829,
  "ἀ": 830,
  "ἄ": 831,
  "Ἀ": 832,
  "Ἄ": 833,
  "ἐ": 834,
  "ἑ": 835,
  "ἔ": 836,
  "Ἐ": 837,
  "Ἑ": 838,
  "Ἔ": 839,
  "Ἕ": 840,
  "ἡ": 841,
  "ἥ": 842,
  "ἰ": 843,
  "ἱ": 844,
  "Ἰ": 845,
  "Ἱ": 846,
  "Ἴ": 847,
  "ὀ": 848,
  "ὁ": 849,
  "ὅ": 850,
  "Ὁ": 851,
  "ὐ": 852,
  "ὕ": 853,
  "ὠ": 854,
  "ὰ": 855,
  "ὲ": 856,
  "ὴ": 857,
  "ὶ": 858,
  "ὸ": 859,
  "ᾱ": 860,
  "ᾶ": 861,
  "ῆ": 862,
  "ῖ": 863,
  "ῤ": 864,
  "ῥ": 865,
  "Ῥ": 866,
  "ῴ": 867,
  "ῶ": 868,
  "‌": 869,
  "‍": 870,
  "–": 871,
  "—": 872,
  "―": 873,
  "‘": 874,
  "’": 875,
  "‚": 876,
  "“": 877,
  "”": 878,
  "†": 879,
  "‡": 880,
  "•": 881,
  "…": 882,
  "‰": 883,
  "′": 884,
  "″": 885,
  "‹": 886,
  "›": 887,
  "⁄": 888,
  "⁧": 889,
  "⁩": 890,
  "⁪": 891,
  "⁬": 892,
  "ⁿ": 893,
  "₣": 894,
  "₤": 895,
  "₪": 896,
  "€": 897,
  "₱": 898,
  "₹": 899,
  "ℏ": 900,
  "™": 901,
  "⅓": 902,
  "⅔": 903,
  "←": 904,
  "→": 905,
  "↔": 906,
  "⇌": 907,
  "∆": 908,
  "−": 909,
  "∗": 910,
  "√": 911,
  "∞": 912,
  "≈": 913,
  "≠": 914,
  "≡": 915,
  "≥": 916,
  "⊆": 917,
  "⊕": 918,
  "⊙": 919,
  "⋿": 920,
  "┒": 921,
  "◄": 922,
  "☉": 923,
  "♂": 924,
  "⟨": 925,
  "⟩": 926,
  "ⲁ": 927,
  "ⲉ": 928,
  "ⲏ": 929,
  "ⲓ": 930,
  "ⲙ": 931,
  "Ⲛ": 932,
  "ⲛ": 933,
  "ⲟ": 934,
  "Ⲣ": 935,
  "ⲣ": 936,
  "ⲥ": 937,
  "ⲧ": 938,
  "ⲩ": 939,
  "ⲭ": 940,
  "ⴰ": 941,
  "ⴱ": 942,
  "ⴲ": 943,
  "ⴳ": 944,
  "ⴶ": 945,
  "ⴷ": 946,
  "ⴻ": 947,
  "ⴼ": 948,
  "ⵃ": 949,
  "ⵉ": 950,
  "ⵊ": 951,
  "ⵍ": 952,
  "ⵎ": 953,
  "ⵏ": 954,
  "ⵓ": 955,
  "ⵔ": 956,
  "ⵖ": 957,
  "ⵗ": 958,
  "ⵙ": 959,
  "ⵜ": 960,
  "ⵝ": 961,
  "ⵟ": 962,
  "ⵡ": 963,
  "ⵢ": 964,
  "ⵣ": 965,
  "〈": 966,
  "〉": 967,
  "《": 968,
  "》": 969,
  "あ": 970,
  "い": 971,
  "う": 972,
  "お": 973,
  "か": 974,
  "く": 975,
  "け": 976,
  "げ": 977,
  "こ": 978,
  "し": 979,
  "じ": 980,
  "ず": 981,
  "た": 982,
  "だ": 983,
  "ち": 984,
  "っ": 985,
  "つ": 986,
  "と": 987,
  "な": 988,
  "に": 989,
  "の": 990,
  "は": 991,
  "び": 992,
  "へ": 993,
  "も": 994,
  "よ": 995,
  "ら": 996,
  "り": 997,
  "れ": 998,
  "わ": 999,
  "を": 1000,
  "ん": 1001,
  "ァ": 1002,
  "ア": 1003,
  "ィ": 1004,
  "イ": 1005,
  "ウ": 1006,
  "オ": 1007,
  "カ": 1008,
  "ガ": 1009,
  "ク": 1010,
  "グ": 1011,
  "コ": 1012,
  "シ": 1013,
  "ジ": 1014,
  "ス": 1015,
  "ゼ": 1016,
  "タ": 1017,
  "ダ": 1018,
  "チ": 1019,
  "ッ": 1020,
  "ト": 1021,
  "ナ": 1022,
  "ニ": 1023,
  "ヌ": 1024,
  "ハ": 1025,
  "ピ": 1026,
  "フ": 1027,
  "ブ": 1028,
  "プ": 1029,
  "ベ": 1030,
  "ポ": 1031,
  "ム": 1032,
  "ャ": 1033,
  "ュ": 1034,
  "ョ": 1035,
  "ラ": 1036,
  "リ": 1037,
  "ル": 1038,
  "レ": 1039,
  "ロ": 1040,
  "ン": 1041,
  "ヶ": 1042,
  "・": 1043,
  "ー": 1044,
  "一": 1045,
  "七": 1046,
  "万": 1047,
  "三": 1048,
  "上": 1049,
  "下": 1050,
  "世": 1051,
  "东": 1052,
  "中": 1053,
  "丸": 1054,
  "主": 1055,
  "久": 1056,
  "乌": 1057,
  "乐": 1058,
  "九": 1059,
  "乱": 1060,
  "了": 1061,
  "争": 1062,
  "事": 1063,
  "二": 1064,
  "于": 1065,
  "云": 1066,
  "五": 1067,
  "亡": 1068,
  "京": 1069,
  "亳": 1070,
  "人": 1071,
  "仁": 1072,
  "今": 1073,
  "代": 1074,
  "仮": 1075,
  "伊": 1076,
  "伎": 1077,
  "会": 1078,
  "佛": 1079,
  "侍": 1080,
  "便": 1081,
  "係": 1082,
  "保": 1083,
  "信": 1084,
  "俳": 1085,
  "俺": 1086,
  "倉": 1087,
  "値": 1088,
  "偵": 1089,
  "僕": 1090,
  "儒": 1091,
  "允": 1092,
  "元": 1093,
  "先": 1094,
  "光": 1095,
  "入": 1096,
  "公": 1097,
  "六": 1098,
  "共": 1099,
  "兵": 1100,
  "冇": 1101,
  "冷": 1102,
  "分": 1103,
  "列": 1104,
  "初": 1105,
  "別": 1106,
  "利": 1107,
  "别": 1108,
  "剣": 1109,
  "功": 1110,
  "動": 1111,
  "勝": 1112,
  "包": 1113,
  "化": 1114,
  "北": 1115,
  "区": 1116,
  "區": 1117,
  "十": 1118,
  "千": 1119,
  "华": 1120,
  "南": 1121,
  "単": 1122,
  "博": 1123,
  "厚": 1124,
  "原": 1125,
  "县": 1126,
  "友": 1127,
  "反": 1128,
  "发": 1129,
  "口": 1130,
  "古": 1131,
  "句": 1132,
  "可": 1133,
  "台": 1134,
  "合": 1135,
  "吉": 1136,
  "名": 1137,
  "向": 1138,
  "君": 1139,
  "呂": 1140,
  "周": 1141,
  "命": 1142,
  "和": 1143,
  "咖": 1144,
  "員": 1145,
  "唐": 1146,
  "啡": 1147,
  "喜": 1148,
  "四": 1149,
  "団": 1150,
  "国": 1151,
  "國": 1152,
  "土": 1153,
  "地": 1154,
  "圳": 1155,
  "城": 1156,
  "執": 1157,
  "堀": 1158,
  "堡": 1159,
  "墓": 1160,
  "墳": 1161,
  "士": 1162,
  "夢": 1163,
  "大": 1164,
  "天": 1165,
  "太": 1166,
  "夫": 1167,
  "央": 1168,
  "头": 1169,
  "夷": 1170,
  "奇": 1171,
  "奈": 1172,
  "女": 1173,
  "如": 1174,
  "妉": 1175,
  "姑": 1176,
  "委": 1177,
  "姫": 1178,
  "娘": 1179,
  "子": 1180,
  "孔": 1181,
  "字": 1182,
  "孝": 1183,
  "学": 1184,
  "宁": 1185,
  "宅": 1186,
  "安": 1187,
  "宋": 1188,
  "宗": 1189,
  "官": 1190,
  "实": 1191,
  "室": 1192,
  "宮": 1193,
  "家": 1194,
  "宾": 1195,
  "富": 1196,
  "察": 1197,
  "實": 1198,
  "寺": 1199,
  "将": 1200,
  "將": 1201,
  "尊": 1202,
  "尋": 1203,
  "少": 1204,
  "尔": 1205,
  "尾": 1206,
  "居": 1207,
  "履": 1208,
  "山": 1209,
  "岛": 1210,
  "岡": 1211,
  "峦": 1212,
  "島": 1213,
  "峻": 1214,
  "崇": 1215,
  "崎": 1216,
  "崑": 1217,
  "崖": 1218,
  "崙": 1219,
  "川": 1220,
  "州": 1221,
  "左": 1222,
  "已": 1223,
  "市": 1224,
  "布": 1225,
  "帝": 1226,
  "師": 1227,
  "帯": 1228,
  "幌": 1229,
  "幕": 1230,
  "平": 1231,
  "年": 1232,
  "幹": 1233,
  "广": 1234,
  "庁": 1235,
  "広": 1236,
  "庆": 1237,
  "库": 1238,
  "府": 1239,
  "康": 1240,
  "式": 1241,
  "弓": 1242,
  "弗": 1243,
  "弥": 1244,
  "張": 1245,
  "弾": 1246,
  "征": 1247,
  "律": 1248,
  "後": 1249,
  "御": 1250,
  "徳": 1251,
  "德": 1252,
  "徽": 1253,
  "応": 1254,
  "忠": 1255,
  "思": 1256,
  "急": 1257,
  "总": 1258,
  "恋": 1259,
  "悪": 1260,
  "愛": 1261,
  "慄": 1262,
  "慶": 1263,
  "戊": 1264,
  "成": 1265,
  "我": 1266,
  "战": 1267,
  "戦": 1268,
  "戸": 1269,
  "所": 1270,
  "扁": 1271,
  "手": 1272,
  "扬": 1273,
  "承": 1274,
  "投": 1275,
  "折": 1276,
  "拳": 1277,
  "振": 1278,
  "探": 1279,
  "推": 1280,
  "摂": 1281,
  "摩": 1282,
  "撃": 1283,
  "撲": 1284,
  "操": 1285,
  "改": 1286,
  "政": 1287,
  "教": 1288,
  "文": 1289,
  "料": 1290,
  "斯": 1291,
  "新": 1292,
  "方": 1293,
  "於": 1294,
  "施": 1295,
  "日": 1296,
  "时": 1297,
  "明": 1298,
  "星": 1299,
  "春": 1300,
  "昭": 1301,
  "時": 1302,
  "普": 1303,
  "景": 1304,
  "智": 1305,
  "暗": 1306,
  "曜": 1307,
  "更": 1308,
  "書": 1309,
  "曹": 1310,
  "月": 1311,
  "朝": 1312,
  "木": 1313,
  "未": 1314,
  "末": 1315,
  "本": 1316,
  "札": 1317,
  "机": 1318,
  "杉": 1319,
  "村": 1320,
  "条": 1321,
  "来": 1322,
  "東": 1323,
  "松": 1324,
  "林": 1325,
  "架": 1326,
  "柔": 1327,
  "栃": 1328,
  "栄": 1329,
  "校": 1330,
  "栽": 1331,
  "桃": 1332,
  "桐": 1333,
  "桶": 1334,
  "梅": 1335,
  "梟": 1336,
  "梦": 1337,
  "梧": 1338,
  "森": 1339,
  "棺": 1340,
  "業": 1341,
  "楼": 1342,
  "楽": 1343,
  "榮": 1344,
  "榴": 1345,
  "槟": 1346,
  "樂": 1347,
  "標": 1348,
  "横": 1349,
  "機": 1350,
  "次": 1351,
  "歌": 1352,
  "武": 1353,
  "殺": 1354,
  "毛": 1355,
  "氏": 1356,
  "民": 1357,
  "気": 1358,
  "水": 1359,
  "氵": 1360,
  "汉": 1361,
  "汗": 1362,
  "江": 1363,
  "汤": 1364,
  "沈": 1365,
  "沖": 1366,
  "沙": 1367,
  "河": 1368,
  "治": 1369,
  "泉": 1370,
  "法": 1371,
  "波": 1372,
  "泽": 1373,
  "洞": 1374,
  "津": 1375,
  "洪": 1376,
  "洲": 1377,
  "济": 1378,
  "浪": 1379,
  "浴": 1380,
  "海": 1381,
  "淡": 1382,
  "淮": 1383,
  "深": 1384,
  "清": 1385,
  "済": 1386,
  "港": 1387,
  "湖": 1388,
  "湯": 1389,
  "湾": 1390,
  "満": 1391,
  "源": 1392,
  "漆": 1393,
  "漢": 1394,
  "澤": 1395,
  "澳": 1396,
  "濟": 1397,
  "瀋": 1398,
  "火": 1399,
  "点": 1400,
  "為": 1401,
  "無": 1402,
  "照": 1403,
  "爾": 1404,
  "片": 1405,
  "牙": 1406,
  "物": 1407,
  "特": 1408,
  "犬": 1409,
  "狙": 1410,
  "狭": 1411,
  "狮": 1412,
  "猪": 1413,
  "獅": 1414,
  "玄": 1415,
  "王": 1416,
  "球": 1417,
  "理": 1418,
  "甚": 1419,
  "生": 1420,
  "田": 1421,
  "甲": 1422,
  "电": 1423,
  "町": 1424,
  "界": 1425,
  "番": 1426,
  "異": 1427,
  "發": 1428,
  "白": 1429,
  "的": 1430,
  "皇": 1431,
  "盆": 1432,
  "盛": 1433,
  "目": 1434,
  "直": 1435,
  "相": 1436,
  "省": 1437,
  "真": 1438,
  "着": 1439,
  "睦": 1440,
  "瞑": 1441,
  "瞳": 1442,
  "石": 1443,
  "破": 1444,
  "碧": 1445,
  "神": 1446,
  "禁": 1447,
  "禅": 1448,
  "福": 1449,
  "禮": 1450,
  "秀": 1451,
  "私": 1452,
  "秋": 1453,
  "科": 1454,
  "稲": 1455,
  "穀": 1456,
  "穆": 1457,
  "空": 1458,
  "立": 1459,
  "笔": 1460,
  "第": 1461,
  "箇": 1462,
  "管": 1463,
  "節": 1464,
  "米": 1465,
  "粉": 1466,
  "粟": 1467,
  "紀": 1468,
  "紅": 1469,
  "納": 1470,
  "純": 1471,
  "紙": 1472,
  "紫": 1473,
  "紺": 1474,
  "経": 1475,
  "絶": 1476,
  "絹": 1477,
  "經": 1478,
  "維": 1479,
  "綱": 1480,
  "線": 1481,
  "縄": 1482,
  "縣": 1483,
  "織": 1484,
  "经": 1485,
  "義": 1486,
  "羽": 1487,
  "翼": 1488,
  "者": 1489,
  "而": 1490,
  "聖": 1491,
  "肥": 1492,
  "能": 1493,
  "脑": 1494,
  "腦": 1495,
  "臣": 1496,
  "臨": 1497,
  "自": 1498,
  "舞": 1499,
  "舶": 1500,
  "船": 1501,
  "良": 1502,
  "色": 1503,
  "艾": 1504,
  "芜": 1505,
  "芭": 1506,
  "花": 1507,
  "苏": 1508,
  "茂": 1509,
  "茅": 1510,
  "茶": 1511,
  "草": 1512,
  "莲": 1513,
  "華": 1514,
  "菴": 1515,
  "萄": 1516,
  "葉": 1517,
  "葡": 1518,
  "董": 1519,
  "葵": 1520,
  "蒙": 1521,
  "蓮": 1522,
  "蕉": 1523,
  "蕾": 1524,
  "薩": 1525,
  "藤": 1526,
  "虎": 1527,
  "蜜": 1528,
  "蝦": 1529,
  "行": 1530,
  "術": 1531,
  "街": 1532,
  "衛": 1533,
  "衣": 1534,
  "袋": 1535,
  "袴": 1536,
  "製": 1537,
  "西": 1538,
  "見": 1539,
  "視": 1540,
  "親": 1541,
  "视": 1542,
  "言": 1543,
  "計": 1544,
  "記": 1545,
  "詞": 1546,
  "詮": 1547,
  "話": 1548,
  "認": 1549,
  "誓": 1550,
  "語": 1551,
  "読": 1552,
  "謀": 1553,
  "謙": 1554,
  "識": 1555,
  "譜": 1556,
  "警": 1557,
  "认": 1558,
  "识": 1559,
  "词": 1560,
  "话": 1561,
  "语": 1562,
  "谷": 1563,
  "豆": 1564,
  "豊": 1565,
  "豚": 1566,
  "象": 1567,
  "豬": 1568,
  "贤": 1569,
  "越": 1570,
  "足": 1571,
  "跡": 1572,
  "路": 1573,
  "車": 1574,
  "軍": 1575,
  "輝": 1576,
  "车": 1577,
  "辖": 1578,
  "辰": 1579,
  "辽": 1580,
  "近": 1581,
  "还": 1582,
  "连": 1583,
  "迪": 1584,
  "迷": 1585,
  "追": 1586,
  "通": 1587,
  "道": 1588,
  "遼": 1589,
  "還": 1590,
  "那": 1591,
  "部": 1592,
  "郷": 1593,
  "都": 1594,
  "醍": 1595,
  "醐": 1596,
  "重": 1597,
  "野": 1598,
  "鉄": 1599,
  "銀": 1600,
  "鎌": 1601,
  "鎮": 1602,
  "鐵": 1603,
  "铁": 1604,
  "長": 1605,
  "門": 1606,
  "閃": 1607,
  "間": 1608,
  "関": 1609,
  "閣": 1610,
  "闪": 1611,
  "间": 1612,
  "阜": 1613,
  "阪": 1614,
  "阳": 1615,
  "际": 1616,
  "陰": 1617,
  "陳": 1618,
  "陵": 1619,
  "隆": 1620,
  "際": 1621,
  "隠": 1622,
  "雄": 1623,
  "集": 1624,
  "難": 1625,
  "雲": 1626,
  "電": 1627,
  "霊": 1628,
  "青": 1629,
  "面": 1630,
  "鞋": 1631,
  "韓": 1632,
  "韩": 1633,
  "音": 1634,
  "韵": 1635,
  "韻": 1636,
  "頭": 1637,
  "頼": 1638,
  "風": 1639,
  "风": 1640,
  "飛": 1641,
  "食": 1642,
  "馆": 1643,
  "香": 1644,
  "馬": 1645,
  "駄": 1646,
  "駿": 1647,
  "马": 1648,
  "高": 1649,
  "魂": 1650,
  "魏": 1651,
  "魔": 1652,
  "魯": 1653,
  "鲁": 1654,
  "鳥": 1655,
  "鵝": 1656,
  "鸞": 1657,
  "鹅": 1658,
  "麦": 1659,
  "黍": 1660,
  "黑": 1661,
  "黒": 1662,
  "黙": 1663,
  "點": 1664,
  "齐": 1665,
  "龍": 1666,
  "가": 1667,
  "개": 1668,
  "거": 1669,
  "고": 1670,
  "관": 1671,
  "국": 1672,
  "김": 1673,
  "다": 1674,
  "단": 1675,
  "당": 1676,
  "대": 1677,
  "도": 1678,
  "된": 1679,
  "려": 1680,
  "리": 1681,
  "마": 1682,
  "면": 1683,
  "민": 1684,
  "반": 1685,
  "부": 1686,
  "북": 1687,
  "선": 1688,
  "소": 1689,
  "시": 1690,
  "식": 1691,
  "신": 1692,
  "없": 1693,
  "요": 1694,
  "월": 1695,
  "으": 1696,
  "이": 1697,
  "일": 1698,
  "임": 1699,
  "장": 1700,
  "정": 1701,
  "조": 1702,
  "족": 1703,
  "찌": 1704,
  "찬": 1705,
  "추": 1706,
  "치": 1707,
  "탕": 1708,
  "한": 1709,
  "﴾": 1710,
  "﴿": 1711,
  "（": 1712,
  "）": 1713,
  "～": 1714,
  "𐀃": 1715,
  "𐀆": 1716,
  "𐀚": 1717,
  "𐀡": 1718,
  "𐀮": 1719,
  "𐀺": 1720,
  "𐤁": 1721,
  "𐤇": 1722,
  "𐤉": 1723,
  "𐤋": 1724,
  "𐤌": 1725,
  "𐤍": 1726,
  "𐤏": 1727,
  "𐭠": 1728,
  "𐭩": 1729,
  "𐭪": 1730,
  "𐭰": 1731,
  "𐭲": 1732,
  "𓂋": 1733,
  "𓅓": 1734,
  "𓆎": 1735,
  "𓈖": 1736,
  "𓊖": 1737,
  "𓏏": 1738,
  "𓏺": 1739,
  "𝐅": 1740,
  "𝐕": 1741,
  "𝐹": 1742,
  "ال": 1742,
  "ية": 1743,
  "في": 1744,
  "الم": 1745,
  "ان": 1746,
  "من": 1747,
  "ات": 1748,
  "ين": 1749,
  "ار": 1750,
  "لى": 1751,
  "ام": 1752,
  "ول": 1753,
  "الأ": 1754,
  "ها": 1755,
  "ون": 1756,
  "ري": 1757,
  "الت": 1758,
  "را": 1759,
  "ما": 1760,
  "الع": 1761,
  "لا": 1762,
  "ير": 1763,
  "يا": 1764,
  "وا": 1765,
  "لي": 1766,
  "ست": 1767,
  "ور": 1768,
  "على": 1769,
  "دي": 1770,
  "وال": 1771,
  "وم": 1772,
  "أن": 1773,
  "الح": 1774,
  "الس": 1775,
  "الب": 1776,
  "اب": 1777,
  "لك": 1778,
  "عد": 1779,
  "الق": 1780,
  "نا": 1781,
  "وب": 1782,
  "إلى": 1783,
  "رب": 1784,
  "كان": 1785,
  "لم": 1786,
  "وي": 1787,
  "سي": 1788,
  "اد": 1789,
  "19": 1790,
  "مع": 1791,
  "الإ": 1792,
  "الج": 1793,
  "قد": 1794,
  "لل": 1795,
  "وت": 1796,
  "رة": 1797,
  "هم": 1798,
  "الش": 1799,
  "ائ": 1800,
  "دة": 1801,
  "بر": 1802,
  "ًا": 1803,
  "الن": 1804,
  "وس": 1805,
  "الك": 1806,
  "عن": 1807,
  "الد": 1808,
  "بي": 1809,
  "عة": 1810,
  "ود": 1811,
  "عام": 1812,
  "الف": 1813,
  "تم": 1814,
  "تح": 1815,
  "وق": 1816,
  "سم": 1817,
  "اء": 1818,
  "الي": 1819,
  "وج": 1820,
  "هذ": 1821,
  "التي": 1822,
  "رك": 1823,
  "هي": 1824,
  "حي": 1825,
  "00": 1826,
  "لة": 1827,
  "الر": 1828,
  "بل": 1829,
  "بن": 1830,
  "عم": 1831,
  "سب": 1832,
  "َّ": 1833,
  "اف": 1834,
  "كل": 1835,
  "قة": 1836,
  "است": 1837,
  "يم": 1838,
  "شر": 1839,
  "الص": 1840,
  "اع": 1841,
  "يل": 1842,
  "اني": 1843,
  "مد": 1844,
  "وف": 1845,
  "بد": 1846,
  "سا": 1847,
  "أو": 1848,
  "ذلك": 1849,
  "مة": 1850,
  "الخ": 1851,
  "الث": 1852,
  "يد": 1853,
  "حد": 1854,
  "كن": 1855,
  "حت": 1856,
  "بين": 1857,
  "سل": 1858,
  "الذ": 1859,
  "هو": 1860,
  "جم": 1861,
  "يس": 1862,
  "يت": 1863,
  "با": 1864,
  "خل": 1865,
  "وأ": 1866,
  "الل": 1867,
  "مر": 1868,
  "سن": 1869,
  "وع": 1870,
  "صر": 1871,
  "يع": 1872,
  "خر": 1873,
  "هر": 1874,
  "إن": 1875,
  "بعد": 1876,
  "رن": 1877,
  "كت": 1878,
  "صل": 1879,
  "أي": 1880,
  "انية": 1881,
  "وفي": 1882,
  "مث": 1883,
  "تق": 1884,
  "عل": 1885,
  "وز": 1886,
  "كر": 1887,
  "اً": 1888,
  "الط": 1889,
  "بع": 1890,
  "قي": 1891,
  "مت": 1892,
  "قت": 1893,
  "وك": 1894,
  "لس": 1895,
  "لف": 1896,
  "مح": 1897,
  "ينة": 1898,
  "ارة": 1899,
  "اص": 1900,
  "اري": 1901,
  "20": 1902,
  "ني": 1903,
  "ند": 1904,
  "هذا": 1905,
  "علي": 1906,
  "در": 1907,
  "الا": 1908,
  "كم": 1909,
  "هذه": 1910,
  "لت": 1911,
  "ولة": 1912,
  "يرة": 1913,
  "أم": 1914,
  "الغ": 1915,
  "سة": 1916,
  "عب": 1917,
  "كانت": 1918,
  "الذي": 1919,
  "كي": 1920,
  "هد": 1921,
  "والم": 1922,
  "ثر": 1923,
  "وط": 1924,
  "يات": 1925,
  "وات": 1926,
  "كون": 1927,
  "قل": 1928,
  "رض": 1929,
  "200": 1930,
  "أك": 1931,
  "رف": 1932,
  "انت": 1933,
  "ديد": 1934,
  "وح": 1935,
  "خت": 1936,
  "ولا": 1937,
  "بح": 1938,
  "المد": 1939,
  "مثل": 1940,
  "الأم": 1941,
  "فا": 1942,
  "حيث": 1943,
  "زي": 1944,
  "طة": 1945,
  "أس": 1946,
  "بة": 1947,
  "وري": 1948,
  "فر": 1949,
  "تي": 1950,
  "تع": 1951,
  "غير": 1952,
  "يو": 1953,
  "تش": 1954,
  "قا": 1955,
  "مل": 1956,
  "18": 1957,
  "ثم": 1958,
  "دم": 1959,
  "مس": 1960,
  "يش": 1961,
  "اله": 1962,
  "نظ": 1963,
  "جن": 1964,
  "كما": 1965,
  "العالم": 1966,
  "تر": 1967,
  "قبل": 1968,
  "ته": 1969,
  "راء": 1970,
  "فة": 1971,
  "سية": 1972,
  "رق": 1973,
  "ئيس": 1974,
  "حة": 1975,
  "لاد": 1976,
  "وية": 1977,
  "جا": 1978,
  "العرب": 1979,
  "طل": 1980,
  "له": 1981,
  "ركة": 1982,
  "مج": 1983,
  "سنة": 1984,
  "المن": 1985,
  "به": 1986,
  "قط": 1987,
  "الية": 1988,
  "قر": 1989,
  "وقد": 1990,
  "وض": 1991,
  "ومن": 1992,
  "دا": 1993,
  "الز": 1994,
  "حا": 1995,
  "رائ": 1996,
  "تا": 1997,
  "عند": 1998,
  "ريق": 1999,
  "المع": 2000,
  "وص": 2001,
  "كا": 2002,
  "الات": 2003,
  "افة": 2004,
  "ورية": 2005,
  "سلام": 2006,
  "يز": 2007,
  "وان": 2008,
  "َّة": 2009,
  "خص": 2010,
  "حر": 2011,
  "فس": 2012,
  "كب": 2013,
  "خلال": 2014,
  "حل": 2015,
  "تن": 2016,
  "المتح": 2017,
  "بعض": 2018,
  "عدد": 2019,
  "برا": 2020,
  "جة": 2021,
  "خرى": 2022,
  "ورة": 2023,
  "شكل": 2024,
  "جز": 2025,
  "اريخ": 2026,
  "تد": 2027,
  "فت": 2028,
  "كوم": 2029,
  "القرن": 2030,
  "جر": 2031,
  "عبد": 2032,
  "201": 2033,
  "يق": 2034,
  "نة": 2035,
  "طقة": 2036,
  "نية": 2037,
  "بت": 2038,
  "والت": 2039,
  "مي": 2040,
  "الة": 2041,
  "بار": 2042,
  "طين": 2043,
  "أيض": 2044,
  "المتحدة": 2045,
  "سيا": 2046,
  "حتى": 2047,
  "يف": 2048,
  "أص": 2049,
  "مار": 2050,
  "أنه": 2051,
  "ادة": 2052,
  "199": 2053,
  "بق": 2054,
  "قدم": 2055,
  "عمل": 2056,
  "ناء": 2057,
  "المس": 2058,
  "كية": 2059,
  "مص": 2060,
  "اض": 2061,
  "جد": 2062,
  "بية": 2063,
  "عت": 2064,
  "أول": 2065,
  "غة": 2066,
  "الله": 2067,
  "عي": 2068,
  "المت": 2069,
  "وهو": 2070,
  "اه": 2071,
  "شي": 2072,
  "قام": 2073,
  "العام": 2074,
  "ولي": 2075,
  "وروب": 2076,
  "ملك": 2077,
  "جي": 2078,
  "انيا": 2079,
  "المدينة": 2080,
  "مست": 2081,
  "سع": 2082,
  "ئي": 2083,
  "بط": 2084,
  "لاح": 2085,
  "خط": 2086,
  "وهي": 2087,
  "شار": 2088,
  "الآ": 2089,
  "عض": 2090,
  "رد": 2091,
  "الاست": 2092,
  "تج": 2093,
  "أكثر": 2094,
  "وسط": 2095,
  "السل": 2096,
  "والأ": 2097,
  "الإن": 2098,
  "اط": 2099,
  "رت": 2100,
  "بري": 2101,
  "إس": 2102,
  "دول": 2103,
  "للم": 2104,
  "ذا": 2105,
  "الإسلام": 2106,
  "نوب": 2107,
  "عية": 2108,
  "رية": 2109,
  "أف": 2110,
  "لسطين": 2111,
  "تت": 2112,
  "مق": 2113,
  "كرة": 2114,
  "بو": 2115,
  "والي": 2116,
  "الدين": 2117,
  "جت": 2118,
  "الدولة": 2119,
  "زة": 2120,
  "يُ": 2121,
  "مدينة": 2122,
  "صف": 2123,
  "صاد": 2124,
  "الحرب": 2125,
  "جل": 2126,
  "ثير": 2127,
  "وسي": 2128,
  "ّة": 2129,
  "بات": 2130,
  "وه": 2131,
  "خد": 2132,
  "بها": 2133,
  "النا": 2134,
  "وكان": 2135,
  "راق": 2136,
  "وى": 2137,
  "198": 2138,
  "عشر": 2139,
  "والتي": 2140,
  "مال": 2141,
  "شت": 2142,
  "فق": 2143,
  "ظم": 2144,
  "197": 2145,
  "وار": 2146,
  "كومة": 2147,
  "كس": 2148,
  "لد": 2149,
  "المست": 2150,
  "عا": 2151,
  "أد": 2152,
  "وة": 2153,
  "رئيس": 2154,
  "السيا": 2155,
  "بلغ": 2156,
  "لاث": 2157,
  "رس": 2158,
  "ئة": 2159,
  "اليا": 2160,
  "حاد": 2161,
  "خاص": 2162,
  "196": 2163,
  "يوم": 2164,
  "ولى": 2165,
  "جه": 2166,
  "تف": 2167,
  "مُ": 2168,
  "يط": 2169,
  "يين": 2170,
  "حية": 2171,
  "خدم": 2172,
  "ملي": 2173,
  "المنا": 2174,
  "الجز": 2175,
  "ناك": 2176,
  "محمد": 2177,
  "أمري": 2178,
  "الض": 2179,
  "عدة": 2180,
  "العربية": 2181,
  "فيها": 2182,
  "ارات": 2183,
  "يون": 2184,
  "ماء": 2185,
  "194": 2186,
  "لق": 2187,
  "الأول": 2188,
  "الغرب": 2189,
  "سبة": 2190,
  "اليوم": 2191,
  "سط": 2192,
  "المح": 2193,
  "سك": 2194,
  "تحت": 2195,
  "عات": 2196,
  "وقت": 2197,
  "ياء": 2198,
  "وش": 2199,
  "وعة": 2200,
  "15": 2201,
  "قلي": 2202,
  "مصر": 2203,
  "ولكن": 2204,
  "فإن": 2205,
  "أحد": 2206,
  "مان": 2207,
  "الدول": 2208,
  "العديد": 2209,
  "سبب": 2210,
  "وجد": 2211,
  "اث": 2212,
  "البلاد": 2213,
  "رات": 2214,
  "اعت": 2215,
  "سين": 2216,
  "راض": 2217,
  "لب": 2218,
  "ركز": 2219,
  "الملك": 2220,
  "تلك": 2221,
  "ختلف": 2222,
  "وث": 2223,
  "مؤ": 2224,
  "يمكن": 2225,
  "بشكل": 2226,
  "سر": 2227,
  "نفس": 2228,
  "لها": 2229,
  "لاف": 2230,
  "از": 2231,
  "تأ": 2232,
  "طا": 2233,
  "جان": 2234,
  "بدأ": 2235,
  "ولايات": 2236,
  "ائل": 2237,
  "ارج": 2238,
  "أخرى": 2239,
  "ابن": 2240,
  "غم": 2241,
  "أح": 2242,
  "جميع": 2243,
  "أش": 2244,
  "10": 2245,
  "قص": 2246,
  "طي": 2247,
  "لِ": 2248,
  "فن": 2249,
  "ارية": 2250,
  "مسا": 2251,
  "وإ": 2252,
  "المُ": 2253,
  "الوط": 2254,
  "17": 2255,
  "رائيل": 2256,
  "فض": 2257,
  "لكن": 2258,
  "بِ": 2259,
  "وصل": 2260,
  "وما": 2261,
  "منذ": 2262,
  "لاق": 2263,
  "والع": 2264,
  "البر": 2265,
  "إلا": 2266,
  "هـ": 2267,
  "دون": 2268,
  "أنها": 2269,
  "هود": 2270,
  "المي": 2271,
  "قتصاد": 2272,
  "الأمري": 2273,
  "غرب": 2274,
  "000": 2275,
  "عندما": 2276,
  "ذي": 2277,
  "اته": 2278,
  "لح": 2279,
  "جع": 2280,
  "أما": 2281,
  "فل": 2282,
  "195": 2283,
  "ديدة": 2284,
  "تها": 2285,
  "واق": 2286,
  "حول": 2287,
  "هناك": 2288,
  "سان": 2289,
  "ملكة": 2290,
  "ضافة": 2291,
  "بير": 2292,
  "الرئيس": 2293,
  "ديث": 2294,
  "يج": 2295,
  "المؤ": 2296,
  "الرا": 2297,
  "أغ": 2298,
  "هل": 2299,
  "وقع": 2300,
  "الإم": 2301,
  "كة": 2302,
  "كتاب": 2303,
  "كو": 2304,
  "أكبر": 2305,
  "يادة": 2306,
  "منها": 2307,
  "حو": 2308,
  "زب": 2309,
  "تص": 2310,
  "ينا": 2311,
  "بال": 2312,
  "مه": 2313,
  "14": 2314,
  "12": 2315,
  "اسم": 2316,
  "عليه": 2317,
  "اللغة": 2318,
  "النظ": 2319,
  "شا": 2320,
  "فقد": 2321,
  "مجم": 2322,
  "فرن": 2323,
  "ظهر": 2324,
  "خدام": 2325,
  "أخ": 2326,
  "13": 2327,
  "الفي": 2328,
  "er": 2329,
  "مما": 2330,
  "قية": 2331,
  "وذ": 2332,
  "يتم": 2333,
  "منطقة": 2334,
  "تين": 2335,
  "ئية": 2336,
  "ابات": 2337,
  "فيه": 2338,
  "وجود": 2339,
  "سات": 2340,
  "السكان": 2341,
  "لاعب": 2342,
  "البحر": 2343,
  "مية": 2344,
  "حوالي": 2345,
  "دين": 2346,
  "براط": 2347,
  "الأولى": 2348,
  "لات": 2349,
  "تاريخ": 2350,
  "الري": 2351,
  "كار": 2352,
  "ألم": 2353,
  "اح": 2354,
  "الذين": 2355,
  "طق": 2356,
  "الجنوب": 2357,
  "انون": 2358,
  "التج": 2359,
  "أر": 2360,
  "وذلك": 2361,
  "16": 2362,
  "الشي": 2363,
  "ضم": 2364,
  "آخر": 2365,
  "جام": 2366,
  "حق": 2367,
  "إلي": 2368,
  "شع": 2369,
  "زا": 2370,
  "دولة": 2371,
  "الإس": 2372,
  "الثاني": 2373,
  "193": 2374,
  "الولايات": 2375,
  "المص": 2376,
  "الأس": 2377,
  "تل": 2378,
  "العل": 2379,
  "رح": 2380,
  "يست": 2381,
  "ثلاث": 2382,
  "ياً": 2383,
  "الحكومة": 2384,
  "عمال": 2385,
  "تط": 2386,
  "فع": 2387,
  "صد": 2388,
  "كبير": 2389,
  "حين": 2390,
  "كام": 2391,
  "الأرض": 2392,
  "دية": 2393,
  "بان": 2394,
  "an": 2395,
  "الشرق": 2396,
  "القدي": 2397,
  "حم": 2398,
  "قب": 2399,
  "علم": 2400,
  "وير": 2401,
  "نها": 2402,
  "تُ": 2403,
  "وضع": 2404,
  "سكان": 2405,
  "وغ": 2406,
  "زل": 2407,
  "ذات": 2408,
  "الان": 2409,
  "لمين": 2410,
  "روف": 2411,
  "جنوب": 2412,
  "نظام": 2413,
  "أع": 2414,
  "باسم": 2415,
  "أيضًا": 2416,
  "عادة": 2417,
  "هما": 2418,
  "انتخ": 2419,
  "أوروب": 2420,
  "إسرائيل": 2421,
  "المسي": 2422,
  "وائ": 2423,
  "روس": 2424,
  "شخص": 2425,
  "طار": 2426,
  "التح": 2427,
  "طر": 2428,
  "راد": 2429,
  "ائية": 2430,
  "الأخ": 2431,
  "ذكر": 2432,
  "إم": 2433,
  "الاتحاد": 2434,
  "ابة": 2435,
  "راً": 2436,
  "المج": 2437,
  "الفرن": 2438,
  "لين": 2439,
  "قائ": 2440,
  "لغ": 2441,
  "بسبب": 2442,
  "البري": 2443,
  "المنطقة": 2444,
  "أث": 2445,
  "الحا": 2446,
  "إد": 2447,
  "واست": 2448,
  "ستان": 2449,
  "استخدام": 2450,
  "أهم": 2451,
  "الشم": 2452,
  "صار": 2453,
  "عمر": 2454,
  "يكون": 2455,
  "التاريخ": 2456,
  "ويت": 2457,
  "بم": 2458,
  "أمريكي": 2459,
  "قال": 2460,
  "سكر": 2461,
  "القر": 2462,
  "الأخرى": 2463,
  "الأوروب": 2464,
  "عرف": 2465,
  "ائر": 2466,
  "وني": 2467,
  "ثل": 2468,
  "ندا": 2469,
  "عالم": 2470,
  "عليها": 2471,
  "الدي": 2472,
  "ظمة": 2473,
  "ودة": 2474,
  "العمل": 2475,
  "حدث": 2476,
  "البي": 2477,
  "راضي": 2478,
  "تب": 2479,
  "فلسطين": 2480,
  "بالإ": 2481,
  "الفلسطين": 2482,
  "الهند": 2483,
  "الساب": 2484,
  "ترة": 2485,
  "اخت": 2486,
  "ليل": 2487,
  "الجيش": 2488,
  "ياة": 2489,
  "رج": 2490,
  "نت": 2491,
  "الروم": 2492,
  "ومع": 2493,
  "وجه": 2494,
  "الأح": 2495,
  "كتب": 2496,
  "خارج": 2497,
  "معظم": 2498,
  "لاء": 2499,
  "بما": 2500,
  "يلي": 2501,
  "ساب": 2502,
  "ضد": 2503,
  "ربع": 2504,
  "لن": 2505,
  "القط": 2506,
  "الرغم": 2507,
  "الحر": 2508,
  "والذي": 2509,
  "مليون": 2510,
  "بول": 2511,
  "طريق": 2512,
  "فاع": 2513,
  "ضمن": 2514,
  "العالمية": 2515,
  "افظ": 2516,
  "ارس": 2517,
  "السن": 2518,
  "حكم": 2519,
  "هب": 2520,
  "جلي": 2521,
  "أوروبا": 2522,
  "راف": 2523,
  "جتما": 2524,
  "وريا": 2525,
  "ألف": 2526,
  "احت": 2527,
  "العراق": 2528,
  "ودي": 2529,
  "اند": 2530,
  "نش": 2531,
  "أبو": 2532,
  "واح": 2533,
  "انات": 2534,
  "أبي": 2535,
  "كيل": 2536,
  "تاج": 2537,
  "طلق": 2538,
  "اصمة": 2539,
  "تكون": 2540,
  "طان": 2541,
  "ويل": 2542,
  "ِّ": 2543,
  "وبر": 2544,
  "تبر": 2545,
  "ولاية": 2546,
  "يب": 2547,
  "غر": 2548,
  "تس": 2549,
  "كات": 2550,
  "الثانية": 2551,
  "رير": 2552,
  "شف": 2553,
  "الموا": 2554,
  "ترك": 2555,
  "بناء": 2556,
  "عليم": 2557,
  "وين": 2558,
  "واحد": 2559,
  "ضة": 2560,
  "لاً": 2561,
  "سمية": 2562,
  "on": 2563,
  "نف": 2564,
  "شرين": 2565,
  "بأن": 2566,
  "صور": 2567,
  "قاط": 2568,
  "زية": 2569,
  "البريط": 2570,
  "مين": 2571,
  "اية": 2572,
  "وكانت": 2573,
  "خاصة": 2574,
  "in": 2575,
  "en": 2576,
  "صب": 2577,
  "حرب": 2578,
  "طول": 2579,
  "عضاء": 2580,
  "حص": 2581,
  "ده": 2582,
  "الشر": 2583,
  "باب": 2584,
  "مجلس": 2585,
  "امج": 2586,
  "الخاص": 2587,
  "تز": 2588,
  "فترة": 2589,
  "192": 2590,
  "تاب": 2591,
  "الألم": 2592,
  "الاقتصاد": 2593,
  "اليون": 2594,
  "نحو": 2595,
  "ولم": 2596,
  "تست": 2597,
  "الصين": 2598,
  "جمه": 2599,
  "العربي": 2600,
  "ائزة": 2601,
  "الحديث": 2602,
  "لال": 2603,
  "الإمبراط": 2604,
  "ادي": 2605,
  "القوات": 2606,
  "ضر": 2607,
  "وحي": 2608,
  "طية": 2609,
  "ظر": 2610,
  "امي": 2611,
  "ونية": 2612,
  "بور": 2613,
  "وأن": 2614,
  "الوقت": 2615,
  "شرق": 2616,
  "السوفي": 2617,
  "ريقيا": 2618,
  "يران": 2619,
  "وزراء": 2620,
  "غي": 2621,
  "شركة": 2622,
  "مثلة": 2623,
  "شمال": 2624,
  "جوم": 2625,
  "ختلفة": 2626,
  "أحمد": 2627,
  "الأك": 2628,
  "فقط": 2629,
  "ar": 2630,
  "درجة": 2631,
  "واء": 2632,
  "طبي": 2633,
  "العثم": 2634,
  "بالم": 2635,
  "بيل": 2636,
  "مجموعة": 2637,
  "لمة": 2638,
  "سكري": 2639,
  "زم": 2640,
  "التق": 2641,
  "كبيرة": 2642,
  "طب": 2643,
  "امة": 2644,
  "عود": 2645,
  "كث": 2646,
  "عبر": 2647,
  "شرة": 2648,
  "يح": 2649,
  "سيم": 2650,
  "الأن": 2651,
  "المناطق": 2652,
  "الأد": 2653,
  "ألمانيا": 2654,
  "جامعة": 2655,
  "قتل": 2656,
  "اة": 2657,
  "الفترة": 2658,
  "اليهود": 2659,
  "لع": 2660,
  "العلم": 2661,
  "طن": 2662,
  "طف": 2663,
  "مرة": 2664,
  "إذا": 2665,
  "عهد": 2666,
  "ورا": 2667,
  "جائزة": 2668,
  "مغ": 2669,
  "ضع": 2670,
  "خلي": 2671,
  "يه": 2672,
  "ممثل": 2673,
  "بينما": 2674,
  "es": 2675,
  "الأمريكية": 2676,
  "بالإضافة": 2677,
  "داخل": 2678,
  "المغ": 2679,
  "ويس": 2680,
  "الثالث": 2681,
  "مش": 2682,
  "ُّ": 2683,
  "وظ": 2684,
  "بالت": 2685,
  "الشع": 2686,
  "الأر": 2687,
  "الهي": 2688,
  "الطبي": 2689,
  "25": 2690,
  "راك": 2691,
  "وبعد": 2692,
  "قات": 2693,
  "راجع": 2694,
  "ياه": 2695,
  "الرياض": 2696,
  "ضاء": 2697,
  "تقد": 2698,
  "الثق": 2699,
  "فه": 2700,
  "وفق": 2701,
  "وغير": 2702,
  "أسا": 2703,
  "واحدة": 2704,
  "سكرية": 2705,
  "يمة": 2706,
  "الغربية": 2707,
  "ركات": 2708,
  "أيضا": 2709,
  "الحكم": 2710,
  "جزء": 2711,
  "المسلمين": 2712,
  "جمهورية": 2713,
  "مركز": 2714,
  "يول": 2715,
  "داد": 2716,
  "بلاد": 2717,
  "زيز": 2718,
  "موا": 2719,
  "والح": 2720,
  "الوطني": 2721,
  "سمى": 2722,
  "al": 2723,
  "شهر": 2724,
  "لإ": 2725,
  "الشعب": 2726,
  "الجن": 2727,
  "قلال": 2728,
  "ئا": 2729,
  "واس": 2730,
  "الإسلامية": 2731,
  "هور": 2732,
  "نق": 2733,
  "يسة": 2734,
  "أق": 2735,
  "شاء": 2736,
  "عداد": 2737,
  "لبن": 2738,
  "رم": 2739,
  "الأمم": 2740,
  "سام": 2741,
  "بإ": 2742,
  "واقع": 2743,
  "سمي": 2744,
  "العامة": 2745,
  "هرب": 2746,
  "فين": 2747,
  "القد": 2748,
  "ريف": 2749,
  "جتمع": 2750,
  "11": 2751,
  "درا": 2752,
  "جما": 2753,
  "عملية": 2754,
  "السا": 2755,
  "الحد": 2756,
  "الشمس": 2757,
  "دور": 2758,
  "النظام": 2759,
  "السنة": 2760,
  "واع": 2761,
  "إذ": 2762,
  "المملكة": 2763,
  "30": 2764,
  "جات": 2765,
  "نوع": 2766,
  "ناصر": 2767,
  "or": 2768,
  "فيما": 2769,
  "آن": 2770,
  "سنوات": 2771,
  "الخلي": 2772,
  "وء": 2773,
  "قوات": 2774,
  "حسب": 2775,
  "بغ": 2776,
  "جانب": 2777,
  "تيجة": 2778,
  "طالب": 2779,
  "عاد": 2780,
  "منه": 2781,
  "منا": 2782,
  "الاحت": 2783,
  "فري": 2784,
  "َّا": 2785,
  "الأرد": 2786,
  "المر": 2787,
  "صلاح": 2788,
  "فرنسا": 2789,
  "بالن": 2790,
  "جمع": 2791,
  "انتخابات": 2792,
  "ندي": 2793,
  "حركة": 2794,
  "ُم": 2795,
  "جين": 2796,
  "أيضاً": 2797,
  "غل": 2798,
  "تخ": 2799,
  "انة": 2800,
  "باد": 2801,
  "القديمة": 2802,
  "مقرا": 2803,
  "أكت": 2804,
  "أعضاء": 2805,
  "سمة": 2806,
  "ُل": 2807,
  "ّا": 2808,
  "يص": 2809,
  "دو": 2810,
  "تحد": 2811,
  "هار": 2812,
  "أنَّ": 2813,
  "بحت": 2814,
  "موس": 2815,
  "بش": 2816,
  "اعر": 2817,
  "ريب": 2818,
  "والإ": 2819,
  "البلد": 2820,
  "خرج": 2821,
  "لاب": 2822,
  "التا": 2823,
  "عدم": 2824,
  "انيين": 2825,
  "والن": 2826,
  "أكتوبر": 2827,
  "ممثلة": 2828,
  "قيق": 2829,
  "تفاع": 2830,
  "ومات": 2831,
  "أثناء": 2832,
  "وعلى": 2833,
  "الأسا": 2834,
  "أصبحت": 2835,
  "نى": 2836,
  "بريط": 2837,
  "نوبل": 2838,
  "فية": 2839,
  "جيش": 2840,
  "أعل": 2841,
  "نسبة": 2842,
  "تمر": 2843,
  "البح": 2844,
  "الطا": 2845,
  "اطق": 2846,
  "صنا": 2847,
  "قاب": 2848,
  "ونغ": 2849,
  "ائي": 2850,
  "وخ": 2851,
  "الجام": 2852,
  "عيد": 2853,
  "مارس": 2854,
  "شك": 2855,
  "50": 2856,
  "تقع": 2857,
  "22": 2858,
  "الدا": 2859,
  "كمة": 2860,
  "تمد": 2861,
  "ولوج": 2862,
  "دخل": 2863,
  "الصح": 2864,
  "منظمة": 2865,
  "العم": 2866,
  "الوطنية": 2867,
  "صة": 2868,
  "ياد": 2869,
  "جاه": 2870,
  "أصبح": 2871,
  "وحد": 2872,
  "ئيسي": 2873,
  "عرب": 2874,
  "محا": 2875,
  "عين": 2876,
  "نفسه": 2877,
  "زياء": 2878,
  "التن": 2879,
  "نائ": 2880,
  "والق": 2881,
  "ساء": 2882,
  "روا": 2883,
  "دار": 2884,
  "جار": 2885,
  "كري": 2886,
  "21": 2887,
  "ثق": 2888,
  "لز": 2889,
  "ولد": 2890,
  "الصنا": 2891,
  "أصل": 2892,
  "الإسلامي": 2893,
  "رائيلي": 2894,
  "سيس": 2895,
  "إنشاء": 2896,
  "جري": 2897,
  "شق": 2898,
  "مصري": 2899,
  "وقف": 2900,
  "مكن": 2901,
  "الشمالية": 2902,
  "أت": 2903,
  "الأص": 2904,
  "هدف": 2905,
  "ادر": 2906,
  "الكثير": 2907,
  "اهرة": 2908,
  "يوجد": 2909,
  "آسيا": 2910,
  "الشيخ": 2911,
  "ليون": 2912,
  "الخاصة": 2913,
  "لهم": 2914,
  "عني": 2915,
  "الأمر": 2916,
  "الناس": 2917,
  "يناير": 2918,
  "منهم": 2919,
  "الفن": 2920,
  "لاج": 2921,
  "ورد": 2922,
  "مبر": 2923,
  "الدولي": 2924,
  "بريل": 2925,
  "رع": 2926,
  "at": 2927,
  "شري": 2928,
  "لادي": 2929,
  "كين": 2930,
  "حزب": 2931,
  "مناطق": 2932,
  "فيا": 2933,
  "كثير": 2934,
  "المدن": 2935,
  "افية": 2936,
  "ومة": 2937,
  "معد": 2938,
  "راع": 2939,
  "فار": 2940,
  "قرار": 2941,
  "الحياة": 2942,
  "امل": 2943,
  "نهاية": 2944,
  "ستر": 2945,
  "امية": 2946,
  "وكذلك": 2947,
  "مو": 2948,
  "بالق": 2949,
  "غان": 2950,
  "الأمير": 2951,
  "سون": 2952,
  "سمبر": 2953,
  "الأمريكي": 2954,
  "الوسط": 2955,
  "فاق": 2956,
  "صرية": 2957,
  "ورج": 2958,
  "هاء": 2959,
  "التعليم": 2960,
  "ضل": 2961,
  "نظيم": 2962,
  "السلطة": 2963,
  "ديسمبر": 2964,
  "طات": 2965,
  "اتي": 2966,
  "الجزيرة": 2967,
  "يونيو": 2968,
  "هند": 2969,
  "الأراضي": 2970,
  "الخام": 2971,
  "الشرقية": 2972,
  "حكومة": 2973,
  "سلحة": 2974,
  "أُ": 2975,
  "ليبي": 2976,
  "اكت": 2977,
  "تون": 2978,
  "هاد": 2979,
  "غا": 2980,
  "لاقات": 2981,
  "مايو": 2982,
  "أجل": 2983,
  "باني": 2984,
  "ريقة": 2985,
  "أفريقيا": 2986,
  "الحم": 2987,
  "لأن": 2988,
  "اللغ": 2989,
  "نوف": 2990,
  "الشمال": 2991,
  "تمبر": 2992,
  "عرض": 2993,
  "الخط": 2994,
  "ينية": 2995,
  "أمر": 2996,
  "الإنسان": 2997,
  "العزيز": 2998,
  "بداية": 2999,
  "نهر": 3000,
  "قسم": 3001,
  "ليس": 3002,
  "لدي": 3003,
  "بني": 3004,
  "صح": 3005,
  "وعات": 3006,
  "راب": 3007,
  "الساد": 3008,
  "ذهب": 3009,
  "ضا": 3010,
  "القانون": 3011,
  "سياسي": 3012,
  "أل": 3013,
  "تمام": 3014,
  "الدولية": 3015,
  "الكن": 3016,
  "شب": 3017,
  "موقع": 3018,
  "خذ": 3019,
  "عُ": 3020,
  "يؤ": 3021,
  "is": 3022,
  "أقل": 3023,
  "بلد": 3024,
  "ارت": 3025,
  "24": 3026,
  "he": 3027,
  "الزرا": 3028,
  "طلب": 3029,
  "ثلاثة": 3030,
  "حلية": 3031,
  "سبتمبر": 3032,
  "هُ": 3033,
  "ونات": 3034,
  "ربعة": 3035,
  "مز": 3036,
  "خم": 3037,
  "يوليو": 3038,
  "وحدة": 3039,
  "حالة": 3040,
  "الميلاد": 3041,
  "غيرة": 3042,
  "ميل": 3043,
  "باط": 3044,
  "أهل": 3045,
  "الاجتما": 3046,
  "الخارج": 3047,
  "المقد": 3048,
  "بدأت": 3049,
  "نسمة": 3050,
  "للت": 3051,
  "نز": 3052,
  "حات": 3053,
  "برى": 3054,
  "حدود": 3055,
  "جون": 3056,
  "الغربي": 3057,
  "الفلسطينية": 3058,
  "آل": 3059,
  "أيام": 3060,
  "قطاع": 3061,
  "إليه": 3062,
  "التالي": 3063,
  "العصر": 3064,
  "خارجية": 3065,
  "النف": 3066,
  "الكيم": 3067,
  "أدى": 3068,
  "أعمال": 3069,
  "دع": 3070,
  "استمر": 3071,
  "عتبر": 3072,
  "ديم": 3073,
  "الجنوبية": 3074,
  "يار": 3075,
  "شبه": 3076,
  "مالي": 3077,
  "تهم": 3078,
  "أشهر": 3079,
  "زو": 3080,
  "طلاق": 3081,
  "لاست": 3082,
  "اس": 3083,
  "ضي": 3084,
  "الإمبراطورية": 3085,
  "وصف": 3086,
  "ثي": 3087,
  "190": 3088,
  "يرات": 3089,
  "إنتاج": 3090,
  "المحي": 3091,
  "سطس": 3092,
  "هن": 3093,
  "افظة": 3094,
  "اقت": 3095,
  "وبة": 3096,
  "المسا": 3097,
  "صادي": 3098,
  "جرة": 3099,
  "هام": 3100,
  "وصول": 3101,
  "الفرنسية": 3102,
  "23": 3103,
  "لكتر": 3104,
  "جيل": 3105,
  "it": 3106,
  "هول": 3107,
  "ثار": 3108,
  "شل": 3109,
  "إحد": 3110,
  "العد": 3111,
  "جعل": 3112,
  "نوفمبر": 3113,
  "افت": 3114,
  "تعد": 3115,
  "ائرة": 3116,
  "منت": 3117,
  "اي": 3118,
  "الأوروبي": 3119,
  "إيط": 3120,
  "شهد": 3121,
  "مكان": 3122,
  "نص": 3123,
  "لاع": 3124,
  "هيم": 3125,
  "الحديد": 3126,
  "أبريل": 3127,
  "وجين": 3128,
  "رش": 3129,
  "انتق": 3130,
  "ناة": 3131,
  "قامت": 3132,
  "ّل": 3133,
  "وفر": 3134,
  "لغة": 3135,
  "رخ": 3136,
  "ماد": 3137,
  "السود": 3138,
  "واف": 3139,
  "بس": 3140,
  "جديدة": 3141,
  "اك": 3142,
  "راج": 3143,
  "جهة": 3144,
  "جاء": 3145,
  "رأس": 3146,
  "العاصمة": 3147,
  "وفيات": 3148,
  "زن": 3149,
  "الإد": 3150,
  "المسيحية": 3151,
  "العسكرية": 3152,
  "فص": 3153,
  "صبح": 3154,
  "أغسطس": 3155,
  "لمان": 3156,
  "رفة": 3157,
  "مؤس": 3158,
  "الحزب": 3159,
  "همة": 3160,
  "التاسع": 3161,
  "ic": 3162,
  "ياس": 3163,
  "مم": 3164,
  "متر": 3165,
  "برز": 3166,
  "جنة": 3167,
  "السياسية": 3168,
  "ليات": 3169,
  "شعب": 3170,
  "الثلاث": 3171,
  "2010": 3172,
  "الآن": 3173,
  "صالح": 3174,
  "اهدة": 3175,
  "أة": 3176,
  "السياسي": 3177,
  "جزيرة": 3178,
  "براير": 3179,
  "الظ": 3180,
  "الترك": 3181,
  "اغ": 3182,
  "ستور": 3183,
  "اق": 3184,
  "اعتبار": 3185,
  "خفض": 3186,
  "بيت": 3187,
  "2008": 3188,
  "معركة": 3189,
  "يك": 3190,
  "الفرنسي": 3191,
  "جراء": 3192,
  "عقد": 3193,
  "سح": 3194,
  "أعلى": 3195,
  "مختلفة": 3196,
  "قانون": 3197,
  "حاء": 3198,
  "قول": 3199,
  "واليد": 3200,
  "وسية": 3201,
  "طور": 3202,
  "كذلك": 3203,
  "قى": 3204,
  "نتيجة": 3205,
  "المجتمع": 3206,
  "لما": 3207,
  "حيان": 3208,
  "وزير": 3209,
  "المجم": 3210,
  "مات": 3211,
  "أوا": 3212,
  "فور": 3213,
  "الحض": 3214,
  "فبراير": 3215,
  "المرت": 3216,
  "لمون": 3217,
  "26": 3218,
  "يان": 3219,
  "الانت": 3220,
  "سلي": 3221,
  "وائل": 3222,
  "غالب": 3223,
  "جديد": 3224,
  "هير": 3225,
  "27": 3226,
  "والد": 3227,
  "لكل": 3228,
  "ئات": 3229,
  "دولار": 3230,
  "ارب": 3231,
  "وحيد": 3232,
  "المغرب": 3233,
  "أخذ": 3234,
  "ندية": 3235,
  "قدر": 3236,
  "علان": 3237,
  "دمشق": 3238,
  "الرئيسية": 3239,
  "شروع": 3240,
  "القدس": 3241,
  "نات": 3242,
  "فير": 3243,
  "إحدى": 3244,
  "العشرين": 3245,
  "الوسطى": 3246,
  "فريق": 3247,
  "الباب": 3248,
  "حاصل": 3249,
  "اقتصاد": 3250,
  "الإسرائيلي": 3251,
  "الديمقرا": 3252,
  "اذ": 3253,
  "الجمه": 3254,
  "شاف": 3255,
  "40": 3256,
  "البريطانية": 3257,
  "واج": 3258,
  "أرض": 3259,
  "هاب": 3260,
  "تتم": 3261,
  "الطاقة": 3262,
  "لية": 3263,
  "وتم": 3264,
  "اليم": 3265,
  "فوق": 3266,
  "كانوا": 3267,
  "الجديدة": 3268,
  "الكهرب": 3269,
  "الإنجلي": 3270,
  "المث": 3271,
  "فتح": 3272,
  "اليابان": 3273,
  "زمة": 3274,
  "يني": 3275,
  "كور": 3276,
  "قيقة": 3277,
  "ومي": 3278,
  "الرس": 3279,
  "المركز": 3280,
  "الأمن": 3281,
  "ريا": 3282,
  "فيذ": 3283,
  "وتر": 3284,
  "مواليد": 3285,
  "2009": 3286,
  "والس": 3287,
  "جاز": 3288,
  "كيم": 3289,
  "برن": 3290,
  "تحدث": 3291,
  "ائد": 3292,
  "التص": 3293,
  "رياض": 3294,
  "تعتبر": 3295,
  "الطب": 3296,
  "أنحاء": 3297,
  "بالنسبة": 3298,
  "اتحاد": 3299,
  "الأكثر": 3300,
  "يكن": 3301,
  "الأش": 3302,
  "ينات": 3303,
  "للك": 3304,
  "المعروف": 3305,
  "اللغات": 3306,
  "العثمانية": 3307,
  "تك": 3308,
  "الجما": 3309,
  "السلام": 3310,
  "ارك": 3311,
  "السعود": 3312,
  "نع": 3313,
  "الوزراء": 3314,
  "ريد": 3315,
  "ئاسة": 3316,
  "سيد": 3317,
  "الاقت": 3318,
  "ربة": 3319,
  "الثورة": 3320,
  "سطح": 3321,
  "2000": 3322,
  "والص": 3323,
  "نقل": 3324,
  "للإ": 3325,
  "القدم": 3326,
  "ثة": 3327,
  "أسست": 3328,
  "السعودية": 3329,
  "سيط": 3330,
  "التقلي": 3331,
  "السنوات": 3332,
  "البشر": 3333,
  "بغداد": 3334,
  "قاد": 3335,
  "29": 3336,
  "حصل": 3337,
  "لو": 3338,
  "وفاة": 3339,
  "ويد": 3340,
  "2006": 3341,
  "الاقتصادية": 3342,
  "28": 3343,
  "تاح": 3344,
  "يته": 3345,
  "لندا": 3346,
  "2007": 3347,
  "توجد": 3348,
  "فظ": 3349,
  "امن": 3350,
  "المياه": 3351,
  "المصري": 3352,
  "الكبرى": 3353,
  "جمالي": 3354,
  "راقي": 3355,
  "مدن": 3356,
  "غرا": 3357,
  "لاحق": 3358,
  "الأردن": 3359,
  "ورك": 3360,
  "طاق": 3361,
  "مستوى": 3362,
  "المسيحي": 3363,
  "الرئيسي": 3364,
  "يام": 3365,
  "الموج": 3366,
  "بيا": 3367,
  "وبين": 3368,
  "نين": 3369,
  "وهذا": 3370,
  "وإن": 3371,
  "189": 3372,
  "الأوروبية": 3373,
  "توفي": 3374,
  "وصلات": 3375,
  "حما": 3376,
  "2011": 3377,
  "الحديثة": 3378,
  "جورج": 3379,
  "لاقة": 3380,
  "يعد": 3381,
  "السي": 3382,
  "اللي": 3383,
  "يعتبر": 3384,
  "ابه": 3385,
  "العالمي": 3386,
  "اش": 3387,
  "تشر": 3388,
  "اعات": 3389,
  "زع": 3390,
  "قُ": 3391,
  "قض": 3392,
  "وتش": 3393,
  "مجال": 3394,
  "زيا": 3395,
  "إي": 3396,
  "إدارة": 3397,
  "عاصمة": 3398,
  "جبل": 3399,
  "سوب": 3400,
  "el": 3401,
  "إضافة": 3402,
  "والف": 3403,
  "مساحة": 3404,
  "السابق": 3405,
  "60": 3406,
  "الحدود": 3407,
  "غط": 3408,
  "وفقًا": 3409,
  "لبنان": 3410,
  "ونة": 3411,
  "مك": 3412,
  "مدر": 3413,
  "الألمانية": 3414,
  "وسيقى": 3415,
  "انيون": 3416,
  "لام": 3417,
  "الكت": 3418,
  "اهر": 3419,
  "إليها": 3420,
  "الحيو": 3421,
  "نيا": 3422,
  "سوريا": 3423,
  "فران": 3424,
  "أنواع": 3425,
  "الحركة": 3426,
  "ابت": 3427,
  "الشخص": 3428,
  "الرح": 3429,
  "وام": 3430,
  "بص": 3431,
  "الخارجية": 3432,
  "مملكة": 3433,
  "زيد": 3434,
  "نس": 3435,
  "الين": 3436,
  "الدر": 3437,
  "زوج": 3438,
  "الحرارة": 3439,
  "بحر": 3440,
  "رفض": 3441,
  "الكتاب": 3442,
  "كوب": 3443,
  "وغيرها": 3444,
  "سبيل": 3445,
  "فات": 3446,
  "وارد": 3447,
  "2005": 3448,
  "ناب": 3449,
  "ارتفاع": 3450,
  "100": 3451,
  "الدرا": 3452,
  "وافق": 3453,
  "إسب": 3454,
  "الجديد": 3455,
  "قلة": 3456,
  "أنش": 3457,
  "المصرية": 3458,
  "يبلغ": 3459,
  "تنا": 3460,
  "نشر": 3461,
  "بقيادة": 3462,
  "الماء": 3463,
  "لدى": 3464,
  "أثر": 3465,
  "قائمة": 3466,
  "طفال": 3467,
  "الإخ": 3468,
  "لعاب": 3469,
  "الآخر": 3470,
  "بريطانيا": 3471,
  "ؤول": 3472,
  "النبي": 3473,
  "يقوم": 3474,
  "المعل": 3475,
  "وادي": 3476,
  "الحق": 3477,
  "الجمع": 3478,
  "يَّة": 3479,
  "غيل": 3480,
  "رحلة": 3481,
  "روم": 3482,
  "الكنيسة": 3483,
  "الداخل": 3484,
  "اتها": 3485,
  "2004": 3486,
  "الجمهورية": 3487,
  "سلة": 3488,
  "أرسل": 3489,
  "مبا": 3490,
  "الخليفة": 3491,
  "واض": 3492,
  "عنه": 3493,
  "دري": 3494,
  "الأق": 3495,
  "النات": 3496,
  "حسن": 3497,
  "السلطان": 3498,
  "أب": 3499,
  "رؤ": 3500,
  "عز": 3501,
  "وحة": 3502,
  "مض": 3503,
  "شترا": 3504,
  "الرابع": 3505,
  "ريات": 3506,
  "انته": 3507,
  "الميلادي": 3508,
  "الكويت": 3509,
  "الشام": 3510,
  "والش": 3511,
  "طوي": 3512,
  "روسيا": 3513,
  "الاستقلال": 3514,
  "السادس": 3515,
  "ينيات": 3516,
  "البرت": 3517,
  "لافة": 3518,
  "st": 3519,
  "إنجلي": 3520,
  "صناعة": 3521,
  "أه": 3522,
  "رنت": 3523,
  "المحلي": 3524,
  "الجزائر": 3525,
  "أمام": 3526,
  "ظهرت": 3527,
  "براهيم": 3528,
  "ومتر": 3529,
  "نظرية": 3530,
  "وسيا": 3531,
  "حاول": 3532,
  "وزارة": 3533,
  "ملا": 3534,
  "نسب": 3535,
  "كلمة": 3536,
  "80": 3537,
  "ائلة": 3538,
  "الحكوم": 3539,
  "أنّ": 3540,
  "لذلك": 3541,
  "خدمة": 3542,
  "أواخر": 3543,
  "خول": 3544,
  "وقال": 3545,
  "العسكري": 3546,
  "وكب": 3547,
  "الأخيرة": 3548,
  "تغ": 3549,
  "سمح": 3550,
  "الكبير": 3551,
  "تلر": 3552,
  "الثقافة": 3553,
  "الثامن": 3554,
  "راز": 3555,
  "مود": 3556,
  "ّر": 3557,
  "الاسم": 3558,
  "ذر": 3559,
  "إل": 3560,
  "الدينية": 3561,
  "أفضل": 3562,
  "ائق": 3563,
  "المرك": 3564,
  "بقى": 3565,
  "مون": 3566,
  "المتوسط": 3567,
  "ماً": 3568,
  "تأسيس": 3569,
  "فصل": 3570,
  "انظر": 3571,
  "ويج": 3572,
  "َّى": 3573,
  "يزن": 3574,
  "باح": 3575,
  "تشكل": 3576,
  "الانتخابات": 3577,
  "جزاء": 3578,
  "قوة": 3579,
  "عار": 3580,
  "قاطعة": 3581,
  "أمريكية": 3582,
  "مط": 3583,
  "فرنسي": 3584,
  "جو": 3585,
  "إعادة": 3586,
  "فاقية": 3587,
  "الفر": 3588,
  "ّي": 3589,
  "المجلس": 3590,
  "وانين": 3591,
  "الشرقي": 3592,
  "وكالة": 3593,
  "علماء": 3594,
  "واب": 3595,
  "موج": 3596,
  "كامل": 3597,
  "ol": 3598,
  "بأ": 3599,
  "باك": 3600,
  "وسائل": 3601,
  "يحت": 3602,
  "تأثير": 3603,
  "مرك": 3604,
  "مقد": 3605,
  "الها": 3606,
  "لأ": 3607,
  "ظل": 3608,
  "اجتما": 3609,
  "الإسرائيل": 3610,
  "البرتغ": 3611,
  "يعرف": 3612,
  "مليار": 3613,
  "هاجر": 3614,
  "ميم": 3615,
  "سرعة": 3616,
  "الخامس": 3617,
  "ch": 3618,
  "منح": 3619,
  "باً": 3620,
  "ترنت": 3621,
  "يجب": 3622,
  "بـ": 3623,
  "الإسرائيلية": 3624,
  "كاتب": 3625,
  "لاس": 3626,
  "القب": 3627,
  "فعل": 3628,
  "وهم": 3629,
  "بك": 3630,
  "باست": 3631,
  "قامة": 3632,
  "السوفيتي": 3633,
  "يقول": 3634,
  "القاهرة": 3635,
  "الدفاع": 3636,
  "عامل": 3637,
  "جها": 3638,
  "واة": 3639,
  "لتح": 3640,
  "حن": 3641,
  "نظر": 3642,
  "70": 3643,
  "بون": 3644,
  "اليد": 3645,
  "قائد": 3646,
  "فيد": 3647,
  "الأعمال": 3648,
  "إبراهيم": 3649,
  "باء": 3650,
  "غزة": 3651,
  "سق": 3652,
  "الرومانية": 3653,
  "وست": 3654,
  "هيئة": 3655,
  "الشعبية": 3656,
  "العلوم": 3657,
  "ماي": 3658,
  "رام": 3659,
  "جهزة": 3660,
  "المش": 3661,
  "قاومة": 3662,
  "المدارس": 3663,
  "عسكري": 3664,
  "منع": 3665,
  "البريطاني": 3666,
  "أسس": 3667,
  "الصليبي": 3668,
  "خطوط": 3669,
  "البيزن": 3670,
  "ur": 3671,
  "بكر": 3672,
  "الأما": 3673,
  "ion": 3674,
  "اتهم": 3675,
  "ُر": 3676,
  "نج": 3677,
  "لول": 3678,
  "تستخدم": 3679,
  "فرد": 3680,
  "البل": 3681,
  "إمبراط": 3682,
  "الأند": 3683,
  "يزة": 3684,
  "التش": 3685,
  "ترا": 3686,
  "بذلك": 3687,
  "نصف": 3688,
  "ولوجيا": 3689,
  "النمسا": 3690,
  "أمير": 3691,
  "ونيا": 3692,
  "عمار": 3693,
  "ابل": 3694,
  "علام": 3695,
  "لاحظ": 3696,
  "قليم": 3697,
  "فهي": 3698,
  "الإلكتر": 3699,
  "المجر": 3700,
  "انا": 3701,
  "واد": 3702,
  "الأع": 3703,
  "المنظ": 3704,
  "لعب": 3705,
  "اثولي": 3706,
  "للأ": 3707,
  "ثاني": 3708,
  "واسطة": 3709,
  "عر": 3710,
  "تطور": 3711,
  "ويات": 3712,
  "هتلر": 3713,
  "اضي": 3714,
  "تشمل": 3715,
  "العهد": 3716,
  "المختلفة": 3717,
  "بيد": 3718,
  "يدة": 3719,
  "يوس": 3720,
  "ثمان": 3721,
  "ماع": 3722,
  "خلف": 3723,
  "اليهودية": 3724,
  "الشيوع": 3725,
  "الأف": 3726,
  "الأصل": 3727,
  "le": 3728,
  "عاية": 3729,
  "اللا": 3730,
  "صدر": 3731,
  "التجارة": 3732,
  "سلسلة": 3733,
  "الكاثولي": 3734,
  "مقر": 3735,
  "اليمن": 3736,
  "صحي": 3737,
  "2012": 3738,
  "طاع": 3739,
  "للع": 3740,
  "سري": 3741,
  "وتق": 3742,
  "مالك": 3743,
  "كاني": 3744,
  "هرة": 3745,
  "أربعة": 3746,
  "الرسمية": 3747,
  "ابي": 3748,
  "العلماء": 3749,
  "جماعة": 3750,
  "الجزء": 3751,
  "زين": 3752,
  "محافظة": 3753,
  "ويم": 3754,
  "بواسطة": 3755,
  "ثورة": 3756,
  "ناد": 3757,
  "حاكم": 3758,
  "واص": 3759,
  "قيام": 3760,
  "بأنه": 3761,
  "تطوير": 3762,
  "2003": 3763,
  "بهة": 3764,
  "صول": 3765,
  "مدرسة": 3766,
  "شاعر": 3767,
  "كول": 3768,
  "زال": 3769,
  "ساعد": 3770,
  "القرآن": 3771,
  "ابع": 3772,
  "يقع": 3773,
  "الاقتصادي": 3774,
  "الإنجليزية": 3775,
  "العب": 3776,
  "امت": 3777,
  "دراسة": 3778,
  "دائ": 3779,
  "برنامج": 3780,
  "عمليات": 3781,
  "لمدة": 3782,
  "أربع": 3783,
  "قطر": 3784,
  "خمس": 3785,
  "ومية": 3786,
  "لغات": 3787,
  "اللبن": 3788,
  "مقتل": 3789,
  "ؤون": 3790,
  "الني": 3791,
  "البعض": 3792,
  "باس": 3793,
  "شم": 3794,
  "والك": 3795,
  "حياة": 3796,
  "السري": 3797,
  "العلاقات": 3798,
  "يعود": 3799,
  "شيد": 3800,
  "تقوم": 3801,
  "انتشار": 3802,
  "العصور": 3803,
  "ريم": 3804,
  "أمريكا": 3805,
  "جبال": 3806,
  "إيطاليا": 3807,
  "الفلك": 3808,
  "ارا": 3809,
  "الإيط": 3810,
  "المشت": 3811,
  "تقل": 3812,
  "زيادة": 3813,
  "المدر": 3814,
  "يصل": 3815,
  "لاة": 3816,
  "واصل": 3817,
  "ليف": 3818,
  "سير": 3819,
  "قطع": 3820,
  "الإسب": 3821,
  "وبي": 3822,
  "عاون": 3823,
  "اللات": 3824,
  "المحلية": 3825,
  "ادل": 3826,
  "عصر": 3827,
  "المخ": 3828,
  "حسين": 3829,
  "يتها": 3830,
  "دل": 3831,
  "لفاء": 3832,
  "تنظيم": 3833,
  "يستخدم": 3834,
  "قه": 3835,
  "ظاهر": 3836,
  "المواد": 3837,
  "باستخدام": 3838,
  "البار": 3839,
  "المحيط": 3840,
  "om": 3841,
  "وهناك": 3842,
  "أعلن": 3843,
  "ذاك": 3844,
  "لسفة": 3845,
  "طلح": 3846,
  "of": 3847,
  "لان": 3848,
  "أراضي": 3849,
  "خان": 3850,
  "النها": 3851,
  "القديم": 3852,
  "واسع": 3853,
  "ؤلاء": 3854,
  "المؤس": 3855,
  "المجا": 3856,
  "المثال": 3857,
  "رسم": 3858,
  "مرت": 3859,
  "نيف": 3860,
  "التجارية": 3861,
  "وأك": 3862,
  "دير": 3863,
  "البحرية": 3864,
  "بنى": 3865,
  "العليا": 3866,
  "35": 3867,
  "and": 3868,
  "حض": 3869,
  "ويُ": 3870,
  "ويورك": 3871,
  "الداخلية": 3872,
  "ذب": 3873,
  "غاز": 3874,
  "عددة": 3875,
  "مختلف": 3876,
  "ادية": 3877,
  "متح": 3878,
  "دن": 3879,
  "عنها": 3880,
  "التع": 3881,
  "إف": 3882,
  "الرب": 3883,
  "َّد": 3884,
  "المط": 3885,
  "بيض": 3886,
  "أقدم": 3887,
  "مكت": 3888,
  "عامة": 3889,
  "بيروت": 3890,
  "إيران": 3891,
  "سعود": 3892,
  "قناة": 3893,
  "ورو": 3894,
  "النفط": 3895,
  "الكيميا": 3896,
  "تضم": 3897,
  "عضو": 3898,
  "ّن": 3899,
  "2001": 3900,
  "فهو": 3901,
  "معاهدة": 3902,
  "راكز": 3903,
  "انتخاب": 3904,
  "عى": 3905,
  "الكون": 3906,
  "صادر": 3907,
  "الأكبر": 3908,
  "كيلومتر": 3909,
  "حديث": 3910,
  "الملا": 3911,
  "الطبيعية": 3912,
  "غيير": 3913,
  "معدل": 3914,
  "تقري": 3915,
  "خصوص": 3916,
  "re": 3917,
  "أشخاص": 3918,
  "ثقافة": 3919,
  "حلب": 3920,
  "حقوق": 3921,
  "السابع": 3922,
  "صغيرة": 3923,
  "تكن": 3924,
  "َّام": 3925,
  "جير": 3926,
  "الهيدر": 3927,
  "البلدان": 3928,
  "كسي": 3929,
  "الألماني": 3930,
  "المعلومات": 3931,
  "قصى": 3932,
  "الحسن": 3933,
  "دينة": 3934,
  "ربون": 3935,
  "تحول": 3936,
  "اتب": 3937,
  "حداث": 3938,
  "أساس": 3939,
  "وها": 3940,
  "درجات": 3941,
  "اما": 3942,
  "1991": 3943,
  "187": 3944,
  "ملوك": 3945,
  "سياسة": 3946,
  "كلم": 3947,
  "188": 3948,
  "الضوء": 3949,
  "زار": 3950,
  "أبرز": 3951,
  "مراجع": 3952,
  "تان": 3953,
  "الطرق": 3954,
  "الأل": 3955,
  "نب": 3956,
  "حياته": 3957,
  "هري": 3958,
  "أحداث": 3959,
  "واكب": 3960,
  "تحديد": 3961,
  "وَّ": 3962,
  "منصب": 3963,
  "كوين": 3964,
  "كلي": 3965,
  "الأدب": 3966,
  "قيم": 3967,
  "وله": 3968,
  "بب": 3969,
  "ائع": 3970,
  "نطاق": 3971,
  "وسوف": 3972,
  "لعام": 3973,
  "لكرة": 3974,
  "انتهاء": 3975,
  "أوائل": 3976,
  "جاب": 3977,
  "عشرة": 3978,
  "إسلام": 3979,
  "نفسها": 3980,
  "نور": 3981,
  "شارة": 3982,
  "تمي": 3983,
  "وبالتالي": 3984,
  "لته": 3985,
  "الأخير": 3986,
  "جزر": 3987,
  "حاليا": 3988,
  "محمود": 3989,
  "أمين": 3990,
  "ثناء": 3991,
  "مخ": 3992,
  "وسع": 3993,
  "استقلال": 3994,
  "حرارة": 3995,
  "المه": 3996,
  "دت": 3997,
  "وتن": 3998,
  "90": 3999,
  "مّ": 4000
}