<unk>	0
<s>	0
</s>	0
ar	-0
er	-1
an	-2
in	-3
▁b	-4
ir	-5
il	-6
en	-7
al	-8
▁k	-9
ın	-10
el	-11
▁s	-12
ak	-13
▁v	-14
▁d	-15
ek	-16
▁y	-17
ma	-18
▁t	-19
ol	-20
▁ve	-21
ik	-22
et	-23
on	-24
▁i	-25
▁g	-26
es	-27
lar	-28
as	-29
ır	-30
un	-31
ay	-32
ler	-33
▁B	-34
or	-35
iz	-36
at	-37
em	-38
▁m	-39
▁h	-40
da	-41
▁A	-42
▁bir	-43
ul	-44
▁S	-45
▁K	-46
de	-47
is	-48
lı	-49
▁ol	-50
im	-51
▁iç	-52
la	-53
▁ç	-54
it	-55
ur	-56
▁T	-57
ab	-58
▁M	-59
▁p	-60
lan	-61
▁için	-62
ür	-63
ün	-64
iy	-65
am	-66
iş	-67
ed	-68
▁P	-69
az	-70
ot	-71
ap	-72
ey	-73
ad	-74
li	-75
ağ	-76
ız	-77
ah	-78
▁D	-79
ya	-80
▁H	-81
ış	-82
st	-83
▁f	-84
▁E	-85
ım	-86
▁ö	-87
ük	-88
▁il	-89
ıl	-90
le	-91
um	-92
ık	-93
alar	-94
ok	-95
eri	-96
aş	-97
▁C	-98
ör	-99
▁G	-100
mak	-101
▁Y	-102
esi	-103
▁al	-104
ları	-105
ilir	-106
eğ	-107
ut	-108
ev	-109
af	-110
▁(	-111
▁O	-112
dan	-113
▁1	-114
uz	-115
üz	-116
leri	-117
▁ş	-118
ında	-119
▁2	-120
▁İ	-121
tir	-122
ama	-123
ini	-124
ro	-125
üm	-126
uy	-127
▁ile	-128
yon	-129
ullan	-130
▁F	-131
cı	-132
▁r	-133
eb	-134
▁o	-135
ını	-136
uk	-137
dır	-138
lem	-139
oğ	-140
▁L	-141
den	-142
inde	-143
▁n	-144
ine	-145
ic	-146
lik	-147
▁ar	-148
▁kullan	-149
ası	-150
dir	-151
ip	-152
ekt	-153
av	-154
me	-155
▁Ç	-156
▁R	-157
▁z	-158
iniz	-159
▁-	-160
aç	-161
sı	-162
ac	-163
▁yap	-164
iğ	-165
lık	-166
ec	-167
arak	-168
man	-169
▁ür	-170
ta	-171
▁an	-172
eş	-173
▁en	-174
os	-175
tır	-176
ların	-177
ez	-178
ist	-179
iler	-180
▁Bu	-181
..	-182
ön	-183
üş	-184
ilm	-185
ib	-186
▁kon	-187
▁et	-188
▁V	-189
ül	-190
zel	-191
▁bu	-192
otel	-193
alı	-194
▁iş	-195
ce	-196
du	-197
uş	-198
ayı	-199
tı	-200
om	-201
▁I	-202
▁gör	-203
isi	-204
▁veya	-205
if	-206
op	-207
us	-208
▁N	-209
▁bil	-210
abilir	-211
üy	-212
▁c	-213
▁gel	-214
dı	-215
anı	-216
mek	-217
▁ön	-218
eç	-219
▁U	-220
len	-221
▁olarak	-222
00	-223
ter	-224
▁var	-225
aha	-226
▁değ	-227
▁her	-228
aları	-229
id	-230
lu	-231
tr	-232
▁uy	-233
ına	-234
▁ed	-235
▁3	-236
tad	-237
▁An	-238
eler	-239
inin	-240
asyon	-241
ibi	-242
tik	-243
di	-244
üks	-245
▁ay	-246
▁par	-247
▁tar	-248
▁ver	-249
▁baş	-250
tadır	-251
▁,	-252
▁ger	-253
▁sağ	-254
iştir	-255
▁bul	-256
▁daha	-257
dak	-258
▁ek	-259
▁or	-260
▁kal	-261
mış	-262
▁da	-263
ından	-264
▁özel	-265
iv	-266
eli	-267
▁ma	-268
ep	-269
od	-270
oy	-271
▁5	-272
▁W	-273
cak	-274
▁son	-275
leş	-276
met	-277
ru	-278
ang	-279
est	-280
▁in	-281
ef	-282
▁kar	-283
▁gibi	-284
üc	-285
▁20	-286
maktadır	-287
üç	-288
ıcı	-289
▁yıl	-290
üksek	-291
ark	-292
duğ	-293
lama	-294
▁pro	-295
▁yar	-296
oz	-297
ans	-298
rik	-299
ınız	-300
ca	-301
ağı	-302
imi	-303
alış	-304
ının	-305
▁kur	-306
▁sah	-307
▁olan	-308
ra	-309
unu	-310
aman	-311
▁çok	-312
ebilir	-313
üt	-314
▁sür	-315
izmet	-316
re	-317
te	-318
ede	-319
eni	-320
akin	-321
daki	-322
elik	-323
▁tek	-324
▁üret	-325
lay	-326
tan	-327
▁Ar	-328
▁ürün	-329
yi	-330
▁4	-331
▁Ö	-332
▁Ü	-333
▁Ş	-334
▁sun	-335
▁uyg	-336
▁de	-337
ileri	-338
lü	-339
let	-340
▁üz	-341
▁bulun	-342
art	-343
eki	-344
erk	-345
▁ad	-346
▁gö	-347
▁zaman	-348
tur	-349
▁Bir	-350
▁olma	-351
▁olduğ	-352
ımı	-353
▁yer	-354
▁üzer	-355
▁çalış	-356
ih	-357
ing	-358
tar	-359
▁uz	-360
ilen	-361
leme	-362
▁bağ	-363
▁doğ	-364
eleri	-365
▁hizmet	-366
ob	-367
oj	-368
▁faz	-369
▁bilg	-370
eh	-371
▁l	-372
azı	-373
▁Ay	-374
ers	-375
liğ	-376
▁el	-377
▁201	-378
▁büy	-379
istem	-380
ğı	-381
laş	-382
mas	-383
tal	-384
ilik	-385
iyor	-386
▁gen	-387
▁ist	-388
▁top	-389
▁otel	-390
▁sahip	-391
sa	-392
iye	-393
ren	-394
asar	-395
ızlı	-396
▁mal	-397
▁yön	-398
siniz	-399
üv	-400
ant	-401
ize	-402
ret	-403
eden	-404
▁etk	-405
▁iyi	-406
▁kad	-407
▁Hotel	-408
▁fazla	-409
men	-410
ran	-411
san	-412
edir	-413
iğer	-414
ster	-415
▁kap	-416
▁kay	-417
inden	-418
▁gerek	-419
▁taraf	-420
▁vardır	-421
uc	-422
uv	-423
▁_	-424
eme	-425
üst	-426
▁aç	-427
▁on	-428
unda	-429
▁bel	-430
▁tel	-431
akinesi	-432
ıs	-433
ıy	-434
▁En	-435
▁oy	-436
▁boy	-437
▁kat	-438
▁yüksek	-439
...	-440
ici	-441
raf	-442
sel	-443
▁ak	-444
▁seç	-445
▁şek	-446
öz	-447
akk	-448
ıla	-449
angi	-450
ti	-451
arı	-452
ava	-453
emiz	-454
oloj	-455
ılır	-456
▁kab	-457
▁ken	-458
▁sat	-459
▁uygul	-460
eye	-461
ili	-462
yan	-463
▁eğ	-464
▁od	-465
▁sa	-466
iyet	-467
▁ser	-468
▁tüm	-469
▁oluş	-470
▁büyük	-471
ht	-472
og	-473
rı	-474
ide	-475
oru	-476
▁Eğ	-477
▁Ot	-478
▁bö	-479
▁ama	-480
▁gün	-481
leştir	-482
aj	-483
lam	-484
lat	-485
siz	-486
▁ağ	-487
▁ya	-488
acak	-489
ılan	-490
▁Kar	-491
▁Kon	-492
▁kiş	-493
▁görün	-494
▁sistem	-495
ub	-496
ast	-497
iği	-498
ort	-499
ost	-500
res	-501
arik	-502
imiz	-503
ması	-504
üven	-505
▁den	-506
▁dur	-507
▁kol	-508
▁mes	-509
erkez	-510
hangi	-511
lerin	-512
asında	-513
▁sonra	-514
▁tasar	-515
▁geliştir	-516
iç	-517
dur	-518
▁Ek	-519
▁geç	-520
▁yan	-521
aklık	-522
▁alan	-523
▁diğer	-524
ci	-525
ge	-526
üs	-527
ada	-528
dığ	-529
for	-530
ley	-531
▁es	-532
▁ot	-533
deki	-534
lere	-535
otor	-536
ımız	-537
▁bak	-538
▁met	-539
▁ort	-540
▁yol	-541
▁malz	-542
▁kadar	-543
▁kalit	-544
ektedir	-545
▁tarafından	-546
ig	-547
▁:	-548
▁Ak	-549
▁ik	-550
▁sı	-551
liği	-552
maya	-553
orum	-554
▁yüz	-555
▁parç	-556
▁tekn	-557
up	-558
▁0	-559
der	-560
dım	-561
ram	-562
▁10	-563
▁at	-564
▁İn	-565
ecek	-566
iyat	-567
iyon	-568
unun	-569
▁düz	-570
larını	-571
▁belir	-572
▁şekil	-573
▁herhangi	-574
ki	-575
tü	-576
uç	-577
▁w	-578
aya	-579
alık	-580
asıl	-581
işim	-582
▁Bil	-583
▁Par	-584
▁ben	-585
▁düş	-586
▁kan	-587
▁sır	-588
▁Çin	-589
matik	-590
▁Özel	-591
esinde	-592
▁işlem	-593
▁göster	-594
▁merkez	-595
ag	-596
▁J	-597
omp	-598
osy	-599
örü	-600
▁dö	-601
▁er	-602
▁kö	-603
eniz	-604
isel	-605
trol	-606
▁haz	-607
▁mod	-608
▁yet	-609
▁çık	-610
esini	-611
larda	-612
▁önem	-613
edarik	-614
▁değil	-615
▁güven	-616
20	-617
oş	-618
ve	-619
anb	-620
nak	-621
rup	-622
▁as	-623
▁aş	-624
▁kr	-625
▁su	-626
▁ul	-627
akik	-628
▁hal	-629
▁tes	-630
▁tut	-631
▁yak	-632
▁yat	-633
▁şeh	-634
likle	-635
ılmış	-636
▁yeni	-637
▁dakik	-638
abilirsiniz	-639
mm	-640
eda	-641
lım	-642
▁El	-643
▁az	-644
azan	-645
efon	-646
olik	-647
▁müş	-648
▁çek	-649
anbul	-650
larının	-651
▁oluştur	-652
ij	-653
oc	-654
ow	-655
any	-656
eti	-657
las	-658
mel	-659
miş	-660
ısı	-661
▁Al	-662
▁St	-663
asın	-664
ayan	-665
eyaz	-666
eşit	-667
itim	-668
unuz	-669
uvar	-670
▁Her	-671
▁Kap	-672
▁Ser	-673
▁alt	-674
▁der	-675
▁dön	-676
▁gir	-677
▁ilg	-678
▁sit	-679
▁ter	-680
▁yaş	-681
▁çev	-682
bilir	-683
malar	-684
▁fark	-685
▁hakk	-686
ektrik	-687
lerini	-688
▁kolay	-689
▁yardım	-690
ch	-691
çi	-692
üğ	-693
▁6	-694
▁9	-695
▁Z	-696
ent	-697
ken	-698
maz	-699
una	-700
yum	-701
▁ev	-702
▁öğ	-703
emin	-704
lara	-705
mesi	-706
▁hat	-707
▁tak	-708
ilmiş	-709
lemek	-710
▁2019	-711
▁Eğer	-712
▁gerç	-713
▁mesaf	-714
▁nasıl	-715
mektedir	-716
AR	-717
eg	-718
▁"	-719
cel	-720
eks	-721
net	-722
ucu	-723
yla	-724
▁Av	-725
▁Su	-726
dece	-727
edav	-728
htiy	-729
▁Pro	-730
▁Tur	-731
▁böl	-732
▁mak	-733
▁say	-734
▁tab	-735
▁taş	-736
abrik	-737
inizi	-738
lamak	-739
▁prof	-740
▁durum	-741
▁hazır	-742
▁kazan	-743
▁olmak	-744
stanbul	-745
▁Yüksek	-746
▁ilgili	-747
▁önemli	-748
▁uzaklık	-749
▁şekilde	-750
▁Makinesi	-751
▁bulunmaktadır	-752
nı	-753
enk	-754
eği	-755
ron	-756
çok	-757
▁15	-758
▁eş	-759
▁sp	-760
▁üc	-761
alat	-762
aret	-763
esin	-764
üçük	-765
▁Kay	-766
▁Tür	-767
▁dok	-768
▁dol	-769
▁don	-770
▁şey	-771
ektör	-772
▁yıld	-773
▁fiyat	-774
▁hızlı	-775
▁ücret	-776
▁içinde	-777
▁olduğu	-778
▁sadece	-779
-1	-780
ka	-781
ov	-782
üp	-783
▁7	-784
abı	-785
amb	-786
ara	-787
eng	-788
irk	-789
▁(1	-790
▁30	-791
▁Sh	-792
▁Tr	-793
afir	-794
iyle	-795
malı	-796
rıca	-797
▁dev	-798
▁duy	-799
▁güç	-800
▁has	-801
▁kas	-802
▁mev	-803
▁mik	-804
▁tür	-805
izyon	-806
lantı	-807
▁açık	-808
▁göre	-809
▁hava	-810
▁karş	-811
▁oyun	-812
▁önce	-813
lanmış	-814
larına	-815
▁Motor	-816
▁ihtiy	-817
▁çelik	-818
▁çeşit	-819
▁farklı	-820
▁kontrol	-821
▁yılında	-822
▁makinesi	-823
▁kullanılır	-824
LE	-825
VC	-826
se	-827
erj	-828
ern	-829
mız	-830
ulu	-831
▁Ch	-832
▁im	-833
▁iz	-834
erli	-835
lığı	-836
utma	-837
ükem	-838
ıyor	-839
▁...	-840
▁dün	-841
▁fır	-842
▁ilk	-843
▁per	-844
esine	-845
estek	-846
oğraf	-847
▁Otel	-848
▁içer	-849
likler	-850
omatik	-851
▁bağlı	-852
▁gelen	-853
▁geniş	-854
▁küçük	-855
▁neden	-856
▁sıcak	-857
▁temiz	-858
▁uygun	-859
ükemmel	-860
▁birçok	-861
▁malzem	-862
▁odalar	-863
▁üretim	-864
▁bulunan	-865
▁değiştir	-866
▁hakkında	-867
▁yardımcı	-868
▁yıldızlı	-869
30	-870
kı	-871
ça	-872
öy	-873
ğu	-874
▁X	-875
aba	-876
com	-877
cut	-878
dro	-879
eyi	-880
idr	-881
ild	-882
kin	-883
lak	-884
luk	-885
mat	-886
mez	-887
one	-888
orm	-889
rot	-890
tem	-891
tif	-892
▁Of	-893
▁Or	-894
▁km	-895
▁ok	-896
▁öl	-897
düst	-898
eyen	-899
gram	-900
ocuk	-901
ubuk	-902
ınıf	-903
▁Gün	-904
▁Kur	-905
▁San	-906
▁oda	-907
▁res	-908
▁yük	-909
▁çöz	-910
alama	-911
arası	-912
düstr	-913
likte	-914
manız	-915
talya	-916
▁sayı	-917
▁şehr	-918
amalar	-919
azılım	-920
landır	-921
lendir	-922
lerine	-923
▁kurul	-924
▁tedav	-925
▁telev	-926
▁yönet	-927
otoğraf	-928
▁sağlar	-929
▁kişisel	-930
▁sahiptir	-931
▁televizyon	-932
ED	-933
cu	-934
ha	-935
ia	-936
ye	-937
▁8	-938
ate	-939
gel	-940
ift	-941
ite	-942
oğu	-943
utf	-944
zer	-945
ülk	-946
▁1.	-947
▁Ap	-948
▁As	-949
▁Co	-950
▁In	-951
▁öd	-952
obil	-953
uyor	-954
▁Bar	-955
▁Ben	-956
▁Kal	-957
▁har	-958
▁soğ	-959
▁tan	-960
▁web	-961
▁yay	-962
▁zor	-963
▁üst	-964
esyon	-965
ivers	-966
layın	-967
oloji	-968
ıştır	-969
▁Yeni	-970
▁araç	-971
▁ayar	-972
▁tama	-973
▁yanı	-974
ilerin	-975
isafir	-976
laştır	-977
ındaki	-978
▁doğru	-979
▁etmek	-980
▁genel	-981
▁insan	-982
▁seçen	-983
▁yakın	-984
edarikç	-985
esyonel	-986
larında	-987
▁destek	-988
▁müşter	-989
▁yöntem	-990
ılabilir	-991
▁program	-992
▁telefon	-993
▁arasında	-994
▁olduğunu	-995
▁uygulama	-996
IN	-997
▁a	-998
dal	-999
kün	-1000
ten	-1001
▁24	-1002
▁Kö	-1003
▁Pe	-1004
▁İş	-1005
ekli	-1006
emel	-1007
isay	-1008
line	-1009
▁Met	-1010
▁PVC	-1011
▁Tak	-1012
▁biz	-1013
▁fir	-1014
▁hay	-1015
▁kor	-1016
▁sık	-1017
▁vüc	-1018
▁yağ	-1019
▁ölç	-1020
▁ülk	-1021
aştır	-1022
droid	-1023
irket	-1024
latma	-1025
siyon	-1026
▁bany	-1027
▁kabl	-1028
aklama	-1029
forman	-1030
indeki	-1031
lastik	-1032
masını	-1033
▁bilgi	-1034
▁derec	-1035
▁değiş	-1036
▁edilm	-1037
▁ekran	-1038
▁çıkar	-1039
▁Ayrıca	-1040
▁Kullan	-1041
▁kaynak	-1042
▁mevcut	-1043
▁Android	-1044
▁gerekir	-1045
▁merkezi	-1046
▁oteller	-1047
▁birlikte	-1048
▁olabilir	-1049
▁profesyonel	-1050
AS	-1051
TE	-1052
rn	-1053
ıp	-1054
ıt	-1055
▁e	-1056
duk	-1057
dür	-1058
lin	-1059
uge	-1060
▁(2	-1061
▁19	-1062
▁Br	-1063
▁Er	-1064
▁le	-1065
arlı	-1066
atör	-1067
eceğ	-1068
edek	-1069
emek	-1070
iyel	-1071
olar	-1072
teri	-1073
▁200	-1074
▁Biz	-1075
▁Kat	-1076
▁Res	-1077
▁Tab	-1078
▁Tek	-1079
▁Toz	-1080
▁Yap	-1081
▁dik	-1082
▁diş	-1083
▁dış	-1084
▁hav	-1085
▁iki	-1086
▁man	-1087
▁müm	-1088
▁san	-1089
▁tah	-1090
▁yok	-1091
ahtar	-1092
ipman	-1093
iteli	-1094
layan	-1095
ugeot	-1096
undan	-1097
▁Hava	-1098
▁bölg	-1099
▁fren	-1100
▁geri	-1101
asyonu	-1102
isayar	-1103
iğiniz	-1104
nivers	-1105
▁Avrup	-1106
▁almak	-1107
▁ancak	-1108
▁devam	-1109
▁kendi	-1110
formans	-1111
idrolik	-1112
lerinin	-1113
▁gerçek	-1114
▁mümkün	-1115
▁Peugeot	-1116
▁olmayan	-1117
▁çeşitli	-1118
▁bağlantı	-1119
▁ücretsiz	-1120
▁geliştirme	-1121
▁kullanılan	-1122
AL	-1123
co	-1124
of	-1125
si	-1126
td	-1127
vi	-1128
şa	-1129
ach	-1130
bir	-1131
dın	-1132
ive	-1133
kan	-1134
kaç	-1135
rün	-1136
sin	-1137
uma	-1138
vis	-1139
ücü	-1140
ünü	-1141
ütü	-1142
▁Am	-1143
▁On	-1144
▁Uz	-1145
▁la	-1146
▁Ön	-1147
▁üç	-1148
▁İl	-1149
amak	-1150
ayıt	-1151
ekan	-1152
ihaz	-1153
imli	-1154
ulan	-1155
üket	-1156
ışık	-1157
▁Bit	-1158
▁Mar	-1159
▁Sat	-1160
▁cam	-1161
▁giy	-1162
▁kir	-1163
▁mey	-1164
▁mon	-1165
▁oyn	-1166
▁pol	-1167
▁sol	-1168
▁tip	-1169
▁tur	-1170
▁yür	-1171
itesi	-1172
osyal	-1173
utfak	-1174
▁aynı	-1175
▁azal	-1176
▁ilaç	-1177
▁olur	-1178
▁para	-1179
▁Ürün	-1180
▁çevr	-1181
aların	-1182
lardan	-1183
▁balat	-1184
▁boyun	-1185
▁dayan	-1186
▁değer	-1187
▁etkin	-1188
▁karşı	-1189
▁konum	-1190
▁sunar	-1191
▁birkaç	-1192
▁eğitim	-1193
▁miktar	-1194
▁üretic	-1195
ilebilir	-1196
▁araştır	-1197
▁misafir	-1198
▁ürünler	-1199
▁elektrik	-1200
▁fotoğraf	-1201
▁kaliteli	-1202
▁mükemmel	-1203
▁İstanbul	-1204
▁kullanıcı	-1205
▁balataları	-1206
.,	-1207
.5	-1208
10	-1209
hr	-1210
kü	-1211
pt	-1212
qu	-1213
çe	-1214
000	-1215
amp	-1216
bon	-1217
dık	-1218
gan	-1219
ity	-1220
izi	-1221
lim	-1222
lığ	-1223
ong	-1224
ore	-1225
str	-1226
sız	-1227
taj	-1228
tür	-1229
ums	-1230
ver	-1231
ıda	-1232
▁25	-1233
▁Et	-1234
▁Ne	-1235
▁Oy	-1236
▁Sı	-1237
▁Ul	-1238
▁em	-1239
▁iy	-1240
▁mu	-1241
▁of	-1242
▁vb	-1243
▁öz	-1244
abil	-1245
ahat	-1246
eket	-1247
enin	-1248
erek	-1249
ideo	-1250
ileş	-1251
ladı	-1252
▁Bel	-1253
▁Gen	-1254
▁LED	-1255
▁Mod	-1256
▁Pol	-1257
▁bas	-1258
▁dil	-1259
▁esn	-1260
▁haf	-1261
▁kah	-1262
▁kut	-1263
▁med	-1264
▁nok	-1265
▁sor	-1266
ayıcı	-1267
istal	-1268
▁biri	-1269
▁dosy	-1270
▁mark	-1271
▁proj	-1272
▁prot	-1273
▁renk	-1274
▁yapı	-1275
akkabı	-1276
ilmesi	-1277
▁Beyaz	-1278
▁boyut	-1279
▁deney	-1280
▁kabul	-1281
▁satış	-1282
▁tüket	-1283
▁çocuk	-1284
▁öğren	-1285
▁üzere	-1286
▁Avrupa	-1287
▁fabrik	-1288
▁şirket	-1289
▁Antalya	-1290
▁kristal	-1291
▁malzeme	-1292
▁sistemi	-1293
▁kullanım	-1294
▁üzerinde	-1295
▁bilgileri	-1296
▁konaklama	-1297
ebilirsiniz	-1298
▁performans	-1299
ba	-1300
be	-1301
dr	-1302
ne	-1303
add	-1304
aki	-1305
amı	-1306
ass	-1307
bet	-1308
ess	-1309
gın	-1310
han	-1311
ire	-1312
per	-1313
uda	-1314
ung	-1315
usu	-1316
van	-1317
yle	-1318
▁12	-1319
▁Od	-1320
▁Sp	-1321
▁st	-1322
....	-1323
alaj	-1324
avan	-1325
azar	-1326
cort	-1327
ebek	-1328
eğin	-1329
hone	-1330
inal	-1331
içek	-1332
ütün	-1333
üzel	-1334
şeme	-1335
▁Baş	-1336
▁Doğ	-1337
▁Kir	-1338
▁Kız	-1339
▁Off	-1340
▁Top	-1341
▁Val	-1342
▁Web	-1343
▁art	-1344
▁duş	-1345
▁düğ	-1346
▁kes	-1347
▁kıs	-1348
▁mad	-1349
▁saç	-1350
▁sev	-1351
▁sin	-1352
▁toz	-1353
▁çap	-1354
imanı	-1355
sanız	-1356
talık	-1357
ulama	-1358
uslar	-1359
yanın	-1360
▁Turk	-1361
▁alın	-1362
▁bazı	-1363
▁boru	-1364
▁dikk	-1365
▁hast	-1366
▁iliş	-1367
▁inşa	-1368
▁saat	-1369
▁size	-1370
▁sıra	-1371
▁ulaş	-1372
▁Üret	-1373
mesini	-1374
ternet	-1375
▁alanı	-1376
▁beyaz	-1377
▁doğal	-1378
▁düşük	-1379
▁geçir	-1380
▁metre	-1381
▁parça	-1382
▁rahat	-1383
▁yedek	-1384
▁Çelik	-1385
▁Sistem	-1386
▁belirt	-1387
▁escort	-1388
▁modern	-1389
▁sektör	-1390
▁teknik	-1391
▁boyunca	-1392
▁ekipman	-1393
▁odaları	-1394
▁tasarım	-1395
▁Ünivers	-1396
▁çalışma	-1397
▁mesafede	-1398
▁teknoloj	-1399
.1	-1400
65	-1401
7-	-1402
ON	-1403
PE	-1404
RO	-1405
bo	-1406
cü	-1407
ga	-1408
gı	-1409
he	-1410
ly	-1411
na	-1412
▁'	-1413
▁.	-1414
are	-1415
ari	-1416
arp	-1417
bar	-1418
edi	-1419
elt	-1420
end	-1421
erm	-1422
erv	-1423
etr	-1424
gün	-1425
ina	-1426
inc	-1427
iyi	-1428
lük	-1429
oad	-1430
oid	-1431
olf	-1432
sik	-1433
yal	-1434
zar	-1435
şık	-1436
▁(3	-1437
▁At	-1438
▁Be	-1439
▁No	-1440
▁Pr	-1441
▁is	-1442
▁ne	-1443
anda	-1444
ason	-1445
ağıt	-1446
dığı	-1447
etik	-1448
ijit	-1449
iyah	-1450
işir	-1451
meye	-1452
oğun	-1453
post	-1454
tand	-1455
tası	-1456
uyla	-1457
ümin	-1458
▁Bur	-1459
▁Dün	-1460
▁Güç	-1461
▁Hav	-1462
▁Ltd	-1463
▁Sit	-1464
▁Tam	-1465
▁Tel	-1466
▁bar	-1467
▁ede	-1468
▁göz	-1469
▁hem	-1470
▁hes	-1471
▁tam	-1472
▁yaz	-1473
▁yum	-1474
▁ütü	-1475
abilm	-1476
aslan	-1477
dırma	-1478
iklet	-1479
imiçi	-1480
lerde	-1481
lilik	-1482
mamız	-1483
▁Alan	-1484
▁ağır	-1485
▁edin	-1486
▁kasa	-1487
▁kend	-1488
▁koru	-1489
▁mini	-1490
▁uzun	-1491
▁çoğu	-1492
esinin	-1493
ijital	-1494
ilikon	-1495
iğimiz	-1496
usunda	-1497
▁aşağı	-1498
▁banyo	-1499
▁donat	-1500
▁dönüş	-1501
▁dünya	-1502
▁enerj	-1503
▁giriş	-1504
▁işlet	-1505
▁kahve	-1506
▁motor	-1507
▁organ	-1508
▁sonuç	-1509
▁sınıf	-1510
▁tarih	-1511
▁temel	-1512
▁varsa	-1513
▁yürüy	-1514
dığınız	-1515
larımız	-1516
malıdır	-1517
üminyum	-1518
▁Eğitim	-1519
▁dakika	-1520
▁döşeme	-1521
▁güncel	-1522
▁ortaya	-1523
▁endüstr	-1524
▁görüntü	-1525
▁hizmeti	-1526
▁ihtiyac	-1527
▁tamamen	-1528
▁uygulan	-1529
▁yapılan	-1530
▁zamanda	-1531
▁özellik	-1532
▁Ayakkabı	-1533
▁ürünleri	-1534
uslararası	-1535
▁hizmetleri	-1536
),	-1537
6)	-1538
PC	-1539
PS	-1540
UM	-1541
ku	-1542
mi	-1543
ox	-1544
ts	-1545
İN	-1546
▁j	-1547
▁x	-1548
acı	-1549
ank	-1550
auç	-1551
fer	-1552
gun	-1553
ion	-1554
ish	-1555
isk	-1556
lil	-1557
mür	-1558
ner	-1559
tiv	-1560
tor	-1561
ümü	-1562
üne	-1563
ığı	-1564
ışı	-1565
▁(4	-1566
▁11	-1567
▁18	-1568
▁CO	-1569
▁Ev	-1570
▁IP	-1571
▁Ol	-1572
▁PC	-1573
▁SA	-1574
▁Uy	-1575
▁tr	-1576
▁İz	-1577
▁İç	-1578
altı	-1579
anlı	-1580
arit	-1581
ekor	-1582
eyin	-1583
iltr	-1584
imdi	-1585
itap	-1586
ivil	-1587
ompa	-1588
osya	-1589
ünde	-1590
ünkü	-1591
üyor	-1592
üyük	-1593
ıklı	-1594
▁Dev	-1595
▁Kam	-1596
▁Kol	-1597
▁Mal	-1598
▁Per	-1599
▁Pla	-1600
▁Son	-1601
▁ana	-1602
▁bek	-1603
▁bis	-1604
▁bur	-1605
▁dan	-1606
▁dök	-1607
▁get	-1608
▁gru	-1609
▁gön	-1610
▁kil	-1611
▁köp	-1612
▁kır	-1613
▁num	-1614
▁pat	-1615
▁sar	-1616
▁söy	-1617
▁söz	-1618
▁tal	-1619
▁tık	-1620
▁yık	-1621
▁zar	-1622
▁Çev	-1623
▁örn	-1624
▁İlk	-1625
▁ısı	-1626
asını	-1627
auçuk	-1628
ediye	-1629
engin	-1630
ersiz	-1631
etler	-1632
imler	-1633
isyon	-1634
meden	-1635
uklar	-1636
ınıza	-1637
▁Geri	-1638
▁Live	-1639
▁Türb	-1640
▁bilm	-1641
▁genç	-1642
▁mavi	-1643
▁otur	-1644
▁park	-1645
▁plan	-1646
▁veri	-1647
artman	-1648
iciler	-1649
inizin	-1650
ılması	-1651
▁Basın	-1652
▁Ekran	-1653
▁Tasar	-1654
▁adres	-1655
▁artır	-1656
▁böyle	-1657
▁cihaz	-1658
▁güzel	-1659
▁güçlü	-1660
▁kalın	-1661
▁mekan	-1662
▁metal	-1663
▁model	-1664
▁olduk	-1665
▁satın	-1666
▁sağla	-1667
▁sunul	-1668
▁sürec	-1669
▁vücut	-1670
▁yatak	-1671
▁yoğun	-1672
▁çubuk	-1673
acaktır	-1674
akinası	-1675
izasyon	-1676
lerinde	-1677
tandart	-1678
▁Hizmet	-1679
▁başarı	-1680
▁benzer	-1681
▁gönder	-1682
▁iyileş	-1683
▁servis	-1684
▁yaygın	-1685
alarının	-1686
aslanmaz	-1687
dınlatma	-1688
ıştırıcı	-1689
▁anahtar	-1690
▁hareket	-1691
▁ihtiyaç	-1692
▁seçenek	-1693
▁yazılım	-1694
▁üzerine	-1695
lanabilir	-1696
▁Hidrolik	-1697
▁Otomatik	-1698
▁Tedarikç	-1699
▁değildir	-1700
▁otomatik	-1701
▁üreticisi	-1702
▁üzerinden	-1703
▁donatılmış	-1704
▁müşteriler	-1705
).	-1706
12	-1707
2)	-1708
60	-1709
7)	-1710
AC	-1711
EN	-1712
Fi	-1713
IM	-1714
bi	-1715
ck	-1716
fa	-1717
gu	-1718
sh	-1719
to	-1720
uh	-1721
öv	-1722
üh	-1723
ğü	-1724
ıç	-1725
ər	-1726
abl	-1727
atı	-1728
cil	-1729
ein	-1730
erç	-1731
gen	-1732
ind	-1733
ink	-1734
may	-1735
nat	-1736
nın	-1737
olu	-1738
rar	-1739
uyu	-1740
yor	-1741
çık	-1742
ört	-1743
ılı	-1744
▁Ab	-1745
▁Ad	-1746
▁Ağ	-1747
▁Aş	-1748
▁US	-1749
▁Wi	-1750
▁ap	-1751
▁ki	-1752
▁uc	-1753
▁un	-1754
▁İs	-1755
aber	-1756
alan	-1757
anın	-1758
ayın	-1759
azen	-1760
edef	-1761
elen	-1762
elim	-1763
hrac	-1764
ildi	-1765
ilin	-1766
illa	-1767
izli	-1768
oşul	-1769
tıcı	-1770
usal	-1771
yalı	-1772
ümüz	-1773
ıllı	-1774
▁100	-1775
▁CAS	-1776
▁Dön	-1777
▁Kiş	-1778
▁Mak	-1779
▁Müş	-1780
▁Tar	-1781
▁Uyg	-1782
▁Ver	-1783
▁WPC	-1784
▁Yön	-1785
▁amb	-1786
▁bit	-1787
▁dep	-1788
▁dir	-1789
▁kaf	-1790
▁kam	-1791
▁pil	-1792
▁rek	-1793
▁rez	-1794
▁rul	-1795
▁yal	-1796
▁yel	-1797
alanı	-1798
arant	-1799
asına	-1800
atıcı	-1801
eklik	-1802
icari	-1803
iksel	-1804
istik	-1805
lanan	-1806
lıklı	-1807
▁Arab	-1808
▁Bilg	-1809
▁Etik	-1810
▁Gıda	-1811
▁Oyun	-1812
▁Park	-1813
▁Proj	-1814
▁Türk	-1815
▁adet	-1816
▁adım	-1817
▁ağrı	-1818
▁doğr	-1819
▁eder	-1820
▁elde	-1821
▁emin	-1822
▁katı	-1823
▁list	-1824
▁masa	-1825
▁olun	-1826
▁onun	-1827
▁sert	-1828
▁test	-1829
▁tutk	-1830
▁ucuz	-1831
▁yetk	-1832
▁çift	-1833
▁ölçü	-1834
alarda	-1835
dığını	-1836
masına	-1837
meleri	-1838
miştir	-1839
ılacak	-1840
▁Beach	-1841
▁Büyük	-1842
▁Kömür	-1843
▁Satış	-1844
▁aktar	-1845
▁araba	-1846
▁bakır	-1847
▁bütün	-1848
▁düzen	-1849
▁düşün	-1850
▁engel	-1851
▁eğlen	-1852
▁getir	-1853
▁kadın	-1854
▁kanal	-1855
▁medya	-1856
▁pazar	-1857
▁sivil	-1858
▁sorum	-1859
▁sunan	-1860
▁tesis	-1861
▁yapar	-1862
▁yemek	-1863
▁yumuş	-1864
▁Çubuk	-1865
▁şehir	-1866
alimanı	-1867
larınız	-1868
larıyla	-1869
ozisyon	-1870
▁Basınç	-1871
▁Fabrik	-1872
▁Karbon	-1873
▁Kauçuk	-1874
▁Kızlar	-1875
▁Mutfak	-1876
▁Turkey	-1877
▁dikkat	-1878
▁dolayı	-1879
▁edilir	-1880
▁işaret	-1881
▁manzar	-1882
▁sayısı	-1883
▁toplam	-1884
▁Tasarım	-1885
▁Telefon	-1886
▁Yazılım	-1887
▁altında	-1888
▁plastik	-1889
▁çalışan	-1890
▁Elektrik	-1891
▁Istanbul	-1892
▁Konuklar	-1893
▁kullanıl	-1894
▁sağlamak	-1895
▁tedavisi	-1896
▁dakikalık	-1897
▁güvenilir	-1898
▁iyileştir	-1899
▁nedeniyle	-1900
▁sırasında	-1901
▁uzaklıkta	-1902
▁çevrimiçi	-1903
▁özellikle	-1904
leştirilmiş	-1905
▁bilgisayar	-1906
▁odalarında	-1907
▁Tedarikçiler	-1908
▁uzaklıktadır	-1909
-0	-1910
-2	-1911
35	-1912
50	-1913
CH	-1914
EK	-1915
ES	-1916
ET	-1917
LI	-1918
OS	-1919
Rİ	-1920
bu	-1921
go	-1922
ni	-1923
oh	-1924
▁Q	-1925
anc	-1926
and	-1927
ano	-1928
arl	-1929
cuz	-1930
dik	-1931
dol	-1932
düğ	-1933
ech	-1934
ene	-1935
ert	-1936
fır	-1937
ilt	-1938
ino	-1939
ins	-1940
lec	-1941
nız	-1942
oin	-1943
ona	-1944
onk	-1945
osk	-1946
osu	-1947
rey	-1948
teg	-1949
ton	-1950
umu	-1951
şap	-1952
▁(5	-1953
▁HD	-1954
▁Kr	-1955
▁Ve	-1956
alet	-1957
alıp	-1958
anel	-1959
anta	-1960
avaş	-1961
ayla	-1962
ayıf	-1963
edik	-1964
efer	-1965
ekte	-1966
emik	-1967
eriğ	-1968
esel	-1969
izin	-1970
manı	-1971
mızı	-1972
onom	-1973
ores	-1974
sayı	-1975
sını	-1976
tion	-1977
uluk	-1978
umlu	-1979
önil	-1980
ırım	-1981
ıtma	-1982
▁Adı	-1983
▁Amb	-1984
▁Bak	-1985
▁Buh	-1986
▁Cen	-1987
▁Den	-1988
▁Değ	-1989
▁Diş	-1990
▁Dok	-1991
▁Dol	-1992
▁Far	-1993
▁Gaz	-1994
▁Har	-1995
▁Isı	-1996
▁Kit	-1997
▁Man	-1998
▁Mes	-1999
▁Tip	-2000
▁Tor	-2001
▁bah	-2002
▁bes	-2003
▁dah	-2004
▁fay	-2005
▁gid	-2006
▁hiç	-2007
▁ise	-2008
▁kim	-2009
▁koy	-2010
▁kök	-2011
▁kız	-2012
▁pay	-2013
▁sab	-2014
▁ses	-2015
▁sig	-2016
▁yas	-2017
▁önc	-2018
▁şif	-2019
Harit	-2020
astik	-2021
deniz	-2022
dirme	-2023
ement	-2024
kiler	-2025
lanma	-2026
lanır	-2027
madan	-2028
ronik	-2029
seniz	-2030
sınız	-2031
umsuz	-2032
utucu	-2033
ülörü	-2034
ınızı	-2035
▁Açık	-2036
▁Boru	-2037
▁Bunu	-2038
▁Golf	-2039
▁Para	-2040
▁Parç	-2041
▁Renk	-2042
▁Ultr	-2043
▁amac	-2044
▁anda	-2045
▁başk	-2046
▁benz	-2047
▁bile	-2048
▁eğit	-2049
▁film	-2050
▁izin	-2051
▁komp	-2052
▁ofis	-2053
▁tanı	-2054
▁tipi	-2055
▁Çift	-2056
▁ödül	-2057
hracat	-2058
imleri	-2059
iyetli	-2060
iyorum	-2061
iyoruz	-2062
işirme	-2063
leyici	-2064
masyon	-2065
mesine	-2066
unları	-2067
ıcılar	-2068
ınızın	-2069
▁Ancak	-2070
▁Bunun	-2071
▁Dünya	-2072
▁Genel	-2073
▁Kayıt	-2074
▁Metal	-2075
▁Mobil	-2076
▁Model	-2077
▁Trans	-2078
▁anlam	-2079
▁bakım	-2080
▁basın	-2081
▁başka	-2082
▁bileş	-2083
▁dokun	-2084
▁duvar	-2085
▁fırın	-2086
▁gelir	-2087
▁güneş	-2088
▁hafif	-2089
▁kesin	-2090
▁konuş	-2091
▁koşul	-2092
▁mobil	-2093
▁ortak	-2094
▁talep	-2095
▁türlü	-2096
▁uzman	-2097
▁yarar	-2098
▁yarış	-2099
▁yorum	-2100
▁yüzey	-2101
▁Çalış	-2102
▁çözüm	-2103
▁İnsan	-2104
▁Şönil	-2105
lenmesi	-2106
ısından	-2107
▁Kaynak	-2108
▁arasın	-2109
▁edilen	-2110
▁enerji	-2111
▁erişim	-2112
▁haline	-2113
▁içeriğ	-2114
▁işlemi	-2115
▁koruma	-2116
▁rezerv	-2117
▁sosyal	-2118
▁tekrar	-2119
▁yapmak	-2120
▁zengin	-2121
▁ölçüde	-2122
Haritayı	-2123
ediğiniz	-2124
▁Brülörü	-2125
▁Endüstr	-2126
▁Kişisel	-2127
▁Silikon	-2128
▁kurutma	-2129
▁müşteri	-2130
▁nedenle	-2131
▁olumsuz	-2132
▁yönetim	-2133
▁yürüyüş	-2134
▁Basınçlı	-2135
▁Kaliteli	-2136
▁Makinası	-2137
▁apartman	-2138
▁hastalık	-2139
▁tedarikç	-2140
▁şehrinde	-2141
▁Havaalanı	-2142
▁Tozlaştır	-2143
▁alüminyum	-2144
▁araştırma	-2145
▁dayanıklı	-2146
▁konusunda	-2147
▁kullanımı	-2148
▁Havalimanı	-2149
▁almaktadır	-2150
▁arasındaki	-2151
▁edilmiştir	-2152
▁genellikle	-2153
▁kullanarak	-2154
▁mesafesinde	-2155
▁uluslararası	-2156
▁Tozlaştırılmış	-2157
.0	-2158
1,	-2159
19	-2160
22	-2161
3)	-2162
70	-2163
Ap	-2164
NC	-2165
OK	-2166
TD	-2167
TI	-2168
au	-2169
ex	-2170
ml	-2171
vı	-2172
yl	-2173
çı	-2174
öl	-2175
üb	-2176
üf	-2177
İM	-2178
▁)	-2179
2.5	-2180
ARI	-2181
alt	-2182
ana	-2183
ard	-2184
ata	-2185
ayi	-2186
bol	-2187
bur	-2188
can	-2189
cep	-2190
ddi	-2191
det	-2192
eak	-2193
ekn	-2194
emi	-2195
ere	-2196
ger	-2197
hal	-2198
ian	-2199
ika	-2200
ill	-2201
itn	-2202
itr	-2203
kon	-2204
mar	-2205
muş	-2206
nun	-2207
oft	-2208
ool	-2209
ork	-2210
orn	-2211
out	-2212
own	-2213
ows	-2214
raz	-2215
ros	-2216
ruf	-2217
sal	-2218
sat	-2219
sim	-2220
sit	-2221
tak	-2222
tma	-2223
ure	-2224
urt	-2225
vur	-2226
ült	-2227
üsü	-2228
şır	-2229
▁50	-2230
▁AB	-2231
▁Da	-2232
▁Ex	-2233
▁Fr	-2234
▁GT	-2235
▁Gö	-2236
▁Mo	-2237
▁Ok	-2238
▁Wh	-2239
▁ef	-2240
▁ey	-2241
▁iP	-2242
▁kı	-2243
▁li	-2244
▁mm	-2245
▁ün	-2246
▁ıs	-2247
abet	-2248
adaş	-2249
alığ	-2250
amız	-2251
anal	-2252
arbe	-2253
atej	-2254
aten	-2255
atil	-2256
ator	-2257
best	-2258
dana	-2259
eşil	-2260
illi	-2261
itik	-2262
kanı	-2263
kara	-2264
lant	-2265
lima	-2266
luğu	-2267
lüğü	-2268
ment	-2269
nağı	-2270
ojen	-2271
orat	-2272
oyut	-2273
rama	-2274
ress	-2275
sten	-2276
umaş	-2277
çlar	-2278
örün	-2279
üküm	-2280
ünün	-2281
ışın	-2282
▁199	-2283
▁Alt	-2284
▁Ana	-2285
▁Art	-2286
▁Bul	-2287
▁Böl	-2288
▁Döv	-2289
▁GPS	-2290
▁Kil	-2291
▁Lab	-2292
▁Mac	-2293
▁New	-2294
▁Sab	-2295
▁Sağ	-2296
▁Str	-2297
▁Yar	-2298
▁Yüz	-2299
▁ait	-2300
▁boş	-2301
▁döv	-2302
▁erk	-2303
▁içi	-2304
▁işç	-2305
▁kaş	-2306
▁kez	-2307
▁kok	-2308
▁küt	-2309
▁lez	-2310
▁mağ	-2311
▁nit	-2312
▁pak	-2313
▁ruh	-2314
▁sap	-2315
▁sem	-2316
▁tad	-2317
▁vid	-2318
▁yen	-2319
▁çağ	-2320
▁İla	-2321
▁İyi	-2322
▁Şek	-2323
ansör	-2324
cilik	-2325
elere	-2326
ester	-2327
estor	-2328
ilere	-2329
ilmek	-2330
istan	-2331
iğini	-2332
kadaş	-2333
larla	-2334
lenme	-2335
leyen	-2336
leyin	-2337
lıkla	-2338
manın	-2339
menin	-2340
nızca	-2341
oparl	-2342
ormal	-2343
phone	-2344
posta	-2345
rafik	-2346
ırlar	-2347
▁2017	-2348
▁Araç	-2349
▁Bazı	-2350
▁Daha	-2351
▁Malz	-2352
▁Orta	-2353
▁Tekn	-2354
▁Ucuz	-2355
▁Uzun	-2356
▁Veri	-2357
▁anti	-2358
▁ayrı	-2359
▁bize	-2360
▁bunu	-2361
▁dört	-2362
▁eriş	-2363
▁fonk	-2364
▁hale	-2365
▁kapı	-2366
▁konu	-2367
▁kötü	-2368
▁kısm	-2369
▁madd	-2370
▁olup	-2371
▁onay	-2372
▁orij	-2373
▁ster	-2374
▁tarz	-2375
▁topl	-2376
▁uyar	-2377
▁vücu	-2378
▁yazı	-2379
▁önde	-2380
amster	-2381
asının	-2382
ektörü	-2383
etleri	-2384
liliği	-2385
ompası	-2386
ulanık	-2387
ıyoruz	-2388
▁Güven	-2389
▁Kartı	-2390
▁Sıcak	-2391
▁Sınıf	-2392
▁Video	-2393
▁aracı	-2394
▁benim	-2395
▁bizim	-2396
▁dahil	-2397
▁döküm	-2398
▁etkil	-2399
▁filtr	-2400
▁firma	-2401
▁hatta	-2402
▁havuz	-2403
▁hedef	-2404
▁hesab	-2405
▁karar	-2406
▁kayıt	-2407
▁kenar	-2408
▁ortam	-2409
▁siyah	-2410
▁sorun	-2411
▁takım	-2412
▁tamam	-2413
▁tanım	-2414
▁taşıy	-2415
▁veren	-2416
▁video	-2417
▁yapan	-2418
▁zayıf	-2419
▁Çiçek	-2420
▁çünkü	-2421
▁ürünü	-2422
addelen	-2423
amaları	-2424
ecektir	-2425
eceğini	-2426
erlidir	-2427
ilindir	-2428
izlilik	-2429
leşmesi	-2430
sayılan	-2431
▁Arıtma	-2432
▁Otelin	-2433
▁akıllı	-2434
▁başlay	-2435
▁başvur	-2436
▁derece	-2437
▁düzelt	-2438
▁garant	-2439
▁inşaat	-2440
▁kalite	-2441
▁kanama	-2442
▁kapalı	-2443
▁konfor	-2444
▁kurtar	-2445
▁makine	-2446
▁olması	-2447
▁oyuncu	-2448
▁paylaş	-2449
▁rulman	-2450
▁ticari	-2451
ektronik	-2452
elerinde	-2453
malarını	-2454
▁Arabası	-2455
▁Bulanık	-2456
▁Dijital	-2457
▁Plastik	-2458
▁Sistemi	-2459
▁Yamalar	-2460
▁asansör	-2461
▁belirli	-2462
▁bileşen	-2463
▁birinde	-2464
▁fabrika	-2465
▁gerekli	-2466
▁girişim	-2467
▁ihracat	-2468
▁kolayca	-2469
▁minibar	-2470
▁oldukça	-2471
▁otelden	-2472
▁soğutma	-2473
▁sunuyor	-2474
▁sürekli	-2475
▁tedarik	-2476
▁veriler	-2477
lanmıştır	-2478
▁Uygulama	-2479
▁alanında	-2480
▁başarılı	-2481
▁bilgiler	-2482
▁bisiklet	-2483
▁dakikada	-2484
▁dünyanın	-2485
▁esneklik	-2486
▁geçirmez	-2487
▁gösterir	-2488
▁internet	-2489
▁numarası	-2490
▁standart	-2491
▁tıklayın	-2492
▁yalnızca	-2493
addelenmiş	-2494
▁Motorları	-2495
▁Parçaları	-2496
▁fonksiyon	-2497
▁mevcuttur	-2498
▁parçaları	-2499
▁paslanmaz	-2500
▁sayesinde	-2501
▁temizleme	-2502
▁yapabilir	-2503
▁Aydınlatma	-2504
▁Bilgisayar	-2505
▁elektrikli	-2506
▁özellikler	-2507
▁üzerindeki	-2508
▁değerlendir	-2509
▁uygulamalar	-2510
▁apartmanları	-2511
▁kullanılabilir	-2512
,5	-2513
-4	-2514
-5	-2515
02	-2516
15	-2517
33	-2518
62	-2519
8)	-2520
80	-2521
DF	-2522
EL	-2523
EM	-2524
EO	-2525
MA	-2526
OL	-2527
PA	-2528
ST	-2529
TP	-2530
dü	-2531
gi	-2532
gn	-2533
ii	-2534
mr	-2535
ou	-2536
ri	-2537
ww	-2538
yc	-2539
▁u	-2540
App	-2541
LET	-2542
aal	-2543
ack	-2544
ady	-2545
arj	-2546
avi	-2547
bil	-2548
bot	-2549
cek	-2550
cer	-2551
div	-2552
enz	-2553
erl	-2554
err	-2555
evk	-2556
ezi	-2557
eğe	-2558
gil	-2559
gin	-2560
ice	-2561
ime	-2562
irt	-2563
iss	-2564
izm	-2565
kes	-2566
kür	-2567
lub	-2568
mem	-2569
odr	-2570
oel	-2571
ook	-2572
our	-2573
sas	-2574
son	-2575
tin	-2576
uar	-2577
uel	-2578
uğu	-2579
yaf	-2580
▁14	-2581
▁21	-2582
▁40	-2583
▁AC	-2584
▁Em	-2585
▁Es	-2586
▁Go	-2587
▁Iş	-2588
▁LC	-2589
▁Ma	-2590
▁Mu	-2591
▁PA	-2592
▁SS	-2593
▁Sm	-2594
▁ac	-2595
▁av	-2596
▁te	-2597
▁uç	-2598
▁xH	-2599
▁Şu	-2600
agaj	-2601
atif	-2602
attı	-2603
aylı	-2604
celi	-2605
diği	-2606
ebil	-2607
ehir	-2608
emer	-2609
emir	-2610
erez	-2611
evap	-2612
iddi	-2613
ince	-2614
inci	-2615
laka	-2616
osuz	-2617
resi	-2618
star	-2619
taki	-2620
tığı	-2621
ukuk	-2622
ular	-2623
visi	-2624
üler	-2625
ümüş	-2626
üncü	-2627
üşük	-2628
ıntı	-2629
▁Ama	-2630
▁App	-2631
▁Bay	-2632
▁But	-2633
▁Cam	-2634
▁Cas	-2635
▁Col	-2636
▁Cor	-2637
▁Cum	-2638
▁Don	-2639
▁End	-2640
▁Gal	-2641
▁Hol	-2642
▁Kes	-2643
▁Kim	-2644
▁Kır	-2645
▁Lin	-2646
▁Mah	-2647
▁Mer	-2648
▁Mev	-2649
▁Mic	-2650
▁Mon	-2651
▁OEM	-2652
▁Oda	-2653
▁Oto	-2654
▁PDF	-2655
▁Rob	-2656
▁Sam	-2657
▁Sar	-2658
▁Sev	-2659
▁Sol	-2660
▁Sür	-2661
▁Ten	-2662
▁The	-2663
▁Yak	-2664
▁Yat	-2665
▁adı	-2666
▁ayr	-2667
▁bal	-2668
▁bin	-2669
▁buz	-2670
▁cep	-2671
▁cüz	-2672
▁dal	-2673
▁dam	-2674
▁def	-2675
▁det	-2676
▁ett	-2677
▁gaz	-2678
▁gez	-2679
▁hüc	-2680
▁hız	-2681
▁kom	-2682
▁kul	-2683
▁küv	-2684
▁lam	-2685
▁mas	-2686
▁mem	-2687
▁müh	-2688
▁ned	-2689
▁ner	-2690
▁pek	-2691
▁pür	-2692
▁ref	-2693
▁sak	-2694
▁sal	-2695
▁soh	-2696
▁soy	-2697
▁str	-2698
▁süt	-2699
▁tas	-2700
▁tav	-2701
▁teş	-2702
▁ton	-2703
▁tuv	-2704
▁www	-2705
▁Çöz	-2706
▁Önc	-2707
▁çiz	-2708
▁çor	-2709
▁İki	-2710
▁şef	-2711
ading	-2712
anlar	-2713
arken	-2714
atörü	-2715
durma	-2716
ekten	-2717
enize	-2718
etimi	-2719
hotel	-2720
ildiğ	-2721
kinci	-2722
lenir	-2723
leşik	-2724
mazon	-2725
maşık	-2726
meler	-2727
odrum	-2728
otans	-2729
sunuz	-2730
tegre	-2731
unuza	-2732
unuzu	-2733
uyucu	-2734
ünden	-2735
ımsız	-2736
ışman	-2737
▁2008	-2738
▁Alaş	-2739
▁Anti	-2740
▁Ayar	-2741
▁Aynı	-2742
▁City	-2743
▁Club	-2744
▁Film	-2745
▁Gran	-2746
▁Grup	-2747
▁Işık	-2748
▁Kart	-2749
▁Mekt	-2750
▁Sarı	-2751
▁Seks	-2752
▁Term	-2753
▁alır	-2754
▁alış	-2755
▁arab	-2756
▁asit	-2757
▁cilt	-2758
▁deng	-2759
▁dost	-2760
▁etki	-2761
▁geld	-2762
▁grup	-2763
▁hiss	-2764
▁iddi	-2765
▁kanı	-2766
▁kuru	-2767
▁lüks	-2768
▁muht	-2769
▁nokt	-2770
▁odak	-2771
▁oper	-2772
▁pros	-2773
▁reak	-2774
▁risk	-2775
▁seks	-2776
▁seri	-2777
▁spor	-2778
▁tozu	-2779
▁yüks	-2780
▁zevk	-2781
▁çarp	-2782
▁İlaç	-2783
▁İtal	-2784
▁İçin	-2785
▁ışık	-2786
▁şart	-2787
abolik	-2788
amaşır	-2789
ağıtım	-2790
dından	-2791
elerin	-2792
geleri	-2793
icaret	-2794
indows	-2795
inizde	-2796
isinde	-2797
isinin	-2798
itness	-2799
layıcı	-2800
lenmiş	-2801
mıştır	-2802
▁Aktif	-2803
▁Boyut	-2804
▁Buhar	-2805
▁Diğer	-2806
▁Doğal	-2807
▁Duvar	-2808
▁Görün	-2809
▁Kamer	-2810
▁Taban	-2811
▁alerj	-2812
▁basit	-2813
▁bazen	-2814
▁bebek	-2815
▁biraz	-2816
▁büyüm	-2817
▁cevap	-2818
▁ciddi	-2819
▁dekor	-2820
▁derin	-2821
▁dosya	-2822
▁doğum	-2823
▁dönem	-2824
▁efekt	-2825
▁eksik	-2826
▁ekstr	-2827
▁erkek	-2828
▁gelec	-2829
▁harik	-2830
▁hayat	-2831
▁hüküm	-2832
▁iklim	-2833
▁ilişk	-2834
▁incel	-2835
▁kapas	-2836
▁karak	-2837
▁kesme	-2838
▁köpek	-2839
▁meyve	-2840
▁mikro	-2841
▁monte	-2842
▁olmaz	-2843
▁onlar	-2844
▁param	-2845
▁pompa	-2846
▁seviy	-2847
▁sizin	-2848
▁sürüm	-2849
▁tarım	-2850
▁tatil	-2851
▁verir	-2852
▁yayın	-2853
▁yerde	-2854
▁yeten	-2855
▁zarar	-2856
▁zaten	-2857
▁çiçek	-2858
▁ödeme	-2859
▁öğret	-2860
▁İşlem	-2861
▁Şekil	-2862
▁şimdi	-2863
aaliyet	-2864
alarına	-2865
ansiyon	-2866
dığında	-2867
ecekler	-2868
eksiyon	-2869
iziksel	-2870
lerimiz	-2871
oparlör	-2872
resinde	-2873
ungsten	-2874
uvarlak	-2875
▁Amazon	-2876
▁Ankara	-2877
▁Etiket	-2878
▁Merkez	-2879
▁Online	-2880
▁Serisi	-2881
▁Sosyal	-2882
▁Sınıfı	-2883
▁arttır	-2884
▁bakımı	-2885
▁buzdol	-2886
▁cüzdan	-2887
▁ekonom	-2888
▁faydal	-2889
▁görsel	-2890
▁görünt	-2891
▁hassas	-2892
▁katman	-2893
▁konuda	-2894
▁montaj	-2895
▁mutfak	-2896
▁nedeni	-2897
▁normal	-2898
▁olacak	-2899
▁sayıda	-2900
▁sağlay	-2901
▁sigara	-2902
▁sinyal	-2903
▁sitesi	-2904
▁sohbet	-2905
▁tedavi	-2906
▁terası	-2907
▁toptan	-2908
▁tutkal	-2909
▁tutmak	-2910
▁vidalı	-2911
▁yaklaş	-2912
▁yoktur	-2913
▁yıkama	-2914
▁İkinci	-2915
▁şeyler	-2916
........	-2917
eknoloji	-2918
ektörler	-2919
▁Ambalaj	-2920
▁Anahtar	-2921
▁Laborat	-2922
▁Pişirme	-2923
▁Türbini	-2924
▁ambalaj	-2925
▁başladı	-2926
▁böylece	-2927
▁durumda	-2928
▁etkiley	-2929
▁eğitimi	-2930
▁isteyen	-2931
▁istiyor	-2932
▁kuruluş	-2933
▁olmadan	-2934
▁rekabet	-2935
▁sorumlu	-2936
▁yapılır	-2937
▁yeniden	-2938
▁yenilik	-2939
▁yerinde	-2940
▁İtalyan	-2941
abilirler	-2942
otansiyel	-2943
▁Güvenlik	-2944
▁Mükemmel	-2945
▁anlamına	-2946
▁bağımsız	-2947
▁etkileri	-2948
▁gereksin	-2949
▁gerektir	-2950
▁güvenlik	-2951
▁hidrolik	-2952
▁karmaşık	-2953
▁konforlu	-2954
▁kontrolü	-2955
▁kullanır	-2956
▁kurtarma	-2957
▁orijinal	-2958
▁otelleri	-2959
▁pozisyon	-2960
▁sıcaklık	-2961
▁tarayıcı	-2962
▁tasarruf	-2963
▁verileri	-2964
▁xHamster	-2965
▁özelliği	-2966
▁birleştir	-2967
▁fabrikası	-2968
▁gerçekten	-2969
▁olmalıdır	-2970
▁malzemeler	-2971
▁olduğundan	-2972
▁sistemleri	-2973
▁uygulaması	-2974
▁varsayılan	-2975
▁yeterlidir	-2976
▁yöntemleri	-2977
▁Üreticiler	-2978
▁çalışmalar	-2979
▁vermektedir	-2980
▁gerçekleştir	-2981
▁Üniversiteli	-2982
▁sunulmaktadır	-2983
.4	-2984
.6	-2985
.:	-2986
11	-2987
17	-2988
2,	-2989
2-	-2990
31	-2991
32	-2992
39	-2993
4)	-2994
42	-2995
61	-2996
88	-2997
AB	-2998
AN	-2999
AP	-3000
Cİ	-3001
HD	-3002
IL	-3003
IP	-3004
LD	-3005
Lİ	-3006
OM	-3007
UN	-3008
US	-3009
UY	-3010
VD	-3011
ew	-3012
fi	-3013
gs	-3014
ix	-3015
nt	-3016
ue	-3017
yı	-3018
ýz	-3019
:30	-3020
ELE	-3021
UYO	-3022
ade	-3023
adı	-3024
ago	-3025
ahi	-3026
akt	-3027
app	-3028
ats	-3029
ber	-3030
bis	-3031
biy	-3032
cih	-3033
dat	-3034
ded	-3035
dum	-3036
ear	-3037
egz	-3038
ele	-3039
epe	-3040
ete	-3041
eyn	-3042
ezg	-3043
faf	-3044
fly	-3045
gar	-3046
hen	-3047
her	-3048
hoş	-3049
ick	-3050
ier	-3051
iez	-3052
ile	-3053
ima	-3054
kil	-3055
lob	-3056
log	-3057
lor	-3058
mer	-3059
min	-3060
müş	-3061
odu	-3062
oks	-3063
oma	-3064
ond	-3065
ord	-3066
ous	-3067
ova	-3068
paz	-3069
rak	-3070
ree	-3071
rib	-3072
say	-3073
sen	-3074
sun	-3075
tay	-3076
tım	-3077
ura	-3078
ute	-3079
vet	-3080
vha	-3081
vuz	-3082
yac	-3083
yap	-3084
yas	-3085
yer	-3086
üny	-3087
ınd	-3088
ırı	-3089
▁16	-3090
▁45	-3091
▁Af	-3092
▁Bİ	-3093
▁Il	-3094
▁Mr	-3095
▁Qu	-3096
▁Ra	-3097
▁TV	-3098
▁Up	-3099
▁ab	-3100
▁ah	-3101
▁am	-3102
▁it	-3103
▁op	-3104
▁pr	-3105
▁Üc	-3106
▁şu	-3107
-100	-3108
Road	-3109
acağ	-3110
aceb	-3111
adan	-3112
adın	-3113
akay	-3114
aken	-3115
amam	-3116
amaz	-3117
amik	-3118
anma	-3119
anya	-3120
anım	-3121
apor	-3122
ariş	-3123
ated	-3124
avem	-3125
ayıp	-3126
ağın	-3127
aşım	-3128
blem	-3129
duğu	-3130
ediy	-3131
embe	-3132
emez	-3133
enci	-3134
enen	-3135
epçe	-3136
eton	-3137
etre	-3138
eşim	-3139
gisi	-3140
iber	-3141
imde	-3142
imer	-3143
inme	-3144
ipot	-3145
ipto	-3146
iriz	-3147
iten	-3148
ites	-3149
iyer	-3150
iyot	-3151
işme	-3152
keri	-3153
meli	-3154
otos	-3155
rada	-3156
raki	-3157
taur	-3158
teki	-3159
tere	-3160
udur	-3161
umak	-3162
umda	-3163
uzey	-3164
yonu	-3165
ümlü	-3166
ünüz	-3167
ğını	-3168
ıldı	-3169
ırak	-3170
ırma	-3171
ıyla	-3172
ışma	-3173
▁305	-3174
▁400	-3175
▁Aut	-3176
▁Bob	-3177
▁Bun	-3178
▁CNC	-3179
▁Car	-3180
▁Con	-3181
▁Der	-3182
▁Fak	-3183
▁Fat	-3184
▁Fin	-3185
▁GTX	-3186
▁Gel	-3187
▁Geç	-3188
▁Gir	-3189
▁Has	-3190
▁Haz	-3191
▁Jun	-3192
▁KAL	-3193
▁KOK	-3194
▁Kab	-3195
▁LCD	-3196
▁Meg	-3197
▁Mum	-3198
▁Müz	-3199
▁Pas	-3200
▁SCH	-3201
▁Sal	-3202
▁Say	-3203
▁Sep	-3204
▁Ses	-3205
▁Soğ	-3206
▁Sul	-3207
▁Tah	-3208
▁Tal	-3209
▁Tes	-3210
▁Tüm	-3211
▁Ven	-3212
▁Yur	-3213
▁Yıl	-3214
▁alg	-3215
▁bey	-3216
▁biç	-3217
▁bun	-3218
▁can	-3219
▁dav	-3220
▁doz	-3221
▁egz	-3222
▁enf	-3223
▁for	-3224
▁gal	-3225
▁gec	-3226
▁hak	-3227
▁ham	-3228
▁hom	-3229
▁hoş	-3230
▁iOS	-3231
▁kür	-3232
▁kıl	-3233
▁kıy	-3234
▁led	-3235
▁lis	-3236
▁lok	-3237
▁mim	-3238
▁min	-3239
▁mor	-3240
▁mut	-3241
▁onu	-3242
▁raf	-3243
▁rağ	-3244
▁reg	-3245
▁rol	-3246
▁sam	-3247
▁sek	-3248
▁sey	-3249
▁sil	-3250
▁suy	-3251
▁süp	-3252
▁süs	-3253
▁sız	-3254
▁tem	-3255
▁ten	-3256
▁tuz	-3257
▁tuş	-3258
▁tıp	-3259
▁vad	-3260
▁vak	-3261
▁val	-3262
▁ziy	-3263
▁çab	-3264
▁çay	-3265
▁çoğ	-3266
▁İst	-3267
▁şüp	-3268
ablon	-3269
alıcı	-3270
aralı	-3271
assas	-3272
diven	-3273
ekans	-3274
eleme	-3275
emesi	-3276
emize	-3277
emizi	-3278
endis	-3279
enizi	-3280
erken	-3281
erçek	-3282
erçev	-3283
eysel	-3284
eğine	-3285
giliz	-3286
ideos	-3287
ikler	-3288
imize	-3289
imsel	-3290
incir	-3291
isine	-3292
landı	-3293
laşma	-3294
leşim	-3295
linde	-3296
linik	-3297
lobal	-3298
lıyor	-3299
maris	-3300
meyen	-3301
meyin	-3302
olama	-3303
ormül	-3304
ortum	-3305
oster	-3306
plant	-3307
tifik	-3308
tivit	-3309
uluğu	-3310
usunu	-3311
valtı	-3312
veriş	-3313
yacak	-3314
ürosu	-3315
▁Amer	-3316
▁Ağır	-3317
▁Blen	-3318
▁Cins	-3319
▁Dair	-3320
▁Fren	-3321
▁Host	-3322
▁Inst	-3323
▁Ital	-3324
▁Kapı	-3325
▁Kong	-3326
▁List	-3327
▁Ning	-3328
▁Ofis	-3329
▁Part	-3330
▁Plaj	-3331
▁Plaz	-3332
▁Prot	-3333
▁Road	-3334
▁Step	-3335
▁Suyu	-3336
▁Tang	-3337
▁Tech	-3338
▁Tipi	-3339
▁Vana	-3340
▁akım	-3341
▁alma	-3342
▁amaç	-3343
▁anal	-3344
▁antr	-3345
▁arka	-3346
▁beri	-3347
▁büny	-3348
▁dair	-3349
▁doğa	-3350
▁eden	-3351
▁etik	-3352
▁göst	-3353
▁gücü	-3354
▁gıda	-3355
▁hala	-3356
▁hata	-3357
▁ilet	-3358
▁kamp	-3359
▁kağı	-3360
▁kişi	-3361
▁kork	-3362
▁kutu	-3363
▁mach	-3364
▁oldu	-3365
▁onar	-3366
▁orta	-3367
▁otom	-3368
▁port	-3369
▁sarı	-3370
▁sayf	-3371
▁stok	-3372
▁söyl	-3373
▁sıvı	-3374
▁takı	-3375
▁titr	-3376
▁tren	-3377
▁uyku	-3378
▁uzak	-3379
▁yine	-3380
▁ödem	-3381
▁öner	-3382
▁İnce	-3383
▁İzol	-3384
aciğer	-3385
akayık	-3386
akende	-3387
akları	-3388
alığın	-3389
atsApp	-3390
dıktan	-3391
ebilen	-3392
emizde	-3393
eribot	-3394
format	-3395
ildiği	-3396
ipariş	-3397
isiniz	-3398
lerden	-3399
liğini	-3400
manıza	-3401
orumak	-3402
sından	-3403
ukavem	-3404
ülmesi	-3405
ılavuz	-3406
ıldığı	-3407
▁Apart	-3408
▁Araba	-3409
▁Aşağı	-3410
▁Bebek	-3411
▁Beden	-3412
▁Benim	-3413
▁Cihaz	-3414
▁Darbe	-3415
▁Dekor	-3416
▁Dokun	-3417
▁Düşük	-3418
▁Etkin	-3419
▁Fiyat	-3420
▁Gizli	-3421
▁Haber	-3422
▁Hattı	-3423
▁Hızlı	-3424
▁Kadın	-3425
▁Mekan	-3426
▁Mesaj	-3427
▁Nasıl	-3428
▁Smart	-3429
▁Sıfır	-3430
▁Temiz	-3431
▁Villa	-3432
▁ahşap	-3433
▁altın	-3434
▁amacı	-3435
▁anlat	-3436
▁aşama	-3437
▁bagaj	-3438
▁başta	-3439
▁bilet	-3440
▁bugün	-3441
▁demir	-3442
▁durul	-3443
▁düzey	-3444
▁eylem	-3445
▁geçiş	-3446
▁gider	-3447
▁grubu	-3448
▁görev	-3449
▁görüş	-3450
▁gümüş	-3451
▁hangi	-3452
▁hayal	-3453
▁hesap	-3454
▁hukuk	-3455
▁indir	-3456
▁içine	-3457
▁işbir	-3458
▁kablo	-3459
▁kalma	-3460
▁kalıp	-3461
▁kaplı	-3462
▁kağıt	-3463
▁kemik	-3464
▁kitap	-3465
▁kolon	-3466
▁kumaş	-3467
▁lazer	-3468
▁levha	-3469
▁madde	-3470
▁makin	-3471
▁makul	-3472
▁mağaz	-3473
▁mesaj	-3474
▁metro	-3475
▁optik	-3476
▁oranı	-3477
▁paral	-3478
▁resep	-3479
▁resmi	-3480
▁sahib	-3481
▁sahne	-3482
▁sanat	-3483
▁soğuk	-3484
▁taşın	-3485
▁temin	-3486
▁trans	-3487
▁verim	-3488
▁yarat	-3489
▁yavaş	-3490
▁yaşam	-3491
▁zemin	-3492
▁Çocuk	-3493
▁Ücret	-3494
▁çanta	-3495
▁çekim	-3496
▁çerez	-3497
▁çevre	-3498
▁Şimdi	-3499
▁şifre	-3500
acebook	-3501
anyetik	-3502
avantaj	-3503
letleri	-3504
likleri	-3505
lığında	-3506
masının	-3507
▁Bildir	-3508
▁Bodrum	-3509
▁Burada	-3510
▁Finans	-3511
▁Günlük	-3512
▁Hassas	-3513
▁KOKUYO	-3514
▁Kapalı	-3515
▁Makine	-3516
▁Mektup	-3517
▁Müşter	-3518
▁Renkli	-3519
▁Sandal	-3520
▁Sultan	-3521
▁Türbin	-3522
▁alacak	-3523
▁alaşım	-3524
▁altyap	-3525
▁azalma	-3526
▁başlat	-3527
▁birden	-3528
▁doktor	-3529
▁durumu	-3530
▁dışarı	-3531
▁ediyor	-3532
▁etkili	-3533
▁geçmiş	-3534
▁hayvan	-3535
▁herkes	-3536
▁hiçbir	-3537
▁hortum	-3538
▁iPhone	-3539
▁işleme	-3540
▁kaşığı	-3541
▁küveti	-3542
▁lisans	-3543
▁memnun	-3544
▁odaklı	-3545
▁oluşur	-3546
▁onları	-3547
▁ortamı	-3548
▁oturma	-3549
▁rağmen	-3550
▁restor	-3551
▁sahibi	-3552
▁sarhoş	-3553
▁sağlan	-3554
▁sağlık	-3555
▁sözleş	-3556
▁süresi	-3557
▁sınıfı	-3558
▁tadını	-3559
▁tercih	-3560
▁teslim	-3561
▁varlık	-3562
▁vücudu	-3563
▁yapısı	-3564
▁yazılı	-3565
▁yelpaz	-3566
▁Önceki	-3567
▁çekmek	-3568
▁ısıtma	-3569
▁şablon	-3570
▁şeffaf	-3571
elerinin	-3572
lamaları	-3573
landırma	-3574
lemeleri	-3575
lerinden	-3576
ılmasını	-3577
ılmıştır	-3578
▁Blender	-3579
▁Bununla	-3580
▁Fabrika	-3581
▁Görüntü	-3582
▁Isıtıcı	-3583
▁Italian	-3584
▁Kontrol	-3585
▁Kırmızı	-3586
▁Malzeme	-3587
▁Müşteri	-3588
▁Restaur	-3589
▁Tedarik	-3590
▁Ticaret	-3591
▁Türkiye	-3592
▁Windows	-3593
▁ağırlık	-3594
▁biridir	-3595
▁değerli	-3596
▁değişik	-3597
▁garanti	-3598
▁görüyor	-3599
▁işçilik	-3600
▁kablolu	-3601
▁kanallı	-3602
▁katılım	-3603
▁kaynağı	-3604
▁kendini	-3605
▁kişilik	-3606
▁korumak	-3607
▁maliyet	-3608
▁markası	-3609
▁nitelik	-3610
▁noktası	-3611
▁onların	-3612
▁organik	-3613
▁pompası	-3614
▁problem	-3615
▁servisi	-3616
▁sonunda	-3617
▁steroid	-3618
▁tahtası	-3619
▁tuvalet	-3620
▁verilen	-3621
▁verimli	-3622
▁yanında	-3623
▁zamanlı	-3624
▁ziyaret	-3625
▁çalışır	-3626
▁çamaşır	-3627
▁çapında	-3628
▁çıkarır	-3629
▁üretici	-3630
▁üretmek	-3631
▁İngiliz	-3632
▁Şakayık	-3633
asyonları	-3634
larındaki	-3635
leyebilir	-3636
▁Birleşik	-3637
▁Cinsiyet	-3638
▁Fotoğraf	-3639
▁Gizlilik	-3640
▁Herhangi	-3641
▁Kiralama	-3642
▁Kullanım	-3643
▁Marmaris	-3644
▁Odalarda	-3645
▁Ultrason	-3646
▁WhatsApp	-3647
▁adlandır	-3648
▁arabayla	-3649
▁ardından	-3650
▁banyolar	-3651
▁bilmeniz	-3652
▁danışman	-3653
▁dönüştür	-3654
▁edebilir	-3655
▁eksiksiz	-3656
▁faaliyet	-3657
▁faydalan	-3658
▁genişlet	-3659
▁havaalan	-3660
▁insanlar	-3661
▁içindeki	-3662
▁kaldırma	-3663
▁kazanmak	-3664
▁kolaydır	-3665
▁miktarda	-3666
▁sağlayan	-3667
▁sağlıklı	-3668
▁seçeneği	-3669
▁tasarımı	-3670
▁titreşim	-3671
▁toplantı	-3672
▁tungsten	-3673
▁yoğunluk	-3674
▁yılından	-3675
▁Çiçekler	-3676
▁çalışmak	-3677
▁çubuklar	-3678
▁üretilen	-3679
▁şehrinin	-3680
▁Kullanımı	-3681
▁açısından	-3682
▁aşağıdaki	-3683
▁benzersiz	-3684
▁buzdolabı	-3685
▁esnasında	-3686
▁eğlenceli	-3687
▁fiyatları	-3688
▁genelinde	-3689
▁istasyonu	-3690
▁karaciğer	-3691
▁kullanıla	-3692
▁olacaktır	-3693
▁oluşturur	-3694
▁operasyon	-3695
▁tasarımcı	-3696
▁yedekleme	-3697
▁önemlidir	-3698
▁Elektrikli	-3699
▁Smartphone	-3700
▁hastalığın	-3701
▁ihtiyacına	-3702
▁kalitesini	-3703
▁kesinlikle	-3704
▁oluşturmak	-3705
▁potansiyel	-3706
▁sektöründe	-3707
▁Özellikler	-3708
▁Endüstriyel	-3709
▁Karıştırıcı	-3710
▁endüstriyel	-3711
▁haddelenmiş	-3712
▁kolaylaştır	-3713
▁malzemeleri	-3714
▁sunmaktadır	-3715
▁tasarlanmış	-3716
▁tedarikçisi	-3717
▁özelliklere	-3718
▁girişimcilik	-3719
▁ulaşılabilir	-3720
▁uygulamaları	-3721
▁Üniversitesi	-3722
▁sağlamaktadır	-3723
▁uygulanabilir	-3724
▁verilerinizin	-3725
▁bulabilirsiniz	-3726
▁görebilirsiniz	-3727
▁Özelleştirilmiş	-3728
''	-3729
-7	-3730
-9	-3731
.)	-3732
.2	-3733
.8	-3734
04	-3735
24	-3736
3,	-3737
75	-3738
9,	-3739
99	-3740
:1	-3741
AD	-3742
BA	-3743
Bu	-3744
DE	-3745
DT	-3746
DÜ	-3747
EC	-3748
Hz	-3749
IF	-3750
IS	-3751
IT	-3752
KA	-3753
LT	-3754
MQ	-3755
OG	-3756
PM	-3757
PN	-3758
RC	-3759
TH	-3760
ee	-3761
fe	-3762
gü	-3763
hl	-3764
hu	-3765
io	-3766
je	-3767
pe	-3768
su	-3769
ug	-3770
ux	-3771
ök	-3772
ým	-3773
İA	-3774
İP	-3775
İS	-3776
ıb	-3777
ıf	-3778
şe	-3779
те	-3780
-12	-3781
-25	-3782
.20	-3783
ACK	-3784
KUM	-3785
Kay	-3786
LER	-3787
LIK	-3788
PEG	-3789
ROJ	-3790
Tüm	-3791
YON	-3792
ali	-3793
ani	-3794
ary	-3795
arş	-3796
asa	-3797
aza	-3798
bin	-3799
45	-3800
Dr	-3801
ER	-3802
cc	-3803
ld	-3804
zu	-3805
aka	-3806
ced	-3807
dek	-3808
dev	-3809
diy	-3810
ebi	-3811
ect	-3812
ens	-3813
erp	-3814
evi	-3815
fat	-3816
fen	-3817
gsm	-3818
gül	-3819
ham	-3820
hur	-3821
ica	-3822
ifi	-3823
iga	-3824
ike	-3825
int	-3826
ipe	-3827
iri	-3828
ise	-3829
jur	-3830
kek	-3831
kor	-3832
kın	-3833
lav	-3834
lev	-3835
lok	-3836
lon	-3837
lot	-3838
mes	-3839
mir	-3840
mos	-3841
nde	-3842
nin	-3843
opi	-3844
ose	-3845
osp	-3846
otu	-3847
oya	-3848
par	-3849
pik	-3850
▁	-3851
a	-3852
e	-3853
i	-3854
r	-3855
l	-3856
n	-3857
k	-3858
ı	-3859
t	-3860
m	-3861
s	-3862
d	-3863
o	-3864
u	-3865
y	-3866
b	-3867
ü	-3868
z	-3869
v	-3870
ş	-3871
,	-3872
g	-3873
.	-3874
ç	-3875
c	-3876
p	-3877
h	-3878
ğ	-3879
f	-3880
ö	-3881
A	-3882
B	-3883
S	-3884
K	-3885
T	-3886
M	-3887
P	-3888
0	-3889
E	-3890
D	-3891
1	-3892
2	-3893
C	-3894
-	-3895
H	-3896
O	-3897
G	-3898
L	-3899
R	-3900
İ	-3901
:	-3902
Y	-3903
j	-3904
5	-3905
)	-3906
F	-3907
(	-3908
3	-3909
I	-3910
N	-3911
'	-3912
4	-3913
V	-3914
U	-3915
Ç	-3916
9	-3917
6	-3918
w	-3919
7	-3920
8	-3921
W	-3922
Ü	-3923
Ş	-3924
x	-3925
Ö	-3926
"	-3927
_	-3928
J	-3929
;	-3930
?	-3931
Z	-3932
X	-3933
!	-3934
q	-3935
ə	-3936
Q	-3937
ý	-3938
и	-3939
о	-3940
а	-3941
â	-3942
е	-3943
р	-3944
в	-3945
т	-3946
Т	-3947
к	-3948
л	-3949
ь	-3950
ä	-3951
Ğ	-3952
б	-3953
м	-3954
с	-3955
я	-3956
ộ	-3957
Á	-3958
Ø	-3959
à	-3960
æ	-3961
è	-3962
ë	-3963
í	-3964
î	-3965
û	-3966
þ	-3967
ł	-3968
ń	-3969
Ə	-3970
Б	-3971
В	-3972
З	-3973
д	-3974
з	-3975
й	-3976
н	-3977
п	-3978
у	-3979
ц	-3980
ч	-3981
ш	-3982
ъ	-3983
乐	-3984
国	-3985
城	-3986
娱	-3987
导	-3988
者	-3989
际	-3990
领	-3991
니	-3992
아	-3993
오	-3994
일	-3995
전	-3996
