{
  "<unk>": 0,
  "<pad>": 1,
  " ": 3,
  "!": 4,
  "\"": 5,
  "#": 6,
  "$": 7,
  "%": 8,
  "&": 9,
  "'": 10,
  "(": 11,
  ")": 12,
  "*": 13,
  "+": 14,
  ",": 15,
  "-": 16,
  ".": 17,
  "/": 18,
  "0": 19,
  "1": 20,
  "2": 21,
  "3": 22,
  "4": 23,
  "5": 24,
  "6": 25,
  "7": 26,
  "8": 27,
  "9": 28,
  ":": 29,
  ";": 30,
  "<": 31,
  "=": 32,
  ">": 33,
  "?": 34,
  "@": 35,
  "A": 36,
  "B": 37,
  "C": 38,
  "D": 39,
  "E": 40,
  "F": 41,
  "G": 42,
  "H": 43,
  "I": 44,
  "J": 45,
  "K": 46,
  "L": 47,
  "M": 48,
  "N": 49,
  "O": 50,
  "P": 51,
  "Q": 52,
  "R": 53,
  "S": 54,
  "T": 55,
  "U": 56,
  "V": 57,
  "W": 58,
  "X": 59,
  "Y": 60,
  "Z": 61,
  "[": 62,
  "\\": 63,
  "]": 64,
  "_": 65,
  "`": 66,
  "a": 67,
  "b": 68,
  "c": 69,
  "d": 70,
  "e": 71,
  "f": 72,
  "g": 73,
  "h": 74,
  "i": 75,
  "j": 76,
  "k": 77,
  "l": 78,
  "m": 79,
  "n": 80,
  "o": 81,
  "p": 82,
  "q": 83,
  "r": 84,
  "s": 85,
  "t": 86,
  "u": 87,
  "v": 88,
  "w": 89,
  "x": 90,
  "y": 91,
  "z": 92,
  "{": 93,
  "|": 94,
  "}": 95,
  "~": 96,
  "£": 97,
  "§": 98,
  "¨": 99,
  "©": 100,
  "«": 101,
  "­": 102,
  "°": 103,
  "²": 104,
  "³": 105,
  "·": 106,
  "¹": 107,
  "º": 108,
  "»": 109,
  "¼": 110,
  "¾": 111,
  "À": 112,
  "Á": 113,
  "Â": 114,
  "Ã": 115,
  "Ä": 116,
  "Å": 117,
  "Ç": 118,
  "È": 119,
  "É": 120,
  "Ê": 121,
  "Ì": 122,
  "Í": 123,
  "Î": 124,
  "Ò": 125,
  "Ó": 126,
  "Ô": 127,
  "Õ": 128,
  "Ö": 129,
  "×": 130,
  "Ù": 131,
  "Ú": 132,
  "Ü": 133,
  "Ý": 134,
  "ß": 135,
  "à": 136,
  "á": 137,
  "â": 138,
  "ã": 139,
  "ä": 140,
  "å": 141,
  "æ": 142,
  "ç": 143,
  "è": 144,
  "é": 145,
  "ê": 146,
  "ë": 147,
  "ì": 148,
  "í": 149,
  "î": 150,
  "ï": 151,
  "ð": 152,
  "ñ": 153,
  "ò": 154,
  "ó": 155,
  "ô": 156,
  "õ": 157,
  "ö": 158,
  "÷": 159,
  "ø": 160,
  "ù": 161,
  "ú": 162,
  "û": 163,
  "ü": 164,
  "ý": 165,
  "Ā": 166,
  "ā": 167,
  "Ă": 168,
  "ă": 169,
  "ą": 170,
  "ć": 171,
  "ċ": 172,
  "Č": 173,
  "č": 174,
  "Đ": 175,
  "đ": 176,
  "ē": 177,
  "Ė": 178,
  "ę": 179,
  "ě": 180,
  "ğ": 181,
  "ġ": 182,
  "Ĩ": 183,
  "ĩ": 184,
  "ī": 185,
  "ĭ": 186,
  "İ": 187,
  "ı": 188,
  "ł": 189,
  "ń": 190,
  "Ō": 191,
  "ō": 192,
  "ŏ": 193,
  "œ": 194,
  "ř": 195,
  "ś": 196,
  "Ş": 197,
  "ş": 198,
  "Š": 199,
  "š": 200,
  "ţ": 201,
  "Ũ": 202,
  "ũ": 203,
  "ū": 204,
  "ŭ": 205,
  "ų": 206,
  "ź": 207,
  "ż": 208,
  "Ž": 209,
  "ž": 210,
  "Ơ": 211,
  "ơ": 212,
  "Ư": 213,
  "ư": 214,
  "ǎ": 215,
  "ǐ": 216,
  "ǔ": 217,
  "ș": 218,
  "ɑ": 219,
  "ɒ": 220,
  "ɔ": 221,
  "ɕ": 222,
  "ə": 223,
  "ɛ": 224,
  "ɡ": 225,
  "ɨ": 226,
  "ɪ": 227,
  "ʁ": 228,
  "ʃ": 229,
  "ʊ": 230,
  "ʒ": 231,
  "ʥ": 232,
  "ʲ": 233,
  "ʻ": 234,
  "ʾ": 235,
  "ʿ": 236,
  "ˈ": 237,
  "ˌ": 238,
  "ː": 239,
  "˥": 240,
  "˦": 241,
  "˧": 242,
  "˨": 243,
  "́": 244,
  "̂": 245,
  "̃": 246,
  "̄": 247,
  "̆": 248,
  "̇": 249,
  "̈": 250,
  "̑": 251,
  "̥": 252,
  "Α": 253,
  "Δ": 254,
  "Ε": 255,
  "Κ": 256,
  "Λ": 257,
  "Μ": 258,
  "Π": 259,
  "Σ": 260,
  "Τ": 261,
  "Υ": 262,
  "Φ": 263,
  "Χ": 264,
  "ά": 265,
  "έ": 266,
  "ή": 267,
  "ί": 268,
  "α": 269,
  "β": 270,
  "γ": 271,
  "δ": 272,
  "ε": 273,
  "η": 274,
  "θ": 275,
  "ι": 276,
  "κ": 277,
  "λ": 278,
  "μ": 279,
  "ν": 280,
  "ξ": 281,
  "ο": 282,
  "π": 283,
  "ρ": 284,
  "ς": 285,
  "σ": 286,
  "τ": 287,
  "υ": 288,
  "φ": 289,
  "χ": 290,
  "ω": 291,
  "ό": 292,
  "ύ": 293,
  "ώ": 294,
  "Ў": 295,
  "Џ": 296,
  "А": 297,
  "Б": 298,
  "В": 299,
  "Г": 300,
  "Д": 301,
  "Е": 302,
  "Ж": 303,
  "З": 304,
  "И": 305,
  "Й": 306,
  "К": 307,
  "Л": 308,
  "М": 309,
  "Н": 310,
  "О": 311,
  "П": 312,
  "Р": 313,
  "С": 314,
  "Т": 315,
  "У": 316,
  "Ф": 317,
  "Х": 318,
  "Ц": 319,
  "Ч": 320,
  "Ш": 321,
  "Щ": 322,
  "Ь": 323,
  "Э": 324,
  "Ю": 325,
  "Я": 326,
  "а": 327,
  "б": 328,
  "в": 329,
  "г": 330,
  "д": 331,
  "е": 332,
  "ж": 333,
  "з": 334,
  "и": 335,
  "й": 336,
  "к": 337,
  "л": 338,
  "м": 339,
  "н": 340,
  "о": 341,
  "п": 342,
  "р": 343,
  "с": 344,
  "т": 345,
  "у": 346,
  "ф": 347,
  "х": 348,
  "ц": 349,
  "ч": 350,
  "ш": 351,
  "щ": 352,
  "ъ": 353,
  "ы": 354,
  "ь": 355,
  "э": 356,
  "ю": 357,
  "я": 358,
  "ё": 359,
  "є": 360,
  "і": 361,
  "ї": 362,
  "ј": 363,
  "ў": 364,
  "џ": 365,
  "ѣ": 366,
  "Қ": 367,
  "қ": 368,
  "ҟ": 369,
  "ҧ": 370,
  "ҭ": 371,
  "ү": 372,
  "ҷ": 373,
  "ҹ": 374,
  "ӕ": 375,
  "ә": 376,
  "Ӡ": 377,
  "ӡ": 378,
  "Է": 379,
  "Ջ": 380,
  "Տ": 381,
  "Ր": 382,
  "ա": 383,
  "խ": 384,
  "վ": 385,
  "ք": 386,
  "א": 387,
  "ב": 388,
  "ג": 389,
  "ד": 390,
  "ה": 391,
  "ו": 392,
  "ח": 393,
  "ט": 394,
  "י": 395,
  "ל": 396,
  "ם": 397,
  "מ": 398,
  "ן": 399,
  "נ": 400,
  "ע": 401,
  "פ": 402,
  "צ": 403,
  "ק": 404,
  "ר": 405,
  "ש": 406,
  "ת": 407,
  "ء": 408,
  "آ": 409,
  "أ": 410,
  "إ": 411,
  "ئ": 412,
  "ا": 413,
  "ب": 414,
  "ة": 415,
  "ت": 416,
  "ث": 417,
  "ج": 418,
  "ح": 419,
  "خ": 420,
  "د": 421,
  "ذ": 422,
  "ر": 423,
  "ز": 424,
  "س": 425,
  "ش": 426,
  "ص": 427,
  "ض": 428,
  "ط": 429,
  "ظ": 430,
  "ع": 431,
  "غ": 432,
  "ف": 433,
  "ق": 434,
  "ك": 435,
  "ل": 436,
  "م": 437,
  "ن": 438,
  "ه": 439,
  "و": 440,
  "ى": 441,
  "ي": 442,
  "ً": 443,
  "َ": 444,
  "ُ": 445,
  "ِ": 446,
  "ّ": 447,
  "ْ": 448,
  "پ": 449,
  "ښ": 450,
  "ک": 451,
  "ہ": 452,
  "ۇ": 453,
  "ی": 454,
  "ې": 455,
  "ܐ": 456,
  "ܘ": 457,
  "ܝ": 458,
  "ܣ": 459,
  "ܪ": 460,
  "ँ": 461,
  "ं": 462,
  "ः": 463,
  "अ": 464,
  "आ": 465,
  "इ": 466,
  "ई": 467,
  "उ": 468,
  "ऊ": 469,
  "ऋ": 470,
  "ऌ": 471,
  "ए": 472,
  "ऐ": 473,
  "ओ": 474,
  "औ": 475,
  "क": 476,
  "ख": 477,
  "ग": 478,
  "घ": 479,
  "ङ": 480,
  "च": 481,
  "छ": 482,
  "ज": 483,
  "झ": 484,
  "ञ": 485,
  "ट": 486,
  "ठ": 487,
  "ड": 488,
  "ढ": 489,
  "ण": 490,
  "त": 491,
  "थ": 492,
  "द": 493,
  "ध": 494,
  "न": 495,
  "प": 496,
  "फ": 497,
  "ब": 498,
  "भ": 499,
  "म": 500,
  "य": 501,
  "र": 502,
  "ल": 503,
  "व": 504,
  "श": 505,
  "ष": 506,
  "स": 507,
  "ह": 508,
  "़": 509,
  "ा": 510,
  "ि": 511,
  "ी": 512,
  "ु": 513,
  "ू": 514,
  "ृ": 515,
  "ॄ": 516,
  "ॅ": 517,
  "े": 518,
  "ै": 519,
  "ॉ": 520,
  "ो": 521,
  "ौ": 522,
  "्": 523,
  "ॠ": 524,
  "ॡ": 525,
  "ॢ": 526,
  "ॣ": 527,
  "।": 528,
  "॥": 529,
  "ং": 530,
  "অ": 531,
  "আ": 532,
  "ক": 533,
  "গ": 534,
  "জ": 535,
  "ত": 536,
  "দ": 537,
  "ন": 538,
  "প": 539,
  "ব": 540,
  "ম": 541,
  "য": 542,
  "র": 543,
  "ল": 544,
  "স": 545,
  "া": 546,
  "ি": 547,
  "ূ": 548,
  "ো": 549,
  "্": 550,
  "ਗ": 551,
  "ਚ": 552,
  "ਜ": 553,
  "ਡ": 554,
  "ਪ": 555,
  "ਬ": 556,
  "ਹ": 557,
  "ਾ": 558,
  "ੀ": 559,
  "੍": 560,
  "ੜ": 561,
  "ੰ": 562,
  "ગ": 563,
  "જ": 564,
  "ત": 565,
  "ર": 566,
  "ા": 567,
  "ી": 568,
  "ુ": 569,
  "ଆ": 570,
  "ଓ": 571,
  "ଡ": 572,
  "଼": 573,
  "ି": 574,
  "ം": 575,
  "മ": 576,
  "യ": 577,
  "ല": 578,
  "ള": 579,
  "ാ": 580,
  "ง": 581,
  "ท": 582,
  "ป": 583,
  "พ": 584,
  "ร": 585,
  "ว": 586,
  "ศ": 587,
  "ส": 588,
  "ห": 589,
  "ะ": 590,
  "ั": 591,
  "า": 592,
  "เ": 593,
  "โ": 594,
  "่": 595,
  "์": 596,
  "ད": 597,
  "བ": 598,
  "ོ": 599,
  "Ⴀ": 600,
  "Ⴁ": 601,
  "Ⴂ": 602,
  "Ⴃ": 603,
  "Ⴄ": 604,
  "Ⴅ": 605,
  "Ⴆ": 606,
  "Ⴇ": 607,
  "Ⴈ": 608,
  "Ⴉ": 609,
  "Ⴊ": 610,
  "Ⴋ": 611,
  "Ⴌ": 612,
  "Ⴍ": 613,
  "Ⴎ": 614,
  "Ⴏ": 615,
  "Ⴐ": 616,
  "Ⴑ": 617,
  "Ⴒ": 618,
  "Ⴓ": 619,
  "Ⴔ": 620,
  "Ⴕ": 621,
  "Ⴖ": 622,
  "Ⴗ": 623,
  "Ⴘ": 624,
  "Ⴙ": 625,
  "Ⴚ": 626,
  "Ⴛ": 627,
  "Ⴜ": 628,
  "Ⴝ": 629,
  "Ⴞ": 630,
  "Ⴟ": 631,
  "Ⴠ": 632,
  "Ⴣ": 633,
  "ა": 634,
  "ბ": 635,
  "გ": 636,
  "დ": 637,
  "ე": 638,
  "ვ": 639,
  "ზ": 640,
  "თ": 641,
  "ი": 642,
  "კ": 643,
  "ლ": 644,
  "მ": 645,
  "ნ": 646,
  "ო": 647,
  "პ": 648,
  "ჟ": 649,
  "რ": 650,
  "ს": 651,
  "ტ": 652,
  "უ": 653,
  "ფ": 654,
  "ქ": 655,
  "ღ": 656,
  "ყ": 657,
  "შ": 658,
  "ჩ": 659,
  "ც": 660,
  "ძ": 661,
  "წ": 662,
  "ჭ": 663,
  "ხ": 664,
  "ჯ": 665,
  "ჰ": 666,
  "ჱ": 667,
  "ჲ": 668,
  "ჳ": 669,
  "ჴ": 670,
  "ჵ": 671,
  "ჶ": 672,
  "ჷ": 673,
  "ჸ": 674,
  "ჿ": 675,
  "ል": 676,
  "መ": 677,
  "ስ": 678,
  "ቢ": 679,
  "ክ": 680,
  "የ": 681,
  "ያ": 682,
  "ግ": 683,
  "Ა": 684,
  "Ბ": 685,
  "Გ": 686,
  "Დ": 687,
  "Ე": 688,
  "Ვ": 689,
  "Ზ": 690,
  "Თ": 691,
  "Ი": 692,
  "Კ": 693,
  "Ლ": 694,
  "Მ": 695,
  "Ნ": 696,
  "Ო": 697,
  "Პ": 698,
  "Ჟ": 699,
  "Რ": 700,
  "Ს": 701,
  "Ტ": 702,
  "Უ": 703,
  "Ფ": 704,
  "Ქ": 705,
  "Ღ": 706,
  "Ყ": 707,
  "Შ": 708,
  "Ჩ": 709,
  "Ც": 710,
  "Ძ": 711,
  "Წ": 712,
  "Ჭ": 713,
  "Ხ": 714,
  "Ჯ": 715,
  "Ჰ": 716,
  "ḍ": 717,
  "Ḥ": 718,
  "ḥ": 719,
  "ḷ": 720,
  "ḹ": 721,
  "ṁ": 722,
  "ṅ": 723,
  "ṇ": 724,
  "ṛ": 725,
  "ṝ": 726,
  "ṣ": 727,
  "ṭ": 728,
  "Ẓ": 729,
  "ẓ": 730,
  "Ạ": 731,
  "ạ": 732,
  "Ả": 733,
  "ả": 734,
  "Ấ": 735,
  "ấ": 736,
  "Ầ": 737,
  "ầ": 738,
  "Ẩ": 739,
  "ẩ": 740,
  "Ẫ": 741,
  "ẫ": 742,
  "Ậ": 743,
  "ậ": 744,
  "Ắ": 745,
  "ắ": 746,
  "Ằ": 747,
  "ằ": 748,
  "Ẳ": 749,
  "ẳ": 750,
  "Ẵ": 751,
  "ẵ": 752,
  "Ặ": 753,
  "ặ": 754,
  "Ẹ": 755,
  "ẹ": 756,
  "Ẻ": 757,
  "ẻ": 758,
  "Ẽ": 759,
  "ẽ": 760,
  "Ế": 761,
  "ế": 762,
  "Ề": 763,
  "ề": 764,
  "Ể": 765,
  "ể": 766,
  "Ễ": 767,
  "ễ": 768,
  "Ệ": 769,
  "ệ": 770,
  "Ỉ": 771,
  "ỉ": 772,
  "Ị": 773,
  "ị": 774,
  "Ọ": 775,
  "ọ": 776,
  "Ỏ": 777,
  "ỏ": 778,
  "Ố": 779,
  "ố": 780,
  "Ồ": 781,
  "ồ": 782,
  "Ổ": 783,
  "ổ": 784,
  "Ỗ": 785,
  "ỗ": 786,
  "Ộ": 787,
  "ộ": 788,
  "Ớ": 789,
  "ớ": 790,
  "Ờ": 791,
  "ờ": 792,
  "Ở": 793,
  "ở": 794,
  "Ỡ": 795,
  "ỡ": 796,
  "Ợ": 797,
  "ợ": 798,
  "Ụ": 799,
  "ụ": 800,
  "Ủ": 801,
  "ủ": 802,
  "Ứ": 803,
  "ứ": 804,
  "Ừ": 805,
  "ừ": 806,
  "Ử": 807,
  "ử": 808,
  "Ữ": 809,
  "ữ": 810,
  "Ự": 811,
  "ự": 812,
  "Ỳ": 813,
  "ỳ": 814,
  "Ỵ": 815,
  "ỵ": 816,
  "Ỷ": 817,
  "ỷ": 818,
  "Ỹ": 819,
  "ỹ": 820,
  "ἃ": 821,
  "Ἀ": 822,
  "ἡ": 823,
  "ῦ": 824,
  "​": 825,
  "‎": 826,
  "‐": 827,
  "‑": 828,
  "–": 829,
  "—": 830,
  "―": 831,
  "‘": 832,
  "’": 833,
  "‚": 834,
  "“": 835,
  "”": 836,
  "„": 837,
  "†": 838,
  "•": 839,
  "…": 840,
  "‰": 841,
  "′": 842,
  "″": 843,
  "‿": 844,
  "₣": 845,
  "€": 846,
  "№": 847,
  "→": 848,
  "↓": 849,
  "−": 850,
  "∫": 851,
  "≈": 852,
  "⎯": 853,
  "ⴀ": 854,
  "ⴁ": 855,
  "ⴂ": 856,
  "ⴃ": 857,
  "ⴄ": 858,
  "ⴅ": 859,
  "ⴆ": 860,
  "ⴇ": 861,
  "ⴈ": 862,
  "ⴉ": 863,
  "ⴊ": 864,
  "ⴋ": 865,
  "ⴌ": 866,
  "ⴍ": 867,
  "ⴎ": 868,
  "ⴏ": 869,
  "ⴐ": 870,
  "ⴑ": 871,
  "ⴒ": 872,
  "ⴓ": 873,
  "ⴔ": 874,
  "ⴕ": 875,
  "ⴖ": 876,
  "ⴗ": 877,
  "ⴘ": 878,
  "ⴙ": 879,
  "ⴚ": 880,
  "ⴛ": 881,
  "ⴜ": 882,
  "ⴝ": 883,
  "ⴞ": 884,
  "ⴟ": 885,
  "ⴠ": 886,
  "あ": 887,
  "い": 888,
  "う": 889,
  "え": 890,
  "お": 891,
  "が": 892,
  "き": 893,
  "く": 894,
  "こ": 895,
  "ご": 896,
  "さ": 897,
  "ざ": 898,
  "し": 899,
  "じ": 900,
  "す": 901,
  "せ": 902,
  "そ": 903,
  "ぞ": 904,
  "ち": 905,
  "っ": 906,
  "と": 907,
  "ど": 908,
  "な": 909,
  "に": 910,
  "ね": 911,
  "の": 912,
  "は": 913,
  "ま": 914,
  "み": 915,
  "も": 916,
  "ゃ": 917,
  "や": 918,
  "ゅ": 919,
  "よ": 920,
  "ら": 921,
  "り": 922,
  "ろ": 923,
  "ん": 924,
  "一": 925,
  "七": 926,
  "三": 927,
  "中": 928,
  "九": 929,
  "二": 930,
  "五": 931,
  "人": 932,
  "仔": 933,
  "以": 934,
  "休": 935,
  "伝": 936,
  "元": 937,
  "八": 938,
  "六": 939,
  "冇": 940,
  "分": 941,
  "列": 942,
  "区": 943,
  "十": 944,
  "千": 945,
  "台": 946,
  "号": 947,
  "吃": 948,
  "周": 949,
  "商": 950,
  "喃": 951,
  "四": 952,
  "国": 953,
  "國": 954,
  "夏": 955,
  "大": 956,
  "字": 957,
  "学": 958,
  "心": 959,
  "我": 960,
  "文": 961,
  "方": 962,
  "日": 963,
  "普": 964,
  "朝": 965,
  "本": 966,
  "民": 967,
  "汉": 968,
  "港": 969,
  "漢": 970,
  "潔": 971,
  "澳": 972,
  "灣": 973,
  "然": 974,
  "电": 975,
  "番": 976,
  "百": 977,
  "祭": 978,
  "秋": 979,
  "科": 980,
  "自": 981,
  "臺": 982,
  "華": 983,
  "表": 984,
  "覧": 985,
  "言": 986,
  "訓": 987,
  "話": 988,
  "語": 989,
  "読": 990,
  "话": 991,
  "语": 992,
  "越": 993,
  "通": 994,
  "門": 995,
  "际": 996,
  "際": 997,
  "電": 998,
  "霊": 999,
  "韓": 1000,
  "音": 1001,
  "願": 1002,
  "食": 1003,
  "香": 1004,
  "鮮": 1005,
  "가": 1006,
  "간": 1007,
  "강": 1008,
  "고": 1009,
  "곱": 1010,
  "구": 1011,
  "국": 1012,
  "기": 1013,
  "깊": 1014,
  "까": 1015,
  "나": 1016,
  "네": 1017,
  "넷": 1018,
  "녕": 1019,
  "는": 1020,
  "니": 1021,
  "닙": 1022,
  "다": 1023,
  "단": 1024,
  "대": 1025,
  "덟": 1026,
  "둘": 1027,
  "든": 1028,
  "라": 1029,
  "로": 1030,
  "룡": 1031,
  "른": 1032,
  "리": 1033,
  "마": 1034,
  "말": 1035,
  "맙": 1036,
  "물": 1037,
  "믄": 1038,
  "민": 1039,
  "바": 1040,
  "백": 1041,
  "번": 1042,
  "봉": 1043,
  "뿌": 1044,
  "사": 1045,
  "삼": 1046,
  "샘": 1047,
  "서": 1048,
  "선": 1049,
  "섯": 1050,
  "세": 1051,
  "셋": 1052,
  "순": 1053,
  "숫": 1054,
  "쉰": 1055,
  "스": 1056,
  "습": 1057,
  "시": 1058,
  "식": 1059,
  "실": 1060,
  "십": 1061,
  "아": 1062,
  "안": 1063,
  "야": 1064,
  "어": 1065,
  "여": 1066,
  "열": 1067,
  "영": 1068,
  "예": 1069,
  "옛": 1070,
  "오": 1071,
  "온": 1072,
  "올": 1073,
  "요": 1074,
  "용": 1075,
  "우": 1076,
  "워": 1077,
  "유": 1078,
  "육": 1079,
  "으": 1080,
  "은": 1081,
  "의": 1082,
  "이": 1083,
  "인": 1084,
  "일": 1085,
  "자": 1086,
  "전": 1087,
  "제": 1088,
  "조": 1089,
  "주": 1090,
  "즈": 1091,
  "차": 1092,
  "천": 1093,
  "칠": 1094,
  "카": 1095,
  "타": 1096,
  "파": 1097,
  "팔": 1098,
  "하": 1099,
  "한": 1100,
  "합": 1101,
  "호": 1102,
  "홉": 1103,
  "화": 1104,
  "환": 1105,
  "흔": 1106,
  "히": 1107,
  "ﺎ": 1108,
  "ﻫ": 1109,
  "！": 1110,
  "𐌰": 1111,
  "𐌱": 1112,
  "𐌳": 1113,
  "𐌴": 1114,
  "𐌹": 1115,
  "𐌻": 1116,
  "𐌽": 1117,
  "𐍂": 1118,
  "𐍄": 1119,
  "𠳨": 1120,
  "𡦂": 1121,
  "ის": 1121,
  "ებ": 1122,
  "ლი": 1123,
  "და": 1124,
  "არ": 1125,
  "ან": 1126,
  "სა": 1127,
  "ერ": 1128,
  "რი": 1129,
  "ელ": 1130,
  "მო": 1131,
  "მა": 1132,
  "ენ": 1133,
  "ში": 1134,
  "რო": 1135,
  "ავ": 1136,
  "მი": 1137,
  "ობ": 1138,
  "ები": 1139,
  "ალ": 1140,
  "ეთ": 1141,
  "ად": 1142,
  "ელი": 1143,
  "ტი": 1144,
  "ეს": 1145,
  "ურ": 1146,
  "ვი": 1147,
  "გა": 1148,
  "ნი": 1149,
  "ული": 1150,
  "ორ": 1151,
  "ას": 1152,
  "დი": 1153,
  "ულ": 1154,
  "ამ": 1155,
  "ების": 1156,
  "ოს": 1157,
  "ნა": 1158,
  "მე": 1159,
  "შე": 1160,
  "ართ": 1161,
  "გი": 1162,
  "ცი": 1163,
  "ვა": 1164,
  "რა": 1165,
  "ონ": 1166,
  "19": 1167,
  "ური": 1168,
  "ოლ": 1169,
  "ება": 1170,
  "ლის": 1171,
  "დე": 1172,
  "ვე": 1173,
  "ერი": 1174,
  "თა": 1175,
  "ველ": 1176,
  "ტო": 1177,
  "ანი": 1178,
  "ინ": 1179,
  "რე": 1180,
  "სახ": 1181,
  "ქართ": 1182,
  "ზე": 1183,
  "სი": 1184,
  "რომ": 1185,
  "ალი": 1186,
  "არი": 1187,
  "კი": 1188,
  "კა": 1189,
  "გან": 1190,
  "პი": 1191,
  "აღ": 1192,
  "ატ": 1193,
  "თავ": 1194,
  "ევ": 1195,
  "ერთ": 1196,
  "ყო": 1197,
  "ფი": 1198,
  "ეთის": 1199,
  "უნ": 1200,
  "მის": 1201,
  "წი": 1202,
  "ოვ": 1203,
  "ობა": 1204,
  "აქ": 1205,
  "ზი": 1206,
  "ვლ": 1207,
  "ახ": 1208,
  "მხ": 1209,
  "ლე": 1210,
  "ოლო": 1211,
  "ლო": 1212,
  "20": 1213,
  "თან": 1214,
  "დან": 1215,
  "18": 1216,
  "ცხ": 1217,
  "ვის": 1218,
  "ათ": 1219,
  "ტორი": 1220,
  "ებს": 1221,
  "ტე": 1222,
  "ველი": 1223,
  "ებული": 1224,
  "გამო": 1225,
  "პო": 1226,
  "ქართველ": 1227,
  "ობის": 1228,
  "ბი": 1229,
  "ძე": 1230,
  "უს": 1231,
  "ბა": 1232,
  "ნის": 1233,
  "ოდ": 1234,
  "რის": 1235,
  "შვი": 1236,
  "ედ": 1237,
  "ებით": 1238,
  "ით": 1239,
  "II": 1240,
  "მდე": 1241,
  "საქართველ": 1242,
  "მარ": 1243,
  "უკ": 1244,
  "ესი": 1245,
  "ელს": 1246,
  "ეკ": 1247,
  "სო": 1248,
  "დღ": 1249,
  "იმ": 1250,
  "ლებ": 1251,
  "კო": 1252,
  "ენი": 1253,
  "გრ": 1254,
  "ექ": 1255,
  "არე": 1256,
  "დებ": 1257,
  "სხ": 1258,
  "მეფ": 1259,
  "ლა": 1260,
  "წყ": 1261,
  "ვით": 1262,
  "აში": 1263,
  "მუ": 1264,
  "წელს": 1265,
  "ეთი": 1266,
  "წლის": 1267,
  "ქვე": 1268,
  "ტა": 1269,
  "პირ": 1270,
  "გენ": 1271,
  "ქალ": 1272,
  "არა": 1273,
  "ემ": 1274,
  "უფ": 1275,
  "კოს": 1276,
  "რან": 1277,
  "სტ": 1278,
  "ენტ": 1279,
  "მან": 1280,
  "საქართველოს": 1281,
  "იყო": 1282,
  "გო": 1283,
  "შვილი": 1284,
  "წარ": 1285,
  "ტერ": 1286,
  "აზ": 1287,
  "წერ": 1288,
  "ობი": 1289,
  "ქალაქ": 1290,
  "ნე": 1291,
  "ნიშ": 1292,
  "ორის": 1293,
  "ოდა": 1294,
  "სახელ": 1295,
  "გრა": 1296,
  "უმ": 1297,
  "მდეგ": 1298,
  "კის": 1299,
  "დო": 1300,
  "უბ": 1301,
  "ადა": 1302,
  "არის": 1303,
  "ია": 1304,
  "არს": 1305,
  "17": 1306,
  "იან": 1307,
  "კონ": 1308,
  "კავ": 1309,
  "სამ": 1310,
  "გადა": 1311,
  "პრე": 1312,
  "ტის": 1313,
  "ნენ": 1314,
  "სავლ": 1315,
  "00": 1316,
  "სხვა": 1317,
  "რუს": 1318,
  "საბ": 1319,
  "ქვეყ": 1320,
  "რობ": 1321,
  "აფ": 1322,
  "ზო": 1323,
  "სამხ": 1324,
  "ვალ": 1325,
  "ხელ": 1326,
  "ისა": 1327,
  "დღე": 1328,
  "უთ": 1329,
  "გარ": 1330,
  "ხი": 1331,
  "ქართველი": 1332,
  "ნო": 1333,
  "რეს": 1334,
  "მას": 1335,
  "ურა": 1336,
  "ასი": 1337,
  "ანა": 1338,
  "საუკ": 1339,
  "კური": 1340,
  "წარმო": 1341,
  "დაი": 1342,
  "პოლი": 1343,
  "ოლი": 1344,
  "ხე": 1345,
  "სოფ": 1346,
  "პრო": 1347,
  "რომელი": 1348,
  "ღვ": 1349,
  "ენა": 1350,
  "ანდ": 1351,
  "ლესი": 1352,
  "200": 1353,
  "მთ": 1354,
  "ფო": 1355,
  "თე": 1356,
  "ქი": 1357,
  "ტერი": 1358,
  "ებში": 1359,
  "მართ": 1360,
  "ბრ": 1361,
  "შემდეგ": 1362,
  "ცა": 1363,
  "რომელიც": 1364,
  "ნაწი": 1365,
  "ფრან": 1366,
  "ორი": 1367,
  "ღვა": 1368,
  "გად": 1369,
  "ჩა": 1370,
  "კოსი": 1371,
  "შორის": 1372,
  "ანის": 1373,
  "მწი": 1374,
  "საუკუნ": 1375,
  "დაც": 1376,
  "ლები": 1377,
  "ცია": 1378,
  "ისი": 1379,
  "ქმ": 1380,
  "ებულ": 1381,
  "ისტორი": 1382,
  "დრო": 1383,
  "ურთ": 1384,
  "ვნ": 1385,
  "აღმო": 1386,
  "მისი": 1387,
  "ლობ": 1388,
  "პოლიტი": 1389,
  "ალური": 1390,
  "წე": 1391,
  "მინ": 1392,
  "16": 1393,
  "გერ": 1394,
  "ლია": 1395,
  "სახელმწი": 1396,
  "ბერ": 1397,
  "ტან": 1398,
  "ვერ": 1399,
  "პარ": 1400,
  "საკ": 1401,
  "პა": 1402,
  "ირ": 1403,
  "მათ": 1404,
  "დის": 1405,
  "15": 1406,
  "ონი": 1407,
  "დინ": 1408,
  "ეკლესი": 1409,
  "მთავ": 1410,
  "ზა": 1411,
  "გე": 1412,
  "ტყ": 1413,
  "დება": 1414,
  "ივ": 1415,
  "199": 1416,
  "სავლეთ": 1417,
  "გორ": 1418,
  "მიერ": 1419,
  "მოღვა": 1420,
  "აშ": 1421,
  "ტურ": 1422,
  "ზიდ": 1423,
  "მოსახ": 1424,
  "ორე": 1425,
  "ლება": 1426,
  "საც": 1427,
  "დარ": 1428,
  "ოლოგი": 1429,
  "მოღვაწე": 1430,
  "ნავ": 1431,
  "აზე": 1432,
  "თვის": 1433,
  "ძი": 1434,
  "ადი": 1435,
  "კე": 1436,
  "პირველი": 1437,
  "გიორ": 1438,
  "დიდი": 1439,
  "სას": 1440,
  "ტერიტორი": 1441,
  "ომი": 1442,
  "სამხრ": 1443,
  "მწერ": 1444,
  "ლების": 1445,
  "ოში": 1446,
  "პერი": 1447,
  "ფე": 1448,
  "ლებში": 1449,
  "კავში": 1450,
  "ერთი": 1451,
  "10": 1452,
  "მოსახლე": 1453,
  "გრაფი": 1454,
  "მონ": 1455,
  "რომელ": 1456,
  "ოვნ": 1457,
  "რულ": 1458,
  "ყველ": 1459,
  "ვარი": 1460,
  "პე": 1461,
  "სახელმწიფო": 1462,
  "შა": 1463,
  "იტ": 1464,
  "პრეზიდ": 1465,
  "ვარ": 1466,
  "რუ": 1467,
  "დნენ": 1468,
  "ეთში": 1469,
  "ჩი": 1470,
  "რდი": 1471,
  "შუ": 1472,
  "ებას": 1473,
  "ამერი": 1474,
  "ბერი": 1475,
  "მეფე": 1476,
  "ტუ": 1477,
  "პერ": 1478,
  "ევრო": 1479,
  "თხ": 1480,
  "კლ": 1481,
  "საბჭ": 1482,
  "მსახ": 1483,
  "მინის": 1484,
  "ხდა": 1485,
  "ჩრდი": 1486,
  "ცხოვ": 1487,
  "ონის": 1488,
  "შეი": 1489,
  "გიორგი": 1490,
  "უბლი": 1491,
  "მად": 1492,
  "ციის": 1493,
  "თავის": 1494,
  "ჩრდილო": 1495,
  "ალექ": 1496,
  "რავ": 1497,
  "პუბლი": 1498,
  "ვლი": 1499,
  "12": 1500,
  "14": 1501,
  "ადგი": 1502,
  "სოფლი": 1503,
  "მსოფლი": 1504,
  "ანტი": 1505,
  "აგ": 1506,
  "ტრი": 1507,
  "კომ": 1508,
  "ედრო": 1509,
  "როგორ": 1510,
  "კან": 1511,
  "ობს": 1512,
  "ხს": 1513,
  "პორ": 1514,
  "დაბ": 1515,
  "წლებში": 1516,
  "კულ": 1517,
  "თბი": 1518,
  "სამხრეთ": 1519,
  "ლიტერ": 1520,
  "შემო": 1521,
  "ენტი": 1522,
  "ვალი": 1523,
  "კარ": 1524,
  "ბრი": 1525,
  "ასე": 1526,
  "ობით": 1527,
  "ელის": 1528,
  "ებმა": 1529,
  "კათ": 1530,
  "გავ": 1531,
  "ეთა": 1532,
  "194": 1533,
  "ფორ": 1534,
  "ხოლო": 1535,
  "დიდ": 1536,
  "აგრ": 1537,
  "ლიტერატ": 1538,
  "ადამი": 1539,
  "ერის": 1540,
  "ფრანგ": 1541,
  "III": 1542,
  "an": 1543,
  "მეც": 1544,
  "კვ": 1545,
  "იგი": 1546,
  "კელი": 1547,
  "დავით": 1548,
  "ინგ": 1549,
  "საზ": 1550,
  "196": 1551,
  "მდინ": 1552,
  "საბჭო": 1553,
  "ცნ": 1554,
  "ებელი": 1555,
  "ტრო": 1556,
  "აფხ": 1557,
  "მწერალი": 1558,
  "როგორც": 1559,
  "პის": 1560,
  "197": 1561,
  "თბილის": 1562,
  "კურ": 1563,
  "ოვანი": 1564,
  "მდებ": 1565,
  "მეცნი": 1566,
  "რესპუბლი": 1567,
  "უძ": 1568,
  "სის": 1569,
  "ბრძ": 1570,
  "მაღ": 1571,
  "სამეფ": 1572,
  "ცენტ": 1573,
  "ლად": 1574,
  "ნიშვნ": 1575,
  "წინა": 1576,
  "13": 1577,
  "er": 1578,
  "ბურთ": 1579,
  "ანე": 1580,
  "ნიშვნელ": 1581,
  "დღეს": 1582,
  "ქართული": 1583,
  "წმინ": 1584,
  "აი": 1585,
  "კათოლი": 1586,
  "კალ": 1587,
  "ავი": 1588,
  "რუსეთის": 1589,
  "ფერ": 1590,
  "ინგლის": 1591,
  "მდინარე": 1592,
  "193": 1593,
  "ლამ": 1594,
  "წევ": 1595,
  "აბ": 1596,
  "192": 1597,
  "უკი": 1598,
  "ობაში": 1599,
  "ტური": 1600,
  "გახდა": 1601,
  "დამო": 1602,
  "ყვ": 1603,
  "198": 1604,
  "ათვის": 1605,
  "ტომ": 1606,
  "მსახი": 1607,
  "პატ": 1608,
  "ამერიკელი": 1609,
  "საკუთ": 1610,
  "მნიშვნელ": 1611,
  "კოლ": 1612,
  "ზოგად": 1613,
  "მანი": 1614,
  "ონომი": 1615,
  "მსახიობი": 1616,
  "ფეხ": 1617,
  "გის": 1618,
  "აკ": 1619,
  "ეთვე": 1620,
  "აგრეთვე": 1621,
  "ქმე": 1622,
  "იქ": 1623,
  "ასევე": 1624,
  "195": 1625,
  "შენ": 1626,
  "ყოფი": 1627,
  "უნი": 1628,
  "გერმან": 1629,
  "ლმა": 1630,
  "საბჭოთა": 1631,
  "საუკუნის": 1632,
  "ურად": 1633,
  "გური": 1634,
  "პოლ": 1635,
  "საუკუნე": 1636,
  "ტრ": 1637,
  "ენის": 1638,
  "ტრა": 1639,
  "სტი": 1640,
  "ადგენ": 1641,
  "მოს": 1642,
  "წლი": 1643,
  "რივი": 1644,
  "ალის": 1645,
  "ქვეყნის": 1646,
  "კვი": 1647,
  "პოლიტიკური": 1648,
  "გრამ": 1649,
  "მალ": 1650,
  "პრი": 1651,
  "ებერ": 1652,
  "თი": 1653,
  "კვლ": 1654,
  "თებერ": 1655,
  "ოგრაფი": 1656,
  "ვენ": 1657,
  "ობას": 1658,
  "წოდ": 1659,
  "ეტი": 1660,
  "იღ": 1661,
  "ფეხბურთ": 1662,
  "ებისა": 1663,
  "წავ": 1664,
  "ყველაზე": 1665,
  "ვს": 1666,
  "ურის": 1667,
  "ულის": 1668,
  "ებულია": 1669,
  "განი": 1670,
  "არქ": 1671,
  "პირველ": 1672,
  "საზოგად": 1673,
  "on": 1674,
  "ძალ": 1675,
  "საზოგადო": 1676,
  "ვითარ": 1677,
  "მც": 1678,
  "რება": 1679,
  "ანს": 1680,
  "რები": 1681,
  "წა": 1682,
  "ილ": 1683,
  "არჩ": 1684,
  "რად": 1685,
  "რეგი": 1686,
  "მოი": 1687,
  "ტში": 1688,
  "აღმოსავლეთ": 1689,
  "ტემ": 1690,
  "ოქ": 1691,
  "საფრანგ": 1692,
  "ცე": 1693,
  "ებოდა": 1694,
  "მატი": 1695,
  "ებდა": 1696,
  "თურ": 1697,
  "11": 1698,
  "ბრძოლ": 1699,
  "ნახ": 1700,
  "იტალი": 1701,
  "თანამ": 1702,
  "რების": 1703,
  "მდებარე": 1704,
  "გზ": 1705,
  "სამხედრო": 1706,
  "ეროვნ": 1707,
  "ყოფ": 1708,
  "in": 1709,
  "აშშ": 1710,
  "ტები": 1711,
  "ქრის": 1712,
  "მუნი": 1713,
  "ოფი": 1714,
  "ციპ": 1715,
  "დასავლეთ": 1716,
  "ძირი": 1717,
  "ბე": 1718,
  "დროს": 1719,
  "რივ": 1720,
  "or": 1721,
  "ალექს": 1722,
  "გრი": 1723,
  "ჯან": 1724,
  "en": 1725,
  "ერთად": 1726,
  "ალხ": 1727,
  "მეორე": 1728,
  "წინ": 1729,
  "წყო": 1730,
  "მეცნიერ": 1731,
  "აღნიშ": 1732,
  "გარდაც": 1733,
  "ამი": 1734,
  "დამოუკი": 1735,
  "ომ": 1736,
  "დად": 1737,
  "ar": 1738,
  "იანვარი": 1739,
  "მიის": 1740,
  "იმერ": 1741,
  "მაგრამ": 1742,
  "გვი": 1743,
  "ახალი": 1744,
  "დგო": 1745,
  "კინ": 1746,
  "ალექსანდ": 1747,
  "პან": 1748,
  "არქი": 1749,
  "ტექ": 1750,
  "რელი": 1751,
  "საზღვ": 1752,
  "ქონ": 1753,
  "მრავ": 1754,
  "al": 1755,
  "ავსტ": 1756,
  "საქართველოში": 1757,
  "მარტი": 1758,
  "ფართ": 1759,
  "რომის": 1760,
  "ლობა": 1761,
  "კახ": 1762,
  "რაი": 1763,
  "ქალაქი": 1764,
  "დამოუკიდებ": 1765,
  "ეკონომი": 1766,
  "es": 1767,
  "ებზე": 1768,
  "ენები": 1769,
  "ფეხბურთელი": 1770,
  "190": 1771,
  "რც": 1772,
  "ქსი": 1773,
  "ახალ": 1774,
  "ლან": 1775,
  "at": 1776,
  "გაი": 1777,
  "ციპალი": 1778,
  "მუნიციპალი": 1779,
  "კმ": 1780,
  "ავა": 1781,
  "მუნიციპალიტე": 1782,
  "ფიზი": 1783,
  "ტს": 1784,
  "პირო": 1785,
  "ულები": 1786,
  "შუალ": 1787,
  "ნაწილი": 1788,
  "დას": 1789,
  "დამ": 1790,
  "ელები": 1791,
  "ჩამო": 1792,
  "უფრო": 1793,
  "ლოს": 1794,
  "განვითარ": 1795,
  "ლუ": 1796,
  "პრეზიდენტი": 1797,
  "თუმ": 1798,
  "მოსახლეობის": 1799,
  "XI": 1800,
  "ჩინ": 1801,
  "ჩე": 1802,
  "XV": 1803,
  "სამე": 1804,
  "რამ": 1805,
  "თებერვალი": 1806,
  "ხან": 1807,
  "აფხაზ": 1808,
  "მაც": 1809,
  "ინტერ": 1810,
  "ლს": 1811,
  "უშ": 1812,
  "is": 1813,
  "ვან": 1814,
  "ერა": 1815,
  "რობის": 1816,
  "შედე": 1817,
  "ავს": 1818,
  "ობდა": 1819,
  "ჯი": 1820,
  "he": 1821,
  "ლობის": 1822,
  "ლიტერატურა": 1823,
  "ქართლის": 1824,
  "ცხად": 1825,
  "მუსი": 1826,
  "საფ": 1827,
  "რაც": 1828,
  "უნდა": 1829,
  "მომ": 1830,
  "იდან": 1831,
  "არგ": 1832,
  "189": 1833,
  "ჭი": 1834,
  "სად": 1835,
  "ხედ": 1836,
  "კუ": 1837,
  "მსოფლიო": 1838,
  "სრ": 1839,
  "პატრი": 1840,
  "ჯერ": 1841,
  "ბრიტან": 1842,
  "ამის": 1843,
  "ვახ": 1844,
  "ბოლო": 1845,
  "ic": 1846,
  "კუნ": 1847,
  "სახელი": 1848,
  "სულ": 1849,
  "ზრ": 1850,
  "ყენ": 1851,
  "ჩენი": 1852,
  "მია": 1853,
  "ტატ": 1854,
  "ბურ": 1855,
  "ეკლესია": 1856,
  "წერი": 1857,
  "ამდე": 1858,
  "წინააღ": 1859,
  "ხილ": 1860,
  "დაბად": 1861,
  "კულტურ": 1862,
  "ალექსანდრე": 1863,
  "ტონი": 1864,
  "კავშირ": 1865,
  "ჩრდილოეთ": 1866,
  "ენდ": 1867,
  "ულია": 1868,
  "რცელ": 1869,
  "კოლო": 1870,
  "რომლები": 1871,
  "ქვეყნ": 1872,
  "ეროვნული": 1873,
  "ერთიან": 1874,
  "ბალ": 1875,
  "ერთა": 1876,
  "პოზი": 1877,
  "იმპერი": 1878,
  "გერმანი": 1879,
  "ზის": 1880,
  "ცნობი": 1881,
  "ოსი": 1882,
  "გენერ": 1883,
  "ხის": 1884,
  "ცის": 1885,
  "ზღ": 1886,
  "თუმცა": 1887,
  "შემ": 1888,
  "მადგენ": 1889,
  "თურქ": 1890,
  "სტიტუ": 1891,
  "ციული": 1892,
  "წმინდა": 1893,
  "ომის": 1894,
  "ქმნა": 1895,
  "დედა": 1896,
  "ბაი": 1897,
  "დაიწყო": 1898,
  "პრეზიდენტ": 1899,
  "ბაგრა": 1900,
  "მიწ": 1901,
  "ულად": 1902,
  "გარე": 1903,
  "გორი": 1904,
  "საშუალ": 1905,
  "უდ": 1906,
  "ურს": 1907,
  "მოსახლეობა": 1908,
  "ელთა": 1909,
  "რომლის": 1910,
  "გვ": 1911,
  "ადმინის": 1912,
  "ებთან": 1913,
  "გეოგრაფი": 1914,
  "გერმანელი": 1915,
  "ლით": 1916,
  "ტორ": 1917,
  "რალი": 1918,
  "მეტ": 1919,
  "ნია": 1920,
  "სპორ": 1921,
  "შავ": 1922,
  "წინააღმდეგ": 1923,
  "პერიოდ": 1924,
  "ბო": 1925,
  "რობა": 1926,
  "ქს": 1927,
  "ლეს": 1928,
  "რომლებიც": 1929,
  "დენი": 1930,
  "ერო": 1931,
  "როს": 1932,
  "ნელი": 1933,
  "სადაც": 1934,
  "ვინ": 1935,
  "კუნძ": 1936,
  "ხორ": 1937,
  "ოლოდ": 1938,
  "მატ": 1939,
  "მხოლოდ": 1940,
  "მოძ": 1941,
  "188": 1942,
  "ახლო": 1943,
  "მმართ": 1944,
  "იო": 1945,
  "გარდაცვლი": 1946,
  "ლში": 1947,
  "ღერ": 1948,
  "აზი": 1949,
  "არდა": 1950,
  "დევ": 1951,
  "ადმინისტრა": 1952,
  "დელ": 1953,
  "ემბერი": 1954,
  "შვე": 1955,
  "მით": 1956,
  "მიხედ": 1957,
  "ალურ": 1958,
  "გუ": 1959,
  "ებები": 1960,
  "ვახტან": 1961,
  "დეკ": 1962,
  "შეს": 1963,
  "ჰა": 1964,
  "ჩნ": 1965,
  "მილი": 1966,
  "დია": 1967,
  "ესპან": 1968,
  "გამოი": 1969,
  "ივლის": 1970,
  "ხელის": 1971,
  "თავისუფ": 1972,
  "პოეტი": 1973,
  "000": 1974,
  "ციალური": 1975,
  "მოვლ": 1976,
  "ფა": 1977,
  "ეთს": 1978,
  "სამეფო": 1979,
  "ცვალ": 1980,
  "ელა": 1981,
  "აპრი": 1982,
  "ძლი": 1983,
  "ადგენს": 1984,
  "წევრი": 1985,
  "მნიშვნელოვანი": 1986,
  "თავისი": 1987,
  "არსებ": 1988,
  "მიიღ": 1989,
  "არო": 1990,
  "სხვ": 1991,
  "ტია": 1992,
  "კასი": 1993,
  "შესახ": 1994,
  "30": 1995,
  "ვოლ": 1996,
  "წლიდან": 1997,
  "ებენ": 1998,
  "აზერ": 1999,
  "კრი": 2000,
  "ერთაშორის": 2001,
  "აზერბაი": 2002,
  "დიდებ": 2003,
  "ტიან": 2004,
  "ბოლ": 2005,
  "ვად": 2006,
  "სექ": 2007,
  "საერთაშორის": 2008,
  "კლი": 2009,
  "25": 2010,
  "შესახებ": 2011,
  "პალ": 2012,
  "აგვის": 2013,
  "კას": 2014,
  "ხალხ": 2015,
  "ევროპ": 2016,
  "კავკასი": 2017,
  "კავშირის": 2018,
  "ვერსი": 2019,
  "მთავარი": 2020,
  "აღნიშნავ": 2021,
  "ვიდა": 2022,
  "რუსი": 2023,
  "მიხედვით": 2024,
  "ჟის": 2025,
  "პარლამ": 2026,
  "რთ": 2027,
  "ძვ": 2028,
  "ცენტრ": 2029,
  "მართლმა": 2030,
  "მოქმე": 2031,
  "თუ": 2032,
  "ივნის": 2033,
  "ხვ": 2034,
  "სარ": 2035,
  "ჯა": 2036,
  "საფრანგეთის": 2037,
  "187": 2038,
  "რესურს": 2039,
  "ოთ": 2040,
  "ძნ": 2041,
  "ინდო": 2042,
  "186": 2043,
  "სე": 2044,
  "ცემ": 2045,
  "დგ": 2046,
  "ოქტომ": 2047,
  "დაა": 2048,
  "გურ": 2049,
  "ადამიანი": 2050,
  "რესურსები": 2051,
  "იმპერ": 2052,
  "ანას": 2053,
  "ბუნ": 2054,
  "ძის": 2055,
  "მოკ": 2056,
  "უსი": 2057,
  "გავრცელ": 2058,
  "აფრი": 2059,
  "22": 2060,
  "რებული": 2061,
  "ტების": 2062,
  "ტული": 2063,
  "საერთაშორისო": 2064,
  "შტა": 2065,
  "იხილ": 2066,
  "მცი": 2067,
  "სქ": 2068,
  "აღი": 2069,
  "ნახევ": 2070,
  "ტონ": 2071,
  "იხილეთ": 2072,
  "სამეფოს": 2073,
  "მარჯ": 2074,
  "ლევ": 2075,
  "გამ": 2076,
  "რია": 2077,
  "აქვს": 2078,
  "სხვადა": 2079,
  "დასა": 2080,
  "სასწა": 2081,
  "რეგიონ": 2082,
  "სხვადასხვა": 2083,
  "გაერთიან": 2084,
  "მართლმადიდებ": 2085,
  "რესპუბლიკა": 2086,
  "it": 2087,
  "ხა": 2088,
  "შუა": 2089,
  "მონა": 2090,
  "ზღვის": 2091,
  "ორგანი": 2092,
  "გია": 2093,
  "ახლოებით": 2094,
  "დუ": 2095,
  "განსაკუთ": 2096,
  "იანი": 2097,
  "მუშა": 2098,
  "დაახლოებით": 2099,
  "ოსმალ": 2100,
  "რომელსაც": 2101,
  "აქტი": 2102,
  "ათასი": 2103,
  "ხუ": 2104,
  "მდებარეობს": 2105,
  "ხმ": 2106,
  "თავი": 2107,
  "ენების": 2108,
  "წელი": 2109,
  "ყველა": 2110,
  "მმართველ": 2111,
  "21": 2112,
  "ხელისუფ": 2113,
  "დღესასწა": 2114,
  "კონსტ": 2115,
  "რამდენი": 2116,
  "ისტორია": 2117,
  "ოდენ": 2118,
  "კული": 2119,
  "ფრანგი": 2120,
  "ირან": 2121,
  "ტეს": 2122,
  "განა": 2123,
  "ებია": 2124,
  "ქალაქის": 2125,
  "მეფის": 2126,
  "დებოდა": 2127,
  "ციხე": 2128,
  "კერ": 2129,
  "რამდენიმე": 2130,
  "იქნა": 2131,
  "სერ": 2132,
  "ასთან": 2133,
  "სიმ": 2134,
  "წეს": 2135,
  "მიიღო": 2136,
  "ვია": 2137,
  "მომღერ": 2138,
  "სექტემ": 2139,
  "დეს": 2140,
  "ყალი": 2141,
  "ქუ": 2142,
  "24": 2143,
  "ოლიო": 2144,
  "მავლ": 2145,
  "ვლის": 2146,
  "ებაში": 2147,
  "ჰი": 2148,
  "ეული": 2149,
  "ტერიტორიაზე": 2150,
  "ინტერნე": 2151,
  "შვილის": 2152,
  "23": 2153,
  "ქრისტიან": 2154,
  "სქოლიო": 2155,
  "შემდე": 2156,
  "წმ": 2157,
  "ნეს": 2158,
  "ნობ": 2159,
  "ჟისორი": 2160,
  "ბან": 2161,
  "მიუ": 2162,
  "რევოლ": 2163,
  "მართლმადიდებელი": 2164,
  "ებად": 2165,
  "დაამ": 2166,
  "რაოდენ": 2167,
  "მოძრა": 2168,
  "ამა": 2169,
  "სიტყ": 2170,
  "მათი": 2171,
  "კომპოზი": 2172,
  "მრავალ": 2173,
  "კითხ": 2174,
  "ურე": 2175,
  "ლაშ": 2176,
  "სკოლ": 2177,
  "მომღერალი": 2178,
  "ძველი": 2179,
  "ძირით": 2180,
  "50": 2181,
  "ხელოვნ": 2182,
  "სუ": 2183,
  "დასახ": 2184,
  "შტატ": 2185,
  "ვები": 2186,
  "უნივერსი": 2187,
  "მცირე": 2188,
  "სპ": 2189,
  "სანა": 2190,
  "ოდი": 2191,
  "მარე": 2192,
  "ეკლესიის": 2193,
  "რესპუბლიკის": 2194,
  "უნივერსიტე": 2195,
  "მარი": 2196,
  "ცხადა": 2197,
  "ჰქონ": 2198,
  "თვით": 2199,
  "ურთი": 2200,
  "ქვა": 2201,
  "მონაწი": 2202,
  "ევროპის": 2203,
  "კონსტანტი": 2204,
  "ნიის": 2205,
  "რებით": 2206,
  "წოდება": 2207,
  "თვე": 2208,
  "შედეგად": 2209,
  "ბუ": 2210,
  "დადი": 2211,
  "უდიდ": 2212,
  "ელმა": 2213,
  "ყოფილი": 2214,
  "თაც": 2215,
  "ლენ": 2216,
  "პოლიტიკოსი": 2217,
  "ცო": 2218,
  "დელი": 2219,
  "ძლება": 2220,
  "of": 2221,
  "გზა": 2222,
  "ხო": 2223,
  "სწ": 2224,
  "სისტე": 2225,
  "აპრილი": 2226,
  "შეიძლება": 2227,
  "აღმოსავლ": 2228,
  "საქართველო": 2229,
  "ინგლისელი": 2230,
  "დრე": 2231,
  "არდ": 2232,
  "პარტი": 2233,
  "ბერს": 2234,
  "უმი": 2235,
  "დერ": 2236,
  "ნათ": 2237,
  "თეიმ": 2238,
  "ობები": 2239,
  "პოლონ": 2240,
  "კახეთის": 2241,
  "ებრივი": 2242,
  "ურთიერთ": 2243,
  "საუკუნეში": 2244,
  "ტკი": 2245,
  "მონაწილე": 2246,
  "26": 2247,
  "ბრა": 2248,
  "სურ": 2249,
  "თბილისის": 2250,
  "ინტერნეტში": 2251,
  "ოფ": 2252,
  "მძ": 2253,
  "გარდა": 2254,
  "ყოველ": 2255,
  "პრემიერ": 2256,
  "იმერეთის": 2257,
  "სომხ": 2258,
  "ანული": 2259,
  "ცნობილი": 2260,
  "მეთა": 2261,
  "რევოლუ": 2262,
  "ლებელი": 2263,
  "ებათა": 2264,
  "არული": 2265,
  "ქვეყანა": 2266,
  "მხარე": 2267,
  "ავსტრალი": 2268,
  "სან": 2269,
  "ურნე": 2270,
  "ასიათ": 2271,
  "მორ": 2272,
  "გაა": 2273,
  "ჰქონდა": 2274,
  "მიხე": 2275,
  "ადმინისტრაციული": 2276,
  "მოვლენები": 2277,
  "არჩევ": 2278,
  "კათოლიკოს": 2279,
  "ვახტანგ": 2280,
  "უზ": 2281,
  "კონსტიტუ": 2282,
  "ნები": 2283,
  "იდ": 2284,
  "ბელ": 2285,
  "პერიოდში": 2286,
  "ინის": 2287,
  "ქართულ": 2288,
  "უძველ": 2289,
  "ოჯ": 2290,
  "პარი": 2291,
  "ტოს": 2292,
  "ასა": 2293,
  "კაც": 2294,
  "ავდა": 2295,
  "გოლ": 2296,
  "გზავ": 2297,
  "ბათ": 2298,
  "წყალ": 2299,
  "ნით": 2300,
  "კრ": 2301,
  "პატი": 2302,
  "ტელ": 2303,
  "გვარ": 2304,
  "სამართ": 2305,
  "ებიდან": 2306,
  "პირველად": 2307,
  "თის": 2308,
  "შო": 2309,
  "ნება": 2310,
  "IV": 2311,
  "ნობელის": 2312,
  "ხმარ": 2313,
  "ტინ": 2314,
  "პყ": 2315,
  "ბიზ": 2316,
  "ეთიდან": 2317,
  "თანამედრო": 2318,
  "28": 2319,
  "რატი": 2320,
  "ვეს": 2321,
  "ხვე": 2322,
  "მიმართ": 2323,
  "მს": 2324,
  "ცვალა": 2325,
  "საშუალო": 2326,
  "ვილი": 2327,
  "ჯგ": 2328,
  "27": 2329,
  "ფორმა": 2330,
  "ატორი": 2331,
  "დაარს": 2332,
  "აგვისტო": 2333,
  "კორ": 2334,
  "დასავლ": 2335,
  "ch": 2336,
  "ძირითა": 2337,
  "ყალიბ": 2338,
  "ანიშ": 2339,
  "თანამედროვე": 2340,
  "ბარ": 2341,
  "ანია": 2342,
  "გარი": 2343,
  "მაი": 2344,
  "რომელმაც": 2345,
  "თით": 2346,
  "მშ": 2347,
  "ძირითადად": 2348,
  "ისე": 2349,
  "ცხოვრობ": 2350,
  "ოჯახ": 2351,
  "დონ": 2352,
  "მიხეილ": 2353,
  "ოლოგიური": 2354,
  "ვაში": 2355,
  "შის": 2356,
  "ლანდ": 2357,
  "ჯგუფ": 2358,
  "იაპო": 2359,
  "ტერიტორია": 2360,
  "ფონ": 2361,
  "მხატ": 2362,
  "წამ": 2363,
  "მინისტრი": 2364,
  "185": 2365,
  "როდე": 2366,
  "ზმი": 2367,
  "ევის": 2368,
  "კომპოზიტორი": 2369,
  "წმინდან": 2370,
  "ნიკოლო": 2371,
  "აკა": 2372,
  "ქვეყან": 2373,
  "ხელი": 2374,
  "დარი": 2375,
  "დღესასწაულები": 2376,
  "მაისი": 2377,
  "ციური": 2378,
  "ლავ": 2379,
  "ოვან": 2380,
  "ur": 2381,
  "შვიდ": 2382,
  "ფედ": 2383,
  "მცოდ": 2384,
  "შემდეგი": 2385,
  "ფრი": 2386,
  "ჰერ": 2387,
  "ორგანიზა": 2388,
  "ატი": 2389,
  "მიღ": 2390,
  "ჩენილია": 2391,
  "184": 2392,
  "აძე": 2393,
  "შესა": 2394,
  "როდესაც": 2395,
  "ცხო": 2396,
  "ხედა": 2397,
  "მეტი": 2398,
  "ცენტრი": 2399,
  "ლაშქ": 2400,
  "წერა": 2401,
  "მთელი": 2402,
  "ისტორიული": 2403,
  "უდიდესი": 2404,
  "ენდრის": 2405,
  "დღის": 2406,
  "მცოდნე": 2407,
  "სანაპირო": 2408,
  "კალენდრის": 2409,
  "29": 2410,
  "ოფიციალური": 2411,
  "სსრ": 2412,
  "შეიქმნა": 2413,
  "ion": 2414,
  "განათ": 2415,
  "ხასიათ": 2416,
  "ციას": 2417,
  "აღს": 2418,
  "as": 2419,
  "გოგი": 2420,
  "აირ": 2421,
  "შენებ": 2422,
  "ხდება": 2423,
  "ხმო": 2424,
  "გორიანული": 2425,
  "გრიგორიანული": 2426,
  "რელიგი": 2427,
  "ძირითადი": 2428,
  "გალი": 2429,
  "დენ": 2430,
  "ჰყ": 2431,
  "აბა": 2432,
  "ფილოს": 2433,
  "თამა": 2434,
  "ჩვენ": 2435,
  "მები": 2436,
  "საკუთარი": 2437,
  "განსაკუთრებით": 2438,
  "პოს": 2439,
  "სამო": 2440,
  "ლანდი": 2441,
  "ვლად": 2442,
  "ყარ": 2443,
  "აღნიშნავს": 2444,
  "გარდაცვლილი": 2445,
  "ოვის": 2446,
  "გში": 2447,
  "ხსნა": 2448,
  "მუნიციპალიტეტის": 2449,
  "იმპერიის": 2450,
  "თბილისი": 2451,
  "ლიტერატურ": 2452,
  "გენერალ": 2453,
  "მსახურ": 2454,
  "გალ": 2455,
  "პისკო": 2456,
  "რიცხ": 2457,
  "ნების": 2458,
  "ტანი": 2459,
  "ლნი": 2460,
  "თავს": 2461,
  "გამოცხად": 2462,
  "პონ": 2463,
  "შემადგენ": 2464,
  "ბატ": 2465,
  "ილი": 2466,
  "თეატ": 2467,
  "მლ": 2468,
  "მამ": 2469,
  "ელების": 2470,
  "ფართობი": 2471,
  "მსოფლიოში": 2472,
  "ზაფხ": 2473,
  "მიუხედა": 2474,
  "ზმის": 2475,
  "ფოს": 2476,
  "კაში": 2477,
  "ისინი": 2478,
  "ემი": 2479,
  "ტურა": 2480,
  "არაბ": 2481,
  "ებდნენ": 2482,
  "ვაჭ": 2483,
  "მიუხედავად": 2484,
  "ილია": 2485,
  "საერთ": 2486,
  "ფინ": 2487,
  "ეთმა": 2488,
  "აშვილი": 2489,
  "წყვე": 2490,
  "გულ": 2491,
  "სოცი": 2492,
  "ენტის": 2493,
  "თბ": 2494,
  "კვლავ": 2495,
  "ლური": 2496,
  "მერ": 2497,
  "ეკუთ": 2498,
  "ისტორიკოსი": 2499,
  "მიზ": 2500,
  "ფეოდა": 2501,
  "ივლისი": 2502,
  "მეცნიერი": 2503,
  "პროვინ": 2504,
  "ბის": 2505,
  "მიწის": 2506,
  "მონას": 2507,
  "გაუ": 2508,
  "მარჯვ": 2509,
  "ადამიანის": 2510,
  "საეკლესი": 2511,
  "კაცი": 2512,
  "საეკლესიო": 2513,
  "ნახევარ": 2514,
  "იც": 2515,
  "უფლება": 2516,
  "ადგილობ": 2517,
  "ზურა": 2518,
  "ანებით": 2519,
  "დაბადებულ": 2520,
  "თო": 2521,
  "ლორ": 2522,
  "ურო": 2523,
  "ქმის": 2524,
  "პარა": 2525,
  "ებლად": 2526,
  "თეიმურ": 2527,
  "სრული": 2528,
  "ფარ": 2529,
  "ღვან": 2530,
  "სამი": 2531,
  "ანდა": 2532,
  "ჩნდა": 2533,
  "რული": 2534,
  "el": 2535,
  "კიდევ": 2536,
  "ქუთა": 2537,
  "ლაურე": 2538,
  "ბით": 2539,
  "მძღვან": 2540,
  "შექმ": 2541,
  "ხსენების": 2542,
  "მკვი": 2543,
  "ჩამოყალიბ": 2544,
  "წვ": 2545,
  "არმიის": 2546,
  "ნაკი": 2547,
  "ქვეყანაში": 2548,
  "ოქტომბერი": 2549,
  "მთავრობის": 2550,
  "ბატონი": 2551,
  "ბაგრატი": 2552,
  "მოძრაობის": 2553,
  "ივნისი": 2554,
  "ლებს": 2555,
  "კონსტანტინე": 2556,
  "ბრიტანეთის": 2557,
  "ცეს": 2558,
  "ქალაქები": 2559,
  "ადგილი": 2560,
  "დემოკ": 2561,
  "ბრუნ": 2562,
  "ივანე": 2563,
  "თვეები": 2564,
  "კვე": 2565,
  "გერი": 2566,
  "კუნძულ": 2567,
  "ხში": 2568,
  "ჟი": 2569,
  "წარმოადგენს": 2570,
  "ებების": 2571,
  "კენ": 2572,
  "ბოლომდე": 2573,
  "იოანე": 2574,
  "ედი": 2575,
  "ტახ": 2576,
  "აჯან": 2577,
  "ართა": 2578,
  "გერმანიის": 2579,
  "შეე": 2580,
  "წარმომადგენ": 2581,
  "კორე": 2582,
  "ბიზანტი": 2583,
  "პრემიის": 2584,
  "გარდაი": 2585,
  "დაკავშირ": 2586,
  "იმპერატორი": 2587,
  "მთა": 2588,
  "სახე": 2589,
  "თამ": 2590,
  "ფილ": 2591,
  "მოიც": 2592,
  "ისში": 2593,
  "ოდნენ": 2594,
  "უმაღ": 2595,
  "ტარ": 2596,
  "მსოფლიოს": 2597,
  "ქიმი": 2598,
  "მისა": 2599,
  "VI": 2600,
  "არქიტექ": 2601,
  "XIX": 2602,
  "ტაძ": 2603,
  "შეთ": 2604,
  "ზოგი": 2605,
  "დეკემბერი": 2606,
  "ყი": 2607,
  "ნიკოლოზ": 2608,
  "დანი": 2609,
  "and": 2610,
  "ადამიან": 2611,
  "ისის": 2612,
  "დემოკრატი": 2613,
  "შემდგო": 2614,
  "ებსა": 2615,
  "თარი": 2616,
  "მედი": 2617,
  "გრძ": 2618,
  "დამოუკიდებლობის": 2619,
  "თვალ": 2620,
  "დამა": 2621,
  "ვო": 2622,
  "განმავლ": 2623,
  "ყვნენ": 2624,
  "გას": 2625,
  "ანიშნავ": 2626,
  "ტრან": 2627,
  "განმავლობაში": 2628,
  "ჟურ": 2629,
  "იტალიელი": 2630,
  "შვედ": 2631,
  "ხელშე": 2632,
  "წმინდანების": 2633,
  "სასული": 2634,
  "იმა": 2635,
  "ბორ": 2636,
  "ჯე": 2637,
  "40": 2638,
  "ელო": 2639,
  "მთლი": 2640,
  "ლათ": 2641,
  "ანუ": 2642,
  "ზამ": 2643,
  "დრა": 2644,
  "ნაწილში": 2645,
  "პირი": 2646,
  "ტურის": 2647,
  "ცხოვრ": 2648,
  "ებისათვის": 2649,
  "ნული": 2650,
  "ადის": 2651,
  "გმი": 2652,
  "გამოა": 2653,
  "ევი": 2654,
  "ოლოგია": 2655,
  "მამა": 2656,
  "ულო": 2657,
  "ლებით": 2658,
  "თემატი": 2659,
  "ნილი": 2660,
  "ზემო": 2661,
  "ლობაში": 2662,
  "უნქ": 2663,
  "მლნ": 2664,
  "პედა": 2665,
  "ნოემბერი": 2666,
  "მუზე": 2667,
  "ძეგ": 2668,
  "ბრძოლა": 2669,
  "კინი": 2670,
  "წვე": 2671,
  "სახელმწიფოს": 2672,
  "ისრა": 2673,
  "ლევან": 2674,
  "ტრე": 2675,
  "რაიონ": 2676,
  "სპარს": 2677,
  "წყარო": 2678,
  "us": 2679,
  "აფხაზეთის": 2680,
  "ქედ": 2681,
  "ჯარ": 2682,
  "დაე": 2683,
  "ღირ": 2684,
  "ასო": 2685,
  "ტრადი": 2686,
  "ვრის": 2687,
  "შაჰ": 2688,
  "ზად": 2689,
  "კათოლიკე": 2690,
  "ბრძოლაში": 2691,
  "ra": 2692,
  "ტრის": 2693,
  "ძველ": 2694,
  "გები": 2695,
  "კომპ": 2696,
  "იტლ": 2697,
  "ჰიტლ": 2698,
  "აფრიკის": 2699,
  "ლებული": 2700,
  "სწავ": 2701,
  "თავად": 2702,
  "თეიმურაზ": 2703,
  "მაში": 2704,
  "არჯ": 2705,
  "ონა": 2706,
  "60": 2707,
  "ცენტრალური": 2708,
  "ხელმძღვან": 2709,
  "ებითი": 2710,
  "ავის": 2711,
  "არსებობს": 2712,
  "ტენ": 2713,
  "ავტ": 2714,
  "მაგ": 2715,
  "საქ": 2716,
  "180": 2717,
  "ციები": 2718,
  "უნის": 2719,
  "სექტემბერი": 2720,
  "უკავ": 2721,
  "პოვ": 2722,
  "სვან": 2723,
  "ალა": 2724,
  "გებ": 2725,
  "დაბადებული": 2726,
  "ჟა": 2727,
  "ol": 2728,
  "უმაღლესი": 2729,
  "უღ": 2730,
  "მეს": 2731,
  "ლამდე": 2732,
  "უკრა": 2733,
  "ნაკიან": 2734,
  "ფილი": 2735,
  "რებს": 2736,
  "არქე": 2737,
  "უკვე": 2738,
  "ციელ": 2739,
  "მუს": 2740,
  "ზილი": 2741,
  "საერთო": 2742,
  "ეპისკო": 2743,
  "ადრე": 2744,
  "ტზე": 2745,
  "პატრიარქი": 2746,
  "ed": 2747,
  "ia": 2748,
  "ბევ": 2749,
  "შიც": 2750,
  "მეურნე": 2751,
  "მრავალი": 2752,
  "ძალი": 2753,
  "ლებას": 2754,
  "მემკვი": 2755,
  "სოლო": 2756,
  "მასთან": 2757,
  "სამთავ": 2758,
  "ტკიც": 2759,
  "მათემატი": 2760,
  "ეკონომიკური": 2761,
  "სინ": 2762,
  "მარცხ": 2763,
  "დარჩენილია": 2764,
  "ანად": 2765,
  "მინი": 2766,
  "ტულ": 2767,
  "მონაცემ": 2768,
  "რომელთა": 2769,
  "პატრიარქ": 2770,
  "დაბადებულნი": 2771,
  "გარდაცვლილნი": 2772,
  "სოფლის": 2773,
  "აჯანყ": 2774,
  "ციონ": 2775,
  "წლების": 2776,
  "რეჟისორი": 2777,
  "შინა": 2778,
  "ატის": 2779,
  "ტყე": 2780,
  "ღვი": 2781,
  "კულტურის": 2782,
  "მაღალი": 2783,
  "არიან": 2784,
  "იოს": 2785,
  "მშვიდ": 2786,
  "განვითარების": 2787,
  "აკად": 2788,
  "il": 2789,
  "კრულ": 2790,
  "უკანას": 2791,
  "ქვემო": 2792,
  "ჯავ": 2793,
  "სპე": 2794,
  "დაუ": 2795,
  "ზმ": 2796,
  "პედაგოგი": 2797,
  "ქტორი": 2798,
  "აზერბაიჯ": 2799,
  "ლექსი": 2800,
  "იწყ": 2801,
  "ჭა": 2802,
  "ენტო": 2803,
  "ავტონომი": 2804,
  "ლათინ": 2805,
  "ამბ": 2806,
  "ალო": 2807,
  "დასრულ": 2808,
  "აღსანიშნავ": 2809,
  "ფლობ": 2810,
  "გურიის": 2811,
  "ვანი": 2812,
  "ალურად": 2813,
  "წველ": 2814,
  "ვას": 2815,
  "ოპერ": 2816,
  "მიი": 2817,
  "მოხდა": 2818,
  "ებრა": 2819,
  "178": 2820,
  "დგენ": 2821,
  "რაოდენობა": 2822,
  "om": 2823,
  "აზერბაიჯან": 2824,
  "სასულიერო": 2825,
  "აღსანიშნავია": 2826,
  "ავტო": 2827,
  "გავლ": 2828,
  "ცხოვრება": 2829,
  "დასაწყ": 2830,
  "ეფ": 2831,
  "ტერიტორიის": 2832,
  "ჟურნ": 2833,
  "ფაქ": 2834,
  "დედო": 2835,
  "ულმა": 2836,
  "გრიგოლ": 2837,
  "იყვნენ": 2838,
  "ლობით": 2839,
  "სახელწოდება": 2840,
  "გეოგრაფიული": 2841,
  "გაიხსნა": 2842,
  "რეწველ": 2843,
  "არია": 2844,
  "ქარ": 2845,
  "თავდა": 2846,
  "ბლი": 2847,
  "un": 2848,
  "ოსმალეთის": 2849,
  "კამ": 2850,
  "ხელშეკრულ": 2851,
  "ინი": 2852,
  "ეთნი": 2853,
  "ბას": 2854,
  "დახმარ": 2855,
  "შრომ": 2856,
  "კავკასიის": 2857,
  "ტემპერ": 2858,
  "ულების": 2859,
  "ციაში": 2860,
  "წიგ": 2861,
  "ასრულ": 2862,
  "ლზე": 2863,
  "ეთთან": 2864,
  "შეადგენს": 2865,
  "ხსენი": 2866,
  "ჰო": 2867,
  "ლინ": 2868,
  "ავე": 2869,
  "ჩიეს": 2870,
  "მენი": 2871,
  "პას": 2872,
  "179": 2873,
  "ორედ": 2874,
  "საბჭოს": 2875,
  "ძლიერ": 2876,
  "სამეგრ": 2877,
  "ნაკ": 2878,
  "დების": 2879,
  "დაცვის": 2880,
  "აზერბაიჯანის": 2881,
  "ნორ": 2882,
  "რონ": 2883,
  "არც": 2884,
  "პოე": 2885,
  "ასტრო": 2886,
  "იტალიის": 2887,
  "მდი": 2888,
  "ხელისუფლების": 2889,
  "70": 2890,
  "ხორვა": 2891,
  "მმართველობის": 2892,
  "ნამ": 2893,
  "ისათვის": 2894,
  "ავსტრი": 2895,
  "აირჩიეს": 2896,
  "ადგილობრივი": 2897,
  "ატარ": 2898,
  "მესამე": 2899,
  "ტიის": 2900,
  "დაარსდა": 2901,
  "თითქმის": 2902,
  "მელ": 2903,
  "წლამდე": 2904,
  "წით": 2905,
  "იშვილი": 2906,
  "მხატვარი": 2907,
  "აგან": 2908,
  "1991": 2909,
  "დარებით": 2910,
  "183": 2911,
  "მემკვიდრე": 2912,
  "ხუთ": 2913,
  "შედარებით": 2914,
  "პულ": 2915,
  "შესაძ": 2916,
  "ირანის": 2917,
  "გვიანებით": 2918,
  "დემოკრატიული": 2919,
  "შირ": 2920,
  "პირის": 2921,
  "მაზ": 2922,
  "თბილისში": 2923,
  "შიდა": 2924,
  "ინდ": 2925,
  "მასა": 2926,
  "რით": 2927,
  "არაღ": 2928,
  "აუ": 2929,
  "საკითხ": 2930,
  "მოგვიანებით": 2931,
  "შვილმა": 2932,
  "მდგო": 2933,
  "გამოაცხადა": 2934,
  "80": 2935,
  "ბრაზილი": 2936,
  "ქალი": 2937,
  "ამო": 2938,
  "ჩენილი": 2939,
  "2010": 2940,
  "არგმ": 2941,
  "პიროვნ": 2942,
  "შეუ": 2943,
  "ქორ": 2944,
  "გენი": 2945,
  "ციო": 2946,
  "იმი": 2947,
  "2008": 2948,
  "ბელი": 2949,
  "აც": 2950,
  "წარმოადგენ": 2951,
  "ბაგრატ": 2952,
  "ნას": 2953,
  "პაპი": 2954,
  "შემდგომ": 2955,
  "ოზ": 2956,
  "შეთან": 2957,
  "იაპონ": 2958,
  "რებულ": 2959,
  "ჩემ": 2960,
  "გამოყენ": 2961,
  "ნარ": 2962,
  "ეკლე": 2963,
  "პუ": 2964,
  "ხაზ": 2965,
  "ოფიცი": 2966,
  "უმის": 2967,
  "წყვეტი": 2968,
  "ებამ": 2969,
  "დგება": 2970,
  "ოვი": 2971,
  "რას": 2972,
  "იორ": 2973,
  "შემადგენლობაში": 2974,
  "et": 2975,
  "ალხო": 2976,
  "სახალხო": 2977,
  "ცხოვრების": 2978,
  "ეში": 2979,
  "გამოცხადდა": 2980,
  "შავი": 2981,
  "ცალ": 2982,
  "the": 2983,
  "ვარს": 2984,
  "ავად": 2985,
  "ქალაქო": 2986,
  "წვია": 2987,
  "კარი": 2988,
  "სრულ": 2989,
  "ბახ": 2990,
  "დები": 2991,
  "დიმი": 2992,
  "ჯონ": 2993,
  "უკანასკ": 2994,
  "ბატონ": 2995,
  "მოიცავს": 2996,
  "ბერძნ": 2997,
  "ბულ": 2998,
  "ნიადა": 2999,
  "ხალ": 3000,
  "1990": 3001,
  "ფედერა": 3002,
  "საგან": 3003,
  "2009": 3004,
  "ახლ": 3005,
  "კალური": 3006,
  "გონ": 3007,
  "კვდი": 3008,
  "სიკვდი": 3009,
  "დგა": 3010,
  "სული": 3011,
  "2004": 3012,
  "ნიდერ": 3013,
  "ნიგერი": 3014,
  "ხელოვნების": 3015,
  "საი": 3016,
  "ელში": 3017,
  "პრინ": 3018,
  "ჯავახ": 3019,
  "რეგიონი": 3020,
  "ავსტრალიის": 3021,
  "პირობ": 3022,
  "კულტურული": 3023,
  "ჯარის": 3024,
  "გარდაიცვალა": 3025,
  "ღმ": 3026,
  "ფეს": 3027,
  "იწყება": 3028,
  "ავტონომიური": 3029,
  "ატურა": 3030,
  "იაპონიის": 3031,
  "ნაც": 3032,
  "კები": 3033,
  "ეგ": 3034,
  "ებებს": 3035,
  "ებისთვის": 3036,
  "კად": 3037,
  "რუსული": 3038,
  "2005": 3039,
  "მდგომარე": 3040,
  "დედოფ": 3041,
  "ქტი": 3042,
  "ყოფა": 3043,
  "ემბერს": 3044,
  "ნიდან": 3045,
  "ხოს": 3046,
  "ჯორ": 3047,
  "ფიზიკოსი": 3048,
  "ჟურნალის": 3049,
  "ცენ": 3050,
  "დამოუკიდებელი": 3051,
  "ლომე": 3052,
  "ერეკლე": 3053,
  "ინდოეთის": 3054,
  "ნაში": 3055,
  "ლაპარა": 3056,
  "უძნ": 3057,
  "ალისტური": 3058,
  "რიდან": 3059,
  "მშენებ": 3060,
  "ყვანი": 3061,
  "პლო": 3062,
  "აჭ": 3063,
  "რომა": 3064,
  "ციების": 3065,
  "ეკუთვნ": 3066,
  "გრძელ": 3067,
  "ist": 3068,
  "თქ": 3069,
  "პრეზიდენტად": 3070,
  "მიან": 3071,
  "კების": 3072,
  "პლ": 3073,
  "თეთ": 3074,
  "გურიელი": 3075,
  "გაერთიანებული": 3076,
  "გორის": 3077,
  "35": 3078,
  "დიოდა": 3079,
  "სხვავ": 3080,
  "ჯდო": 3081,
  "ორგან": 3082,
  "გარდაცვალ": 3083,
  "რდა": 3084,
  "კუთ": 3085,
  "ent": 3086,
  "ვების": 3087,
  "იმავე": 3088,
  "კოვ": 3089,
  "მკვლ": 3090,
  "მაგა": 3091,
  "იუ": 3092,
  "კონტინ": 3093,
  "ცვლი": 3094,
  "მონაცემებით": 3095,
  "ბიბლი": 3096,
  "არცხ": 3097,
  "მხარის": 3098,
  "ამავე": 3099,
  "ლონ": 3100,
  "სისტემა": 3101,
  "ობისა": 3102,
  "re": 3103,
  "am": 3104,
  "ისაგან": 3105,
  "ფას": 3106,
  "2007": 3107,
  "წია": 3108,
  "უხ": 3109,
  "ენაზე": 3110,
  "ეკონომიკა": 3111,
  "ჰან": 3112,
  "ცხლის": 3113,
  "კანი": 3114,
  "ბაქ": 3115,
  "არსებული": 3116,
  "de": 3117,
  "ტებს": 3118,
  "დადიანი": 3119,
  "ღუ": 3120,
  "უსის": 3121,
  "შექმნა": 3122,
  "ებაზე": 3123,
  "2011": 3124,
  "ზღვა": 3125,
  "ეულ": 3126,
  "კრიტი": 3127,
  "წერეთ": 3128,
  "მომხ": 3129,
  "გაერ": 3130,
  "ხორციელ": 3131,
  "მაგალით": 3132,
  "ამედ": 3133,
  "აღმოსავლეთით": 3134,
  "XVIII": 3135,
  "XX": 3136,
  "მთის": 3137,
  "შტატი": 3138,
  "ნად": 3139,
  "წითელი": 3140,
  "ძალა": 3141,
  "ევროპაში": 3142,
  "სკი": 3143,
  "დედაქალაქი": 3144,
  "სწორედ": 3145,
  "ევროპული": 3146,
  "ქალაქში": 3147,
  "მინისტრ": 3148,
  "ინსტიტუ": 3149,
  "განათლების": 3150,
  "დიმიტრი": 3151,
  "საბოლო": 3152,
  "უძველესი": 3153,
  "ტას": 3154,
  "ცდი": 3155,
  "ლობდა": 3156,
  "ლაი": 3157,
  "განსხვავ": 3158,
  "გავრცელებული": 3159,
  "ერისთავი": 3160,
  "ტემპერატურა": 3161,
  "ცაა": 3162,
  "თავმ": 3163,
  "ანდელი": 3164,
  "გეოგრაფია": 3165,
  "საკმა": 3166,
  "მილიონი": 3167,
  "ნიშნა": 3168,
  "კლასი": 3169,
  "ვნის": 3170,
  "დიპლო": 3171,
  "ხვდება": 3172,
  "სკოლა": 3173,
  "შიძე": 3174,
  "სახელობის": 3175,
  "მაიორი": 3176,
  "გაზ": 3177,
  "The": 3178,
  "საქმე": 3179,
  "გამარჯვ": 3180,
  "პირა": 3181,
  "2012": 3182,
  "მუსიკოსი": 3183,
  "ტალ": 3184,
  "სააკა": 3185,
  "საუკუნეების": 3186,
  "ედან": 3187,
  "ხანის": 3188,
  "უარ": 3189,
  "მეთ": 3190,
  "იძ": 3191,
  "გარიბალ": 3192,
  "ნაძე": 3193,
  "ათას": 3194,
  "უწოდ": 3195,
  "რავლეს": 3196,
  "უმრავლეს": 3197,
  "ჩემპი": 3198,
  "ხშირად": 3199,
  "ატები": 3200,
  "მოლ": 3201,
  "ლებები": 3202,
  "ახმად": 3203,
  "საუკუნეებში": 3204,
  "ხევ": 3205,
  "ფუძნ": 3206,
  "წლები": 3207,
  "ფორმ": 3208,
  "ტმა": 3209,
  "ენე": 3210,
  "უკანასკნელი": 3211,
  "ონები": 3212,
  "ვლება": 3213,
  "ულება": 3214,
  "პარლამენტის": 3215,
  "უნა": 3216,
  "2000": 3217,
  "კერძ": 3218,
  "დგენი": 3219,
  "ზედა": 3220,
  "შედგება": 3221,
  "ამერიკის": 3222,
  "2014": 3223,
  "თავმჯდო": 3224,
  "კავშირი": 3225,
  "იდე": 3226,
  "დერი": 3227,
  "შემთ": 3228,
  "ვლა": 3229,
  "მეთაური": 3230,
  "ქართველთა": 3231,
  "დინას": 3232,
  "გაზრ": 3233,
  "შეთანხმ": 3234,
  "ბუნებრივი": 3235,
  "თანახმად": 3236,
  "წერის": 3237,
  "წერილი": 3238,
  "სოლომონ": 3239,
  "ნიდერლანდ": 3240,
  "დინა": 3241,
  "გვის": 3242,
  "ესო": 3243,
  "ულა": 3244,
  "ჩო": 3245,
  "კეთი": 3246,
  "ყა": 3247,
  "შემთხვე": 3248,
  "90": 3249,
  "ქვეყნები": 3250,
  "მუხ": 3251,
  "სათავ": 3252,
  "ობების": 3253,
  "გარდაცვალების": 3254,
  "ექტრო": 3255,
  "პორტუ": 3256,
  "ხელისუფლება": 3257,
  "ჟინ": 3258,
  "გმირი": 3259,
  "რძ": 3260,
  "ჩინეთის": 3261,
  "ობამ": 3262,
  "ვირ": 3263,
  "მიმდინარე": 3264,
  "რომელშიც": 3265,
  "ოკე": 3266,
  "ჩევ": 3267,
  "შერ": 3268,
  "საგარე": 3269,
  "პოპულ": 3270,
  "ხელმძღვანელ": 3271,
  "სტრა": 3272,
  "ფართო": 3273,
  "პლა": 3274,
  "მელი": 3275,
  "მაღალ": 3276,
  "ცესი": 3277,
  "კლარჯ": 3278,
  "სტალი": 3279,
  "ოფიციალურად": 3280,
  "წყლის": 3281,
  "ელექტრო": 3282,
  "უცხო": 3283,
  "დამოუკიდებლობა": 3284,
  "არეს": 3285,
  "ლიტერატურის": 3286,
  "თეორი": 3287,
  "ბრძოლის": 3288,
  "მიე": 3289,
  "ადმი": 3290,
  "პორტუგალი": 3291,
  "კინო": 3292,
  "ციხის": 3293,
  "რეგიონის": 3294,
  "კომი": 3295,
  "ობაზე": 3296,
  "პროტეს": 3297,
  "წოდა": 3298,
  "გაეროს": 3299,
  "იერ": 3300,
  "ქის": 3301,
  "კინორე": 3302,
  "ეთნიკური": 3303,
  "მუზეუმი": 3304,
  "გელ": 3305,
  "ამისა": 3306,
  "ცალკე": 3307,
  "ციულ": 3308,
  "2006": 3309,
  "თხოვ": 3310,
  "დონე": 3311,
  "უბერ": 3312,
  "საზოგადოების": 3313,
  "ეგვი": 3314,
  "პუბლიცის": 3315,
  "სამეგრელ": 3316,
  "საკმაოდ": 3317,
  "გრე": 3318,
  "მოც": 3319,
  "სოფელი": 3320,
  "მოქ": 3321,
  "ფილოსოფ": 3322,
  "პრეზიდენტის": 3323,
  "ტექნი": 3324,
  "მპი": 3325,
  "ობრივი": 3326,
  "ერალური": 3327,
  "33": 3328,
  "ლომ": 3329,
  "ბაზ": 3330,
  "ისრაელის": 3331,
  "კალი": 3332,
  "მეტყ": 3333,
  "გვა": 3334,
  "1921": 3335,
  "ანდი": 3336,
  "ნავთ": 3337,
  "პური": 3338,
  "გვხვდება": 3339,
  "ut": 3340,
  "ვთ": 3341,
  "მოგზა": 3342,
  "კათოლიკური": 3343,
  "გენერალი": 3344,
  "1918": 3345,
  "კინორეჟისორი": 3346,
  "დასახლებული": 3347,
  "გადმო": 3348,
  "ბილი": 3349,
  "უსტ": 3350,
  "კომუნის": 3351,
  "ჰარ": 3352,
  "ენერ": 3353,
  "კლო": 3354,
  "ბოლოს": 3355,
  "ხატ": 3356,
  "სალი": 3357,
  "ფრ": 3358,
  "ვილ": 3359,
  "შემოქმე": 3360,
  "ბატონიშვილი": 3361,
  "ველის": 3362,
  "არქეოლოგიური": 3363,
  "ro": 3364,
  "ნიუ": 3365,
  "შესაბ": 3366,
  "მოა": 3367,
  "ლობას": 3368,
  "ჯარი": 3369,
  "ქა": 3370,
  "ეთისა": 3371,
  "მხრივ": 3372,
  "რევოლუციური": 3373,
  "განათლება": 3374,
  "გამოს": 3375,
  "საყ": 3376,
  "გეგ": 3377,
  "წმუნ": 3378,
  "გიის": 3379,
  "ლოვა": 3380,
  "მატურ": 3381,
  "კულტურა": 3382,
  "განს": 3383,
  "რელიგიური": 3384,
  "პოსი": 3385,
  "ექტი": 3386,
  "ქორწინ": 3387,
  "st": 3388,
  "შარ": 3389,
  "კედ": 3390,
  "ვლადიმერ": 3391,
  "ბენ": 3392,
  "ქიმიკოსი": 3393,
  "ისტორიულ": 3394,
  "რადგან": 3395,
  "დიალექ": 3396,
  "მენ": 3397,
  "31": 3398,
  "ოლიმპი": 3399,
  "ერების": 3400,
  "ზონ": 3401,
  "მსხ": 3402,
  "მაშინ": 3403,
  "დათან": 3404,
  "ზია": 3405,
  "ნავს": 3406,
  "შტატის": 3407,
  "ჟან": 3408,
  "ეი": 3409,
  "ბორის": 3410,
  "უნიდან": 3411,
  "ანონ": 3412,
  "გამოიყენ": 3413,
  "დასავლეთით": 3414,
  "ლაძე": 3415,
  "ულობა": 3416,
  "le": 3417,
  "ღვთის": 3418,
  "ხარის": 3419,
  "ცხადებს": 3420,
  "ტრანსპორ": 3421,
  "გერმანული": 3422,
  "ელებს": 3423,
  "პოლიტიკურ": 3424,
  "პატარა": 3425,
  "მთავრობა": 3426,
  "ერთეული": 3427,
  "აღნიშნული": 3428,
  "ნოს": 3429,
  "მმ": 3430,
  "ქვეყნების": 3431,
  "ადგინა": 3432,
  "100": 3433,
  "ინგლისის": 3434,
  "პეტრე": 3435,
  "სრულიად": 3436,
  "ბევრი": 3437,
  "ურები": 3438,
  "სოციალისტური": 3439,
  "უკრაინის": 3440,
  "ლაურეატი": 3441,
  "რილი": 3442,
  "თანხმო": 3443,
  "2003": 3444,
  "ობიდან": 3445,
  "გენტი": 3446,
  "წერეთელი": 3447,
  "ზამთ": 3448,
  "ბად": 3449,
  "ეკუთვნება": 3450,
  "ახალგაზრ": 3451,
  "არგებ": 3452,
  "წმი": 3453,
  "წლიური": 3454,
  "ნაწარმო": 3455,
  "საბერ": 3456,
  "საქმიან": 3457,
  "იური": 3458,
  "ესპანელი": 3459,
  "მუშავ": 3460,
  "გარკვე": 3461,
  "შესაბამის": 3462,
  "ბოს": 3463,
  "სტე": 3464,
  "ფილოსოფოსი": 3465,
  "გული": 3466,
  "საუკუნიდან": 3467,
  "ვარა": 3468,
  "ორბელი": 3469,
  "დასაწყისში": 3470,
  "ნელ": 3471,
  "რესი": 3472,
  "ებელ": 3473,
  "საბერძნ": 3474,
  "ისტორიის": 3475,
  "მშობ": 3476,
  "მაქსი": 3477,
  "ვთი": 3478,
  "კუნძულები": 3479,
  "1992": 3480,
  "დატო": 3481,
  "გოს": 3482,
  "ღოლ": 3483,
  "რადი": 3484,
  "დებით": 3485,
  "გების": 3486,
  "მრეწველ": 3487,
  "ანო": 3488,
  "ლას": 3489,
  "უნივერსიტეტი": 3490,
  "ჯო": 3491,
  "შები": 3492,
  "ცხოვრობს": 3493,
  "ელებმა": 3494,
  "ქართლ": 3495,
  "დარგში": 3496,
  "სამოქალაქო": 3497,
  "მთავარ": 3498,
  "გიორგის": 3499,
  "ატორ": 3500,
  "ჩრდილოეთით": 3501,
  "პროდუ": 3502,
  "მაგალითად": 3503,
  "ჩამოყალიბდა": 3504,
  "ზაფხული": 3505,
  "რონი": 3506,
  "წარმოშ": 3507,
  "XVII": 3508,
  "დაბრუნ": 3509,
  "მავალი": 3510,
  "საზღვრება": 3511,
  "აღიარ": 3512,
  "ხარ": 3513,
  "ომში": 3514,
  "ოგრაფია": 3515,
  "მაის": 3516,
  "78": 3517,
  "დიპლომატი": 3518,
  "სახელმწიფოები": 3519,
  "ერთმან": 3520,
  "მეფეს": 3521,
  "ნიშნავს": 3522,
  "ისთვის": 3523,
  "ესპანეთის": 3524,
  "მოახ": 3525,
  "მოე": 3526,
  "ლუი": 3527,
  "რუმინ": 3528,
  "სამხრეთით": 3529,
  "რეგიონში": 3530,
  "კრე": 3531,
  "ვამ": 3532,
  "ინჟინ": 3533,
  "სტატ": 3534,
  "გამოც": 3535,
  "თურქეთის": 3536,
  "განსაკუთრებული": 3537,
  "ტოლ": 3538,
  "უნგრ": 3539,
  "სამხრეთი": 3540,
  "პინ": 3541,
  "მთიან": 3542,
  "სუბ": 3543,
  "მცენ": 3544,
  "ნოგრაფი": 3545,
  "ამასთან": 3546,
  "გუნ": 3547,
  "ვებს": 3548,
  "კაშვილი": 3549,
  "პყრო": 3550,
  "ანიძე": 3551,
  "ლაურეატები": 3552,
  "ესაზღვრება": 3553,
  "წყვი": 3554,
  "ფეოდალური": 3555,
  "მეცნიერო": 3556,
  "ჩანს": 3557,
  "წარმატ": 3558,
  "ვარდ": 3559,
  "კვეთ": 3560,
  "შალ": 3561,
  "ტანის": 3562,
  "ხანი": 3563,
  "ურობით": 3564,
  "ზურაბი": 3565,
  "კინის": 3566,
  "სამეცნიერო": 3567,
  "არჩი": 3568,
  "ხელოვნება": 3569,
  "ენცი": 3570,
  "ქართველები": 3571,
  "აქედან": 3572,
  "რისა": 3573,
  "ელჩ": 3574,
  "სიმონ": 3575,
  "დასრულდა": 3576,
  "მუნიციპალიტეტში": 3577,
  "ვაჭრო": 3578,
  "მალე": 3579,
  "ნალექ": 3580,
  "ყოს": 3581,
  "ასული": 3582,
  "აღნიშნავდეს": 3583,
  "საგარეო": 3584,
  "ბერში": 3585,
  "ძალიან": 3586,
  "გრძლი": 3587,
  "ეები": 3588,
  "ამჟა": 3589,
  "ფუნქ": 3590,
  "სასწავ": 3591,
  "ენას": 3592,
  "დებს": 3593,
  "სასამართ": 3594,
  "დაწყ": 3595,
  "რუქ": 3596,
  "ზოგიერთი": 3597,
  "ჯილ": 3598,
  "პუბლიცისტი": 3599,
  "ტერიტორიული": 3600,
  "ცნობილია": 3601,
  "სახლის": 3602,
  "ღრ": 3603,
  "ბრის": 3604,
  "ჰოლ": 3605,
  "კოვის": 3606,
  "მუნიციპალიტეტი": 3607,
  "ერე": 3608,
  "მეტყველ": 3609,
  "ხანგრძლი": 3610,
  "თავისუფლების": 3611,
  "კრის": 3612,
  "შესაძლებელი": 3613,
  "მტ": 3614,
  "აკადე": 3615,
  "ადო": 3616,
  "თარიღ": 3617,
  "საქმ": 3618,
  "ავტორი": 3619,
  "ტელი": 3620,
  "ლებების": 3621,
  "ჩვე": 3622,
  "45": 3623,
  "სავაჭრო": 3624,
  "სონი": 3625,
  "კანონი": 3626,
  "წად": 3627,
  "ფლი": 3628,
  "ღო": 3629,
  "სადგური": 3630,
  "მოკლ": 3631,
  "ოქროს": 3632,
  "სოციალური": 3633,
  "ენტური": 3634,
  "შევი": 3635,
  "iv": 3636,
  "ბავ": 3637,
  "განვითარებული": 3638,
  "ლათინური": 3639,
  "ინდი": 3640,
  "ერისთავ": 3641,
  "ზით": 3642,
  "ელია": 3643,
  "უნივერსიტეტის": 3644,
  "დაკავშირებული": 3645,
  "იურის": 3646,
  "რუსეთი": 3647,
  "ხევსურ": 3648,
  "გზის": 3649,
  "გავლენა": 3650,
  "მეფეები": 3651,
  "ing": 3652,
  "პეტერ": 3653,
  "სოფელ": 3654,
  "შევიდა": 3655,
  "გადავიდა": 3656,
  "სომე": 3657,
  "უილი": 3658,
  "ცენტრალურ": 3659,
  "რკინი": 3660,
  "ფრანგული": 3661,
  "სიტყვა": 3662,
  "კირი": 3663,
  "ულებული": 3664,
  "სპორტს": 3665,
  "ეროვნულ": 3666,
  "აღმოა": 3667,
  "ბიზანტიის": 3668,
  "ურმა": 3669,
  "აღმოსავლეთის": 3670,
  "წვერ": 3671,
  "სტატუსი": 3672,
  "ზარდა": 3673,
  "ხასიათებელი": 3674,
  "ოსნ": 3675,
  "VIII": 3676,
  "იმისა": 3677,
  "პატიმ": 3678,
  "კისა": 3679,
  "გლე": 3680,
  "წლიანი": 3681,
  "ისტი": 3682,
  "ფესი": 3683,
  "XII": 3684,
  "შეადგენ": 3685,
  "დაწეს": 3686,
  "ჩრდილოეთი": 3687,
  "კომიტე": 3688,
  "არში": 3689,
  "ტროპი": 3690,
  "ჭავა": 3691,
  "გულის": 3692,
  "მერი": 3693,
  "მეცნიერებათა": 3694,
  "შესაბამისად": 3695,
  "სს": 3696,
  "კოლონი": 3697,
  "გადას": 3698,
  "ირლანდი": 3699,
  "პავ": 3700,
  "ჩარ": 3701,
  "სახით": 3702,
  "უკავია": 3703,
  "შვ": 3704,
  "ობენ": 3705,
  "ლიტერატურული": 3706,
  "ყოველი": 3707,
  "ინგლისური": 3708,
  "ვალის": 3709,
  "იქცა": 3710,
  "ელისა": 3711,
  "36": 3712,
  "შრო": 3713,
  "მწერი": 3714,
  "არგმნელი": 3715,
  "მიზე": 3716,
  "ირა": 3717,
  "ფლორ": 3718,
  "ავჭავა": 3719,
  "ჭავჭავა": 3720,
  "ორგანო": 3721,
  "გადაწყვეტი": 3722,
  "საფუძ": 3723,
  "განხორციელ": 3724,
  "შვეიც": 3725,
  "მეთაურობით": 3726,
  "ისტორიაში": 3727,
  "ყინ": 3728,
  "წელიწად": 3729,
  "მთელ": 3730,
  "ჯის": 3731,
  "აშენ": 3732,
  "176": 3733,
  "ზრუნ": 3734,
  "აბაშიძე": 3735,
  "ბრინ": 3736,
  "ენოვანი": 3737,
  "რდ": 3738,
  "ეგვიპ": 3739,
  "ესტონ": 3740,
  "პრა": 3741,
  "ტაძარი": 3742,
  "შვა": 3743,
  "ნარი": 3744,
  "ჰავა": 3745,
  "ხალხის": 3746,
  "ტყის": 3747,
  "იძულებული": 3748,
  "დავითის": 3749,
  "როსი": 3750,
  "ინფორმა": 3751,
  "რობერ": 3752,
  "მთარგმნელი": 3753,
  "პერიოდი": 3754,
  "მიეკუთვნება": 3755,
  "მაჩვენ": 3756,
  "დამახასიათებელი": 3757,
  "თანდათან": 3758,
  "მაინ": 3759,
  "ჭიდრო": 3760,
  "მოკლე": 3761,
  "um": 3762,
  "ითვლება": 3763,
  "ეპისკოპოს": 3764,
  "თეოდ": 3765,
  "2013": 3766,
  "ანიშვილი": 3767,
  "საფუძველ": 3768,
  "გამოიწვია": 3769,
  "გაიმ": 3770,
  "კავა": 3771,
  "ცხოველ": 3772,
  "ლერი": 3773,
  "საფუძველი": 3774,
  "ებრივ": 3775,
  "სამთავრო": 3776,
  "დიან": 3777,
  "დაკავშირებით": 3778,
  "თალი": 3779,
  "ბრიტანელი": 3780,
  "თანამდებ": 3781,
  "მოქალაქ": 3782,
  "იღებს": 3783,
  "აცხადებს": 3784,
  "1945": 3785,
  "იაპონელი": 3786,
  "აღწერის": 3787,
  "მუსლი": 3788,
  "In": 3789,
  "ტვი": 3790,
  "ენს": 3791,
  "ბუნების": 3792,
  "მცხ": 3793,
  "მიანი": 3794,
  "არგენტი": 3795,
  "დანა": 3796,
  "მათემატიკოსი": 3797,
  "საბა": 3798,
  "ოდიშის": 3799,
  "ღუპა": 3800,
  "48": 3801,
  "რიხ": 3802,
  "არქიტექტორი": 3803,
  "ენათ": 3804,
  "უკავშირ": 3805,
  "აა": 3806,
  "მმართველი": 3807,
  "ოთხ": 3808,
  "თებერვალ": 3809,
  "ქედის": 3810,
  "დონიდან": 3811,
  "ანეს": 3812,
  "სია": 3813,
  "ღონის": 3814,
  "დაიღუპა": 3815,
  "ათმცოდნე": 3816,
  "XIII": 3817,
  "საბოლოოდ": 3818,
  "აღწია": 3819,
  "მთლიანი": 3820,
  "ლთა": 3821,
  "გურა": 3822,
  "ხალხური": 3823,
  "ასტრონო": 3824,
  "ვრ": 3825,
  "ზარ": 3826,
  "ტერიტორიები": 3827,
  "ეკონ": 3828,
  "მუდ": 3829,
  "ზომიერ": 3830,
  "იყოფა": 3831,
  "ტბა": 3832,
  "ვენი": 3833,
  "პიროვნებათა": 3834,
  "ებისაგან": 3835,
  "ტორის": 3836,
  "წარმოადგენდა": 3837,
  "ულს": 3838,
  "პროცეს": 3839,
  "პიროვნებათაგანს": 3840,
  "დაამარცხ": 3841,
  "ამიტომ": 3842,
  "ხელს": 3843,
  "ანთ": 3844,
  "საფრანგეთი": 3845,
  "ფერმწერი": 3846,
  "ულებით": 3847,
  "ლექს": 3848,
  "რობას": 3849,
  "ქრისტიანული": 3850,
  "ფოლ": 3851,
  "ყვარ": 3852,
  "მოწამ": 3853,
  "პარტიის": 3854,
  "პენ": 3855,
  "ცვლ": 3856,
  "ერთიანი": 3857,
  "გაიმართა": 3858,
  "შეერთ": 3859,
  "დემო": 3860,
  "ასეთი": 3861,
  "არამედ": 3862,
  "ხები": 3863,
  "ებულმა": 3864,
  "ჰყვა": 3865,
  "ლისა": 3866,
  "ბედ": 3867,
  "ყვანა": 3868,
  "75": 3869,
  "მედიცი": 3870,
  "ამჟამად": 3871,
  "ეტ": 3872,
  "მილიონ": 3873,
  "ობდნენ": 3874,
  "შტატები": 3875,
  "ყარა": 3876,
  "ანების": 3877,
  "ოლოგიის": 3878,
  "კში": 3879,
  "ურთან": 3880,
  "როლი": 3881,
  "წევრები": 3882,
  "ჟურნალისტი": 3883,
  "ირჩე": 3884,
  "მაინც": 3885,
  "მიზნით": 3886,
  "უბი": 3887,
  "გადაი": 3888,
  "მოლო": 3889,
  "ღვთა": 3890,
  "არჩევნ": 3891,
  "ქტორ": 3892,
  "მოსკოვის": 3893,
  "ბანი": 3894,
  "კანონ": 3895,
  "უწყ": 3896,
  "ნინო": 3897,
  "ნაწილს": 3898,
  "იყოს": 3899,
  "როგორი": 3900,
  "მღვ": 3901,
  "სამყარ": 3902,
  "რამაც": 3903,
  "სამეგრელოს": 3904,
  "წელიწადში": 3905,
  "დღემდე": 3906,
  "გარკვეული": 3907,
  "XVI": 3908,
  "პროგრა": 3909,
  "კლიმატი": 3910,
  "მალური": 3911,
  "ცოდ": 3912,
  "დათ": 3913,
  "ყენა": 3914,
  "ქანი": 3915,
  "კუნძული": 3916,
  "ad": 3917,
  "მთიანი": 3918,
  "ჯვრის": 3919,
  "გიული": 3920,
  "ელობის": 3921,
  "2015": 3922,
  "სტა": 3923,
  "ცნობით": 3924,
  "ხეს": 3925,
  "ერს": 3926,
  "მნიშვნელობა": 3927,
  "ვაკე": 3928,
  "ation": 3929,
  "წარმოშობის": 3930,
  "პოლე": 3931,
  "მიღებული": 3932,
  "უკრაინ": 3933,
  "დონის": 3934,
  "მონი": 3935,
  "ზიის": 3936,
  "აქვე": 3937,
  "სიმაღ": 3938,
  "ანტონ": 3939,
  "შედის": 3940,
  "მორჩი": 3941,
  "მების": 3942,
  "VII": 3943,
  "ფსი": 3944,
  "ტლანდი": 3945,
  "ეკუთვნის": 3946,
  "წყალი": 3947,
  "შედიოდა": 3948,
  "ცემა": 3949,
  "კარის": 3950,
  "შემორ": 3951,
  "ლაპარაკ": 3952,
  "ქმნის": 3953,
  "ეპო": 3954,
  "დოლ": 3955,
  "არჩევნები": 3956,
  "ძენი": 3957,
  "დრამატურ": 3958,
  "გრაფია": 3959,
  "მეურნეობის": 3960,
  "ათი": 3961,
  "კომპანი": 3962,
  "ზაფხულის": 3963,
  "წამყვანი": 3964,
  "ნაპოლე": 3965,
  "სიცო": 3966,
  "არაღებული": 3967,
  "ხმა": 3968,
  "რუსეთში": 3969,
  "უარი": 3970,
  "ავიდა": 3971,
  "მეცნიერების": 3972,
  "თავისუფალი": 3973,
  "ექიმი": 3974,
  "კონი": 3975,
  "მონღოლ": 3976,
  "ეთსა": 3977,
  "გინ": 3978,
  "გადასახ": 3979,
  "ძეგლები": 3980,
  "კონფლი": 3981,
  "პაპ": 3982,
  "ინდუს": 3983,
  "შეიარაღებული": 3984,
  "ძალების": 3985,
  "ღმერთ": 3986,
  "მედ": 3987,
  "ბარა": 3988,
  "ჭირ": 3989,
  "იყენ": 3990,
  "კარლ": 3991,
  "ალექსი": 3992,
  "გაუქმ": 3993,
  "იული": 3994,
  "ეკონომის": 3995,
  "34": 3996,
  "აღდგენ": 3997,
  "ქართლში": 3998,
  "ფორმები": 3999
}