ი ს
ე ბ
ლ ი
დ ა
ა რ
ა ნ
ს ა
ე რ
რ ი
ე ლ
მ ო
მ ა
ე ნ
შ ი
რ ო
ა ვ
მ ი
ო ბ
ებ ი
ა ლ
ე თ
ა დ
ე ლი
ტ ი
ე ს
უ რ
ვ ი
გ ა
ნ ი
უ ლი
ო რ
ა ს
დ ი
უ ლ
ა მ
ებ ის
ო ს
ნ ა
მ ე
შ ე
არ თ
გ ი
ც ი
ვ ა
რ ა
ო ნ
1 9
უ რი
ო ლ
ებ ა
ლ ის
დ ე
ვ ე
ერ ი
თ ა
ვ ელ
ტ ო
ან ი
ი ნ
რ ე
სა ხ
ქ ართ
ზ ე
ს ი
რო მ
ა ლი
არ ი
კ ი
კ ა
გ ან
პ ი
ა ღ
ა ტ
თ ავ
ე ვ
ერ თ
ყ ო
ფ ი
ეთ ის
უ ნ
მ ის
წ ი
ო ვ
ობ ა
ა ქ
ზ ი
ვ ლ
ა ხ
მ ხ
ლ ე
ოლ ო
ლ ო
2 0
თ ან
და ნ
1 8
ც ხ
ვ ის
ა თ
ტო რი
ებ ს
ტ ე
ვ ელი
ებ ული
გა მო
პ ო
ქართ ველ
ობ ის
ბ ი
ძ ე
უ ს
ბ ა
ნ ის
ო დ
რ ის
შ ვი
ე დ
ები თ
ი თ
I I
მ დე
სა ქართველ
მ არ
უ კ
ეს ი
ელ ს
ე კ
ს ო
დ ღ
ი მ
ლ ებ
კ ო
ენ ი
გ რ
ე ქ
არ ე
დ ებ
ს ხ
მე ფ
ლ ა
წ ყ
ვი თ
ა ში
მ უ
წ ელს
ეთ ი
წ ლის
ქ ვე
ტ ა
პი რ
გ ენ
ქ ალ
არ ა
ე მ
უ ფ
კ ოს
რ ან
ს ტ
ენ ტ
მ ან
საქართველ ოს
ი ყო
გ ო
შვი ლი
წ არ
ტ ერ
ა ზ
წ ერ
ობ ი
ქალ აქ
ნ ე
ნი შ
ორ ის
ო და
სახ ელ
გ რა
უ მ
მდე გ
კ ის
დ ო
უ ბ
ა და
არ ის
ი ა
არ ს
1 7
ი ან
კ ონ
კ ავ
სა მ
გა და
პ რე
ტ ის
ნ ენ
სა ვლ
0 0
სხ ვა
რ უს
სა ბ
ქვე ყ
რო ბ
ა ფ
ზ ო
სა მხ
ვ ალ
ხ ელ
ის ა
დღ ე
უ თ
გ არ
ხ ი
ქართ ველი
ნ ო
რ ეს
მა ს
ურ ა
ას ი
ან ა
სა უკ
კ ური
წარ მო
და ი
პო ლი
ო ლი
ხ ე
სო ფ
პ რო
რომ ელი
ღ ვ
ენ ა
ან დ
ლ ესი
20 0
მ თ
ფ ო
თ ე
ქ ი
ტ ერი
ებ ში
მ ართ
ბ რ
შე მდეგ
ც ა
რომელი ც
ნა წი
ფ რან
ო რი
ღ ვა
გ ად
ჩ ა
კოს ი
შ ორის
ან ის
მ წი
საუკ უნ
და ც
ლ ები
ცი ა
ის ი
ქ მ
ებ ულ
ის ტორი
დ რო
ურ თ
ვ ნ
აღ მო
მის ი
ლ ობ
პოლი ტი
ალ ური
წ ე
მი ნ
1 6
გ ერ
ლი ა
სახელ მწი
ბ ერ
ტ ან
ვ ერ
პ არ
სა კ
პ ა
ი რ
მა თ
დ ის
1 5
ო ნი
დი ნ
ეკ ლესი
მ თავ
ზ ა
გ ე
ტ ყ
დ ება
ი ვ
19 9
სავლ ეთ
გ ორ
მი ერ
მო ღვა
ა შ
ტ ურ
ზი დ
მო სახ
ორ ე
ლ ება
სა ც
და რ
ოლო გი
მოღვა წე
ნ ავ
ა ზე
თ ვის
ძ ი
ად ი
კ ე
პირ ველი
გი ორ
დი დი
სა ს
ტერი ტორი
ო მი
სამხ რ
მ წერ
ლ ების
ო ში
პ ერი
ფ ე
ლებ ში
კავ ში
ერთ ი
1 0
მოსახ ლე
გრა ფი
მო ნ
რომ ელ
ოვ ნ
რ ულ
ყ ველ
ვ არი
პ ე
სახელმწი ფო
შ ა
ი ტ
პრე ზიდ
ვ არ
რ უ
დ ნენ
ეთ ში
ჩ ი
რ დი
შ უ
ებ ას
ამ ერი
ბ ერი
მეფ ე
ტ უ
პ ერ
ევ რო
თ ხ
კ ლ
საბ ჭ
მ სახ
მი ნის
ხ და
ჩ რდი
ცხ ოვ
ონ ის
შე ი
გიორ გი
უბ ლი
მა დ
ცი ის
თავ ის
ჩრდი ლო
ალ ექ
რ ავ
პ უბლი
ვ ლი
1 2
1 4
ად გი
სოფ ლი
მ სოფლი
ან ტი
ა გ
ტ რი
კო მ
ედ რო
რო გორ
კ ან
ობ ს
ხ ს
პ ორ
და ბ
წ ლებში
კ ულ
თ ბი
სამხრ ეთ
ლი ტერ
შე მო
ენ ტი
ვა ლი
კ არ
ბ რი
ას ე
ობ ით
ელ ის
ებ მა
კა თ
გ ავ
ეთ ა
19 4
ფ ორ
ხ ოლო
დი დ
ა გრ
ლიტერ ატ
ადა მი
ერ ის
ფრან გ
II I
a n
მე ც
კ ვ
ი გი
კ ელი
და ვით
ინ გ
სა ზ
19 6
მ დინ
საბჭ ო
ც ნ
ებ ელი
ტ რო
აფ ხ
მწერ ალი
როგორ ც
პ ის
19 7
თბი ლის
კ ურ
ოვ ანი
მ დებ
მეც ნი
რეს პუბლი
უ ძ
ს ის
ბრ ძ
მა ღ
სა მეფ
ც ენტ
ლ ად
ნიშ ვნ
წი ნა
1 3
e r
ბ ურთ
ან ე
ნიშვნ ელ
დღ ეს
ქართ ული
წ მინ
ა ი
კათ ოლი
კ ალ
ავ ი
რუს ეთის
ფ ერ
ინგ ლის
მდინ არე
19 3
ლ ამ
წ ევ
ა ბ
19 2
უ კი
ობა ში
ტ ური
გა ხდა
და მო
ყ ვ
19 8
ათ ვის
ტო მ
მსახ ი
პ ატ
ამერი კელი
საკ უთ
მ ნიშვნელ
კ ოლ
ზო გად
მ ანი
ონ ომი
მსახი ობი
ფე ხ
გ ის
ა კ
ეთ ვე
აგრ ეთვე
ქ მე
ი ქ
ასე ვე
19 5
შ ენ
ყო ფი
უ ნი
გერ მან
ლ მა
საბჭო თა
საუკუნ ის
ურ ად
გ ური
პ ოლ
საუკუნ ე
ტ რ
ენ ის
ტ რა
ს ტი
ად გენ
მო ს
წ ლი
რი ვი
ალ ის
ქვეყ ნის
კ ვი
პოლიტი კური
გრ ამ
მა ლ
პ რი
ებ ერ
თ ი
კ ვლ
თ ებერ
ო გრაფი
ვ ენ
ობ ას
წ ოდ
ე ტი
ი ღ
ფეხ ბურთ
ების ა
წ ავ
ყველ აზე
ვ ს
ურ ის
ულ ის
ებული ა
გ ანი
არ ქ
პირ ველ
სა ზოგად
o n
ძ ალ
საზოგად ო
ვით არ
მ ც
რ ება
ან ს
რ ები
წ ა
ი ლ
არ ჩ
რ ად
რე გი
მო ი
ტ ში
აღმო სავლეთ
ტე მ
ო ქ
სა ფრანგ
ც ე
ებ ოდა
მა ტი
ებ და
თ ურ
1 1
ბრძ ოლ
ნა ხ
იტ ალი
თან ამ
რ ების
მდებ არე
გ ზ
სამხ ედრო
ერ ოვნ
ყო ფ
i n
აშ შ
ტ ები
ქ რის
მუ ნი
ო ფი
ცი პ
და სავლეთ
ძი რი
ბ ე
დრო ს
რი ვ
o r
ალექ ს
გ რი
ჯ ან
e n
ერთ ად
ალ ხ
მე ორე
წ ინ
წ ყო
მეცნი ერ
აღ ნიშ
გარ დაც
ა მი
დამო უკი
ო მ
და დ
a r
იან ვარი
მი ის
იმ ერ
მა გრამ
გ ვი
ახ ალი
დ გო
კ ინ
ალექს ანდ
პ ან
არ ქი
ტე ქ
რ ელი
საზ ღვ
ქ ონ
მ რავ
a l
ავ სტ
საქართველ ოში
მარ ტი
ფ ართ
რომ ის
ლ ობა
კა ხ
რა ი
ქალაქ ი
დამოუკი დებ
ეკ ონომი
e s
ებ ზე
ენ ები
ფეხბურთ ელი
19 0
რ ც
ქ სი
ახ ალ
ლ ან
a t
გა ი
ციპ ალი
მუნი ციპალი
კ მ
ავ ა
მუნიციპალი ტე
ფი ზი
ტ ს
პი რო
ულ ები
შუ ალ
ნაწი ლი
და ს
და მ
ელ ები
ჩა მო
უფ რო
ლ ოს
გან ვითარ
ლ უ
პრეზიდ ენტი
თ უმ
მოსახლე ობის
X I
ჩ ინ
ჩ ე
X V
სა მე
რ ამ
თებერ ვალი
ხ ან
აფხ აზ
მა ც
ინ ტერ
ლ ს
უ შ
i s
ვ ან
ერ ა
რობ ის
შე დე
ავ ს
ობ და
ჯ ი
h e
ლ ობის
ლიტერატ ურა
ქართ ლის
ცხ ად
მუ სი
სა ფ
რა ც
უნ და
მო მ
ი დან
არ გ
18 9
ჭ ი
სა დ
ხ ედ
კ უ
მსოფლი ო
ს რ
პატ რი
ჯ ერ
ბრი ტან
ამ ის
ვა ხ
ბ ოლო
i c
კ უნ
სახ ელი
ს ულ
ზ რ
ყ ენ
ჩ ენი
მი ა
ტ ატ
ბ ურ
ეკლესი ა
წ ერი
ამ დე
წინა აღ
ხი ლ
დაბ ად
კულ ტურ
ალექსანდ რე
ტო ნი
კავში რ
ჩრდილო ეთ
ენ დ
ული ა
რც ელ
კ ოლო
რომ ლები
ქვეყ ნ
ეროვნ ული
ერთ იან
ბ ალ
ერ თა
პო ზი
იმ პერი
გერ მანი
ზ ის
ცნ ობი
ოს ი
გენ ერ
ხ ის
ც ის
ზ ღ
თუმ ცა
შე მ
მად გენ
თურ ქ
სტი ტუ
ცი ული
წმინ და
ო მის
ქმ ნა
დე და
ბა ი
დაი წყო
პრეზიდ ენტ
ბა გრა
მი წ
ულ ად
გ არე
გო რი
სა შუალ
უ დ
ურ ს
მოსახლე ობა
ელ თა
რომ ლის
გ ვ
ად მინის
ებ თან
გე ოგრაფი
გერმან ელი
ლი თ
ტ ორ
რა ლი
მე ტ
ნი ა
ს პორ
შ ავ
წინააღ მდეგ
პერი ოდ
ბ ო
რო ბა
ქ ს
ლ ეს
რომლები ც
დ ენი
ერ ო
რო ს
ნ ელი
სა დაც
ვი ნ
კუნ ძ
ხ ორ
ოლო დ
მა ტ
მხ ოლოდ
მო ძ
18 8
ახ ლო
მ მართ
ი ო
გარდაც ვლი
ლ ში
ღ ერ
ა ზი
არ და
დე ვ
ადმინის ტრა
დ ელ
ემ ბერი
შ ვე
მი თ
მი ხედ
ალ ურ
გ უ
ებ ები
ვახ ტან
დე კ
შ ეს
ჰ ა
ჩ ნ
მი ლი
დი ა
ეს პან
გამო ი
ივ ლის
ხელ ის
თავის უფ
პო ეტი
00 0
ცი ალური
მო ვლ
ფ ა
ეთ ს
სამეფ ო
ც ვალ
ელ ა
ა პრი
ძ ლი
ადგენ ს
წევ რი
მნიშვნელ ოვანი
თავ ისი
არს ებ
მი იღ
არ ო
სხ ვ
ტი ა
კ ასი
შე სახ
3 0
ვ ოლ
წლი დან
ებ ენ
აზ ერ
კ რი
ერთა შორის
აზერ ბაი
დი დებ
ტი ან
ბ ოლ
ვ ად
ს ექ
სა ერთაშორის
კ ლი
2 5
შესახ ებ
პ ალ
აგ ვის
კ ას
ხ ალხ
ევრო პ
კავ კასი
კავში რის
ვერ სი
მთავ არი
აღნიშ ნავ
ვი და
რუ სი
მიხედ ვით
ჟ ის
პარ ლამ
რ თ
ძ ვ
ცენტ რ
მართ ლმა
მო ქმე
თ უ
ივ ნის
ხ ვ
ს არ
ჯ ა
საფრანგ ეთის
18 7
რეს ურს
ო თ
ძ ნ
ინ დო
18 6
ს ე
ც ემ
დ გ
ოქ ტომ
და ა
გ ურ
ადამი ანი
რესურს ები
იმ პერ
ან ას
ბ უნ
ძ ის
მო კ
უ სი
გავ რცელ
აფ რი
2 2
რ ებული
ტ ების
ტ ული
საერთაშორის ო
შ ტა
ი ხილ
მ ცი
ს ქ
აღ ი
ნახ ევ
ტ ონ
იხილ ეთ
სამეფ ოს
მარ ჯ
ლ ევ
გა მ
რი ა
აქ ვს
სხვა და
და სა
სას წა
რეგი ონ
სხვადა სხვა
გა ერთიან
მართლმა დიდებ
რესპუბლი კა
i t
ხ ა
შუ ა
მო ნა
ზღ ვის
ორ განი
გი ა
ახლო ებით
დ უ
გან საკუთ
ი ანი
მუ შა
და ახლოებით
ოს მალ
რომელ საც
აქ ტი
ათ ასი
ხ უ
მდებარე ობს
ხ მ
თავ ი
ენ ების
წ ელი
ყველ ა
მმართ ველ
2 1
ხელის უფ
დღე სასწა
კონ სტ
რამ დენი
ისტორი ა
ოდ ენ
კ ული
ფრან გი
ი რან
ტ ეს
გან ა
ები ა
ქალაქ ის
მეფ ის
დებ ოდა
ცი ხე
კ ერ
რამდენი მე
იქ ნა
ს ერ
ას თან
სი მ
წ ეს
მიიღ ო
ვი ა
მომ ღერ
სექ ტემ
დ ეს
ყ ალი
ქ უ
2 4
ოლი ო
მა ვლ
ვ ლის
ება ში
ჰ ი
ე ული
ტერიტორი აზე
ინტერ ნე
შვი ლის
2 3
ქრის ტიან
სქ ოლიო
შე მდე
წ მ
ნ ეს
ნ ობ
ჟის ორი
ბ ან
მი უ
რე ვოლ
მართლმადიდებ ელი
ებ ად
და ამ
რა ოდენ
მოძ რა
ა მა
სი ტყ
მათ ი
კომ პოზი
მრავ ალ
კი თხ
ურ ე
ლა შ
ს კოლ
მომღერ ალი
ძ ველი
ძირი თ
5 0
ხელ ოვნ
ს უ
და სახ
შ ტატ
ვ ები
უნი ვერსი
მცი რე
ს პ
ს ანა
ო დი
მარ ე
ეკლესი ის
რესპუბლი კის
უნივერსი ტე
მ არი
ცხ ადა
ჰ ქონ
თ ვით
ურთ ი
ქ ვა
მო ნაწი
ევრო პის
კონსტ ანტი
ნი ის
რ ებით
წოდ ება
თ ვე
შედე გად
ბ უ
და დი
უ დიდ
ელ მა
ყოფი ლი
თა ც
ლ ენ
პოლიტი კოსი
ც ო
დ ელი
ძ ლება
o f
გ ზა
ხ ო
ს წ
სის ტე
აპრი ლი
შეი ძლება
აღმო სავლ
საქართველ ო
ინგლის ელი
დ რე
არ დ
პარ ტი
ბერ ს
უ მი
დ ერ
ნა თ
თე იმ
ობ ები
პოლ ონ
კახ ეთის
ებ რივი
ურთი ერთ
საუკუნე ში
ტ კი
მონაწი ლე
2 6
ბ რა
ს ურ
თბილის ის
ინტერნე ტში
ო ფ
მ ძ
გარ და
ყო ველ
პრე მიერ
იმერ ეთის
სო მხ
ან ული
ცნობი ლი
მ ეთა
რევოლ უ
ლებ ელი
ება თა
არ ული
ქვეყ ანა
მხ არე
ავსტ რალი
ს ან
ურ ნე
ასი ათ
მო რ
გა ა
ჰქონ და
მი ხე
ადმინისტრა ციული
მოვლ ენები
არჩ ევ
კათოლი კოს
ვახტან გ
უ ზ
კონ სტიტუ
ნ ები
ი დ
ბ ელ
პერიოდ ში
ინ ის
ქართ ულ
უძ ველ
ო ჯ
პ არი
ტ ოს
ა სა
კა ც
ავ და
გ ოლ
გზ ავ
ბ ათ
წყ ალ
ნი თ
კ რ
პა ტი
ტ ელ
გ ვარ
სამ ართ
ები დან
პირველ ად
თ ის
შ ო
ნ ება
I V
ნობ ელის
ხ მარ
ტი ნ
პ ყ
ბი ზ
ეთი დან
თანამ ედრო
2 8
რა ტი
ვ ეს
ხ ვე
მი მართ
მ ს
ცვალ ა
საშუალ ო
ვი ლი
ჯ გ
2 7
ფორ მა
ა ტორი
და არს
აგვის ტო
კ ორ
და სავლ
c h
ძირი თა
ყალი ბ
ანი შ
თანამედრო ვე
ბ არ
ანი ა
გ არი
მა ი
რომელ მაც
თ ით
მ შ
ძირითა დად
ის ე
ცხოვ რობ
ოჯ ახ
დ ონ
მიხე ილ
ოლოგი ური
ვა ში
შ ის
ლ ანდ
ჯგ უფ
ია პო
ტერიტორი ა
ფ ონ
მხ ატ
წ ამ
მინის ტრი
18 5
რო დე
ზ მი
ევ ის
კომპოზი ტორი
წმინ დან
ნი კოლო
ა კა
ქვეყ ან
ხ ელი
და რი
დღესასწა ულები
მა ისი
ცი ური
ლ ავ
ოვ ან
u r
შვი დ
ფ ედ
მც ოდ
შემდე გი
ფ რი
ჰ ერ
ორგანი ზა
ა ტი
მი ღ
ჩენი ლია
18 4
ა ძე
შე სა
როდე საც
ცხ ო
ხე და
მე ტი
ცენტ რი
ლაშ ქ
წერ ა
მთ ელი
ისტორი ული
უდიდ ესი
ენდ რის
დღ ის
მცოდ ნე
სანა პირო
კალ ენდრის
2 9
ოფი ციალური
ს სრ
შეი ქმნა
i on
გან ათ
ხ ასიათ
ცი ას
აღ ს
a s
გო გი
ა ირ
შენ ებ
ხ დება
ხ მო
გორი ანული
გრი გორიანული
რელი გი
ძირით ადი
გა ლი
დ ენ
ჰ ყ
ა ბა
ფი ლოს
თა მა
ჩ ვენ
მ ები
საკუთ არი
განსაკუთ რებით
პ ოს
სა მო
ლან დი
ვლ ად
ყ არ
აღნიშნავ ს
გარდაცვლი ლი
ოვ ის
გ ში
ხს ნა
მუნიციპალიტე ტის
იმპერი ის
თბილის ი
ლიტერატ ურ
გენერ ალ
მსახ ურ
გ ალ
პის კო
რი ცხ
ნ ების
ტ ანი
ლ ნი
თავ ს
გამო ცხად
პ ონ
შე მადგენ
ბ ატ
ი ლი
თე ატ
მ ლ
მა მ
ელ ების
ფართ ობი
მსოფლი ოში
ზ აფხ
მიუ ხედა
ზ მის
ფ ოს
კა ში
ისი ნი
ე მი
ტ ურა
არა ბ
ებ დნენ
ვა ჭ
მიუხედა ვად
ი ლია
სა ერთ
ფ ინ
ეთ მა
ა შვილი
წყ ვე
გ ულ
სო ცი
ენტ ის
თ ბ
კვლ ავ
ლ ური
მ ერ
ეკ უთ
ისტორი კოსი
მი ზ
ფე ოდა
ივლის ი
მეცნი ერი
პრო ვინ
ბ ის
მიწ ის
მონ ას
გა უ
მარჯ ვ
ადამი ანის
სა ეკლესი
კა ცი
საეკლესი ო
ნახევ არ
ი ც
უფ ლება
ადგი ლობ
ზ ურა
ან ებით
დაბად ებულ
თ ო
ლ ორ
უ რო
ქ მის
პ არა
ებ ლად
თეიმ ურ
სრ ული
ფ არ
ღვ ან
სა მი
ან და
ჩნ და
რ ული
e l
კი დევ
ქუ თა
ლა ურე
ბი თ
მძ ღვან
შე ქმ
ხს ენების
მ კვი
ჩამო ყალიბ
წ ვ
არ მიის
ნა კი
ქვეყან აში
ოქტომ ბერი
მთავ რობის
ბა ტონი
ბაგრა ტი
მოძრა ობის
ივნის ი
ლ ებს
კონსტანტი ნე
ბრიტან ეთის
ც ეს
ქალაქ ები
ადგი ლი
დე მოკ
ბრ უნ
ივ ანე
თვე ები
კ ვე
გ ერი
კუნძ ულ
ხ ში
ჟ ი
წარმო ადგენს
ებ ების
კ ენ
ბოლო მდე
იო ანე
ე დი
ტ ახ
ა ჯან
ართ ა
გერმანი ის
შე ე
წარმო მადგენ
კ ორე
ბიზ ანტი
პრე მიის
გარ დაი
და კავშირ
იმპერ ატორი
მ თა
სახ ე
თ ამ
ფი ლ
მოი ც
ის ში
ოდ ნენ
უ მაღ
ტ არ
მსოფლი ოს
ქი მი
მის ა
V I
არქი ტექ
XI X
ტა ძ
შ ეთ
ზო გი
დეკ ემბერი
ყ ი
ნიკოლო ზ
და ნი
an d
ადამი ან
ის ის
დემოკ რატი
შემ დგო
ებ სა
თ არი
მე დი
გრ ძ
დამოუკიდებ ლობის
თ ვალ
და მა
ვ ო
გან მავლ
ყვ ნენ
გა ს
ანიშ ნავ
ტ რან
განმავლ ობაში
ჟ ურ
იტალი ელი
შვე დ
ხელ შე
წმინდან ების
სას ული
ი მა
ბ ორ
ჯ ე
4 0
ელ ო
მთ ლი
ლ ათ
ან უ
ზ ამ
დ რა
ნაწი ლში
პი რი
ტურ ის
ცხოვ რ
ების ათვის
ნ ული
ად ის
გ მი
გამო ა
ე ვი
ოლოგი ა
მა მა
ულ ო
ლ ებით
თე მატი
ნი ლი
ზე მო
ლ ობაში
უნ ქ
მლ ნ
პე და
ნო ემბერი
მუ ზე
ძე გ
ბრძოლ ა
კი ნი
წ ვე
სახელმწი ფოს
ის რა
ლევ ან
ტ რე
რაი ონ
სპ არს
წყ არო
u s
აფხაზ ეთის
ქ ედ
ჯ არ
და ე
ღ ირ
ას ო
ტრ ადი
ვ რის
შა ჰ
ზ ად
კათოლი კე
ბრძოლ აში
r a
ტ რის
ძ ველ
გ ები
კომ პ
იტ ლ
ჰ იტლ
აფრი კის
ლ ებული
ს წავ
თავ ად
თეიმურ აზ
მა ში
არ ჯ
ო ნა
6 0
ცენტრ ალური
ხელ მძღვან
ებით ი
ავ ის
არსებ ობს
ტ ენ
ავ ტ
მა გ
სა ქ
18 0
ცი ები
უნ ის
სექტემ ბერი
უკ ავ
პ ოვ
ს ვან
ალ ა
გ ებ
დაბად ებული
ჟ ა
o l
უმაღ ლესი
უ ღ
მ ეს
ლამ დე
უკ რა
ნაკი ან
ფი ლი
რ ებს
არქ ე
უკ ვე
ცი ელ
მ უს
ზი ლი
საერთ ო
ე პისკო
ად რე
ტ ზე
პატრი არქი
e d
i a
ბ ევ
ში ც
მე ურნე
მრავ ალი
ძ ალი
ლებ ას
მე მკვი
ს ოლო
მას თან
სამ თავ
ტკი ც
მა თემატი
ეკონომი კური
ს ინ
მარ ცხ
დარ ჩენილია
ან ად
მი ნი
ტ ულ
მონა ცემ
რომელ თა
პატრი არქ
დაბადებულ ნი
გარდაცვლი ლნი
სოფ ლის
აჯან ყ
ცი ონ
წ ლების
რე ჟისორი
ში ნა
ატ ის
ტყ ე
ღ ვი
კულტურ ის
მაღ ალი
არი ან
ი ოს
მ შვიდ
განვითარ ების
აკ ად
i l
კ რულ
უკ ანას
ქვე მო
ჯ ავ
ს პე
და უ
ზ მ
პედა გოგი
ქ ტორი
აზერბაი ჯ
ლე ქსი
ი წყ
ჭ ა
ენ ტო
ავტ ონომი
ლათ ინ
ამ ბ
ალ ო
დას რულ
აღს ანიშნავ
ფ ლობ
გური ის
ვ ანი
ალ ურად
წ ველ
ვ ას
ო პერ
მი ი
მო ხდა
ებ რა
17 8
დ გენ
რაოდენ ობა
o m
აზერბაი ჯან
სასული ერო
აღსანიშნავ ია
ავ ტო
გავ ლ
ცხოვ რება
დასა წყ
ე ფ
ტერიტორი ის
ჟურ ნ
ფ აქ
დე დო
ულ მა
გრი გოლ
ი ყვნენ
ლობ ით
სახელ წოდება
გეოგრაფი ული
გაი ხსნა
რე წველ
არი ა
ქ არ
თავ და
ბ ლი
u n
ოსმალ ეთის
კ ამ
ხელშე კრულ
ი ნი
ეთ ნი
ბ ას
და ხმარ
შ რომ
კავკასი ის
ტემ პერ
ულ ების
ცი აში
წი გ
ას რულ
ლ ზე
ეთ თან
შე ადგენს
ხს ენი
ჰ ო
ლი ნ
ავ ე
ჩი ეს
მ ენი
პ ას
17 9
ორ ედ
საბჭ ოს
ძლი ერ
სამე გრ
ნა კ
დ ების
დაც ვის
აზერბაიჯ ანის
ნ ორ
რო ნ
არ ც
პო ე
ას ტრო
იტალი ის
მ დი
ხელისუფ ლების
7 0
ხორ ვა
მმართველ ობის
ნ ამ
ის ათვის
ავსტ რი
აირ ჩიეს
ადგილობ რივი
ატ არ
მე სამე
ტი ის
დაარს და
თით ქმის
მ ელ
წ ლამდე
წი თ
ი შვილი
მხატ ვარი
ა გან
199 1
დარ ებით
18 3
მემკვი დრე
ხ უთ
შე დარებით
პ ულ
შესა ძ
ირან ის
გვი ანებით
დემოკრატი ული
ში რ
პი რის
მა ზ
თბილის ში
ში და
ინ დ
მა სა
რი თ
არ აღ
ა უ
სა კითხ
მო გვიანებით
შვი ლმა
მ დგო
გამოა ცხადა
8 0
ბრა ზილი
ქ ალი
ა მო
ჩენი ლი
20 10
არგ მ
პირო ვნ
შე უ
ქ ორ
გ ენი
ცი ო
ი მი
200 8
ბ ელი
ა ც
წარმო ადგენ
ბაგრა ტ
ნ ას
პა პი
შემდგო მ
ო ზ
შეთ ან
ია პონ
რ ებულ
ჩ ემ
გამო ყენ
ნ არ
ეკ ლე
პ უ
ხ აზ
ოფი ცი
უ მის
წყვე ტი
ებ ამ
დგ ება
ო ვი
რ ას
ი ორ
შემადგენ ლობაში
e t
ალხ ო
სახ ალხო
ცხოვ რების
ე ში
გამოცხად და
შ ავი
ც ალ
t he
ვ არს
ავ ად
ქალაქ ო
წ ვია
კ არი
ს რულ
ბ ახ
დ ები
დი მი
ჯ ონ
უკანას კ
ბატ ონ
მოიც ავს
ბერ ძნ
ბ ულ
ნი ადა
ხ ალ
199 0
ფედ ერა
სა გან
200 9
ახ ლ
კ ალური
გ ონ
კვ დი
სი კვდი
დ გა
ს ული
200 4
ნი დერ
ნი გერი
ხელოვნ ების
სა ი
ელ ში
პრი ნ
ჯავ ახ
რეგი ონი
ავსტრალი ის
პი რობ
კულტურ ული
ჯ არის
გარდაი ცვალა
ღ მ
ფ ეს
იწყ ება
ავტონომი ური
ატ ურა
იაპო ნიის
ნა ც
კ ები
ე გ
ებ ებს
ების თვის
კ ად
რუს ული
200 5
მდგო მარე
დედო ფ
ქ ტი
ყოფ ა
ემ ბერს
ნი დან
ხ ოს
ჯ ორ
ფიზი კოსი
ჟურნ ალის
ც ენ
დამოუკიდებ ელი
ლო მე
ერ ეკლე
ინდო ეთის
ნა ში
ლა პარა
უძ ნ
ალის ტური
რი დან
მ შენებ
ყვ ანი
პ ლო
ა ჭ
რო მა
ცი ების
ეკუთ ვნ
გრძ ელ
is t
თ ქ
პრეზიდენტ ად
მი ან
კ ების
პ ლ
თ ეთ
გური ელი
გაერთიან ებული
გ ორის
3 5
დი ოდა
სხვ ავ
ჯ დო
ორ გან
გარდაც ვალ
რ და
კ უთ
en t
ვ ების
იმა ვე
კ ოვ
მ კვლ
მა გა
ი უ
კონ ტინ
ც ვლი
მონაცემ ებით
ბი ბლი
არ ცხ
მხ არის
ამა ვე
ლ ონ
სისტე მა
ობის ა
r e
a m
ისა გან
ფ ას
200 7
წი ა
უ ხ
ენა ზე
ეკონომი კა
ჰ ან
ცხ ლის
კ ანი
ბ აქ
არს ებული
d e
ტ ებს
დადი ანი
ღ უ
უს ის
შე ქმნა
ება ზე
20 11
ზ ღვა
ე ულ
კრი ტი
წერ ეთ
მო მხ
გა ერ
ხორ ციელ
მაგა ლით
ამ ედ
აღმოსავლეთ ით
XV III
X X
მთ ის
შტა ტი
ნ ად
წით ელი
ძალ ა
ევროპ აში
ს კი
დედა ქალაქი
სწ ორედ
ევროპ ული
ქალაქ ში
მინის ტრ
ინ სტიტუ
განათ ლების
დიმი ტრი
საბ ოლო
უძველ ესი
ტ ას
ც დი
ლობ და
ლა ი
გან სხვავ
გავრცელ ებული
ერის თავი
ტემპერ ატურა
ცა ა
თავ მ
ანდ ელი
გეოგრაფი ა
საკ მა
მილი ონი
ნიშ ნა
კლ ასი
ვ ნის
დი პლო
ხვ დება
სკოლ ა
ში ძე
სახელ ობის
მაი ორი
გა ზ
T he
სა ქმე
გა მარჯვ
პი რა
20 12
მუსი კოსი
ტ ალ
სა აკა
საუკუნე ების
ე დან
ხ ანის
უ არ
მ ეთ
ი ძ
გარი ბალ
ნა ძე
ათ ას
უ წოდ
რავ ლეს
უმ რავლეს
ჩემ პი
ხში რად
ატ ები
მო ლ
ლებ ები
ახ მად
საუკუნე ებში
ხ ევ
ფ უძნ
წ ლები
ფორ მ
ტ მა
ენ ე
უკანასკ ნელი
ონ ები
ვლ ება
ულ ება
პარლამ ენტის
უ ნა
20 00
კერ ძ
დგ ენი
ზე და
შე დგება
ამერი კის
20 14
თავმ ჯდო
კავში რი
ი დე
დ ერი
შე მთ
ვლ ა
მეთა ური
ქართველ თა
დინ ას
გა ზრ
შეთან ხმ
ბუნ ებრივი
თან ახმად
წერ ის
წერი ლი
სოლო მონ
ნიდერ ლანდ
დი ნა
გ ვის
ეს ო
ულ ა
ჩ ო
კ ეთი
ყ ა
შემთ ხვე
9 0
ქვეყნ ები
მუ ხ
სა თავ
ობ ების
გარდაცვალ ების
ექ ტრო
პორ ტუ
ხელისუფ ლება
ჟ ინ
გმი რი
რ ძ
ჩინ ეთის
ობ ამ
ვი რ
მი მდინარე
რომელ შიც
ო კე
ჩ ევ
შ ერ
სა გარე
პო პულ
ხელმძღვან ელ
სტ რა
ფართ ო
პ ლა
მ ელი
მაღ ალ
ც ესი
კლ არჯ
სტ ალი
ოფიცი ალურად
წყ ლის
ელ ექტრო
უ ცხო
დამოუკიდებ ლობა
არ ეს
ლიტერატ ურის
თე ორი
ბრძოლ ის
მი ე
ად მი
პორტუ გალი
კინ ო
ცი ხის
რეგი ონის
კო მი
ობა ზე
პრო ტეს
წ ოდა
გაერ ოს
ი ერ
ქ ის
კინ ორე
ეთნი კური
მუზე უმი
გ ელ
ამ ისა
ცალ კე
ცი ულ
200 6
თხ ოვ
დონ ე
უბ ერ
საზოგადო ების
ე გვი
პუბლი ცის
სამეგრ ელ
საკმა ოდ
გ რე
მო ც
სოფ ელი
მო ქ
ფილოს ოფ
პრეზიდენტ ის
ტექ ნი
მ პი
ობ რივი
ერ ალური
3 3
ლო მ
ბა ზ
ისრა ელის
კ ალი
მე ტყ
გ ვა
192 1
ან დი
ნავ თ
პ ური
გვ ხვდება
u t
ვ თ
მო გზა
კათოლი კური
გენერ ალი
19 18
კინორე ჟისორი
დასახ ლებული
გად მო
ბი ლი
უს ტ
კომ უნის
ჰ არ
ენ ერ
კ ლო
ბოლ ოს
ხ ატ
სა ლი
ფ რ
ვი ლ
შემო ქმე
ბატონი შვილი
ველ ის
არქე ოლოგიური
r o
ნი უ
შე საბ
მო ა
ლობ ას
ჯ არი
ქ ა
ეთის ა
მხ რივ
რევოლუ ციური
განათ ლება
გამო ს
სა ყ
გე გ
წმ უნ
გი ის
ლო ვა
მა ტურ
კულ ტურა
გან ს
რელიგი ური
პ ოსი
ექ ტი
ქორ წინ
s t
შ არ
კ ედ
ვლად იმერ
ბ ენ
ქიმი კოსი
ისტორი ულ
რად გან
დი ალექ
მ ენ
3 1
ოლი მპი
ერ ების
ზ ონ
მ სხ
მაში ნ
და თან
ზი ა
ნავ ს
შტატ ის
ჟ ან
ე ი
ბ ორის
უნი დან
ან ონ
გამოი ყენ
დასავლეთ ით
ლა ძე
ულ ობა
l e
ღვ თის
ხ არის
ცხად ებს
ტრან სპორ
გერმან ული
ელ ებს
პოლიტი კურ
პატ არა
მთავ რობა
ერთ ეული
აღნიშ ნული
ნ ოს
მ მ
ქვეყნ ების
ადგი ნა
1 00
ინგლის ის
პე ტრე
სრული ად
ბევ რი
ურ ები
სოცი ალისტური
უკრა ინის
ლაურე ატი
რი ლი
თან ხმო
200 3
ობი დან
გენ ტი
წერეთ ელი
ზამ თ
ბ ად
ეკუთვნ ება
ახალ გაზრ
არგ ებ
წ მი
წლი ური
ნა წარმო
საბ ერ
საქ მიან
ი ური
ესპან ელი
მუ შავ
გარ კვე
შესაბ ამის
ბ ოს
ს ტე
ფილოსოფ ოსი
გ ული
საუკ უნიდან
ვ არა
ორ ბელი
დასაწყ ისში
ნ ელ
რ ესი
ებ ელ
საბერ ძნ
ისტორი ის
მშ ობ
მა ქსი
ვ თი
კუნძ ულები
199 2
და ტო
გ ოს
ღ ოლ
რ ადი
დ ებით
გ ების
მ რეწველ
ან ო
ლ ას
უნივერსიტე ტი
ჯ ო
შ ები
ცხოვრობ ს
ელ ებმა
ქართ ლ
დარ გში
სამო ქალაქო
მთავ არ
გიორ გის
ატ ორ
ჩრდილოეთ ით
პრო დუ
მაგალით ად
ჩამოყალიბ და
ზაფხ ული
რო ნი
წარმო შ
XV II
და ბრუნ
მა ვალი
საზღვ რება
აღი არ
ხ არ
ომ ში
ოგრაფი ა
მა ის
7 8
დიპლო მატი
სახელმწიფო ები
ერთ მან
მეფ ეს
ნიშ ნავს
ის თვის
ესპან ეთის
მო ახ
მო ე
ლუ ი
რუ მინ
სამხრეთ ით
რეგიონ ში
კ რე
ვ ამ
ინ ჟინ
სტ ატ
გამო ც
თურქ ეთის
განსაკუთ რებული
ტ ოლ
უნ გრ
სამხრ ეთი
პ ინ
მთ იან
ს უბ
მც ენ
ნო გრაფი
ა მასთან
გ უნ
ვ ებს
კა შვილი
პყ რო
ანი ძე
ლაურე ატები
ე საზღვრება
წყ ვი
ფეოდა ლური
მეცნიერ ო
ჩ ანს
წარ მატ
ვარ დ
კვ ეთ
შ ალ
ტ ანის
ხ ანი
ურო ბით
ზურა ბი
კინ ის
სა მეცნიერო
არ ჩი
ხელოვნ ება
ენ ცი
ქართველ ები
აქ ედან
რის ა
ელ ჩ
სი მონ
დასრულ და
მუნიციპალიტე ტში
ვაჭ რო
მა ლე
ნ ალექ
ყ ოს
ას ული
აღნიშნავ დეს
საგარე ო
ბერ ში
ძალი ან
გრ ძლი
ე ები
ამ ჟა
ფ უნქ
სას წავ
ენ ას
დ ებს
სა სამართ
და წყ
რუ ქ
ზოგი ერთი
ჯ ილ
პუბლიცის ტი
ტერიტორი ული
ცნობი ლია
სახ ლის
ღ რ
ბ რის
ჰ ოლ
კ ოვის
მუნიციპალიტე ტი
ერ ე
მეტყ ველ
ხან გრძლი
თავისუფ ლების
კ რის
შესაძ ლებელი
მ ტ
აკად ე
ად ო
თარი ღ
სა ქმ
ავ ტორი
ტ ელი
ლებ ების
ჩ ვე
4 5
სა ვაჭრო
სო ნი
კან ონი
წ ად
ფ ლი
ღ ო
სად გური
მო კლ
ოქ როს
სო ციალური
ენტ ური
შე ვი
i v
ბ ავ
განვითარ ებული
ლათინ ური
ინ დი
ერის თავ
ზი თ
ელი ა
უნივერსიტე ტის
დაკავშირ ებული
ი ურის
რუს ეთი
ხევ სურ
გზ ის
გავლ ენა
მეფე ები
in g
პე ტერ
სოფ ელ
შე ვიდა
გადა ვიდა
სო მე
უ ილი
ცენტრ ალურ
რ კინი
ფრანგ ული
სიტყ ვა
კი რი
ულ ებული
სპორ ტს
ეროვნ ულ
აღმო ა
ბიზანტი ის
ურ მა
აღმოსავლ ეთის
წ ვერ
სტატ უსი
ზ არდა
ხასიათ ებელი
ოს ნ
V III
ი მისა
პატი მ
კის ა
გ ლე
წლი ანი
ის ტი
ფ ესი
X II
შე ადგენ
და წეს
ჩრდილო ეთი
კომი ტე
არ ში
ტრო პი
ჭ ავა
გ ულის
მ ერი
მეცნიერ ებათა
შესაბამის ად
ს ს
კოლო ნი
გადა ს
ირ ლანდი
პ ავ
ჩ არ
სახ ით
უკავ ია
შ ვ
ობ ენ
ლიტერატურ ული
ყო ველი
ინგლის ური
ვალ ის
იქ ცა
ელ ისა
3 6
შ რო
მ წერი
არგმ ნელი
მი ზე
ი რა
ფ ლორ
ავ ჭავა
ჭ ავჭავა
ორგან ო
გადა წყვეტი
საფ უძ
გან ხორციელ
შვე იც
მეთა ურობით
ისტორი აში
ყ ინ
წელი წად
მთ ელ
ჯ ის
აშ ენ
17 6
ზრ უნ
აბა შიძე
ბრი ნ
ენ ოვანი
რ დ
ეგვი პ
ეს ტონ
პ რა
ტაძ არი
შ ვა
ნ არი
ჰ ავა
ხალხ ის
ტყ ის
იძ ულებული
დავით ის
რო სი
ინ ფორმა
რობ ერ
მთ არგმნელი
პერი ოდი
მი ეკუთვნება
მა ჩვენ
დამა ხასიათებელი
თან დათან
მა ინ
ჭი დრო
მოკ ლე
u m
ით ვლება
ეპისკო პოს
თე ოდ
20 13
ანი შვილი
საფ უძველ
გამოი წვია
გა იმ
კავ ა
ცხო ველ
ლ ერი
საფუძ ველი
ებ რივ
სამთავ რო
დი ან
დაკავშირ ებით
თა ლი
ბრიტან ელი
თანამ დებ
მო ქალაქ
იღ ებს
ა ცხადებს
194 5
იაპონ ელი
აღ წერის
მუს ლი
I n
ტ ვი
ენ ს
ბუნ ების
მ ცხ
მი ანი
არ გენტი
და ნა
მათემატი კოსი
სა ბა
ოდი შის
ღუ პა
4 8
რი ხ
არქიტექ ტორი
ენ ათ
უკავ შირ
ა ა
მმართ ველი
ო თხ
თებერ ვალ
ქედ ის
დო ნიდან
ან ეს
სი ა
ღ ონის
დაი ღუპა
ათ მცოდნე
X III
საბოლო ოდ
აღ წია
მთლი ანი
ლ თა
გ ურა
ხალხ ური
ასტრო ნო
ვ რ
ზ არ
ტერიტორი ები
ეკ ონ
მუ დ
ზო მიერ
იყო ფა
ტ ბა
ვ ენი
პიროვნ ებათა
ებისა გან
ტ ორის
წარმოადგენ და
ულ ს
პრო ცეს
პიროვნებათა განს
დაამ არცხ
ამი ტომ
ხ ელს
ან თ
საფრანგ ეთი
ფერ მწერი
ულ ებით
ლე ქს
რობ ას
ქრისტიან ული
ფ ოლ
ყ ვარ
მო წამ
პარტი ის
პ ენ
ც ვლ
ერთი ანი
გაიმ ართა
შე ერთ
დე მო
ას ეთი
არ ამედ
ხ ები
ებულ მა
ჰყ ვა
ლის ა
ბ ედ
ყვ ანა
7 5
მედი ცი
ამჟა მად
ე ტ
მილი ონ
ობ დნენ
შტატ ები
ყ არა
ან ების
ოლოგი ის
კ ში
ურ თან
რო ლი
წევ რები
ჟურნალის ტი
ირ ჩე
მაინ ც
მიზ ნით
უ ბი
გადა ი
მო ლო
ღვ თა
არჩევ ნ
ქ ტორ
მოს კოვის
ბ ანი
კან ონ
უ წყ
ნი ნო
ნაწი ლს
ი ყოს
რო გორი
მ ღვ
სამ ყარ
რა მაც
სამეგრელ ოს
წელიწად ში
დღე მდე
გარკვე ული
XV I
პრო გრა
კლი მატი
მალ ური
ც ოდ
და თ
ყ ენა
ქ ანი
კუნძ ული
a d
მთ იანი
ჯ ვრის
გი ული
ელ ობის
20 15
ს ტა
ცნ ობით
ხ ეს
ერ ს
მნიშვნელ ობა
ვა კე
at ion
წარმოშ ობის
პოლ ე
მიღ ებული
უკრა ინ
დ ონის
მო ნი
ზი ის
აქ ვე
სი მაღ
ან ტონ
შე დის
მორ ჩი
მ ების
V II
ფ სი
ტ ლანდი
ეკუთ ვნის
წყ ალი
შე დიოდა
ცე მა
კ არის
შემო რ
ლაპარა კ
ქმ ნის
ე პო
დ ოლ
არჩევ ნები
ძ ენი
დრა მატურ
გრაფი ა
მეურნე ობის
ათ ი
კომპ ანი
ზაფხ ულის
წამ ყვანი
ნა პოლე
სი ცო
არაღ ებული
ხ მა
რუს ეთში
უ არი
ავი და
მეცნიერ ების
თავისუფ ალი
ექ იმი
კო ნი
მონ ღოლ
ეთ სა
გი ნ
გადა სახ
ძეგ ლები
კონ ფლი
პა პ
ინდ უს
შეი არაღებული
ძალ ების
ღმ ერთ
მე დ
ბ არა
ჭ ირ
ი ყენ
კარ ლ
ალექ სი
გაუ ქმ
ი ული
ეკონ ომის
3 4
აღ დგენ
ქართ ლში
ფორ მები
