t h
i n
e r
a n
th e
o n
e d
o r
a t
r e
e n
a l
a r
a s
i s
o f
e s
an d
in g
i t
t o
i c
o u
i on
s t
h e
r o
l e
en t
a c
s e
i l
o l
a d
f or
a m
o m
w as
l y
b e
c h
i r
u r
d e
i m
v e
t er
i th
T he
o w
at ion
i g
a y
u n
w h
w ith
v er
th at
c t
c on
er e
u m
c e
u l
o t
a g
e l
i d
b y
e t
a p
h is
1 9
p l
u s
u t
t r
p ro
re s
e m
a in
er s
l o
c om
n d
s h
al l
s u
a b
0 0
w ere
i es
is t
o d
ro m
i v
es t
or d
e ar
o p
a re
f rom
at e
is h
e x
ar t
I n
an t
en d
i f
th er
p o
ig h
s o
ic h
e w
at ed
a f
b er
or t
t e
a v
m an
a k
p e
p er
r it
c l
i p
g h
on g
i ve
ar d
l d
es s
am e
il l
m ent
it y
ou nd
h ad
ac t
wh ich
i an
ow n
ou gh
i al
i a
q u
st r
p r
ou t
on e
g r
o ver
m o
C h
ac k
h er
p t
u d
ou r
t w
p ort
n ot
l i
c r
ar y
as s
a ve
igh t
i de
2 0
in e
in t
it ion
or k
d u
o c
g e
for m
b ut
2 00
a ir
al so
the ir
o g
it s
a w
e v
t im
re c
f ir
ic al
as t
ac h
ig n
r an
or e
S t
u p
pl ay
ou s
ct ion
ol d
at t
ou ld
H e
p art
un d
b o
u b
p res
l ow
n e
om e
ur ing
at er
u re
fir st
wh o
h as
o ther
T h
ar k
s c
of f
po s
v i
u e
ou n
k e
ation s
20 1
ul t
i re
s er
b um
th is
i b
l l
d is
al bum
c re
it ies
g od
A r
m on
tw o
ag e
an s
sh ip
or y
i ed
h ave
con t
en ce
re e
f e
as on
be en
s he
it ed
af ter
c o
y ear
in d
al ly
ord an
J ordan
o k
a u
d es
p h
ad e
i le
p re
1 8
tim e
el l
P ol
it e
m e
I t
ar ch
l and
i z
i e
c ed
m ain
und er
u st
com m
com p
c k
r on
f er
ol og
ap p
S h
le as
ent s
in ter
l es
se ason
th ough
B rit
an ce
ic t
il m
m ore
re g
the y
in cl
l ar
r ough
w ork
s p
rec ord
U n
ab le
al s
c ent
ub l
s ing
f l
r u
an n
c ess
con d
A n
ic e
mo st
n ew
d uring
re t
R e
re leas
p ubl
in to
ct ed
c es
g an
f in
ur n
m in
ion s
ing s
t en
s on
F e
v ed
s pe
il d
e ver
f ilm
ar r
19 9
the m
t ed
incl ud
us ed
ul ar
a il
be ing
w ould
er ed
ac e
h im
ic k
n o
m y
j e
us ic
ation al
w e
D e
pro du
for e
he el
W heel
Wheel er
s y
Brit ish
er man
en er
g o
god s
T own
s k
c ame
se l
G erman
on ly
po int
c ial
at es
str u
or s
g ame
r ed
o b
s ome
h igh
n um
ul l
t s
th rough
e olog
on y
p ol
S e
th ree
a eolog
f our
or th
I nd
re n
ter s
s ion
m er
pres ent
se cond
con s
w ay
t y
at ing
m ber
s ong
af t
Pol ish
b as
N o
ish ed
d r
wh ere
te am
an g
wh ile
ard s
je ct
su b
v is
u se
Town s
Towns end
am es
Y ork
l ed
w rit
ch ar
a th
g y
in s
A s
re l
ab out
o y
ag ain
su ch
ter n
the n
c er
r a
l ater
i el
p ed
e le
S he
re at
ou th
an y
t on
c i
ak e
e en
Ch r
ol low
m ade
his t
th an
i ous
ar m
or ld
ro w
A l
man y
num ber
be fore
publ ic
wh en
n ing
a z
i x
ch o
E gy
Egy pt
le ad
s ed
I I
e f
O n
re main
ic an
m em
c ol
Chr ist
i ver
t ain
a id
s ur
w ar
m as
Un ited
p ers
d ay
b all
b ack
m et
m is
i o
s ign
the se
bo th
ic s
c lo
b u
se ver
ow er
00 0
ant im
l ong
k n
releas ed
th ere
op er
ist s
C om
il y
includ ing
f ollow
or ed
o st
de ities
m usic
iel d
if ic
w ell
tw een
be tween
year s
cr aft
cont in
app ear
is ed
iv ed
lo c
st ate
arch aeolog
c an
gr ound
li ke
u al
o se
Fe y
d o
f t
N ew
b r
id ent
over n
en s
v ol
on d
A f
o s
be gan
Af ter
ear ly
be came
su p
it t
ou p
o h
pos ition
b ers
en g
ar s
or n
L e
Egypt ian
off ic
c ould
ill ion
antim ony
al e
ser ies
char ac
fe at
u res
c ord
c oun
B l
ire ct
Christ mas
ir ed
ad d
19 8
air craft
ak ing
all ed
st ud
W h
f ield
ur ed
c av
sever al
act ion
sel f
se t
st e
ion al
re present
ret urn
port ed
s ide
T his
v ar
f ul
vi ew
if e
w in
A t
m a
cl ass
des ign
represent ations
am p
to p
oc k
d ol
a h
C l
at ive
overn ment
dol lar
on s
ro s
h um
kn own
c cess
su ccess
cho ol
follow ing
re ce
g old
19 4
o ot
A u
tr ans
c over
ship s
ex t
present ation
design ations
m illion
ment s
f ound
Com position
found ations
design ation
ener al
ow ever
ag ed
et s
g un
again st
cord ing
l ight
end ed
ig in
per i
it ut
st itut
ident ities
trans ition
transition s
im position
ener ations
g enerations
ur y
e k
or igin
ve lo
de velo
is position
D isposition
form ations
port ations
de portations
present ing
E n
ener ating
g enerating
record ers
c rit
he ad
al k
is e
as h
et y
x position
E xposition
all ations
st allations
in stallations
olog ation
om ologation
h omologation
ment ation
le mentation
p lementation
m plementation
I mplementation
follow ers
cess ation
trans ited
ant ations
pl antations
ter ations
al terations
cre ations
reg ations
g regations
con gregations
found ered
not ations
con notations
tern ation
In ternation
inter ment
end ations
comm endations
re commendations
ser v
iz ed
v en
C on
m ed
all ation
st allation
in stallation
act uring
f acturing
u facturing
man ufacturing
min ating
ter minating
ul minating
c ulminating
on ations
d onations
im ported
end ation
comm endation
re commendation
us ations
c usations
ac cusations
per ating
O perating
ell ation
st ellation
con stellation
ark ation
b arkation
em barkation
dis embarkation
de ported
cav ating
ex cavating
tr action
ex traction
Re ported
ens uring
field ers
id fielders
m idfielders
d am
c ar
not ation
coun ters
en counters
ip ations
ic ipations
part icipations
ol ations
vi olations
pt ations
em ptations
T emptations
found ing
iv ations
ot ivations
m otivations
an ations
em anations
ven ating
u venating
j uvenating
re juvenating
oc ations
L ocations
ship pers
or shippers
w orshippers
und ation
in undation
ton ating
de tonating
ass uring
ult ation
cons ultation
Re action
fin ation
le fination
o lefination
ance ment
v ancement
ad vancement
ort uring
t orturing
br ations
le brations
ce lebrations
irect ing
d irecting
vis ation
pro visation
im provisation
ence ment
comm encement
ter state
In terstate
ber ating
li berating
all uring
in action
il ations
comp ilations
ens ation
s ensation
char ters
ot ations
qu otations
act ition
pr actition
ation ing
st ationing
ton ation
de tonation
ur ported
p urported
ar ations
p arations
pre parations
ition ing
cond itioning
loc ating
re locating
cover ies
dis coveries
tr ations
is trations
min istrations
ad ministrations
art ition
P artition
pro state
in es
de c
im e
C ol
a i
s m
add ition
clo addition
y cloaddition
c ycloaddition
cycloaddition s
addition s
im ation
an imation
n ations
vis ions
pro visions
ball ers
oot ballers
f ootballers
ong ated
el ongated
land ers
s landers
I slanders
ru ition
f ruition
ine ered
eng ineered
but ions
i butions
tr ibutions
con tributions
ject ing
sub jecting
re jecting
f action
is faction
at isfaction
s atisfaction
dis satisfaction
act ured
f actured
u factured
man ufactured
pe ating
re peating
el ation
R elation
coun ted
ac counted
not ions
ific ent
n ificent
ag nificent
m agnificent
M agnificent
ame ters
ar ameters
p arameters
ific ate
t ificate
er tificate
C ertificate
iver ted
d iverted
ens ions
im ensions
d imensions
P ensions
ass ured
g ations
le gations
al legations
ro gations
inter rogations
ield ing
sh ielding
y ielding
am ation
cl amation
pro clamation
ac clamation
ip ating
ic ipating
part icipating
s ipating
dis sipating
end ered
g endered
cent red
ort ured
t ortured
fe ction
per fection
af fection
affection s
arr ated
n arrated
sh aking
ould ers
sh oulders
b oulders
orn ered
c ornered
l ations
trans lations
is lations
g islations
le gislations
part ing
de parting
cord ers
am corders
c amcorders
ther ers
a therers
g atherers
s gatherers
new sgatherers
man sion
mas ters
ime ters
cent imeters
ill imeters
m illimeters
ci ating
so ciating
as sociating
As sociating
tern ate
Al ternate
st uring
po sturing
fl ation
in flation
war ning
ar ating
p arating
se parating
cons ent
re ating
T reating
t reating
ol ating
is olating
s olating
I solating
itt le
stru ction
play ed
op le
at ch
ag ue
l ay
tr y
al though
ict ated
d ictated
pro ject
spe cted
in spected
ag ation
p agation
ro pagation
P ropagation
ll state
A llstate
os ition
P osition
ome ters
ron ometers
ch ronometers
itut ion
est itution
d estitution
low ered
leas ing
p leasing
oc ating
v ocating
ad vocating
heel ing
w heeling
arch ies
er archies
i erarchies
h ierarchies
rec ited
v ations
no vations
in novations
ater ing
c atering
ost ered
f ostered
s ations
ver sations
con versations
reat ies
t reaties
ill ions
m illions
rec ated
p recated
de precated
ter ions
coun terions
ent ment
res entment
iv ation
ot ivation
m otivation
ion ment
us ionment
ill usionment
dis illusionment
cer ated
car cerated
In carcerated
sion ers
is sioners
comm issioners
M illion
form ers
per formers
tr ident
am ities
al amities
c alamities
est ment
v estment
in vestment
pers ing
dis persing
row ning
d rowning
im ating
est imating
ast ated
v astated
de vastated
cess ing
pro cessing
ass ment
ar assment
h arassment
fe ating
de feating
team ing
ult ured
c ultured
under ed
pl undered
ason ing
re asoning
ind ered
h indered
man ning
ach ment
att achment
con ning
lo ating
f loating
over ing
rec overing
Brit ons
tern ing
at terning
p atterning
col ated
per colated
ign ated
es ignated
red esignated
ve ction
con vection
and ated
m andated
fl ating
in flating
ally ing
ort ions
P ortions
an ation
pl anation
ex planation
ound ers
p ounders
ough ing
c oughing
ext ured
t extured
sing ers
id ating
im idating
int imidating
dr ating
y drating
h ydrating
De hydrating
c ations
ot ation
fl otation
gr ation
te gration
in tegration
dis integration
to disintegration
o todisintegration
ph otodisintegration
back ers
br ation
le bration
ce lebration
id ed
c ut
cut ions
e cutions
ex ecutions
st and
stand ers
by standers
des cr
iver s
dr ivers
ve mber
No vember
er ters
des erters
es erters
D eserters
ur ated
g urated
au gurated
in augurated
c urated
qu ered
con quered
vis ing
per vising
su pervising
ad vising
um bers
N umbers
it ters
em itters
l itters
orn ers
c orners
aft ing
dr afting
lo ated
f loated
f ident
con fident
mis ing
pro mising
es pers
k espers
po kespers
s pokespers
ick ers
V ickers
re cted
ur rected
res urrected
or rected
c orrected
new ing
re newing
ab ited
h abited
in habited
gr ated
te grated
in tegrated
br ated
le brated
ce lebrated
us sing
c ussing
dis cussing
Re cent
em ated
as emated
c asemated
min ate
ter minate
de terminate
in determinate
er minate
g erminate
ull ion
b ullion
low ing
f lowing
s lowing
ult ies
ic ulties
f iculties
if ficulties
d ifficulties
ion ate
port ionate
pro portionate
app ers
r appers
w rappers
R appers
and ers
comm anders
ut ions
vol utions
re volutions
a utions
rec autions
P recautions
ann ers
pl anners
loc ate
et ters
F etters
L etters
as ured
me asured
re asured
t reasured
ary ing
v arying
ick ing
p icking
er picking
ing erpicking
f ingerpicking
K icking
it ored
mon itored
un monitored
cut ing
se cuting
per secuting
e cuting
ex ecuting
on ored
h onored
are ers
c areers
E state
ul sion
p ulsion
pro pulsion
arm ing
f arming
B arming
ind ers
l inders
F linders
ex ited
ail ers
ret ailers
ur pers
us urpers
M aking
arm ies
reg ate
g regate
ag gregate
he ated
an ions
te ered
un teered
vol unteered
in ed
on es
so ci
soci ate
as sociate
ci ation
un ciation
on unciation
pr onunciation
F or
g g
hist ory
ur sion
c ursion
in cursion
and ons
ab andons
he ment
ve hement
Com ing
ish ion
ishion ers
ar ishioners
p arishioners
t uring
ap turing
c apturing
orn ate
ass ion
p assion
ill ies
G illies
er cent
P ercent
g ating
ul gating
m ulgating
pro mulgating
ast ion
b astion
the ons
an theons
P antheons
ive ted
r iveted
inter s
pl inters
s plinters
ous ing
h ousing
ain ers
tr ainers
l uring
in cons
ign ers
fore igners
s ident
is sident
D issident
at ured
m atured
ess ons
l essons
it ment
u itment
cr uitment
re cruitment
l ating
is lating
g islating
le gislating
ing ent
str ingent
ap ered
t apered
e ating
ard ers
o arders
h oarders
ic ited
ol icited
s olicited
fe ited
ter feited
coun terfeited
fl ated
in flated
ic ions
p icions
us picions
s uspicions
ure ate
a ureate
l aureate
ell ers
S ellers
or ment
orment ed
t ormented
arr ate
n arrate
od ated
comm odated
ac commodated
am ored
en amored
ull ers
C ullers
c Cullers
M cCullers
al ters
W alters
ig ated
est igated
v estigated
in vestigated
ard ent
r ivers
arr ies
c arries
ing ers
f ingers
ork ing
W orking
tr ated
es trated
ch estrated
or chestrated
cr ated
se crated
con secrated
ag ment
r agment
f ragment
est ate
dr ated
y drated
h ydrated
de hydrated
ors ers
end orsers
se ment
or sement
end orsement
ig ured
f igured
ers ons
P ersons
ll ment
ro llment
en rollment
aid ing
ers ion
m ersion
sub mersion
ort ies
s orties
tim ing
d ivers
un ters
h unters
me ters
arm ers
f armers
sh ored
ac cent
ost ers
P osters
ith ers
W ithers
ater ed
c atered
qu ited
re quited
un requited
rel ent
ut ters
g utters
itt ent
m ittent
inter mittent
ust ing
j usting
ad justing
alk ers
W alkers
um ored
r umored
ay ment
p ayment
b ating
de bating
art ies
P arties
our ing
p ouring
ver ing
li vering
de livering
ong ers
M ongers
ort ing
c orting
es corting
em bers
M embers
s ition
ran sition
T ransition
mon ion
the monion
an themonion
ig ment
p igment
cre ted
ex creted
ign ies
ap ignies
S apignies
ac ated
v acated
C ities
ath ies
p athies
m pathies
sy mpathies
ur al
pl ac
A ll
con tr
s aid
M ay
c ur
cur ities
se curities
in securities
ur ities
p urities
im purities
cur sing
ur sing
n ursing
b ursing
dis bursing
cur ate
ac curate
J oh
Joh n
op ers
ro opers
t roopers
ock troopers
Sh ocktroopers
T roopers
d ered
ur dered
m urdered
r dered
O rdered
t ters
le tters
sm all
et ent
comp etent
ty ing
um ent
ument ing
oc umenting
d ocumenting
on ument
M onument
un ate
t unate
for tunate
un fortunate
Un fortunate
b ated
de bated
er bated
ac erbated
ex acerbated
ed ate
pr edate
as ers
ch asers
el ted
m elted
el ers
ew elers
j ewelers
oc ent
n ocent
in nocent
m ated
cre mated
to mated
au tomated
our ed
on oured
h onoured
av oured
f avoured
it ers
up iters
J upiters
c cent
e ccent
f ured
if fured
co iffured
od ate
comm odate
ac commodate
af ted
dr afted
ar ons
B arons
m ired
ad mired
her ed
ad hered
us hered
then t
au thent
br ate
le brate
ce lebrate
gh ing
au ghing
l aughing
cr ing
c cring
A ccring
id es
g ust
gust ed
K ing
de p
s is
bo ons
m ored
Ar mored
p ower
tr ack
ist ed
tw isted
o isted
h oisted
ll ent
ce llent
ex cellent
ip ted
cr ipted
cons cripted
car ed
r ered
sk ate
cr ate
at ons
m atons
to matons
au tomatons
y sing
al ysing
an alysing
ex ies
S exies
o sing
cho osing
ur red
l urred
b lurred
il ate
h ilate
i hilate
ann ihilate
en ies
g enies
A ment
sc ent
ll ies
be llies
L ions
ur ers
act urers
f acturers
u facturers
man ufacturers
us ies
b usies
ir ons
v irons
en virons
ir ies
qu iries
en quiries
vi ate
le viate
al leviate
lar ed
f lared
ab ies
oc ate
v ocate
ad vocate
in ies
t inies
om ers
i omers
ant iomers
en antiomers
ac ate
on acate
J onacate
ci ers
an ciers
fin anciers
at red
h atred
ad ies
l adies
it ate
il itate
ac ilitate
f acilitate
ub ers
A ubers
sk ies
in ers
l iners
cl ing
ir cling
c ircling
an ate
ult anate
S ultanate
W ired
ek ers
se ekers
at seekers
He atseekers
go ate
un ted
a unted
h aunted
sh red
el ent
R elent
j ored
ma jored
a ited
aw aited
st ion
au stion
h austion
ex haustion
p ions
or pions
c orpions
S corpions
at ies
he aties
W heaties
sp ate
or ent
L orent
er ent
B erent
he ted
oc heted
ic ocheted
r icocheted
fl ing
f fling
er ffling
D erffling
on ing
and oning
ab andoning
es ion
h esion
co hesion
as ies
cr asies
n crasies
sy ncrasies
io syncrasies
id iosyncrasies
n ated
car nated
ex carnated
b bers
ro bbers
St ing
he ers
C heers
sh ing
ud ent
r udent
P rudent
m bers
E mbers
go ons
up ies
c upies
oc cupies
po ons
am poons
l ampoons
ig ent
ell igent
int elligent
e ters
P eters
ul ent
b ulent
ur bulent
t urbulent
ll ers
se llers
est sellers
b estsellers
ol ing
co oling
dr ate
y drate
h ydrate
of ing
pro ofing
af ers
w afers
iz ers
id izers
x idizers
o xidizers
to ons
car toons
te ers
un teers
vol unteers
k ered
is kered
wh iskered
c alled
res ult
au se
ran g
rang ing
h al
hal ing
in haling
al ted
ex alted
c ause
ild ing
t ing
ron ting
f ronting
Con fronting
con fronting
but ting
re butting
was ting
cer ting
con certing
dis concerting
for ting
com forting
ren ting
el ting
m elting
il ting
qu ilting
un ting
H unting
ir ting
fl irting
l ting
be lting
t ting
le tting
A mer
c ult
st art
comp le
comple ting
le ting
dep leting
p leting
Com pleting
ain ing
dr aining
part ic
form ed
ce pt
cept ing
ex cepting
c cepting
A ccepting
F ate
om in
omin ate
ed ominate
pr edominate
omin ion
D ominion
D ion
l ine
H ate
f ing
sur fing
y surfing
sk ysurfing
ie fing
br iefing
de briefing
m ate
ast mate
c astmate
f ies
is fies
at isfies
s atisfies
N ies
P ent
n ies
un nies
f unnies
l ent
C ate
M ate
W ies
G ent
er n
g u
3 0
m b
pl ace
charac ter
sing le
res s
ou te
n ate
in nate
l ons
he lons
c helons
e chelons
S ate
S ons
N ing
V ent
v ate
ele vate
L ent
ut ed
m uted
trans muted
h ate
L ies
u ent
fl uent
in fluent
t ate
ro tate
k ies
S kies
G ing
B ent
f ons
de fons
l defons
I ldefons
p ies
op pies
P oppies
f red
Al fred
T ers
r ion
O rion
R ent
W ent
B ing
h ons
ak hons
N akhons
N ate
z ers
it zers
ow itzers
h owitzers
x ons
a xons
S axons
b ro
con struction
Re construction
rece ived
includ ed
r ound
d own
ib le
e ach
each ing
T eaching
f ive
m il
mil ing
S miling
c ap
ap h
h ers
is m
iv a
Sh iva
lar ge
ord er
a ther
ther ed
te thered
mo thered
s mothered
to ber
c tober
O ctober
s ame
in ce
il lo
j illo
ru jillo
T rujillo
d iv
ve l
1 0
mem bers
Ind ia
bo ok
book ing
om an
c are
p ar
ar ation
cl aration
de claration
to w
tow ers
w ers
ans wers
al ong
u ally
ap pro
il ity
or ing
col oring
ign oring
pl oring
ex ploring
x ploring
E xploring
on oring
h onoring
st oring
re storing
th oring
au thoring
cont ro
D uring
b att
batt ed
att ed
m atted
am ed
aw ay
oper ations
W ar
ur t
o od
1 5
d irect
pe ct
v ent
vent ions
con ventions
ent ions
int entions
ter vent
tervent ion
In tervention
Con vent
Convent ion
In vent
Invent ion
m ot
as e
f le
fle ction
re flection
in flection
inflection s
qu ad
to ok
be li
produ ction
g overnment
he l
i um
A ir
l a
releas e
av ing
gr aving
en graving
En graving
Sh aving
be com
w orld
N orth
est ed
att ested
if ested
man ifested
gu ested
ch ested
v ested
ar vested
h arvested
f ested
in fested
form ation
trans formation
pe ople
care er
m ark
mark ing
ark ers
B arkers
d if
d id
g l
N B
at ter
ap rang
S aprang
h and
l ess
p op
f am
n ational
iv ing
ce iving
per ceiving
gr aph
ev ent
fer ent
if ferent
und ifferent
dif ferent
pers on
ide o
le g
r y
ry ing
fer rying
C rying
ain ed
ly ing
app lying
ul lying
b ullying
re lying
p lying
end ing
comm ending
re commending
ext ending
int ending
off ending
Bl ending
f ending
de fending
s ending
vis ion
pro vision
vision ing
en visioning
per vision
su pervision
re vision
ro vision
P rovision
sc ored
ce mber
De cember
sh ow
c our
J an
p or
por ating
or porating
c orporating
in corporating
or ating
ab orating
el aborating
l aborating
col laborating
cav ation
if ied
use um
em ent
rang ement
ar rangement
bas ement
fin ement
con finement
ing ement
r ingement
f ringement
in fringement
for ement
forement ion
a foremention
az ement
am azement
g ement
ud gement
j udgement
or gement
g orgement
dis gorgement
st ated
cons id
consid ered
s chool
h ome
s ite
le ft
l ing
batt ling
rang ling
w rangling
Col ling
ing ling
m ingling
inter mingling
row ling
g rowling
att ling
r attling
ed ling
se edling
ne edling
aw ling
tr awling
ck ling
su ckling
it ling
ent itling
t ling
set tling
ut tling
sc uttling
z ling
az zling
d azzling
s ling
I sling
ex cavation
ir d
un g
r al
produ ced
bu ilding
ship building
re building
an other
gr oup
St ates
R ock
Rock ing
ock ing
H ocking
A c
quad ron
it ary
in cre
or gan
peri od
Au gust
y ing
med ying
re medying
ro ying
est roying
d estroying
od ying
par odying
b odying
em bodying
en ying
d enying
bu ying
cr ying
sp ying
L ying
v ying
j ust
ust ed
tr usted
D usted
op en
u ch
uch ing
to uching
b ar
B e
Be ing
re ported
ch ild
qu ent
quent ed
re quented
f requented
ar ound
with in
for man
per forman
k ing
mo king
s moking
un king
d unking
is su
l ife
at or
ros s
partic ular
av y
un e
f r
g ames
hum an
human ities
an ities
um anities
H umanities
publ ished
spe c
pr il
A pril
M ark
ib ed
descr ibed
ro y
un t
en n
G eneral
th ing
No thing
mo ved
not ed
R oute
ction s
spe ctions
in spections
ere ctions
ere ction
in ctions
ist inctions
d istinctions
an ctions
s anctions
je ctions
ob jections
an ction
s anction
in ction
ist inction
d istinction
u ctions
red uctions
p ass
t em
i er
ier ing
old iering
s oldiering
j or
p ur
o th
C ar
T r
Tr ies
Amer ican
ul ation
und ulation
ib ulation
Tr ibulation
im ulation
s imulation
ip ulation
man ipulation
it ulation
cap itulation
g ulation
Re gulation
point ed
p pointed
A ppointed
sc oring
ad ition
tr adition
us ing
am using
W orld
ap pointed
dis appointed
point s
Mark gr
re st
rest ing
st ored
ev en
c le
G A
origin al
iv ities
ct ivities
A ctivities
act ivities
ther n
ond on
L ondon
Com m
in fl
ro te
rote cted
P rotected
through out
v es
an k
ank ers
b ankers
k ers
un kers
J unkers
i kers
str ikers
S tr
NB A
e p
j o
appear ed
contin u
u ing
og uing
al oguing
at aloguing
c ataloguing
Un ivers
is ion
rec ision
p recision
l ision
col lision
ach ed
em ber
pt ember
Se ptember
ch art
chart ing
art ing
St arting
S outh
at ure
soci ation
L ittle
ical ly
The y
oun g
ag re
re ement
g reement
A greement
for d
we ek
201 3
pl an
es e
1 7
return ed
vi ous
pre vious
ut ion
r ight
urt ad
F urtad
Furtad o
fam ily
Ch ar
v ing
appro ving
cur ving
ol ving
ev olving
s olving
dis solving
r ving
I rving
o ving
M oving
s ent
dis sent
ab sent
em pt
att empt
l ate
S late
f ic
A m
in ation
incl ination
ord ination
co ordination
ag ination
im agination
am ination
ex amination
c ination
as cination
f ascination
r ination
ct rination
o ctrination
ind octrination
se quent
Con sequent
con sequent
pos ed
port s
ur ther
alk y
w ard
ward ing
re warding
un rewarding
J une
n ame
n ear
near ed
ear ed
f eared
i ety
F ran
1 2
record ed
ch aeolog
Ar chaeolog
mon ument
loc ated
be cause
th ird
ate ly
fin al
and er
ander ing
qu andering
s quandering
n amed
under ground
Ac cording
continu ed
fer red
s ferred
ran sferred
T ransferred
ist ing
pers isting
ins isting
und isting
comm er
commer cial
b and
in ch
l im
lim ination
E limination
im ination
cr imination
dis crimination
el imination
lo s
il t
ab l
est abl
a im
y s
mil itary
offic ers
tr aining
re action
lim ited
Brit ain
Th ere
in vol
vol ving
re volving
mon th
w rote
R oman
pro mot
mot ed
de moted
comm un
u ary
Jan uary
i but
but ing
de buting
i ent
ient ation
or ientation
ent ation
am entation
orn amentation
ip ient
rec ipient
at ient
p atient
im patient
ic ient
of icient
pr oficient
cl ient
en ient
l enient
ad ient
gr adient
iv en
ro pe
il ot
ilot ing
P iloting
success ful
g en
19 3
b us
S o
H owever
ver sion
per version
V alky
Valky r
Valkyr ia
ial ly
th ose
iv ate
act ivate
mot ivate
ma jor
M usic
bu ilt
Ind ian
form er
ar ed
cle ared
ill ared
p illared
sc ared
fr ared
in frared
ou se
om en
charac ters
sub sequent
ar g
b le
r um
sk i
f ig
P h
stand ing
long standing
sup port
lead ing
writ ing
song writing
ar ies
reaction aries
ument aries
oc umentaries
d ocumentaries
ivers aries
ann iversaries
ibut aries
tr ibutaries
ion aries
ict ionaries
d ictionaries
por aries
em poraries
cont emporaries
in aries
um inaries
l uminaries
en aries
c enaries
mer cenaries
m aries
um maries
S ummaries
i aries
med iaries
inter mediaries
of ten
u rope
E urope
pol it
As sociation
oper ation
co operation
im port
re al
real located
al located
real ities
al ities
qu alities
ine qualities
at alities
f atalities
po st
post ing
J ack
go al
200 7
Sh ol
Shol ay
19 5
er o
o sion
pl osion
ex plosion
A d
cre ated
it ted
em itted
p itted
ive ly
is ing
has ising
p hasising
em phasising
al ising
it alising
v italising
re vitalising
qu alising
e qualising
ic ising
crit icising
in ising
ut inising
cr utinising
s crutinising
on ising
ag onising
ant agonising
r ising
n ising
og nising
rec ognising
c ognising
Re cognising
t ising
ver tising
ad vertising
rel ig
ition s
fin itions
de finitions
De finitions
ped itions
ex peditions
nd itions
re nditions
ud itions
a uditions
is itions
qu isitions
ac quisitions
ent ion
cont ention
int ent
f lying
ree flying
f reeflying
app ing
cr apping
s crapping
l apping
over lapping
s lapping
n apping
id napping
k idnapping
r apping
t apping
lo ck
m uch
he ld
re ad
read ers
W est
re ak
i or
ior ation
ter ioration
de terioration
ior ities
pr iorities
ior ated
ter iorated
de teriorated
ior ate
ter iorate
de teriorate
P r
Pr ies
r ies
ent ries
le vision
te levision
part ment
com partment
Al though
contr act
contract ing
S quadron
quadron s
s quadrons
pop ular
it ing
trans iting
pos iting
de positing
ign iting
re igniting
ab iting
h abiting
in habiting
fe iting
ter feiting
coun terfeiting
ef iting
en efiting
b enefiting
om iting
v omiting
d iting
E diting
u iting
cr uiting
re cruiting
s ince
n orth
min ut
record ing
Str apping
m aking
play making
film making
ve making
lo vemaking
play er
um ents
div ine
ro le
le ct
l ast
last ing
b lasting
wh at
ron t
ront ations
f rontations
con frontations
im es
su gg
se en
b od
bod ing
fore boding
sy n
d er
der ing
ur dering
m urdering
l s
N ational
rel ation
Markgr af
play ers
f urther
g reat
unt il
g ener
h aving
plac ed
c ation
un cation
tr uncation
en al
al es
ales cent
v alescent
con valescent
h old
hold ers
up holders
th or
or ities
min orities
ag es
pr im
r ic
ric ation
ab rication
f abrication
F abrication
ric ating
ab ricating
f abricating
ric ated
ab ricated
F abricated
f abricated
pre fabricated
d om
King dom
s ol
incre as
var ious
cover ed
un covered
ru ary
b ruary
Fe bruary
song s
Au str
represent ed
develo ped
sugg ested
t urn
ch an
ull s
B ulls
De partment
in a
c y
G r
act ions
trans actions
ter actions
In teractions
tr actions
at tractions
fr actions
in fractions
Re actions
s actions
ran sactions
T ransactions
start ed
re started
ste ad
all ow
s outh
Un ion
w ater
id ing
res iding
o iding
av oiding
R iding
s ound
ound ing
w ounding
performan ce
ac cording
oth ers
M others
is sion
om ission
comm ission
De commission
Decommission ing
sign ed
f ather
hist or
dep ict
depict ions
w ent
T went
fe ct
fect ing
af fecting
Ar my
d est
in it
at on
E aton
pos s
ar ly
proportionate ly
Internation ally
G overnment
increas ing
d en
or m
19 7
19 2
1 1
il ities
t ilities
U tilities
b ilities
A bilities
with out
dest roy
coun try
st ation
oot ball
p ment
develo pment
er ing
with ering
low ering
tow ering
off ering
ost ering
f ostering
ust ering
cl ustering
ste ering
te ering
un teering
ol unteering
V olunteering
S teering
id ering
ons idering
C onsidering
S ering
e ering
ion eering
p ioneering
p ion
remain ing
comple ted
import ant
re view
as tern
st em
sy stem
hal f
are a
C ity
200 6
aforemention ed
A li
tradition ally
I s
M e
B r
feat ured
spe cial
bas ed
de ath
m atch
match ing
sound matching
for ces
im ated
dec imated
x imated
appro ximated
st at
stat ement
at ement
ab atement
c ity
p ite
ro ad
ev ed
ad em
archaeolog ical
o archaeological
ste oarchaeological
O steoarchaeological
e oarchaeological
ost eoarchaeological
f ac
ac ilities
F acilities
P ro
s im
v al
val ent
pre valent
oc c
s ix
n ed
Relation ships
operation ally
perfection ist
development al
compartment al
compartmental ised
character ized
Unfortunate ly
spokespers on
pr ivate
iz ation
ational ization
den ationalization
thor ization
au thorization
real ization
on ization
col onization
iv ization
lect ivization
col lectivization
loc al
or ies
ict ories
v ictories
vis ories
ad visories
St ories
it ories
pos itories
de positories
ark er
M arch
at ory
cl aim
g iven
am ent
ament ing
l amenting
ent ing
im enting
per imenting
ex perimenting
l ament
lament ed
ament ed
orn amented
orn ament
r ament
ut rament
P utrament
ar ian
ay ing
St aying
fl aying
el aying
min elaying
p aying
p ilot
establ ished
ic ated
commun icated
ad icated
er adicated
reg ion
ark son
Cl arkson
pl oy
oy ing
ann oying
j oying
en joying
i ers
cour iers
ront iers
f rontiers
up iers
occ upiers
g iers
Al giers
m ake
iv es
pl es
c he
m ay
al y
1 3
Consequent ly
undifferent i
undifferenti ated
character ise
national ized
commission er
addition ally
practition er
Government al
Archaeolog ia
national ists
play ing
dis playing
fer ence
inter ference
ant ed
pl anted
sup planted
W anted
Bl ack
bo ard
lay er
met al
reak through
b reakthrough
reaction ary
special ists
o archaeolog
oarchaeolog ists
e oarchaeologists
ost eoarchaeologists
approving ly
est imated
sup ported
es tern
att ack
qu ired
in quired
Pol and
s old
f ire
sh ot
C ent
So vi
Univers ity
f em
p ut
put ing
is puting
D isputing
t ro
be h
v an
C an
c ir
N e
vol ution
volution ised
re volutionised
volution ized
re volutionized
res ident
P resident
President ial
remain ed
beli eved
Jack ets
com ment
stitut e
aw ard
sh ort
Col um
of ess
ofess ions
pr ofessions
pr ofess
infl u
w ards
popular ised
revision ary
ational ized
r ationalized
stand points
trans formed
influent ial
serv ational
b servational
O bservational
polit ically
General plan
popular ized
school child
schoolchild ren
Derffling er
further more
Alternate ly
un published
comment ator
contract ual
struction al
in struction
instruction s
in structional
under promot
underpromot ed
national ism
American ism
attempt ed
per formed
pres ident
le cted
Se lected
g lected
ne glected
in ning
g inning
be ginning
crit ic
se arch
B arker
Le ague
i ation
var iation
med iation
al iation
ret aliation
cre t
t ake
w ill
res p
nd er
c ing
oun cing
den ouncing
min cing
in cing
v incing
con vincing
du cing
ro ducing
int roducing
u cing
red ucing
convincing ly
ant i
anti ated
st antiated
sub stantiated
un substantiated
sanction ed
pre history
contin ence
in continence
support ive
un original
record ings
un released
monument al
Accring ton
cr u
g re
w on
R ed
Red ing
M ad
R o
sign ific
Colum bus
mis sion
Ad mission
h owever
writ ten
cent ury
influ en
influen cing
en cing
peri encing
ex periencing
f encing
win ning
re ached
ic ation
med ication
ind ication
St ate
Th ese
trans ferred
cons isted
att ention
becom e
mem ber
m itted
trans mitted
beh ind
le ment
ern and
F ernand
Fernand e
Mad ero
ak en
aken ing
we akening
Bl ue
L ong
a ver
ro ck
rock ing
Un recorded
re volution
vehement ly
mission ary
ander stead
S anderstead
Percent age
olog ically
th ologically
my thologically
person ific
personific ation
cre ational
Re creational
point ments
ap pointments
Jonacate pe
Jonacatepe c
station ary
water craft
Relent less
ofess ional
Pr ofessional
After wards
public ized
German ized
direct ives
Columbus es
under water
con stitute
position ed
Christmas y
relent less
relentless ly
Reported ly
Prudent ial
single hand
singlehand ed
singlehanded ly
Indian ised
continu ity
contin ents
north wards
region ally
before hand
o to
as k
c or
t it
s it
h ip
a el
a er
allow ing
cre ation
pro creation
u cation
ed ucation
Austr al
form ing
trans forming
con forming
re forming
ic les
ron icles
Ch ronicles
ci ent
S cient
Scient ific
w omen
ull en
C ullen
app ed
local ized
Valkyr ian
ast ically
dr astically
i astically
us iastically
th usiastically
en thusiastically
ident ally
c identally
in cidentally
o incidentally
C oincidentally
Christ ina
ir ational
p irational
as pirational
water line
after life
overn ance
g overnance
overn ight
cept ional
ex ceptional
special ly
gener ates
in stitute
ction ists
re ctionists
ur rectionists
ins urrectionists
eccent ric
eccentric ity
commun ist
public ans
Re publicans
sign ature
oc ational
v ocational
inter cept
intercept ed
authent ic
authentic ity
final ised
South port
ship ments
antimony l
o antimonyl
x oantimonyl
o xoantimonyl
partic les
field work
profess or
n ation
inter nation
car nation
ex carnation
internation ally
nation ally
arr ied
tr ibut
tribut ing
dis tributing
at tributing
ev ents
ach ing
pro aching
p proaching
A pproaching
Re aching
le aching
ann ing
sp anning
sc anning
b anning
amp ion
stru ck
gun s
ass ination
ass assination
du e
m en
le t
F in
W e
sold iers
re quired
stru cted
Con structed
in structed
con structed
relig ion
av iation
open ing
ne ver
pres s
press ions
de pressions
press ments
im pressments
f ront
ct ing
ere cting
du cting
con ducting
A cting
ll ing
contro lling
ave lling
tr avelling
che lling
Ters chelling
de lling
mo delling
ve lling
o velling
sh ovelling
be lling
la belling
E lling
pt ion
ren ch
F rench
fle et
fleet ing
North fleet
ith ic
signific ant
in formation
dis information
just ments
ad justments
oper ative
co operative
final ized
with stand
Elling ton
direct ive
plan atory
ex planatory
Reding ton
reak water
b reakwater
success es
omin ation
d omination
and father
gr andfather
special is
specialis es
incons ist
inconsist ent
There fore
comple ten
completen ess
ation ally
N ation
N ationally
West world
region als
nation als
class ific
classific ation
cess ively
ex cessively
special ty
con former
form ative
trans formative
view point
dis appear
disappear an
disappearan ces
lement ary
E lementary
est ically
dom estically
if ference
D ifference
cav ations
x cavations
E xcavations
ex cavations
various ly
Christ een
Isling ton
contr ived
found land
New foundland
ather ings
g atherings
pass ively
ings north
K ingsnorth
cont ended
comment at
commentat ors
ident ific
identific ation
ron ically
I ronically
commun ism
lay ground
P layground
Fernand es
sub system
subsystem s
