{
  "<unk>": 0,
  "<pad>": 1,
  " ": 3,
  "!": 4,
  "\"": 5,
  "#": 6,
  "$": 7,
  "%": 8,
  "&": 9,
  "'": 10,
  "(": 11,
  ")": 12,
  "*": 13,
  "+": 14,
  ",": 15,
  "-": 16,
  ".": 17,
  "/": 18,
  "0": 19,
  "1": 20,
  "2": 21,
  "3": 22,
  "4": 23,
  "5": 24,
  "6": 25,
  "7": 26,
  "8": 27,
  "9": 28,
  ":": 29,
  ";": 30,
  "<": 31,
  "=": 32,
  "?": 33,
  "@": 34,
  "A": 35,
  "B": 36,
  "C": 37,
  "D": 38,
  "E": 39,
  "F": 40,
  "G": 41,
  "H": 42,
  "I": 43,
  "J": 44,
  "K": 45,
  "L": 46,
  "M": 47,
  "N": 48,
  "O": 49,
  "P": 50,
  "Q": 51,
  "R": 52,
  "S": 53,
  "T": 54,
  "U": 55,
  "V": 56,
  "W": 57,
  "X": 58,
  "Y": 59,
  "Z": 60,
  "[": 61,
  "]": 62,
  "^": 63,
  "a": 64,
  "b": 65,
  "c": 66,
  "d": 67,
  "e": 68,
  "f": 69,
  "g": 70,
  "h": 71,
  "i": 72,
  "j": 73,
  "k": 74,
  "l": 75,
  "m": 76,
  "n": 77,
  "o": 78,
  "p": 79,
  "q": 80,
  "r": 81,
  "s": 82,
  "t": 83,
  "u": 84,
  "v": 85,
  "w": 86,
  "x": 87,
  "y": 88,
  "z": 89,
  "~": 90,
  "£": 91,
  "°": 92,
  "²": 93,
  "µ": 94,
  "º": 95,
  "Ä": 96,
  "Å": 97,
  "Æ": 98,
  "Ñ": 99,
  "Ö": 100,
  "ß": 101,
  "á": 102,
  "ä": 103,
  "å": 104,
  "è": 105,
  "é": 106,
  "í": 107,
  "ñ": 108,
  "ó": 109,
  "ô": 110,
  "ö": 111,
  "ú": 112,
  "ü": 113,
  "ā": 114,
  "ą": 115,
  "ć": 116,
  "č": 117,
  "đ": 118,
  "ę": 119,
  "ğ": 120,
  "Ł": 121,
  "ł": 122,
  "ń": 123,
  "Ō": 124,
  "ō": 125,
  "ś": 126,
  "Š": 127,
  "š": 128,
  "ū": 129,
  "ź": 130,
  "Ż": 131,
  "ż": 132,
  "ɪ": 133,
  "ή": 134,
  "ί": 135,
  "α": 136,
  "β": 137,
  "δ": 138,
  "θ": 139,
  "ι": 140,
  "μ": 141,
  "ν": 142,
  "ο": 143,
  "ς": 144,
  "σ": 145,
  "τ": 146,
  "χ": 147,
  "ό": 148,
  "К": 149,
  "а": 150,
  "в": 151,
  "з": 152,
  "й": 153,
  "к": 154,
  "н": 155,
  "р": 156,
  "с": 157,
  "ы": 158,
  "إ": 159,
  "ت": 160,
  "ث": 161,
  "د": 162,
  "س": 163,
  "م": 164,
  "ي": 165,
  "ก": 166,
  "ค": 167,
  "ง": 168,
  "ช": 169,
  "ซ": 170,
  "ญ": 171,
  "ฐ": 172,
  "ณ": 173,
  "ด": 174,
  "ต": 175,
  "บ": 176,
  "ป": 177,
  "พ": 178,
  "ภ": 179,
  "ม": 180,
  "ย": 181,
  "ร": 182,
  "ล": 183,
  "ว": 184,
  "ศ": 185,
  "ษ": 186,
  "ส": 187,
  "ห": 188,
  "อ": 189,
  "ั": 190,
  "า": 191,
  "ิ": 192,
  "ี": 193,
  "ึ": 194,
  "เ": 195,
  "แ": 196,
  "ไ": 197,
  "็": 198,
  "่": 199,
  "้": 200,
  "๊": 201,
  "์": 202,
  "ḏ": 203,
  "ṯ": 204,
  "ἀ": 205,
  "ἰ": 206,
  "–": 207,
  "—": 208,
  "‘": 209,
  "’": 210,
  "“": 211,
  "”": 212,
  "†": 213,
  "‡": 214,
  "…": 215,
  "₤": 216,
  "₹": 217,
  "→": 218,
  "−": 219,
  "い": 220,
  "う": 221,
  "か": 222,
  "が": 223,
  "き": 224,
  "く": 225,
  "し": 226,
  "た": 227,
  "つ": 228,
  "な": 229,
  "の": 230,
  "め": 231,
  "も": 232,
  "ら": 233,
  "ァ": 234,
  "ア": 235,
  "キ": 236,
  "ュ": 237,
  "リ": 238,
  "ル": 239,
  "ヴ": 240,
  "乙": 241,
  "光": 242,
  "名": 243,
  "君": 244,
  "命": 245,
  "咲": 246,
  "場": 247,
  "女": 248,
  "戦": 249,
  "灯": 250,
  "瘡": 251,
  "花": 252,
  "誓": 253,
  "誰": 254,
  "赤": 255,
  "運": 256,
  "銃": 257,
  "願": 258,
  "３": 259,
  "�": 260,
  "th": 260,
  "in": 261,
  "er": 262,
  "an": 263,
  "the": 264,
  "on": 265,
  "ed": 266,
  "or": 267,
  "at": 268,
  "re": 269,
  "en": 270,
  "al": 271,
  "ar": 272,
  "as": 273,
  "is": 274,
  "of": 275,
  "es": 276,
  "and": 277,
  "ing": 278,
  "it": 279,
  "to": 280,
  "ic": 281,
  "ou": 282,
  "ion": 283,
  "st": 284,
  "he": 285,
  "ro": 286,
  "le": 287,
  "ent": 288,
  "ac": 289,
  "se": 290,
  "il": 291,
  "ol": 292,
  "ad": 293,
  "for": 294,
  "am": 295,
  "om": 296,
  "was": 297,
  "ly": 298,
  "be": 299,
  "ch": 300,
  "ir": 301,
  "ur": 302,
  "de": 303,
  "im": 304,
  "ve": 305,
  "ter": 306,
  "ith": 307,
  "The": 308,
  "ow": 309,
  "ation": 310,
  "ig": 311,
  "ay": 312,
  "un": 313,
  "wh": 314,
  "with": 315,
  "ver": 316,
  "that": 317,
  "ct": 318,
  "con": 319,
  "ere": 320,
  "um": 321,
  "ce": 322,
  "ul": 323,
  "ot": 324,
  "ag": 325,
  "el": 326,
  "id": 327,
  "by": 328,
  "et": 329,
  "ap": 330,
  "his": 331,
  "19": 332,
  "pl": 333,
  "us": 334,
  "ut": 335,
  "tr": 336,
  "pro": 337,
  "res": 338,
  "em": 339,
  "ain": 340,
  "ers": 341,
  "lo": 342,
  "com": 343,
  "nd": 344,
  "sh": 345,
  "all": 346,
  "su": 347,
  "ab": 348,
  "00": 349,
  "were": 350,
  "ies": 351,
  "ist": 352,
  "od": 353,
  "rom": 354,
  "iv": 355,
  "est": 356,
  "ord": 357,
  "ear": 358,
  "op": 359,
  "are": 360,
  "from": 361,
  "ate": 362,
  "ish": 363,
  "ex": 364,
  "art": 365,
  "In": 366,
  "ant": 367,
  "end": 368,
  "if": 369,
  "ther": 370,
  "po": 371,
  "igh": 372,
  "so": 373,
  "ich": 374,
  "ew": 375,
  "ated": 376,
  "af": 377,
  "ber": 378,
  "ort": 379,
  "te": 380,
  "av": 381,
  "man": 382,
  "ak": 383,
  "pe": 384,
  "per": 385,
  "rit": 386,
  "cl": 387,
  "ip": 388,
  "gh": 389,
  "ong": 390,
  "ive": 391,
  "ard": 392,
  "ld": 393,
  "ess": 394,
  "ame": 395,
  "ill": 396,
  "ment": 397,
  "ity": 398,
  "ound": 399,
  "had": 400,
  "act": 401,
  "which": 402,
  "ian": 403,
  "own": 404,
  "ough": 405,
  "ial": 406,
  "ia": 407,
  "qu": 408,
  "str": 409,
  "pr": 410,
  "out": 411,
  "one": 412,
  "gr": 413,
  "over": 414,
  "mo": 415,
  "Ch": 416,
  "ack": 417,
  "her": 418,
  "pt": 419,
  "ud": 420,
  "our": 421,
  "tw": 422,
  "port": 423,
  "not": 424,
  "li": 425,
  "cr": 426,
  "ary": 427,
  "ass": 428,
  "ave": 429,
  "ight": 430,
  "ide": 431,
  "20": 432,
  "ine": 433,
  "int": 434,
  "ition": 435,
  "ork": 436,
  "du": 437,
  "oc": 438,
  "ge": 439,
  "form": 440,
  "but": 441,
  "200": 442,
  "air": 443,
  "also": 444,
  "their": 445,
  "og": 446,
  "its": 447,
  "aw": 448,
  "ev": 449,
  "tim": 450,
  "rec": 451,
  "fir": 452,
  "ical": 453,
  "ast": 454,
  "ach": 455,
  "ign": 456,
  "ran": 457,
  "ore": 458,
  "St": 459,
  "up": 460,
  "play": 461,
  "ous": 462,
  "ction": 463,
  "old": 464,
  "att": 465,
  "ould": 466,
  "He": 467,
  "part": 468,
  "und": 469,
  "bo": 470,
  "ub": 471,
  "pres": 472,
  "low": 473,
  "ne": 474,
  "ome": 475,
  "uring": 476,
  "ater": 477,
  "ure": 478,
  "first": 479,
  "who": 480,
  "has": 481,
  "other": 482,
  "Th": 483,
  "ark": 484,
  "sc": 485,
  "off": 486,
  "pos": 487,
  "vi": 488,
  "ue": 489,
  "oun": 490,
  "ke": 491,
  "ations": 492,
  "201": 493,
  "ult": 494,
  "ire": 495,
  "ser": 496,
  "bum": 497,
  "this": 498,
  "ib": 499,
  "ll": 500,
  "dis": 501,
  "album": 502,
  "cre": 503,
  "ities": 504,
  "god": 505,
  "Ar": 506,
  "mon": 507,
  "two": 508,
  "age": 509,
  "ans": 510,
  "ship": 511,
  "ory": 512,
  "ied": 513,
  "have": 514,
  "cont": 515,
  "ence": 516,
  "ree": 517,
  "fe": 518,
  "ason": 519,
  "been": 520,
  "she": 521,
  "ited": 522,
  "after": 523,
  "co": 524,
  "year": 525,
  "ind": 526,
  "ally": 527,
  "ordan": 528,
  "Jordan": 529,
  "ok": 530,
  "au": 531,
  "des": 532,
  "ph": 533,
  "ade": 534,
  "ile": 535,
  "pre": 536,
  "18": 537,
  "time": 538,
  "ell": 539,
  "Pol": 540,
  "ite": 541,
  "me": 542,
  "It": 543,
  "arch": 544,
  "land": 545,
  "iz": 546,
  "ie": 547,
  "ced": 548,
  "main": 549,
  "under": 550,
  "ust": 551,
  "comm": 552,
  "comp": 553,
  "ck": 554,
  "ron": 555,
  "fer": 556,
  "olog": 557,
  "app": 558,
  "Sh": 559,
  "leas": 560,
  "ents": 561,
  "inter": 562,
  "les": 563,
  "season": 564,
  "though": 565,
  "Brit": 566,
  "ance": 567,
  "ict": 568,
  "ilm": 569,
  "more": 570,
  "reg": 571,
  "they": 572,
  "incl": 573,
  "lar": 574,
  "rough": 575,
  "work": 576,
  "sp": 577,
  "record": 578,
  "Un": 579,
  "able": 580,
  "als": 581,
  "cent": 582,
  "ubl": 583,
  "sing": 584,
  "fl": 585,
  "ru": 586,
  "ann": 587,
  "cess": 588,
  "cond": 589,
  "An": 590,
  "ice": 591,
  "most": 592,
  "new": 593,
  "during": 594,
  "ret": 595,
  "Re": 596,
  "releas": 597,
  "publ": 598,
  "into": 599,
  "cted": 600,
  "ces": 601,
  "gan": 602,
  "fin": 603,
  "urn": 604,
  "min": 605,
  "ions": 606,
  "ings": 607,
  "ten": 608,
  "son": 609,
  "Fe": 610,
  "ved": 611,
  "spe": 612,
  "ild": 613,
  "ever": 614,
  "film": 615,
  "arr": 616,
  "199": 617,
  "them": 618,
  "ted": 619,
  "includ": 620,
  "used": 621,
  "ular": 622,
  "ail": 623,
  "being": 624,
  "would": 625,
  "ered": 626,
  "ace": 627,
  "him": 628,
  "ick": 629,
  "no": 630,
  "my": 631,
  "je": 632,
  "usic": 633,
  "ational": 634,
  "we": 635,
  "De": 636,
  "produ": 637,
  "fore": 638,
  "heel": 639,
  "Wheel": 640,
  "Wheeler": 641,
  "sy": 642,
  "British": 643,
  "erman": 644,
  "ener": 645,
  "go": 646,
  "gods": 647,
  "Town": 648,
  "sk": 649,
  "came": 650,
  "sel": 651,
  "German": 652,
  "only": 653,
  "point": 654,
  "cial": 655,
  "ates": 656,
  "stru": 657,
  "ors": 658,
  "game": 659,
  "red": 660,
  "ob": 661,
  "some": 662,
  "high": 663,
  "num": 664,
  "ull": 665,
  "ts": 666,
  "through": 667,
  "eolog": 668,
  "ony": 669,
  "pol": 670,
  "Se": 671,
  "three": 672,
  "aeolog": 673,
  "four": 674,
  "orth": 675,
  "Ind": 676,
  "ren": 677,
  "ters": 678,
  "sion": 679,
  "mer": 680,
  "present": 681,
  "second": 682,
  "cons": 683,
  "way": 684,
  "ty": 685,
  "ating": 686,
  "mber": 687,
  "song": 688,
  "aft": 689,
  "Polish": 690,
  "bas": 691,
  "No": 692,
  "ished": 693,
  "dr": 694,
  "where": 695,
  "team": 696,
  "ang": 697,
  "while": 698,
  "ards": 699,
  "ject": 700,
  "sub": 701,
  "vis": 702,
  "use": 703,
  "Towns": 704,
  "Townsend": 705,
  "ames": 706,
  "York": 707,
  "led": 708,
  "writ": 709,
  "char": 710,
  "ath": 711,
  "gy": 712,
  "ins": 713,
  "As": 714,
  "rel": 715,
  "about": 716,
  "oy": 717,
  "again": 718,
  "such": 719,
  "tern": 720,
  "then": 721,
  "cer": 722,
  "ra": 723,
  "later": 724,
  "iel": 725,
  "ped": 726,
  "ele": 727,
  "She": 728,
  "reat": 729,
  "outh": 730,
  "any": 731,
  "ton": 732,
  "ci": 733,
  "ake": 734,
  "een": 735,
  "Chr": 736,
  "ollow": 737,
  "made": 738,
  "hist": 739,
  "than": 740,
  "ious": 741,
  "arm": 742,
  "orld": 743,
  "row": 744,
  "Al": 745,
  "many": 746,
  "number": 747,
  "before": 748,
  "public": 749,
  "when": 750,
  "ning": 751,
  "az": 752,
  "ix": 753,
  "cho": 754,
  "Egy": 755,
  "Egypt": 756,
  "lead": 757,
  "sed": 758,
  "II": 759,
  "ef": 760,
  "On": 761,
  "remain": 762,
  "ican": 763,
  "mem": 764,
  "col": 765,
  "Christ": 766,
  "iver": 767,
  "tain": 768,
  "aid": 769,
  "sur": 770,
  "war": 771,
  "mas": 772,
  "United": 773,
  "pers": 774,
  "day": 775,
  "ball": 776,
  "back": 777,
  "met": 778,
  "mis": 779,
  "io": 780,
  "sign": 781,
  "these": 782,
  "both": 783,
  "ics": 784,
  "clo": 785,
  "bu": 786,
  "sever": 787,
  "ower": 788,
  "000": 789,
  "antim": 790,
  "long": 791,
  "kn": 792,
  "released": 793,
  "there": 794,
  "oper": 795,
  "ists": 796,
  "Com": 797,
  "ily": 798,
  "including": 799,
  "follow": 800,
  "ored": 801,
  "ost": 802,
  "deities": 803,
  "music": 804,
  "ield": 805,
  "ific": 806,
  "well": 807,
  "tween": 808,
  "between": 809,
  "years": 810,
  "craft": 811,
  "contin": 812,
  "appear": 813,
  "ised": 814,
  "ived": 815,
  "loc": 816,
  "state": 817,
  "archaeolog": 818,
  "can": 819,
  "ground": 820,
  "like": 821,
  "ual": 822,
  "ose": 823,
  "Fey": 824,
  "do": 825,
  "ft": 826,
  "New": 827,
  "br": 828,
  "ident": 829,
  "overn": 830,
  "ens": 831,
  "vol": 832,
  "ond": 833,
  "Af": 834,
  "os": 835,
  "began": 836,
  "After": 837,
  "early": 838,
  "became": 839,
  "sup": 840,
  "itt": 841,
  "oup": 842,
  "oh": 843,
  "position": 844,
  "bers": 845,
  "eng": 846,
  "ars": 847,
  "orn": 848,
  "Le": 849,
  "Egyptian": 850,
  "offic": 851,
  "could": 852,
  "illion": 853,
  "antimony": 854,
  "ale": 855,
  "series": 856,
  "charac": 857,
  "feat": 858,
  "ures": 859,
  "cord": 860,
  "coun": 861,
  "Bl": 862,
  "irect": 863,
  "Christmas": 864,
  "ired": 865,
  "add": 866,
  "198": 867,
  "aircraft": 868,
  "aking": 869,
  "alled": 870,
  "stud": 871,
  "Wh": 872,
  "field": 873,
  "ured": 874,
  "cav": 875,
  "several": 876,
  "action": 877,
  "self": 878,
  "set": 879,
  "ste": 880,
  "ional": 881,
  "represent": 882,
  "return": 883,
  "ported": 884,
  "side": 885,
  "This": 886,
  "var": 887,
  "ful": 888,
  "view": 889,
  "ife": 890,
  "win": 891,
  "At": 892,
  "ma": 893,
  "class": 894,
  "design": 895,
  "representations": 896,
  "amp": 897,
  "top": 898,
  "ock": 899,
  "dol": 900,
  "ah": 901,
  "Cl": 902,
  "ative": 903,
  "overnment": 904,
  "dollar": 905,
  "ons": 906,
  "ros": 907,
  "hum": 908,
  "known": 909,
  "ccess": 910,
  "success": 911,
  "chool": 912,
  "following": 913,
  "rece": 914,
  "gold": 915,
  "194": 916,
  "oot": 917,
  "Au": 918,
  "trans": 919,
  "cover": 920,
  "ships": 921,
  "ext": 922,
  "presentation": 923,
  "designations": 924,
  "million": 925,
  "ments": 926,
  "found": 927,
  "Composition": 928,
  "foundations": 929,
  "designation": 930,
  "eneral": 931,
  "owever": 932,
  "aged": 933,
  "ets": 934,
  "gun": 935,
  "against": 936,
  "cording": 937,
  "light": 938,
  "ended": 939,
  "igin": 940,
  "peri": 941,
  "itut": 942,
  "stitut": 943,
  "identities": 944,
  "transition": 945,
  "transitions": 946,
  "imposition": 947,
  "enerations": 948,
  "generations": 949,
  "ury": 950,
  "ek": 951,
  "origin": 952,
  "velo": 953,
  "develo": 954,
  "isposition": 955,
  "Disposition": 956,
  "formations": 957,
  "portations": 958,
  "deportations": 959,
  "presenting": 960,
  "En": 961,
  "enerating": 962,
  "generating": 963,
  "recorders": 964,
  "crit": 965,
  "head": 966,
  "alk": 967,
  "ise": 968,
  "ash": 969,
  "ety": 970,
  "xposition": 971,
  "Exposition": 972,
  "allations": 973,
  "stallations": 974,
  "installations": 975,
  "ologation": 976,
  "omologation": 977,
  "homologation": 978,
  "mentation": 979,
  "lementation": 980,
  "plementation": 981,
  "mplementation": 982,
  "Implementation": 983,
  "followers": 984,
  "cessation": 985,
  "transited": 986,
  "antations": 987,
  "plantations": 988,
  "terations": 989,
  "alterations": 990,
  "creations": 991,
  "regations": 992,
  "gregations": 993,
  "congregations": 994,
  "foundered": 995,
  "notations": 996,
  "connotations": 997,
  "ternation": 998,
  "Internation": 999,
  "interment": 1000,
  "endations": 1001,
  "commendations": 1002,
  "recommendations": 1003,
  "serv": 1004,
  "ized": 1005,
  "ven": 1006,
  "Con": 1007,
  "med": 1008,
  "allation": 1009,
  "stallation": 1010,
  "installation": 1011,
  "acturing": 1012,
  "facturing": 1013,
  "ufacturing": 1014,
  "manufacturing": 1015,
  "minating": 1016,
  "terminating": 1017,
  "ulminating": 1018,
  "culminating": 1019,
  "onations": 1020,
  "donations": 1021,
  "imported": 1022,
  "endation": 1023,
  "commendation": 1024,
  "recommendation": 1025,
  "usations": 1026,
  "cusations": 1027,
  "accusations": 1028,
  "perating": 1029,
  "Operating": 1030,
  "ellation": 1031,
  "stellation": 1032,
  "constellation": 1033,
  "arkation": 1034,
  "barkation": 1035,
  "embarkation": 1036,
  "disembarkation": 1037,
  "deported": 1038,
  "cavating": 1039,
  "excavating": 1040,
  "traction": 1041,
  "extraction": 1042,
  "Reported": 1043,
  "ensuring": 1044,
  "fielders": 1045,
  "idfielders": 1046,
  "midfielders": 1047,
  "dam": 1048,
  "car": 1049,
  "notation": 1050,
  "counters": 1051,
  "encounters": 1052,
  "ipations": 1053,
  "icipations": 1054,
  "participations": 1055,
  "olations": 1056,
  "violations": 1057,
  "ptations": 1058,
  "emptations": 1059,
  "Temptations": 1060,
  "founding": 1061,
  "ivations": 1062,
  "otivations": 1063,
  "motivations": 1064,
  "anations": 1065,
  "emanations": 1066,
  "venating": 1067,
  "uvenating": 1068,
  "juvenating": 1069,
  "rejuvenating": 1070,
  "ocations": 1071,
  "Locations": 1072,
  "shippers": 1073,
  "orshippers": 1074,
  "worshippers": 1075,
  "undation": 1076,
  "inundation": 1077,
  "tonating": 1078,
  "detonating": 1079,
  "assuring": 1080,
  "ultation": 1081,
  "consultation": 1082,
  "Reaction": 1083,
  "fination": 1084,
  "lefination": 1085,
  "olefination": 1086,
  "ancement": 1087,
  "vancement": 1088,
  "advancement": 1089,
  "orturing": 1090,
  "torturing": 1091,
  "brations": 1092,
  "lebrations": 1093,
  "celebrations": 1094,
  "irecting": 1095,
  "directing": 1096,
  "visation": 1097,
  "provisation": 1098,
  "improvisation": 1099,
  "encement": 1100,
  "commencement": 1101,
  "terstate": 1102,
  "Interstate": 1103,
  "berating": 1104,
  "liberating": 1105,
  "alluring": 1106,
  "inaction": 1107,
  "ilations": 1108,
  "compilations": 1109,
  "ensation": 1110,
  "sensation": 1111,
  "charters": 1112,
  "otations": 1113,
  "quotations": 1114,
  "actition": 1115,
  "practition": 1116,
  "ationing": 1117,
  "stationing": 1118,
  "tonation": 1119,
  "detonation": 1120,
  "urported": 1121,
  "purported": 1122,
  "arations": 1123,
  "parations": 1124,
  "preparations": 1125,
  "itioning": 1126,
  "conditioning": 1127,
  "locating": 1128,
  "relocating": 1129,
  "coveries": 1130,
  "discoveries": 1131,
  "trations": 1132,
  "istrations": 1133,
  "ministrations": 1134,
  "administrations": 1135,
  "artition": 1136,
  "Partition": 1137,
  "prostate": 1138,
  "ines": 1139,
  "dec": 1140,
  "ime": 1141,
  "Col": 1142,
  "ai": 1143,
  "sm": 1144,
  "addition": 1145,
  "cloaddition": 1146,
  "ycloaddition": 1147,
  "cycloaddition": 1148,
  "cycloadditions": 1149,
  "additions": 1150,
  "imation": 1151,
  "animation": 1152,
  "nations": 1153,
  "visions": 1154,
  "provisions": 1155,
  "ballers": 1156,
  "ootballers": 1157,
  "footballers": 1158,
  "ongated": 1159,
  "elongated": 1160,
  "landers": 1161,
  "slanders": 1162,
  "Islanders": 1163,
  "ruition": 1164,
  "fruition": 1165,
  "ineered": 1166,
  "engineered": 1167,
  "butions": 1168,
  "ibutions": 1169,
  "tributions": 1170,
  "contributions": 1171,
  "jecting": 1172,
  "subjecting": 1173,
  "rejecting": 1174,
  "faction": 1175,
  "isfaction": 1176,
  "atisfaction": 1177,
  "satisfaction": 1178,
  "dissatisfaction": 1179,
  "actured": 1180,
  "factured": 1181,
  "ufactured": 1182,
  "manufactured": 1183,
  "peating": 1184,
  "repeating": 1185,
  "elation": 1186,
  "Relation": 1187,
  "counted": 1188,
  "accounted": 1189,
  "notions": 1190,
  "ificent": 1191,
  "nificent": 1192,
  "agnificent": 1193,
  "magnificent": 1194,
  "Magnificent": 1195,
  "ameters": 1196,
  "arameters": 1197,
  "parameters": 1198,
  "ificate": 1199,
  "tificate": 1200,
  "ertificate": 1201,
  "Certificate": 1202,
  "iverted": 1203,
  "diverted": 1204,
  "ensions": 1205,
  "imensions": 1206,
  "dimensions": 1207,
  "Pensions": 1208,
  "assured": 1209,
  "gations": 1210,
  "legations": 1211,
  "allegations": 1212,
  "rogations": 1213,
  "interrogations": 1214,
  "ielding": 1215,
  "shielding": 1216,
  "yielding": 1217,
  "amation": 1218,
  "clamation": 1219,
  "proclamation": 1220,
  "acclamation": 1221,
  "ipating": 1222,
  "icipating": 1223,
  "participating": 1224,
  "sipating": 1225,
  "dissipating": 1226,
  "endered": 1227,
  "gendered": 1228,
  "centred": 1229,
  "ortured": 1230,
  "tortured": 1231,
  "fection": 1232,
  "perfection": 1233,
  "affection": 1234,
  "affections": 1235,
  "arrated": 1236,
  "narrated": 1237,
  "shaking": 1238,
  "oulders": 1239,
  "shoulders": 1240,
  "boulders": 1241,
  "ornered": 1242,
  "cornered": 1243,
  "lations": 1244,
  "translations": 1245,
  "islations": 1246,
  "gislations": 1247,
  "legislations": 1248,
  "parting": 1249,
  "departing": 1250,
  "corders": 1251,
  "amcorders": 1252,
  "camcorders": 1253,
  "therers": 1254,
  "atherers": 1255,
  "gatherers": 1256,
  "sgatherers": 1257,
  "newsgatherers": 1258,
  "mansion": 1259,
  "masters": 1260,
  "imeters": 1261,
  "centimeters": 1262,
  "illimeters": 1263,
  "millimeters": 1264,
  "ciating": 1265,
  "sociating": 1266,
  "associating": 1267,
  "Associating": 1268,
  "ternate": 1269,
  "Alternate": 1270,
  "sturing": 1271,
  "posturing": 1272,
  "flation": 1273,
  "inflation": 1274,
  "warning": 1275,
  "arating": 1276,
  "parating": 1277,
  "separating": 1278,
  "consent": 1279,
  "reating": 1280,
  "Treating": 1281,
  "treating": 1282,
  "olating": 1283,
  "isolating": 1284,
  "solating": 1285,
  "Isolating": 1286,
  "ittle": 1287,
  "struction": 1288,
  "played": 1289,
  "ople": 1290,
  "atch": 1291,
  "ague": 1292,
  "lay": 1293,
  "try": 1294,
  "although": 1295,
  "ictated": 1296,
  "dictated": 1297,
  "project": 1298,
  "spected": 1299,
  "inspected": 1300,
  "agation": 1301,
  "pagation": 1302,
  "ropagation": 1303,
  "Propagation": 1304,
  "llstate": 1305,
  "Allstate": 1306,
  "osition": 1307,
  "Position": 1308,
  "ometers": 1309,
  "ronometers": 1310,
  "chronometers": 1311,
  "itution": 1312,
  "estitution": 1313,
  "destitution": 1314,
  "lowered": 1315,
  "leasing": 1316,
  "pleasing": 1317,
  "ocating": 1318,
  "vocating": 1319,
  "advocating": 1320,
  "heeling": 1321,
  "wheeling": 1322,
  "archies": 1323,
  "erarchies": 1324,
  "ierarchies": 1325,
  "hierarchies": 1326,
  "recited": 1327,
  "vations": 1328,
  "novations": 1329,
  "innovations": 1330,
  "atering": 1331,
  "catering": 1332,
  "ostered": 1333,
  "fostered": 1334,
  "sations": 1335,
  "versations": 1336,
  "conversations": 1337,
  "reaties": 1338,
  "treaties": 1339,
  "illions": 1340,
  "millions": 1341,
  "recated": 1342,
  "precated": 1343,
  "deprecated": 1344,
  "terions": 1345,
  "counterions": 1346,
  "entment": 1347,
  "resentment": 1348,
  "ivation": 1349,
  "otivation": 1350,
  "motivation": 1351,
  "ionment": 1352,
  "usionment": 1353,
  "illusionment": 1354,
  "disillusionment": 1355,
  "cerated": 1356,
  "carcerated": 1357,
  "Incarcerated": 1358,
  "sioners": 1359,
  "issioners": 1360,
  "commissioners": 1361,
  "Million": 1362,
  "formers": 1363,
  "performers": 1364,
  "trident": 1365,
  "amities": 1366,
  "alamities": 1367,
  "calamities": 1368,
  "estment": 1369,
  "vestment": 1370,
  "investment": 1371,
  "persing": 1372,
  "dispersing": 1373,
  "rowning": 1374,
  "drowning": 1375,
  "imating": 1376,
  "estimating": 1377,
  "astated": 1378,
  "vastated": 1379,
  "devastated": 1380,
  "cessing": 1381,
  "processing": 1382,
  "assment": 1383,
  "arassment": 1384,
  "harassment": 1385,
  "feating": 1386,
  "defeating": 1387,
  "teaming": 1388,
  "ultured": 1389,
  "cultured": 1390,
  "undered": 1391,
  "plundered": 1392,
  "asoning": 1393,
  "reasoning": 1394,
  "indered": 1395,
  "hindered": 1396,
  "manning": 1397,
  "achment": 1398,
  "attachment": 1399,
  "conning": 1400,
  "loating": 1401,
  "floating": 1402,
  "overing": 1403,
  "recovering": 1404,
  "Britons": 1405,
  "terning": 1406,
  "atterning": 1407,
  "patterning": 1408,
  "colated": 1409,
  "percolated": 1410,
  "ignated": 1411,
  "esignated": 1412,
  "redesignated": 1413,
  "vection": 1414,
  "convection": 1415,
  "andated": 1416,
  "mandated": 1417,
  "flating": 1418,
  "inflating": 1419,
  "allying": 1420,
  "ortions": 1421,
  "Portions": 1422,
  "anation": 1423,
  "planation": 1424,
  "explanation": 1425,
  "ounders": 1426,
  "pounders": 1427,
  "oughing": 1428,
  "coughing": 1429,
  "extured": 1430,
  "textured": 1431,
  "singers": 1432,
  "idating": 1433,
  "imidating": 1434,
  "intimidating": 1435,
  "drating": 1436,
  "ydrating": 1437,
  "hydrating": 1438,
  "Dehydrating": 1439,
  "cations": 1440,
  "otation": 1441,
  "flotation": 1442,
  "gration": 1443,
  "tegration": 1444,
  "integration": 1445,
  "disintegration": 1446,
  "todisintegration": 1447,
  "otodisintegration": 1448,
  "photodisintegration": 1449,
  "backers": 1450,
  "bration": 1451,
  "lebration": 1452,
  "celebration": 1453,
  "ided": 1454,
  "cut": 1455,
  "cutions": 1456,
  "ecutions": 1457,
  "executions": 1458,
  "stand": 1459,
  "standers": 1460,
  "bystanders": 1461,
  "descr": 1462,
  "ivers": 1463,
  "drivers": 1464,
  "vember": 1465,
  "November": 1466,
  "erters": 1467,
  "deserters": 1468,
  "eserters": 1469,
  "Deserters": 1470,
  "urated": 1471,
  "gurated": 1472,
  "augurated": 1473,
  "inaugurated": 1474,
  "curated": 1475,
  "quered": 1476,
  "conquered": 1477,
  "vising": 1478,
  "pervising": 1479,
  "supervising": 1480,
  "advising": 1481,
  "umbers": 1482,
  "Numbers": 1483,
  "itters": 1484,
  "emitters": 1485,
  "litters": 1486,
  "orners": 1487,
  "corners": 1488,
  "afting": 1489,
  "drafting": 1490,
  "loated": 1491,
  "floated": 1492,
  "fident": 1493,
  "confident": 1494,
  "mising": 1495,
  "promising": 1496,
  "espers": 1497,
  "kespers": 1498,
  "pokespers": 1499,
  "spokespers": 1500,
  "ickers": 1501,
  "Vickers": 1502,
  "rected": 1503,
  "urrected": 1504,
  "resurrected": 1505,
  "orrected": 1506,
  "corrected": 1507,
  "newing": 1508,
  "renewing": 1509,
  "abited": 1510,
  "habited": 1511,
  "inhabited": 1512,
  "grated": 1513,
  "tegrated": 1514,
  "integrated": 1515,
  "brated": 1516,
  "lebrated": 1517,
  "celebrated": 1518,
  "ussing": 1519,
  "cussing": 1520,
  "discussing": 1521,
  "Recent": 1522,
  "emated": 1523,
  "asemated": 1524,
  "casemated": 1525,
  "minate": 1526,
  "terminate": 1527,
  "determinate": 1528,
  "indeterminate": 1529,
  "erminate": 1530,
  "germinate": 1531,
  "ullion": 1532,
  "bullion": 1533,
  "lowing": 1534,
  "flowing": 1535,
  "slowing": 1536,
  "ulties": 1537,
  "iculties": 1538,
  "ficulties": 1539,
  "ifficulties": 1540,
  "difficulties": 1541,
  "ionate": 1542,
  "portionate": 1543,
  "proportionate": 1544,
  "appers": 1545,
  "rappers": 1546,
  "wrappers": 1547,
  "Rappers": 1548,
  "anders": 1549,
  "commanders": 1550,
  "utions": 1551,
  "volutions": 1552,
  "revolutions": 1553,
  "autions": 1554,
  "recautions": 1555,
  "Precautions": 1556,
  "anners": 1557,
  "planners": 1558,
  "locate": 1559,
  "etters": 1560,
  "Fetters": 1561,
  "Letters": 1562,
  "asured": 1563,
  "measured": 1564,
  "reasured": 1565,
  "treasured": 1566,
  "arying": 1567,
  "varying": 1568,
  "icking": 1569,
  "picking": 1570,
  "erpicking": 1571,
  "ingerpicking": 1572,
  "fingerpicking": 1573,
  "Kicking": 1574,
  "itored": 1575,
  "monitored": 1576,
  "unmonitored": 1577,
  "cuting": 1578,
  "secuting": 1579,
  "persecuting": 1580,
  "ecuting": 1581,
  "executing": 1582,
  "onored": 1583,
  "honored": 1584,
  "areers": 1585,
  "careers": 1586,
  "Estate": 1587,
  "ulsion": 1588,
  "pulsion": 1589,
  "propulsion": 1590,
  "arming": 1591,
  "farming": 1592,
  "Barming": 1593,
  "inders": 1594,
  "linders": 1595,
  "Flinders": 1596,
  "exited": 1597,
  "ailers": 1598,
  "retailers": 1599,
  "urpers": 1600,
  "usurpers": 1601,
  "Making": 1602,
  "armies": 1603,
  "regate": 1604,
  "gregate": 1605,
  "aggregate": 1606,
  "heated": 1607,
  "anions": 1608,
  "teered": 1609,
  "unteered": 1610,
  "volunteered": 1611,
  "ined": 1612,
  "ones": 1613,
  "soci": 1614,
  "sociate": 1615,
  "associate": 1616,
  "ciation": 1617,
  "unciation": 1618,
  "onunciation": 1619,
  "pronunciation": 1620,
  "For": 1621,
  "gg": 1622,
  "history": 1623,
  "ursion": 1624,
  "cursion": 1625,
  "incursion": 1626,
  "andons": 1627,
  "abandons": 1628,
  "hement": 1629,
  "vehement": 1630,
  "Coming": 1631,
  "ishion": 1632,
  "ishioners": 1633,
  "arishioners": 1634,
  "parishioners": 1635,
  "turing": 1636,
  "apturing": 1637,
  "capturing": 1638,
  "ornate": 1639,
  "assion": 1640,
  "passion": 1641,
  "illies": 1642,
  "Gillies": 1643,
  "ercent": 1644,
  "Percent": 1645,
  "gating": 1646,
  "ulgating": 1647,
  "mulgating": 1648,
  "promulgating": 1649,
  "astion": 1650,
  "bastion": 1651,
  "theons": 1652,
  "antheons": 1653,
  "Pantheons": 1654,
  "iveted": 1655,
  "riveted": 1656,
  "inters": 1657,
  "plinters": 1658,
  "splinters": 1659,
  "ousing": 1660,
  "housing": 1661,
  "ainers": 1662,
  "trainers": 1663,
  "luring": 1664,
  "incons": 1665,
  "igners": 1666,
  "foreigners": 1667,
  "sident": 1668,
  "issident": 1669,
  "Dissident": 1670,
  "atured": 1671,
  "matured": 1672,
  "essons": 1673,
  "lessons": 1674,
  "itment": 1675,
  "uitment": 1676,
  "cruitment": 1677,
  "recruitment": 1678,
  "lating": 1679,
  "islating": 1680,
  "gislating": 1681,
  "legislating": 1682,
  "ingent": 1683,
  "stringent": 1684,
  "apered": 1685,
  "tapered": 1686,
  "eating": 1687,
  "arders": 1688,
  "oarders": 1689,
  "hoarders": 1690,
  "icited": 1691,
  "olicited": 1692,
  "solicited": 1693,
  "feited": 1694,
  "terfeited": 1695,
  "counterfeited": 1696,
  "flated": 1697,
  "inflated": 1698,
  "icions": 1699,
  "picions": 1700,
  "uspicions": 1701,
  "suspicions": 1702,
  "ureate": 1703,
  "aureate": 1704,
  "laureate": 1705,
  "ellers": 1706,
  "Sellers": 1707,
  "orment": 1708,
  "ormented": 1709,
  "tormented": 1710,
  "arrate": 1711,
  "narrate": 1712,
  "odated": 1713,
  "commodated": 1714,
  "accommodated": 1715,
  "amored": 1716,
  "enamored": 1717,
  "ullers": 1718,
  "Cullers": 1719,
  "cCullers": 1720,
  "McCullers": 1721,
  "alters": 1722,
  "Walters": 1723,
  "igated": 1724,
  "estigated": 1725,
  "vestigated": 1726,
  "investigated": 1727,
  "ardent": 1728,
  "rivers": 1729,
  "arries": 1730,
  "carries": 1731,
  "ingers": 1732,
  "fingers": 1733,
  "orking": 1734,
  "Working": 1735,
  "trated": 1736,
  "estrated": 1737,
  "chestrated": 1738,
  "orchestrated": 1739,
  "crated": 1740,
  "secrated": 1741,
  "consecrated": 1742,
  "agment": 1743,
  "ragment": 1744,
  "fragment": 1745,
  "estate": 1746,
  "drated": 1747,
  "ydrated": 1748,
  "hydrated": 1749,
  "dehydrated": 1750,
  "orsers": 1751,
  "endorsers": 1752,
  "sement": 1753,
  "orsement": 1754,
  "endorsement": 1755,
  "igured": 1756,
  "figured": 1757,
  "ersons": 1758,
  "Persons": 1759,
  "llment": 1760,
  "rollment": 1761,
  "enrollment": 1762,
  "aiding": 1763,
  "ersion": 1764,
  "mersion": 1765,
  "submersion": 1766,
  "orties": 1767,
  "sorties": 1768,
  "timing": 1769,
  "divers": 1770,
  "unters": 1771,
  "hunters": 1772,
  "meters": 1773,
  "armers": 1774,
  "farmers": 1775,
  "shored": 1776,
  "accent": 1777,
  "osters": 1778,
  "Posters": 1779,
  "ithers": 1780,
  "Withers": 1781,
  "atered": 1782,
  "catered": 1783,
  "quited": 1784,
  "requited": 1785,
  "unrequited": 1786,
  "relent": 1787,
  "utters": 1788,
  "gutters": 1789,
  "ittent": 1790,
  "mittent": 1791,
  "intermittent": 1792,
  "usting": 1793,
  "justing": 1794,
  "adjusting": 1795,
  "alkers": 1796,
  "Walkers": 1797,
  "umored": 1798,
  "rumored": 1799,
  "ayment": 1800,
  "payment": 1801,
  "bating": 1802,
  "debating": 1803,
  "arties": 1804,
  "Parties": 1805,
  "ouring": 1806,
  "pouring": 1807,
  "vering": 1808,
  "livering": 1809,
  "delivering": 1810,
  "ongers": 1811,
  "Mongers": 1812,
  "orting": 1813,
  "corting": 1814,
  "escorting": 1815,
  "embers": 1816,
  "Members": 1817,
  "sition": 1818,
  "ransition": 1819,
  "Transition": 1820,
  "monion": 1821,
  "themonion": 1822,
  "anthemonion": 1823,
  "igment": 1824,
  "pigment": 1825,
  "creted": 1826,
  "excreted": 1827,
  "ignies": 1828,
  "apignies": 1829,
  "Sapignies": 1830,
  "acated": 1831,
  "vacated": 1832,
  "Cities": 1833,
  "athies": 1834,
  "pathies": 1835,
  "mpathies": 1836,
  "sympathies": 1837,
  "ural": 1838,
  "plac": 1839,
  "All": 1840,
  "contr": 1841,
  "said": 1842,
  "May": 1843,
  "cur": 1844,
  "curities": 1845,
  "securities": 1846,
  "insecurities": 1847,
  "urities": 1848,
  "purities": 1849,
  "impurities": 1850,
  "cursing": 1851,
  "ursing": 1852,
  "nursing": 1853,
  "bursing": 1854,
  "disbursing": 1855,
  "curate": 1856,
  "accurate": 1857,
  "Joh": 1858,
  "John": 1859,
  "opers": 1860,
  "roopers": 1861,
  "troopers": 1862,
  "ocktroopers": 1863,
  "Shocktroopers": 1864,
  "Troopers": 1865,
  "dered": 1866,
  "urdered": 1867,
  "murdered": 1868,
  "rdered": 1869,
  "Ordered": 1870,
  "tters": 1871,
  "letters": 1872,
  "small": 1873,
  "etent": 1874,
  "competent": 1875,
  "tying": 1876,
  "ument": 1877,
  "umenting": 1878,
  "ocumenting": 1879,
  "documenting": 1880,
  "onument": 1881,
  "Monument": 1882,
  "unate": 1883,
  "tunate": 1884,
  "fortunate": 1885,
  "unfortunate": 1886,
  "Unfortunate": 1887,
  "bated": 1888,
  "debated": 1889,
  "erbated": 1890,
  "acerbated": 1891,
  "exacerbated": 1892,
  "edate": 1893,
  "predate": 1894,
  "asers": 1895,
  "chasers": 1896,
  "elted": 1897,
  "melted": 1898,
  "elers": 1899,
  "ewelers": 1900,
  "jewelers": 1901,
  "ocent": 1902,
  "nocent": 1903,
  "innocent": 1904,
  "mated": 1905,
  "cremated": 1906,
  "tomated": 1907,
  "automated": 1908,
  "oured": 1909,
  "onoured": 1910,
  "honoured": 1911,
  "avoured": 1912,
  "favoured": 1913,
  "iters": 1914,
  "upiters": 1915,
  "Jupiters": 1916,
  "ccent": 1917,
  "eccent": 1918,
  "fured": 1919,
  "iffured": 1920,
  "coiffured": 1921,
  "odate": 1922,
  "commodate": 1923,
  "accommodate": 1924,
  "afted": 1925,
  "drafted": 1926,
  "arons": 1927,
  "Barons": 1928,
  "mired": 1929,
  "admired": 1930,
  "hered": 1931,
  "adhered": 1932,
  "ushered": 1933,
  "thent": 1934,
  "authent": 1935,
  "brate": 1936,
  "lebrate": 1937,
  "celebrate": 1938,
  "ghing": 1939,
  "aughing": 1940,
  "laughing": 1941,
  "cring": 1942,
  "ccring": 1943,
  "Accring": 1944,
  "ides": 1945,
  "gust": 1946,
  "gusted": 1947,
  "King": 1948,
  "dep": 1949,
  "sis": 1950,
  "boons": 1951,
  "mored": 1952,
  "Armored": 1953,
  "power": 1954,
  "track": 1955,
  "isted": 1956,
  "twisted": 1957,
  "oisted": 1958,
  "hoisted": 1959,
  "llent": 1960,
  "cellent": 1961,
  "excellent": 1962,
  "ipted": 1963,
  "cripted": 1964,
  "conscripted": 1965,
  "cared": 1966,
  "rered": 1967,
  "skate": 1968,
  "crate": 1969,
  "atons": 1970,
  "matons": 1971,
  "tomatons": 1972,
  "automatons": 1973,
  "ysing": 1974,
  "alysing": 1975,
  "analysing": 1976,
  "exies": 1977,
  "Sexies": 1978,
  "osing": 1979,
  "choosing": 1980,
  "urred": 1981,
  "lurred": 1982,
  "blurred": 1983,
  "ilate": 1984,
  "hilate": 1985,
  "ihilate": 1986,
  "annihilate": 1987,
  "enies": 1988,
  "genies": 1989,
  "Ament": 1990,
  "scent": 1991,
  "llies": 1992,
  "bellies": 1993,
  "Lions": 1994,
  "urers": 1995,
  "acturers": 1996,
  "facturers": 1997,
  "ufacturers": 1998,
  "manufacturers": 1999,
  "usies": 2000,
  "busies": 2001,
  "irons": 2002,
  "virons": 2003,
  "environs": 2004,
  "iries": 2005,
  "quiries": 2006,
  "enquiries": 2007,
  "viate": 2008,
  "leviate": 2009,
  "alleviate": 2010,
  "lared": 2011,
  "flared": 2012,
  "abies": 2013,
  "ocate": 2014,
  "vocate": 2015,
  "advocate": 2016,
  "inies": 2017,
  "tinies": 2018,
  "omers": 2019,
  "iomers": 2020,
  "antiomers": 2021,
  "enantiomers": 2022,
  "acate": 2023,
  "onacate": 2024,
  "Jonacate": 2025,
  "ciers": 2026,
  "anciers": 2027,
  "financiers": 2028,
  "atred": 2029,
  "hatred": 2030,
  "adies": 2031,
  "ladies": 2032,
  "itate": 2033,
  "ilitate": 2034,
  "acilitate": 2035,
  "facilitate": 2036,
  "ubers": 2037,
  "Aubers": 2038,
  "skies": 2039,
  "iners": 2040,
  "liners": 2041,
  "cling": 2042,
  "ircling": 2043,
  "circling": 2044,
  "anate": 2045,
  "ultanate": 2046,
  "Sultanate": 2047,
  "Wired": 2048,
  "ekers": 2049,
  "seekers": 2050,
  "atseekers": 2051,
  "Heatseekers": 2052,
  "goate": 2053,
  "unted": 2054,
  "aunted": 2055,
  "haunted": 2056,
  "shred": 2057,
  "elent": 2058,
  "Relent": 2059,
  "jored": 2060,
  "majored": 2061,
  "aited": 2062,
  "awaited": 2063,
  "stion": 2064,
  "austion": 2065,
  "haustion": 2066,
  "exhaustion": 2067,
  "pions": 2068,
  "orpions": 2069,
  "corpions": 2070,
  "Scorpions": 2071,
  "aties": 2072,
  "heaties": 2073,
  "Wheaties": 2074,
  "spate": 2075,
  "orent": 2076,
  "Lorent": 2077,
  "erent": 2078,
  "Berent": 2079,
  "heted": 2080,
  "ocheted": 2081,
  "icocheted": 2082,
  "ricocheted": 2083,
  "fling": 2084,
  "ffling": 2085,
  "erffling": 2086,
  "Derffling": 2087,
  "oning": 2088,
  "andoning": 2089,
  "abandoning": 2090,
  "esion": 2091,
  "hesion": 2092,
  "cohesion": 2093,
  "asies": 2094,
  "crasies": 2095,
  "ncrasies": 2096,
  "syncrasies": 2097,
  "iosyncrasies": 2098,
  "idiosyncrasies": 2099,
  "nated": 2100,
  "carnated": 2101,
  "excarnated": 2102,
  "bbers": 2103,
  "robbers": 2104,
  "Sting": 2105,
  "heers": 2106,
  "Cheers": 2107,
  "shing": 2108,
  "udent": 2109,
  "rudent": 2110,
  "Prudent": 2111,
  "mbers": 2112,
  "Embers": 2113,
  "goons": 2114,
  "upies": 2115,
  "cupies": 2116,
  "occupies": 2117,
  "poons": 2118,
  "ampoons": 2119,
  "lampoons": 2120,
  "igent": 2121,
  "elligent": 2122,
  "intelligent": 2123,
  "eters": 2124,
  "Peters": 2125,
  "ulent": 2126,
  "bulent": 2127,
  "urbulent": 2128,
  "turbulent": 2129,
  "llers": 2130,
  "sellers": 2131,
  "estsellers": 2132,
  "bestsellers": 2133,
  "oling": 2134,
  "cooling": 2135,
  "drate": 2136,
  "ydrate": 2137,
  "hydrate": 2138,
  "ofing": 2139,
  "proofing": 2140,
  "afers": 2141,
  "wafers": 2142,
  "izers": 2143,
  "idizers": 2144,
  "xidizers": 2145,
  "oxidizers": 2146,
  "toons": 2147,
  "cartoons": 2148,
  "teers": 2149,
  "unteers": 2150,
  "volunteers": 2151,
  "kered": 2152,
  "iskered": 2153,
  "whiskered": 2154,
  "called": 2155,
  "result": 2156,
  "ause": 2157,
  "rang": 2158,
  "ranging": 2159,
  "hal": 2160,
  "haling": 2161,
  "inhaling": 2162,
  "alted": 2163,
  "exalted": 2164,
  "cause": 2165,
  "ilding": 2166,
  "ting": 2167,
  "ronting": 2168,
  "fronting": 2169,
  "Confronting": 2170,
  "confronting": 2171,
  "butting": 2172,
  "rebutting": 2173,
  "wasting": 2174,
  "certing": 2175,
  "concerting": 2176,
  "disconcerting": 2177,
  "forting": 2178,
  "comforting": 2179,
  "renting": 2180,
  "elting": 2181,
  "melting": 2182,
  "ilting": 2183,
  "quilting": 2184,
  "unting": 2185,
  "Hunting": 2186,
  "irting": 2187,
  "flirting": 2188,
  "lting": 2189,
  "belting": 2190,
  "tting": 2191,
  "letting": 2192,
  "Amer": 2193,
  "cult": 2194,
  "start": 2195,
  "comple": 2196,
  "completing": 2197,
  "leting": 2198,
  "depleting": 2199,
  "pleting": 2200,
  "Completing": 2201,
  "aining": 2202,
  "draining": 2203,
  "partic": 2204,
  "formed": 2205,
  "cept": 2206,
  "cepting": 2207,
  "excepting": 2208,
  "ccepting": 2209,
  "Accepting": 2210,
  "Fate": 2211,
  "omin": 2212,
  "ominate": 2213,
  "edominate": 2214,
  "predominate": 2215,
  "ominion": 2216,
  "Dominion": 2217,
  "Dion": 2218,
  "line": 2219,
  "Hate": 2220,
  "fing": 2221,
  "surfing": 2222,
  "ysurfing": 2223,
  "skysurfing": 2224,
  "iefing": 2225,
  "briefing": 2226,
  "debriefing": 2227,
  "mate": 2228,
  "astmate": 2229,
  "castmate": 2230,
  "fies": 2231,
  "isfies": 2232,
  "atisfies": 2233,
  "satisfies": 2234,
  "Nies": 2235,
  "Pent": 2236,
  "nies": 2237,
  "unnies": 2238,
  "funnies": 2239,
  "lent": 2240,
  "Cate": 2241,
  "Mate": 2242,
  "Wies": 2243,
  "Gent": 2244,
  "ern": 2245,
  "gu": 2246,
  "30": 2247,
  "mb": 2248,
  "place": 2249,
  "character": 2250,
  "single": 2251,
  "ress": 2252,
  "oute": 2253,
  "nate": 2254,
  "innate": 2255,
  "lons": 2256,
  "helons": 2257,
  "chelons": 2258,
  "echelons": 2259,
  "Sate": 2260,
  "Sons": 2261,
  "Ning": 2262,
  "Vent": 2263,
  "vate": 2264,
  "elevate": 2265,
  "Lent": 2266,
  "uted": 2267,
  "muted": 2268,
  "transmuted": 2269,
  "hate": 2270,
  "Lies": 2271,
  "uent": 2272,
  "fluent": 2273,
  "influent": 2274,
  "tate": 2275,
  "rotate": 2276,
  "kies": 2277,
  "Skies": 2278,
  "Ging": 2279,
  "Bent": 2280,
  "fons": 2281,
  "defons": 2282,
  "ldefons": 2283,
  "Ildefons": 2284,
  "pies": 2285,
  "oppies": 2286,
  "Poppies": 2287,
  "fred": 2288,
  "Alfred": 2289,
  "Ters": 2290,
  "rion": 2291,
  "Orion": 2292,
  "Rent": 2293,
  "Went": 2294,
  "Bing": 2295,
  "hons": 2296,
  "akhons": 2297,
  "Nakhons": 2298,
  "Nate": 2299,
  "zers": 2300,
  "itzers": 2301,
  "owitzers": 2302,
  "howitzers": 2303,
  "xons": 2304,
  "axons": 2305,
  "Saxons": 2306,
  "bro": 2307,
  "construction": 2308,
  "Reconstruction": 2309,
  "received": 2310,
  "included": 2311,
  "round": 2312,
  "down": 2313,
  "ible": 2314,
  "each": 2315,
  "eaching": 2316,
  "Teaching": 2317,
  "five": 2318,
  "mil": 2319,
  "miling": 2320,
  "Smiling": 2321,
  "cap": 2322,
  "aph": 2323,
  "hers": 2324,
  "ism": 2325,
  "iva": 2326,
  "Shiva": 2327,
  "large": 2328,
  "order": 2329,
  "ather": 2330,
  "thered": 2331,
  "tethered": 2332,
  "mothered": 2333,
  "smothered": 2334,
  "tober": 2335,
  "ctober": 2336,
  "October": 2337,
  "same": 2338,
  "ince": 2339,
  "illo": 2340,
  "jillo": 2341,
  "rujillo": 2342,
  "Trujillo": 2343,
  "div": 2344,
  "vel": 2345,
  "10": 2346,
  "members": 2347,
  "India": 2348,
  "book": 2349,
  "booking": 2350,
  "oman": 2351,
  "care": 2352,
  "par": 2353,
  "aration": 2354,
  "claration": 2355,
  "declaration": 2356,
  "tow": 2357,
  "towers": 2358,
  "wers": 2359,
  "answers": 2360,
  "along": 2361,
  "ually": 2362,
  "appro": 2363,
  "ility": 2364,
  "oring": 2365,
  "coloring": 2366,
  "ignoring": 2367,
  "ploring": 2368,
  "exploring": 2369,
  "xploring": 2370,
  "Exploring": 2371,
  "onoring": 2372,
  "honoring": 2373,
  "storing": 2374,
  "restoring": 2375,
  "thoring": 2376,
  "authoring": 2377,
  "contro": 2378,
  "During": 2379,
  "batt": 2380,
  "batted": 2381,
  "atted": 2382,
  "matted": 2383,
  "amed": 2384,
  "away": 2385,
  "operations": 2386,
  "War": 2387,
  "urt": 2388,
  "ood": 2389,
  "15": 2390,
  "direct": 2391,
  "pect": 2392,
  "vent": 2393,
  "ventions": 2394,
  "conventions": 2395,
  "entions": 2396,
  "intentions": 2397,
  "tervent": 2398,
  "tervention": 2399,
  "Intervention": 2400,
  "Convent": 2401,
  "Convention": 2402,
  "Invent": 2403,
  "Invention": 2404,
  "mot": 2405,
  "ase": 2406,
  "fle": 2407,
  "flection": 2408,
  "reflection": 2409,
  "inflection": 2410,
  "inflections": 2411,
  "quad": 2412,
  "took": 2413,
  "beli": 2414,
  "production": 2415,
  "government": 2416,
  "hel": 2417,
  "ium": 2418,
  "Air": 2419,
  "la": 2420,
  "release": 2421,
  "aving": 2422,
  "graving": 2423,
  "engraving": 2424,
  "Engraving": 2425,
  "Shaving": 2426,
  "becom": 2427,
  "world": 2428,
  "North": 2429,
  "ested": 2430,
  "attested": 2431,
  "ifested": 2432,
  "manifested": 2433,
  "guested": 2434,
  "chested": 2435,
  "vested": 2436,
  "arvested": 2437,
  "harvested": 2438,
  "fested": 2439,
  "infested": 2440,
  "formation": 2441,
  "transformation": 2442,
  "people": 2443,
  "career": 2444,
  "mark": 2445,
  "marking": 2446,
  "arkers": 2447,
  "Barkers": 2448,
  "dif": 2449,
  "did": 2450,
  "gl": 2451,
  "NB": 2452,
  "atter": 2453,
  "aprang": 2454,
  "Saprang": 2455,
  "hand": 2456,
  "less": 2457,
  "pop": 2458,
  "fam": 2459,
  "national": 2460,
  "iving": 2461,
  "ceiving": 2462,
  "perceiving": 2463,
  "graph": 2464,
  "event": 2465,
  "ferent": 2466,
  "ifferent": 2467,
  "undifferent": 2468,
  "different": 2469,
  "person": 2470,
  "ideo": 2471,
  "leg": 2472,
  "ry": 2473,
  "rying": 2474,
  "ferrying": 2475,
  "Crying": 2476,
  "ained": 2477,
  "lying": 2478,
  "applying": 2479,
  "ullying": 2480,
  "bullying": 2481,
  "relying": 2482,
  "plying": 2483,
  "ending": 2484,
  "commending": 2485,
  "recommending": 2486,
  "extending": 2487,
  "intending": 2488,
  "offending": 2489,
  "Blending": 2490,
  "fending": 2491,
  "defending": 2492,
  "sending": 2493,
  "vision": 2494,
  "provision": 2495,
  "visioning": 2496,
  "envisioning": 2497,
  "pervision": 2498,
  "supervision": 2499,
  "revision": 2500,
  "rovision": 2501,
  "Provision": 2502,
  "scored": 2503,
  "cember": 2504,
  "December": 2505,
  "show": 2506,
  "cour": 2507,
  "Jan": 2508,
  "por": 2509,
  "porating": 2510,
  "orporating": 2511,
  "corporating": 2512,
  "incorporating": 2513,
  "orating": 2514,
  "aborating": 2515,
  "elaborating": 2516,
  "laborating": 2517,
  "collaborating": 2518,
  "cavation": 2519,
  "ified": 2520,
  "useum": 2521,
  "ement": 2522,
  "rangement": 2523,
  "arrangement": 2524,
  "basement": 2525,
  "finement": 2526,
  "confinement": 2527,
  "ingement": 2528,
  "ringement": 2529,
  "fringement": 2530,
  "infringement": 2531,
  "forement": 2532,
  "foremention": 2533,
  "aforemention": 2534,
  "azement": 2535,
  "amazement": 2536,
  "gement": 2537,
  "udgement": 2538,
  "judgement": 2539,
  "orgement": 2540,
  "gorgement": 2541,
  "disgorgement": 2542,
  "stated": 2543,
  "consid": 2544,
  "considered": 2545,
  "school": 2546,
  "home": 2547,
  "site": 2548,
  "left": 2549,
  "ling": 2550,
  "battling": 2551,
  "rangling": 2552,
  "wrangling": 2553,
  "Colling": 2554,
  "ingling": 2555,
  "mingling": 2556,
  "intermingling": 2557,
  "rowling": 2558,
  "growling": 2559,
  "attling": 2560,
  "rattling": 2561,
  "edling": 2562,
  "seedling": 2563,
  "needling": 2564,
  "awling": 2565,
  "trawling": 2566,
  "ckling": 2567,
  "suckling": 2568,
  "itling": 2569,
  "entitling": 2570,
  "tling": 2571,
  "settling": 2572,
  "uttling": 2573,
  "scuttling": 2574,
  "zling": 2575,
  "azzling": 2576,
  "dazzling": 2577,
  "sling": 2578,
  "Isling": 2579,
  "excavation": 2580,
  "ird": 2581,
  "ung": 2582,
  "ral": 2583,
  "produced": 2584,
  "building": 2585,
  "shipbuilding": 2586,
  "rebuilding": 2587,
  "another": 2588,
  "group": 2589,
  "States": 2590,
  "Rock": 2591,
  "Rocking": 2592,
  "ocking": 2593,
  "Hocking": 2594,
  "Ac": 2595,
  "quadron": 2596,
  "itary": 2597,
  "incre": 2598,
  "organ": 2599,
  "period": 2600,
  "August": 2601,
  "ying": 2602,
  "medying": 2603,
  "remedying": 2604,
  "roying": 2605,
  "estroying": 2606,
  "destroying": 2607,
  "odying": 2608,
  "parodying": 2609,
  "bodying": 2610,
  "embodying": 2611,
  "enying": 2612,
  "denying": 2613,
  "buying": 2614,
  "crying": 2615,
  "spying": 2616,
  "Lying": 2617,
  "vying": 2618,
  "just": 2619,
  "usted": 2620,
  "trusted": 2621,
  "Dusted": 2622,
  "open": 2623,
  "uch": 2624,
  "uching": 2625,
  "touching": 2626,
  "bar": 2627,
  "Be": 2628,
  "Being": 2629,
  "reported": 2630,
  "child": 2631,
  "quent": 2632,
  "quented": 2633,
  "requented": 2634,
  "frequented": 2635,
  "around": 2636,
  "within": 2637,
  "forman": 2638,
  "performan": 2639,
  "king": 2640,
  "moking": 2641,
  "smoking": 2642,
  "unking": 2643,
  "dunking": 2644,
  "issu": 2645,
  "life": 2646,
  "ator": 2647,
  "ross": 2648,
  "particular": 2649,
  "avy": 2650,
  "une": 2651,
  "fr": 2652,
  "games": 2653,
  "human": 2654,
  "humanities": 2655,
  "anities": 2656,
  "umanities": 2657,
  "Humanities": 2658,
  "published": 2659,
  "spec": 2660,
  "pril": 2661,
  "April": 2662,
  "Mark": 2663,
  "ibed": 2664,
  "described": 2665,
  "roy": 2666,
  "unt": 2667,
  "enn": 2668,
  "General": 2669,
  "thing": 2670,
  "Nothing": 2671,
  "moved": 2672,
  "noted": 2673,
  "Route": 2674,
  "ctions": 2675,
  "spections": 2676,
  "inspections": 2677,
  "erections": 2678,
  "erection": 2679,
  "inctions": 2680,
  "istinctions": 2681,
  "distinctions": 2682,
  "anctions": 2683,
  "sanctions": 2684,
  "jections": 2685,
  "objections": 2686,
  "anction": 2687,
  "sanction": 2688,
  "inction": 2689,
  "istinction": 2690,
  "distinction": 2691,
  "uctions": 2692,
  "reductions": 2693,
  "pass": 2694,
  "tem": 2695,
  "ier": 2696,
  "iering": 2697,
  "oldiering": 2698,
  "soldiering": 2699,
  "jor": 2700,
  "pur": 2701,
  "oth": 2702,
  "Car": 2703,
  "Tr": 2704,
  "Tries": 2705,
  "American": 2706,
  "ulation": 2707,
  "undulation": 2708,
  "ibulation": 2709,
  "Tribulation": 2710,
  "imulation": 2711,
  "simulation": 2712,
  "ipulation": 2713,
  "manipulation": 2714,
  "itulation": 2715,
  "capitulation": 2716,
  "gulation": 2717,
  "Regulation": 2718,
  "pointed": 2719,
  "ppointed": 2720,
  "Appointed": 2721,
  "scoring": 2722,
  "adition": 2723,
  "tradition": 2724,
  "using": 2725,
  "amusing": 2726,
  "World": 2727,
  "appointed": 2728,
  "disappointed": 2729,
  "points": 2730,
  "Markgr": 2731,
  "rest": 2732,
  "resting": 2733,
  "stored": 2734,
  "even": 2735,
  "cle": 2736,
  "GA": 2737,
  "original": 2738,
  "ivities": 2739,
  "ctivities": 2740,
  "Activities": 2741,
  "activities": 2742,
  "thern": 2743,
  "ondon": 2744,
  "London": 2745,
  "Comm": 2746,
  "infl": 2747,
  "rote": 2748,
  "rotected": 2749,
  "Protected": 2750,
  "throughout": 2751,
  "ves": 2752,
  "ank": 2753,
  "ankers": 2754,
  "bankers": 2755,
  "kers": 2756,
  "unkers": 2757,
  "Junkers": 2758,
  "ikers": 2759,
  "strikers": 2760,
  "Str": 2761,
  "NBA": 2762,
  "ep": 2763,
  "jo": 2764,
  "appeared": 2765,
  "continu": 2766,
  "uing": 2767,
  "oguing": 2768,
  "aloguing": 2769,
  "ataloguing": 2770,
  "cataloguing": 2771,
  "Univers": 2772,
  "ision": 2773,
  "recision": 2774,
  "precision": 2775,
  "lision": 2776,
  "collision": 2777,
  "ached": 2778,
  "ember": 2779,
  "ptember": 2780,
  "September": 2781,
  "chart": 2782,
  "charting": 2783,
  "arting": 2784,
  "Starting": 2785,
  "South": 2786,
  "ature": 2787,
  "sociation": 2788,
  "Little": 2789,
  "ically": 2790,
  "They": 2791,
  "oung": 2792,
  "agre": 2793,
  "reement": 2794,
  "greement": 2795,
  "Agreement": 2796,
  "ford": 2797,
  "week": 2798,
  "2013": 2799,
  "plan": 2800,
  "ese": 2801,
  "17": 2802,
  "returned": 2803,
  "vious": 2804,
  "previous": 2805,
  "ution": 2806,
  "right": 2807,
  "urtad": 2808,
  "Furtad": 2809,
  "Furtado": 2810,
  "family": 2811,
  "Char": 2812,
  "ving": 2813,
  "approving": 2814,
  "curving": 2815,
  "olving": 2816,
  "evolving": 2817,
  "solving": 2818,
  "dissolving": 2819,
  "rving": 2820,
  "Irving": 2821,
  "oving": 2822,
  "Moving": 2823,
  "sent": 2824,
  "dissent": 2825,
  "absent": 2826,
  "empt": 2827,
  "attempt": 2828,
  "late": 2829,
  "Slate": 2830,
  "fic": 2831,
  "Am": 2832,
  "ination": 2833,
  "inclination": 2834,
  "ordination": 2835,
  "coordination": 2836,
  "agination": 2837,
  "imagination": 2838,
  "amination": 2839,
  "examination": 2840,
  "cination": 2841,
  "ascination": 2842,
  "fascination": 2843,
  "rination": 2844,
  "ctrination": 2845,
  "octrination": 2846,
  "indoctrination": 2847,
  "sequent": 2848,
  "Consequent": 2849,
  "consequent": 2850,
  "posed": 2851,
  "ports": 2852,
  "urther": 2853,
  "alky": 2854,
  "ward": 2855,
  "warding": 2856,
  "rewarding": 2857,
  "unrewarding": 2858,
  "June": 2859,
  "name": 2860,
  "near": 2861,
  "neared": 2862,
  "eared": 2863,
  "feared": 2864,
  "iety": 2865,
  "Fran": 2866,
  "12": 2867,
  "recorded": 2868,
  "chaeolog": 2869,
  "Archaeolog": 2870,
  "monument": 2871,
  "located": 2872,
  "because": 2873,
  "third": 2874,
  "ately": 2875,
  "final": 2876,
  "ander": 2877,
  "andering": 2878,
  "quandering": 2879,
  "squandering": 2880,
  "named": 2881,
  "underground": 2882,
  "According": 2883,
  "continued": 2884,
  "ferred": 2885,
  "sferred": 2886,
  "ransferred": 2887,
  "Transferred": 2888,
  "isting": 2889,
  "persisting": 2890,
  "insisting": 2891,
  "undisting": 2892,
  "commer": 2893,
  "commercial": 2894,
  "band": 2895,
  "inch": 2896,
  "lim": 2897,
  "limination": 2898,
  "Elimination": 2899,
  "imination": 2900,
  "crimination": 2901,
  "discrimination": 2902,
  "elimination": 2903,
  "los": 2904,
  "ilt": 2905,
  "abl": 2906,
  "establ": 2907,
  "aim": 2908,
  "ys": 2909,
  "military": 2910,
  "officers": 2911,
  "training": 2912,
  "reaction": 2913,
  "limited": 2914,
  "Britain": 2915,
  "There": 2916,
  "invol": 2917,
  "volving": 2918,
  "revolving": 2919,
  "month": 2920,
  "wrote": 2921,
  "Roman": 2922,
  "promot": 2923,
  "moted": 2924,
  "demoted": 2925,
  "commun": 2926,
  "uary": 2927,
  "January": 2928,
  "ibut": 2929,
  "buting": 2930,
  "debuting": 2931,
  "ient": 2932,
  "ientation": 2933,
  "orientation": 2934,
  "entation": 2935,
  "amentation": 2936,
  "ornamentation": 2937,
  "ipient": 2938,
  "recipient": 2939,
  "atient": 2940,
  "patient": 2941,
  "impatient": 2942,
  "icient": 2943,
  "oficient": 2944,
  "proficient": 2945,
  "client": 2946,
  "enient": 2947,
  "lenient": 2948,
  "adient": 2949,
  "gradient": 2950,
  "iven": 2951,
  "rope": 2952,
  "ilot": 2953,
  "iloting": 2954,
  "Piloting": 2955,
  "successful": 2956,
  "gen": 2957,
  "193": 2958,
  "bus": 2959,
  "So": 2960,
  "However": 2961,
  "version": 2962,
  "perversion": 2963,
  "Valky": 2964,
  "Valkyr": 2965,
  "Valkyria": 2966,
  "ially": 2967,
  "those": 2968,
  "ivate": 2969,
  "activate": 2970,
  "motivate": 2971,
  "major": 2972,
  "Music": 2973,
  "built": 2974,
  "Indian": 2975,
  "former": 2976,
  "ared": 2977,
  "cleared": 2978,
  "illared": 2979,
  "pillared": 2980,
  "scared": 2981,
  "frared": 2982,
  "infrared": 2983,
  "ouse": 2984,
  "omen": 2985,
  "characters": 2986,
  "subsequent": 2987,
  "arg": 2988,
  "ble": 2989,
  "rum": 2990,
  "ski": 2991,
  "fig": 2992,
  "Ph": 2993,
  "standing": 2994,
  "longstanding": 2995,
  "support": 2996,
  "leading": 2997,
  "writing": 2998,
  "songwriting": 2999,
  "aries": 3000,
  "reactionaries": 3001,
  "umentaries": 3002,
  "ocumentaries": 3003,
  "documentaries": 3004,
  "iversaries": 3005,
  "anniversaries": 3006,
  "ibutaries": 3007,
  "tributaries": 3008,
  "ionaries": 3009,
  "ictionaries": 3010,
  "dictionaries": 3011,
  "poraries": 3012,
  "emporaries": 3013,
  "contemporaries": 3014,
  "inaries": 3015,
  "uminaries": 3016,
  "luminaries": 3017,
  "enaries": 3018,
  "cenaries": 3019,
  "mercenaries": 3020,
  "maries": 3021,
  "ummaries": 3022,
  "Summaries": 3023,
  "iaries": 3024,
  "mediaries": 3025,
  "intermediaries": 3026,
  "often": 3027,
  "urope": 3028,
  "Europe": 3029,
  "polit": 3030,
  "Association": 3031,
  "operation": 3032,
  "cooperation": 3033,
  "import": 3034,
  "real": 3035,
  "reallocated": 3036,
  "allocated": 3037,
  "realities": 3038,
  "alities": 3039,
  "qualities": 3040,
  "inequalities": 3041,
  "atalities": 3042,
  "fatalities": 3043,
  "post": 3044,
  "posting": 3045,
  "Jack": 3046,
  "goal": 3047,
  "2007": 3048,
  "Shol": 3049,
  "Sholay": 3050,
  "195": 3051,
  "ero": 3052,
  "osion": 3053,
  "plosion": 3054,
  "explosion": 3055,
  "Ad": 3056,
  "created": 3057,
  "itted": 3058,
  "emitted": 3059,
  "pitted": 3060,
  "ively": 3061,
  "ising": 3062,
  "hasising": 3063,
  "phasising": 3064,
  "emphasising": 3065,
  "alising": 3066,
  "italising": 3067,
  "vitalising": 3068,
  "revitalising": 3069,
  "qualising": 3070,
  "equalising": 3071,
  "icising": 3072,
  "criticising": 3073,
  "inising": 3074,
  "utinising": 3075,
  "crutinising": 3076,
  "scrutinising": 3077,
  "onising": 3078,
  "agonising": 3079,
  "antagonising": 3080,
  "rising": 3081,
  "nising": 3082,
  "ognising": 3083,
  "recognising": 3084,
  "cognising": 3085,
  "Recognising": 3086,
  "tising": 3087,
  "vertising": 3088,
  "advertising": 3089,
  "relig": 3090,
  "itions": 3091,
  "finitions": 3092,
  "definitions": 3093,
  "Definitions": 3094,
  "peditions": 3095,
  "expeditions": 3096,
  "nditions": 3097,
  "renditions": 3098,
  "uditions": 3099,
  "auditions": 3100,
  "isitions": 3101,
  "quisitions": 3102,
  "acquisitions": 3103,
  "ention": 3104,
  "contention": 3105,
  "intent": 3106,
  "flying": 3107,
  "reeflying": 3108,
  "freeflying": 3109,
  "apping": 3110,
  "crapping": 3111,
  "scrapping": 3112,
  "lapping": 3113,
  "overlapping": 3114,
  "slapping": 3115,
  "napping": 3116,
  "idnapping": 3117,
  "kidnapping": 3118,
  "rapping": 3119,
  "tapping": 3120,
  "lock": 3121,
  "much": 3122,
  "held": 3123,
  "read": 3124,
  "readers": 3125,
  "West": 3126,
  "reak": 3127,
  "ior": 3128,
  "ioration": 3129,
  "terioration": 3130,
  "deterioration": 3131,
  "iorities": 3132,
  "priorities": 3133,
  "iorated": 3134,
  "teriorated": 3135,
  "deteriorated": 3136,
  "iorate": 3137,
  "teriorate": 3138,
  "deteriorate": 3139,
  "Pr": 3140,
  "Pries": 3141,
  "ries": 3142,
  "entries": 3143,
  "levision": 3144,
  "television": 3145,
  "partment": 3146,
  "compartment": 3147,
  "Although": 3148,
  "contract": 3149,
  "contracting": 3150,
  "Squadron": 3151,
  "quadrons": 3152,
  "squadrons": 3153,
  "popular": 3154,
  "iting": 3155,
  "transiting": 3156,
  "positing": 3157,
  "depositing": 3158,
  "igniting": 3159,
  "reigniting": 3160,
  "abiting": 3161,
  "habiting": 3162,
  "inhabiting": 3163,
  "feiting": 3164,
  "terfeiting": 3165,
  "counterfeiting": 3166,
  "efiting": 3167,
  "enefiting": 3168,
  "benefiting": 3169,
  "omiting": 3170,
  "vomiting": 3171,
  "diting": 3172,
  "Editing": 3173,
  "uiting": 3174,
  "cruiting": 3175,
  "recruiting": 3176,
  "since": 3177,
  "north": 3178,
  "minut": 3179,
  "recording": 3180,
  "Strapping": 3181,
  "making": 3182,
  "playmaking": 3183,
  "filmmaking": 3184,
  "vemaking": 3185,
  "lovemaking": 3186,
  "player": 3187,
  "uments": 3188,
  "divine": 3189,
  "role": 3190,
  "lect": 3191,
  "last": 3192,
  "lasting": 3193,
  "blasting": 3194,
  "what": 3195,
  "ront": 3196,
  "rontations": 3197,
  "frontations": 3198,
  "confrontations": 3199,
  "imes": 3200,
  "sugg": 3201,
  "seen": 3202,
  "bod": 3203,
  "boding": 3204,
  "foreboding": 3205,
  "syn": 3206,
  "der": 3207,
  "dering": 3208,
  "urdering": 3209,
  "murdering": 3210,
  "ls": 3211,
  "National": 3212,
  "relation": 3213,
  "Markgraf": 3214,
  "players": 3215,
  "further": 3216,
  "great": 3217,
  "until": 3218,
  "gener": 3219,
  "having": 3220,
  "placed": 3221,
  "cation": 3222,
  "uncation": 3223,
  "truncation": 3224,
  "enal": 3225,
  "ales": 3226,
  "alescent": 3227,
  "valescent": 3228,
  "convalescent": 3229,
  "hold": 3230,
  "holders": 3231,
  "upholders": 3232,
  "thor": 3233,
  "orities": 3234,
  "minorities": 3235,
  "ages": 3236,
  "prim": 3237,
  "ric": 3238,
  "rication": 3239,
  "abrication": 3240,
  "fabrication": 3241,
  "Fabrication": 3242,
  "ricating": 3243,
  "abricating": 3244,
  "fabricating": 3245,
  "ricated": 3246,
  "abricated": 3247,
  "Fabricated": 3248,
  "fabricated": 3249,
  "prefabricated": 3250,
  "dom": 3251,
  "Kingdom": 3252,
  "sol": 3253,
  "increas": 3254,
  "various": 3255,
  "covered": 3256,
  "uncovered": 3257,
  "ruary": 3258,
  "bruary": 3259,
  "February": 3260,
  "songs": 3261,
  "Austr": 3262,
  "represented": 3263,
  "developed": 3264,
  "suggested": 3265,
  "turn": 3266,
  "chan": 3267,
  "ulls": 3268,
  "Bulls": 3269,
  "Department": 3270,
  "ina": 3271,
  "cy": 3272,
  "Gr": 3273,
  "actions": 3274,
  "transactions": 3275,
  "teractions": 3276,
  "Interactions": 3277,
  "tractions": 3278,
  "attractions": 3279,
  "fractions": 3280,
  "infractions": 3281,
  "Reactions": 3282,
  "sactions": 3283,
  "ransactions": 3284,
  "Transactions": 3285,
  "started": 3286,
  "restarted": 3287,
  "stead": 3288,
  "allow": 3289,
  "south": 3290,
  "Union": 3291,
  "water": 3292,
  "iding": 3293,
  "residing": 3294,
  "oiding": 3295,
  "avoiding": 3296,
  "Riding": 3297,
  "sound": 3298,
  "ounding": 3299,
  "wounding": 3300,
  "performance": 3301,
  "according": 3302,
  "others": 3303,
  "Mothers": 3304,
  "ission": 3305,
  "omission": 3306,
  "commission": 3307,
  "Decommission": 3308,
  "Decommissioning": 3309,
  "signed": 3310,
  "father": 3311,
  "histor": 3312,
  "depict": 3313,
  "depictions": 3314,
  "went": 3315,
  "Twent": 3316,
  "fect": 3317,
  "fecting": 3318,
  "affecting": 3319,
  "Army": 3320,
  "dest": 3321,
  "init": 3322,
  "aton": 3323,
  "Eaton": 3324,
  "poss": 3325,
  "arly": 3326,
  "proportionately": 3327,
  "Internationally": 3328,
  "Government": 3329,
  "increasing": 3330,
  "den": 3331,
  "orm": 3332,
  "197": 3333,
  "192": 3334,
  "11": 3335,
  "ilities": 3336,
  "tilities": 3337,
  "Utilities": 3338,
  "bilities": 3339,
  "Abilities": 3340,
  "without": 3341,
  "destroy": 3342,
  "country": 3343,
  "station": 3344,
  "ootball": 3345,
  "pment": 3346,
  "development": 3347,
  "ering": 3348,
  "withering": 3349,
  "lowering": 3350,
  "towering": 3351,
  "offering": 3352,
  "ostering": 3353,
  "fostering": 3354,
  "ustering": 3355,
  "clustering": 3356,
  "steering": 3357,
  "teering": 3358,
  "unteering": 3359,
  "olunteering": 3360,
  "Volunteering": 3361,
  "Steering": 3362,
  "idering": 3363,
  "onsidering": 3364,
  "Considering": 3365,
  "Sering": 3366,
  "eering": 3367,
  "ioneering": 3368,
  "pioneering": 3369,
  "pion": 3370,
  "remaining": 3371,
  "completed": 3372,
  "important": 3373,
  "review": 3374,
  "astern": 3375,
  "stem": 3376,
  "system": 3377,
  "half": 3378,
  "area": 3379,
  "City": 3380,
  "2006": 3381,
  "aforementioned": 3382,
  "Ali": 3383,
  "traditionally": 3384,
  "Is": 3385,
  "Me": 3386,
  "Br": 3387,
  "featured": 3388,
  "special": 3389,
  "based": 3390,
  "death": 3391,
  "match": 3392,
  "matching": 3393,
  "soundmatching": 3394,
  "forces": 3395,
  "imated": 3396,
  "decimated": 3397,
  "ximated": 3398,
  "approximated": 3399,
  "stat": 3400,
  "statement": 3401,
  "atement": 3402,
  "abatement": 3403,
  "city": 3404,
  "pite": 3405,
  "road": 3406,
  "eved": 3407,
  "adem": 3408,
  "archaeological": 3409,
  "oarchaeological": 3410,
  "steoarchaeological": 3411,
  "Osteoarchaeological": 3412,
  "eoarchaeological": 3413,
  "osteoarchaeological": 3414,
  "fac": 3415,
  "acilities": 3416,
  "Facilities": 3417,
  "Pro": 3418,
  "sim": 3419,
  "val": 3420,
  "valent": 3421,
  "prevalent": 3422,
  "occ": 3423,
  "six": 3424,
  "ned": 3425,
  "Relationships": 3426,
  "operationally": 3427,
  "perfectionist": 3428,
  "developmental": 3429,
  "compartmental": 3430,
  "compartmentalised": 3431,
  "characterized": 3432,
  "Unfortunately": 3433,
  "spokesperson": 3434,
  "private": 3435,
  "ization": 3436,
  "ationalization": 3437,
  "denationalization": 3438,
  "thorization": 3439,
  "authorization": 3440,
  "realization": 3441,
  "onization": 3442,
  "colonization": 3443,
  "ivization": 3444,
  "lectivization": 3445,
  "collectivization": 3446,
  "local": 3447,
  "ories": 3448,
  "ictories": 3449,
  "victories": 3450,
  "visories": 3451,
  "advisories": 3452,
  "Stories": 3453,
  "itories": 3454,
  "positories": 3455,
  "depositories": 3456,
  "arker": 3457,
  "March": 3458,
  "atory": 3459,
  "claim": 3460,
  "given": 3461,
  "ament": 3462,
  "amenting": 3463,
  "lamenting": 3464,
  "enting": 3465,
  "imenting": 3466,
  "perimenting": 3467,
  "experimenting": 3468,
  "lament": 3469,
  "lamented": 3470,
  "amented": 3471,
  "ornamented": 3472,
  "ornament": 3473,
  "rament": 3474,
  "utrament": 3475,
  "Putrament": 3476,
  "arian": 3477,
  "aying": 3478,
  "Staying": 3479,
  "flaying": 3480,
  "elaying": 3481,
  "minelaying": 3482,
  "paying": 3483,
  "pilot": 3484,
  "established": 3485,
  "icated": 3486,
  "communicated": 3487,
  "adicated": 3488,
  "eradicated": 3489,
  "region": 3490,
  "arkson": 3491,
  "Clarkson": 3492,
  "ploy": 3493,
  "oying": 3494,
  "annoying": 3495,
  "joying": 3496,
  "enjoying": 3497,
  "iers": 3498,
  "couriers": 3499,
  "rontiers": 3500,
  "frontiers": 3501,
  "upiers": 3502,
  "occupiers": 3503,
  "giers": 3504,
  "Algiers": 3505,
  "make": 3506,
  "ives": 3507,
  "ples": 3508,
  "che": 3509,
  "may": 3510,
  "aly": 3511,
  "13": 3512,
  "Consequently": 3513,
  "undifferenti": 3514,
  "undifferentiated": 3515,
  "characterise": 3516,
  "nationalized": 3517,
  "commissioner": 3518,
  "additionally": 3519,
  "practitioner": 3520,
  "Governmental": 3521,
  "Archaeologia": 3522,
  "nationalists": 3523,
  "playing": 3524,
  "displaying": 3525,
  "ference": 3526,
  "interference": 3527,
  "anted": 3528,
  "planted": 3529,
  "supplanted": 3530,
  "Wanted": 3531,
  "Black": 3532,
  "board": 3533,
  "layer": 3534,
  "metal": 3535,
  "reakthrough": 3536,
  "breakthrough": 3537,
  "reactionary": 3538,
  "specialists": 3539,
  "oarchaeolog": 3540,
  "oarchaeologists": 3541,
  "eoarchaeologists": 3542,
  "osteoarchaeologists": 3543,
  "approvingly": 3544,
  "estimated": 3545,
  "supported": 3546,
  "estern": 3547,
  "attack": 3548,
  "quired": 3549,
  "inquired": 3550,
  "Poland": 3551,
  "sold": 3552,
  "fire": 3553,
  "shot": 3554,
  "Cent": 3555,
  "Sovi": 3556,
  "University": 3557,
  "fem": 3558,
  "put": 3559,
  "puting": 3560,
  "isputing": 3561,
  "Disputing": 3562,
  "tro": 3563,
  "beh": 3564,
  "van": 3565,
  "Can": 3566,
  "cir": 3567,
  "Ne": 3568,
  "volution": 3569,
  "volutionised": 3570,
  "revolutionised": 3571,
  "volutionized": 3572,
  "revolutionized": 3573,
  "resident": 3574,
  "President": 3575,
  "Presidential": 3576,
  "remained": 3577,
  "believed": 3578,
  "Jackets": 3579,
  "comment": 3580,
  "stitute": 3581,
  "award": 3582,
  "short": 3583,
  "Colum": 3584,
  "ofess": 3585,
  "ofessions": 3586,
  "professions": 3587,
  "profess": 3588,
  "influ": 3589,
  "wards": 3590,
  "popularised": 3591,
  "revisionary": 3592,
  "ationalized": 3593,
  "rationalized": 3594,
  "standpoints": 3595,
  "transformed": 3596,
  "influential": 3597,
  "servational": 3598,
  "bservational": 3599,
  "Observational": 3600,
  "politically": 3601,
  "Generalplan": 3602,
  "popularized": 3603,
  "schoolchild": 3604,
  "schoolchildren": 3605,
  "Derfflinger": 3606,
  "furthermore": 3607,
  "Alternately": 3608,
  "unpublished": 3609,
  "commentator": 3610,
  "contractual": 3611,
  "structional": 3612,
  "instruction": 3613,
  "instructions": 3614,
  "instructional": 3615,
  "underpromot": 3616,
  "underpromoted": 3617,
  "nationalism": 3618,
  "Americanism": 3619,
  "attempted": 3620,
  "performed": 3621,
  "president": 3622,
  "lected": 3623,
  "Selected": 3624,
  "glected": 3625,
  "neglected": 3626,
  "inning": 3627,
  "ginning": 3628,
  "beginning": 3629,
  "critic": 3630,
  "search": 3631,
  "Barker": 3632,
  "League": 3633,
  "iation": 3634,
  "variation": 3635,
  "mediation": 3636,
  "aliation": 3637,
  "retaliation": 3638,
  "cret": 3639,
  "take": 3640,
  "will": 3641,
  "resp": 3642,
  "nder": 3643,
  "cing": 3644,
  "ouncing": 3645,
  "denouncing": 3646,
  "mincing": 3647,
  "incing": 3648,
  "vincing": 3649,
  "convincing": 3650,
  "ducing": 3651,
  "roducing": 3652,
  "introducing": 3653,
  "ucing": 3654,
  "reducing": 3655,
  "convincingly": 3656,
  "anti": 3657,
  "antiated": 3658,
  "stantiated": 3659,
  "substantiated": 3660,
  "unsubstantiated": 3661,
  "sanctioned": 3662,
  "prehistory": 3663,
  "continence": 3664,
  "incontinence": 3665,
  "supportive": 3666,
  "unoriginal": 3667,
  "recordings": 3668,
  "unreleased": 3669,
  "monumental": 3670,
  "Accrington": 3671,
  "cru": 3672,
  "gre": 3673,
  "won": 3674,
  "Red": 3675,
  "Reding": 3676,
  "Mad": 3677,
  "Ro": 3678,
  "signific": 3679,
  "Columbus": 3680,
  "mission": 3681,
  "Admission": 3682,
  "however": 3683,
  "written": 3684,
  "century": 3685,
  "influen": 3686,
  "influencing": 3687,
  "encing": 3688,
  "periencing": 3689,
  "experiencing": 3690,
  "fencing": 3691,
  "winning": 3692,
  "reached": 3693,
  "ication": 3694,
  "medication": 3695,
  "indication": 3696,
  "State": 3697,
  "These": 3698,
  "transferred": 3699,
  "consisted": 3700,
  "attention": 3701,
  "become": 3702,
  "member": 3703,
  "mitted": 3704,
  "transmitted": 3705,
  "behind": 3706,
  "lement": 3707,
  "ernand": 3708,
  "Fernand": 3709,
  "Fernande": 3710,
  "Madero": 3711,
  "aken": 3712,
  "akening": 3713,
  "weakening": 3714,
  "Blue": 3715,
  "Long": 3716,
  "aver": 3717,
  "rock": 3718,
  "rocking": 3719,
  "Unrecorded": 3720,
  "revolution": 3721,
  "vehemently": 3722,
  "missionary": 3723,
  "anderstead": 3724,
  "Sanderstead": 3725,
  "Percentage": 3726,
  "ologically": 3727,
  "thologically": 3728,
  "mythologically": 3729,
  "personific": 3730,
  "personification": 3731,
  "creational": 3732,
  "Recreational": 3733,
  "pointments": 3734,
  "appointments": 3735,
  "Jonacatepe": 3736,
  "Jonacatepec": 3737,
  "stationary": 3738,
  "watercraft": 3739,
  "Relentless": 3740,
  "ofessional": 3741,
  "Professional": 3742,
  "Afterwards": 3743,
  "publicized": 3744,
  "Germanized": 3745,
  "directives": 3746,
  "Columbuses": 3747,
  "underwater": 3748,
  "constitute": 3749,
  "positioned": 3750,
  "Christmasy": 3751,
  "relentless": 3752,
  "relentlessly": 3753,
  "Reportedly": 3754,
  "Prudential": 3755,
  "singlehand": 3756,
  "singlehanded": 3757,
  "singlehandedly": 3758,
  "Indianised": 3759,
  "continuity": 3760,
  "continents": 3761,
  "northwards": 3762,
  "regionally": 3763,
  "beforehand": 3764,
  "oto": 3765,
  "ask": 3766,
  "cor": 3767,
  "tit": 3768,
  "sit": 3769,
  "hip": 3770,
  "ael": 3771,
  "aer": 3772,
  "allowing": 3773,
  "creation": 3774,
  "procreation": 3775,
  "ucation": 3776,
  "education": 3777,
  "Austral": 3778,
  "forming": 3779,
  "transforming": 3780,
  "conforming": 3781,
  "reforming": 3782,
  "icles": 3783,
  "ronicles": 3784,
  "Chronicles": 3785,
  "cient": 3786,
  "Scient": 3787,
  "Scientific": 3788,
  "women": 3789,
  "ullen": 3790,
  "Cullen": 3791,
  "apped": 3792,
  "localized": 3793,
  "Valkyrian": 3794,
  "astically": 3795,
  "drastically": 3796,
  "iastically": 3797,
  "usiastically": 3798,
  "thusiastically": 3799,
  "enthusiastically": 3800,
  "identally": 3801,
  "cidentally": 3802,
  "incidentally": 3803,
  "oincidentally": 3804,
  "Coincidentally": 3805,
  "Christina": 3806,
  "irational": 3807,
  "pirational": 3808,
  "aspirational": 3809,
  "waterline": 3810,
  "afterlife": 3811,
  "overnance": 3812,
  "governance": 3813,
  "overnight": 3814,
  "ceptional": 3815,
  "exceptional": 3816,
  "specially": 3817,
  "generates": 3818,
  "institute": 3819,
  "ctionists": 3820,
  "rectionists": 3821,
  "urrectionists": 3822,
  "insurrectionists": 3823,
  "eccentric": 3824,
  "eccentricity": 3825,
  "communist": 3826,
  "publicans": 3827,
  "Republicans": 3828,
  "signature": 3829,
  "ocational": 3830,
  "vocational": 3831,
  "intercept": 3832,
  "intercepted": 3833,
  "authentic": 3834,
  "authenticity": 3835,
  "finalised": 3836,
  "Southport": 3837,
  "shipments": 3838,
  "antimonyl": 3839,
  "oantimonyl": 3840,
  "xoantimonyl": 3841,
  "oxoantimonyl": 3842,
  "particles": 3843,
  "fieldwork": 3844,
  "professor": 3845,
  "nation": 3846,
  "internation": 3847,
  "carnation": 3848,
  "excarnation": 3849,
  "internationally": 3850,
  "nationally": 3851,
  "arried": 3852,
  "tribut": 3853,
  "tributing": 3854,
  "distributing": 3855,
  "attributing": 3856,
  "events": 3857,
  "aching": 3858,
  "proaching": 3859,
  "pproaching": 3860,
  "Approaching": 3861,
  "Reaching": 3862,
  "leaching": 3863,
  "anning": 3864,
  "spanning": 3865,
  "scanning": 3866,
  "banning": 3867,
  "ampion": 3868,
  "struck": 3869,
  "guns": 3870,
  "assination": 3871,
  "assassination": 3872,
  "due": 3873,
  "men": 3874,
  "let": 3875,
  "Fin": 3876,
  "We": 3877,
  "soldiers": 3878,
  "required": 3879,
  "structed": 3880,
  "Constructed": 3881,
  "instructed": 3882,
  "constructed": 3883,
  "religion": 3884,
  "aviation": 3885,
  "opening": 3886,
  "never": 3887,
  "press": 3888,
  "pressions": 3889,
  "depressions": 3890,
  "pressments": 3891,
  "impressments": 3892,
  "front": 3893,
  "cting": 3894,
  "erecting": 3895,
  "ducting": 3896,
  "conducting": 3897,
  "Acting": 3898,
  "lling": 3899,
  "controlling": 3900,
  "avelling": 3901,
  "travelling": 3902,
  "chelling": 3903,
  "Terschelling": 3904,
  "delling": 3905,
  "modelling": 3906,
  "velling": 3907,
  "ovelling": 3908,
  "shovelling": 3909,
  "belling": 3910,
  "labelling": 3911,
  "Elling": 3912,
  "ption": 3913,
  "rench": 3914,
  "French": 3915,
  "fleet": 3916,
  "fleeting": 3917,
  "Northfleet": 3918,
  "ithic": 3919,
  "significant": 3920,
  "information": 3921,
  "disinformation": 3922,
  "justments": 3923,
  "adjustments": 3924,
  "operative": 3925,
  "cooperative": 3926,
  "finalized": 3927,
  "withstand": 3928,
  "Ellington": 3929,
  "directive": 3930,
  "planatory": 3931,
  "explanatory": 3932,
  "Redington": 3933,
  "reakwater": 3934,
  "breakwater": 3935,
  "successes": 3936,
  "omination": 3937,
  "domination": 3938,
  "andfather": 3939,
  "grandfather": 3940,
  "specialis": 3941,
  "specialises": 3942,
  "inconsist": 3943,
  "inconsistent": 3944,
  "Therefore": 3945,
  "completen": 3946,
  "completeness": 3947,
  "ationally": 3948,
  "Nation": 3949,
  "Nationally": 3950,
  "Westworld": 3951,
  "regionals": 3952,
  "nationals": 3953,
  "classific": 3954,
  "classification": 3955,
  "cessively": 3956,
  "excessively": 3957,
  "specialty": 3958,
  "conformer": 3959,
  "formative": 3960,
  "transformative": 3961,
  "viewpoint": 3962,
  "disappear": 3963,
  "disappearan": 3964,
  "disappearances": 3965,
  "lementary": 3966,
  "Elementary": 3967,
  "estically": 3968,
  "domestically": 3969,
  "ifference": 3970,
  "Difference": 3971,
  "cavations": 3972,
  "xcavations": 3973,
  "Excavations": 3974,
  "excavations": 3975,
  "variously": 3976,
  "Christeen": 3977,
  "Islington": 3978,
  "contrived": 3979,
  "foundland": 3980,
  "Newfoundland": 3981,
  "atherings": 3982,
  "gatherings": 3983,
  "passively": 3984,
  "ingsnorth": 3985,
  "Kingsnorth": 3986,
  "contended": 3987,
  "commentat": 3988,
  "commentators": 3989,
  "identific": 3990,
  "identification": 3991,
  "ronically": 3992,
  "Ironically": 3993,
  "communism": 3994,
  "layground": 3995,
  "Playground": 3996,
  "Fernandes": 3997,
  "subsystem": 3998,
  "subsystems": 3999
}