क े
ा र
े ं
न े
् र
ह ै
य ा
म ें
क ी
ो ं
क ा
क र
स े
क ि
क ो
न ा
स ्
त ा
र ्
ल ा
क ्
व ा
प र
ह ी
ल े
र ा
ज ा
ह ा
ल ि
प ्र
स ा
् य
म ा
औ र
व ि
इ स
भ ी
क ार
न ि
ड ़
ह ो
ब ा
द ि
द े
है ं
ग ा
त े
त ि
न ी
प ा
ल ी
स ी
त ्र
म ि
ह ु
त ी
न ्
क् ष
लि ए
थ ा
ं ग
र ी
ज ि
ही ं
स ं
स ि
ल ्
द ी
र ह
त ्
प ु
ए क
म ु
ट ी
द ा
ो ग
न हीं
व ार
य ों
भ ा
कि या
र ि
अ प
ह ि
श ा
च ा
र ो
स र
ज ी
ध ि
म ी
ग या
प ी
क ु
स म
दे श
क हा
प ू
स ु
ं ड
द ्
ब ी
बा द
ट ्र
त ो
ं द
व े
म ार
श ि
ख ा
कर ने
र े
र ू
न ों
सा थ
म े
य ह
रा ज
ल ोग
न् ह
ि त
क ्र
ध ा
म ं
् या
व ी
य े
उ न
ग ी
स् ट
ं च
रह े
र ु
त क
दि या
ढ ़
उ न्ह
प ह
ार ी
द ो
ब ि
फ ि
श ्
श न
ष ्
ज न
ज ो
ग े
ार ्
ग ई
उ स
र हा
आ प
ड ि
2 0
थ ी
त र
हु ए
अ न
ब ार
च ु
ओ ं
प ्
मा न
ट र
भ ार
ब ता
र ही
स क
य ो
सर कार
म ै
मि ल
इ न
ह र
मं त्र
पु लि
ट ि
कि न
पुलि स
व र्
श ु
ब े
अप ने
लोग ों
ट े
अ धि
ग र
म ो
ट ा
ज े
जा ए
स् थ
ों ने
ब र
ल गा
थ े
ि यों
ह म
द ू
ले किन
म ौ
्र ा
ज ब
य र
उन्ह ोंने
ए स
स ू
य ु
कार ी
अ ब
जि स
मंत्र ी
ड ी
पर ि
ब ना
च ्
ग ए
म ्
ब ै
ल ों
ल ो
सि ं
प ि
इस के
हो ने
व ह
हा ं
ड़ ी
ग ु
स् था
क्ष ा
ख ि
कर ्
ड़ ा
स ो
प े
ए म
द ौ
पह ले
पु र
वा ले
आ ई
द ु
जा न
च ि
कु छ
स ब
कार ्य
सिं ह
नि र्
ध ्य
प ो
मा म
बता या
ड ा
द र्
ब ं
फ ी
ल ग
च ार
मु ख
क ों
प्र ति
र् ट
बा त
पू र्
उ प
भार त
ड़ े
व ्य
लि या
्र ी
कर ते
स् त
प हु
्र े
रा न
अन ु
धा न
उ त्
ले कर
ज ु
य ोग
छ ा
ज ़
य ू
क् त
को ई
रु प
ि या
ं त
ब ्
ब ढ़
्य ू
का म
फ ा
ं क
क ई
ख े
द ्र
अप नी
ं प
क्ष े
कि सी
गा ं
दौ रान
फ ्
च ल
प्र देश
हु ई
सा ल
क ै
कर ा
वार ा
0 0
श ी
स भी
क्षे त्र
क म
सम य
ब ु
ट ्
च े
ज ार
स् ता
प ार्
दि न
श े
ज ू
ग ि
राज ्य
त रह
ह ार
ल य
व ं
ल् ली
दे ख
भा ग
फि ल्
त ार
स द
व न
ध ार
ए ं
व र
च ी
ध ी
रू प
हु आ
रा म
ड े
द् वारा
इ ं
ो ड़
चु ना
आ र
व ै
क ल
दि ल्ली
पा स
उन के
जा ने
ग ो
पहु ंच
ज ्
कर ें
घ र
प ै
क ॉ
ख ु
स ार
1 9
अ भ
ब ो
ना म
फिल् म
आ रो
क्र म
प ता
ण ा
म हि
मै ं
ष् ट्र
हो गा
शु रू
टी म
खि ला
जा ता
न ो
उन्ह ें
बी च
आ ज
वा ली
म ू
ौ र
मुख ्य
रो ना
म त
ध्य क्ष
अ ं
चुना व
को रोना
ती य
ंग ्रे
ज र
र ख
प्र ा
द ार
फ ै
वर् ष
महि ला
कु मार
ध न
ज ै
न गर
ला ख
प ं
क ह
ंद ्र
ब न
ि क
गां व
जान कारी
सक ता
व ो
त ै
का ंग्रे
क् ति
कर ना
स् क
च ौ
सा म
स न
ज ना
ग ्रा
व हीं
कर ी
माम ले
फ ो
ी य
रा ष्ट्र
कांग्रे स
ज य
ज ारी
य न
पूर् व
ठ ा
क् स
म ह
य त
स भा
का न
ने ता
जाए गा
ह त
दो नों
ब हु
अधि क
ए वं
म हा
स र्
मार ्
य हां
वा ई
सक ते
1 0
दा न
बै ठ
ट्र े
पा ल
कार ण
ह ू
ह न
ज ग
्या दा
ती न
अ ध्यक्ष
रुप ये
क ंप
फि र
पार् टी
कर ोड़
हि ए
् ड
ब च्
पो र्ट
ऐ से
चा हिए
कि सा
प द
प र्
य क
ट ना
नि क
जा ंच
त ु
ग ं
शा मिल
सब से
श ो
र् थ
यो जना
घ ा
ं कि
ं स
भ ू
ज ्यादा
ह े
हि त
त् या
जि ला
ल ू
ब द
फ े
भार तीय
वि श्
इस से
ए न
श ्री
उस के
तै य
बहु त
क ृ
ज पा
कि ए
ड ॉ
हा ला
च ना
सु र
20 1
मो दी
न ई
रि या
इस ी
भा जपा
क् टर
नि या
अन ्य
मा ंग
उन की
स्थ ि
ट ो
वा द
स् व
म द
ग ्र
ओ र
भ र
उ से
आरो प
वा ल
प्र धान
स् वा
आप को
जी त
जि ले
आ ए
वि भाग
हा ल
कर ण
ह जार
अ व
ज् ञ
म न
दे ने
का फी
ह ों
छा त्र
ें द्र
बार े
वि धा
न र
ज रू
व ज
अ गर
हो गी
ल ं
खिला फ
न ्यू
क् यों
द् ध
ंग े
अ स्
त ्य
स्थि ति
प त्र
सर े
प ति
भ े
आ त
ज वा
त् व
फ ़
आ ने
र् स
साम ने
गि र
स ै
मौ त
स मा
द ें
ल ै
के ट
द ्य
ग त
का ल
न् न
पा ंच
स्ता न
स ला
अप ना
इ ंड
र् ड
घ टना
अ भी
पि छ
मार ी
ब ह
च ला
ख ्या
इ ला
अभ ि
पू री
फ र
ध ्या
न ौ
हो ता
वि का
ब ॉ
पर ा
ल ॉ
द र
त था
दि ए
मि त
अस् पता
सं बं
मुख्य मंत्री
स्थ ित
दर् ज
ं ट
प्र ो
मा ण
स ल
न् या
नि य
र त
क् या
उत् तर
पर ी
प्र े
य ल
नी ति
घ ो
ज ल
ू ल
अ ला
अधि कार
प ड़
बढ़ ा
प ार
क ट
य ी
इ से
रा त
भा व
हाला ंकि
र ण
स्था न
अ ग
र् म
या द
व ल
विका स
ता ओं
ब ल्
प क्ष
जू द
हो ती
ग ढ़
अनु सार
री ज
प ढ़
प् त
नि वा
बैठ क
क्ष ण
ल ें
व्य व
हू ं
स ंग
तैय ार
को र्ट
अ च्
झ ा
ए ल
ब ंद
ख ंड
कर े
रि पोर्ट
बा इ
स ह
विश् व
वी र
मै च
3 0
ब ड़ी
म ंड
ो ल
अ लग
वज ह
सद स्
प्रधान मंत्री
इस में
ज्ञ ा
अला वा
आ यो
के ंद्र
करी ब
1 2
सम ्
हि ं
कर् म
कु ल
श हर
भ ग
प क
स के
ु क
ं गा
पिछ ले
डि या
जि त
शे ष
यु क्त
1 5
दू सरे
न जर
ऐ सा
घो ष
आ दि
प् ता
पा नी
स्ट े
डि यो
निर् देश
सं ख्या
व ्या
क् सी
श ्र
राष्ट्र ीय
अधि कारी
फ् तार
अस्पता ल
ज हां
जब कि
मि ले
ए फ
रुप ए
उ म्
शा सन
जि न
जाए गी
पर े
जिस में
वि धान
मी द
ं बर
क्यों कि
च ो
दि नों
बना ने
ट् स
किसा नों
खा न
या लय
ट ू
र् चा
जै से
सू चना
पूर् ण
वा ला
सुर क्षा
ड र
दू र
इस की
शा न
छ े
द न
त्र ा
कंप नी
चा ह
व्य क्ति
इ स्
र् फ
उम् मीद
व री
ग ्
सा इ
यु व
ंग ल
प त्
इस लिए
ला ल
ब जे
ग ल
मा ल
बि क
फ ल
मि ला
र वि
2 5
सक ती
क्र ि
वि शेष
त हत
कह ना
टि ंग
ध े
वा यर
था ना
झ े
जा ती
जी वन
आ गे
स ौ
न ए
जन ता
त ना
ला ई
ब स
ला इन
मि ली
श र्
कर ता
रे ल
a r
ठ ी
रह ने
लो क
ट न
म ही
परी क्षा
कार्य क्रम
पा कि
दि र
वा स
गु रु
परि वार
ब ल
दर् शन
ले ने
दू स
ख री
आ धार
त न
ल ड़
ह रा
त् म
ज ल्
च ित
मी डिया
सु बह
अ फ
निवा सी
मु ता
वा न
श ल
कान ू
च ों
ल गे
ल र
को वि
या ं
उ ठा
स दी
हिं दी
पं चा
ं चा
ग ै
रा ब
दि खा
भ ो
ना थ
भ ि
क्ष क
खे ल
से वा
1 4
2 1
छ ो
व्यव स्था
मुता बिक
म ृ
नी य
मं दिर
पू रा
इस का
वि त
आ म
व हां
स् ट्र
रो ध
सी ट
बा हर
स्वा स्थ
गिर फ्तार
स ड़
उन का
च र्चा
ला इ
जग ह
ह त्या
वे श
ब ड़े
मौ के
ष् ठ
सा न
याद व
सि ल
धि त
रा य
जिस से
जा ना
ग म
पह ली
करें गे
प्र का
में ट
ज ें
अ मे
म रीज
मद द
दे व
पंचा यत
वि द्
सा ं
बे ह
मार े
5 0
वी डियो
ट ै
अधिकार ियों
खु द
मु झे
स्वास्थ ्य
रा व
हा थ
ह री
सदस् य
श ्य
ग्रा म
हो ते
भू मि
त ब
भ ारी
दु निया
बै ंक
मु ं
थ ि
विधान सभा
पू रे
नि वार
ख बर
हा ई
ष ि
अ ति
i n
कार ्र
कार्र वाई
ग ू
वा प
ं त्र
् स
स्क ूल
फो न
बा जार
जिस के
पहुंच े
त ौर
र न
व ृ
कोवि ड
उस की
बि हार
वि ष
ट ल
क भी
ए क्
ष ण
त ों
वा लों
पु रा
मी र
1 1
बच् चों
राज नीति
ें गे
स् या
स हित
त री
पाकि स्तान
शि का
प्र या
उप ल
बु ध
ं टे
क ल्
मौ जूद
ब ू
सो म
म र
ष् ट
ब ई
दे ते
प न
शि क्षा
न्यू ज़
a n
क्रम ण
म ध्य
स चि
चा न
गां धी
पी एम
सि र्फ
अमे रि
रो क
मि क
सु न
स वाल
त रा
युव क
ल ब
मिल ने
महिला ओं
हि स्
मही ने
ार् थ
पो स्ट
सि त
उपल ब्
प्र ि
ल ौ
का उ
आप के
प्र भा
त्र ी
संबं ध
फी सदी
निर् माण
ग्रा मी
ग्रामी ण
न ार
20 0
चु की
फै सला
सरकार ी
1 8
ख न
से ना
सोम वार
प ॉ
रा शि
माम ला
कार ्ड
्या लय
हों गे
आ या
न् द्र
ब ड़ा
नि धि
वा ह
उस ने
सम े
लगा या
ख ो
चा ल
आरो पी
पहु ंचा
लगा तार
ख ू
बुध वार
इं टर
च ंद्र
प्र दर्शन
अ ंत
शर् मा
ध ु
ग ठ
चल ते
सम स्या
या न
स् तर
2 4
मू ल
ल् ड
श व
ले ज
प्र शासन
ें द
बा व
म ंगल
ण ी
आ इ
ष द
श त
स ें
मंड ल
जा ते
शु क्र
की मत
कर ती
1 3
स मि
क द
पे श
िया न
शि व
भी र
यु वा
इंड िया
जरू रत
ंद र
घोष णा
र खा
a t
करा ने
उत् पा
अभ ियान
ब ्र
ग ेंद
आ ग
शिका यत
त स्
्री य
चु का
ए च
तर फ
समि ति
शा ह
चु के
करा या
कर के
मुं बई
आ व
नि कल
र ै
बि ज
त म
क्र िया
नि गम
प्र मुख
त ृ
के वल
दूस री
लि क
नर ेंद्र
गं भीर
का ब
उस का
न ंबर
अ र्
श ं
जवा ब
शा दी
ला भ
किसा न
अ परा
वार ्ड
व ु
म ना
क श्
2 2
वै क्सी
जल् द
नि का
ते माल
द ारी
श निवार
ध र
वाप स
चि कि
ि श
मा ना
ख ्
विधा यक
त ला
पि ता
जे पी
ला ने
विद् यालय
धि कार
ं ति
रेल वे
प्रका श
वायर स
चिकि त्
निय म
प्रया स
बि ना
हो ना
डा उन
ट ने
सम र्थ
प्र ी
जे ल
ह मारे
क ़
मा ह
कर वा
ध्या न
बा ज
लग भग
ना ग
प् ला
कृ षि
ब चा
त य
य ही
सो शल
सु विधा
संग ठ
अ हम
सा फ
मंगल वार
स हा
सा त
हु ल
लै ंड
स फल
छ ोड़
भ र्
लि खा
ती स
प्रति शत
दे खा
य ं
आ ं
र् च
बना या
ब ज
शुक्र वार
य म
बं धन
रि क
द ल
ते ज
सम झ
इस् तेमाल
धि कारी
उपलब् ध
छ ी
सी मा
1 6
श ू
क मी
ष ा
शु रु
हार ा
ख ़
शा म
लगा ने
फो टो
टे स्ट
म ता
भा ई
या त्रा
प सं
भर् ती
00 0
ते ल
ए क्स
ल क्ष
वि रोध
र् जी
ह ॉ
रवि वार
पा ए
ल खन
ट क
टि व
सड़ क
स्था नीय
यू पी
ग र्
मु काब
ज मा
ग ति
समा ज
सचि व
बल् ले
देख ते
क्ष ित
मा ं
आयो जित
उप योग
ब च
ने ट
बा जी
वु ड
भ ु
क ू
2 3
क त
र ों
बल् कि
खरी द
सं घ
उ पा
बिज ली
जि से
पू र
प्रा प्त
न व
रा हुल
वे दन
ें ट
कि लो
ख ी
थी ं
स त
खा स
घ ंटे
नि काल
1 7
नेता ओं
ज नों
ऐ सी
समे त
मु द्
वि क
बाइ क
अ दा
म जब
मजब ू
आ देश
श राब
कश् मीर
ंग ी
घा यल
राज्य ों
ग ण
लॉ क
कार्य कर्
र् य
कानू न
हा द
को शि
ं ज
चाह ते
मि न
स ही
प ल
का ं
के ंद
बी जेपी
श् वर
20 21
अ क्
ब ्रा
भे ज
सी एम
दे वी
हम ने
त् त
प्रति निधि
कोशि श
ली वुड
बना ए
क ं
र् ष
कार ्यालय
स् ट्रे
लखन ऊ
पी ड़
मे डि
रख ने
सह योग
फ ॉ
शन ल
आ योग
वार ी
द् धा
आ ठ
क् ट
केंद ्रीय
गं ज
मैं ने
ल ु
बद ल
ट ॉ
ज न्
एस पी
उ म
दु र्
माम लों
भ व
ग ्री
स मी
पी छे
िया ं
त ारी
उ ल्
अमेरि का
o n
ऑ न
दि व
नि यों
म नो
आयो जन
ए जें
ता कि
ची न
जरू री
ऑ फ
त्र ि
आ स
ए यर
मार् ग
आव श्य
फ ु
अव सर
सू त्र
सा ब
तस् वीर
ह टा
प्र कार
उम्मीद वार
6 0
प ें
ज मी
स्त ु
पं जा
रो ड
गुरु वार
प ित
भाव ना
कै से
प ड़ा
धा नी
मान ्य
ह ्
राज स्थान
बार िश
द् धि
ट्र ोल
आवश्य क
जु ड़े
ल गी
उ न्
वि पक्ष
वैक्सी न
टा इ
द्य ोग
त् ता
बद ला
च ै
ब ने
ह में
क्रि केट
देश ों
मंत्र ा
जाए ंगे
देख ने
बज ट
छ ह
स् पे
घ ु
ग यी
क ौ
मार् ट
क् शन
इ ड
शे यर
प्र दान
दर् श
इला ज
सां सद
मो बाइ
मोबाइ ल
ब यान
आ न
कि ल
सं क्रमण
जु लाई
अ सल
पसं द
हा सिल
च र
ते जी
क ला
प् ले
मेडि कल
म ई
आ र्थ
e r
भि न्न
वी ं
प्र स्ता
म ण
ट्र ा
कॉ लेज
मंत्रा लय
ता न
क प
4 0
धि यों
स प्ता
रि क्त
ले ख
बॉ लीवुड
क्ष ि
बं ध
मरीज ों
अं तर
ग री
वि चार
वि जय
ऑन लाइन
व क्
ति म
वा हन
बो र्ड
बच् चे
च रण
ह रिया
च न
ता प
हिस् सा
प्र क्रिया
य दि
20 20
1 00
मे ल
डा ल
ंड े
जा म
आर्थ िक
संगठ न
अच् छा
छात्र ों
फा ई
ल त
फा य
के श
क मा
व्या पार
सप्ता ह
दि ल
सि ंग
पंजा ब
टी वी
परि षद
अ ल
पु त्र
हरिया णा
ड ो
डी एम
आत ंक
सि क
रि ंग
ष् ण
प्रभा वित
ग ौर
ज्ञा न
मह त्व
जो र
व ें
आ वेदन
न्ह ें
व रि
क मे
ंग ्
छात्र ा
च ार्
अ प्र
वि वाद
ड ल
मी टर
राष्ट्र पति
व ्
जि म्
दा य
प श्
सब ्
स मु
न ुक
ब नी
पर् य
सं युक्त
स् वी
अग ले
सी बी
च ारी
सम ू
वि भिन्न
ठ े
म ज
व क्त
पू छ
ह रे
स् कार
टि स
दी प
मे रे
सा द
ग्र ह
स्थ ल
ए ड
आ ंक
2 6
ड़ ने
बात ची
बातची त
जन वरी
बा ल
हम ला
अं तिम
ि ता
सं वाद
कह ते
स ले
लि त
स फाई
र ज
वर्ष ीय
ड़ ों
मि यों
प्र वेश
छ ू
वा नी
भा षा
ने तृ
हाल त
आ वा
लि ंग
a l
रह ता
स्ट ा
निर् ण
अ सर
प्र भारी
बेह तर
ग ृ
द क्षि
2 7
बाव जूद
अ ली
पे ट्रोल
दा वा
मिन ट
हा ँ
ट् टी
च ले
वार ्
थ ो
o r
ी ल
ठी क
पत् नी
पह चान
खू ब
शि या
बदला व
नि श्
अच् छी
इ तना
आ खि
मा ध्य
ति क
पा या
फ ्र
ार े
परि जनों
वरि ष्ठ
मै न
दि यों
नेतृ त्व
जा य
हम ले
ै ल
कर्म चारी
क हीं
ग ौ
का ली
चार ियों
डॉ क्टर
मा ता
पाल न
ंड र
भग वान
टी का
दा म
समर्थ न
तैय ारी
ड़ ियों
हो कर
वा दी
ज रि
लोक सभा
वो ट
e s
ढ ा
खु ला
प ौ
अग स्त
भूमि का
र ोग
फ् ट
र ं
ला गू
थ म
क्र ी
यू नि
दिखा ई
नुक सान
दि सं
ब र्
ध री
मै दान
न्या य
दु कान
मे री
आ ते
ंड ी
स पा
म हारा
सु धार
वि द्य
तर ण
पह ला
शा ंति
मौ सम
ह मे
a d
स् ते
कर्म चारियों
अ म
ड ्
उ द्
श ्रा
महा मारी
व नी
जि लों
कि ंग
राजनीति क
नार ा
भे जा
ज म
क पूर
प्रे स
मु श्
परे शान
कल् प
बेह द
ज म्
मुकाब ले
स्ट ि
खा ने
जन् म
जमी न
क्र ा
े क
आ यु
क्षेत्र ों
उम ्र
द ों
लि ख
र ंग
इ ंत
पू जा
निर्ण य
इ त
रह ते
राज धानी
को ल
वि केट
लि ये
दे र
न् स
सि यों
न ू
जम् मू
के स
ख त्म
पहुंच ी
अ र
त भी
े श
उप स्थित
प दा
कद म
अति रिक्त
अफ गा
d i
खि ल
प ृ
ऊ पर
निश् चित
घोष ित
आ ता
ष् टि
प ारी
क् ला
हि ंद
पढ़ ें
च ू
म ति
महत्व पूर्ण
आप की
कि त
ख र्च
दो स्त
मिले गा
दिसं बर
करे गा
य ार
सल मान
सला ह
चि का
मार ा
न वं
नवं बर
उ च्
ध र्म
ं दा
हमे शा
नि वेश
20 19
र् जा
पड़ ता
ला या
व त
मु ला
3 5
अनु मति
4 5
प ड़े
नो टिस
कर् मी
नि जी
सम् मान
चौ धरी
बि ग
7 0
सं क्र
शुरु आत
सि र
म ॉ
नो ट
ध ो
वर् त
स् ती
रहे गा
स ों
स्क ू
तु ल
कंप नियों
ध ू
जिम् मे
आ द
आरोप ियों
आ ंद
आंद ोल
ो ह
म क
हाद से
गठ बंधन
गृ ह
सी ल
पर् या
भ ्र
सूत्र ों
कमे टी
ज ता
दो पह
दोपह र
या चिका
ओ वर
अप ील
प्र माण
करा ई
अ ंदर
श क्ति
इ न्
अदा लत
शि त
डा य
दे कर
णा म
ग्रामीण ों
दा ता
स्ट्र ी
मार् च
टि कट
वि धे
हा न
क ही
जा कर
ब्र ि
ज़ ा
इला के
पश् चि
त ह
सं कट
बार ा
वै ध
देख कर
हम ्
वे ज
काउ ं
ें स
संक्र मित
वा स्त
क् कर
तै ना
अप्र ैल
प्र त्य
झ ार
बं गा
क ब्
वर् ग
नि शा
दे ता
सित ंबर
ड ्रा
छ त्
चो री
उत् तरा
माध्य म
वे ब
बना कर
च यन
सि टी
दें गे
स्टे शन
सं जय
बा बा
ह ल
र् क
उन से
चाल क
टू बर
न ल
बे टी
आ ती
था ने
नि स्तान
संबं धित
त ंत्र
शि क्षक
कार ो
न् द
न्या यालय
ज ्य
लॉक डाउन
परि णाम
प्रस्ता व
ंड ा
आंदोल न
वि देश
ख र
तीस गढ़
दे ना
र क्षा
प्र थम
ने शनल
पत् ति
गो ली
द य
टी एम
बल्ले बाज
दर असल
भो पाल
सा ह
मं जू
व ॉ
जी व
न ्य
म् स
य ता
लि का
समू ह
वर्त मान
परे शा
सुन वाई
फा इन
ट्र क
सि द्ध
पु रु
बं दी
प त
सं स्था
सं भावना
आस पास
छत् तीसगढ़
नि री
ह मारी
न या
ख ार
रि त
o m
दि शा
शो क
ए शन
श री
अ ग्र
ज ों
को ह
लग ता
वा ही
ग ये
वृ द्धि
रा नी
द वा
अक् टूबर
गरी ब
स्व यं
सा मा
वक् ता
ए ंड
जिस का
पुरु ष
जै सी
पढ़ ा
सु ना
ट् वी
ट्र ै
ल् ला
भी ड़
द स
इन में
प्र साद
हम् मद
लगा ए
सी सी
जन पद
मूल ्य
ज र्
ल हाल
ब हा
आ र्
ति हा
न ही
जि क
सु पर
या नी
क ड़ी
स्ट ो
क्र ो
बंगा ल
उ सी
रि श्
खिला ड़ी
दिव स
8 0
विष य
द् वि
मज दूर
फै सले
दक्षि ण
पै से
सा मान्य
बे टे
का नों
क्ष मता
र ल
जा ये
मे रा
ब राम
बराम द
रे श
जू न
भ विष
भविष ्य
दि ग्
दि ख
सुर क्षित
सदस् यों
घ रे
छो टे
ल ने
टे ल
लाख ों
इ म
सू ची
बना ई
रा हत
ार्थ ियों
ं भ
3 1
कु र
स जा
या त
उत्पा दन
सा य
ऊ र्जा
न ै
ख ड़े
अ मित
पूछ ता
स् प
विश्व विद्यालय
मजबू त
बढ़ा ने
त लब
ंद गी
अ शोक
ो सि
क्र े
ार् ड
साब ित
ति वारी
अ चान
अचान क
कर् मियों
रा ह
न क
कि स
आ गा
फि लहाल
मौ का
पी एल
ती नों
ं की
झार खंड
करे गी
मो हन
न् ना
पूछता छ
या ल
वायर ल
धार ा
डॉ लर
योग ी
के शन
छ ु
h a
ड ्र
कार ्
बी ते
नि त
ग ्रे
इंड ि
मुश् किल
साम ना
समी क्षा
एस ोसि
2 8
श ्रे
प थ
अ वैध
प टना
ख राब
तला श
घरे लू
स् मार्ट
हि र
ह ड़
201 8
आन ंद
अफगा निस्तान
वि तरण
ल् क
9 0
रो जग
ंक न
r a
ट्रे न
अव धि
नि देश
कौ न
ता ल
वि र
उत्तरा खंड
ना इ
गु प्ता
रि कॉ
चि ं
ू ड
e n
विधे यक
201 7
सी रीज
कार ा
वि रा
बा ग
क ले
ख ों
तरी के
म ल
पार् क
नि रा
जा ग
नाग रिक
मो हम्मद
च ली
स्ट्रे लिया
च ढ़
अध्यक्ष ता
धि क
क न्
उस से
प्र शि
मत दान
छ ि
प न्न
त त्
रा स्ते
बी मारी
शी ल
मि श्रा
र ॉ
पा ने
डि ंग
ज री
लगा ई
i c
रिकॉ र्ड
सम ार
ट्वी ट
टीका करण
स्ट र
शु भ
लक्ष ्
यु द्ध
बन ने
ल् स
काउ ंट
साइ ट
ना क
कि ये
नौ करी
की ल
डी जल
गै स
ब् ल
फर वरी
जरि ए
कि शो
ब ्यू
शान दार
त माम
पे ट
खा द्य
श्र द्धा
कम ल
प ट
ना टक
प्रा थ
क ने
उच् च
परेशा नी
मान व
आ य
पर् क
मा त्र
रह ती
निदेश क
लक्ष ्य
मा स्क
य द
पै दा
पु ल
2 9
ग ार
समार ोह
अ र्थ
परि योजना
छू ट
रै ली
अ नि
चिकित् सा
पीड़ ित
ले ते
बि ल्
एजें सी
ट्र ी
जम कर
कोल का
कोलका ता
उस में
तह सील
निय मित
एसोसि एशन
दूस रा
क क्षा
पा ई
शू टिंग
श् न
म गर
ब ारी
वै से
न ु
भ वन
पु री
ं सी
पि क
सहा यता
अ ध्या
त्र ियों
लाइ ट
वर्ष ों
ति थि
डे ट
वा ं
कार्यकर् ता
पॉ जि
जरू र
s t
पत्र कार
सार े
स त्ता
अपरा ध
प्र त्या
ना मा
विश् वास
सं सद
रा ग
पक ड़
सु प्री
का त
मिल कर
इ ल
ल ड़ा
सो च
निर् वा
अ थ
घ ू
क मि
सहा यक
ला न
ग ार्ड
व धान
क्ष कों
चु नौ
शं कर
ऑ फि
ध ्
सफल ता
व ही
प्र स्तु
ले ना
सामा जिक
स् टी
टे ड
स्क ृ
खुला सा
मृ त
वि जे
बा की
फिल्म ों
कै ं
प ्य
स्वा गत
तैना त
ार् ट
प ंच
गांव ों
भा गी
लौ ट
दौ रे
पी ट
ब हन
लो ड
राव त
खा ना
आद मी
रोक ने
सं शो
ला ना
गल त
गै र
शा ंत
सम झा
द ृ
वि मान
मे श
गौर तलब
ता ब
मु क्त
न दी
म च
मु स्
घ े
तक नी
सा नी
एस टी
पें शन
धिकार ियों
महारा ष्ट्र
पा ठ
उत्पा द
चौ क
बद मा
गा ड़ी
र खे
मिल ता
किलो मीटर
सं पर्क
रोजग ार
मा ने
जा गर
सू र्य
वा ना
जिन में
कार्यकर् ताओं
h ar
म नी
सं देश
स ार्
बा ं
प्र भाव
I n
रो ह
बा दी
शी र्ष
वे तन
गा य
वर् मा
मौ जू
मौजू दा
खिला ड़ियों
गति वि
स त्र
शरी र
दू री
सू स
बे ड
श ॉ
लड़ की
सार ा
क वि
लू ट
मा इ
प्रत्य ेक
सं बो
बदमा श
त ू
रा जा
आत ंकी
पुरा नी
सें टर
युवा ओं
आ सान
वि ल
उप चार
स व
आ वास
सि स्ट
19 9
जान ते
न क्स
द लों
र जि
चौ हान
मा त्रा
सा लों
दा बाद
4 9
चिकित् सक
प्र दू
वी न
अंतर राष्ट्रीय
ठ ि
श ौ
पद ों
बी एस
अग्र वाल
दौ र
न ती
मुद् दे
अफ सर
ए प
उ ंड
स्ट ार
मह सूस
घा ट
या त्रियों
कान पुर
इ तिहा
इतिहा स
म स्
नि ए
आ जा
सि या
ठा कुर
फाइन ल
नि भा
पा न
टा ई
मंजू री
शा स
द् द
एक्स प्रेस
तु र
ले श
रो ज
अ धी
शि विर
म श
सब ुक
R e
ह ल्
चिं ता
अ जय
र् ति
ड ू
ऑ स्ट्रेलिया
विरा ट
गि राव
गिराव ट
दार ों
दु ष्
अ ंडर
5 00
मुला कात
वा यु
सर् वे
शि प
श र
अ काउंट
वेब साइट
सं भव
क न
इंडि यन
नि ंग
रख ी
जा ति
से ल्
भो जन
इ ंद
सर् च
ंद न
रू क
लॉ न्
बि ल
द स्ता
त् ति
सीट ों
जु ट
आ सानी
आर क्षण
उन को
टॉ प
चार् ज
हो म
सं भा
नि यु
लं बे
ष् टा
मिले गी
i d
हाला त
जाए ं
लि यों
ह वाई
उ द्योग
राय पुर
की य
पॉजि टिव
को त
हि मा
मान ना
द बाव
अच् छे
t i
तो ड़
र् गत
वा ने
ए शिया
ड ्यू
राज स्व
निर् धार
प्रो फे
वर ण
कॉ न्
म ले
बी मार
त्म क
हर ण
ट्र ॉ
दर् द
जि द
इ यों
वार् ता
ख तरा
जिस की
प्रदू षण
ग न
कृ ष्ण
अभि ने
च् छ
ट्र ो
सं पत्ति
ज्ञा पन
प्रि य
अ ल्
पश्चि म
फॉ र्म
मंड ी
कर् ता
ब रा
पै र
कोह ली
म र्
ली ज
परि सर
जु र्
नि कों
पा ंडे
इन के
प्राथ मिक
ब ्रे
नी चे
ग ह
दो ष
ध म
म ल्
गु ज
चला ने
मं च
आवा ज
इंत जार
भ रो
मनो ज
कृ त
पार् षद
ड्रा इ
प्र योग
सार् वज
मू र्ति
आ त्म
ट् वि
रु ख
क प्ता
ती श
क्सी जन
आखि र
ची नी
ए ंगे
चे क
झ ू
गं गा
र्ड र
पुर स्कार
चार ्य
ताप मान
वा सी
श ्या
द म
आत ंकि
आतंकि यों
वाह नों
फर ार
दे गा
पहुंच ने
अब ्
सद न
घ ट
प टेल
आगा मी
श ही
नियु क्ति
बचा व
इ न्हें
प्र वक्ता
्रा म
प्रशि क्षण
सं र
दा स
o l
c h
वे द
लि यन
स्था पित
र द्द
हाई कोर्ट
न् हा
सड़ कों
आप ने
श ब्
व्य ू
स वार
पूर् ति
बी न
सार्वज निक
नियम ों
वे स्ट
फ ार्
चि त्र
3 3
उ ट
प्र चार
आ बादी
निवा स
घ न
सु नी
मिल ते
नारा ज
बैठ े
् त
खा ते
अभिने त्री
स् त्र
निर्वा चन
नि यर
य हाँ
शि क्षकों
चे यर
जै न
ब री
जो न
चुनौ ती
गई ं
खे ती
ती सरे
e w
वास्त व
उम्मीदवार ों
समा प्त
रख ना
त् मा
वह ार
शु ल्क
म धु
वि स्त
पौ धे
विजे ता
सू रत
खु श
छो टी
मु ना
अ क्ष
त रे
लगा ते
तुर ंत
जवा नों
पह ल
सीबी आई
इ जा
संवाद दाता
लि म
हरा या
प ण
निर्धार ित
फे सबुक
फाय दा
हो टल
उ ड़ा
अनि ल
हि क
डॉक्टर ों
प्र खंड
जा निए
लग ने
सा व
आई टी
खे ले
एक् ट्रे
इत नी
जै सा
कले क्टर
वा लि
परि वर्
क थ
फ र्जी
ट्रा ंस
व कील
स हम
ग र्म
जाग रूक
रू म
प्र ताप
जय पुर
को र
ज ॉ
आ कर
प्रे म
य कों
ह ंगा
ख ड़ा
मह ंगा
ले ट
ले न
ह फ्
प ने
स्टे ट
क् कत
लें स
बचा ने
मिल ती
म रा
इ ंग्
श क
जाये गा
कारो बार
मि शन
अं दा
दा वे
फ्र ें
कॉ ल
मृ त्य
मृत्य ु
अंत र्गत
मान त
चे ता
चाल न
ं ती
लं बी
विक सित
अस्पता लों
सा हित
कहा नी
ष ित
बो ल
मि श्र
रो धी
वर् ण
लि स्ट
विशेष ज्ञ
फ् त
इ ट
ं जी
संशो धन
पृ ष्ठ
इं स्पे
मा लिक
स ारी
लो नी
ऑ क्सीजन
चंद्र मा
ओ म
कै बि
समस्या ओं
अमेरि की
प्र बंध
जो ड़
पु न
आवश्यक ता
चेयर मैन
रो हित
मैच ों
स् य
ट क्कर
अ न्
राज्य पाल
म ती
द ै
संग ी
पं जी
टि यों
अ ध्य
4 8
व्य वहार
सा झा
हटा ने
मत लब
कर् नाटक
अ रवि
वि त्त
गुज रात
से ज
चल ने
अभि नेता
हो नी
ला स
व ली
सुप्री म
कैं सर
से ट
ख ोल
तुल ना
ें ज
आ श्
सि न्हा
जागर ण
के त
्र ो
न्ह ोंने
शि कार
तस्वीर ें
चेता वनी
ग ़
ने श
स्प ष्ट
प ना
न ॉ
मुस् लिम
पढ़ा ई
म ला
आ धिकार
आधिकार िक
घर ों
मे ह
सी धे
शी घ
शीघ ्र
जिम्मे दारी
सु ख
चुना वी
स्वा मी
एक्ट्रे स
19 8
कैबि नेट
हाथ ों
डी पी
पु ष्टि
नार े
चा लित
3 6
पै सा
र् न
रख ते
चाह ता
ं दी
लड़ा ई
गतिवि धियों
निय ंत्र
पुरा ने
दो बारा
कर नी
ह वा
हा उस
ं टा
सर् व
स ख्
जि न्हें
प्र ॉ
ग ज
ह थि
हथि यार
ल पुर
इला कों
न वा
तारी ख
द स्त
जो शी
थो ड़ा
शही द
अ मर
डि जि
डिजि टल
फ ें
शा ला
आर टी
सी आर
भी तर
ह मारा
टि ल
विद्य ार्थियों
हिस् से
पे ड़
मा नित
दी न
रह ेंगे
दर्श कों
सिल सि
देख ी
द् वार
ध ार्
लगा कर
ब त
थ ्
यू ज
आरोप ित
दा खिल
l i
मृ तक
लं ब
शा यद
खरीद ने
अर ब
पा लिका
उ र्फ
जो ड़ी
खु ल
खार ि
बा न
का ई
201 4
सू चित
न म
3 8
ं व
हिं सा
प ड़ी
वै ज्ञा
लें गे
गु ण
पद क
आ उट
समु दाय
ज़ ि
ल स
प् स
चुनाव ों
प्रति योग
स् ना
मजदूर ों
पी ठ
एं टी
पा त्र
परिवर् तन
कथ ित
प्र ती
फ ं
भ ले
स्ता नी
साम ग्री
कि यों
वा सियों
रख ें
ट री
मै ने
फ़ ी
च् छा
ब लों
गि रा
कल् या
कल्या ण
ज बर
कि तना
4 2
र फ्तार
कर ों
आधार ित
रा जीव
सै न्य
तो ष
ए टीएम
परे शन
लो न
जा हिर
गा इड
ष्टा चार
रु ण
कृ ति
डि यम
संबो धित
पा त
मु कद
निक ले
इंग् लैंड
कि र
ार ा
स च
उ दा
बल्ले बाजी
स्कू लों
न य
अति क्रमण
ंच ी
धार् मिक
परि वह
परिवह न
इस् ला
कोत वाली
र वाना
जिस ने
के दार
ग्र ु
कार ों
जवा न
सौ ं
भरो सा
अ खि
बात ें
अधी क्षक
में ट्स
स ॉ
ट्रे लर
आ पूर्ति
य ण
जन क
ें ट्स
उठा या
प्र सार
खे त
प्रोफे सर
दु कानों
अप डेट
हि साब
झ ु
इ श
म कान
क् यू
महिला एं
म मता
मुख ्यालय
ब ौ
वर् ल्ड
गेंद बाजी
इंस्पे क्टर
प्रतियोग िता
रि लीज
द्वि तीय
रू स
निरी क्षक
कॉ लोनी
ड ु
वे यर
संबं धी
के न्द्र
उन में
रह ना
रे ट
गे ट
सं चालित
भु ग
चे हरे
को ट
च य
बा ई
म् प
अ ने
3 2
फा न
इंद ौर
ति न
म ंद
जता ई
वा दियों
लॉन् च
मांग ी
उ ठ
आखि री
्य ु
ew s
वारा ण
वाराण सी
पदा धिकारी
ह क
सी जन
ज ला
एस एस
t h
बता ई
फि या
ट्र ंप
घु स
डा ला
आंक ड़े
काली न
नि प
ठ ो
त हरी
इंटर नेट
ग्रु प
अखि लेश
स फर
मि ट
फु ट
प्रा वधान
सके ंगे
चो ट
मार्ट म
ष्ण ु
सिस्ट म
ज मानत
खारि ज
r e
जिला धिकारी
शि यों
डाउन लोड
जय ंती
आदि त्य
हे ल्
आई पीएल
प ंप
का ट
पद ार्थ
बे च
बढ़ कर
हिंद ू
लक्ष् मी
रह ें
को च
कानू नी
रि यल
ल् या
याल यों
अधि नियम
सु निश्चित
बी र
योग ्य
अनु मान
अहम द
ढ़ ी
मुकाब ला
व्य क्त
सा गर
आं खों
भुग तान
जु ड़ी
बढ़ ो
ला गत
डि ग्री
वि कल्प
य ंत्र
सि ने
आ ग्रह
बे हत
बेहत री
ऑफि स
प्र श्न
शो ध
त ः
लें डर
निकल ने
मध्य प्रदेश
च ंडी
स् पी
चौ की
खा ली
201 6
गी त
बि क्री
पदा धिकारियों
नि युक्त
अ स
प्रस्तु त
श ै
कानू नों
देख ें
स्टे डियम
सी ओ
कै ंप
गण ना
धम की
मॉ डल
हि न्
टे ज
दुर् घटना
प ला
मेल न
सहम ति
हजार ों
ज्य ो
ए सी
बढ़ ते
ट ्यू
उप करण
मो टर
चार ों
उ तार
सं केत
जि न्होंने
कर् ज
पहुंचा ने
ढ़ े
स्ट ूड
आ शी
मु द
प्रत्या शी
बता ते
अ श्
म द्
मद् दे
मद्दे नजर
ि ंग
मु फ्त
लड़ ने
उपा य
सि विल
का श
निशा ना
हा बाद
दुष् कर्म
साथ ी
ह रि
ग्रह ण
अक् सर
व स्तु
को रिया
हिमा चल
रे न
मले रिया
सं स्कार
हंगा मा
इ रा
खू न
शु क्ला
पू त
स क्रि
बिल् कुल
सके ं
र् ना
प्रि यं
जब ्त
फ ्रा
मे र
ख तर
ने ह
गु ला
पर्या प्त
र चना
वि त्
जग हों
बना ना
H om
Hom e
कीमत ों
अथ वा
र हीं
के रल
अने क
दोस्त ों
आप का
श्या म
स ौर
इ ले
न ज
ि यर
कहा ं
गो ल
वन डे
जु ड़ा
रे फर
उस को
ह ें
रि जर्
स् कर
से ल
बहा दु
लाइ फ
नो ए
से क्टर
गा ने
इं स
भ्र ष्टाचार
सा मान
वि ज्ञान
चा हे
सु झा
प्ला ंट
रा केश
ज स्टि
जस्टि स
आए गी
व सू
स मान
जु टा
क्ष म
उल् लेख
सीट ें
भ क्त
ग्र स्त
पीड़ िता
तहरी र
उपा ध्यक्ष
उद् देश
201 5
प ड
छात्रा ओं
चंडी गढ़
स नी
म हो
रिश् ते
का ने
सी य
पोस्ट मार्टम
वि ष्णु
ब ंग
प्रो ड
नामा ंकन
विस्त ार
दि नेश
ण ्ड
स्ट ॉ
व्यव साय
डी सी
परी क्षण
वि रोधी
लै क
a s
आइ ए
चला या
ज हा
कार्य ों
ठ ंड
लं घन
ज़ ी
पु ण
फ ्यू
अर्थ व्यवस्था
फो र्स
अ ंग
h o
चे न्
वाप सी
अ ंक
ज ंग
प्रियं का
ब द्ध
रे खा
5 5
मंत्र ि
मान सिक
ई ओ
ं कों
प्ला न
दस्ता वेज
काउं टर
आए गा
टे क
ू र
v i
P M
प्र ार
श्र म
च ं
बी सी
रिजर् व
ौ ती
पढ़ े
नोए डा
ौ ल
अध्य यन
औ द्योग
हे तु
सुझा व
यूनि यन
3 7
एम सी
आ ल
चा वल
नि ग
ति यों
गिर फ्
गिरफ् तारी
अरवि ंद
किर दार
आई सी
सम र्
्या स
सम् मानित
e d
प्रका शित
अ के
टि यां
से वन
पर ं
परं परा
शहर ों
डे स्क
आ युक्त
ढ े
के न्द
सम् मेलन
उद्देश ्य
तकनी की
यूज र्स
टि क
गो पाल
शा ही
ख तरे
गै ंग
सा ई
पि का
जे एन
भ री
स् पा
समी प
मार पीट
द रा
ब ें
योग दान
जि ंदगी
क् वि
गठ न
a y
रे न्द्र
को र्स
ब रे
तु र्
पर्य टन
विदेश ी
हफ् ते
उप भो
प्य ार
पर्या वरण
लि हा
इत ने
स् वर्ण
आ कर्
दू न
Re ad
क् का
ट्वि टर
पहुंचा या
ल ुक
फ ार
निकाल ने
कप्ता न
मना या
बु री
क स
गु स्
या त्री
मिल न
कार्य काल
अप ार्ट
कुमार ी
सि क्
फी स
स लों
टू र्ना
टूर्ना मेंट
य ंस
वा दा
चिकित्सक ों
ट्र ि
लोग ो
मु केश
शे र
र मेश
कि ताब
आई ए
धी श
बढ़ो तरी
मंत्रि मंडल
य स
क ब
ला पर
क्रि के
क्रिके टर
बो ला
बेहतरी न
रो ल
उ तर
पा यल
ख ला
निया ं
दे ती
धी रे
चढ़ ा
महंगा ई
अ यो
सं तोष
सै निक
इन कार
क् लि
औद्योग िक
i on
स् पि
भ रा
id e
गु ना
किन ारे
मिल ना
राज े
वि नो
कर् ताओं
मार ने
प्र सिद्ध
कब् जे
सी न
श रण
a m
वा या
201 3
दू ध
विपक्ष ी
5 7
ली ला
शं का
बाद ल
टै क्स
गे हूं
सा ध
नि ंदा
लंब ित
आ ना
राज ेश
साइ किल
त ल
पू जन
क्ष ी
व्यापार ियों
दु बे
u r
चा य
आ ये
ली ग
उपभो क्
ओ पी
तना व
म शी
पंचायत ों
r i
गा ँ
मि ट्टी
का लेज
मे हन
मेहन त
व् हा
कि रा
बच ने
अपरा धी
बा ला
टे न
उल् लंघन
पुरुष ों
बु ल
गो ल्ड
बो ले
मश हू
मशहू र
उ दय
चेन् नई
शे खर
कन् स्ट्र
सर् कल
मंत्र ियों
सै ंप
ली क
शा खा
दि ल्
ई डी
न वीन
प्रभा वी
हिंद ु
पा क
शि ल्
बा यो
इंटर नेशनल
वित् तीय
पर माण
परमाण ु
वि वे
न्या या
ली टर
अनु रोध
लड़ कियों
पाए ंगे
स्व स्थ
पड़े गा
आग रा
से के
सब् जी
ट कों
एन एस
एयर पोर्ट
नज दी
ति ल
ज़ र
बा ंग्
ला देश
जे क्ट
सि म
पायल ट
मा नी
छोड़ कर
अब् दु
सो ई
स्थि र
पह न
ह ारी
मुं ह
कट ौती
दै निक
पूर्व क
टि फि
मा ही
जो खि
जोखि म
अपरा धियों
क्रा इम
in di
व्या पक
मही नों
सं स्कृ
इस को
बदमाश ों
विनो द
च क्कर
अ सम
कर ार
धो नी
बि ंद
अभ ्यास
o b
l e
बढ़ा कर
रु द्ध
ए क्टर
एक् शन
ज्यादा तर
स्टा फ
ह द
इन की
ब म
स्वी कार
नक ली
ब धा
प शु
स्ट िक
नि ष्
ज्यो ति
उत् तरी
रि मा
दी पिका
सर दार
स्था नों
करवा या
उ धर
हाई वे
अनु प
ति र
न यी
ला ए
क पा
नी त
घा टन
भार ती
सा ढ़े
ए प्
स प्
्यू टर
ब् लॉक
सिने मा
काम का
पु ष्
अयो ध्या
य र्स
टि या
बढ़ ने
सेवा एं
वि धि
ँ च
श्री नगर
पी एफ
छा पे
बन र्जी
म चा
गठ ित
ने शन
आज म
ज ंगल
सुनी ल
ल ट
N ews
अक्ष य
लिया ं
पहुंच कर
डाय रे
0 1
पर् व
एम एस
के जरी
केजरी वाल
सो ने
चार् ट
कन्स्ट्र क
कन्स्ट्रक शन
सक्रि य
परि स्थिति
खेल ने
एस डीएम
आतंक वाद
पा ठी
धार ण
फि ट
बॉ र्डर
पाकि स्तानी
न शे
अफ ्री
जिन के
ई रान
स वालों
नियंत्र ण
मि त्र
न्यू ज
5 2
बै ंकों
र क्त
इ च्छा
सर् वि
मा ंगा
को ड
फ सल
ब जाय
रा त्रि
कार्य वाही
दि त
ू ं
