{
  "<unk>": 0,
  "<pad>": 1,
  " ": 2,
  "!": 3,
  "\"": 4,
  "#": 5,
  "$": 6,
  "%": 7,
  "&": 8,
  "'": 9,
  "(": 10,
  ")": 11,
  "*": 12,
  "+": 13,
  ",": 14,
  "-": 15,
  ".": 16,
  "/": 17,
  "0": 18,
  "1": 19,
  "2": 20,
  "3": 21,
  "4": 22,
  "5": 23,
  "6": 24,
  "7": 25,
  "8": 26,
  "9": 27,
  ":": 28,
  ";": 29,
  "<": 30,
  "=": 31,
  ">": 32,
  "?": 33,
  "@": 34,
  "A": 35,
  "B": 36,
  "C": 37,
  "D": 38,
  "E": 39,
  "F": 40,
  "G": 41,
  "H": 42,
  "I": 43,
  "J": 44,
  "K": 45,
  "L": 46,
  "M": 47,
  "N": 48,
  "O": 49,
  "P": 50,
  "Q": 51,
  "R": 52,
  "S": 53,
  "T": 54,
  "U": 55,
  "V": 56,
  "W": 57,
  "X": 58,
  "Y": 59,
  "Z": 60,
  "[": 61,
  "\\": 62,
  "]": 63,
  "^": 64,
  "_": 65,
  "`": 66,
  "a": 67,
  "b": 68,
  "c": 69,
  "d": 70,
  "e": 71,
  "f": 72,
  "g": 73,
  "h": 74,
  "i": 75,
  "j": 76,
  "k": 77,
  "l": 78,
  "m": 79,
  "n": 80,
  "o": 81,
  "p": 82,
  "q": 83,
  "r": 84,
  "s": 85,
  "t": 86,
  "u": 87,
  "v": 88,
  "w": 89,
  "x": 90,
  "y": 91,
  "z": 92,
  "{": 93,
  "|": 94,
  "}": 95,
  "~": 96,
  "": 97,
  "¡": 98,
  "§": 99,
  "¨": 100,
  "ª": 101,
  "«": 102,
  "­": 103,
  "°": 104,
  "±": 105,
  "²": 106,
  "³": 107,
  "´": 108,
  "µ": 109,
  "·": 110,
  "¹": 111,
  "º": 112,
  "»": 113,
  "½": 114,
  "¾": 115,
  "¿": 116,
  "À": 117,
  "Á": 118,
  "Â": 119,
  "Ã": 120,
  "Ä": 121,
  "Å": 122,
  "Æ": 123,
  "Ç": 124,
  "È": 125,
  "É": 126,
  "Ë": 127,
  "Í": 128,
  "Î": 129,
  "Ð": 130,
  "Ñ": 131,
  "Ó": 132,
  "Ô": 133,
  "Õ": 134,
  "Ö": 135,
  "×": 136,
  "Ø": 137,
  "Ú": 138,
  "Ü": 139,
  "Þ": 140,
  "ß": 141,
  "à": 142,
  "á": 143,
  "â": 144,
  "ã": 145,
  "ä": 146,
  "å": 147,
  "æ": 148,
  "ç": 149,
  "è": 150,
  "é": 151,
  "ê": 152,
  "ë": 153,
  "ì": 154,
  "í": 155,
  "î": 156,
  "ï": 157,
  "ð": 158,
  "ñ": 159,
  "ò": 160,
  "ó": 161,
  "ô": 162,
  "õ": 163,
  "ö": 164,
  "ø": 165,
  "ù": 166,
  "ú": 167,
  "û": 168,
  "ü": 169,
  "ý": 170,
  "þ": 171,
  "ÿ": 172,
  "Ā": 173,
  "ā": 174,
  "Ă": 175,
  "ă": 176,
  "Ą": 177,
  "ą": 178,
  "Ć": 179,
  "ć": 180,
  "ĉ": 181,
  "Č": 182,
  "č": 183,
  "Đ": 184,
  "đ": 185,
  "Ē": 186,
  "ē": 187,
  "ĕ": 188,
  "Ė": 189,
  "ė": 190,
  "Ę": 191,
  "ę": 192,
  "ě": 193,
  "Ĝ": 194,
  "ĝ": 195,
  "ğ": 196,
  "Ġ": 197,
  "ġ": 198,
  "ģ": 199,
  "ĥ": 200,
  "Ħ": 201,
  "ħ": 202,
  "ĩ": 203,
  "Ī": 204,
  "ī": 205,
  "ĭ": 206,
  "Į": 207,
  "į": 208,
  "İ": 209,
  "ı": 210,
  "ĵ": 211,
  "Ķ": 212,
  "ķ": 213,
  "ļ": 214,
  "Ľ": 215,
  "ľ": 216,
  "Ł": 217,
  "ł": 218,
  "ń": 219,
  "ņ": 220,
  "ň": 221,
  "ŋ": 222,
  "Ō": 223,
  "ō": 224,
  "ŏ": 225,
  "Ő": 226,
  "ő": 227,
  "Œ": 228,
  "œ": 229,
  "ŗ": 230,
  "ř": 231,
  "Ś": 232,
  "ś": 233,
  "ŝ": 234,
  "Ş": 235,
  "ş": 236,
  "Š": 237,
  "š": 238,
  "Ţ": 239,
  "ţ": 240,
  "ť": 241,
  "ũ": 242,
  "Ū": 243,
  "ū": 244,
  "ŭ": 245,
  "ů": 246,
  "Ű": 247,
  "ű": 248,
  "Ų": 249,
  "ų": 250,
  "ŵ": 251,
  "ź": 252,
  "Ż": 253,
  "ż": 254,
  "Ž": 255,
  "ž": 256,
  "ſ": 257,
  "Ə": 258,
  "ơ": 259,
  "ư": 260,
  "ǀ": 261,
  "ǎ": 262,
  "ǐ": 263,
  "ǒ": 264,
  "ǔ": 265,
  "ǚ": 266,
  "ǝ": 267,
  "ǟ": 268,
  "ǫ": 269,
  "ș": 270,
  "ț": 271,
  "ȫ": 272,
  "ɐ": 273,
  "ɑ": 274,
  "ɔ": 275,
  "ɕ": 276,
  "ə": 277,
  "ɛ": 278,
  "ɟ": 279,
  "ɡ": 280,
  "ɣ": 281,
  "ɨ": 282,
  "ɪ": 283,
  "ɫ": 284,
  "ɲ": 285,
  "ɴ": 286,
  "ɸ": 287,
  "ɾ": 288,
  "ʁ": 289,
  "ʃ": 290,
  "ʊ": 291,
  "ʎ": 292,
  "ʏ": 293,
  "ʑ": 294,
  "ʒ": 295,
  "ʝ": 296,
  "ʣ": 297,
  "ʤ": 298,
  "ʦ": 299,
  "ʧ": 300,
  "ʰ": 301,
  "ʲ": 302,
  "ʹ": 303,
  "ʻ": 304,
  "ʾ": 305,
  "ʿ": 306,
  "ˆ": 307,
  "ˇ": 308,
  "ˈ": 309,
  "ˊ": 310,
  "ˌ": 311,
  "ː": 312,
  "ˑ": 313,
  "˘": 314,
  "˚": 315,
  "́": 316,
  "̃": 317,
  "̄": 318,
  "̞": 319,
  "̠": 320,
  "̥": 321,
  "̧": 322,
  "̩": 323,
  "̯": 324,
  "̺": 325,
  "͍": 326,
  "͡": 327,
  "Ά": 328,
  "Έ": 329,
  "Α": 330,
  "Β": 331,
  "Γ": 332,
  "Δ": 333,
  "Ε": 334,
  "Ζ": 335,
  "Η": 336,
  "Θ": 337,
  "Ι": 338,
  "Κ": 339,
  "Λ": 340,
  "Μ": 341,
  "Ν": 342,
  "Ξ": 343,
  "Ο": 344,
  "Π": 345,
  "Ρ": 346,
  "Σ": 347,
  "Τ": 348,
  "Φ": 349,
  "Χ": 350,
  "Ω": 351,
  "ά": 352,
  "έ": 353,
  "ή": 354,
  "ί": 355,
  "α": 356,
  "β": 357,
  "γ": 358,
  "δ": 359,
  "ε": 360,
  "ζ": 361,
  "η": 362,
  "θ": 363,
  "ι": 364,
  "κ": 365,
  "λ": 366,
  "μ": 367,
  "ν": 368,
  "ξ": 369,
  "ο": 370,
  "π": 371,
  "ρ": 372,
  "ς": 373,
  "σ": 374,
  "τ": 375,
  "υ": 376,
  "φ": 377,
  "χ": 378,
  "ψ": 379,
  "ω": 380,
  "ϊ": 381,
  "ό": 382,
  "ύ": 383,
  "ώ": 384,
  "ϸ": 385,
  "І": 386,
  "Ј": 387,
  "Њ": 388,
  "Ќ": 389,
  "Ў": 390,
  "А": 391,
  "Б": 392,
  "В": 393,
  "Г": 394,
  "Д": 395,
  "Е": 396,
  "Ж": 397,
  "З": 398,
  "И": 399,
  "Й": 400,
  "К": 401,
  "Л": 402,
  "М": 403,
  "Н": 404,
  "О": 405,
  "П": 406,
  "Р": 407,
  "С": 408,
  "Т": 409,
  "У": 410,
  "Ф": 411,
  "Х": 412,
  "Ц": 413,
  "Ч": 414,
  "Ш": 415,
  "Щ": 416,
  "Ы": 417,
  "Э": 418,
  "Ю": 419,
  "Я": 420,
  "а": 421,
  "б": 422,
  "в": 423,
  "г": 424,
  "д": 425,
  "е": 426,
  "ж": 427,
  "з": 428,
  "и": 429,
  "й": 430,
  "к": 431,
  "л": 432,
  "м": 433,
  "н": 434,
  "о": 435,
  "п": 436,
  "р": 437,
  "с": 438,
  "т": 439,
  "у": 440,
  "ф": 441,
  "х": 442,
  "ц": 443,
  "ч": 444,
  "ш": 445,
  "щ": 446,
  "ъ": 447,
  "ы": 448,
  "ь": 449,
  "э": 450,
  "ю": 451,
  "я": 452,
  "ё": 453,
  "ђ": 454,
  "є": 455,
  "і": 456,
  "ї": 457,
  "ј": 458,
  "љ": 459,
  "њ": 460,
  "ћ": 461,
  "ў": 462,
  "џ": 463,
  "ѣ": 464,
  "Ѳ": 465,
  "ғ": 466,
  "Қ": 467,
  "қ": 468,
  "ҡ": 469,
  "ң": 470,
  "ҥ": 471,
  "ҧ": 472,
  "ҭ": 473,
  "ҳ": 474,
  "Ҷ": 475,
  "ҷ": 476,
  "Ӏ": 477,
  "Ә": 478,
  "ә": 479,
  "ӧ": 480,
  "ө": 481,
  "ӱ": 482,
  "ӹ": 483,
  "Ա": 484,
  "Ե": 485,
  "Լ": 486,
  "Հ": 487,
  "Ղ": 488,
  "Վ": 489,
  "ա": 490,
  "բ": 491,
  "գ": 492,
  "ե": 493,
  "զ": 494,
  "է": 495,
  "ը": 496,
  "թ": 497,
  "ի": 498,
  "լ": 499,
  "խ": 500,
  "ծ": 501,
  "հ": 502,
  "ձ": 503,
  "ղ": 504,
  "ճ": 505,
  "յ": 506,
  "ն": 507,
  "ո": 508,
  "պ": 509,
  "ջ": 510,
  "ռ": 511,
  "ս": 512,
  "տ": 513,
  "ր": 514,
  "ց": 515,
  "ւ": 516,
  "փ": 517,
  "ք": 518,
  "օ": 519,
  "և": 520,
  "ְ": 521,
  "ֲ": 522,
  "ִ": 523,
  "ַ": 524,
  "ָ": 525,
  "ּ": 526,
  "ׁ": 527,
  "א": 528,
  "ב": 529,
  "ג": 530,
  "ד": 531,
  "ה": 532,
  "ו": 533,
  "ז": 534,
  "ח": 535,
  "י": 536,
  "כ": 537,
  "ל": 538,
  "ם": 539,
  "מ": 540,
  "נ": 541,
  "ע": 542,
  "פ": 543,
  "ר": 544,
  "ש": 545,
  "ת": 546,
  "ء": 547,
  "آ": 548,
  "أ": 549,
  "إ": 550,
  "ئ": 551,
  "ا": 552,
  "ب": 553,
  "ة": 554,
  "ت": 555,
  "ث": 556,
  "ج": 557,
  "ح": 558,
  "خ": 559,
  "د": 560,
  "ذ": 561,
  "ر": 562,
  "ز": 563,
  "س": 564,
  "ش": 565,
  "ص": 566,
  "ض": 567,
  "ط": 568,
  "ع": 569,
  "غ": 570,
  "ف": 571,
  "ق": 572,
  "ك": 573,
  "ل": 574,
  "م": 575,
  "ن": 576,
  "ه": 577,
  "و": 578,
  "ي": 579,
  "پ": 580,
  "ک": 581,
  "ی": 582,
  "ܐ": 583,
  "ܘ": 584,
  "ܝ": 585,
  "ܣ": 586,
  "ܪ": 587,
  "ं": 588,
  "ई": 589,
  "उ": 590,
  "ग": 591,
  "च": 592,
  "ज": 593,
  "ण": 594,
  "त": 595,
  "द": 596,
  "ध": 597,
  "न": 598,
  "प": 599,
  "भ": 600,
  "म": 601,
  "य": 602,
  "र": 603,
  "ल": 604,
  "व": 605,
  "श": 606,
  "स": 607,
  "ह": 608,
  "ा": 609,
  "ि": 610,
  "ी": 611,
  "ु": 612,
  "ू": 613,
  "े": 614,
  "्": 615,
  "ட": 616,
  "த": 617,
  "ந": 618,
  "ம": 619,
  "ழ": 620,
  "ா": 621,
  "ி": 622,
  "ு": 623,
  "்": 624,
  "ಂ": 625,
  "ತ": 626,
  "ಬ": 627,
  "ವ": 628,
  "ಸ": 629,
  "ಹ": 630,
  "್": 631,
  "ก": 632,
  "ค": 633,
  "ง": 634,
  "ฏ": 635,
  "ด": 636,
  "ต": 637,
  "ท": 638,
  "ธ": 639,
  "ป": 640,
  "ม": 641,
  "ย": 642,
  "ร": 643,
  "อ": 644,
  "ั": 645,
  "า": 646,
  "ิ": 647,
  "ี": 648,
  "เ": 649,
  "ไ": 650,
  "์": 651,
  "ຊ": 652,
  "ດ": 653,
  "ຕ": 654,
  "ທ": 655,
  "ນ": 656,
  "ປ": 657,
  "ລ": 658,
  "ວ": 659,
  "ສ": 660,
  "ະ": 661,
  "ັ": 662,
  "າ": 663,
  "ິ": 664,
  "ົ": 665,
  "ໄ": 666,
  "་": 667,
  "ག": 668,
  "ད": 669,
  "ན": 670,
  "བ": 671,
  "མ": 672,
  "འ": 673,
  "ཡ": 674,
  "ར": 675,
  "ལ": 676,
  "ས": 677,
  "ུ": 678,
  "ོ": 679,
  "ྡ": 680,
  "ྲ": 681,
  "က": 682,
  "င": 683,
  "စ": 684,
  "ဆ": 685,
  "ည": 686,
  "ဒ": 687,
  "န": 688,
  "ရ": 689,
  "အ": 690,
  "ာ": 691,
  "ု": 692,
  "ေ": 693,
  "း": 694,
  "္": 695,
  "ა": 696,
  "ბ": 697,
  "გ": 698,
  "დ": 699,
  "ე": 700,
  "ვ": 701,
  "ზ": 702,
  "თ": 703,
  "ი": 704,
  "კ": 705,
  "ლ": 706,
  "მ": 707,
  "ნ": 708,
  "ო": 709,
  "პ": 710,
  "რ": 711,
  "ს": 712,
  "ტ": 713,
  "უ": 714,
  "ფ": 715,
  "ქ": 716,
  "ღ": 717,
  "ყ": 718,
  "შ": 719,
  "ჩ": 720,
  "ც": 721,
  "ძ": 722,
  "ჭ": 723,
  "ხ": 724,
  "ჯ": 725,
  "ሊ": 726,
  "ላ": 727,
  "ሞ": 728,
  "ሪ": 729,
  "ራ": 730,
  "ሲ": 731,
  "ብ": 732,
  "ት": 733,
  "ኢ": 734,
  "ክ": 735,
  "ዊ": 736,
  "የ": 737,
  "ያ": 738,
  "ዮ": 739,
  "ዴ": 740,
  "ጵ": 741,
  "ፌ": 742,
  "ፐ": 743,
  "፡": 744,
  "ត": 745,
  "ន": 746,
  "ម": 747,
  "រ": 748,
  "ស": 749,
  "ហ": 750,
  "ី": 751,
  "ុ": 752,
  "ោ": 753,
  "្": 754,
  "ḍ": 755,
  "ḏ": 756,
  "Ḑ": 757,
  "ḑ": 758,
  "Ḥ": 759,
  "ḥ": 760,
  "Ḩ": 761,
  "ḩ": 762,
  "Ḫ": 763,
  "ḫ": 764,
  "ṁ": 765,
  "ṃ": 766,
  "ṇ": 767,
  "ṗ": 768,
  "ṛ": 769,
  "ṣ": 770,
  "ṭ": 771,
  "ṯ": 772,
  "ẕ": 773,
  "ẖ": 774,
  "ẞ": 775,
  "ạ": 776,
  "ả": 777,
  "ầ": 778,
  "ẵ": 779,
  "ẻ": 780,
  "ể": 781,
  "ễ": 782,
  "ệ": 783,
  "ỉ": 784,
  "ỏ": 785,
  "ố": 786,
  "ồ": 787,
  "ộ": 788,
  "ở": 789,
  "ụ": 790,
  "ứ": 791,
  "ἀ": 792,
  "ἄ": 793,
  "Ἀ": 794,
  "ἐ": 795,
  "ἑ": 796,
  "ἔ": 797,
  "ἕ": 798,
  "Ἑ": 799,
  "ἠ": 800,
  "ἡ": 801,
  "ἥ": 802,
  "ἰ": 803,
  "ἱ": 804,
  "ἴ": 805,
  "ἵ": 806,
  "ἶ": 807,
  "Ἰ": 808,
  "Ἱ": 809,
  "Ἴ": 810,
  "ὀ": 811,
  "ὁ": 812,
  "ὅ": 813,
  "ὐ": 814,
  "ὑ": 815,
  "ὔ": 816,
  "ὕ": 817,
  "ὖ": 818,
  "ὗ": 819,
  "ὠ": 820,
  "ὡ": 821,
  "ὥ": 822,
  "ὧ": 823,
  "Ὠ": 824,
  "ὰ": 825,
  "ὲ": 826,
  "ὴ": 827,
  "ὶ": 828,
  "ὸ": 829,
  "ὺ": 830,
  "ὼ": 831,
  "ᾶ": 832,
  "ῃ": 833,
  "ῆ": 834,
  "ῇ": 835,
  "ῖ": 836,
  "ῢ": 837,
  "ῦ": 838,
  "ῳ": 839,
  "ῶ": 840,
  "ῷ": 841,
  "​": 842,
  "‌": 843,
  "‎": 844,
  "‑": 845,
  "‒": 846,
  "–": 847,
  "—": 848,
  "‘": 849,
  "’": 850,
  "‚": 851,
  "“": 852,
  "”": 853,
  "„": 854,
  "†": 855,
  "…": 856,
  "‰": 857,
  "′": 858,
  "″": 859,
  "⁰": 860,
  "€": 861,
  "№": 862,
  "ℚ": 863,
  "ℝ": 864,
  "→": 865,
  "∀": 866,
  "∆": 867,
  "∈": 868,
  "−": 869,
  "∙": 870,
  "√": 871,
  "∞": 872,
  "∧": 873,
  "∩": 874,
  "∪": 875,
  "≈": 876,
  "≠": 877,
  "≤": 878,
  "≥": 879,
  "⊂": 880,
  "⊃": 881,
  "⊆": 882,
  "⊇": 883,
  "☰": 884,
  "☲": 885,
  "☵": 886,
  "☷": 887,
  "♀": 888,
  "♄": 889,
  "⟨": 890,
  "⟩": 891,
  "え": 892,
  "お": 893,
  "が": 894,
  "さ": 895,
  "す": 896,
  "な": 897,
  "に": 898,
  "ひ": 899,
  "ら": 900,
  "り": 901,
  "る": 902,
  "れ": 903,
  "ん": 904,
  "カ": 905,
  "キ": 906,
  "グ": 907,
  "サ": 908,
  "ス": 909,
  "タ": 910,
  "ナ": 911,
  "ノ": 912,
  "ハ": 913,
  "マ": 914,
  "ラ": 915,
  "レ": 916,
  "ロ": 917,
  "ワ": 918,
  "ー": 919,
  "ㄱ": 920,
  "ㄲ": 921,
  "ㄴ": 922,
  "ㄷ": 923,
  "ㄸ": 924,
  "ㄹ": 925,
  "ㅁ": 926,
  "ㅂ": 927,
  "ㅃ": 928,
  "ㅅ": 929,
  "ㅆ": 930,
  "ㅇ": 931,
  "ㅈ": 932,
  "ㅉ": 933,
  "ㅊ": 934,
  "ㅋ": 935,
  "ㅌ": 936,
  "ㅍ": 937,
  "ㅎ": 938,
  "ㅏ": 939,
  "ㅐ": 940,
  "ㅑ": 941,
  "ㅒ": 942,
  "ㅓ": 943,
  "ㅔ": 944,
  "ㅕ": 945,
  "ㅖ": 946,
  "ㅗ": 947,
  "ㅘ": 948,
  "ㅙ": 949,
  "ㅚ": 950,
  "ㅛ": 951,
  "ㅜ": 952,
  "ㅝ": 953,
  "ㅞ": 954,
  "ㅟ": 955,
  "ㅠ": 956,
  "ㅡ": 957,
  "ㅢ": 958,
  "ㅣ": 959,
  "上": 960,
  "下": 961,
  "世": 962,
  "丘": 963,
  "东": 964,
  "中": 965,
  "乾": 966,
  "五": 967,
  "井": 968,
  "京": 969,
  "人": 970,
  "介": 971,
  "仮": 972,
  "仲": 973,
  "会": 974,
  "伟": 975,
  "先": 976,
  "光": 977,
  "八": 978,
  "公": 979,
  "共": 980,
  "別": 981,
  "利": 982,
  "别": 983,
  "化": 984,
  "北": 985,
  "区": 986,
  "區": 987,
  "华": 988,
  "南": 989,
  "原": 990,
  "县": 991,
  "叔": 992,
  "台": 993,
  "号": 994,
  "名": 995,
  "周": 996,
  "和": 997,
  "国": 998,
  "國": 999,
  "地": 1000,
  "坎": 1001,
  "坤": 1002,
  "城": 1003,
  "堤": 1004,
  "大": 1005,
  "天": 1006,
  "太": 1007,
  "夫": 1008,
  "奉": 1009,
  "子": 1010,
  "孔": 1011,
  "字": 1012,
  "学": 1013,
  "安": 1014,
  "宣": 1015,
  "家": 1016,
  "富": 1017,
  "寶": 1018,
  "导": 1019,
  "小": 1020,
  "尹": 1021,
  "尼": 1022,
  "山": 1023,
  "岸": 1024,
  "島": 1025,
  "川": 1026,
  "州": 1027,
  "市": 1028,
  "帅": 1029,
  "师": 1030,
  "帝": 1031,
  "師": 1032,
  "府": 1033,
  "張": 1034,
  "影": 1035,
  "徽": 1036,
  "思": 1037,
  "想": 1038,
  "愛": 1039,
  "成": 1040,
  "手": 1041,
  "拼": 1042,
  "振": 1043,
  "政": 1044,
  "教": 1045,
  "文": 1046,
  "新": 1047,
  "方": 1048,
  "旗": 1049,
  "日": 1050,
  "昊": 1051,
  "昌": 1052,
  "星": 1053,
  "普": 1054,
  "暴": 1055,
  "月": 1056,
  "朝": 1057,
  "本": 1058,
  "束": 1059,
  "杨": 1060,
  "東": 1061,
  "林": 1062,
  "校": 1063,
  "株": 1064,
  "梅": 1065,
  "業": 1066,
  "極": 1067,
  "機": 1068,
  "權": 1069,
  "歌": 1070,
  "正": 1071,
  "武": 1072,
  "毛": 1073,
  "民": 1074,
  "水": 1075,
  "汉": 1076,
  "江": 1077,
  "沙": 1078,
  "治": 1079,
  "泰": 1080,
  "泽": 1081,
  "浩": 1082,
  "海": 1083,
  "润": 1084,
  "淑": 1085,
  "港": 1086,
  "湾": 1087,
  "漢": 1088,
  "澤": 1089,
  "濟": 1090,
  "火": 1091,
  "營": 1092,
  "父": 1093,
  "爺": 1094,
  "特": 1095,
  "玉": 1096,
  "王": 1097,
  "益": 1098,
  "盟": 1099,
  "盧": 1100,
  "直": 1101,
  "省": 1102,
  "石": 1103,
  "神": 1104,
  "福": 1105,
  "等": 1106,
  "縣": 1107,
  "红": 1108,
  "级": 1109,
  "统": 1110,
  "考": 1111,
  "聖": 1112,
  "聰": 1113,
  "職": 1114,
  "肇": 1115,
  "自": 1116,
  "至": 1117,
  "致": 1118,
  "臺": 1119,
  "興": 1120,
  "舟": 1121,
  "舵": 1122,
  "良": 1123,
  "芝": 1124,
  "草": 1125,
  "莽": 1126,
  "華": 1127,
  "萊": 1128,
  "萬": 1129,
  "蓮": 1130,
  "蔚": 1131,
  "蔣": 1132,
  "藏": 1133,
  "藤": 1134,
  "虫": 1135,
  "行": 1136,
  "表": 1137,
  "袖": 1138,
  "褒": 1139,
  "西": 1140,
  "語": 1141,
  "话": 1142,
  "语": 1143,
  "路": 1144,
  "辖": 1145,
  "通": 1146,
  "速": 1147,
  "道": 1148,
  "達": 1149,
  "郡": 1150,
  "部": 1151,
  "采": 1152,
  "金": 1153,
  "釜": 1154,
  "鉉": 1155,
  "銀": 1156,
  "鎭": 1157,
  "関": 1158,
  "離": 1159,
  "雲": 1160,
  "韓": 1161,
  "音": 1162,
  "领": 1163,
  "飯": 1164,
  "香": 1165,
  "高": 1166,
  "鮮": 1167,
  "黄": 1168,
  "가": 1169,
  "감": 1170,
  "갑": 1171,
  "강": 1172,
  "거": 1173,
  "건": 1174,
  "경": 1175,
  "계": 1176,
  "고": 1177,
  "곤": 1178,
  "공": 1179,
  "과": 1180,
  "광": 1181,
  "괴": 1182,
  "교": 1183,
  "구": 1184,
  "국": 1185,
  "군": 1186,
  "궁": 1187,
  "권": 1188,
  "극": 1189,
  "금": 1190,
  "기": 1191,
  "길": 1192,
  "나": 1193,
  "남": 1194,
  "노": 1195,
  "논": 1196,
  "높": 1197,
  "느": 1198,
  "늘": 1199,
  "님": 1200,
  "다": 1201,
  "단": 1202,
  "달": 1203,
  "닳": 1204,
  "당": 1205,
  "대": 1206,
  "데": 1207,
  "도": 1208,
  "동": 1209,
  "두": 1210,
  "듯": 1211,
  "라": 1212,
  "람": 1213,
  "랑": 1214,
  "래": 1215,
  "려": 1216,
  "로": 1217,
  "록": 1218,
  "루": 1219,
  "르": 1220,
  "른": 1221,
  "름": 1222,
  "리": 1223,
  "림": 1224,
  "마": 1225,
  "만": 1226,
  "맘": 1227,
  "무": 1228,
  "물": 1229,
  "민": 1230,
  "바": 1231,
  "밝": 1232,
  "백": 1233,
  "변": 1234,
  "별": 1235,
  "보": 1236,
  "부": 1237,
  "북": 1238,
  "불": 1239,
  "사": 1240,
  "산": 1241,
  "삼": 1242,
  "상": 1243,
  "서": 1244,
  "선": 1245,
  "성": 1246,
  "세": 1247,
  "소": 1248,
  "속": 1249,
  "수": 1250,
  "숙": 1251,
  "슴": 1252,
  "시": 1253,
  "식": 1254,
  "심": 1255,
  "안": 1256,
  "애": 1257,
  "양": 1258,
  "없": 1259,
  "에": 1260,
  "여": 1261,
  "역": 1262,
  "연": 1263,
  "영": 1264,
  "우": 1265,
  "운": 1266,
  "울": 1267,
  "원": 1268,
  "위": 1269,
  "윤": 1270,
  "으": 1271,
  "은": 1272,
  "을": 1273,
  "읍": 1274,
  "이": 1275,
  "익": 1276,
  "일": 1277,
  "입": 1278,
  "자": 1279,
  "장": 1280,
  "저": 1281,
  "전": 1282,
  "정": 1283,
  "제": 1284,
  "조": 1285,
  "주": 1286,
  "중": 1287,
  "즐": 1288,
  "직": 1289,
  "진": 1290,
  "창": 1291,
  "천": 1292,
  "철": 1293,
  "초": 1294,
  "충": 1295,
  "치": 1296,
  "친": 1297,
  "태": 1298,
  "통": 1299,
  "특": 1300,
  "판": 1301,
  "편": 1302,
  "픽": 1303,
  "하": 1304,
  "학": 1305,
  "한": 1306,
  "할": 1307,
  "함": 1308,
  "해": 1309,
  "행": 1310,
  "향": 1311,
  "험": 1312,
  "현": 1313,
  "호": 1314,
  "화": 1315,
  "활": 1316,
  "흥": 1317,
  "ﬁ": 1318,
  "，": 1319,
  "st": 1320,
  "se": 1321,
  "al": 1322,
  "li": 1323,
  "ja": 1324,
  "ri": 1325,
  "aa": 1326,
  "on": 1327,
  "si": 1328,
  "le": 1329,
  "te": 1330,
  "mi": 1331,
  "an": 1332,
  "us": 1333,
  "in": 1334,
  "ta": 1335,
  "ma": 1336,
  "de": 1337,
  "ku": 1338,
  "va": 1339,
  "oo": 1340,
  "ne": 1341,
  "tu": 1342,
  "ka": 1343,
  "me": 1344,
  "ti": 1345,
  "la": 1346,
  "re": 1347,
  "da": 1348,
  "ra": 1349,
  "ni": 1350,
  "na": 1351,
  "ke": 1352,
  "di": 1353,
  "gi": 1354,
  "ks": 1355,
  "ga": 1356,
  "ko": 1357,
  "su": 1358,
  "19": 1359,
  "sa": 1360,
  "el": 1361,
  "sta": 1362,
  "ar": 1363,
  "gu": 1364,
  "ki": 1365,
  "sti": 1366,
  "he": 1367,
  "du": 1368,
  "val": 1369,
  "ii": 1370,
  "ee": 1371,
  "õi": 1372,
  "ge": 1373,
  "maa": 1374,
  "ju": 1375,
  "ste": 1376,
  "id": 1377,
  "ud": 1378,
  "sel": 1379,
  "mu": 1380,
  "oli": 1381,
  "or": 1382,
  "il": 1383,
  "pe": 1384,
  "is": 1385,
  "tsi": 1386,
  "kon": 1387,
  "lu": 1388,
  "vä": 1389,
  "ur": 1390,
  "en": 1391,
  "sed": 1392,
  "rii": 1393,
  "et": 1394,
  "er": 1395,
  "it": 1396,
  "20": 1397,
  "oon": 1398,
  "är": 1399,
  "ha": 1400,
  "ol": 1401,
  "ing": 1402,
  "tud": 1403,
  "vi": 1404,
  "ve": 1405,
  "dus": 1406,
  "hi": 1407,
  "ul": 1408,
  "või": 1409,
  "ali": 1410,
  "mb": 1411,
  "mis": 1412,
  "to": 1413,
  "saa": 1414,
  "eri": 1415,
  "sid": 1416,
  "ro": 1417,
  "aasta": 1418,
  "ää": 1419,
  "ba": 1420,
  "ru": 1421,
  "pi": 1422,
  "vad": 1423,
  "ndi": 1424,
  "ala": 1425,
  "lin": 1426,
  "pa": 1427,
  "ning": 1428,
  "mise": 1429,
  "ani": 1430,
  "ei": 1431,
  "es": 1432,
  "esti": 1433,
  "nud": 1434,
  "pä": 1435,
  "as": 1436,
  "pu": 1437,
  "aast": 1438,
  "18": 1439,
  "stu": 1440,
  "õu": 1441,
  "öö": 1442,
  "sõ": 1443,
  "riigi": 1444,
  "äi": 1445,
  "os": 1446,
  "ini": 1447,
  "kond": 1448,
  "Eesti": 1449,
  "ooni": 1450,
  "koo": 1451,
  "aastal": 1452,
  "00": 1453,
  "mil": 1454,
  "lii": 1455,
  "selt": 1456,
  "ale": 1457,
  "bi": 1458,
  "esi": 1459,
  "ole": 1460,
  "ran": 1461,
  "rah": 1462,
  "kse": 1463,
  "kes": 1464,
  "uu": 1465,
  "mine": 1466,
  "kir": 1467,
  "ses": 1468,
  "ht": 1469,
  "nd": 1470,
  "ele": 1471,
  "põ": 1472,
  "raa": 1473,
  "jal": 1474,
  "oma": 1475,
  "des": 1476,
  "nu": 1477,
  "tä": 1478,
  "lik": 1479,
  "ts": 1480,
  "au": 1481,
  "õr": 1482,
  "kogu": 1483,
  "kui": 1484,
  "kor": 1485,
  "liku": 1486,
  "loo": 1487,
  "ane": 1488,
  "200": 1489,
  "üü": 1490,
  "vald": 1491,
  "tas": 1492,
  "lt": 1493,
  "aani": 1494,
  "pea": 1495,
  "Sa": 1496,
  "Ma": 1497,
  "poo": 1498,
  "use": 1499,
  "maakond": 1500,
  "linna": 1501,
  "kas": 1502,
  "tse": 1503,
  "199": 1504,
  "nda": 1505,
  "jär": 1506,
  "ine": 1507,
  "osa": 1508,
  "lise": 1509,
  "mist": 1510,
  "hu": 1511,
  "pii": 1512,
  "üle": 1513,
  "and": 1514,
  "keel": 1515,
  "jan": 1516,
  "asu": 1517,
  "Ra": 1518,
  "lo": 1519,
  "ter": 1520,
  "lis": 1521,
  "kus": 1522,
  "suu": 1523,
  "sü": 1524,
  "mille": 1525,
  "ise": 1526,
  "ene": 1527,
  "ina": 1528,
  "koh": 1529,
  "Ku": 1530,
  "16": 1531,
  "tus": 1532,
  "takse": 1533,
  "tea": 1534,
  "õt": 1535,
  "selle": 1536,
  "kü": 1537,
  "ril": 1538,
  "sse": 1539,
  "tsiooni": 1540,
  "duse": 1541,
  "line": 1542,
  "nt": 1543,
  "konna": 1544,
  "Va": 1545,
  "17": 1546,
  "kuu": 1547,
  "mä": 1548,
  "Ta": 1549,
  "lja": 1550,
  "nime": 1551,
  "tel": 1552,
  "po": 1553,
  "ev": 1554,
  "Ka": 1555,
  "lä": 1556,
  "pro": 1557,
  "vali": 1558,
  "vii": 1559,
  "oni": 1560,
  "pp": 1561,
  "keele": 1562,
  "mas": 1563,
  "vus": 1564,
  "too": 1565,
  "vu": 1566,
  "15": 1567,
  "im": 1568,
  "andi": 1569,
  "tes": 1570,
  "esime": 1571,
  "mõ": 1572,
  "ana": 1573,
  "itse": 1574,
  "Rii": 1575,
  "mal": 1576,
  "pal": 1577,
  "ajal": 1578,
  "kasu": 1579,
  "sest": 1580,
  "stus": 1581,
  "tis": 1582,
  "side": 1583,
  "ris": 1584,
  "töö": 1585,
  "ed": 1586,
  "mo": 1587,
  "laste": 1588,
  "mad": 1589,
  "las": 1590,
  "par": 1591,
  "juu": 1592,
  "muu": 1593,
  "res": 1594,
  "välja": 1595,
  "Aa": 1596,
  "see": 1597,
  "aar": 1598,
  "kin": 1599,
  "tei": 1600,
  "je": 1601,
  "kol": 1602,
  "10": 1603,
  "ria": 1604,
  "jä": 1605,
  "tõ": 1606,
  "tun": 1607,
  "kku": 1608,
  "sai": 1609,
  "kõi": 1610,
  "jandi": 1611,
  "Ko": 1612,
  "Al": 1613,
  "ame": 1614,
  "gas": 1615,
  "198": 1616,
  "tuse": 1617,
  "kul": 1618,
  "suse": 1619,
  "del": 1620,
  "rel": 1621,
  "194": 1622,
  "fi": 1623,
  "II": 1624,
  "tee": 1625,
  "Te": 1626,
  "ääne": 1627,
  "tuu": 1628,
  "vahe": 1629,
  "rit": 1630,
  "mit": 1631,
  "rast": 1632,
  "193": 1633,
  "kun": 1634,
  "ch": 1635,
  "jõ": 1636,
  "man": 1637,
  "Roo": 1638,
  "ksa": 1639,
  "vee": 1640,
  "inime": 1641,
  "rist": 1642,
  "Tal": 1643,
  "uroo": 1644,
  "Lii": 1645,
  "Ju": 1646,
  "14": 1647,
  "lõ": 1648,
  "kirja": 1649,
  "ng": 1650,
  "lased": 1651,
  "kuid": 1652,
  "Pa": 1653,
  "ot": 1654,
  "alu": 1655,
  "eva": 1656,
  "no": 1657,
  "pre": 1658,
  "vastu": 1659,
  "tsioon": 1660,
  "kõr": 1661,
  "ber": 1662,
  "kau": 1663,
  "hul": 1664,
  "tati": 1665,
  "Ar": 1666,
  "hja": 1667,
  "Vene": 1668,
  "ir": 1669,
  "jandus": 1670,
  "197": 1671,
  "eesti": 1672,
  "Põ": 1673,
  "sõja": 1674,
  "mär": 1675,
  "ühe": 1676,
  "kuulu": 1677,
  "oogi": 1678,
  "eh": 1679,
  "uroopa": 1680,
  "maail": 1681,
  "end": 1682,
  "Tar": 1683,
  "poli": 1684,
  "hel": 1685,
  "kel": 1686,
  "eg": 1687,
  "iti": 1688,
  "Riigi": 1689,
  "riik": 1690,
  "nde": 1691,
  "stas": 1692,
  "Euroopa": 1693,
  "12": 1694,
  "aja": 1695,
  "anud": 1696,
  "nes": 1697,
  "tema": 1698,
  "196": 1699,
  "hin": 1700,
  "ho": 1701,
  "taja": 1702,
  "por": 1703,
  "dest": 1704,
  "kti": 1705,
  "Su": 1706,
  "kuju": 1707,
  "sajandi": 1708,
  "13": 1709,
  "valit": 1710,
  "alt": 1711,
  "moo": 1712,
  "üks": 1713,
  "nä": 1714,
  "aga": 1715,
  "do": 1716,
  "olu": 1717,
  "õuna": 1718,
  "pin": 1719,
  "Val": 1720,
  "pool": 1721,
  "Mar": 1722,
  "tule": 1723,
  "sus": 1724,
  "Rah": 1725,
  "Sel": 1726,
  "oloogi": 1727,
  "kt": 1728,
  "mini": 1729,
  "sia": 1730,
  "toi": 1731,
  "tege": 1732,
  "ela": 1733,
  "olid": 1734,
  "les": 1735,
  "van": 1736,
  "das": 1737,
  "suure": 1738,
  "ksi": 1739,
  "kaa": 1740,
  "Vi": 1741,
  "Au": 1742,
  "mee": 1743,
  "Li": 1744,
  "teks": 1745,
  "tatud": 1746,
  "See": 1747,
  "be": 1748,
  "kraa": 1749,
  "gus": 1750,
  "aania": 1751,
  "192": 1752,
  "võ": 1753,
  "fil": 1754,
  "dis": 1755,
  "piir": 1756,
  "han": 1757,
  "suur": 1758,
  "näi": 1759,
  "hte": 1760,
  "seks": 1761,
  "Lääne": 1762,
  "vaid": 1763,
  "soo": 1764,
  "ist": 1765,
  "ad": 1766,
  "Tartu": 1767,
  "aal": 1768,
  "järgi": 1769,
  "195": 1770,
  "kal": 1771,
  "emi": 1772,
  "tal": 1773,
  "ci": 1774,
  "mida": 1775,
  "saare": 1776,
  "Jo": 1777,
  "11": 1778,
  "preside": 1779,
  "nii": 1780,
  "õukogu": 1781,
  "test": 1782,
  "neb": 1783,
  "seda": 1784,
  "Se": 1785,
  "maailma": 1786,
  "kan": 1787,
  "bu": 1788,
  "elu": 1789,
  "riiki": 1790,
  "nik": 1791,
  "iv": 1792,
  "lan": 1793,
  "000": 1794,
  "ab": 1795,
  "pan": 1796,
  "ür": 1797,
  "miseks": 1798,
  "ral": 1799,
  "mõi": 1800,
  "ngu": 1801,
  "pee": 1802,
  "hti": 1803,
  "pärast": 1804,
  "nia": 1805,
  "kooli": 1806,
  "siis": 1807,
  "vaba": 1808,
  "go": 1809,
  "rahva": 1810,
  "moodu": 1811,
  "matu": 1812,
  "üh": 1813,
  "väi": 1814,
  "poliiti": 1815,
  "inud": 1816,
  "kiri": 1817,
  "Saa": 1818,
  "valt": 1819,
  "koos": 1820,
  "rid": 1821,
  "so": 1822,
  "dega": 1823,
  "Tallinna": 1824,
  "stee": 1825,
  "kesk": 1826,
  "taga": 1827,
  "sea": 1828,
  "vene": 1829,
  "lised": 1830,
  "vasta": 1831,
  "tele": 1832,
  "Ni": 1833,
  "did": 1834,
  "Vaba": 1835,
  "Vä": 1836,
  "La": 1837,
  "linn": 1838,
  "kä": 1839,
  "jää": 1840,
  "võt": 1841,
  "kud": 1842,
  "mber": 1843,
  "nad": 1844,
  "der": 1845,
  "hal": 1846,
  "Pe": 1847,
  "lai": 1848,
  "gid": 1849,
  "lus": 1850,
  "Re": 1851,
  "Vii": 1852,
  "ase": 1853,
  "keeles": 1854,
  "umi": 1855,
  "mus": 1856,
  "liselt": 1857,
  "mbes": 1858,
  "maal": 1859,
  "at": 1860,
  "tuuri": 1861,
  "kat": 1862,
  "rahvus": 1863,
  "tada": 1864,
  "mere": 1865,
  "liste": 1866,
  "Lu": 1867,
  "har": 1868,
  "dele": 1869,
  "med": 1870,
  "ega": 1871,
  "tab": 1872,
  "list": 1873,
  "Kr": 1874,
  "ted": 1875,
  "vaa": 1876,
  "ski": 1877,
  "ehk": 1878,
  "Le": 1879,
  "Ame": 1880,
  "vähe": 1881,
  "kohta": 1882,
  "km": 1883,
  "pai": 1884,
  "õttu": 1885,
  "ain": 1886,
  "jad": 1887,
  "ua": 1888,
  "un": 1889,
  "Saksa": 1890,
  "isi": 1891,
  "ena": 1892,
  "ras": 1893,
  "võimu": 1894,
  "seis": 1895,
  "ap": 1896,
  "kaitse": 1897,
  "Kui": 1898,
  "jõu": 1899,
  "ette": 1900,
  "um": 1901,
  "kar": 1902,
  "erika": 1903,
  "arva": 1904,
  "all": 1905,
  "palju": 1906,
  "lei": 1907,
  "misel": 1908,
  "liik": 1909,
  "tr": 1910,
  "tek": 1911,
  "lipp": 1912,
  "tähe": 1913,
  "kunin": 1914,
  "vahel": 1915,
  "päeva": 1916,
  "elani": 1917,
  "SA": 1918,
  "Pran": 1919,
  "nende": 1920,
  "duste": 1921,
  "Maa": 1922,
  "Ro": 1923,
  "umbes": 1924,
  "meet": 1925,
  "ant": 1926,
  "ül": 1927,
  "ok": 1928,
  "eest": 1929,
  "käi": 1930,
  "puu": 1931,
  "co": 1932,
  "ppe": 1933,
  "poole": 1934,
  "likult": 1935,
  "guse": 1936,
  "ree": 1937,
  "Saare": 1938,
  "moodusta": 1939,
  "An": 1940,
  "Põhja": 1941,
  "kuni": 1942,
  "usu": 1943,
  "Pä": 1944,
  "põh": 1945,
  "järel": 1946,
  "190": 1947,
  "Venemaa": 1948,
  "Jaa": 1949,
  "inna": 1950,
  "enda": 1951,
  "len": 1952,
  "sur": 1953,
  "org": 1954,
  "stiku": 1955,
  "vat": 1956,
  "abi": 1957,
  "tar": 1958,
  "tatakse": 1959,
  "ver": 1960,
  "Kes": 1961,
  "sis": 1962,
  "tuur": 1963,
  "rin": 1964,
  "dust": 1965,
  "Rootsi": 1966,
  "ai": 1967,
  "ast": 1968,
  "küla": 1969,
  "USA": 1970,
  "saar": 1971,
  "Kar": 1972,
  "põhi": 1973,
  "tsus": 1974,
  "mbril": 1975,
  "ster": 1976,
  "laa": 1977,
  "Selle": 1978,
  "Indi": 1979,
  "uuri": 1980,
  "Po": 1981,
  "Mu": 1982,
  "Võ": 1983,
  "statud": 1984,
  "kõige": 1985,
  "osoo": 1986,
  "üha": 1987,
  "raja": 1988,
  "eel": 1989,
  "roo": 1990,
  "30": 1991,
  "majandus": 1992,
  "koha": 1993,
  "alla": 1994,
  "mat": 1995,
  "sele": 1996,
  "olnud": 1997,
  "for": 1998,
  "Mi": 1999,
  "isu": 2000,
  "üm": 2001,
  "anda": 2002,
  "Suur": 2003,
  "eKr": 2004,
  "ca": 2005,
  "rae": 2006,
  "gust": 2007,
  "ult": 2008,
  "Nõukogu": 2009,
  "päri": 2010,
  "pte": 2011,
  "tasid": 2012,
  "ruu": 2013,
  "lane": 2014,
  "Ühe": 2015,
  "Kon": 2016,
  "Liidu": 2017,
  "eti": 2018,
  "sil": 2019,
  "ees": 2020,
  "taali": 2021,
  "sõna": 2022,
  "25": 2023,
  "kirju": 2024,
  "tle": 2025,
  "vuse": 2026,
  "oloogia": 2027,
  "stel": 2028,
  "era": 2029,
  "läbi": 2030,
  "kahe": 2031,
  "Pär": 2032,
  "kom": 2033,
  "võim": 2034,
  "kül": 2035,
  "amet": 2036,
  "Välis": 2037,
  "ban": 2038,
  "Ba": 2039,
  "nis": 2040,
  "rahu": 2041,
  "maks": 2042,
  "Lõuna": 2043,
  "kind": 2044,
  "korda": 2045,
  "võr": 2046,
  "seal": 2047,
  "konda": 2048,
  "Vaa": 2049,
  "võib": 2050,
  "tava": 2051,
  "olla": 2052,
  "päev": 2053,
  "jaan": 2054,
  "põhja": 2055,
  "kokku": 2056,
  "oja": 2057,
  "ide": 2058,
  "Na": 2059,
  "In": 2060,
  "Rooma": 2061,
  "lähe": 2062,
  "stab": 2063,
  "valitsus": 2064,
  "täi": 2065,
  "toimu": 2066,
  "hari": 2067,
  "ren": 2068,
  "Por": 2069,
  "tik": 2070,
  "aastast": 2071,
  "tõttu": 2072,
  "valitse": 2073,
  "lil": 2074,
  "tsa": 2075,
  "eks": 2076,
  "tide": 2077,
  "Pi": 2078,
  "korral": 2079,
  "näiteks": 2080,
  "paa": 2081,
  "üli": 2082,
  "Loo": 2083,
  "mitte": 2084,
  "tead": 2085,
  "hil": 2086,
  "teo": 2087,
  "esimene": 2088,
  "Võru": 2089,
  "Ameerika": 2090,
  "Rahva": 2091,
  "ühi": 2092,
  "men": 2093,
  "tor": 2094,
  "stati": 2095,
  "og": 2096,
  "mõju": 2097,
  "lah": 2098,
  "Ne": 2099,
  "fri": 2100,
  "hak": 2101,
  "Kir": 2102,
  "of": 2103,
  "sõl": 2104,
  "mised": 2105,
  "Ja": 2106,
  "sika": 2107,
  "jon": 2108,
  "kasva": 2109,
  "Vaata": 2110,
  "iseseis": 2111,
  "vin": 2112,
  "filosoo": 2113,
  "lius": 2114,
  "ron": 2115,
  "iga": 2116,
  "kaks": 2117,
  "pordi": 2118,
  "vis": 2119,
  "mala": 2120,
  "Ale": 2121,
  "Esi": 2122,
  "täna": 2123,
  "Har": 2124,
  "Vil": 2125,
  "mitme": 2126,
  "mar": 2127,
  "Ki": 2128,
  "ajaloo": 2129,
  "riti": 2130,
  "Par": 2131,
  "likku": 2132,
  "pera": 2133,
  "stik": 2134,
  "lõuna": 2135,
  "jao": 2136,
  "22": 2137,
  "bru": 2138,
  "hke": 2139,
  "väe": 2140,
  "ov": 2141,
  "Alb": 2142,
  "21": 2143,
  "kelle": 2144,
  "ligi": 2145,
  "tug": 2146,
  "aastat": 2147,
  "kirjanik": 2148,
  "ngi": 2149,
  "kõrge": 2150,
  "De": 2151,
  "ehi": 2152,
  "are": 2153,
  "mendi": 2154,
  "Prantsus": 2155,
  "lingid": 2156,
  "llu": 2157,
  "Välislingid": 2158,
  "järg": 2159,
  "var": 2160,
  "stest": 2161,
  "kõ": 2162,
  "Soo": 2163,
  "tsuse": 2164,
  "tra": 2165,
  "seeri": 2166,
  "nagu": 2167,
  "mon": 2168,
  "arvu": 2169,
  "Johan": 2170,
  "sise": 2171,
  "Me": 2172,
  "april": 2173,
  "jem": 2174,
  "hää": 2175,
  "landi": 2176,
  "stuse": 2177,
  "Sü": 2178,
  "kord": 2179,
  "To": 2180,
  "ule": 2181,
  "Nõukogude": 2182,
  "algu": 2183,
  "riikide": 2184,
  "inglise": 2185,
  "imus": 2186,
  "ime": 2187,
  "Eestis": 2188,
  "kest": 2189,
  "nni": 2190,
  "õpe": 2191,
  "osas": 2192,
  "väga": 2193,
  "Viited": 2194,
  "saks": 2195,
  "ameti": 2196,
  "kii": 2197,
  "isp": 2198,
  "peal": 2199,
  "tavad": 2200,
  "sar": 2201,
  "am": 2202,
  "ser": 2203,
  "sõda": 2204,
  "mate": 2205,
  "haa": 2206,
  "seo": 2207,
  "htu": 2208,
  "lasi": 2209,
  "23": 2210,
  "rem": 2211,
  "asub": 2212,
  "rite": 2213,
  "Vabariigi": 2214,
  "keis": 2215,
  "che": 2216,
  "ce": 2217,
  "leja": 2218,
  "jali": 2219,
  "risti": 2220,
  "pere": 2221,
  "Gu": 2222,
  "seid": 2223,
  "dal": 2224,
  "tem": 2225,
  "suuri": 2226,
  "oktoo": 2227,
  "Hi": 2228,
  "tagasi": 2229,
  "Poo": 2230,
  "The": 2231,
  "jõgi": 2232,
  "ida": 2233,
  "son": 2234,
  "mää": 2235,
  "Si": 2236,
  "miselt": 2237,
  "Rahvus": 2238,
  "vil": 2239,
  "täht": 2240,
  "24": 2241,
  "joon": 2242,
  "peri": 2243,
  "detse": 2244,
  "poolt": 2245,
  "India": 2246,
  "mata": 2247,
  "rea": 2248,
  "lennu": 2249,
  "ava": 2250,
  "veel": 2251,
  "septe": 2252,
  "päe": 2253,
  "erine": 2254,
  "majan": 2255,
  "Kesk": 2256,
  "ton": 2257,
  "kultuuri": 2258,
  "28": 2259,
  "mees": 2260,
  "vate": 2261,
  "lääne": 2262,
  "naa": 2263,
  "ili": 2264,
  "Pärast": 2265,
  "tri": 2266,
  "ainult": 2267,
  "lau": 2268,
  "SV": 2269,
  "muse": 2270,
  "kõik": 2271,
  "hulgas": 2272,
  "Aust": 2273,
  "Ri": 2274,
  "lisi": 2275,
  "kraav": 2276,
  "Itaali": 2277,
  "laev": 2278,
  "mur": 2279,
  "juuni": 2280,
  "tin": 2281,
  "rik": 2282,
  "tamise": 2283,
  "gra": 2284,
  "niku": 2285,
  "Ida": 2286,
  "president": 2287,
  "pun": 2288,
  "kool": 2289,
  "Tu": 2290,
  "nove": 2291,
  "inimest": 2292,
  "veebru": 2293,
  "And": 2294,
  "kuning": 2295,
  "ia": 2296,
  "Jõ": 2297,
  "valge": 2298,
  "dud": 2299,
  "26": 2300,
  "likud": 2301,
  "Ha": 2302,
  "luse": 2303,
  "27": 2304,
  "aastatel": 2305,
  "ndus": 2306,
  "lip": 2307,
  "eriti": 2308,
  "stada": 2309,
  "Pal": 2310,
  "tust": 2311,
  "tegu": 2312,
  "Esime": 2313,
  "est": 2314,
  "saksa": 2315,
  "Nor": 2316,
  "189": 2317,
  "õl": 2318,
  "lad": 2319,
  "Aafri": 2320,
  "tika": 2321,
  "mes": 2322,
  "presidendi": 2323,
  "aeg": 2324,
  "ang": 2325,
  "tega": 2326,
  "ment": 2327,
  "liiku": 2328,
  "Bo": 2329,
  "anna": 2330,
  "väär": 2331,
  "sajandil": 2332,
  "tõl": 2333,
  "ispaania": 2334,
  "taa": 2335,
  "vel": 2336,
  "Pärnu": 2337,
  "gune": 2338,
  "gis": 2339,
  "mm": 2340,
  "nne": 2341,
  "määra": 2342,
  "Mon": 2343,
  "kuningas": 2344,
  "NSV": 2345,
  "set": 2346,
  "fia": 2347,
  "äike": 2348,
  "tav": 2349,
  "Jär": 2350,
  "kolm": 2351,
  "alli": 2352,
  "aval": 2353,
  "ndu": 2354,
  "Viru": 2355,
  "50": 2356,
  "saab": 2357,
  "Pu": 2358,
  "joo": 2359,
  "sik": 2360,
  "mmi": 2361,
  "Di": 2362,
  "toori": 2363,
  "mani": 2364,
  "ob": 2365,
  "elda": 2366,
  "ugu": 2367,
  "vara": 2368,
  "nõu": 2369,
  "Il": 2370,
  "the": 2371,
  "vere": 2372,
  "sümb": 2373,
  "pil": 2374,
  "zi": 2375,
  "sko": 2376,
  "188": 2377,
  "toimus": 2378,
  "enne": 2379,
  "Portug": 2380,
  "mne": 2381,
  "kuna": 2382,
  "pla": 2383,
  "deks": 2384,
  "alik": 2385,
  "ker": 2386,
  "ndinud": 2387,
  "malt": 2388,
  "kivi": 2389,
  "cus": 2390,
  "tused": 2391,
  "ig": 2392,
  "seisu": 2393,
  "Ge": 2394,
  "muti": 2395,
  "maad": 2396,
  "juba": 2397,
  "Fran": 2398,
  "kut": 2399,
  "lk": 2400,
  "konnas": 2401,
  "pöö": 2402,
  "kaasa": 2403,
  "lid": 2404,
  "ära": 2405,
  "ou": 2406,
  "eru": 2407,
  "Tä": 2408,
  "Üle": 2409,
  "gen": 2410,
  "anus": 2411,
  "alates": 2412,
  "hä": 2413,
  "ritan": 2414,
  "Prantsusmaa": 2415,
  "vane": 2416,
  "Aleks": 2417,
  "lipu": 2418,
  "Tema": 2419,
  "din": 2420,
  "Albaania": 2421,
  "kkus": 2422,
  "jaanua": 2423,
  "juhti": 2424,
  "dub": 2425,
  "vana": 2426,
  "hiljem": 2427,
  "vär": 2428,
  "õige": 2429,
  "tš": 2430,
  "näit": 2431,
  "andis": 2432,
  "klas": 2433,
  "29": 2434,
  "uru": 2435,
  "tusele": 2436,
  "bia": 2437,
  "kinni": 2438,
  "ck": 2439,
  "luule": 2440,
  "eeri": 2441,
  "Suu": 2442,
  "vas": 2443,
  "kis": 2444,
  "tori": 2445,
  "Poola": 2446,
  "aadi": 2447,
  "pia": 2448,
  "stis": 2449,
  "sama": 2450,
  "tiiv": 2451,
  "päeval": 2452,
  "III": 2453,
  "ula": 2454,
  "vo": 2455,
  "kade": 2456,
  "jõe": 2457,
  "alda": 2458,
  "heli": 2459,
  "organi": 2460,
  "tuste": 2461,
  "misest": 2462,
  "186": 2463,
  "pingu": 2464,
  "välis": 2465,
  "suhte": 2466,
  "vallu": 2467,
  "rohke": 2468,
  "britan": 2469,
  "Suurbritan": 2470,
  "Lä": 2471,
  "minist": 2472,
  "väl": 2473,
  "teiste": 2474,
  "stal": 2475,
  "gel": 2476,
  "idi": 2477,
  "tü": 2478,
  "Vana": 2479,
  "parla": 2480,
  "noo": 2481,
  "kra": 2482,
  "püü": 2483,
  "must": 2484,
  "Ühend": 2485,
  "hoo": 2486,
  "Tei": 2487,
  "piiri": 2488,
  "provin": 2489,
  "pida": 2490,
  "jate": 2491,
  "isa": 2492,
  "terri": 2493,
  "tur": 2494,
  "tempera": 2495,
  "valitsuse": 2496,
  "millest": 2497,
  "nna": 2498,
  "Ca": 2499,
  "mid": 2500,
  "pran": 2501,
  "Hii": 2502,
  "loodus": 2503,
  "jät": 2504,
  "Taani": 2505,
  "pole": 2506,
  "keisri": 2507,
  "misega": 2508,
  "187": 2509,
  "gia": 2510,
  "metsa": 2511,
  "dala": 2512,
  "otsu": 2513,
  "Ala": 2514,
  "jooks": 2515,
  "miste": 2516,
  "tama": 2517,
  "Car": 2518,
  "ik": 2519,
  "näitleja": 2520,
  "sellest": 2521,
  "märtsi": 2522,
  "mõiste": 2523,
  "kohtu": 2524,
  "kunst": 2525,
  "Aafrika": 2526,
  "mõt": 2527,
  "qu": 2528,
  "mik": 2529,
  "tuli": 2530,
  "kiriku": 2531,
  "sotsi": 2532,
  "sisse": 2533,
  "neid": 2534,
  "40": 2535,
  "Gruu": 2536,
  "miljon": 2537,
  "ümber": 2538,
  "õigu": 2539,
  "reeka": 2540,
  "kuul": 2541,
  "Soome": 2542,
  "teise": 2543,
  "So": 2544,
  "dia": 2545,
  "Valge": 2546,
  "andme": 2547,
  "Hispaania": 2548,
  "Lee": 2549,
  "võist": 2550,
  "tanud": 2551,
  "Tallinn": 2552,
  "hõi": 2553,
  "ede": 2554,
  "süstee": 2555,
  "mme": 2556,
  "ven": 2557,
  "sega": 2558,
  "Ab": 2559,
  "Viljandi": 2560,
  "lõp": 2561,
  "chi": 2562,
  "tion": 2563,
  "ard": 2564,
  "väike": 2565,
  "tunnu": 2566,
  "ring": 2567,
  "Üli": 2568,
  "tte": 2569,
  "ner": 2570,
  "raha": 2571,
  "põllu": 2572,
  "th": 2573,
  "riigis": 2574,
  "piisko": 2575,
  "peamiselt": 2576,
  "rini": 2577,
  "geva": 2578,
  "tt": 2579,
  "prae": 2580,
  "last": 2581,
  "emia": 2582,
  "od": 2583,
  "maja": 2584,
  "toe": 2585,
  "Aasta": 2586,
  "El": 2587,
  "rää": 2588,
  "ze": 2589,
  "Hiiu": 2590,
  "anti": 2591,
  "mokraa": 2592,
  "tõe": 2593,
  "nist": 2594,
  "kk": 2595,
  "kuninga": 2596,
  "olli": 2597,
  "jäi": 2598,
  "ilma": 2599,
  "maid": 2600,
  "hk": 2601,
  "oktoob": 2602,
  "lõpu": 2603,
  "mängu": 2604,
  "1990": 2605,
  "kur": 2606,
  "mäe": 2607,
  "üht": 2608,
  "mõne": 2609,
  "Sur": 2610,
  "lee": 2611,
  "õhu": 2612,
  "need": 2613,
  "vür": 2614,
  "juht": 2615,
  "territoori": 2616,
  "like": 2617,
  "Co": 2618,
  "itus": 2619,
  "augu": 2620,
  "fe": 2621,
  "teadus": 2622,
  "üld": 2623,
  "üri": 2624,
  "risto": 2625,
  "Kol": 2626,
  "esimese": 2627,
  "endi": 2628,
  "reisi": 2629,
  "aega": 2630,
  "Do": 2631,
  "rü": 2632,
  "hn": 2633,
  "Karl": 2634,
  "duses": 2635,
  "peale": 2636,
  "Harju": 2637,
  "nr": 2638,
  "Suurbritannia": 2639,
  "püha": 2640,
  "vai": 2641,
  "Paul": 2642,
  "sust": 2643,
  "tamine": 2644,
  "voo": 2645,
  "Itaalia": 2646,
  "vor": 2647,
  "ger": 2648,
  "Tš": 2649,
  "laul": 2650,
  "miljonit": 2651,
  "partei": 2652,
  "tsid": 2653,
  "Ru": 2654,
  "kasutusele": 2655,
  "sugu": 2656,
  "minister": 2657,
  "muusika": 2658,
  "ten": 2659,
  "koht": 2660,
  "eli": 2661,
  "mused": 2662,
  "ph": 2663,
  "bert": 2664,
  "Saksamaa": 2665,
  "Or": 2666,
  "deti": 2667,
  "posi": 2668,
  "võeti": 2669,
  "väed": 2670,
  "2000": 2671,
  "nimi": 2672,
  "ander": 2673,
  "arv": 2674,
  "ppi": 2675,
  "liikme": 2676,
  "mehe": 2677,
  "perioo": 2678,
  "fa": 2679,
  "port": 2680,
  "filmi": 2681,
  "liige": 2682,
  "asse": 2683,
  "kao": 2684,
  "surma": 2685,
  "Bar": 2686,
  "vale": 2687,
  "üles": 2688,
  "Mä": 2689,
  "Hol": 2690,
  "seas": 2691,
  "Gruusia": 2692,
  "Linna": 2693,
  "ema": 2694,
  "saja": 2695,
  "paav": 2696,
  "plan": 2697,
  "nevad": 2698,
  "kolme": 2699,
  "its": 2700,
  "tähi": 2701,
  "seadus": 2702,
  "kohal": 2703,
  "Ajal": 2704,
  "raamatu": 2705,
  "sete": 2706,
  "valiti": 2707,
  "Mõ": 2708,
  "No": 2709,
  "jala": 2710,
  "cius": 2711,
  "hakkas": 2712,
  "tses": 2713,
  "ss": 2714,
  "kodu": 2715,
  "liiki": 2716,
  "viis": 2717,
  "taal": 2718,
  "jale": 2719,
  "prantsuse": 2720,
  "enam": 2721,
  "pol": 2722,
  "Saaremaa": 2723,
  "Da": 2724,
  "2003": 2725,
  "Ti": 2726,
  "loend": 2727,
  "arhi": 2728,
  "veebrua": 2729,
  "kunsti": 2730,
  "Aastal": 2731,
  "kos": 2732,
  "ktiiv": 2733,
  "kõne": 2734,
  "per": 2735,
  "kalend": 2736,
  "teda": 2737,
  "esinda": 2738,
  "koosse": 2739,
  "haldus": 2740,
  "Ber": 2741,
  "teine": 2742,
  "Gre": 2743,
  "Her": 2744,
  "temperatuur": 2745,
  "kaitseala": 2746,
  "ühis": 2747,
  "keise": 2748,
  "ühenda": 2749,
  "elekt": 2750,
  "Kuu": 2751,
  "hoon": 2752,
  "jõud": 2753,
  "Portugali": 2754,
  "rohkem": 2755,
  "Tõ": 2756,
  "inn": 2757,
  "2011": 2758,
  "vast": 2759,
  "nenud": 2760,
  "joni": 2761,
  "kirjandus": 2762,
  "kaudu": 2763,
  "vust": 2764,
  "ooria": 2765,
  "meenia": 2766,
  "San": 2767,
  "mei": 2768,
  "2010": 2769,
  "lisa": 2770,
  "põhju": 2771,
  "vaheline": 2772,
  "Kal": 2773,
  "sen": 2774,
  "Hiina": 2775,
  "pää": 2776,
  "99": 2777,
  "Hel": 2778,
  "Mari": 2779,
  "Sõ": 2780,
  "vapp": 2781,
  "Bal": 2782,
  "hea": 2783,
  "võit": 2784,
  "her": 2785,
  "võttis": 2786,
  "mast": 2787,
  "Kau": 2788,
  "kre": 2789,
  "inimese": 2790,
  "rajoon": 2791,
  "stasid": 2792,
  "väge": 2793,
  "võimal": 2794,
  "lepingu": 2795,
  "muutu": 2796,
  "elas": 2797,
  "1991": 2798,
  "kr": 2799,
  "ooli": 2800,
  "Suure": 2801,
  "uus": 2802,
  "säi": 2803,
  "Pii": 2804,
  "pü": 2805,
  "Nii": 2806,
  "kirjan": 2807,
  "aru": 2808,
  "Sündinud": 2809,
  "muste": 2810,
  "He": 2811,
  "jaga": 2812,
  "teeri": 2813,
  "kust": 2814,
  "koon": 2815,
  "ktsiooni": 2816,
  "tan": 2817,
  "keelt": 2818,
  "olemas": 2819,
  "kad": 2820,
  "stani": 2821,
  "aan": 2822,
  "Jumala": 2823,
  "gpal": 2824,
  "neist": 2825,
  "saanud": 2826,
  "2002": 2827,
  "von": 2828,
  "küsi": 2829,
  "lase": 2830,
  "Wil": 2831,
  "2009": 2832,
  "kuber": 2833,
  "Hal": 2834,
  "oonia": 2835,
  "fo": 2836,
  "käsi": 2837,
  "mai": 2838,
  "Ant": 2839,
  "ent": 2840,
  "1940": 2841,
  "heliloo": 2842,
  "31": 2843,
  "poliitik": 2844,
  "üüdi": 2845,
  "hol": 2846,
  "Ser": 2847,
  "asja": 2848,
  "dab": 2849,
  "tusel": 2850,
  "Bu": 2851,
  "krist": 2852,
  "usa": 2853,
  "mail": 2854,
  "alis": 2855,
  "nõukogu": 2856,
  "Ch": 2857,
  "teada": 2858,
  "2004": 2859,
  "keiser": 2860,
  "gaa": 2861,
  "õpi": 2862,
  "za": 2863,
  "rä": 2864,
  "juur": 2865,
  "stid": 2866,
  "nduse": 2867,
  "kati": 2868,
  "seaduse": 2869,
  "kilo": 2870,
  "Lo": 2871,
  "eba": 2872,
  "pani": 2873,
  "lõpe": 2874,
  "Kul": 2875,
  "juures": 2876,
  "majanduse": 2877,
  "misele": 2878,
  "suri": 2879,
  "2008": 2880,
  "kinud": 2881,
  "Püha": 2882,
  "dused": 2883,
  "bo": 2884,
  "Pro": 2885,
  "ktsioon": 2886,
  "rich": 2887,
  "Päike": 2888,
  "füü": 2889,
  "tähenda": 2890,
  "Too": 2891,
  "pöör": 2892,
  "eda": 2893,
  "ülem": 2894,
  "paik": 2895,
  "Jaan": 2896,
  "auto": 2897,
  "Riik": 2898,
  "sk": 2899,
  "jooksul": 2900,
  "raal": 2901,
  "Ho": 2902,
  "etud": 2903,
  "kod": 2904,
  "land": 2905,
  "kalendri": 2906,
  "klassi": 2907,
  "teid": 2908,
  "usku": 2909,
  "Narva": 2910,
  "rus": 2911,
  "Briti": 2912,
  "stan": 2913,
  "gist": 2914,
  "peakraav": 2915,
  "kuulub": 2916,
  "teha": 2917,
  "stru": 2918,
  "male": 2919,
  "tsion": 2920,
  "Surnud": 2921,
  "ditsiooni": 2922,
  "teki": 2923,
  "augusti": 2924,
  "ktor": 2925,
  "pul": 2926,
  "bli": 2927,
  "vid": 2928,
  "1999": 2929,
  "meetrit": 2930,
  "teh": 2931,
  "aastani": 2932,
  "alga": 2933,
  "maale": 2934,
  "riks": 2935,
  "jäänud": 2936,
  "kaal": 2937,
  "Kei": 2938,
  "lange": 2939,
  "viima": 2940,
  "riigid": 2941,
  "jalgpal": 2942,
  "märgi": 2943,
  "egu": 2944,
  "järve": 2945,
  "juunil": 2946,
  "beri": 2947,
  "steeri": 2948,
  "kohali": 2949,
  "Johannes": 2950,
  "lev": 2951,
  "nga": 2952,
  "ndis": 2953,
  "pär": 2954,
  "saavu": 2955,
  "Tea": 2956,
  "pidi": 2957,
  "kirik": 2958,
  "Uus": 2959,
  "vaks": 2960,
  "Is": 2961,
  "liit": 2962,
  "jev": 2963,
  "maati": 2964,
  "wa": 2965,
  "meetri": 2966,
  "piirkonna": 2967,
  "jus": 2968,
  "meele": 2969,
  "via": 2970,
  "tegi": 2971,
  "mma": 2972,
  "2005": 2973,
  "ümpia": 2974,
  "Tallinnas": 2975,
  "organisa": 2976,
  "oku": 2977,
  "oleks": 2978,
  "algas": 2979,
  "uro": 2980,
  "Gi": 2981,
  "pinna": 2982,
  "lahe": 2983,
  "ener": 2984,
  "sõltu": 2985,
  "saadi": 2986,
  "2001": 2987,
  "tunni": 2988,
  "ori": 2989,
  "mäle": 2990,
  "saada": 2991,
  "nelja": 2992,
  "raud": 2993,
  "Pee": 2994,
  "mia": 2995,
  "mel": 2996,
  "ograa": 2997,
  "stele": 2998,
  "2007": 2999,
  "Austria": 3000,
  "stant": 3001,
  "sin": 3002,
  "kki": 3003,
  "alg": 3004,
  "esimest": 3005,
  "Mo": 3006,
  "asus": 3007,
  "August": 3008,
  "tegutse": 3009,
  "elanik": 3010,
  "mul": 3011,
  "tuses": 3012,
  "septembril": 3013,
  "visi": 3014,
  "ende": 3015,
  "sada": 3016,
  "alist": 3017,
  "Ad": 3018,
  "äär": 3019,
  "spordi": 3020,
  "kauban": 3021,
  "Läti": 3022,
  "2006": 3023,
  "seotud": 3024,
  "Aristo": 3025,
  "Norra": 3026,
  "samuti": 3027,
  "rahval": 3028,
  "tolu": 3029,
  "gani": 3030,
  "sealhulgas": 3031,
  "nn": 3032,
  "Hu": 3033,
  "juhi": 3034,
  "ра": 3035,
  "õigus": 3036,
  "Tür": 3037,
  "suurim": 3038,
  "peab": 3039,
  "kala": 3040,
  "muuse": 3041,
  "den": 3042,
  "ümb": 3043,
  "võrd": 3044,
  "Qu": 3045,
  "ooke": 3046,
  "kiire": 3047,
  "valmi": 3048,
  "laeva": 3049,
  "Leedu": 3050,
  "valiselt": 3051,
  "Peter": 3052,
  "60": 3053,
  "1992": 3054,
  "liima": 3055,
  "jaanuaril": 3056,
  "Ke": 3057,
  "sage": 3058,
  "saarel": 3059,
  "luba": 3060,
  "kov": 3061,
  "tre": 3062,
  "Prantsuse": 3063,
  "kümne": 3064,
  "planee": 3065,
  "mises": 3066,
  "helilooja": 3067,
  "ust": 3068,
  "meel": 3069,
  "taime": 3070,
  "Liivi": 3071,
  "pindala": 3072,
  "stantin": 3073,
  "jel": 3074,
  "tamist": 3075,
  "sõlmi": 3076,
  "rüh": 3077,
  "desse": 3078,
  "päritolu": 3079,
  "Alates": 3080,
  "juurde": 3081,
  "peeri": 3082,
  "stust": 3083,
  "lust": 3084,
  "aato": 3085,
  "Vee": 3086,
  "stide": 3087,
  "dü": 3088,
  "dil": 3089,
  "1918": 3090,
  "olo": 3091,
  "bal": 3092,
  "provintsi": 3093,
  "uni": 3094,
  "Ing": 3095,
  "kontr": 3096,
  "pra": 3097,
  "stavad": 3098,
  "õnne": 3099,
  "mokraat": 3100,
  "Kirjandus": 3101,
  "em": 3102,
  "gres": 3103,
  "Con": 3104,
  "wi": 3105,
  "vius": 3106,
  "raali": 3107,
  "Sin": 3108,
  "Fri": 3109,
  "nimetatakse": 3110,
  "puhul": 3111,
  "80": 3112,
  "hü": 3113,
  "oktoobril": 3114,
  "rahv": 3115,
  "rdi": 3116,
  "liidu": 3117,
  "pide": 3118,
  "nõ": 3119,
  "jas": 3120,
  "bus": 3121,
  "Mos": 3122,
  "võimalik": 3123,
  "maailmas": 3124,
  "mõisa": 3125,
  "Egi": 3126,
  "Koo": 3127,
  "ск": 3128,
  "oog": 3129,
  "väikse": 3130,
  "ranna": 3131,
  "Th": 3132,
  "aaegu": 3133,
  "ry": 3134,
  "aine": 3135,
  "üt": 3136,
  "Bel": 3137,
  "aat": 3138,
  "üüd": 3139,
  "uue": 3140,
  "rd": 3141,
  "päi": 3142,
  "Iraa": 3143,
  "tusi": 3144,
  "tii": 3145,
  "htis": 3146,
  "hingu": 3147,
  "Põl": 3148,
  "andmetel": 3149,
  "Marcus": 3150,
  "märtsil": 3151,
  "Aleksander": 3152,
  "milles": 3153,
  "aluse": 3154,
  "stitu": 3155,
  "novembril": 3156,
  "talu": 3157,
  "seloo": 3158,
  "tingi": 3159,
  "misi": 3160,
  "rahvusvahe": 3161,
  "keha": 3162,
  "kommu": 3163,
  "sümboli": 3164,
  "puna": 3165,
  "sini": 3166,
  "korralda": 3167,
  "öde": 3168,
  "hõl": 3169,
  "uar": 3170,
  "eral": 3171,
  "koolis": 3172,
  "hulka": 3173,
  "parlamendi": 3174,
  "Mal": 3175,
  "mete": 3176,
  "talle": 3177,
  "hoi": 3178,
  "maha": 3179,
  "auhin": 3180,
  "liht": 3181,
  "nasti": 3182,
  "said": 3183,
  "siiski": 3184,
  "100": 3185,
  "kuulutas": 3186,
  "Muu": 3187,
  "ülikooli": 3188,
  "millega": 3189,
  "korra": 3190,
  "liikmed": 3191,
  "rahvastiku": 3192,
  "aprillil": 3193,
  "ino": 3194,
  "detsembril": 3195,
  "184": 3196,
  "kasutatakse": 3197,
  "Nee": 3198,
  "2014": 3199,
  "kide": 3200,
  "Kun": 3201,
  "angu": 3202,
  "Fla": 3203,
  "ps": 3204,
  "ret": 3205,
  "Pla": 3206,
  "tööstus": 3207,
  "Gai": 3208,
  "Valgevene": 3209,
  "Ajalugu": 3210,
  "ilmu": 3211,
  "mane": 3212,
  "Bra": 3213,
  "Kõr": 3214,
  "keskmine": 3215,
  "elab": 3216,
  "Jõgeva": 3217,
  "Posti": 3218,
  "olümpia": 3219,
  "Je": 3220,
  "valda": 3221,
  "teooria": 3222,
  "jäl": 3223,
  "kari": 3224,
  "poolest": 3225,
  "toime": 3226,
  "Sii": 3227,
  "Pre": 3228,
  "1994": 3229,
  "mos": 3230,
  "ly": 3231,
  "mitee": 3232,
  "33": 3233,
  "tuge": 3234,
  "Kee": 3235,
  "vide": 3236,
  "sellele": 3237,
  "int": 3238,
  "sõjaväe": 3239,
  "gne": 3240,
  "osal": 3241,
  "Os": 3242,
  "filosoofi": 3243,
  "Lucius": 3244,
  "toimunud": 3245,
  "Et": 3246,
  "kodani": 3247,
  "voli": 3248,
  "käigus": 3249,
  "meid": 3250,
  "nus": 3251,
  "refor": 3252,
  "piirkond": 3253,
  "mitu": 3254,
  "juulil": 3255,
  "liseks": 3256,
  "bur": 3257,
  "Ur": 3258,
  "tia": 3259,
  "anuse": 3260,
  "nal": 3261,
  "seni": 3262,
  "Ühendriikide": 3263,
  "aastaks": 3264,
  "1995": 3265,
  "dist": 3266,
  "avali": 3267,
  "tuleb": 3268,
  "ük": 3269,
  "lõppe": 3270,
  "Näi": 3271,
  "NA": 3272,
  "RO": 3273,
  "kuuluvad": 3274,
  "kva": 3275,
  "manda": 3276,
  "vägi": 3277,
  "teeni": 3278,
  "alguses": 3279,
  "katoli": 3280,
  "kate": 3281,
  "filosoofia": 3282,
  "jaanuar": 3283,
  "lähedal": 3284,
  "1996": 3285,
  "Asu": 3286,
  "pid": 3287,
  "ametisse": 3288,
  "valimised": 3289,
  "täie": 3290,
  "peetakse": 3291,
  "staa": 3292,
  "1993": 3293,
  "jekti": 3294,
  "reeri": 3295,
  "mand": 3296,
  "alal": 3297,
  "vet": 3298,
  "70": 3299,
  "likke": 3300,
  "Ukra": 3301,
  "asutati": 3302,
  "dünasti": 3303,
  "nur": 3304,
  "suuna": 3305,
  "anne": 3306,
  "his": 3307,
  "taasta": 3308,
  "Aastatel": 3309,
  "maade": 3310,
  "graa": 3311,
  "kute": 3312,
  "gori": 3313,
  "rev": 3314,
  "augustil": 3315,
  "aastate": 3316,
  "jaa": 3317,
  "inimesed": 3318,
  "iseloo": 3319,
  "Uu": 3320,
  "Lisaks": 3321,
  "avati": 3322,
  "juha": 3323,
  "müü": 3324,
  "Man": 3325,
  "artik": 3326,
  "lastele": 3327,
  "tai": 3328,
  "Han": 3329,
  "ler": 3330,
  "saatis": 3331,
  "rina": 3332,
  "anal": 3333,
  "hoone": 3334,
  "eksi": 3335,
  "puudu": 3336,
  "35": 3337,
  "praegu": 3338,
  "osale": 3339,
  "tegele": 3340,
  "keskus": 3341,
  "moodustavad": 3342,
  "alad": 3343,
  "veebruaril": 3344,
  "Jee": 3345,
  "hakka": 3346,
  "kandi": 3347,
  "päike": 3348,
  "konnast": 3349,
  "1980": 3350,
  "beli": 3351,
  "Ülikooli": 3352,
  "mbris": 3353,
  "tihe": 3354,
  "aad": 3355,
  "hai": 3356,
  "kaas": 3357,
  "Rapla": 3358,
  "Er": 3359,
  "kehte": 3360,
  "Len": 3361,
  "kru": 3362,
  "pära": 3363,
  "Näiteks": 3364,
  "Hil": 3365,
  "stes": 3366,
  "sotsiaal": 3367,
  "Per": 3368,
  "prob": 3369,
  "mp": 3370,
  "märk": 3371,
  "rake": 3372,
  "tavaliselt": 3373,
  "peaaegu": 3374,
  "ndid": 3375,
  "ride": 3376,
  "Lau": 3377,
  "lipud": 3378,
  "lused": 3379,
  "laulja": 3380,
  "Sil": 3381,
  "ameerika": 3382,
  "avalda": 3383,
  "45": 3384,
  "otse": 3385,
  "Seda": 3386,
  "tran": 3387,
  "Egip": 3388,
  "mann": 3389,
  "Jumal": 3390,
  "nei": 3391,
  "kuigi": 3392,
  "1939": 3393,
  "jaks": 3394,
  "enduse": 3395,
  "tius": 3396,
  "mistel": 3397,
  "tol": 3398,
  "Teine": 3399,
  "John": 3400,
  "meist": 3401,
  "180": 3402,
  "mingi": 3403,
  "üksi": 3404,
  "Hen": 3405,
  "leid": 3406,
  "As": 3407,
  "edasi": 3408,
  "õrva": 3409,
  "Vabariik": 3410,
  "ming": 3411,
  "haru": 3412,
  "Ülem": 3413,
  "Juu": 3414,
  "Lin": 3415,
  "läks": 3416,
  "vürsti": 3417,
  "riisi": 3418,
  "stamine": 3419,
  "plo": 3420,
  "vaimu": 3421,
  "Töö": 3422,
  "ametlik": 3423,
  "nika": 3424,
  "ismi": 3425,
  "Loodus": 3426,
  "lastest": 3427,
  "poliitika": 3428,
  "krooni": 3429,
  "õpetaja": 3430,
  "pti": 3431,
  "1920": 3432,
  "Pea": 3433,
  "juuli": 3434,
  "üstee": 3435,
  "Kü": 3436,
  "Niko": 3437,
  "он": 3438,
  "kuulus": 3439,
  "Partei": 3440,
  "gee": 3441,
  "abiel": 3442,
  "Kuigi": 3443,
  "Liit": 3444,
  "inas": 3445,
  "Var": 3446,
  "tegevuse": 3447,
  "Met": 3448,
  "ya": 3449,
  "varem": 3450,
  "ranniku": 3451,
  "Kas": 3452,
  "kerge": 3453,
  "lõi": 3454,
  "traditsiooni": 3455,
  "2012": 3456,
  "75": 3457,
  "tungi": 3458,
  "klaa": 3459,
  "1998": 3460,
  "hakati": 3461,
  "Ga": 3462,
  "küll": 3463,
  "Abhaa": 3464,
  "jagu": 3465,
  "valla": 3466,
  "ndas": 3467,
  "maali": 3468,
  "statakse": 3469,
  "ühine": 3470,
  "vilja": 3471,
  "jaoks": 3472,
  "inimeste": 3473,
  "Järva": 3474,
  "isla": 3475,
  "2013": 3476,
  "stamise": 3477,
  "Uni": 3478,
  "fta": 3479,
  "kreeka": 3480,
  "tti": 3481,
  "1919": 3482,
  "2015": 3483,
  "185": 3484,
  "linnad": 3485,
  "Ste": 3486,
  "tüü": 3487,
  "stav": 3488,
  "kardin": 3489,
  "iseloomu": 3490,
  "panu": 3491,
  "kesku": 3492,
  "36": 3493,
  "Konstantin": 3494,
  "kohaselt": 3495,
  "aprill": 3496,
  "kaar": 3497,
  "kanna": 3498,
  "keelne": 3499,
  "maailmasõja": 3500,
  "inus": 3501,
  "sünni": 3502,
  "endine": 3503,
  "nike": 3504,
  "Majandus": 3505,
  "teised": 3506,
  "laulu": 3507,
  "haridus": 3508,
  "lap": 3509,
  "hääle": 3510,
  "masti": 3511,
  "1938": 3512,
  "toot": 3513,
  "red": 3514,
  "90": 3515,
  "teist": 3516,
  "Cor": 3517,
  "kadeemia": 3518,
  "37": 3519,
  "pärit": 3520,
  "keemi": 3521,
  "sto": 3522,
  "religi": 3523,
  "õppe": 3524,
  "lahu": 3525,
  "põhine": 3526,
  "Need": 3527,
  "riku": 3528,
  "herts": 3529,
  "kka": 3530,
  "tuntud": 3531,
  "oleku": 3532,
  "Gaius": 3533,
  "alise": 3534,
  "jelda": 3535,
  "protses": 3536,
  "Tra": 3537,
  "gua": 3538,
  "idž": 3539,
  "vaja": 3540,
  "jaotus": 3541,
  "kutsu": 3542,
  "pane": 3543,
  "olevat": 3544,
  "piiskop": 3545,
  "kirjanduse": 3546,
  "linnas": 3547,
  "tsioonid": 3548,
  "kontrolli": 3549,
  "Kõige": 3550,
  "mägi": 3551,
  "edu": 3552,
  "tari": 3553,
  "ajalugu": 3554,
  "sas": 3555,
  "maan": 3556,
  "olümpiamängu": 3557,
  "ratsiooni": 3558,
  "Raa": 3559,
  "gent": 3560,
  "kirjutas": 3561,
  "vari": 3562,
  "isegi": 3563,
  "piira": 3564,
  "kohu": 3565,
  "maani": 3566,
  "ladina": 3567,
  "soovi": 3568,
  "ulatu": 3569,
  "tades": 3570,
  "ookeani": 3571,
  "ülest": 3572,
  "Must": 3573,
  "Põlva": 3574,
  "pealinna": 3575,
  "vabariigi": 3576,
  "Mer": 3577,
  "võitis": 3578,
  "hh": 3579,
  "47": 3580,
  "piirkonda": 3581,
  "alguse": 3582,
  "mmu": 3583,
  "Mär": 3584,
  "Armeenia": 3585,
  "levi": 3586,
  "tõu": 3587,
  "Kos": 3588,
  "pulaar": 3589,
  "esimesed": 3590,
  "bel": 3591,
  "selles": 3592,
  "suurem": 3593,
  "Hollandi": 3594,
  "kri": 3595,
  "1960": 3596,
  "saared": 3597,
  "lugu": 3598,
  "ksid": 3599,
  "dolla": 3600,
  "mba": 3601,
  "Juli": 3602,
  "alles": 3603,
  "poeg": 3604,
  "Keila": 3605,
  "räägi": 3606,
  "tul": 3607,
  "stituu": 3608,
  "stunud": 3609,
  "ümnaa": 3610,
  "ümnaasi": 3611,
  "arma": 3612,
  "asuvad": 3613,
  "cha": 3614,
  "suhted": 3615,
  "rajati": 3616,
  "sist": 3617,
  "Hiiumaa": 3618,
  "hii": 3619,
  "revolu": 3620,
  "Tii": 3621,
  "tamiseks": 3622,
  "tasandi": 3623,
  "madala": 3624,
  "iri": 3625,
  "gru": 3626,
  "likuks": 3627,
  "fin": 3628,
  "sellega": 3629,
  "bar": 3630,
  "tsis": 3631,
  "gal": 3632,
  "hma": 3633,
  "linnu": 3634,
  "alb": 3635,
  "On": 3636,
  "Kõi": 3637,
  "ehhi": 3638,
  "49": 3639,
  "olema": 3640,
  "vesi": 3641,
  "stanud": 3642,
  "Gregori": 3643,
  "punane": 3644,
  "komitee": 3645,
  "Kreeka": 3646,
  "1997": 3647,
  "meeste": 3648,
  "Fried": 3649,
  "aliku": 3650,
  "kand": 3651,
  "Sal": 3652,
  "tervi": 3653,
  "deid": 3654,
  "üldi": 3655,
  "rahvalo": 3656,
  "hääl": 3657,
  "kosmo": 3658,
  "Valga": 3659,
  "millel": 3660,
  "ond": 3661,
  "85": 3662,
  "At": 3663,
  "lit": 3664,
  "raudtee": 3665,
  "positsiooni": 3666,
  "möö": 3667,
  "Kri": 3668,
  "dünastia": 3669,
  "sõi": 3670,
  "ÜRO": 3671,
  "1989": 3672,
  "lühi": 3673,
  "nikud": 3674,
  "pri": 3675,
  "põge": 3676,
  "ий": 3677,
  "seisuga": 3678,
  "39": 3679,
  "Unga": 3680,
  "ms": 3681,
  "kla": 3682,
  "taas": 3683,
  "Haa": 3684,
  "jaid": 3685,
  "ves": 3686,
  "los": 3687,
  "ordu": 3688,
  "sageli": 3689,
  "siooni": 3690,
  "ord": 3691,
  "kke": 3692,
  "ske": 3693,
  "ano": 3694,
  "Be": 3695,
  "Esimene": 3696,
  "araa": 3697,
  "idu": 3698,
  "esimees": 3699,
  "jumala": 3700,
  "kliima": 3701,
  "enu": 3702,
  "Iis": 3703,
  "Preside": 3704,
  "midagi": 3705,
  "hv": 3706,
  "1945": 3707,
  "kirjelda": 3708,
  "tänapäeva": 3709,
  "min": 3710,
  "Geor": 3711,
  "Rõu": 3712,
  "Balti": 3713,
  "sajand": 3714,
  "Haldus": 3715,
  "pur": 3716,
  "Türgi": 3717,
  "Monte": 3718,
  "komis": 3719,
  "sena": 3720,
  "Täna": 3721,
  "nai": 3722,
  "lõpus": 3723,
  "Samuti": 3724,
  "järje": 3725,
  "vöö": 3726,
  "luuletaja": 3727,
  "kil": 3728,
  "taeva": 3729,
  "spe": 3730,
  "lises": 3731,
  "rahvastikust": 3732,
  "lisel": 3733,
  "mer": 3734,
  "looma": 3735,
  "sioon": 3736,
  "Rahvusvaheline": 3737,
  "ty": 3738,
  "abil": 3739,
  "hinn": 3740,
  "koosseisu": 3741,
  "dž": 3742,
  "ilm": 3743,
  "nafta": 3744,
  "keeled": 3745,
  "TO": 3746,
  "lahku": 3747,
  "sul": 3748,
  "Või": 3749,
  "mbia": 3750,
  "kellest": 3751,
  "mõõ": 3752,
  "Nad": 3753,
  "Riigis": 3754,
  "Augu": 3755,
  "reaal": 3756,
  "sümboliseeri": 3757,
  "hõlma": 3758,
  "konnad": 3759,
  "htes": 3760,
  "territooriu": 3761,
  "sport": 3762,
  "kunstnik": 3763,
  "Flavius": 3764,
  "Rõuge": 3765,
  "34": 3766,
  "gro": 3767,
  "medi": 3768,
  "Ukraina": 3769,
  "ametlikult": 3770,
  "rahvaloenduse": 3771,
  "Väike": 3772,
  "Krist": 3773,
  "üksus": 3774,
  "38": 3775,
  "elanikest": 3776,
  "stega": 3777,
  "sõdu": 3778,
  "mina": 3779,
  "lahing": 3780,
  "1917": 3781,
  "Ind": 3782,
  "koosneb": 3783,
  "tegevus": 3784,
  "kilomeetrit": 3785,
  "mum": 3786,
  "kehti": 3787,
  "lisest": 3788,
  "ütle": 3789,
  "Ed": 3790,
  "dusi": 3791,
  "raske": 3792,
  "veebruar": 3793,
  "pikku": 3794,
  "Euroopas": 3795,
  "peaminister": 3796,
  "arve": 3797,
  "1944": 3798,
  "põl": 3799,
  "minu": 3800,
  "32": 3801,
  "huvi": 3802,
  "vähemalt": 3803,
  "alusel": 3804,
  "leemi": 3805,
  "radi": 3806,
  "97": 3807,
  "kindral": 3808,
  "Mala": 3809,
  "loogi": 3810,
  "ong": 3811,
  "cen": 3812,
  "2016": 3813,
  "Aasia": 3814,
  "pikkus": 3815,
  "tusega": 3816,
  "mide": 3817,
  "mõned": 3818,
  "suhtes": 3819,
  "odo": 3820,
  "onee": 3821,
  "Vai": 3822,
  "Saint": 3823,
  "tähele": 3824,
  "Araa": 3825,
  "pare": 3826,
  "lar": 3827,
  "Paa": 3828,
  "ladi": 3829,
  "Tartus": 3830,
  "gar": 3831,
  "vägede": 3832,
  "maini": 3833,
  "enud": 3834,
  "kruii": 3835,
  "tähendab": 3836,
  "raamat": 3837,
  "nor": 3838,
  "fun": 3839,
  "sajandist": 3840,
  "jo": 3841,
  "kruiisi": 3842,
  "2017": 3843,
  "süüdi": 3844,
  "jenda": 3845,
  "kasv": 3846,
  "prin": 3847,
  "alati": 3848,
  "ndada": 3849,
  "nti": 3850,
  "ruse": 3851,
  "1988": 3852,
  "keelest": 3853,
  "vit": 3854,
  "Ver": 3855,
  "kiir": 3856,
  "ndmused": 3857,
  "vapi": 3858,
  "рай": 3859,
  "iseseisvus": 3860,
  "kindlu": 3861,
  "Gregoriuse": 3862,
  "Mih": 3863,
  "ский": 3864,
  "kõrgeim": 3865,
  "ääri": 3866,
  "bii": 3867,
  "Bi": 3868,
  "район": 3869,
  "Johann": 3870,
  "Ena": 3871,
  "hta": 3872,
  "Slo": 3873,
  "väli": 3874,
  "üheks": 3875,
  "määr": 3876,
  "lennuki": 3877,
  "populaar": 3878,
  "nesid": 3879,
  "toimusid": 3880,
  "Maar": 3881,
  "Aleksand": 3882,
  "valmis": 3883,
  "paavsti": 3884,
  "diplo": 3885,
  "New": 3886,
  "märts": 3887,
  "55": 3888,
  "keda": 3889,
  "rääki": 3890,
  "Sotsi": 3891,
  "paavst": 3892,
  "mängi": 3893,
  "võime": 3894,
  "gri": 3895,
  "Juliuse": 3896,
  "säili": 3897,
  "valimistel": 3898,
  "mets": 3899,
  "andus": 3900,
  "ood": 3901,
  "sias": 3902,
  "laid": 3903,
  "võivad": 3904,
  "august": 3905,
  "vabariik": 3906,
  "kruiisilaev": 3907,
  "elanike": 3908,
  "presidendiks": 3909,
  "riigipea": 3910,
  "arengu": 3911,
  "Char": 3912,
  "liini": 3913,
  "nale": 3914,
  "1941": 3915,
  "mõle": 3916,
  "õiguse": 3917,
  "Nende": 3918,
  "lüü": 3919,
  "Poli": 3920,
  "hariduse": 3921,
  "tekkis": 3922,
  "samaa": 3923,
  "raama": 3924,
  "ronoo": 3925,
  "nar": 3926,
  "Kures": 3927,
  "Ilma": 3928,
  "Nobeli": 3929,
  "tähtsa": 3930,
  "meri": 3931,
  "ekspordi": 3932,
  "tund": 3933,
  "Valit": 3934,
  "meie": 3935,
  "Rein": 3936,
  "1970": 3937,
  "1979": 3938,
  "detud": 3939,
  "hju": 3940,
  "kuidas": 3941,
  "jooni": 3942,
  "tuhan": 3943,
  "xi": 3944,
  "otsuse": 3945,
  "IV": 3946,
  "vähem": 3947,
  "48": 3948,
  "Põllu": 3949,
  "ple": 3950,
  "siili": 3951,
  "alustas": 3952,
  "Ol": 3953,
  "tsionaal": 3954,
  "Moskva": 3955,
  "musi": 3956,
  "neli": 3957,
  "kloo": 3958,
  "keskel": 3959,
  "Fer": 3960,
  "hhi": 3961,
  "1986": 3962,
  "het": 3963,
  "Min": 3964,
  "Artik": 3965,
  "Tõnis": 3966,
  "Kogu": 3967,
  "hulk": 3968,
  "Gal": 3969,
  "Mere": 3970,
  "old": 3971,
  "hinnangu": 3972,
  "vab": 3973,
  "valitsu": 3974,
  "koosseis": 3975,
  "enamasti": 3976,
  "ravi": 3977,
  "Fo": 3978,
  "hus": 3979,
  "Korea": 3980,
  "Kirja": 3981,
  "mumtemperatuur": 3982,
  "kuse": 3983,
  "ked": 3984,
  "kunagi": 3985,
  "peaminist": 3986,
  "võte": 3987,
  "järv": 3988,
  "nid": 3989,
  "tõi": 3990,
  "ut": 3991,
  "Mõne": 3992,
  "65": 3993,
  "lõpuks": 3994,
  "Austraali": 3995,
  "märki": 3996,
  "rele": 3997,
  "con": 3998,
  "Jaapani": 3999
}