s t
s e
a l
l i
j a
r i
a a
o n
s i
l e
t e
m i
a n
u s
i n
t a
m a
d e
k u
v a
o o
n e
t u
k a
m e
t i
l a
r e
d a
r a
n i
n a
k e
d i
g i
k s
g a
k o
s u
1 9
s a
e l
st a
a r
g u
k i
st i
h e
d u
v al
i i
e e
õ i
g e
m aa
j u
st e
i d
u d
se l
m u
o li
o r
i l
p e
i s
t si
k on
l u
v ä
u r
e n
se d
ri i
e t
e r
i t
2 0
o on
ä r
h a
o l
in g
tu d
v i
v e
d us
h i
u l
v õi
al i
m b
mi s
t o
s aa
e ri
si d
r o
aa sta
ä ä
b a
r u
p i
va d
n di
al a
li n
p a
n ing
mi se
an i
e i
e s
e sti
n ud
p ä
a s
p u
aa st
1 8
st u
õ u
ö ö
s õ
rii gi
ä i
o s
in i
kon d
E esti
oon i
k oo
aast al
0 0
mi l
li i
sel t
al e
b i
e si
o le
r an
ra h
k se
ke s
u u
mi ne
ki r
se s
h t
n d
e le
p õ
r aa
j al
o ma
de s
n u
t ä
li k
t s
a u
õ r
ko gu
ku i
ko r
li ku
l oo
an e
20 0
ü ü
val d
ta s
l t
aa ni
pe a
S a
M a
p oo
u se
maa kond
lin na
ka s
t se
19 9
n da
j är
in e
o sa
li se
mi st
h u
p ii
ü le
an d
ke el
ja n
a su
R a
l o
te r
li s
k us
su u
s ü
mil le
i se
e ne
in a
ko h
K u
1 6
t us
ta kse
te a
õ t
sel le
k ü
ri l
s se
tsi ooni
du se
li ne
n t
kon na
V a
1 7
ku u
m ä
T a
l ja
ni me
te l
p o
e v
K a
l ä
p ro
val i
v ii
on i
p p
ke ele
ma s
v us
t oo
v u
1 5
i m
an di
te s
esi me
m õ
an a
it se
R ii
m al
p al
a jal
ka su
se st
st us
ti s
si de
ri s
t öö
e d
m o
la ste
ma d
la s
p ar
ju u
mu u
re s
vä lja
A a
se e
aa r
k in
te i
j e
ko l
1 0
ri a
j ä
t õ
tu n
k ku
sa i
k õi
ja ndi
K o
A l
a me
ga s
19 8
tu se
ku l
su se
de l
re l
19 4
f i
I I
te e
T e
ää ne
tu u
va he
ri t
mi t
ra st
19 3
ku n
c h
j õ
m an
R oo
ks a
v ee
ini me
ri st
T al
ur oo
L ii
J u
1 4
l õ
kir ja
n g
la sed
ku id
P a
o t
al u
e va
n o
p re
va stu
tsi oon
k õr
b er
ka u
h ul
ta ti
A r
h ja
V ene
i r
jan dus
19 7
ee sti
P õ
sõ ja
m är
ü he
kuu lu
oo gi
e h
uroo pa
maa il
en d
T ar
p oli
h el
ke l
e g
i ti
Rii gi
rii k
n de
sta s
E uroopa
1 2
a ja
an ud
ne s
te ma
19 6
h in
h o
ta ja
p or
de st
k ti
S u
ku ju
sa jandi
1 3
val it
al t
m oo
ü ks
n ä
a ga
d o
o lu
õu na
p in
V al
poo l
M ar
tu le
s us
Ra h
S el
ol oogi
k t
mi ni
si a
to i
te ge
e la
oli d
le s
v an
da s
suu re
k si
k aa
V i
A u
me e
L i
te ks
ta tud
S ee
b e
k raa
g us
aani a
19 2
v õ
f il
di s
pii r
h an
su ur
n äi
h te
se ks
L ääne
va id
s oo
i st
a d
Tar tu
a al
jär gi
19 5
k al
e mi
t al
c i
mi da
saa re
J o
1 1
pre side
ni i
õu kogu
te st
ne b
se da
S e
maail ma
k an
b u
el u
rii ki
ni k
i v
l an
00 0
a b
p an
ü r
mise ks
r al
m õi
n gu
p ee
h ti
pä rast
ni a
koo li
si is
va ba
g o
rah va
moo du
ma tu
ü h
vä i
poli iti
in ud
ki ri
S aa
val t
koo s
ri d
s o
de ga
Tal linna
st ee
kes k
ta ga
se a
ve ne
li sed
va sta
te le
N i
di d
Va ba
V ä
L a
lin n
k ä
j ää
v õt
ku d
mb er
na d
de r
h al
P e
la i
gi d
l us
R e
V ii
a se
keele s
u mi
m us
li selt
mb es
ma al
a t
tuu ri
ka t
rah vus
ta da
me re
li ste
L u
h ar
de le
me d
e ga
ta b
li st
K r
te d
v aa
s ki
eh k
L e
A me
vä he
koh ta
k m
pa i
õt tu
a in
ja d
u a
u n
Sa ksa
i si
e na
ra s
või mu
se is
a p
ka itse
Ku i
j õu
et te
u m
ka r
eri ka
ar va
al l
pal ju
le i
mi sel
lii k
t r
te k
li pp
tä he
kun in
va hel
pä eva
el ani
S A
P ran
ne nde
du ste
M aa
R o
u mbes
me et
an t
ü l
o k
ee st
k äi
pu u
c o
p pe
poo le
liku lt
gu se
re e
Saa re
moodu sta
A n
Põ hja
ku ni
us u
P ä
põ h
jä rel
19 0
Vene maa
J aa
in na
en da
le n
su r
or g
sti ku
va t
a bi
ta r
ta takse
v er
K es
si s
tu ur
ri n
du st
Roo tsi
a i
a st
kü la
U SA
saa r
K ar
põ hi
ts us
mb ril
ste r
l aa
Sel le
I ndi
uu ri
P o
M u
V õ
sta tud
kõi ge
os oo
ü ha
ra ja
e el
r oo
3 0
ma jandus
ko ha
al la
ma t
se le
ol nud
f or
M i
i su
ü m
an da
Su ur
e Kr
c a
ra e
gu st
ul t
N õukogu
pä ri
p te
ta sid
ru u
l ane
Ü he
K on
Lii du
e ti
si l
ee s
ta ali
sõ na
2 5
kir ju
t le
v use
oloogi a
st el
e ra
lä bi
ka he
P är
ko m
või m
kü l
ame t
Vä lis
b an
B a
ni s
rah u
ma ks
L õuna
kin d
kor da
v õr
se al
kon da
V aa
või b
ta va
ol la
pä ev
ja an
põ hja
ko kku
o ja
i de
N a
I n
Roo ma
lä he
sta b
valit sus
t äi
toi mu
ha ri
re n
P or
ti k
aasta st
t õttu
val itse
li l
t sa
e ks
ti de
P i
kor ral
näi teks
p aa
ü li
L oo
mit te
tea d
h il
te o
esime ne
Võ ru
Ame erika
Rah va
ü hi
me n
t or
sta ti
o g
mõ ju
la h
N e
f ri
ha k
K ir
o f
sõ l
mi sed
J a
si ka
j on
kas va
Vaa ta
ise seis
v in
fil osoo
li us
r on
i ga
ka ks
por di
v is
m ala
A le
E si
tä na
H ar
V il
mit me
ma r
K i
ajal oo
ri ti
P ar
lik ku
pe ra
sti k
l õuna
ja o
2 2
b ru
h ke
vä e
o v
Al b
2 1
kel le
li gi
tu g
aasta t
kirja nik
n gi
kõr ge
D e
e hi
a re
me ndi
Pran tsus
lin gid
l lu
Välis lingid
jär g
va r
ste st
k õ
S oo
t suse
t ra
se eri
na gu
m on
ar vu
Jo han
si se
M e
ap ril
je m
h ää
l andi
stu se
S ü
kor d
T o
u le
Nõukogu de
al gu
riiki de
ing lise
im us
i me
Eesti s
ke st
n ni
õ pe
osa s
vä ga
Vii ted
sa ks
ame ti
ki i
is p
pe al
ta vad
sa r
a m
se r
sõ da
ma te
h aa
se o
h tu
la si
2 3
re m
asu b
ri te
Vaba riigi
ke is
c he
c e
le ja
j ali
ri sti
pe re
G u
se id
d al
te m
suu ri
ok too
H i
taga si
P oo
T he
jõ gi
i da
s on
m ää
S i
mi selt
Rah vus
v il
tä ht
2 4
j oon
pe ri
de tse
poo lt
Indi a
ma ta
re a
len nu
a va
ve el
se pte
pä e
eri ne
ma jan
Kes k
t on
kul tuuri
2 8
me es
va te
l ääne
n aa
i li
Pä rast
t ri
ain ult
la u
S V
mu se
kõi k
hul gas
Au st
R i
li si
kraa v
I taali
la ev
mu r
juu ni
t in
ri k
ta mise
g ra
ni ku
I da
preside nt
pu n
koo l
T u
no ve
inime st
vee bru
A nd
ku ning
i a
J õ
val ge
du d
2 6
liku d
H a
lu se
2 7
aasta tel
n dus
li p
eri ti
sta da
P al
tu st
te gu
Esi me
e st
sa ksa
N or
18 9
õ l
la d
Aa fri
ti ka
me s
preside ndi
a eg
an g
te ga
me nt
lii ku
B o
an na
vä är
sajandi l
tõ l
isp aania
t aa
v el
Pär nu
gu ne
gi s
m m
n ne
mää ra
M on
kunin gas
N SV
se t
fi a
äi ke
ta v
J är
kol m
al li
a val
n du
Vi ru
5 0
saa b
P u
j oo
si k
m mi
D i
too ri
m ani
o b
el da
u gu
va ra
n õu
I l
t he
ve re
sü mb
p il
z i
s ko
18 8
to imus
en ne
Por tug
m ne
ku na
p la
de ks
ali k
ke r
nd inud
mal t
ki vi
c us
tu sed
i g
se isu
G e
mu ti
maa d
ju ba
F ran
ku t
l k
konna s
p öö
kaa sa
li d
ä ra
o u
er u
T ä
Ü le
ge n
an us
ala tes
h ä
rit an
Prantsus maa
v ane
Ale ks
li pu
Te ma
d in
Alb aania
k kus
jaan ua
ju hti
du b
v ana
hil jem
vä r
õi ge
t š
nä it
andi s
k las
2 9
ur u
tuse le
bi a
kin ni
c k
lu ule
ee ri
S uu
va s
ki s
to ri
Poo la
aa di
pi a
sti s
sa ma
ti iv
päe val
II I
u la
v o
ka de
jõ e
al da
he li
org ani
tu ste
mise st
18 6
pin gu
vä lis
su hte
val lu
ro hke
b ritan
Suur britan
L ä
mini st
vä l
tei ste
st al
g el
i di
t ü
V ana
par la
n oo
k ra
p üü
mu st
Ühe nd
h oo
T ei
pii ri
pro vin
pi da
ja te
i sa
ter ri
tu r
tem pera
valit suse
mille st
n na
C a
mi d
p ran
H ii
loo dus
jä t
T aani
p ole
keis ri
mise ga
18 7
gi a
me tsa
d ala
ot su
A la
joo ks
mi ste
ta ma
C ar
i k
näit leja
selle st
mär tsi
mõi ste
koh tu
kun st
Aafri ka
m õt
q u
mi k
tu li
kiri ku
so tsi
si sse
ne id
4 0
G ruu
mil jon
ü mber
õi gu
ree ka
ku ul
Soo me
te ise
S o
di a
Val ge
and me
H ispaania
L ee
või st
t anud
Tal linn
h õi
e de
sü stee
m me
v en
se ga
A b
Vil jandi
lõ p
c hi
ti on
ar d
väi ke
tun nu
ri ng
Ü li
t te
ne r
ra ha
põ llu
t h
riigi s
pii sko
pea miselt
ri ni
ge va
t t
p rae
la st
emi a
o d
ma ja
to e
Aa sta
E l
r ää
z e
Hii u
an ti
mo kraa
tõ e
ni st
k k
kunin ga
ol li
j äi
il ma
ma id
h k
oktoo b
lõ pu
mä ngu
199 0
ku r
mä e
ü ht
mõ ne
S ur
le e
õ hu
ne ed
v ür
ju ht
terri toori
li ke
C o
it us
au gu
f e
tea dus
ül d
ü ri
rist o
K ol
esime se
en di
re isi
a ega
D o
r ü
h n
Kar l
du ses
pe ale
Har ju
n r
Suurbritan nia
p üha
va i
Pa ul
su st
ta mine
v oo
Itaali a
v or
ge r
T š
la ul
miljon it
par tei
tsi d
R u
kasu tusele
su gu
mini ster
muu sika
te n
ko ht
e li
mu sed
p h
ber t
Saksa maa
O r
de ti
po si
võ eti
vä ed
20 00
ni mi
an der
ar v
p pi
liik me
me he
peri oo
f a
por t
fil mi
lii ge
as se
ka o
sur ma
B ar
val e
üle s
M ä
H ol
se as
Gruu sia
L inna
e ma
sa ja
paa v
p lan
ne vad
kol me
it s
tä hi
sea dus
koh al
A jal
raa matu
se te
vali ti
M õ
N o
j ala
ci us
hak kas
t ses
s s
ko du
lii ki
vii s
ta al
j ale
pran tsuse
ena m
p ol
Saare maa
D a
200 3
T i
lo end
ar hi
veebru a
kun sti
Aa stal
ko s
kti iv
kõ ne
pe r
kal end
te da
esi nda
koo sse
hal dus
B er
te ine
G re
H er
tempera tuur
kaitse ala
üh is
ke ise
ühe nda
ele kt
K uu
h oon
jõ ud
Portug ali
rohke m
T õ
in n
20 11
va st
ne nud
j oni
kir jandus
kau du
vu st
oo ria
mee nia
S an
me i
20 10
li sa
põh ju
vahe line
K al
se n
Hi ina
p ää
9 9
H el
Ma ri
S õ
va pp
B al
he a
või t
he r
võt tis
ma st
K au
k re
inime se
ra joon
sta sid
vä ge
või mal
le pingu
muu tu
e las
199 1
k r
oo li
Suu re
u us
s äi
P ii
p ü
N ii
kir jan
ar u
Sü ndinud
mu ste
H e
ja ga
te eri
ku st
ko on
k tsiooni
t an
keel t
ole mas
ka d
st ani
aa n
Ju mala
g pal
ne ist
saa nud
200 2
v on
kü si
la se
W il
200 9
ku ber
H al
ooni a
f o
kä si
ma i
A nt
en t
194 0
heli loo
3 1
poliiti k
üü di
h ol
S er
as ja
da b
tu sel
B u
k rist
us a
ma il
al is
n õukogu
C h
tea da
200 4
keise r
g aa
õ pi
z a
r ä
ju ur
sti d
n duse
ka ti
sea duse
ki lo
L o
e ba
p ani
lõ pe
K ul
juu res
majan duse
mise le
su ri
200 8
kin ud
P üha
du sed
b o
P ro
k tsioon
ri ch
P äike
f üü
tähe nda
T oo
pöö r
e da
üle m
pai k
Jaa n
au to
Rii k
s k
jooks ul
ra al
H o
e tud
ko d
l and
kalend ri
klas si
te id
us ku
N arva
r us
B riti
st an
gi st
pea kraav
kuulu b
te ha
st ru
m ale
tsi on
Sur nud
di tsiooni
te ki
augu sti
kt or
p ul
b li
v id
199 9
meet rit
te h
aast ani
al ga
ma ale
ri ks
jää nud
ka al
K ei
lan ge
vii ma
riigi d
jal gpal
mär gi
e gu
jär ve
juuni l
b eri
stee ri
koh ali
Johan nes
le v
n ga
ndi s
p är
saa vu
Te a
pi di
kiri k
U us
va ks
I s
li it
j ev
maa ti
w a
meet ri
piir konna
j us
me ele
vi a
te gi
m ma
200 5
üm pia
Tallinna s
organi sa
o ku
ole ks
al gas
ur o
G i
pin na
la he
ene r
sõl tu
saa di
200 1
tun ni
o ri
mä le
saa da
ne lja
ra ud
P ee
mi a
me l
og raa
ste le
200 7
Aust ria
st ant
si n
k ki
al g
esime st
M o
as us
Au gust
tegu tse
elani k
mu l
tu ses
septe mbril
vi si
en de
sa da
ali st
A d
ä är
s pordi
kau ban
Lä ti
200 6
seo tud
A risto
Nor ra
sa muti
rah val
to lu
g ani
seal hulgas
n n
H u
ju hi
р а
õi gus
T ür
suuri m
pea b
k ala
mu use
de n
ü mb
võr d
Q u
oo ke
kii re
val mi
la eva
Lee du
vali selt
Pe ter
6 0
199 2
lii ma
jaanua ril
K e
sa ge
saa rel
lu ba
ko v
t re
Pran tsuse
kü mne
plan ee
mise s
heliloo ja
u st
me el
ta ime
Lii vi
pin dala
stant in
j el
ta mist
sõl mi
r üh
des se
päri tolu
Ala tes
juur de
pee ri
stu st
lu st
aa to
V ee
sti de
d ü
di l
19 18
ol o
b al
provin tsi
u ni
I ng
kon tr
p ra
sta vad
õ nne
mokraa t
Kir jandus
e m
g res
C on
w i
vi us
ra ali
S in
F ri
nime tatakse
pu hul
8 0
h ü
oktoob ril
rah v
r di
lii du
pi de
n õ
ja s
b us
M os
võim alik
maail mas
mõi sa
E gi
K oo
с к
oo g
väi kse
ran na
T h
aa egu
r y
a ine
ü t
B el
aa t
üü d
uu e
r d
pä i
I raa
tu si
ti i
h tis
hin gu
Põ l
andme tel
Mar cus
märtsi l
Aleks ander
mille s
al use
sti tu
nove mbril
t alu
sel oo
tin gi
mi si
rahvus vahe
ke ha
kom mu
sümb oli
pu na
si ni
korral da
ö de
h õl
u ar
er al
koo lis
hul ka
parla mendi
M al
me te
tal le
ho i
ma ha
au hin
li ht
na sti
sa id
siis ki
1 00
kuulu tas
M uu
üli kooli
mille ga
kor ra
liik med
rahva stiku
april lil
in o
detse mbril
18 4
kasu tatakse
N ee
20 14
ki de
Ku n
an gu
F la
p s
re t
P la
töö stus
G ai
Valge vene
Ajal ugu
il mu
m ane
B ra
K õr
kesk mine
ela b
Jõ geva
Po sti
ol ümpia
J e
val da
te ooria
jä l
ka ri
poole st
toi me
S ii
P re
199 4
m os
l y
mi tee
3 3
tu ge
K ee
vi de
selle le
in t
sõja väe
g ne
os al
O s
filosoo fi
Lu cius
toimu nud
E t
kod ani
v oli
käi gus
me id
n us
re for
piir kond
mi tu
juu lil
lise ks
b ur
U r
ti a
an use
n al
se ni
Ühend riikide
aasta ks
199 5
di st
a vali
tule b
ü k
lõ ppe
N äi
N A
R O
kuulu vad
k va
man da
vä gi
tee ni
algu ses
kat oli
ka te
filosoo fia
jaan uar
lähe dal
199 6
A su
p id
ameti sse
vali mised
täi e
pee takse
st aa
199 3
je kti
re eri
m and
al al
v et
7 0
lik ke
U kra
asu tati
dü nasti
n ur
suu na
an ne
h is
t aasta
Aasta tel
maa de
g raa
ku te
go ri
re v
augusti l
aasta te
ja a
inime sed
i seloo
U u
Li saks
ava ti
ju ha
m üü
M an
ar tik
laste le
ta i
H an
le r
saa tis
ri na
an al
hoon e
e ksi
puu du
3 5
prae gu
os ale
tege le
kes kus
moodusta vad
ala d
veebrua ril
J ee
hak ka
k andi
päi ke
konna st
198 0
be li
Üli kooli
mb ris
ti he
aa d
ha i
kaa s
Ra pla
E r
ke hte
L en
k ru
pä ra
Näi teks
H il
ste s
sotsi aal
P er
pro b
m p
mär k
ra ke
ta valiselt
pe aaegu
ndi d
ri de
L au
lip ud
lu sed
laul ja
S il
ame erika
aval da
4 5
o tse
Se da
t ran
Egi p
man n
Ju mal
ne i
kui gi
193 9
ja ks
en duse
ti us
mist el
t ol
Te ine
Jo hn
me ist
18 0
mi ngi
ü ksi
H en
le id
A s
eda si
õr va
Vaba riik
mi ng
har u
Üle m
J uu
L in
lä ks
vür sti
rii si
sta mine
p lo
vai mu
T öö
amet lik
ni ka
is mi
Loo dus
laste st
poliiti ka
kr ooni
õpe taja
p ti
19 20
Pe a
juu li
ü stee
K ü
Ni ko
о н
kuul us
Par tei
g ee
abi el
Kui gi
Lii t
in as
V ar
tege vuse
M et
y a
va rem
ran niku
K as
ker ge
l õi
tra ditsiooni
20 12
7 5
tun gi
k laa
199 8
ha kati
G a
kül l
Ab haa
ja gu
val la
nda s
ma ali
sta takse
üh ine
vil ja
jao ks
inime ste
Jär va
is la
20 13
sta mise
U ni
f ta
k reeka
t ti
19 19
20 15
18 5
linna d
S te
t üü
sta v
kar din
iseloo mu
pan u
kes ku
3 6
Kon stantin
koha selt
april l
k aar
kan na
keel ne
maailma sõja
in us
sü nni
end ine
ni ke
Ma jandus
tei sed
lau lu
hari dus
la p
hää le
ma sti
193 8
too t
re d
9 0
tei st
C or
kade emia
3 7
pä rit
ke emi
st o
re ligi
õ ppe
la hu
põh ine
Nee d
ri ku
her ts
k ka
tun tud
ole ku
Gai us
ali se
j elda
pro tses
T ra
gu a
id ž
va ja
jao tus
kut su
p ane
ole vat
piisko p
kirjan duse
linna s
tsioon id
kontr olli
K õige
mä gi
e du
ta ri
ajal ugu
sa s
maa n
olümpia mängu
ra tsiooni
R aa
ge nt
kirju tas
va ri
ise gi
pii ra
ko hu
maa ni
lad ina
soo vi
ula tu
ta des
ooke ani
üle st
Mu st
Põl va
peal inna
vaba riigi
M er
või tis
h h
4 7
piir konda
al guse
m mu
M är
Ar meenia
le vi
t õu
K os
pul aar
esime sed
b el
selle s
suure m
Hol landi
k ri
196 0
saare d
lu gu
k sid
d olla
mb a
Ju li
al les
po eg
Kei la
rää gi
tu l
sti tuu
stu nud
üm naa
ümnaa si
ar ma
asu vad
c ha
suhte d
raja ti
si st
Hiiu maa
h ii
rev olu
T ii
ta miseks
tas andi
mad ala
i ri
g ru
liku ks
f in
selle ga
b ar
tsi s
g al
h ma
lin nu
al b
O n
K õi
eh hi
4 9
ole ma
ve si
st anud
Gre gori
pun ane
ko mitee
K reeka
199 7
mee ste
Fri ed
ali ku
k and
S al
ter vi
de id
ül di
rahval o
hää l
kos mo
Val ga
mille l
on d
8 5
A t
li t
raud tee
posi tsiooni
m öö
K ri
dünasti a
s õi
Ü RO
198 9
l ühi
ni kud
p ri
põ ge
и й
seisu ga
3 9
U nga
m s
k la
taa s
H aa
ja id
ve s
l os
or du
sage li
si ooni
or d
k ke
s ke
an o
B e
Esime ne
ar aa
i du
esime es
ju mala
k liima
en u
I is
Pre side
mida gi
h v
194 5
kir jelda
täna päeva
mi n
Ge or
R õu
Bal ti
saja nd
Hal dus
p ur
Tür gi
Mon te
ko mis
se na
Tä na
na i
lõp us
Sa muti
jär je
v öö
luule taja
ki l
ta eva
s pe
li ses
rahvastiku st
li sel
me r
loo ma
si oon
Rahvus vaheline
t y
ab il
hin n
koosse isu
d ž
il m
na fta
keele d
T O
lah ku
su l
V õi
mb ia
kelle st
mõ õ
N ad
Riigi s
Au gu
re aal
sümboli seeri
hõl ma
konna d
h tes
territoori u
s port
kunst nik
Fla vius
Rõu ge
3 4
g ro
me di
Ukra ina
amet likult
rahvalo enduse
V äike
K rist
üks us
3 8
elani kest
ste ga
sõ du
mi na
lah ing
19 17
I nd
koos neb
tege vus
kilo meetrit
mu m
ke hti
lise st
ü tle
E d
du si
ras ke
veebru ar
pi kku
Euroopa s
pea minister
ar ve
194 4
põ l
mi nu
3 2
hu vi
vähe malt
alu sel
le emi
ra di
9 7
kind ral
M ala
loo gi
on g
c en
20 16
Aa sia
pi kkus
tuse ga
mi de
mõne d
su htes
o do
on ee
Va i
Sa int
tähe le
A raa
pa re
la r
P aa
la di
Tar tus
ga r
väge de
ma ini
en ud
kru ii
tähenda b
raa mat
n or
f un
sajandi st
j o
kruii si
20 17
s üüdi
j enda
kas v
p rin
ala ti
nda da
n ti
ru se
198 8
keele st
v it
V er
ki ir
nd mused
va pi
ра й
iseseis vus
kind lu
Gregori use
Mi h
ск ий
kõrge im
ää ri
b ii
B i
рай он
Johan n
E na
h ta
S lo
vä li
ühe ks
mä är
lennu ki
po pulaar
ne sid
toimu sid
M aar
Aleks and
val mis
paav sti
di plo
Ne w
mär ts
5 5
ke da
rää ki
So tsi
paav st
mä ngi
või me
g ri
Juli use
säi li
vali mistel
me ts
an dus
oo d
si as
la id
või vad
au gust
vaba riik
kruiisi laev
elani ke
presidendi ks
riigi pea
are ngu
C har
li ini
n ale
194 1
mõ le
õi guse
N ende
l üü
P oli
hari duse
tek kis
sa maa
raa ma
ron oo
na r
Ku res
Il ma
No beli
täht sa
me ri
eks pordi
tu nd
Val it
mei e
Re in
197 0
197 9
de tud
h ju
kui das
j ooni
tu han
x i
ot suse
I V
vähe m
4 8
Põ llu
p le
si ili
alu stas
O l
tsion aal
Mos kva
mu si
ne li
k loo
kes kel
F er
h hi
198 6
he t
M in
Ar tik
Tõ nis
Ko gu
hul k
G al
Me re
ol d
hinn angu
va b
valit su
koosse is
ena masti
ra vi
F o
h us
Ko rea
Kir ja
mum temperatuur
ku se
ke d
kuna gi
pea minist
võ te
jär v
ni d
t õi
u t
Mõ ne
6 5
lõpu ks
Aust raali
mär ki
re le
c on
Jaa pani
