a r
e r
a n
i n
i r
i l
e n
a l
a k
ı n
e l
e k
l ar
v e
a s
i k
e t
e s
o n
d a
l a
d e
y a
m a
l er
i z
o l
u n
o r
ı r
b ir
i s
i m
e m
a t
i ş
i ç
i y
i t
u l
l ı
a y
b il
l an
u r
t a
iç in
l e
ü r
ü n
ı ş
e d
m ak
l i
ı z
a m
o t
as ı
ü k
ı k
lar ı
s a
al ar
es i
k a
u m
d ır
a z
o k
ı l
ı m
il e
er i
bil ir
s t
ö r
ler i
d an
ö n
m e
ü z
t i
u z
in i
ın da
h a
r a
ar a
is t
u t
b a
ul lan
y on
ü m
c e
k ullan
lar ın
d en
t ir
u k
in e
d ir
d i
il er
in de
m ek
m an
l ik
e y
ö z
c ı
in iz
u y
o lar
t r
b u
t e
i p
v ar
v er
r o
t ır
ğ ı
l em
t er
g i
o s
el er
ya p
olar ak
k on
lı k
y ük
c ak
g el
ın ı
ü ş
y an
alar ı
as yon
c i
k al
l en
o ğ
e v
o m
ve ya
k ar
lık ları
ak lıkları
t aklıkları
or taklıkları
ş lıkları
lı şlıkları
yan lışlıkları
lem eler
en lemeler
üz enlemeler
d üzenlemeler
st aları
o staları
p ostaları
ar aları
um araları
n umaraları
p araları
lem leri
iş lemleri
az aları
ğ azaları
ma ğazaları
in aları
ak inaları
M akinaları
dir iler
il diriler
B ildiriler
ak aları
l akaları
p lakaları
bil leri
o billeri
om obilleri
t omobilleri
O tomobilleri
ist eler
l isteler
dan ları
üz danları
c üzdanları
di aları
d diaları
i ddiaları
ol aları
m olaları
yon ları
s yonları
ü syonları
ol üsyonları
S olüsyonları
as aları
k asaları
kal eler
bir leri
bir birleri
iler ler
s ek
t ik
tik leri
as tikleri
l astikleri
et tikleri
s ettikleri
is settikleri
h issettikleri
k aları
ar kaları
m arkaları
ed iler
r ediler
k rediler
ir iler
et iriler
g etiriler
ev iriler
Ç eviriler
de olar
i deolar
V ideolar
ın ları
ış ınları
ip leri
ak ipleri
r akipleri
h ipleri
sa hipleri
lan lar
ı lanlar
kullan ılanlar
p lanlar
en iler
m eniler
er meniler
r meniler
E rmeniler
im eler
el imeler
k elimeler
ev leri
ör evleri
g örevleri
al evleri
in eler
mak ineler
m ineler
öz leri
g özleri
ır alar
at ıralar
h atıralar
s ıralar
p aları
om paları
P ompaları
di alar
d dialar
i ddialar
it leri
m itleri
ş itleri
e şitleri
Ç eşitleri
am iler
c amiler
es eler
r eseler
ed reseler
m edreseler
k eseler
yan lar
ma yanlar
ol mayanlar
um ları
ur umları
ot urumları
M umları
bir ini
ar alar
y aralar
ev eler
ç eveler
er çeveler
ç erçeveler
dan lar
üz danlar
c üzdanlar
e ç
eç leri
ür eçleri
s üreçleri
er eçleri
g ereçleri
ter ler
f terler
de fterler
lem esi
ter lemesi
lar lar
ğ larlar
sa ğlarlar
at leri
sa atleri
is leri
es isleri
t esisleri
var lar
u varlar
at uvarlar
ar atuvarlar
b aratuvarlar
la baratuvarlar
om ları
t omları
p tomları
em ptomları
s emptomları
um alar
ok umalar
az iler
ar aziler
ot alar
r otalar
ir eler
a ireler
D aireler
den ler
ma denler
bir ler
bir birler
kar lar
ul ları
ş ulları
o şulları
k oşulları
c aları
an caları
b ancaları
ta bancaları
ot ları
B otları
ir leri
f irleri
a firleri
is afirleri
m isafirleri
or iler
ot oriler
yon lar
is yonlar
z isyonlar
o zisyonlar
P ozisyonlar
es leri
r esleri
d resleri
a dresleri
üz leri
d üzleri
ün düzleri
g ündüzleri
ler ler
iz lerler
al eler
mak aleler
ak iler
d akiler
ğı dakiler
a ğıdakiler
ş ağıdakiler
a şağıdakiler
il iler
k ililer
et kililer
y etkililer
g aları
ur gaları
b urgaları
ka burgaları
ed leri
P edleri
ik olar
r ikolar
k rikolar
ey leri
ş eyleri
in olar
as inolar
c asinolar
ol ları
y olları
al leri
ist alleri
r istalleri
k ristalleri
ön eler
y öneler
lar ası
s larası
u slarası
ul uslarası
ek eler
b ekeler
e bekeler
ş ebekeler
ük leri
l ükleri
ün lükleri
g ünlükleri
ış ları
at ışları
s atışları
az alar
ğ azalar
ma ğazalar
et iler
l etiler
İ letiler
in in
g er
d ak
u ş
uş ları
ur uşları
v uruşları
d ı
g ları
on gları
l ongları
z longları
e zlongları
ş ezlongları
o gları
al ogları
an alogları
mak ta
makta dır
maktadır lar
un maktadırlar
ul unmaktadırlar
b ulunmaktadırlar
dır lar
ız dırlar
s ızdırlar
ar sızdırlar
kar arsızdırlar
ı dırlar
al ıdırlar
m alıdırlar
yap malıdırlar
f leri
i fleri
ar ifleri
T arifleri
t arifleri
y ları
la yları
o layları
da yları
a dayları
en ini
ed enini
n edenini
üz enini
d üzenini
at ini
ür atini
s üratini
k atini
ik katini
d ikkatini
z iler
e ziler
g eziler
ev ler
ör evler
g örevler
d iler
en diler
K endiler
a diler
v adiler
s ları
ur sları
k ursları
d ları
an dları
st andları
o dları
k odları
ar kodları
b arkodları
üş ler
ör üşler
g örüşler
al esi
h alesi
da halesi
ü dahalesi
m üdahalesi
K alesi
ç leri
en çleri
ir ençleri
D irençleri
in çleri
v inçleri
ir esi
da iresi
a iresi
D airesi
ur lar
t urlar
s urlar
un surlar
at ası
al atası
S alatası
h atası
iz esi
V izesi
e Vizesi
v izesi
l iler
ev liler
ör evliler
g örevliler
iş liler
d işliler
p alar
om palar
p ompalar
h alar
ev halar
L evhalar
v halar
le vhalar
öz ler
g özler
ol lar
y ollar
it ası
ar itası
h aritası
H aritası
or lar
iy orlar
ed iyorlar
y orlar
ü yorlar
l üyorlar
y lüyorlar
ö ylüyorlar
s öylüyorlar
uş lar
ul uşlar
ur uluşlar
k uruluşlar
t uşlar
kar tuşlar
g olar
o golar
l ogolar
ey ini
üz eyini
d üzeyini
y üzeyini
z leri
e zleri
er ezleri
Ç erezleri
ç erezleri
h ları
ba hları
sa bahları
a hları
g ahları
z gahları
e zgahları
T ezgahları
lı lar
cak lılar
a caklılar
al acaklılar
ar lılar
ar arlılar
Z ararlılar
İ leri
s un
ed ler
P edler
as lar
es aslar
am ini
it amini
v itamini
v iler
viler ini
da vilerini
te davilerini
c alar
ma calar
ul macalar
B ulmacalar
bil er
o biler
H obiler
ş eler
te şeler
en teşeler
m enteşeler
r iler
st riler
ü striler
d üstriler
en düstriler
z ları
o zları
t ozları
h leri
i hleri
ar ihleri
t arihleri
a iler
N ailer
el esi
es elesi
m eselesi
ed eri
r ederi
F rederi
tr ası
es trası
k estrası
r kestrası
O rkestrası
et esi
eç etesi
r eçetesi
üm esi
c ümesi
ter cümesi
ek eri
ş ekeri
k ları
an kları
t ankları
im esi
k imesi
es kimesi
t eler
en teler
c enteler
a centeler
k leri
is kleri
r iskleri
ol ler
ok oller
ot okoller
r otokoller
p rotokoller
ış lar
an ışlar
r anışlar
v ranışlar
a vranışlar
D avranışlar
dı lar
a dılar
C adılar
l alar
il lalar
V illalar
il esi
A ilesi
il lar
p illar
er pillar
at erpillar
C aterpillar
v leri
de vleri
az esi
p azesi
el pazesi
y elpazesi
üz esi
M üzesi
d olar
in ini
p inini
S pinini
m ları
da mları
a damları
is esi
il isesi
K ilisesi
n leri
y nleri
ve ynleri
e veynleri
b eveynleri
e beveynleri
ok lar
st oklar
ır ası
s ırası
ay ini
s leri
ü sleri
s üsleri
t olar
es tolar
ot estolar
r otestolar
p rotestolar
es esi
r esesi
ed resesi
M edresesi
ip ler
ak ipler
r akipler
b eler
beler ini
ü belerini
r übelerini
c rübelerini
te crübelerini
il ini
z ilini
en zilini
m enzilini
f eler
ka feler
c eler
ün celer
üş ünceler
d üşünceler
in eri
f ineri
ra fineri
os lar
s oslar
bil ar
it eri
r iteri
k riteri
z alar
m zalar
İ mzalar
f alar
de falar
S olar
c ini
e cini
ür ecini
s ürecini
h ası
ev hası
L evhası
a hası
D ahası
y lar
la ylar
o laylar
o ylar
K oylar
ç esi
h çesi
a hçesi
B ahçesi
d ler
ti dler
p tidler
e ptidler
p eptidler
i dler
o idler
er oidler
st eroidler
v ler
vler ini
de vlerini
ö devlerini
le vler
iş levler
y esi
ü yesi
m ler
il mler
f ilmler
k esi
f ini
ey fini
k eyfini
li fini
ek lifini
t eklifini
D eri
p eri
u peri
s uperi
b ini
kal bini
o bini
B obini
k ini
is kini
d iskini
r iskini
O lar
ç ası
ır çası
F ırçası
ar çası
p arçası
P ini
n ler
y nler
ve ynler
e veynler
b eveynler
e beveynler
E beveynler
el ar
B elar
G eri
ğ esi
ö ğesi
j lar
a jlar
al ajlar
b alajlar
am balajlar
b ler
a bler
n abler
E nabler
t ini
ve tini
v vetini
u vvetini
k uvvetini
l ini
C lini
R esi
s esi
ro sesi
p rosesi
u ini
L uini
K esi
g lar
on glar
l onglar
z longlar
e zlonglar
ş ezlonglar
ş esi
ö şesi
k öşesi
x lar
o xlar
B oxlar
d lar
o dlar
o odlar
l oodlar
f loodlar
il ar
az ilar
b azilar
p ini
ti pini
D ini
S eri
f ası
ka fası
e ini
ot eini
r oteini
p roteini
p ler
e pler
al epler
t alepler
T lar
O Tlar
D OTlar
r ini
T rini
g ini
en gini
r engini
ş ası
in şası
l esi
z lesi
e zlesi
n ezlesi
p esi
e pesi
T epesi
d eri
M esi
v lar
a vlar
ın avlar
s ınavlar
v ası
ha vası
M ini
z lar
o zlar
n ozlar
or nozlar
b ornozlar
B ini
ş ini
e şini
b eşini
y eri
ð ini
i ðini
il iðini
l iliðini
ek liliðini
ür ekliliðini
s ürekliliðini
o la
t ı
tı ları
lan tıları
p lantıları
o plantıları
t oplantıları
tı lar
ın tılar
r ıntılar
ay rıntılar
r e
b ul
a b
ab alar
ç abalar
ab ası
as abası
k asabası
o y
m ası
dır ması
lan dırması
t landırması
ya tlandırması
i yatlandırması
f iyatlandırması
tır ması
ş tırması
ara ştırması
ir ması
f irması
iz ması
an izması
mek anizması
ek anizması
M ekanizması
as ması
b asması
al ması
or ması
f orması
i forması
ün iforması
uy ması
ur ması
d urması
un durması
bul undurması
ak ması
ş ması
la şması
tı laşması
h tılaşması
ı htılaşması
p ıhtılaşması
ta şması
t ması
la tması
ın latması
d ınlatması
ay dınlatması
et i
s on
son ları
is i
ğ er
ın a
B u
d u
ot el
0 0
ın dan
da ha
c a
la ma
ar t
art ları
ş artları
art esi
um artesi
C umartesi
t esi
er tesi
l tesi
ü ltesi
ak ültesi
F akültesi
g ör
a p
ap ları
es apları
h esapları
la ş
t ek
tek ler
es tekler
d estekler
t an
tan esi
es tanesi
k estanesi
an esi
h anesi
p hanesi
ü phanesi
t üphanesi
ü tüphanesi
K ütüphanesi
k ütüphanesi
d er
der ler
li derler
o derler
k oderler
n koderler
E nkoderler
öz el
m et
met ini
iz metini
h izmetini
al ış
ın ız
il m
s ı
b i
l u
lu ları
v luları
ha vluları
lu lar
oy lular
s oylular
a ma
e ş
il eri
ter ileri
üş terileri
m üşterileri
iz ileri
D izileri
j ileri
o jileri
ol ojileri
n olojileri
ek nolojileri
T eknolojileri
z ileri
e zileri
g ezileri
d ileri
en dileri
k endileri
iş tir
t ar
y ıl
ıl lar
Y ıllar
ç ık
çık lar
a çıklar
s iz
siz leri
er sizleri
z ersizleri
g zersizleri
e gzersizleri
siz ler
er sizler
z ersizler
g zersizler
e gzersizler
ğ i
am an
le ş
al ı
m ış
ü l
l ler
ö ller
g öller
E ller
al an
alan ması
ç alanması
ar çalanması
p arçalanması
g alanması
al galanması
d algalanması
an ması
ol anması
p olanması
de polanması
k en
ç ok
t ak
tak lar
r taklar
O rtaklar
y er
yer leri
yer ini
er ini
b erini
h berini
e hberini
R ehberini
o p
el i
ı cı
cı ları
ma cıları
uş macıları
on uşmacıları
K onuşmacıları
e c
ç alış
dak i
ar ı
çık arı
ar arı
y ararı
z ararı
Y arı
y arı
U yarı
s arı
a d
ad ası
uş adası
K uşadası
e Kuşadası
iy eKuşadası
h iyeKuşadası
et hiyeKuşadası
F ethiyeKuşadası
um FethiyeKuşadası
r umFethiyeKuşadası
d rumFethiyeKuşadası
o drumFethiyeKuşadası
B odrumFethiyeKuşadası
an BodrumFethiyeKuşadası
V anBodrumFethiyeKuşadası
sa VanBodrumFethiyeKuşadası
ur saVanBodrumFethiyeKuşadası
B ursaVanBodrumFethiyeKuşadası
ir BursaVanBodrumFethiyeKuşadası
m irBursaVanBodrumFethiyeKuşadası
z mirBursaVanBodrumFethiyeKuşadası
İ zmirBursaVanBodrumFethiyeKuşadası
bul İzmirBursaVanBodrumFethiyeKuşadası
an bulİzmirBursaVanBodrumFethiyeKuşadası
st anbulİzmirBursaVanBodrumFethiyeKuşadası
İ stanbulİzmirBursaVanBodrumFethiyeKuşadası
ad esi
i adesi
z aman
bul un
ol an
olan lar
h er
r en
ren ler
F renler
iy i
il i
a ş
aş arı
B aşarı
iy or
g en
t el
k ay
labaratuvarlar daki
ger ek
e bilir
k ur
s an
in esi
ür ün
ün leri
r ünleri
Ü rünleri
endüstriler inde
aşağıdakiler den
s ür
ür esi
S üresi
2 0
el ik
elik leri
it elikleri
n itelikleri
on elikleri
ab onelikleri
elik ler
elikler ini
c eliklerini
in celiklerini
d elikler
ın ın
egzersizler den
kütüphanesi dir
ba ş
en i
r an
s it
it eler
v iteler
ti viteler
ak tiviteler
e de
e z
z ler
me zler
ede mezler
o zler
g ozler
ara gozler
K aragozler
el eri
sit eleri
lem eleri
en lemeleri
üz enlemeleri
d üzenlemeleri
tan eleri
iy eleri
ev iyeleri
s eviyeleri
it eleri
v iteleri
ti viteleri
ak tiviteleri
n iteleri
Ü niteleri
iş eleri
ş işeleri
l işeleri
k lişeleri
em eleri
z emeleri
al zemeleri
m alzemeleri
M alzemeleri
ir eleri
da ireleri
ec eleri
g eceleri
al eleri
el aleleri
ş elaleleri
il eleri
h ileleri
ğ eleri
Ö ğeleri
ö ğeleri
d eleri
or deleri
K ordeleri
er deleri
p erdeleri
j eleri
ro jeleri
p rojeleri
y eleri
ü yeleri
s eleri
is seleri
h isseleri
p eleri
te peleri
v eleri
y veleri
me yveleri
ş eleri
te şeleri
en teşeleri
M enteşeleri
ar k
k alar
al kalar
h alkalar
k ası
ap kası
ş apkası
Ş apkası
çalış maktadır
peptidler inin
makineler inin
birbirler inin
kuruluşlar dır
düzenlemeler e
Çeviriler iniz
şebekeler inin
çerçeveler den
ist em
istem ler
s istemler
istem ini
s istemini
em leri
t emleri
ön temleri
Y öntemleri
y öntemleri
sistemler inde
r u
krediler iniz
kredileriniz i
Bildiriler in
okumalar ının
araziler inde
otoriler inin
kaburgaları y
kaburgalarıy la
sınavlar ında
rakipler inin
düşünceler in
iştir ebilir
ğ iştirebilir
de ğiştirebilir
değiştirebilir s
değiştirebilirs iniz
a bilir
bilir ler
ara bilirler
çık arabilirler
de bilirler
gi debilirler
kullan abilir
bulun abilir
bulunabilir s
bulunabilirs iniz
gi bi
m as
mas alar
mas ası
v i
o d
steroidler e
görüşler ine
getiriler ek
Kendiler ine
Ermeniler in
floodlar dan
olmayanlar a
yap maktadır
Zararlılar a
dır maktadır
lan dırmaktadır
ç landırmaktadır
u çlandırmaktadır
son uçlandırmaktadır
mineler iniz
mineleriniz in
iddialar ını
masalar ının
art maktadır
bulun makta
bulunmakta dir
s iy
siy eler
em siyeler
ş emsiyeler
siy esi
em siyesi
ş emsiyesi
v siyesi
ta vsiyesi
t ur
r es
res ini
ad resini
A n
yük sek
il en
ilen ler
ed ilenler
ilen ebilir
en ilenebilir
Y enilenebilir
çabalar ını
işlevler iy
işlevleriy le
ermeniler e
or maktadır
s ormaktadır
madenler in
görüşler im
görüşlerim e
iddialar ın
planlar ken
un maktadır
or unmaktadır
k orunmaktadır
ut maktadır
t utmaktadır
zaman ların
zamanların a
listeler in
yollar daki
sa maktadır
p samaktadır
ka psamaktadır
edilenler e
ol maktadır
görevler in
görevlerin den
markaları y
markalarıy la
soylular la
olanlar dır
ilerler ken
g ün
gün ler
bu günler
ün ler
r ünler
Ü rünler
bugünler de
k an
kan ları
im kanları
sun abilir
yüksek lik
yükseklik ler
istem inde
s isteminde
ver ebilir
camiler in
alar ından
m alarından
iz malarından
an izmalarından
mek anizmalarından
ç alarından
ar çalarından
p arçalarından
var dır
t es
m en
men ler
it menler
ğ itmenler
e ğitmenler
eğitmenler le
i f
if ler
tar ifler
ar ifler
T arifler
man ları
vadiler de
çık abilir
zaman ında
kullan mas
kullanmas ını
rotalar ım
rotalarım ız
rotalarımız da
sizler den
dir ebilir
len direbilir
t lendirebilir
ve tlendirebilir
v vetlendirebilir
u vvetlendirebilir
k uvvetlendirebilir
ş maktadır
ra şmaktadır
ğ raşmaktadır
u ğraşmaktadır
a maktadır
ş amaktadır
ya şamaktadır
talepler e
laş abilir
laşabilir ler
u laşabilirler
istem inin
s isteminin
şartları m
şartlarım ız
şartlarımız ı
gel ebilir
istem iyor
istemiyor um
yöneler ek
kullan man
kullanman ız
sür ebilir
tur abilir
uş turabilir
ol uşturabilir
dır abilir
z dırabilir
ya zdırabilir
geziler im
gezilerim iz
gezilerimiz de
ı maktadır
ş ımaktadır
ta şımaktadır
keseler in
defalar ca
istem iniz
s isteminiz
sisteminiz e
Ürünler im
t ara
d ur
mak inesi
alar ınız
at alarınız
h atalarınız
alarınız ın
y alarınızın
eş yalarınızın
iş ebilir
ğ işebilir
de ğişebilir
abilir iz
yap abiliriz
alan ının
üş ebilir
ön üşebilir
d önüşebilir
d üşebilir
var ların
varların ın
u varlarının
at uvarlarının
ar atuvarlarının
ab aratuvarlarının
L abaratuvarlarının
du varların
duvarların ı
gerek mek
gerekmek t
çalış tır
çalıştır mak
çalıştırmak tır
eler inin
r eler
et reler
am etreler
ar ametreler
p arametreler
c reler
ü creler
h ücreler
y elerinin
l yelerinin
ö lyelerinin
at ölyelerinin
r elerinin
c relerinin
ü crelerinin
h ücrelerinin
kullan ış
kullanış lı
er ebilir
st erebilir
ö sterebilir
g österebilir
kullan dı
kullandı ğı
kan ların
im kanların
imkanların ın
gerek tir
gerektir ebilir
gerektir en
tir ebilir
leş tirebilir
yer leştirebilir
yerleştirebilir iz
ş tirebilir
ile ştirebilir
iy ileştirebilir
ey ebilir
eyebilir ler
den eyebilirler
ebilir ler
gör ebilirler
iy ebilirler
y iyebilirler
ist eyebilir
isteyebilir s
isteyebilirs iniz
lik asyon
likasyon ları
p likasyonları
om plikasyonları
k omplikasyonları
p likasyon
re plikasyon
replikasyon u
ullan ıcı
ullanıcı lar
K ullanıcılar
ek ler
ed ekler
y edekler
ç ekler
ger çekler
k ekler
r kekler
E rkekler
gerçekler ine
gerçekler e
ekler iniz
en ekler
eç enekler
s eçenekler
et enekler
y etenekler
yetenekler ine
en ekleriniz
eç enekleriniz
s eçenekleriniz
seçenekleriniz i
ekler dir
ec eklerdir
bil eceklerdir
a bileceklerdir
laş abileceklerdir
u laşabileceklerdir
yap abileceklerdir
lik ler
ter likler
ik likler
iş iklikler
ğ işiklikler
de ğişiklikler
in likler
k inlikler
et kinlikler
t kinlikler
E tkinlikler
ip likler
if likler
f iflikler
ha fiflikler
değişiklikler in
iplikler le
likler ine
özel liklerine
sa ğ
kur ların
kurların dan
zaman dır
öğesi dir
alı ların
ik alıların
r ikalıların
f rikalıların
A frikalıların
ek ebilir
ç ekebilir
günler de
alar daki
t alardaki
ok talardaki
n oktalardaki
iler inde
k ilerinde
iş kilerinde
il işkilerinde
lan ların
p lanların
planların ı
ış abilir
kar ışabilir
un abilir
unabilir ler
ok unabilirler
d okunabilirler
kar iştir
kariştir in
bazilar i
kullan il
kullanil makta
il abilir
dir ilabilir
lan dirilabilir
f landirilabilir
ini flandirilabilir
s ini
er sini
m ersini
an mersini
ab anmersini
Y abanmersini
ak sini
s iniflandirilabilir
gözler im
gözlerim iz
gözlerimiz in
Başarı sı
yollar da
otel iniz
oteliniz de
göller in
karlar la
aman lama
Z amanlama
yıl ların
yılların dan
yon ların
is yonların
z isyonların
o zisyonların
p ozisyonların
pozisyonların a
asyon dan
im asyondan
r imasyondan
ak rimasyondan
l akrimasyondan
man ların
uz manların
ara bilir
on arabilir
yan ların
la yanların
baş layanların
çıkarı la
çıkarıla bilir
tak ların
or takların
ortakların a
san ların
in sanların
sıralar a
ediler ek
eler iniz
eleriniz in
y elerinizin
ü yelerinizin
uş abilir
ol uşabilir
istem ine
s istemine
superi or
yan ından
ının daki
ak ınındaki
Y akınındaki
kaleler e
iştir men
iştirmen iz
ğ iştirmeniz
de ğiştirmeniz
et ebilir
ük etebilir
t üketebilir
bulun ama
bulunama dı
öz ebilir
ç özebilir
çözebilir s
çözebilirs iniz
likler in
özel liklerin
ürün ler
ürünler ini
ürünler inin
ürünler den
ürünler im
ürünlerim iz
ürünlerimiz in
ürünler in
ürünler le
ürünler de
ürünler e
es ini
ilm esini
ed ilmesini
ist esini
l istesini
n listesini
or nlistesini
H ornlistesini
ar esini
em aresini
üm esini
y ümesini
ü yümesini
b üyümesini
g esini
den gesini
im gesini
s imgesini
j esini
ro jesini
P rojesini
d esini
üz desini
y üzdesini
h esini
p hesini
ce phesini
f esini
a fesini
es afesini
m esafesini
y esini
v yesini
la vyesini
k lavyesini
iz met
izmet iniz
izmetiniz de
h izmetinizde
izmet inde
h izmetinde
ı la
le y
y ar
ür asyon
ürasyon da
g ürasyonda
i gürasyonda
f igürasyonda
kon figürasyonda
g ürasyon
i gürasyon
f igürasyon
kon figürasyon
gibi dir
çalış tı
alan mış
alanmış tır
m alanmıştır
ar malanmıştır
s armalanmıştır
ak alanmış
Y akalanmış
ınız dan
az ınızdan
h azınızdan
ci hazınızdan
ğ ınızdan
dı ğınızdan
al dığınızdan
ım ların
kullan ımların
kullanımların ız
kullanımlarınız a
kullanımların ı
kullan a
kullana ca
yap ının
t yapının
al tyapının
lan lama
p lanlama
ul ların
ulların dan
s ullarından
h sullarından
ə hsullarından
m əhsullarından
ş ulların
o şulların
k oşulların
koşulların a
gel iyor
geliyor m
geliyorm uş
lem inin
iş leminin
sun daki
u sundaki
kon usundaki
izmet im
izmetim iz
izmetimiz i
H izmetimizi
h izmetimizi
al asyon
h alasyon
in halasyon
re asyon
ek reasyon
ekreasyon al
r ekreasyonal
R ekreasyon
iler den
ter ilerden
ak terilerden
b akterilerden
k ilerden
iş kilerden
l işkilerden
İ lişkilerden
eler den
m elerden
de melerden
ö demelerden
et melerden
l etmelerden
iş letmelerden
ap ların
apların ız
v aplarınız
ce vaplarınız
cevaplarınız ı
es apların
h esapların
hesapların ı
iyor sun
ist iyorsun
istiyorsun uz
ed iyorsun
ediyorsun uz
likler e
özel liklere
tr asyon
trasyon ları
san trasyonları
kon santrasyonları
il trasyon
f iltrasyon
bulun ma
bulunma maktadır
ma maktadır
ol mamaktadır
an mamaktadır
ar anmamaktadır
izmet in
izmetin den
h izmetinden
h izmetin
yer inde
yerinde y
yerindey ken
om ların
on omların
tr onomların
as tronomların
t omların
p tomların
em ptomların
s emptomların
bir inin
ok asyon
ol okasyon
r olokasyon
ik rolokasyon
m ikrolokasyon
l okasyon
lokasyon u
ol asyon
iz olasyon
izolasyon lu
z olasyon
İ zolasyon
ilen dir
ilendir ile
ilendirile bilir
g ilendirilebilir
ver gilendirilebilir
ilendir me
g ilendirme
il gilendirme
B ilgilendirme
alan dır
alandır ma
z alandırma
ce zalandırma
cezalandırma z
ur alandır
at uralandır
aturalandır ıl
aturalandırıl ması
f aturalandırılması
inde dir
is indedir
t isindedir
an tisindedir
ar antisindedir
g arantisindedir
es indedir
f esindedir
a fesindedir
es afesindedir
m esafesindedir
aman dır
ş amandır
şamandır a
ış ların
ran ışların
ranışların dan
v ranışlarından
da vranışlarından
yar ışların
yarışların a
der ilen
ön derilen
g önderilen
ğer inde
de ğerinde
di ğerinde
st asyon
İ stasyon
it asyon
bil itasyon
ha bilitasyon
re habilitasyon
lem e
iler leme
t em
tem alar
tem ler
temler ini
ön temlerini
y öntemlerini
ön temler
y öntemler
tem ini
ön temini
y öntemini
em alar
T emalar
em ini
ön emini
z emini
em ler
kal emler
yöntemler iy
yöntemleriy le
temalar ını
temalar dan
kalemler in
s er
ser ileri
er ileri
st erileri
ö sterileri
g österileri
ec erileri
b ecerileri
ş ek
g ü
o z
oz ların
ol ozların
m olozların
t ozların
tozların ı
az ların
h azların
ci hazların
otel den
ran ının
b ranının
em branının
m embranının
tı ların
la tıların
an latıların
anlatıların ı
er asyon
op erasyon
operasyon da
evler le
aş ından
B aşından
k ebilir
ö kebilir
ç ökebilir
ot ların
otların ız
n otlarınız
notlarınız ı
ış ından
d ışından
t dışından
ur tdışından
y urtdışından
az ından
Resi den
Residen ce
bulun uy
bulunuy or
bulunuyor sun
bulunuyorsun uz
ul asyon
ulasyon ları
g ulasyonları
re gulasyonları
asyon ları
in asyonları
b inasyonları
om binasyonları
k ombinasyonları
v asyonları
er vasyonları
z ervasyonları
re zervasyonları
ren leme
F renleme
ley iniz
et leyiniz
ar etleyiniz
iş aretleyiniz
la makta
ar lamakta
as arlamakta
t asarlamakta
iştir il
iştiril me
ğ iştirilme
de ğiştirilme
değiştirilme z
len iyor
yük leniyor
an makta
ul anmakta
g ulanmakta
uy gulanmakta
uş ların
ul uşların
kur uluşların
bilir li
ile bilirli
iş ilebilirli
er işilebilirli
lar daki
u lardaki
on ulardaki
K onulardaki
iştir em
iştirem ez
iştiremez ler
ğ iştiremezler
de ğiştiremezler
ter inin
üş terinin
m üşterinin
baş ında
bilir is
biliris iniz
la bilirisiniz
bu labilirisiniz
alış mas
alışmas ının
Ç alışmasının
iştir in
gel iştirin
iştir di
iştirdi ği
ğ iştirdiği
de ğiştirdiği
lem iyor
ek lemiyor
b eklemiyor
aman ını
r amanını
h ramanını
ka hramanını
DOTlar a
Trini da
ser inin
arı daki
uk arıdaki
y ukarıdaki
için iyi
iştir er
iştirer ek
ğ iştirerek
de ğiştirerek
dir ilen
len dirilen
ön lendirilen
y önlendirilen
ması dır
ıl masıdır
dır ılmasıdır
lan dırılmasıdır
t landırılmasıdır
ya tlandırılmasıdır
i yatlandırılmasıdır
f iyatlandırılmasıdır
et iştir
y etiştir
yetiştir i
kar daki
le bilir
ü lebilir
gör ülebilir
de bilir
E debilir
Edebilir s
Edebilirs iniz
yük leme
n yükleme
Ö nyükleme
lama dan
ak lamadan
kon aklamadan
ol ların
y olların
yolların ı
leri dir
et leridir
iy etleridir
bil iyetleridir
ka biliyetleridir
aman lan
amanlan dı
Z amanlandı
iştir en
el iştiren
G eliştiren
el iştir
eliştir ilen
G eliştirilen
eliştir ilm
eliştirilm iş
G eliştirilmiş
lu ların
oy luların
s oyluların
ay ların
et ayların
d etayların
detayların a
yıl ının
asyon el
r asyonel
ot asyon
r otasyon
ıl makta
k ılmakta
tar daki
ik tardaki
m iktardaki
lama mış
at lamamış
p atlamamış
elik tek
it eliktek
n iteliktek
niteliktek i
tara mak
tir ilen
leş tirilen
ek leştirilen
ç ekleştirilen
ger çekleştirilen
ım ından
ak ımından
b akımından
ru asyon
st ruasyon
men struasyon
sarı lan
soslar a
il asyon
p ilasyon
e pilasyon
ar ından
az arından
p azarından
eler dir
n elerdir
bulun du
cı ların
ım cıların
tır ımcıların
ya tırımcıların
alar ken
v alar
da valar
u valar
y uvalar
yuvalar ına
davalar ın
v alarken
o valarken
k ovalarken
tes iniz
mek tesiniz
et mektesiniz
yon daki
is yondaki
oz isyondaki
p ozisyondaki
ad ların
adların ın
c iler
Kesi ciler
lem ciler
iş lemciler
de ciler
en deciler
ak endeciler
er akendeciler
p erakendeciler
im ciler
bil imciler
i ciler
iştir iciler
gel iştiriciler
perakendeciler in
bilimciler ine
işlemciler im
işlemcilerim iz
işlemcilerimiz e
ciler inin
ren cilerinin
ğ rencilerinin
Ö ğrencilerinin
ciler ine
ren cilerine
ğ rencilerine
ö ğrencilerine
ciler im
ren ciler
ğ renciler
Ö ğrenciler
ö ğrenciler
öğrenciler in
Öğrenciler e
ren cilerim
rencilerim iz
rencilerimiz in
ğ rencilerimizin
Ö ğrencilerimizin
et ler
ark etler
m arketler
tik etler
E tiketler
iy etler
al iyetler
a aliyetler
f aaliyetler
d iyetler
üm etler
ük ümetler
h ükümetler
ek etler
ar eketler
h areketler
ik etler
et iketler
ak etler
p aketler
ar etler
aretler ini
iş aretlerini
etler ini
z etlerini
z zetlerini
le zzetlerini
r etlerini
c retlerini
ü cretlerini
al etler
v aletler
u valetler
t uvaletler
ş etler
o şetler
p oşetler
b etler
ö betler
n öbetler
faaliyetler inin
hükümetler inin
hareketler le
poşetler in
nöbetler in
etiketler e
diyetler in
etler iy
etleriy le
k etleriyle
ir ketleriyle
ş irketleriyle
y or
çalış yor
çalışyor um
bulun maktadır
ma tik
laş mış
laşmış tır
un laşmıştır
oğ unlaşmıştır
y oğunlaşmıştır
u laşmış
iniz de
ler inizde
iş lerinizde
ğ inizde
di ğinizde
ir diğinizde
g irdiğinizde
yük len
yüklen di
yüklen i
yükleni ci
arı yor
arıyor san
arıyorsan ız
arıyor sun
arıyorsun uz
den gel
dengel i
tan siy
er tansiy
ip ertansiy
ipertansiy on
h ipertansiyon
al ınız
kan alınız
kanalınız da
olan ak
olanak ları
ış ının
ak ışının
al ının
kan alının
ç alının
y asyon
ad yasyon
R adyasyon
d yasyon
ra dyasyon
radyasyon u
d asyon
i dasyon
al idasyon
V alidasyon
s idasyon
ok sidasyon
oksidasyon u
tır ken
ır tırken
k ırtırken
ış kırtırken
k ışkırtırken
la tırken
baş latırken
am ının
ş amının
ya şamının
r amının
g ramının
ro gramının
p rogramının
tur ist
turist ler
ist ler
ur istler
T uristler
P istler
Turistler e
turist ik
Pistler e
bir ine
bir birine
ev iyor
eviyor um
s eviyorum
s eviyor
en leme
üz enleme
d üzenleme
men ist
menist an
k menistan
ür kmenistan
T ürkmenistan
r menistan
E rmenistan
mek tir
dir mektir
len dirmektir
ğer lendirmektir
de ğerlendirmektir
ül mektir
G ülmektir
bul mak
eç ilen
s eçilen
tar mak
kur tarmak
ak tarmak
elik le
z elikle
ve zelikle
e vezelikle
g evezelikle
c elikle
ön celikle
zaman ı
ru lama
oğ rulama
oğrulama dı
oğrulamadı ğı
d oğrulamadığı
d oğrulama
sek lik
ük seklik
Y ükseklik
dur man
bulun durman
bulundurman ız
bulun dur
bulundur an
kesi ci
dir mek
in dirmek
tar ını
ik tarını
m iktarını
yap man
yapman ın
yapman ız
lik eli
h likeli
te hlikeli
e hlikeli
T ehlikeli
mak tır
kullan maktır
t maktır
al tmaktır
az altmaktır
sun dan
u sundan
kon usundan
lık tan
ak lıktan
uz aklıktan
ler den
lem lerden
iş lemlerden
ik lerden
iz iklerden
ç iziklerden
kay dır
kaydır ar
kaydırar ak
kaydır ma
tara ma
ır lama
az ırlama
H azırlama
ın ırlama
s ınırlama
lan lan
lanlan maktadır
p lanlanmaktadır
lanlan dı
lanlandı ğı
p lanlandığı
ına cak
ınacak tır
al ınacaktır
s ınacak
I sınacak
sür ede
ver men
vermen iz
der mek
ön dermek
g öndermek
gi dermek
dan mış
a danmış
çalış ı
çalışı yor
çalışıyor san
çalışıyorsan ız
Olar ak
ede bil
edebil mek
edebil me
alan an
ir alanan
k iralanan
g alanan
al galanan
d algalanan
az ınız
h azınız
ci hazınız
cihazınız a
çalış a
çalışa cak
çalışa bil
çalışabil m
çalışabilm esi
s ların
an sların
er ansların
f eransların
re feransların
referansların ı
ır sların
h ırsların
hırsların a
eler im
elerim iz
j elerimiz
ro jelerimiz
p rojelerimiz
n elerimiz
ek nelerimiz
T eknelerimiz
yor sun
yorsun uz
ü yorsunuz
gör üyorsunuz
ı yorsunuz
yap ıyorsunuz
em iyor
ley emiyor
iz leyemiyor
izleyemiyor um
g izleyemiyorum
gör emiyor
göremiyor um
lan mas
lanmas ında
ak lanmasında
y aklanmasında
A yaklanmasında
lanmas ının
m lanmasının
ma mlanmasının
ta mamlanmasının
ara bul
arabul u
on elik
ab onelik
b onelik
A bonelik
laş mak
u laşmak
gel len
en gellen
engellen ir
engellen m
engellenm esi
tem eli
asyon a
or asyona
ek orasyona
d ekorasyona
ım lama
tan ımlama
eç iniz
G eçiniz
s eçiniz
il iniz
at iliniz
t atiliniz
tatiliniz i
D iliniz
Diliniz i
an ında
Belar u
Belaru s
inin in
am ininin
it amininin
v itamininin
m ininin
at mininin
t atmininin
eli dir
ilm elidir
d ilmelidir
de dilmelidir
kay dedilmelidir
m elidir
gel melidir
tak tir
taktir de
ap lama
K aplama
ter ist
ak terist
kar akterist
karakterist ik
tes ist
tesist e
otel in
mak tan
uş maktan
kon uşmaktan
t maktan
sı tmaktan
ı sıtmaktan
ol lama
s ollama
üz er
ız lı
ızlı dır
h ızlıdır
ızlı ğı
s ızlığı
ım sızlığı
ğ ımsızlığı
ba ğımsızlığı
ar sızlığı
ar arsızlığı
z ararsızlığı
ç ek
çek iyor
l ü
s iniz
abilir s
yap abilirs
yapabilirs in
al abilirs
alabilirs in
ip siniz
h ipsiniz
sa hipsiniz
un daki
ol undaki
s olundaki
ullan ı
ullanı lan
K ullanılan
ları ma
ş larıma
da şlarıma
ka daşlarıma
ar kadaşlarıma
ili dir
k ilidir
et kilidir
iy elik
san iyelik
iyor du
bil iyordu
la biliyordu
u labiliyordu
uy ulabiliyordu
d uyulabiliyordu
kal kan
kalkan ın
en ilen
y enilen
yenilen m
yenilenm iş
kal ama
ar kalama
m arkalama
tek lem
es teklem
d esteklem
istem e
s isteme
ec elik
g ecelik
ark ına
f arkına
var mak
elik li
d elikli
çık lan
çıklan ır
a çıklanır
er leme
D erleme
tur ama
uş turama
ol uşturama
oluşturama z
oluşturamaz s
oluşturamazs ınız
el iniz
eliniz e
ilen en
k ilenen
et kilenen
çık mış
çıkmış tır
eri bil
eribil dir
eribildir im
g eribildirim
il iyor
iliyor um
d iliyorum
az daki
h azdaki
ci hazdaki
der ilm
derilm esi
gi derilmesi
baş lık
başlık lar
kur man
kurman ız
mas ter
master s
art isi
P artisi
dır ıcı
dırıcı lar
lan dırıcılar
at landırıcılar
T atlandırıcılar
çek mek
laş man
an laşman
anlaşman ın
ey inde
üz eyinde
y üzeyinde
a makta
n amakta
oy namakta
ver ili
öz verili
tak laş
or taklaş
ortaklaş a
ad ının
kan yon
il elik
am ilelik
h amilelik
or ilen
g orilen
e gorilen
at egorilen
K ategorilen
Kategorilen m
Kategorilenm em
Kategorilenmem iş
çık mak
otel de
ıcı lık
at ıcılık
yar atıcılık
iş inin
k işinin
n ların
O nların
ir Onların
ir irOnların
ev irirOnların
ç evirirOnların
tır ıla
tırıla bilir
laş tırılabilir
un laştırılabilir
oğ unlaştırılabilir
y oğunlaştırılabilir
an ının
f anının
an daki
or andaki
gün den
dir men
len dirmen
ğer lendirmen
de ğerlendirmen
değerlendirmen iz
değerlendirmeniz i
ır ında
F ırında
art men
p artmen
A partmen
Apartmen t
Apartment s
sür eli
ta daki
or tadaki
er ilen
n erilen
Ö nerilen
ark ıcı
ş arkıcı
ver ilm
verilm iştir
tak sit
taksit le
il inde
h ilinde
da hilinde
izmet e
h izmete
res yon
p resyon
e presyon
D epresyon
em inde
ön eminde
d öneminde
en inin
v eninin
gü veninin
ar olan
arolan ız
p arolanız
parolanız ı
uz daki
un uzdaki
b unuzdaki
ru bunuzdaki
g rubunuzdaki
gerek m
ren mek
ğ renmek
ö ğrenmek
zaman a
ama men
T amamen
dak lan
daklan ın
o daklanın
oz daki
d ozdaki
laş ıcı
bu laşıcı
tel den
O telden
san cak
l sancak
A lsancak
yap ilm
yapilm is
matik l
matikl es
matikles tir
matiklestir ilm
matiklestirilm is
o matiklestirilmis
ot omatiklestirilmis
lan dir
landir ilm
landirilm ist
am landirilmist
amlandirilmist ir
r amlandirilmistir
g ramlandirilmistir
ro gramlandirilmistir
p rogramlandirilmistir
var dir
man ına
s manına
an smanına
in ansmanına
F inansmanına
ez inin
G ezinin
art laş
artlaş tır
artlaştır mak
d artlaştırmak
an dartlaştırmak
st andartlaştırmak
y ların
da yların
dayların ın
A daylarının
in leme
D inleme
tak tik
ürün ün
ürünün ü
el leme
c elleme
ün celleme
G üncelleme
am ınız
amınız ın
r amınızın
g ramınızın
ro gramınızın
p rogramınızın
kan alı
alar la
ç alarla
ar çalarla
p arçalarla
ler ken
iz lerken
ir ilen
eç irilen
g eçirilen
dolar a
çek lik
er çeklik
G erçeklik
yıl dan
tem dir
ön temdir
y öntemdir
ez inde
k ezinde
er kezinde
m erkezinde
al inde
h alinde
kon tur
kontur lu
az alan
ıla yan
ş ılayan
kar şılayan
ik iniz
ikiniz den
az elik
T azelik
dan lık
i danlık
F idanlık
ğ ların
ğların ın
a ğlarının
t ından
al tından
dir ile
dirile bilir
len dirilebilir
lendirilebilir lik
il lendirilebilirlik
şek illendirilebilirlik
bilir lik
ile bilirlik
iş ilebilirlik
er işilebilirlik
la bilirlik
ğı labilirlik
da ğılabilirlik
yap ama
yapama ya
yapamaya ca
yapamayaca ğı
in ilen
ğ inilen
de ğinilen
art man
artman ım
artmanım ız
artmanımız la
p artmanımızla
e partmanımızla
D epartmanımızla
ık lama
y ıklama
ı yıklama
b ıyıklama
iştir m
ğ iştirm
de ğiştirm
e matik
ist ematik
s istematik
ed inin
r edinin
k redinin
tek iyi
es tekiyi
d estekiyi
ından destekiyi
f ındandestekiyi
tara fındandestekiyi
r asyon
rasyon lu
b rasyonlu
i brasyonlu
V ibrasyonlu
alan ın
et inde
al etinde
ey aletinde
ö matik
n ömatik
P nömatik
iş iniz
işiniz i
kar ede
ler dir
el lerdir
k ellerdir
ey kellerdir
h eykellerdir
ar daki
K ardaki
ger isi
lem den
ey lemden
yıl dır
yıldır ım
p ların
sa pların
kal lan
kallan et
kallanet ik
kallanetik ler
kallanetikler e
kay mak
z kaymak
O zkaymak
yer ken
ik ilen
d ikilen
etler e
k etler
ir ketler
ş irketler
şirketler in
k etlere
ir ketlere
ş irketlere
etler in
l etlerin
b letlerin
ta bletlerin
çok tur
ist ede
l istede
yar lan
yarlan abilir
A yarlanabilir
b asyon
ür basyon
t ürbasyon
mas türbasyon
yap tır
yaptır ı
yaptırı lan
lan tes
P lantes
öz leme
g özleme
çek ilm
çekilm iş
kur dan
ürün ür
b ürünür
eler ek
g elerek
man ını
at manını
k atmanını
tır man
ış tırman
yap ıştırman
yapıştırman ız
yapıştırmanız ı
er iyor
ön eriyor
öneriyor um
ğer siz
de ğersiz
üzer im
üzerim e
dır man
lan dırman
landırman ın
ç landırmanın
u çlandırmanın
son uçlandırmanın
tar man
ak tarman
aktarman ın
otel im
otelim iz
otelimiz de
kar art
karart ma
leş mek
yer leşmek
yerleşmek te
h ların
a hların
il ahların
s ilahların
am lama
c amlama
ar inin
im arinin
m imarinin
dan tel
yer den
ad ınız
adınız a
gel mek
gelmek te
ran mas
ranmas ını
p ranmasını
ı pranmasını
y ıpranmasını
ed ürün
s edürün
ro sedürün
p rosedürün
prosedürün ü
ak alan
akalan ma
Y akalanma
iyi dir
ar ının
g arının
o garının
ot ogarının
der dir
on derdir
sek onderdir
kal mak
bir bir
birbir im
birbirim iz
birbirimiz e
ran mak
v ranmak
da vranmak
der ile
derile bilir
ön derilebilir
g önderilebilir
ken den
r kenden
E rkenden
eş inde
p eşinde
ım ınız
laş ımınız
ak laşımınız
y aklaşımınız
yaklaşımınız ı
ış ınız
y ışınız
la yışınız
an layışınız
zaman k
zamank i
tan tik
O tantik
çık lık
çıklık lı
a çıklıklı
man tar
ön elik
y önelik
ma daki
çalış madaki
lama dı
ı lamadı
ş ılamadı
kar şılamadı
siniz s
abilir sinizs
yap abilirsinizs
op lama
t oplama
çek ile
çekile bilir
bil eti
ed en
eden leri
n edenleri
değiştirm eden
gerekm eden
ilm eden
ed ilmeden
er eden
n ereden
ir eden
da ireden
eden ce
B edence
eden im
b edenim
it eden
kal iteden
et im
etim ini
ür etimini
etim ler
den etimler
etim inin
ön etiminin
y önetiminin
il etim
iletim i
im inin
iş iminin
er işiminin
ğ işiminin
de ğişiminin
etim iy
ön etimiy
önetimiy le
Y önetimiyle
ol du
h an
han ger
et hanger
N ethanger
han ede
ar hanede
um arhanede
K umarhanede
iy e
san iye
der iye
art iye
p artiye
ip manları
ek ipmanları
k ipmanları
E kipmanları
il ik
ilik leri
l ilikleri
ek lilikleri
er eklilikleri
G ereklilikleri
ilik ler
en ilikler
Y enilikler
l ilikler
ir lilikler
k irlilikler
en ilik
y enilik
az ilik
azilik ay
b azilikay
bazilikay ı
il ilik
k ililik
t kililik
E tkililik
ed ir
gerekmekt edir
sür edir
im edir
el imedir
k elimedir
iy edir
san iyedir
m esi
sek mesi
dir mesi
len dirmesi
ğer lendirmesi
e ğerlendirmesi
D eğerlendirmesi
et mesi
l etmesi
iş letmesi
ş letmesi
İ şletmesi
el mesi
ön elmesi
y önelmesi
en mesi
el enmesi
c elenmesi
in celenmesi
ğ mesi
ü ğmesi
d üğmesi
t al
tal ama
ok talama
n oktalama
or talama
yan tal
r yantal
O ryantal
men tal
un mental
g unmental
t ü
tü ler
ün tüler
gör üntüler
görüntüler iniz
görüntüleriniz i
tü leme
ün tüleme
gör üntüleme
el ley
elley in
c elleyin
gün celleyin
c elley
gün celley
güncelley e
güncelleye bil
güncelleyebil e
güncelleyebile ce
çek in
çekin me
çekinme y
çekinmey in
im ser
en imser
b enimser
D elik
tir di
leş tirdi
çek leştirdi
ger çekleştirdi
gerçekleştirdi ği
m alar
alış malar
Ç alışmalar
alan malar
g alanmalar
al galanmalar
d algalanmalar
tır malar
ş tırmalar
ra ştırmalar
A raştırmalar
ış malar
ak ışmalar
ç akışmalar
iz malar
an izmalar
ek anizmalar
M ekanizmalar
in malar
al inmalar
c alinmalar
l malar
E lmalar
p malar
sa pmalar
calinmalar dan
Çalışmalar ım
Çalışmalarım ız
Çalışmalarımız ın
çakışmalar ın
malar ının
la malarının
u lamalarının
g ulamalarının
uy gulamalarının
malar ında
la malarında
u lamalarında
g ulamalarında
uy gulamalarında
malar ına
çalış malarına
alar ına
am alarına
al amalarına
b alamalarına
om balamalarına
b ombalamalarına
ç alarına
ar çalarına
p arçalarına
malar a
çalış malara
bu gün
ez ine
k ezine
er kezine
m erkezine
var dı
aş ama
aşama ya
çek er
çeker ken
çeker ek
tan ır
den ir
or yan
oryan t
oryant asyon
oryantasyon un
oryantasyonun dan
oryantasyon u
t asyon
men tasyon
mentasyon un
g mentasyonun
i gmentasyonun
p igmentasyonun
gün lü
üz günlü
d üzgünlü
ek lik
n eklik
es neklik
mak am
makam lar
makamlar la
makam ı
tur du
uş turdu
ol uşturdu
ist or
H istor
Histor i
h istor
histor y
iz mas
izmas ının
an izmasının
mek anizmasının
izmas ına
ol izmasına
ab olizmasına
met abolizmasına
il ver
S ilver
Silver l
Silverl ine
ın mış
ar ınmış
az ınmış
K azınmış
im len
imlen dir
iç imlendir
içimlendir di
içimlendirdi ği
b içimlendirdiği
is imlendir
isimlendir m
isimlendirm eler
eç ine
R eçine
r eçine
ken ti
çık tı
çıktı ğı
çıktı s
çıktıs ını
b iniz
e biniz
tal ebiniz
al ebiniz
T alebiniz
Talebiniz i
il den
at ilden
t atilden
S ilden
Silden a
en lem
üz enlem
üzenlem ek
d üzenlemek
on ley
ma ter
mater y
matery al
materyal ler
m ında
ta mında
or tamında
lı mında
ı lımında
z ılımında
ya zılımında
er gel
ergel eri
ön ergeleri
y önergeleri
st ergeleri
ö stergeleri
g östergeleri
gel eri
l geleri
ö lgeleri
B ölgeleri
ış mak
art ışmak
t artışmak
ık ışmak
S ıkışmak
at son
W atson
ark et
m arket
M arket
art ıl
artıl ması
ız artılması
k ızartılması
ab artıl
abartıl dı
ar dan
ay ardan
is ayardan
g isayardan
bil gisayardan
ış ardan
D ışardan
eş leş
eşleş me
eşleşme z
eşleş m
eşleşm iyor
ik tir
it iktir
r itiktir
k ritiktir
ec iktir
g eciktir
geciktir i
geciktiri ci
ay ede
s ayede
im den
it imden
ğ itimden
E ğitimden
c imden
bi cimden
ir ley
irley ebilir
irleyebilir siniz
el irleyebilirsiniz
b elirleyebilirsiniz
el irley
b elirley
belirley i
belirleyi ci
ez isi
G ezisi
lan ca
ab lanca
as ablanca
C asablanca
b lanca
as blanca
C asblanca
man et
E manet
bul uş
buluş t
buluşt u
buluş u
tar et
er han
erhan gi
H erhangi
ur ist
urist ik
T uristik
T urist
ist ik
en istik
el enistik
H elenistik
f istik
o fistik
s ofistik
sofistik e
ara ya
um alı
or umalı
k orumalı
K orumalı
laş ın
u laşın
art ık
lama y
lamay ı
u lamayı
g ulamayı
uy gulamayı
ı lamayı
ş ılamayı
kar şılamayı
gün ün
ön günün
öngünün üz
D öngününüz
lar ak
ı larak
kullan ılarak
et ken
ür etken
ot ter
H otter
l otter
P lotter
al lan
allan ır
allanır sa
s allanırsa
allan ma
s allanma
en ter
enter al
C enter
kon uk
konuk ların
konukların a
arı da
ış arıda
D ışarıda
d ışarıda
t lama
al tlama
f altlama
as faltlama
A tlama
ı lama
at ılama
n atılama
oy natılama
oynatılama z
g ılama
yar gılama
ız dan
am ızdan
az amızdan
ğ azamızdan
a ğazamızdan
M ağazamızdan
h ızdan
or san
uy orsan
bul uyorsan
buluyorsan ız
K orsan
ist es
istes ine
L istesine
l istesine
sit ey
sitey e
en tal
in ental
t inental
kon tinental
on tinental
C ontinental
H ızlı
tir ir
leş tirir
bir leştirir
birleştirir s
birleştirirs en
birleştirirsen iz
birleştirirseniz An
birleştirirsenizAn ti
ş tirir
ile ştirir
iy ileştirir
dır ır
kal dırır
an dırır
uy andırır
an dır
