{
  "<unk>": 0,
  "<pad>": 1,
  " ": 2,
  "!": 3,
  "\"": 4,
  "'": 5,
  "(": 6,
  ")": 7,
  ",": 8,
  "-": 9,
  ".": 10,
  "0": 11,
  "1": 12,
  "2": 13,
  "3": 14,
  "4": 15,
  "5": 16,
  "6": 17,
  "7": 18,
  "8": 19,
  "9": 20,
  ":": 21,
  ";": 22,
  "?": 23,
  "A": 24,
  "B": 25,
  "C": 26,
  "D": 27,
  "E": 28,
  "F": 29,
  "G": 30,
  "H": 31,
  "I": 32,
  "J": 33,
  "K": 34,
  "L": 35,
  "M": 36,
  "N": 37,
  "O": 38,
  "P": 39,
  "Q": 40,
  "R": 41,
  "S": 42,
  "T": 43,
  "U": 44,
  "V": 45,
  "W": 46,
  "X": 47,
  "Y": 48,
  "Z": 49,
  "_": 50,
  "a": 51,
  "b": 52,
  "c": 53,
  "d": 54,
  "e": 55,
  "f": 56,
  "g": 57,
  "h": 58,
  "i": 59,
  "j": 60,
  "k": 61,
  "l": 62,
  "m": 63,
  "n": 64,
  "o": 65,
  "p": 66,
  "q": 67,
  "r": 68,
  "s": 69,
  "t": 70,
  "u": 71,
  "v": 72,
  "w": 73,
  "x": 74,
  "y": 75,
  "z": 76,
  "²": 77,
  "À": 78,
  "Â": 79,
  "Ç": 80,
  "Ð": 81,
  "Ö": 82,
  "Ü": 83,
  "Ý": 84,
  "à": 85,
  "â": 86,
  "ä": 87,
  "æ": 88,
  "ç": 89,
  "ê": 90,
  "ë": 91,
  "í": 92,
  "î": 93,
  "ð": 94,
  "ñ": 95,
  "ô": 96,
  "ö": 97,
  "û": 98,
  "ü": 99,
  "ý": 100,
  "þ": 101,
  "Č": 102,
  "Ğ": 103,
  "ğ": 104,
  "İ": 105,
  "ı": 106,
  "ł": 107,
  "Ş": 108,
  "ş": 109,
  "š": 110,
  "Ə": 111,
  "ə": 112,
  "ɪ": 113,
  "Ε": 114,
  "ά": 115,
  "α": 116,
  "η": 117,
  "ι": 118,
  "κ": 119,
  "λ": 120,
  "ν": 121,
  "А": 122,
  "Е": 123,
  "Ж": 124,
  "З": 125,
  "М": 126,
  "Р": 127,
  "Т": 128,
  "а": 129,
  "в": 130,
  "г": 131,
  "д": 132,
  "е": 133,
  "и": 134,
  "й": 135,
  "к": 136,
  "л": 137,
  "м": 138,
  "н": 139,
  "о": 140,
  "п": 141,
  "р": 142,
  "с": 143,
  "т": 144,
  "у": 145,
  "х": 146,
  "ш": 147,
  "ы": 148,
  "ь": 149,
  "я": 150,
  "א": 151,
  "ב": 152,
  "ה": 153,
  "ו": 154,
  "י": 155,
  "נ": 156,
  "ע": 157,
  "ק": 158,
  "ר": 159,
  "ת": 160,
  "ا": 161,
  "ب": 162,
  "ت": 163,
  "ر": 164,
  "س": 165,
  "ش": 166,
  "ع": 167,
  "و": 168,
  "ي": 169,
  "ک": 170,
  "ی": 171,
  "ộ": 172,
  "₂": 173,
  "ア": 174,
  "タ": 175,
  "ヤ": 176,
  "ル": 177,
  "ン": 178,
  "中": 179,
  "体": 180,
  "文": 181,
  "日": 182,
  "本": 183,
  "简": 184,
  "語": 185,
  "국": 186,
  "어": 187,
  "텔": 188,
  "한": 189,
  "호": 190,
  "ar": 191,
  "er": 192,
  "an": 193,
  "in": 194,
  "ir": 195,
  "il": 196,
  "en": 197,
  "al": 198,
  "ak": 199,
  "ın": 200,
  "el": 201,
  "ek": 202,
  "lar": 203,
  "ve": 204,
  "as": 205,
  "ik": 206,
  "et": 207,
  "es": 208,
  "on": 209,
  "da": 210,
  "la": 211,
  "de": 212,
  "ya": 213,
  "ma": 214,
  "ler": 215,
  "iz": 216,
  "ol": 217,
  "un": 218,
  "or": 219,
  "ır": 220,
  "bir": 221,
  "is": 222,
  "im": 223,
  "em": 224,
  "at": 225,
  "iş": 226,
  "iç": 227,
  "iy": 228,
  "it": 229,
  "ul": 230,
  "lı": 231,
  "ay": 232,
  "bil": 233,
  "lan": 234,
  "ur": 235,
  "ta": 236,
  "için": 237,
  "le": 238,
  "ür": 239,
  "ün": 240,
  "ış": 241,
  "ed": 242,
  "mak": 243,
  "li": 244,
  "ız": 245,
  "am": 246,
  "ot": 247,
  "ası": 248,
  "ük": 249,
  "ık": 250,
  "ları": 251,
  "sa": 252,
  "alar": 253,
  "esi": 254,
  "ka": 255,
  "um": 256,
  "dır": 257,
  "az": 258,
  "ok": 259,
  "ıl": 260,
  "ım": 261,
  "ile": 262,
  "eri": 263,
  "bilir": 264,
  "st": 265,
  "ör": 266,
  "leri": 267,
  "dan": 268,
  "ön": 269,
  "me": 270,
  "üz": 271,
  "ti": 272,
  "uz": 273,
  "ini": 274,
  "ında": 275,
  "ha": 276,
  "ra": 277,
  "ara": 278,
  "ist": 279,
  "ut": 280,
  "ba": 281,
  "ullan": 282,
  "yon": 283,
  "üm": 284,
  "ce": 285,
  "kullan": 286,
  "ların": 287,
  "den": 288,
  "tir": 289,
  "uk": 290,
  "ine": 291,
  "dir": 292,
  "di": 293,
  "iler": 294,
  "inde": 295,
  "mek": 296,
  "man": 297,
  "lik": 298,
  "ey": 299,
  "öz": 300,
  "cı": 301,
  "iniz": 302,
  "uy": 303,
  "olar": 304,
  "tr": 305,
  "bu": 306,
  "te": 307,
  "ip": 308,
  "var": 309,
  "ver": 310,
  "ro": 311,
  "tır": 312,
  "ğı": 313,
  "lem": 314,
  "ter": 315,
  "gi": 316,
  "os": 317,
  "eler": 318,
  "yap": 319,
  "olarak": 320,
  "kon": 321,
  "lık": 322,
  "yük": 323,
  "cak": 324,
  "gel": 325,
  "ını": 326,
  "üş": 327,
  "yan": 328,
  "aları": 329,
  "asyon": 330,
  "ci": 331,
  "kal": 332,
  "len": 333,
  "oğ": 334,
  "ev": 335,
  "om": 336,
  "veya": 337,
  "kar": 338,
  "lıkları": 339,
  "aklıkları": 340,
  "taklıkları": 341,
  "ortaklıkları": 342,
  "şlıkları": 343,
  "lışlıkları": 344,
  "yanlışlıkları": 345,
  "lemeler": 346,
  "enlemeler": 347,
  "üzenlemeler": 348,
  "düzenlemeler": 349,
  "staları": 350,
  "ostaları": 351,
  "postaları": 352,
  "araları": 353,
  "umaraları": 354,
  "numaraları": 355,
  "paraları": 356,
  "lemleri": 357,
  "işlemleri": 358,
  "azaları": 359,
  "ğazaları": 360,
  "mağazaları": 361,
  "inaları": 362,
  "akinaları": 363,
  "Makinaları": 364,
  "diriler": 365,
  "ildiriler": 366,
  "Bildiriler": 367,
  "akaları": 368,
  "lakaları": 369,
  "plakaları": 370,
  "billeri": 371,
  "obilleri": 372,
  "omobilleri": 373,
  "tomobilleri": 374,
  "Otomobilleri": 375,
  "isteler": 376,
  "listeler": 377,
  "danları": 378,
  "üzdanları": 379,
  "cüzdanları": 380,
  "diaları": 381,
  "ddiaları": 382,
  "iddiaları": 383,
  "olaları": 384,
  "molaları": 385,
  "yonları": 386,
  "syonları": 387,
  "üsyonları": 388,
  "olüsyonları": 389,
  "Solüsyonları": 390,
  "asaları": 391,
  "kasaları": 392,
  "kaleler": 393,
  "birleri": 394,
  "birbirleri": 395,
  "ilerler": 396,
  "sek": 397,
  "tik": 398,
  "tikleri": 399,
  "astikleri": 400,
  "lastikleri": 401,
  "ettikleri": 402,
  "settikleri": 403,
  "issettikleri": 404,
  "hissettikleri": 405,
  "kaları": 406,
  "arkaları": 407,
  "markaları": 408,
  "ediler": 409,
  "rediler": 410,
  "krediler": 411,
  "iriler": 412,
  "etiriler": 413,
  "getiriler": 414,
  "eviriler": 415,
  "Çeviriler": 416,
  "deolar": 417,
  "ideolar": 418,
  "Videolar": 419,
  "ınları": 420,
  "ışınları": 421,
  "ipleri": 422,
  "akipleri": 423,
  "rakipleri": 424,
  "hipleri": 425,
  "sahipleri": 426,
  "lanlar": 427,
  "ılanlar": 428,
  "kullanılanlar": 429,
  "planlar": 430,
  "eniler": 431,
  "meniler": 432,
  "ermeniler": 433,
  "rmeniler": 434,
  "Ermeniler": 435,
  "imeler": 436,
  "elimeler": 437,
  "kelimeler": 438,
  "evleri": 439,
  "örevleri": 440,
  "görevleri": 441,
  "alevleri": 442,
  "ineler": 443,
  "makineler": 444,
  "mineler": 445,
  "özleri": 446,
  "gözleri": 447,
  "ıralar": 448,
  "atıralar": 449,
  "hatıralar": 450,
  "sıralar": 451,
  "paları": 452,
  "ompaları": 453,
  "Pompaları": 454,
  "dialar": 455,
  "ddialar": 456,
  "iddialar": 457,
  "itleri": 458,
  "mitleri": 459,
  "şitleri": 460,
  "eşitleri": 461,
  "Çeşitleri": 462,
  "amiler": 463,
  "camiler": 464,
  "eseler": 465,
  "reseler": 466,
  "edreseler": 467,
  "medreseler": 468,
  "keseler": 469,
  "yanlar": 470,
  "mayanlar": 471,
  "olmayanlar": 472,
  "umları": 473,
  "urumları": 474,
  "oturumları": 475,
  "Mumları": 476,
  "birini": 477,
  "aralar": 478,
  "yaralar": 479,
  "eveler": 480,
  "çeveler": 481,
  "erçeveler": 482,
  "çerçeveler": 483,
  "danlar": 484,
  "üzdanlar": 485,
  "cüzdanlar": 486,
  "eç": 487,
  "eçleri": 488,
  "üreçleri": 489,
  "süreçleri": 490,
  "ereçleri": 491,
  "gereçleri": 492,
  "terler": 493,
  "fterler": 494,
  "defterler": 495,
  "lemesi": 496,
  "terlemesi": 497,
  "larlar": 498,
  "ğlarlar": 499,
  "sağlarlar": 500,
  "atleri": 501,
  "saatleri": 502,
  "isleri": 503,
  "esisleri": 504,
  "tesisleri": 505,
  "varlar": 506,
  "uvarlar": 507,
  "atuvarlar": 508,
  "aratuvarlar": 509,
  "baratuvarlar": 510,
  "labaratuvarlar": 511,
  "omları": 512,
  "tomları": 513,
  "ptomları": 514,
  "emptomları": 515,
  "semptomları": 516,
  "umalar": 517,
  "okumalar": 518,
  "aziler": 519,
  "araziler": 520,
  "otalar": 521,
  "rotalar": 522,
  "ireler": 523,
  "aireler": 524,
  "Daireler": 525,
  "denler": 526,
  "madenler": 527,
  "birler": 528,
  "birbirler": 529,
  "karlar": 530,
  "ulları": 531,
  "şulları": 532,
  "oşulları": 533,
  "koşulları": 534,
  "caları": 535,
  "ancaları": 536,
  "bancaları": 537,
  "tabancaları": 538,
  "otları": 539,
  "Botları": 540,
  "irleri": 541,
  "firleri": 542,
  "afirleri": 543,
  "isafirleri": 544,
  "misafirleri": 545,
  "oriler": 546,
  "otoriler": 547,
  "yonlar": 548,
  "isyonlar": 549,
  "zisyonlar": 550,
  "ozisyonlar": 551,
  "Pozisyonlar": 552,
  "esleri": 553,
  "resleri": 554,
  "dresleri": 555,
  "adresleri": 556,
  "üzleri": 557,
  "düzleri": 558,
  "ündüzleri": 559,
  "gündüzleri": 560,
  "lerler": 561,
  "izlerler": 562,
  "aleler": 563,
  "makaleler": 564,
  "akiler": 565,
  "dakiler": 566,
  "ğıdakiler": 567,
  "ağıdakiler": 568,
  "şağıdakiler": 569,
  "aşağıdakiler": 570,
  "ililer": 571,
  "kililer": 572,
  "etkililer": 573,
  "yetkililer": 574,
  "gaları": 575,
  "urgaları": 576,
  "burgaları": 577,
  "kaburgaları": 578,
  "edleri": 579,
  "Pedleri": 580,
  "ikolar": 581,
  "rikolar": 582,
  "krikolar": 583,
  "eyleri": 584,
  "şeyleri": 585,
  "inolar": 586,
  "asinolar": 587,
  "casinolar": 588,
  "olları": 589,
  "yolları": 590,
  "alleri": 591,
  "istalleri": 592,
  "ristalleri": 593,
  "kristalleri": 594,
  "öneler": 595,
  "yöneler": 596,
  "larası": 597,
  "slarası": 598,
  "uslarası": 599,
  "uluslarası": 600,
  "ekeler": 601,
  "bekeler": 602,
  "ebekeler": 603,
  "şebekeler": 604,
  "ükleri": 605,
  "lükleri": 606,
  "ünlükleri": 607,
  "günlükleri": 608,
  "ışları": 609,
  "atışları": 610,
  "satışları": 611,
  "azalar": 612,
  "ğazalar": 613,
  "mağazalar": 614,
  "etiler": 615,
  "letiler": 616,
  "İletiler": 617,
  "inin": 618,
  "ger": 619,
  "dak": 620,
  "uş": 621,
  "uşları": 622,
  "uruşları": 623,
  "vuruşları": 624,
  "dı": 625,
  "gları": 626,
  "ongları": 627,
  "longları": 628,
  "zlongları": 629,
  "ezlongları": 630,
  "şezlongları": 631,
  "ogları": 632,
  "alogları": 633,
  "analogları": 634,
  "makta": 635,
  "maktadır": 636,
  "maktadırlar": 637,
  "unmaktadırlar": 638,
  "ulunmaktadırlar": 639,
  "bulunmaktadırlar": 640,
  "dırlar": 641,
  "ızdırlar": 642,
  "sızdırlar": 643,
  "arsızdırlar": 644,
  "kararsızdırlar": 645,
  "ıdırlar": 646,
  "alıdırlar": 647,
  "malıdırlar": 648,
  "yapmalıdırlar": 649,
  "fleri": 650,
  "ifleri": 651,
  "arifleri": 652,
  "Tarifleri": 653,
  "tarifleri": 654,
  "yları": 655,
  "layları": 656,
  "olayları": 657,
  "dayları": 658,
  "adayları": 659,
  "enini": 660,
  "edenini": 661,
  "nedenini": 662,
  "üzenini": 663,
  "düzenini": 664,
  "atini": 665,
  "üratini": 666,
  "süratini": 667,
  "katini": 668,
  "ikkatini": 669,
  "dikkatini": 670,
  "ziler": 671,
  "eziler": 672,
  "geziler": 673,
  "evler": 674,
  "örevler": 675,
  "görevler": 676,
  "diler": 677,
  "endiler": 678,
  "Kendiler": 679,
  "adiler": 680,
  "vadiler": 681,
  "sları": 682,
  "ursları": 683,
  "kursları": 684,
  "dları": 685,
  "andları": 686,
  "standları": 687,
  "odları": 688,
  "kodları": 689,
  "arkodları": 690,
  "barkodları": 691,
  "üşler": 692,
  "örüşler": 693,
  "görüşler": 694,
  "alesi": 695,
  "halesi": 696,
  "dahalesi": 697,
  "üdahalesi": 698,
  "müdahalesi": 699,
  "Kalesi": 700,
  "çleri": 701,
  "ençleri": 702,
  "irençleri": 703,
  "Dirençleri": 704,
  "inçleri": 705,
  "vinçleri": 706,
  "iresi": 707,
  "dairesi": 708,
  "airesi": 709,
  "Dairesi": 710,
  "urlar": 711,
  "turlar": 712,
  "surlar": 713,
  "unsurlar": 714,
  "atası": 715,
  "alatası": 716,
  "Salatası": 717,
  "hatası": 718,
  "izesi": 719,
  "Vizesi": 720,
  "eVizesi": 721,
  "vizesi": 722,
  "liler": 723,
  "evliler": 724,
  "örevliler": 725,
  "görevliler": 726,
  "işliler": 727,
  "dişliler": 728,
  "palar": 729,
  "ompalar": 730,
  "pompalar": 731,
  "halar": 732,
  "evhalar": 733,
  "Levhalar": 734,
  "vhalar": 735,
  "levhalar": 736,
  "özler": 737,
  "gözler": 738,
  "ollar": 739,
  "yollar": 740,
  "itası": 741,
  "aritası": 742,
  "haritası": 743,
  "Haritası": 744,
  "orlar": 745,
  "iyorlar": 746,
  "ediyorlar": 747,
  "yorlar": 748,
  "üyorlar": 749,
  "lüyorlar": 750,
  "ylüyorlar": 751,
  "öylüyorlar": 752,
  "söylüyorlar": 753,
  "uşlar": 754,
  "uluşlar": 755,
  "uruluşlar": 756,
  "kuruluşlar": 757,
  "tuşlar": 758,
  "kartuşlar": 759,
  "golar": 760,
  "ogolar": 761,
  "logolar": 762,
  "eyini": 763,
  "üzeyini": 764,
  "düzeyini": 765,
  "yüzeyini": 766,
  "zleri": 767,
  "ezleri": 768,
  "erezleri": 769,
  "Çerezleri": 770,
  "çerezleri": 771,
  "hları": 772,
  "bahları": 773,
  "sabahları": 774,
  "ahları": 775,
  "gahları": 776,
  "zgahları": 777,
  "ezgahları": 778,
  "Tezgahları": 779,
  "lılar": 780,
  "caklılar": 781,
  "acaklılar": 782,
  "alacaklılar": 783,
  "arlılar": 784,
  "ararlılar": 785,
  "Zararlılar": 786,
  "İleri": 787,
  "sun": 788,
  "edler": 789,
  "Pedler": 790,
  "aslar": 791,
  "esaslar": 792,
  "amini": 793,
  "itamini": 794,
  "vitamini": 795,
  "viler": 796,
  "vilerini": 797,
  "davilerini": 798,
  "tedavilerini": 799,
  "calar": 800,
  "macalar": 801,
  "ulmacalar": 802,
  "Bulmacalar": 803,
  "biler": 804,
  "obiler": 805,
  "Hobiler": 806,
  "şeler": 807,
  "teşeler": 808,
  "enteşeler": 809,
  "menteşeler": 810,
  "riler": 811,
  "striler": 812,
  "üstriler": 813,
  "düstriler": 814,
  "endüstriler": 815,
  "zları": 816,
  "ozları": 817,
  "tozları": 818,
  "hleri": 819,
  "ihleri": 820,
  "arihleri": 821,
  "tarihleri": 822,
  "ailer": 823,
  "Nailer": 824,
  "elesi": 825,
  "eselesi": 826,
  "meselesi": 827,
  "ederi": 828,
  "rederi": 829,
  "Frederi": 830,
  "trası": 831,
  "estrası": 832,
  "kestrası": 833,
  "rkestrası": 834,
  "Orkestrası": 835,
  "etesi": 836,
  "eçetesi": 837,
  "reçetesi": 838,
  "ümesi": 839,
  "cümesi": 840,
  "tercümesi": 841,
  "ekeri": 842,
  "şekeri": 843,
  "kları": 844,
  "ankları": 845,
  "tankları": 846,
  "imesi": 847,
  "kimesi": 848,
  "eskimesi": 849,
  "teler": 850,
  "enteler": 851,
  "centeler": 852,
  "acenteler": 853,
  "kleri": 854,
  "iskleri": 855,
  "riskleri": 856,
  "oller": 857,
  "okoller": 858,
  "otokoller": 859,
  "rotokoller": 860,
  "protokoller": 861,
  "ışlar": 862,
  "anışlar": 863,
  "ranışlar": 864,
  "vranışlar": 865,
  "avranışlar": 866,
  "Davranışlar": 867,
  "dılar": 868,
  "adılar": 869,
  "Cadılar": 870,
  "lalar": 871,
  "illalar": 872,
  "Villalar": 873,
  "ilesi": 874,
  "Ailesi": 875,
  "illar": 876,
  "pillar": 877,
  "erpillar": 878,
  "aterpillar": 879,
  "Caterpillar": 880,
  "vleri": 881,
  "devleri": 882,
  "azesi": 883,
  "pazesi": 884,
  "elpazesi": 885,
  "yelpazesi": 886,
  "üzesi": 887,
  "Müzesi": 888,
  "dolar": 889,
  "inini": 890,
  "pinini": 891,
  "Spinini": 892,
  "mları": 893,
  "damları": 894,
  "adamları": 895,
  "isesi": 896,
  "ilisesi": 897,
  "Kilisesi": 898,
  "nleri": 899,
  "ynleri": 900,
  "veynleri": 901,
  "eveynleri": 902,
  "beveynleri": 903,
  "ebeveynleri": 904,
  "oklar": 905,
  "stoklar": 906,
  "ırası": 907,
  "sırası": 908,
  "ayini": 909,
  "sleri": 910,
  "üsleri": 911,
  "süsleri": 912,
  "tolar": 913,
  "estolar": 914,
  "otestolar": 915,
  "rotestolar": 916,
  "protestolar": 917,
  "esesi": 918,
  "resesi": 919,
  "edresesi": 920,
  "Medresesi": 921,
  "ipler": 922,
  "akipler": 923,
  "rakipler": 924,
  "beler": 925,
  "belerini": 926,
  "übelerini": 927,
  "rübelerini": 928,
  "crübelerini": 929,
  "tecrübelerini": 930,
  "ilini": 931,
  "zilini": 932,
  "enzilini": 933,
  "menzilini": 934,
  "feler": 935,
  "kafeler": 936,
  "celer": 937,
  "ünceler": 938,
  "üşünceler": 939,
  "düşünceler": 940,
  "ineri": 941,
  "fineri": 942,
  "rafineri": 943,
  "oslar": 944,
  "soslar": 945,
  "bilar": 946,
  "iteri": 947,
  "riteri": 948,
  "kriteri": 949,
  "zalar": 950,
  "mzalar": 951,
  "İmzalar": 952,
  "falar": 953,
  "defalar": 954,
  "Solar": 955,
  "cini": 956,
  "ecini": 957,
  "ürecini": 958,
  "sürecini": 959,
  "hası": 960,
  "evhası": 961,
  "Levhası": 962,
  "ahası": 963,
  "Dahası": 964,
  "ylar": 965,
  "laylar": 966,
  "olaylar": 967,
  "oylar": 968,
  "Koylar": 969,
  "çesi": 970,
  "hçesi": 971,
  "ahçesi": 972,
  "Bahçesi": 973,
  "dler": 974,
  "tidler": 975,
  "ptidler": 976,
  "eptidler": 977,
  "peptidler": 978,
  "idler": 979,
  "oidler": 980,
  "eroidler": 981,
  "steroidler": 982,
  "vler": 983,
  "vlerini": 984,
  "devlerini": 985,
  "ödevlerini": 986,
  "levler": 987,
  "işlevler": 988,
  "yesi": 989,
  "üyesi": 990,
  "mler": 991,
  "ilmler": 992,
  "filmler": 993,
  "kesi": 994,
  "fini": 995,
  "eyfini": 996,
  "keyfini": 997,
  "lifini": 998,
  "eklifini": 999,
  "teklifini": 1000,
  "Deri": 1001,
  "peri": 1002,
  "uperi": 1003,
  "superi": 1004,
  "bini": 1005,
  "kalbini": 1006,
  "obini": 1007,
  "Bobini": 1008,
  "kini": 1009,
  "iskini": 1010,
  "diskini": 1011,
  "riskini": 1012,
  "Olar": 1013,
  "çası": 1014,
  "ırçası": 1015,
  "Fırçası": 1016,
  "arçası": 1017,
  "parçası": 1018,
  "Pini": 1019,
  "nler": 1020,
  "ynler": 1021,
  "veynler": 1022,
  "eveynler": 1023,
  "beveynler": 1024,
  "ebeveynler": 1025,
  "Ebeveynler": 1026,
  "elar": 1027,
  "Belar": 1028,
  "Geri": 1029,
  "ğesi": 1030,
  "öğesi": 1031,
  "jlar": 1032,
  "ajlar": 1033,
  "alajlar": 1034,
  "balajlar": 1035,
  "ambalajlar": 1036,
  "bler": 1037,
  "abler": 1038,
  "nabler": 1039,
  "Enabler": 1040,
  "tini": 1041,
  "vetini": 1042,
  "vvetini": 1043,
  "uvvetini": 1044,
  "kuvvetini": 1045,
  "lini": 1046,
  "Clini": 1047,
  "Resi": 1048,
  "sesi": 1049,
  "rosesi": 1050,
  "prosesi": 1051,
  "uini": 1052,
  "Luini": 1053,
  "Kesi": 1054,
  "glar": 1055,
  "onglar": 1056,
  "longlar": 1057,
  "zlonglar": 1058,
  "ezlonglar": 1059,
  "şezlonglar": 1060,
  "şesi": 1061,
  "öşesi": 1062,
  "köşesi": 1063,
  "xlar": 1064,
  "oxlar": 1065,
  "Boxlar": 1066,
  "dlar": 1067,
  "odlar": 1068,
  "oodlar": 1069,
  "loodlar": 1070,
  "floodlar": 1071,
  "ilar": 1072,
  "azilar": 1073,
  "bazilar": 1074,
  "pini": 1075,
  "tipini": 1076,
  "Dini": 1077,
  "Seri": 1078,
  "fası": 1079,
  "kafası": 1080,
  "eini": 1081,
  "oteini": 1082,
  "roteini": 1083,
  "proteini": 1084,
  "pler": 1085,
  "epler": 1086,
  "alepler": 1087,
  "talepler": 1088,
  "Tlar": 1089,
  "OTlar": 1090,
  "DOTlar": 1091,
  "rini": 1092,
  "Trini": 1093,
  "gini": 1094,
  "engini": 1095,
  "rengini": 1096,
  "şası": 1097,
  "inşası": 1098,
  "lesi": 1099,
  "zlesi": 1100,
  "ezlesi": 1101,
  "nezlesi": 1102,
  "pesi": 1103,
  "epesi": 1104,
  "Tepesi": 1105,
  "deri": 1106,
  "Mesi": 1107,
  "vlar": 1108,
  "avlar": 1109,
  "ınavlar": 1110,
  "sınavlar": 1111,
  "vası": 1112,
  "havası": 1113,
  "Mini": 1114,
  "zlar": 1115,
  "ozlar": 1116,
  "nozlar": 1117,
  "ornozlar": 1118,
  "bornozlar": 1119,
  "Bini": 1120,
  "şini": 1121,
  "eşini": 1122,
  "beşini": 1123,
  "yeri": 1124,
  "ðini": 1125,
  "iðini": 1126,
  "iliðini": 1127,
  "liliðini": 1128,
  "ekliliðini": 1129,
  "ürekliliðini": 1130,
  "sürekliliðini": 1131,
  "ola": 1132,
  "tı": 1133,
  "tıları": 1134,
  "lantıları": 1135,
  "plantıları": 1136,
  "oplantıları": 1137,
  "toplantıları": 1138,
  "tılar": 1139,
  "ıntılar": 1140,
  "rıntılar": 1141,
  "ayrıntılar": 1142,
  "re": 1143,
  "bul": 1144,
  "ab": 1145,
  "abalar": 1146,
  "çabalar": 1147,
  "abası": 1148,
  "asabası": 1149,
  "kasabası": 1150,
  "oy": 1151,
  "ması": 1152,
  "dırması": 1153,
  "landırması": 1154,
  "tlandırması": 1155,
  "yatlandırması": 1156,
  "iyatlandırması": 1157,
  "fiyatlandırması": 1158,
  "tırması": 1159,
  "ştırması": 1160,
  "araştırması": 1161,
  "irması": 1162,
  "firması": 1163,
  "izması": 1164,
  "anizması": 1165,
  "mekanizması": 1166,
  "ekanizması": 1167,
  "Mekanizması": 1168,
  "asması": 1169,
  "basması": 1170,
  "alması": 1171,
  "orması": 1172,
  "forması": 1173,
  "iforması": 1174,
  "üniforması": 1175,
  "uyması": 1176,
  "urması": 1177,
  "durması": 1178,
  "undurması": 1179,
  "bulundurması": 1180,
  "akması": 1181,
  "şması": 1182,
  "laşması": 1183,
  "tılaşması": 1184,
  "htılaşması": 1185,
  "ıhtılaşması": 1186,
  "pıhtılaşması": 1187,
  "taşması": 1188,
  "tması": 1189,
  "latması": 1190,
  "ınlatması": 1191,
  "dınlatması": 1192,
  "aydınlatması": 1193,
  "eti": 1194,
  "son": 1195,
  "sonları": 1196,
  "isi": 1197,
  "ğer": 1198,
  "ına": 1199,
  "Bu": 1200,
  "du": 1201,
  "otel": 1202,
  "00": 1203,
  "ından": 1204,
  "daha": 1205,
  "ca": 1206,
  "lama": 1207,
  "art": 1208,
  "artları": 1209,
  "şartları": 1210,
  "artesi": 1211,
  "umartesi": 1212,
  "Cumartesi": 1213,
  "tesi": 1214,
  "ertesi": 1215,
  "ltesi": 1216,
  "ültesi": 1217,
  "akültesi": 1218,
  "Fakültesi": 1219,
  "gör": 1220,
  "ap": 1221,
  "apları": 1222,
  "esapları": 1223,
  "hesapları": 1224,
  "laş": 1225,
  "tek": 1226,
  "tekler": 1227,
  "estekler": 1228,
  "destekler": 1229,
  "tan": 1230,
  "tanesi": 1231,
  "estanesi": 1232,
  "kestanesi": 1233,
  "anesi": 1234,
  "hanesi": 1235,
  "phanesi": 1236,
  "üphanesi": 1237,
  "tüphanesi": 1238,
  "ütüphanesi": 1239,
  "Kütüphanesi": 1240,
  "kütüphanesi": 1241,
  "der": 1242,
  "derler": 1243,
  "liderler": 1244,
  "oderler": 1245,
  "koderler": 1246,
  "nkoderler": 1247,
  "Enkoderler": 1248,
  "özel": 1249,
  "met": 1250,
  "metini": 1251,
  "izmetini": 1252,
  "hizmetini": 1253,
  "alış": 1254,
  "ınız": 1255,
  "ilm": 1256,
  "sı": 1257,
  "bi": 1258,
  "lu": 1259,
  "luları": 1260,
  "vluları": 1261,
  "havluları": 1262,
  "lular": 1263,
  "oylular": 1264,
  "soylular": 1265,
  "ama": 1266,
  "eş": 1267,
  "ileri": 1268,
  "terileri": 1269,
  "üşterileri": 1270,
  "müşterileri": 1271,
  "izileri": 1272,
  "Dizileri": 1273,
  "jileri": 1274,
  "ojileri": 1275,
  "olojileri": 1276,
  "nolojileri": 1277,
  "eknolojileri": 1278,
  "Teknolojileri": 1279,
  "zileri": 1280,
  "ezileri": 1281,
  "gezileri": 1282,
  "dileri": 1283,
  "endileri": 1284,
  "kendileri": 1285,
  "iştir": 1286,
  "tar": 1287,
  "yıl": 1288,
  "ıllar": 1289,
  "Yıllar": 1290,
  "çık": 1291,
  "çıklar": 1292,
  "açıklar": 1293,
  "siz": 1294,
  "sizleri": 1295,
  "ersizleri": 1296,
  "zersizleri": 1297,
  "gzersizleri": 1298,
  "egzersizleri": 1299,
  "sizler": 1300,
  "ersizler": 1301,
  "zersizler": 1302,
  "gzersizler": 1303,
  "egzersizler": 1304,
  "ği": 1305,
  "aman": 1306,
  "leş": 1307,
  "alı": 1308,
  "mış": 1309,
  "ül": 1310,
  "ller": 1311,
  "öller": 1312,
  "göller": 1313,
  "Eller": 1314,
  "alan": 1315,
  "alanması": 1316,
  "çalanması": 1317,
  "arçalanması": 1318,
  "parçalanması": 1319,
  "galanması": 1320,
  "algalanması": 1321,
  "dalgalanması": 1322,
  "anması": 1323,
  "olanması": 1324,
  "polanması": 1325,
  "depolanması": 1326,
  "ken": 1327,
  "çok": 1328,
  "tak": 1329,
  "taklar": 1330,
  "rtaklar": 1331,
  "Ortaklar": 1332,
  "yer": 1333,
  "yerleri": 1334,
  "yerini": 1335,
  "erini": 1336,
  "berini": 1337,
  "hberini": 1338,
  "ehberini": 1339,
  "Rehberini": 1340,
  "op": 1341,
  "eli": 1342,
  "ıcı": 1343,
  "cıları": 1344,
  "macıları": 1345,
  "uşmacıları": 1346,
  "onuşmacıları": 1347,
  "Konuşmacıları": 1348,
  "ec": 1349,
  "çalış": 1350,
  "daki": 1351,
  "arı": 1352,
  "çıkarı": 1353,
  "ararı": 1354,
  "yararı": 1355,
  "zararı": 1356,
  "Yarı": 1357,
  "yarı": 1358,
  "Uyarı": 1359,
  "sarı": 1360,
  "ad": 1361,
  "adası": 1362,
  "uşadası": 1363,
  "Kuşadası": 1364,
  "eKuşadası": 1365,
  "iyeKuşadası": 1366,
  "hiyeKuşadası": 1367,
  "ethiyeKuşadası": 1368,
  "FethiyeKuşadası": 1369,
  "umFethiyeKuşadası": 1370,
  "rumFethiyeKuşadası": 1371,
  "drumFethiyeKuşadası": 1372,
  "odrumFethiyeKuşadası": 1373,
  "BodrumFethiyeKuşadası": 1374,
  "anBodrumFethiyeKuşadası": 1375,
  "VanBodrumFethiyeKuşadası": 1376,
  "saVanBodrumFethiyeKuşadası": 1377,
  "ursaVanBodrumFethiyeKuşadası": 1378,
  "BursaVanBodrumFethiyeKuşadası": 1379,
  "irBursaVanBodrumFethiyeKuşadası": 1380,
  "mirBursaVanBodrumFethiyeKuşadası": 1381,
  "zmirBursaVanBodrumFethiyeKuşadası": 1382,
  "İzmirBursaVanBodrumFethiyeKuşadası": 1383,
  "bulİzmirBursaVanBodrumFethiyeKuşadası": 1384,
  "anbulİzmirBursaVanBodrumFethiyeKuşadası": 1385,
  "stanbulİzmirBursaVanBodrumFethiyeKuşadası": 1386,
  "İstanbulİzmirBursaVanBodrumFethiyeKuşadası": 1387,
  "adesi": 1388,
  "iadesi": 1389,
  "zaman": 1390,
  "bulun": 1391,
  "olan": 1392,
  "olanlar": 1393,
  "her": 1394,
  "ren": 1395,
  "renler": 1396,
  "Frenler": 1397,
  "iyi": 1398,
  "ili": 1399,
  "aş": 1400,
  "aşarı": 1401,
  "Başarı": 1402,
  "iyor": 1403,
  "gen": 1404,
  "tel": 1405,
  "kay": 1406,
  "labaratuvarlardaki": 1407,
  "gerek": 1408,
  "ebilir": 1409,
  "kur": 1410,
  "san": 1411,
  "inesi": 1412,
  "ürün": 1413,
  "ünleri": 1414,
  "rünleri": 1415,
  "Ürünleri": 1416,
  "endüstrilerinde": 1417,
  "aşağıdakilerden": 1418,
  "sür": 1419,
  "üresi": 1420,
  "Süresi": 1421,
  "20": 1422,
  "elik": 1423,
  "elikleri": 1424,
  "itelikleri": 1425,
  "nitelikleri": 1426,
  "onelikleri": 1427,
  "abonelikleri": 1428,
  "elikler": 1429,
  "eliklerini": 1430,
  "celiklerini": 1431,
  "inceliklerini": 1432,
  "delikler": 1433,
  "ının": 1434,
  "egzersizlerden": 1435,
  "kütüphanesidir": 1436,
  "baş": 1437,
  "eni": 1438,
  "ran": 1439,
  "sit": 1440,
  "iteler": 1441,
  "viteler": 1442,
  "tiviteler": 1443,
  "aktiviteler": 1444,
  "ede": 1445,
  "ez": 1446,
  "zler": 1447,
  "mezler": 1448,
  "edemezler": 1449,
  "ozler": 1450,
  "gozler": 1451,
  "aragozler": 1452,
  "Karagozler": 1453,
  "eleri": 1454,
  "siteleri": 1455,
  "lemeleri": 1456,
  "enlemeleri": 1457,
  "üzenlemeleri": 1458,
  "düzenlemeleri": 1459,
  "taneleri": 1460,
  "iyeleri": 1461,
  "eviyeleri": 1462,
  "seviyeleri": 1463,
  "iteleri": 1464,
  "viteleri": 1465,
  "tiviteleri": 1466,
  "aktiviteleri": 1467,
  "niteleri": 1468,
  "Üniteleri": 1469,
  "işeleri": 1470,
  "şişeleri": 1471,
  "lişeleri": 1472,
  "klişeleri": 1473,
  "emeleri": 1474,
  "zemeleri": 1475,
  "alzemeleri": 1476,
  "malzemeleri": 1477,
  "Malzemeleri": 1478,
  "ireleri": 1479,
  "daireleri": 1480,
  "eceleri": 1481,
  "geceleri": 1482,
  "aleleri": 1483,
  "elaleleri": 1484,
  "şelaleleri": 1485,
  "ileleri": 1486,
  "hileleri": 1487,
  "ğeleri": 1488,
  "Öğeleri": 1489,
  "öğeleri": 1490,
  "deleri": 1491,
  "ordeleri": 1492,
  "Kordeleri": 1493,
  "erdeleri": 1494,
  "perdeleri": 1495,
  "jeleri": 1496,
  "rojeleri": 1497,
  "projeleri": 1498,
  "yeleri": 1499,
  "üyeleri": 1500,
  "seleri": 1501,
  "isseleri": 1502,
  "hisseleri": 1503,
  "peleri": 1504,
  "tepeleri": 1505,
  "veleri": 1506,
  "yveleri": 1507,
  "meyveleri": 1508,
  "şeleri": 1509,
  "teşeleri": 1510,
  "enteşeleri": 1511,
  "Menteşeleri": 1512,
  "ark": 1513,
  "kalar": 1514,
  "alkalar": 1515,
  "halkalar": 1516,
  "kası": 1517,
  "apkası": 1518,
  "şapkası": 1519,
  "Şapkası": 1520,
  "çalışmaktadır": 1521,
  "peptidlerinin": 1522,
  "makinelerinin": 1523,
  "birbirlerinin": 1524,
  "kuruluşlardır": 1525,
  "düzenlemelere": 1526,
  "Çevirileriniz": 1527,
  "şebekelerinin": 1528,
  "çerçevelerden": 1529,
  "istem": 1530,
  "istemler": 1531,
  "sistemler": 1532,
  "istemini": 1533,
  "sistemini": 1534,
  "emleri": 1535,
  "temleri": 1536,
  "öntemleri": 1537,
  "Yöntemleri": 1538,
  "yöntemleri": 1539,
  "sistemlerinde": 1540,
  "ru": 1541,
  "kredileriniz": 1542,
  "kredilerinizi": 1543,
  "Bildirilerin": 1544,
  "okumalarının": 1545,
  "arazilerinde": 1546,
  "otorilerinin": 1547,
  "kaburgalarıy": 1548,
  "kaburgalarıyla": 1549,
  "sınavlarında": 1550,
  "rakiplerinin": 1551,
  "düşüncelerin": 1552,
  "iştirebilir": 1553,
  "ğiştirebilir": 1554,
  "değiştirebilir": 1555,
  "değiştirebilirs": 1556,
  "değiştirebilirsiniz": 1557,
  "abilir": 1558,
  "bilirler": 1559,
  "arabilirler": 1560,
  "çıkarabilirler": 1561,
  "debilirler": 1562,
  "gidebilirler": 1563,
  "kullanabilir": 1564,
  "bulunabilir": 1565,
  "bulunabilirs": 1566,
  "bulunabilirsiniz": 1567,
  "gibi": 1568,
  "mas": 1569,
  "masalar": 1570,
  "masası": 1571,
  "vi": 1572,
  "od": 1573,
  "steroidlere": 1574,
  "görüşlerine": 1575,
  "getirilerek": 1576,
  "Kendilerine": 1577,
  "Ermenilerin": 1578,
  "floodlardan": 1579,
  "olmayanlara": 1580,
  "yapmaktadır": 1581,
  "Zararlılara": 1582,
  "dırmaktadır": 1583,
  "landırmaktadır": 1584,
  "çlandırmaktadır": 1585,
  "uçlandırmaktadır": 1586,
  "sonuçlandırmaktadır": 1587,
  "mineleriniz": 1588,
  "minelerinizin": 1589,
  "iddialarını": 1590,
  "masalarının": 1591,
  "artmaktadır": 1592,
  "bulunmakta": 1593,
  "bulunmaktadir": 1594,
  "siy": 1595,
  "siyeler": 1596,
  "emsiyeler": 1597,
  "şemsiyeler": 1598,
  "siyesi": 1599,
  "emsiyesi": 1600,
  "şemsiyesi": 1601,
  "vsiyesi": 1602,
  "tavsiyesi": 1603,
  "tur": 1604,
  "res": 1605,
  "resini": 1606,
  "adresini": 1607,
  "An": 1608,
  "yüksek": 1609,
  "ilen": 1610,
  "ilenler": 1611,
  "edilenler": 1612,
  "ilenebilir": 1613,
  "enilenebilir": 1614,
  "Yenilenebilir": 1615,
  "çabalarını": 1616,
  "işlevleriy": 1617,
  "işlevleriyle": 1618,
  "ermenilere": 1619,
  "ormaktadır": 1620,
  "sormaktadır": 1621,
  "madenlerin": 1622,
  "görüşlerim": 1623,
  "görüşlerime": 1624,
  "iddiaların": 1625,
  "planlarken": 1626,
  "unmaktadır": 1627,
  "orunmaktadır": 1628,
  "korunmaktadır": 1629,
  "utmaktadır": 1630,
  "tutmaktadır": 1631,
  "zamanların": 1632,
  "zamanlarına": 1633,
  "listelerin": 1634,
  "yollardaki": 1635,
  "samaktadır": 1636,
  "psamaktadır": 1637,
  "kapsamaktadır": 1638,
  "edilenlere": 1639,
  "olmaktadır": 1640,
  "görevlerin": 1641,
  "görevlerinden": 1642,
  "markalarıy": 1643,
  "markalarıyla": 1644,
  "soylularla": 1645,
  "olanlardır": 1646,
  "ilerlerken": 1647,
  "gün": 1648,
  "günler": 1649,
  "bugünler": 1650,
  "ünler": 1651,
  "rünler": 1652,
  "Ürünler": 1653,
  "bugünlerde": 1654,
  "kan": 1655,
  "kanları": 1656,
  "imkanları": 1657,
  "sunabilir": 1658,
  "yükseklik": 1659,
  "yükseklikler": 1660,
  "isteminde": 1661,
  "sisteminde": 1662,
  "verebilir": 1663,
  "camilerin": 1664,
  "alarından": 1665,
  "malarından": 1666,
  "izmalarından": 1667,
  "anizmalarından": 1668,
  "mekanizmalarından": 1669,
  "çalarından": 1670,
  "arçalarından": 1671,
  "parçalarından": 1672,
  "vardır": 1673,
  "tes": 1674,
  "men": 1675,
  "menler": 1676,
  "itmenler": 1677,
  "ğitmenler": 1678,
  "eğitmenler": 1679,
  "eğitmenlerle": 1680,
  "if": 1681,
  "ifler": 1682,
  "tarifler": 1683,
  "arifler": 1684,
  "Tarifler": 1685,
  "manları": 1686,
  "vadilerde": 1687,
  "çıkabilir": 1688,
  "zamanında": 1689,
  "kullanmas": 1690,
  "kullanmasını": 1691,
  "rotalarım": 1692,
  "rotalarımız": 1693,
  "rotalarımızda": 1694,
  "sizlerden": 1695,
  "direbilir": 1696,
  "lendirebilir": 1697,
  "tlendirebilir": 1698,
  "vetlendirebilir": 1699,
  "vvetlendirebilir": 1700,
  "uvvetlendirebilir": 1701,
  "kuvvetlendirebilir": 1702,
  "şmaktadır": 1703,
  "raşmaktadır": 1704,
  "ğraşmaktadır": 1705,
  "uğraşmaktadır": 1706,
  "amaktadır": 1707,
  "şamaktadır": 1708,
  "yaşamaktadır": 1709,
  "taleplere": 1710,
  "laşabilir": 1711,
  "laşabilirler": 1712,
  "ulaşabilirler": 1713,
  "isteminin": 1714,
  "sisteminin": 1715,
  "şartlarım": 1716,
  "şartlarımız": 1717,
  "şartlarımızı": 1718,
  "gelebilir": 1719,
  "istemiyor": 1720,
  "istemiyorum": 1721,
  "yönelerek": 1722,
  "kullanman": 1723,
  "kullanmanız": 1724,
  "sürebilir": 1725,
  "turabilir": 1726,
  "uşturabilir": 1727,
  "oluşturabilir": 1728,
  "dırabilir": 1729,
  "zdırabilir": 1730,
  "yazdırabilir": 1731,
  "gezilerim": 1732,
  "gezilerimiz": 1733,
  "gezilerimizde": 1734,
  "ımaktadır": 1735,
  "şımaktadır": 1736,
  "taşımaktadır": 1737,
  "keselerin": 1738,
  "defalarca": 1739,
  "isteminiz": 1740,
  "sisteminiz": 1741,
  "sisteminize": 1742,
  "Ürünlerim": 1743,
  "tara": 1744,
  "dur": 1745,
  "makinesi": 1746,
  "alarınız": 1747,
  "atalarınız": 1748,
  "hatalarınız": 1749,
  "alarınızın": 1750,
  "yalarınızın": 1751,
  "eşyalarınızın": 1752,
  "işebilir": 1753,
  "ğişebilir": 1754,
  "değişebilir": 1755,
  "abiliriz": 1756,
  "yapabiliriz": 1757,
  "alanının": 1758,
  "üşebilir": 1759,
  "önüşebilir": 1760,
  "dönüşebilir": 1761,
  "düşebilir": 1762,
  "varların": 1763,
  "varlarının": 1764,
  "uvarlarının": 1765,
  "atuvarlarının": 1766,
  "aratuvarlarının": 1767,
  "abaratuvarlarının": 1768,
  "Labaratuvarlarının": 1769,
  "duvarların": 1770,
  "duvarlarını": 1771,
  "gerekmek": 1772,
  "gerekmekt": 1773,
  "çalıştır": 1774,
  "çalıştırmak": 1775,
  "çalıştırmaktır": 1776,
  "elerinin": 1777,
  "reler": 1778,
  "etreler": 1779,
  "ametreler": 1780,
  "arametreler": 1781,
  "parametreler": 1782,
  "creler": 1783,
  "ücreler": 1784,
  "hücreler": 1785,
  "yelerinin": 1786,
  "lyelerinin": 1787,
  "ölyelerinin": 1788,
  "atölyelerinin": 1789,
  "relerinin": 1790,
  "crelerinin": 1791,
  "ücrelerinin": 1792,
  "hücrelerinin": 1793,
  "kullanış": 1794,
  "kullanışlı": 1795,
  "erebilir": 1796,
  "sterebilir": 1797,
  "österebilir": 1798,
  "gösterebilir": 1799,
  "kullandı": 1800,
  "kullandığı": 1801,
  "kanların": 1802,
  "imkanların": 1803,
  "imkanlarının": 1804,
  "gerektir": 1805,
  "gerektirebilir": 1806,
  "gerektiren": 1807,
  "tirebilir": 1808,
  "leştirebilir": 1809,
  "yerleştirebilir": 1810,
  "yerleştirebiliriz": 1811,
  "ştirebilir": 1812,
  "ileştirebilir": 1813,
  "iyileştirebilir": 1814,
  "eyebilir": 1815,
  "eyebilirler": 1816,
  "deneyebilirler": 1817,
  "ebilirler": 1818,
  "görebilirler": 1819,
  "iyebilirler": 1820,
  "yiyebilirler": 1821,
  "isteyebilir": 1822,
  "isteyebilirs": 1823,
  "isteyebilirsiniz": 1824,
  "likasyon": 1825,
  "likasyonları": 1826,
  "plikasyonları": 1827,
  "omplikasyonları": 1828,
  "komplikasyonları": 1829,
  "plikasyon": 1830,
  "replikasyon": 1831,
  "replikasyonu": 1832,
  "ullanıcı": 1833,
  "ullanıcılar": 1834,
  "Kullanıcılar": 1835,
  "ekler": 1836,
  "edekler": 1837,
  "yedekler": 1838,
  "çekler": 1839,
  "gerçekler": 1840,
  "kekler": 1841,
  "rkekler": 1842,
  "Erkekler": 1843,
  "gerçeklerine": 1844,
  "gerçeklere": 1845,
  "ekleriniz": 1846,
  "enekler": 1847,
  "eçenekler": 1848,
  "seçenekler": 1849,
  "etenekler": 1850,
  "yetenekler": 1851,
  "yeteneklerine": 1852,
  "enekleriniz": 1853,
  "eçenekleriniz": 1854,
  "seçenekleriniz": 1855,
  "seçeneklerinizi": 1856,
  "eklerdir": 1857,
  "eceklerdir": 1858,
  "bileceklerdir": 1859,
  "abileceklerdir": 1860,
  "laşabileceklerdir": 1861,
  "ulaşabileceklerdir": 1862,
  "yapabileceklerdir": 1863,
  "likler": 1864,
  "terlikler": 1865,
  "iklikler": 1866,
  "işiklikler": 1867,
  "ğişiklikler": 1868,
  "değişiklikler": 1869,
  "inlikler": 1870,
  "kinlikler": 1871,
  "etkinlikler": 1872,
  "tkinlikler": 1873,
  "Etkinlikler": 1874,
  "iplikler": 1875,
  "iflikler": 1876,
  "fiflikler": 1877,
  "hafiflikler": 1878,
  "değişikliklerin": 1879,
  "ipliklerle": 1880,
  "liklerine": 1881,
  "özelliklerine": 1882,
  "sağ": 1883,
  "kurların": 1884,
  "kurlarından": 1885,
  "zamandır": 1886,
  "öğesidir": 1887,
  "alıların": 1888,
  "ikalıların": 1889,
  "rikalıların": 1890,
  "frikalıların": 1891,
  "Afrikalıların": 1892,
  "ekebilir": 1893,
  "çekebilir": 1894,
  "günlerde": 1895,
  "alardaki": 1896,
  "talardaki": 1897,
  "oktalardaki": 1898,
  "noktalardaki": 1899,
  "ilerinde": 1900,
  "kilerinde": 1901,
  "işkilerinde": 1902,
  "ilişkilerinde": 1903,
  "lanların": 1904,
  "planların": 1905,
  "planlarını": 1906,
  "ışabilir": 1907,
  "karışabilir": 1908,
  "unabilir": 1909,
  "unabilirler": 1910,
  "okunabilirler": 1911,
  "dokunabilirler": 1912,
  "kariştir": 1913,
  "kariştirin": 1914,
  "bazilari": 1915,
  "kullanil": 1916,
  "kullanilmakta": 1917,
  "ilabilir": 1918,
  "dirilabilir": 1919,
  "landirilabilir": 1920,
  "flandirilabilir": 1921,
  "iniflandirilabilir": 1922,
  "sini": 1923,
  "ersini": 1924,
  "mersini": 1925,
  "anmersini": 1926,
  "abanmersini": 1927,
  "Yabanmersini": 1928,
  "aksini": 1929,
  "siniflandirilabilir": 1930,
  "gözlerim": 1931,
  "gözlerimiz": 1932,
  "gözlerimizin": 1933,
  "Başarısı": 1934,
  "yollarda": 1935,
  "oteliniz": 1936,
  "otelinizde": 1937,
  "göllerin": 1938,
  "karlarla": 1939,
  "amanlama": 1940,
  "Zamanlama": 1941,
  "yılların": 1942,
  "yıllarından": 1943,
  "yonların": 1944,
  "isyonların": 1945,
  "zisyonların": 1946,
  "ozisyonların": 1947,
  "pozisyonların": 1948,
  "pozisyonlarına": 1949,
  "asyondan": 1950,
  "imasyondan": 1951,
  "rimasyondan": 1952,
  "akrimasyondan": 1953,
  "lakrimasyondan": 1954,
  "manların": 1955,
  "uzmanların": 1956,
  "arabilir": 1957,
  "onarabilir": 1958,
  "yanların": 1959,
  "layanların": 1960,
  "başlayanların": 1961,
  "çıkarıla": 1962,
  "çıkarılabilir": 1963,
  "takların": 1964,
  "ortakların": 1965,
  "ortaklarına": 1966,
  "sanların": 1967,
  "insanların": 1968,
  "sıralara": 1969,
  "edilerek": 1970,
  "eleriniz": 1971,
  "elerinizin": 1972,
  "yelerinizin": 1973,
  "üyelerinizin": 1974,
  "uşabilir": 1975,
  "oluşabilir": 1976,
  "istemine": 1977,
  "sistemine": 1978,
  "superior": 1979,
  "yanından": 1980,
  "ınındaki": 1981,
  "akınındaki": 1982,
  "Yakınındaki": 1983,
  "kalelere": 1984,
  "iştirmen": 1985,
  "iştirmeniz": 1986,
  "ğiştirmeniz": 1987,
  "değiştirmeniz": 1988,
  "etebilir": 1989,
  "üketebilir": 1990,
  "tüketebilir": 1991,
  "bulunama": 1992,
  "bulunamadı": 1993,
  "özebilir": 1994,
  "çözebilir": 1995,
  "çözebilirs": 1996,
  "çözebilirsiniz": 1997,
  "liklerin": 1998,
  "özelliklerin": 1999,
  "ürünler": 2000,
  "ürünlerini": 2001,
  "ürünlerinin": 2002,
  "ürünlerden": 2003,
  "ürünlerim": 2004,
  "ürünlerimiz": 2005,
  "ürünlerimizin": 2006,
  "ürünlerin": 2007,
  "ürünlerle": 2008,
  "ürünlerde": 2009,
  "ürünlere": 2010,
  "esini": 2011,
  "ilmesini": 2012,
  "edilmesini": 2013,
  "istesini": 2014,
  "listesini": 2015,
  "nlistesini": 2016,
  "ornlistesini": 2017,
  "Hornlistesini": 2018,
  "aresini": 2019,
  "emaresini": 2020,
  "ümesini": 2021,
  "yümesini": 2022,
  "üyümesini": 2023,
  "büyümesini": 2024,
  "gesini": 2025,
  "dengesini": 2026,
  "imgesini": 2027,
  "simgesini": 2028,
  "jesini": 2029,
  "rojesini": 2030,
  "Projesini": 2031,
  "desini": 2032,
  "üzdesini": 2033,
  "yüzdesini": 2034,
  "hesini": 2035,
  "phesini": 2036,
  "cephesini": 2037,
  "fesini": 2038,
  "afesini": 2039,
  "esafesini": 2040,
  "mesafesini": 2041,
  "yesini": 2042,
  "vyesini": 2043,
  "lavyesini": 2044,
  "klavyesini": 2045,
  "izmet": 2046,
  "izmetiniz": 2047,
  "izmetinizde": 2048,
  "hizmetinizde": 2049,
  "izmetinde": 2050,
  "hizmetinde": 2051,
  "ıla": 2052,
  "ley": 2053,
  "yar": 2054,
  "ürasyon": 2055,
  "ürasyonda": 2056,
  "gürasyonda": 2057,
  "igürasyonda": 2058,
  "figürasyonda": 2059,
  "konfigürasyonda": 2060,
  "gürasyon": 2061,
  "igürasyon": 2062,
  "figürasyon": 2063,
  "konfigürasyon": 2064,
  "gibidir": 2065,
  "çalıştı": 2066,
  "alanmış": 2067,
  "alanmıştır": 2068,
  "malanmıştır": 2069,
  "armalanmıştır": 2070,
  "sarmalanmıştır": 2071,
  "akalanmış": 2072,
  "Yakalanmış": 2073,
  "ınızdan": 2074,
  "azınızdan": 2075,
  "hazınızdan": 2076,
  "cihazınızdan": 2077,
  "ğınızdan": 2078,
  "dığınızdan": 2079,
  "aldığınızdan": 2080,
  "ımların": 2081,
  "kullanımların": 2082,
  "kullanımlarınız": 2083,
  "kullanımlarınıza": 2084,
  "kullanımlarını": 2085,
  "kullana": 2086,
  "kullanaca": 2087,
  "yapının": 2088,
  "tyapının": 2089,
  "altyapının": 2090,
  "lanlama": 2091,
  "planlama": 2092,
  "ulların": 2093,
  "ullarından": 2094,
  "sullarından": 2095,
  "hsullarından": 2096,
  "əhsullarından": 2097,
  "məhsullarından": 2098,
  "şulların": 2099,
  "oşulların": 2100,
  "koşulların": 2101,
  "koşullarına": 2102,
  "geliyor": 2103,
  "geliyorm": 2104,
  "geliyormuş": 2105,
  "leminin": 2106,
  "işleminin": 2107,
  "sundaki": 2108,
  "usundaki": 2109,
  "konusundaki": 2110,
  "izmetim": 2111,
  "izmetimiz": 2112,
  "izmetimizi": 2113,
  "Hizmetimizi": 2114,
  "hizmetimizi": 2115,
  "alasyon": 2116,
  "halasyon": 2117,
  "inhalasyon": 2118,
  "reasyon": 2119,
  "ekreasyon": 2120,
  "ekreasyonal": 2121,
  "rekreasyonal": 2122,
  "Rekreasyon": 2123,
  "ilerden": 2124,
  "terilerden": 2125,
  "akterilerden": 2126,
  "bakterilerden": 2127,
  "kilerden": 2128,
  "işkilerden": 2129,
  "lişkilerden": 2130,
  "İlişkilerden": 2131,
  "elerden": 2132,
  "melerden": 2133,
  "demelerden": 2134,
  "ödemelerden": 2135,
  "etmelerden": 2136,
  "letmelerden": 2137,
  "işletmelerden": 2138,
  "apların": 2139,
  "aplarınız": 2140,
  "vaplarınız": 2141,
  "cevaplarınız": 2142,
  "cevaplarınızı": 2143,
  "esapların": 2144,
  "hesapların": 2145,
  "hesaplarını": 2146,
  "iyorsun": 2147,
  "istiyorsun": 2148,
  "istiyorsunuz": 2149,
  "ediyorsun": 2150,
  "ediyorsunuz": 2151,
  "liklere": 2152,
  "özelliklere": 2153,
  "trasyon": 2154,
  "trasyonları": 2155,
  "santrasyonları": 2156,
  "konsantrasyonları": 2157,
  "iltrasyon": 2158,
  "filtrasyon": 2159,
  "bulunma": 2160,
  "bulunmamaktadır": 2161,
  "mamaktadır": 2162,
  "olmamaktadır": 2163,
  "anmamaktadır": 2164,
  "aranmamaktadır": 2165,
  "izmetin": 2166,
  "izmetinden": 2167,
  "hizmetinden": 2168,
  "hizmetin": 2169,
  "yerinde": 2170,
  "yerindey": 2171,
  "yerindeyken": 2172,
  "omların": 2173,
  "onomların": 2174,
  "tronomların": 2175,
  "astronomların": 2176,
  "tomların": 2177,
  "ptomların": 2178,
  "emptomların": 2179,
  "semptomların": 2180,
  "birinin": 2181,
  "okasyon": 2182,
  "olokasyon": 2183,
  "rolokasyon": 2184,
  "ikrolokasyon": 2185,
  "mikrolokasyon": 2186,
  "lokasyon": 2187,
  "lokasyonu": 2188,
  "olasyon": 2189,
  "izolasyon": 2190,
  "izolasyonlu": 2191,
  "zolasyon": 2192,
  "İzolasyon": 2193,
  "ilendir": 2194,
  "ilendirile": 2195,
  "ilendirilebilir": 2196,
  "gilendirilebilir": 2197,
  "vergilendirilebilir": 2198,
  "ilendirme": 2199,
  "gilendirme": 2200,
  "ilgilendirme": 2201,
  "Bilgilendirme": 2202,
  "alandır": 2203,
  "alandırma": 2204,
  "zalandırma": 2205,
  "cezalandırma": 2206,
  "cezalandırmaz": 2207,
  "uralandır": 2208,
  "aturalandır": 2209,
  "aturalandırıl": 2210,
  "aturalandırılması": 2211,
  "faturalandırılması": 2212,
  "indedir": 2213,
  "isindedir": 2214,
  "tisindedir": 2215,
  "antisindedir": 2216,
  "arantisindedir": 2217,
  "garantisindedir": 2218,
  "esindedir": 2219,
  "fesindedir": 2220,
  "afesindedir": 2221,
  "esafesindedir": 2222,
  "mesafesindedir": 2223,
  "amandır": 2224,
  "şamandır": 2225,
  "şamandıra": 2226,
  "ışların": 2227,
  "ranışların": 2228,
  "ranışlarından": 2229,
  "vranışlarından": 2230,
  "davranışlarından": 2231,
  "yarışların": 2232,
  "yarışlarına": 2233,
  "derilen": 2234,
  "önderilen": 2235,
  "gönderilen": 2236,
  "ğerinde": 2237,
  "değerinde": 2238,
  "diğerinde": 2239,
  "stasyon": 2240,
  "İstasyon": 2241,
  "itasyon": 2242,
  "bilitasyon": 2243,
  "habilitasyon": 2244,
  "rehabilitasyon": 2245,
  "leme": 2246,
  "ilerleme": 2247,
  "tem": 2248,
  "temalar": 2249,
  "temler": 2250,
  "temlerini": 2251,
  "öntemlerini": 2252,
  "yöntemlerini": 2253,
  "öntemler": 2254,
  "yöntemler": 2255,
  "temini": 2256,
  "öntemini": 2257,
  "yöntemini": 2258,
  "emalar": 2259,
  "Temalar": 2260,
  "emini": 2261,
  "önemini": 2262,
  "zemini": 2263,
  "emler": 2264,
  "kalemler": 2265,
  "yöntemleriy": 2266,
  "yöntemleriyle": 2267,
  "temalarını": 2268,
  "temalardan": 2269,
  "kalemlerin": 2270,
  "ser": 2271,
  "serileri": 2272,
  "erileri": 2273,
  "sterileri": 2274,
  "österileri": 2275,
  "gösterileri": 2276,
  "ecerileri": 2277,
  "becerileri": 2278,
  "şek": 2279,
  "gü": 2280,
  "oz": 2281,
  "ozların": 2282,
  "olozların": 2283,
  "molozların": 2284,
  "tozların": 2285,
  "tozlarını": 2286,
  "azların": 2287,
  "hazların": 2288,
  "cihazların": 2289,
  "otelden": 2290,
  "ranının": 2291,
  "branının": 2292,
  "embranının": 2293,
  "membranının": 2294,
  "tıların": 2295,
  "latıların": 2296,
  "anlatıların": 2297,
  "anlatılarını": 2298,
  "erasyon": 2299,
  "operasyon": 2300,
  "operasyonda": 2301,
  "evlerle": 2302,
  "aşından": 2303,
  "Başından": 2304,
  "kebilir": 2305,
  "ökebilir": 2306,
  "çökebilir": 2307,
  "otların": 2308,
  "otlarınız": 2309,
  "notlarınız": 2310,
  "notlarınızı": 2311,
  "ışından": 2312,
  "dışından": 2313,
  "tdışından": 2314,
  "urtdışından": 2315,
  "yurtdışından": 2316,
  "azından": 2317,
  "Residen": 2318,
  "Residence": 2319,
  "bulunuy": 2320,
  "bulunuyor": 2321,
  "bulunuyorsun": 2322,
  "bulunuyorsunuz": 2323,
  "ulasyon": 2324,
  "ulasyonları": 2325,
  "gulasyonları": 2326,
  "regulasyonları": 2327,
  "asyonları": 2328,
  "inasyonları": 2329,
  "binasyonları": 2330,
  "ombinasyonları": 2331,
  "kombinasyonları": 2332,
  "vasyonları": 2333,
  "ervasyonları": 2334,
  "zervasyonları": 2335,
  "rezervasyonları": 2336,
  "renleme": 2337,
  "Frenleme": 2338,
  "leyiniz": 2339,
  "etleyiniz": 2340,
  "aretleyiniz": 2341,
  "işaretleyiniz": 2342,
  "lamakta": 2343,
  "arlamakta": 2344,
  "asarlamakta": 2345,
  "tasarlamakta": 2346,
  "iştiril": 2347,
  "iştirilme": 2348,
  "ğiştirilme": 2349,
  "değiştirilme": 2350,
  "değiştirilmez": 2351,
  "leniyor": 2352,
  "yükleniyor": 2353,
  "anmakta": 2354,
  "ulanmakta": 2355,
  "gulanmakta": 2356,
  "uygulanmakta": 2357,
  "uşların": 2358,
  "uluşların": 2359,
  "kuruluşların": 2360,
  "bilirli": 2361,
  "ilebilirli": 2362,
  "işilebilirli": 2363,
  "erişilebilirli": 2364,
  "lardaki": 2365,
  "ulardaki": 2366,
  "onulardaki": 2367,
  "Konulardaki": 2368,
  "iştirem": 2369,
  "iştiremez": 2370,
  "iştiremezler": 2371,
  "ğiştiremezler": 2372,
  "değiştiremezler": 2373,
  "terinin": 2374,
  "üşterinin": 2375,
  "müşterinin": 2376,
  "başında": 2377,
  "biliris": 2378,
  "bilirisiniz": 2379,
  "labilirisiniz": 2380,
  "bulabilirisiniz": 2381,
  "alışmas": 2382,
  "alışmasının": 2383,
  "Çalışmasının": 2384,
  "iştirin": 2385,
  "geliştirin": 2386,
  "iştirdi": 2387,
  "iştirdiği": 2388,
  "ğiştirdiği": 2389,
  "değiştirdiği": 2390,
  "lemiyor": 2391,
  "eklemiyor": 2392,
  "beklemiyor": 2393,
  "amanını": 2394,
  "ramanını": 2395,
  "hramanını": 2396,
  "kahramanını": 2397,
  "DOTlara": 2398,
  "Trinida": 2399,
  "serinin": 2400,
  "arıdaki": 2401,
  "ukarıdaki": 2402,
  "yukarıdaki": 2403,
  "içiniyi": 2404,
  "iştirer": 2405,
  "iştirerek": 2406,
  "ğiştirerek": 2407,
  "değiştirerek": 2408,
  "dirilen": 2409,
  "lendirilen": 2410,
  "önlendirilen": 2411,
  "yönlendirilen": 2412,
  "masıdır": 2413,
  "ılmasıdır": 2414,
  "dırılmasıdır": 2415,
  "landırılmasıdır": 2416,
  "tlandırılmasıdır": 2417,
  "yatlandırılmasıdır": 2418,
  "iyatlandırılmasıdır": 2419,
  "fiyatlandırılmasıdır": 2420,
  "etiştir": 2421,
  "yetiştir": 2422,
  "yetiştiri": 2423,
  "kardaki": 2424,
  "lebilir": 2425,
  "ülebilir": 2426,
  "görülebilir": 2427,
  "debilir": 2428,
  "Edebilir": 2429,
  "Edebilirs": 2430,
  "Edebilirsiniz": 2431,
  "yükleme": 2432,
  "nyükleme": 2433,
  "Önyükleme": 2434,
  "lamadan": 2435,
  "aklamadan": 2436,
  "konaklamadan": 2437,
  "olların": 2438,
  "yolların": 2439,
  "yollarını": 2440,
  "leridir": 2441,
  "etleridir": 2442,
  "iyetleridir": 2443,
  "biliyetleridir": 2444,
  "kabiliyetleridir": 2445,
  "amanlan": 2446,
  "amanlandı": 2447,
  "Zamanlandı": 2448,
  "iştiren": 2449,
  "eliştiren": 2450,
  "Geliştiren": 2451,
  "eliştir": 2452,
  "eliştirilen": 2453,
  "Geliştirilen": 2454,
  "eliştirilm": 2455,
  "eliştirilmiş": 2456,
  "Geliştirilmiş": 2457,
  "luların": 2458,
  "oyluların": 2459,
  "soyluların": 2460,
  "ayların": 2461,
  "etayların": 2462,
  "detayların": 2463,
  "detaylarına": 2464,
  "yılının": 2465,
  "asyonel": 2466,
  "rasyonel": 2467,
  "otasyon": 2468,
  "rotasyon": 2469,
  "ılmakta": 2470,
  "kılmakta": 2471,
  "tardaki": 2472,
  "iktardaki": 2473,
  "miktardaki": 2474,
  "lamamış": 2475,
  "atlamamış": 2476,
  "patlamamış": 2477,
  "eliktek": 2478,
  "iteliktek": 2479,
  "niteliktek": 2480,
  "nitelikteki": 2481,
  "taramak": 2482,
  "tirilen": 2483,
  "leştirilen": 2484,
  "ekleştirilen": 2485,
  "çekleştirilen": 2486,
  "gerçekleştirilen": 2487,
  "ımından": 2488,
  "akımından": 2489,
  "bakımından": 2490,
  "ruasyon": 2491,
  "struasyon": 2492,
  "menstruasyon": 2493,
  "sarılan": 2494,
  "soslara": 2495,
  "ilasyon": 2496,
  "pilasyon": 2497,
  "epilasyon": 2498,
  "arından": 2499,
  "azarından": 2500,
  "pazarından": 2501,
  "elerdir": 2502,
  "nelerdir": 2503,
  "bulundu": 2504,
  "cıların": 2505,
  "ımcıların": 2506,
  "tırımcıların": 2507,
  "yatırımcıların": 2508,
  "alarken": 2509,
  "valar": 2510,
  "davalar": 2511,
  "uvalar": 2512,
  "yuvalar": 2513,
  "yuvalarına": 2514,
  "davaların": 2515,
  "valarken": 2516,
  "ovalarken": 2517,
  "kovalarken": 2518,
  "tesiniz": 2519,
  "mektesiniz": 2520,
  "etmektesiniz": 2521,
  "yondaki": 2522,
  "isyondaki": 2523,
  "ozisyondaki": 2524,
  "pozisyondaki": 2525,
  "adların": 2526,
  "adlarının": 2527,
  "ciler": 2528,
  "Kesiciler": 2529,
  "lemciler": 2530,
  "işlemciler": 2531,
  "deciler": 2532,
  "endeciler": 2533,
  "akendeciler": 2534,
  "erakendeciler": 2535,
  "perakendeciler": 2536,
  "imciler": 2537,
  "bilimciler": 2538,
  "iciler": 2539,
  "iştiriciler": 2540,
  "geliştiriciler": 2541,
  "perakendecilerin": 2542,
  "bilimcilerine": 2543,
  "işlemcilerim": 2544,
  "işlemcilerimiz": 2545,
  "işlemcilerimize": 2546,
  "cilerinin": 2547,
  "rencilerinin": 2548,
  "ğrencilerinin": 2549,
  "Öğrencilerinin": 2550,
  "cilerine": 2551,
  "rencilerine": 2552,
  "ğrencilerine": 2553,
  "öğrencilerine": 2554,
  "cilerim": 2555,
  "renciler": 2556,
  "ğrenciler": 2557,
  "Öğrenciler": 2558,
  "öğrenciler": 2559,
  "öğrencilerin": 2560,
  "Öğrencilere": 2561,
  "rencilerim": 2562,
  "rencilerimiz": 2563,
  "rencilerimizin": 2564,
  "ğrencilerimizin": 2565,
  "Öğrencilerimizin": 2566,
  "etler": 2567,
  "arketler": 2568,
  "marketler": 2569,
  "tiketler": 2570,
  "Etiketler": 2571,
  "iyetler": 2572,
  "aliyetler": 2573,
  "aaliyetler": 2574,
  "faaliyetler": 2575,
  "diyetler": 2576,
  "ümetler": 2577,
  "ükümetler": 2578,
  "hükümetler": 2579,
  "eketler": 2580,
  "areketler": 2581,
  "hareketler": 2582,
  "iketler": 2583,
  "etiketler": 2584,
  "aketler": 2585,
  "paketler": 2586,
  "aretler": 2587,
  "aretlerini": 2588,
  "işaretlerini": 2589,
  "etlerini": 2590,
  "zetlerini": 2591,
  "zzetlerini": 2592,
  "lezzetlerini": 2593,
  "retlerini": 2594,
  "cretlerini": 2595,
  "ücretlerini": 2596,
  "aletler": 2597,
  "valetler": 2598,
  "uvaletler": 2599,
  "tuvaletler": 2600,
  "şetler": 2601,
  "oşetler": 2602,
  "poşetler": 2603,
  "betler": 2604,
  "öbetler": 2605,
  "nöbetler": 2606,
  "faaliyetlerinin": 2607,
  "hükümetlerinin": 2608,
  "hareketlerle": 2609,
  "poşetlerin": 2610,
  "nöbetlerin": 2611,
  "etiketlere": 2612,
  "diyetlerin": 2613,
  "etleriy": 2614,
  "etleriyle": 2615,
  "ketleriyle": 2616,
  "irketleriyle": 2617,
  "şirketleriyle": 2618,
  "yor": 2619,
  "çalışyor": 2620,
  "çalışyorum": 2621,
  "bulunmaktadır": 2622,
  "matik": 2623,
  "laşmış": 2624,
  "laşmıştır": 2625,
  "unlaşmıştır": 2626,
  "oğunlaşmıştır": 2627,
  "yoğunlaşmıştır": 2628,
  "ulaşmış": 2629,
  "inizde": 2630,
  "lerinizde": 2631,
  "işlerinizde": 2632,
  "ğinizde": 2633,
  "diğinizde": 2634,
  "irdiğinizde": 2635,
  "girdiğinizde": 2636,
  "yüklen": 2637,
  "yüklendi": 2638,
  "yükleni": 2639,
  "yüklenici": 2640,
  "arıyor": 2641,
  "arıyorsan": 2642,
  "arıyorsanız": 2643,
  "arıyorsun": 2644,
  "arıyorsunuz": 2645,
  "dengel": 2646,
  "dengeli": 2647,
  "tansiy": 2648,
  "ertansiy": 2649,
  "ipertansiy": 2650,
  "ipertansiyon": 2651,
  "hipertansiyon": 2652,
  "alınız": 2653,
  "kanalınız": 2654,
  "kanalınızda": 2655,
  "olanak": 2656,
  "olanakları": 2657,
  "ışının": 2658,
  "akışının": 2659,
  "alının": 2660,
  "kanalının": 2661,
  "çalının": 2662,
  "yasyon": 2663,
  "adyasyon": 2664,
  "Radyasyon": 2665,
  "dyasyon": 2666,
  "radyasyon": 2667,
  "radyasyonu": 2668,
  "dasyon": 2669,
  "idasyon": 2670,
  "alidasyon": 2671,
  "Validasyon": 2672,
  "sidasyon": 2673,
  "oksidasyon": 2674,
  "oksidasyonu": 2675,
  "tırken": 2676,
  "ırtırken": 2677,
  "kırtırken": 2678,
  "ışkırtırken": 2679,
  "kışkırtırken": 2680,
  "latırken": 2681,
  "başlatırken": 2682,
  "amının": 2683,
  "şamının": 2684,
  "yaşamının": 2685,
  "ramının": 2686,
  "gramının": 2687,
  "rogramının": 2688,
  "programının": 2689,
  "turist": 2690,
  "turistler": 2691,
  "istler": 2692,
  "uristler": 2693,
  "Turistler": 2694,
  "Pistler": 2695,
  "Turistlere": 2696,
  "turistik": 2697,
  "Pistlere": 2698,
  "birine": 2699,
  "birbirine": 2700,
  "eviyor": 2701,
  "eviyorum": 2702,
  "seviyorum": 2703,
  "seviyor": 2704,
  "enleme": 2705,
  "üzenleme": 2706,
  "düzenleme": 2707,
  "menist": 2708,
  "menistan": 2709,
  "kmenistan": 2710,
  "ürkmenistan": 2711,
  "Türkmenistan": 2712,
  "rmenistan": 2713,
  "Ermenistan": 2714,
  "mektir": 2715,
  "dirmektir": 2716,
  "lendirmektir": 2717,
  "ğerlendirmektir": 2718,
  "değerlendirmektir": 2719,
  "ülmektir": 2720,
  "Gülmektir": 2721,
  "bulmak": 2722,
  "eçilen": 2723,
  "seçilen": 2724,
  "tarmak": 2725,
  "kurtarmak": 2726,
  "aktarmak": 2727,
  "elikle": 2728,
  "zelikle": 2729,
  "vezelikle": 2730,
  "evezelikle": 2731,
  "gevezelikle": 2732,
  "celikle": 2733,
  "öncelikle": 2734,
  "zamanı": 2735,
  "rulama": 2736,
  "oğrulama": 2737,
  "oğrulamadı": 2738,
  "oğrulamadığı": 2739,
  "doğrulamadığı": 2740,
  "doğrulama": 2741,
  "seklik": 2742,
  "ükseklik": 2743,
  "Yükseklik": 2744,
  "durman": 2745,
  "bulundurman": 2746,
  "bulundurmanız": 2747,
  "bulundur": 2748,
  "bulunduran": 2749,
  "kesici": 2750,
  "dirmek": 2751,
  "indirmek": 2752,
  "tarını": 2753,
  "iktarını": 2754,
  "miktarını": 2755,
  "yapman": 2756,
  "yapmanın": 2757,
  "yapmanız": 2758,
  "likeli": 2759,
  "hlikeli": 2760,
  "tehlikeli": 2761,
  "ehlikeli": 2762,
  "Tehlikeli": 2763,
  "maktır": 2764,
  "kullanmaktır": 2765,
  "tmaktır": 2766,
  "altmaktır": 2767,
  "azaltmaktır": 2768,
  "sundan": 2769,
  "usundan": 2770,
  "konusundan": 2771,
  "lıktan": 2772,
  "aklıktan": 2773,
  "uzaklıktan": 2774,
  "lerden": 2775,
  "lemlerden": 2776,
  "işlemlerden": 2777,
  "iklerden": 2778,
  "iziklerden": 2779,
  "çiziklerden": 2780,
  "kaydır": 2781,
  "kaydırar": 2782,
  "kaydırarak": 2783,
  "kaydırma": 2784,
  "tarama": 2785,
  "ırlama": 2786,
  "azırlama": 2787,
  "Hazırlama": 2788,
  "ınırlama": 2789,
  "sınırlama": 2790,
  "lanlan": 2791,
  "lanlanmaktadır": 2792,
  "planlanmaktadır": 2793,
  "lanlandı": 2794,
  "lanlandığı": 2795,
  "planlandığı": 2796,
  "ınacak": 2797,
  "ınacaktır": 2798,
  "alınacaktır": 2799,
  "sınacak": 2800,
  "Isınacak": 2801,
  "sürede": 2802,
  "vermen": 2803,
  "vermeniz": 2804,
  "dermek": 2805,
  "öndermek": 2806,
  "göndermek": 2807,
  "gidermek": 2808,
  "danmış": 2809,
  "adanmış": 2810,
  "çalışı": 2811,
  "çalışıyor": 2812,
  "çalışıyorsan": 2813,
  "çalışıyorsanız": 2814,
  "Olarak": 2815,
  "edebil": 2816,
  "edebilmek": 2817,
  "edebilme": 2818,
  "alanan": 2819,
  "iralanan": 2820,
  "kiralanan": 2821,
  "galanan": 2822,
  "algalanan": 2823,
  "dalgalanan": 2824,
  "azınız": 2825,
  "hazınız": 2826,
  "cihazınız": 2827,
  "cihazınıza": 2828,
  "çalışa": 2829,
  "çalışacak": 2830,
  "çalışabil": 2831,
  "çalışabilm": 2832,
  "çalışabilmesi": 2833,
  "sların": 2834,
  "ansların": 2835,
  "eransların": 2836,
  "feransların": 2837,
  "referansların": 2838,
  "referanslarını": 2839,
  "ırsların": 2840,
  "hırsların": 2841,
  "hırslarına": 2842,
  "elerim": 2843,
  "elerimiz": 2844,
  "jelerimiz": 2845,
  "rojelerimiz": 2846,
  "projelerimiz": 2847,
  "nelerimiz": 2848,
  "eknelerimiz": 2849,
  "Teknelerimiz": 2850,
  "yorsun": 2851,
  "yorsunuz": 2852,
  "üyorsunuz": 2853,
  "görüyorsunuz": 2854,
  "ıyorsunuz": 2855,
  "yapıyorsunuz": 2856,
  "emiyor": 2857,
  "leyemiyor": 2858,
  "izleyemiyor": 2859,
  "izleyemiyorum": 2860,
  "gizleyemiyorum": 2861,
  "göremiyor": 2862,
  "göremiyorum": 2863,
  "lanmas": 2864,
  "lanmasında": 2865,
  "aklanmasında": 2866,
  "yaklanmasında": 2867,
  "Ayaklanmasında": 2868,
  "lanmasının": 2869,
  "mlanmasının": 2870,
  "mamlanmasının": 2871,
  "tamamlanmasının": 2872,
  "arabul": 2873,
  "arabulu": 2874,
  "onelik": 2875,
  "abonelik": 2876,
  "bonelik": 2877,
  "Abonelik": 2878,
  "laşmak": 2879,
  "ulaşmak": 2880,
  "gellen": 2881,
  "engellen": 2882,
  "engellenir": 2883,
  "engellenm": 2884,
  "engellenmesi": 2885,
  "temeli": 2886,
  "asyona": 2887,
  "orasyona": 2888,
  "ekorasyona": 2889,
  "dekorasyona": 2890,
  "ımlama": 2891,
  "tanımlama": 2892,
  "eçiniz": 2893,
  "Geçiniz": 2894,
  "seçiniz": 2895,
  "iliniz": 2896,
  "atiliniz": 2897,
  "tatiliniz": 2898,
  "tatilinizi": 2899,
  "Diliniz": 2900,
  "Dilinizi": 2901,
  "anında": 2902,
  "Belaru": 2903,
  "Belarus": 2904,
  "ininin": 2905,
  "amininin": 2906,
  "itamininin": 2907,
  "vitamininin": 2908,
  "mininin": 2909,
  "atmininin": 2910,
  "tatmininin": 2911,
  "elidir": 2912,
  "ilmelidir": 2913,
  "dilmelidir": 2914,
  "dedilmelidir": 2915,
  "kaydedilmelidir": 2916,
  "melidir": 2917,
  "gelmelidir": 2918,
  "taktir": 2919,
  "taktirde": 2920,
  "aplama": 2921,
  "Kaplama": 2922,
  "terist": 2923,
  "akterist": 2924,
  "karakterist": 2925,
  "karakteristik": 2926,
  "tesist": 2927,
  "tesiste": 2928,
  "otelin": 2929,
  "maktan": 2930,
  "uşmaktan": 2931,
  "konuşmaktan": 2932,
  "tmaktan": 2933,
  "sıtmaktan": 2934,
  "ısıtmaktan": 2935,
  "ollama": 2936,
  "sollama": 2937,
  "üzer": 2938,
  "ızlı": 2939,
  "ızlıdır": 2940,
  "hızlıdır": 2941,
  "ızlığı": 2942,
  "sızlığı": 2943,
  "ımsızlığı": 2944,
  "ğımsızlığı": 2945,
  "bağımsızlığı": 2946,
  "arsızlığı": 2947,
  "ararsızlığı": 2948,
  "zararsızlığı": 2949,
  "çek": 2950,
  "çekiyor": 2951,
  "lü": 2952,
  "siniz": 2953,
  "abilirs": 2954,
  "yapabilirs": 2955,
  "yapabilirsin": 2956,
  "alabilirs": 2957,
  "alabilirsin": 2958,
  "ipsiniz": 2959,
  "hipsiniz": 2960,
  "sahipsiniz": 2961,
  "undaki": 2962,
  "olundaki": 2963,
  "solundaki": 2964,
  "ullanı": 2965,
  "ullanılan": 2966,
  "Kullanılan": 2967,
  "larıma": 2968,
  "şlarıma": 2969,
  "daşlarıma": 2970,
  "kadaşlarıma": 2971,
  "arkadaşlarıma": 2972,
  "ilidir": 2973,
  "kilidir": 2974,
  "etkilidir": 2975,
  "iyelik": 2976,
  "saniyelik": 2977,
  "iyordu": 2978,
  "biliyordu": 2979,
  "labiliyordu": 2980,
  "ulabiliyordu": 2981,
  "uyulabiliyordu": 2982,
  "duyulabiliyordu": 2983,
  "kalkan": 2984,
  "kalkanın": 2985,
  "enilen": 2986,
  "yenilen": 2987,
  "yenilenm": 2988,
  "yenilenmiş": 2989,
  "kalama": 2990,
  "arkalama": 2991,
  "markalama": 2992,
  "teklem": 2993,
  "esteklem": 2994,
  "desteklem": 2995,
  "isteme": 2996,
  "sisteme": 2997,
  "ecelik": 2998,
  "gecelik": 2999,
  "arkına": 3000,
  "farkına": 3001,
  "varmak": 3002,
  "elikli": 3003,
  "delikli": 3004,
  "çıklan": 3005,
  "çıklanır": 3006,
  "açıklanır": 3007,
  "erleme": 3008,
  "Derleme": 3009,
  "turama": 3010,
  "uşturama": 3011,
  "oluşturama": 3012,
  "oluşturamaz": 3013,
  "oluşturamazs": 3014,
  "oluşturamazsınız": 3015,
  "eliniz": 3016,
  "elinize": 3017,
  "ilenen": 3018,
  "kilenen": 3019,
  "etkilenen": 3020,
  "çıkmış": 3021,
  "çıkmıştır": 3022,
  "eribil": 3023,
  "eribildir": 3024,
  "eribildirim": 3025,
  "geribildirim": 3026,
  "iliyor": 3027,
  "iliyorum": 3028,
  "diliyorum": 3029,
  "azdaki": 3030,
  "hazdaki": 3031,
  "cihazdaki": 3032,
  "derilm": 3033,
  "derilmesi": 3034,
  "giderilmesi": 3035,
  "başlık": 3036,
  "başlıklar": 3037,
  "kurman": 3038,
  "kurmanız": 3039,
  "master": 3040,
  "masters": 3041,
  "artisi": 3042,
  "Partisi": 3043,
  "dırıcı": 3044,
  "dırıcılar": 3045,
  "landırıcılar": 3046,
  "atlandırıcılar": 3047,
  "Tatlandırıcılar": 3048,
  "çekmek": 3049,
  "laşman": 3050,
  "anlaşman": 3051,
  "anlaşmanın": 3052,
  "eyinde": 3053,
  "üzeyinde": 3054,
  "yüzeyinde": 3055,
  "amakta": 3056,
  "namakta": 3057,
  "oynamakta": 3058,
  "verili": 3059,
  "özverili": 3060,
  "taklaş": 3061,
  "ortaklaş": 3062,
  "ortaklaşa": 3063,
  "adının": 3064,
  "kanyon": 3065,
  "ilelik": 3066,
  "amilelik": 3067,
  "hamilelik": 3068,
  "orilen": 3069,
  "gorilen": 3070,
  "egorilen": 3071,
  "ategorilen": 3072,
  "Kategorilen": 3073,
  "Kategorilenm": 3074,
  "Kategorilenmem": 3075,
  "Kategorilenmemiş": 3076,
  "çıkmak": 3077,
  "otelde": 3078,
  "ıcılık": 3079,
  "atıcılık": 3080,
  "yaratıcılık": 3081,
  "işinin": 3082,
  "kişinin": 3083,
  "nların": 3084,
  "Onların": 3085,
  "irOnların": 3086,
  "irirOnların": 3087,
  "evirirOnların": 3088,
  "çevirirOnların": 3089,
  "tırıla": 3090,
  "tırılabilir": 3091,
  "laştırılabilir": 3092,
  "unlaştırılabilir": 3093,
  "oğunlaştırılabilir": 3094,
  "yoğunlaştırılabilir": 3095,
  "anının": 3096,
  "fanının": 3097,
  "andaki": 3098,
  "orandaki": 3099,
  "günden": 3100,
  "dirmen": 3101,
  "lendirmen": 3102,
  "ğerlendirmen": 3103,
  "değerlendirmen": 3104,
  "değerlendirmeniz": 3105,
  "değerlendirmenizi": 3106,
  "ırında": 3107,
  "Fırında": 3108,
  "artmen": 3109,
  "partmen": 3110,
  "Apartmen": 3111,
  "Apartment": 3112,
  "Apartments": 3113,
  "süreli": 3114,
  "tadaki": 3115,
  "ortadaki": 3116,
  "erilen": 3117,
  "nerilen": 3118,
  "Önerilen": 3119,
  "arkıcı": 3120,
  "şarkıcı": 3121,
  "verilm": 3122,
  "verilmiştir": 3123,
  "taksit": 3124,
  "taksitle": 3125,
  "ilinde": 3126,
  "hilinde": 3127,
  "dahilinde": 3128,
  "izmete": 3129,
  "hizmete": 3130,
  "resyon": 3131,
  "presyon": 3132,
  "epresyon": 3133,
  "Depresyon": 3134,
  "eminde": 3135,
  "öneminde": 3136,
  "döneminde": 3137,
  "eninin": 3138,
  "veninin": 3139,
  "güveninin": 3140,
  "arolan": 3141,
  "arolanız": 3142,
  "parolanız": 3143,
  "parolanızı": 3144,
  "uzdaki": 3145,
  "unuzdaki": 3146,
  "bunuzdaki": 3147,
  "rubunuzdaki": 3148,
  "grubunuzdaki": 3149,
  "gerekm": 3150,
  "renmek": 3151,
  "ğrenmek": 3152,
  "öğrenmek": 3153,
  "zamana": 3154,
  "amamen": 3155,
  "Tamamen": 3156,
  "daklan": 3157,
  "daklanın": 3158,
  "odaklanın": 3159,
  "ozdaki": 3160,
  "dozdaki": 3161,
  "laşıcı": 3162,
  "bulaşıcı": 3163,
  "telden": 3164,
  "Otelden": 3165,
  "sancak": 3166,
  "lsancak": 3167,
  "Alsancak": 3168,
  "yapilm": 3169,
  "yapilmis": 3170,
  "matikl": 3171,
  "matikles": 3172,
  "matiklestir": 3173,
  "matiklestirilm": 3174,
  "matiklestirilmis": 3175,
  "omatiklestirilmis": 3176,
  "otomatiklestirilmis": 3177,
  "landir": 3178,
  "landirilm": 3179,
  "landirilmist": 3180,
  "amlandirilmist": 3181,
  "amlandirilmistir": 3182,
  "ramlandirilmistir": 3183,
  "gramlandirilmistir": 3184,
  "rogramlandirilmistir": 3185,
  "programlandirilmistir": 3186,
  "vardir": 3187,
  "manına": 3188,
  "smanına": 3189,
  "ansmanına": 3190,
  "inansmanına": 3191,
  "Finansmanına": 3192,
  "ezinin": 3193,
  "Gezinin": 3194,
  "artlaş": 3195,
  "artlaştır": 3196,
  "artlaştırmak": 3197,
  "dartlaştırmak": 3198,
  "andartlaştırmak": 3199,
  "standartlaştırmak": 3200,
  "yların": 3201,
  "dayların": 3202,
  "daylarının": 3203,
  "Adaylarının": 3204,
  "inleme": 3205,
  "Dinleme": 3206,
  "taktik": 3207,
  "ürünün": 3208,
  "ürününü": 3209,
  "elleme": 3210,
  "celleme": 3211,
  "üncelleme": 3212,
  "Güncelleme": 3213,
  "amınız": 3214,
  "amınızın": 3215,
  "ramınızın": 3216,
  "gramınızın": 3217,
  "rogramınızın": 3218,
  "programınızın": 3219,
  "kanalı": 3220,
  "alarla": 3221,
  "çalarla": 3222,
  "arçalarla": 3223,
  "parçalarla": 3224,
  "lerken": 3225,
  "izlerken": 3226,
  "irilen": 3227,
  "eçirilen": 3228,
  "geçirilen": 3229,
  "dolara": 3230,
  "çeklik": 3231,
  "erçeklik": 3232,
  "Gerçeklik": 3233,
  "yıldan": 3234,
  "temdir": 3235,
  "öntemdir": 3236,
  "yöntemdir": 3237,
  "ezinde": 3238,
  "kezinde": 3239,
  "erkezinde": 3240,
  "merkezinde": 3241,
  "alinde": 3242,
  "halinde": 3243,
  "kontur": 3244,
  "konturlu": 3245,
  "azalan": 3246,
  "ılayan": 3247,
  "şılayan": 3248,
  "karşılayan": 3249,
  "ikiniz": 3250,
  "ikinizden": 3251,
  "azelik": 3252,
  "Tazelik": 3253,
  "danlık": 3254,
  "idanlık": 3255,
  "Fidanlık": 3256,
  "ğların": 3257,
  "ğlarının": 3258,
  "ağlarının": 3259,
  "tından": 3260,
  "altından": 3261,
  "dirile": 3262,
  "dirilebilir": 3263,
  "lendirilebilir": 3264,
  "lendirilebilirlik": 3265,
  "illendirilebilirlik": 3266,
  "şekillendirilebilirlik": 3267,
  "bilirlik": 3268,
  "ilebilirlik": 3269,
  "işilebilirlik": 3270,
  "erişilebilirlik": 3271,
  "labilirlik": 3272,
  "ğılabilirlik": 3273,
  "dağılabilirlik": 3274,
  "yapama": 3275,
  "yapamaya": 3276,
  "yapamayaca": 3277,
  "yapamayacağı": 3278,
  "inilen": 3279,
  "ğinilen": 3280,
  "değinilen": 3281,
  "artman": 3282,
  "artmanım": 3283,
  "artmanımız": 3284,
  "artmanımızla": 3285,
  "partmanımızla": 3286,
  "epartmanımızla": 3287,
  "Departmanımızla": 3288,
  "ıklama": 3289,
  "yıklama": 3290,
  "ıyıklama": 3291,
  "bıyıklama": 3292,
  "iştirm": 3293,
  "ğiştirm": 3294,
  "değiştirm": 3295,
  "ematik": 3296,
  "istematik": 3297,
  "sistematik": 3298,
  "edinin": 3299,
  "redinin": 3300,
  "kredinin": 3301,
  "tekiyi": 3302,
  "estekiyi": 3303,
  "destekiyi": 3304,
  "ındandestekiyi": 3305,
  "fındandestekiyi": 3306,
  "tarafındandestekiyi": 3307,
  "rasyon": 3308,
  "rasyonlu": 3309,
  "brasyonlu": 3310,
  "ibrasyonlu": 3311,
  "Vibrasyonlu": 3312,
  "alanın": 3313,
  "etinde": 3314,
  "aletinde": 3315,
  "eyaletinde": 3316,
  "ömatik": 3317,
  "nömatik": 3318,
  "Pnömatik": 3319,
  "işiniz": 3320,
  "işinizi": 3321,
  "karede": 3322,
  "lerdir": 3323,
  "ellerdir": 3324,
  "kellerdir": 3325,
  "eykellerdir": 3326,
  "heykellerdir": 3327,
  "ardaki": 3328,
  "Kardaki": 3329,
  "gerisi": 3330,
  "lemden": 3331,
  "eylemden": 3332,
  "yıldır": 3333,
  "yıldırım": 3334,
  "pların": 3335,
  "sapların": 3336,
  "kallan": 3337,
  "kallanet": 3338,
  "kallanetik": 3339,
  "kallanetikler": 3340,
  "kallanetiklere": 3341,
  "kaymak": 3342,
  "zkaymak": 3343,
  "Ozkaymak": 3344,
  "yerken": 3345,
  "ikilen": 3346,
  "dikilen": 3347,
  "etlere": 3348,
  "ketler": 3349,
  "irketler": 3350,
  "şirketler": 3351,
  "şirketlerin": 3352,
  "ketlere": 3353,
  "irketlere": 3354,
  "şirketlere": 3355,
  "etlerin": 3356,
  "letlerin": 3357,
  "bletlerin": 3358,
  "tabletlerin": 3359,
  "çoktur": 3360,
  "istede": 3361,
  "listede": 3362,
  "yarlan": 3363,
  "yarlanabilir": 3364,
  "Ayarlanabilir": 3365,
  "basyon": 3366,
  "ürbasyon": 3367,
  "türbasyon": 3368,
  "mastürbasyon": 3369,
  "yaptır": 3370,
  "yaptırı": 3371,
  "yaptırılan": 3372,
  "lantes": 3373,
  "Plantes": 3374,
  "özleme": 3375,
  "gözleme": 3376,
  "çekilm": 3377,
  "çekilmiş": 3378,
  "kurdan": 3379,
  "ürünür": 3380,
  "bürünür": 3381,
  "elerek": 3382,
  "gelerek": 3383,
  "manını": 3384,
  "atmanını": 3385,
  "katmanını": 3386,
  "tırman": 3387,
  "ıştırman": 3388,
  "yapıştırman": 3389,
  "yapıştırmanız": 3390,
  "yapıştırmanızı": 3391,
  "eriyor": 3392,
  "öneriyor": 3393,
  "öneriyorum": 3394,
  "ğersiz": 3395,
  "değersiz": 3396,
  "üzerim": 3397,
  "üzerime": 3398,
  "dırman": 3399,
  "landırman": 3400,
  "landırmanın": 3401,
  "çlandırmanın": 3402,
  "uçlandırmanın": 3403,
  "sonuçlandırmanın": 3404,
  "tarman": 3405,
  "aktarman": 3406,
  "aktarmanın": 3407,
  "otelim": 3408,
  "otelimiz": 3409,
  "otelimizde": 3410,
  "karart": 3411,
  "karartma": 3412,
  "leşmek": 3413,
  "yerleşmek": 3414,
  "yerleşmekte": 3415,
  "hların": 3416,
  "ahların": 3417,
  "ilahların": 3418,
  "silahların": 3419,
  "amlama": 3420,
  "camlama": 3421,
  "arinin": 3422,
  "imarinin": 3423,
  "mimarinin": 3424,
  "dantel": 3425,
  "yerden": 3426,
  "adınız": 3427,
  "adınıza": 3428,
  "gelmek": 3429,
  "gelmekte": 3430,
  "ranmas": 3431,
  "ranmasını": 3432,
  "pranmasını": 3433,
  "ıpranmasını": 3434,
  "yıpranmasını": 3435,
  "edürün": 3436,
  "sedürün": 3437,
  "rosedürün": 3438,
  "prosedürün": 3439,
  "prosedürünü": 3440,
  "akalan": 3441,
  "akalanma": 3442,
  "Yakalanma": 3443,
  "iyidir": 3444,
  "arının": 3445,
  "garının": 3446,
  "ogarının": 3447,
  "otogarının": 3448,
  "derdir": 3449,
  "onderdir": 3450,
  "sekonderdir": 3451,
  "kalmak": 3452,
  "birbir": 3453,
  "birbirim": 3454,
  "birbirimiz": 3455,
  "birbirimize": 3456,
  "ranmak": 3457,
  "vranmak": 3458,
  "davranmak": 3459,
  "derile": 3460,
  "derilebilir": 3461,
  "önderilebilir": 3462,
  "gönderilebilir": 3463,
  "kenden": 3464,
  "rkenden": 3465,
  "Erkenden": 3466,
  "eşinde": 3467,
  "peşinde": 3468,
  "ımınız": 3469,
  "laşımınız": 3470,
  "aklaşımınız": 3471,
  "yaklaşımınız": 3472,
  "yaklaşımınızı": 3473,
  "ışınız": 3474,
  "yışınız": 3475,
  "layışınız": 3476,
  "anlayışınız": 3477,
  "zamank": 3478,
  "zamanki": 3479,
  "tantik": 3480,
  "Otantik": 3481,
  "çıklık": 3482,
  "çıklıklı": 3483,
  "açıklıklı": 3484,
  "mantar": 3485,
  "önelik": 3486,
  "yönelik": 3487,
  "madaki": 3488,
  "çalışmadaki": 3489,
  "lamadı": 3490,
  "ılamadı": 3491,
  "şılamadı": 3492,
  "karşılamadı": 3493,
  "sinizs": 3494,
  "abilirsinizs": 3495,
  "yapabilirsinizs": 3496,
  "oplama": 3497,
  "toplama": 3498,
  "çekile": 3499,
  "çekilebilir": 3500,
  "bileti": 3501,
  "eden": 3502,
  "edenleri": 3503,
  "nedenleri": 3504,
  "değiştirmeden": 3505,
  "gerekmeden": 3506,
  "ilmeden": 3507,
  "edilmeden": 3508,
  "ereden": 3509,
  "nereden": 3510,
  "ireden": 3511,
  "daireden": 3512,
  "edence": 3513,
  "Bedence": 3514,
  "edenim": 3515,
  "bedenim": 3516,
  "iteden": 3517,
  "kaliteden": 3518,
  "etim": 3519,
  "etimini": 3520,
  "üretimini": 3521,
  "etimler": 3522,
  "denetimler": 3523,
  "etiminin": 3524,
  "önetiminin": 3525,
  "yönetiminin": 3526,
  "iletim": 3527,
  "iletimi": 3528,
  "iminin": 3529,
  "işiminin": 3530,
  "erişiminin": 3531,
  "ğişiminin": 3532,
  "değişiminin": 3533,
  "etimiy": 3534,
  "önetimiy": 3535,
  "önetimiyle": 3536,
  "Yönetimiyle": 3537,
  "oldu": 3538,
  "han": 3539,
  "hanger": 3540,
  "ethanger": 3541,
  "Nethanger": 3542,
  "hanede": 3543,
  "arhanede": 3544,
  "umarhanede": 3545,
  "Kumarhanede": 3546,
  "iye": 3547,
  "saniye": 3548,
  "deriye": 3549,
  "artiye": 3550,
  "partiye": 3551,
  "ipmanları": 3552,
  "ekipmanları": 3553,
  "kipmanları": 3554,
  "Ekipmanları": 3555,
  "ilik": 3556,
  "ilikleri": 3557,
  "lilikleri": 3558,
  "eklilikleri": 3559,
  "ereklilikleri": 3560,
  "Gereklilikleri": 3561,
  "ilikler": 3562,
  "enilikler": 3563,
  "Yenilikler": 3564,
  "lilikler": 3565,
  "irlilikler": 3566,
  "kirlilikler": 3567,
  "enilik": 3568,
  "yenilik": 3569,
  "azilik": 3570,
  "azilikay": 3571,
  "bazilikay": 3572,
  "bazilikayı": 3573,
  "ililik": 3574,
  "kililik": 3575,
  "tkililik": 3576,
  "Etkililik": 3577,
  "edir": 3578,
  "gerekmektedir": 3579,
  "süredir": 3580,
  "imedir": 3581,
  "elimedir": 3582,
  "kelimedir": 3583,
  "iyedir": 3584,
  "saniyedir": 3585,
  "mesi": 3586,
  "sekmesi": 3587,
  "dirmesi": 3588,
  "lendirmesi": 3589,
  "ğerlendirmesi": 3590,
  "eğerlendirmesi": 3591,
  "Değerlendirmesi": 3592,
  "etmesi": 3593,
  "letmesi": 3594,
  "işletmesi": 3595,
  "şletmesi": 3596,
  "İşletmesi": 3597,
  "elmesi": 3598,
  "önelmesi": 3599,
  "yönelmesi": 3600,
  "enmesi": 3601,
  "elenmesi": 3602,
  "celenmesi": 3603,
  "incelenmesi": 3604,
  "ğmesi": 3605,
  "üğmesi": 3606,
  "düğmesi": 3607,
  "tal": 3608,
  "talama": 3609,
  "oktalama": 3610,
  "noktalama": 3611,
  "ortalama": 3612,
  "yantal": 3613,
  "ryantal": 3614,
  "Oryantal": 3615,
  "mental": 3616,
  "unmental": 3617,
  "gunmental": 3618,
  "tü": 3619,
  "tüler": 3620,
  "üntüler": 3621,
  "görüntüler": 3622,
  "görüntüleriniz": 3623,
  "görüntülerinizi": 3624,
  "tüleme": 3625,
  "üntüleme": 3626,
  "görüntüleme": 3627,
  "elley": 3628,
  "elleyin": 3629,
  "celleyin": 3630,
  "güncelleyin": 3631,
  "celley": 3632,
  "güncelley": 3633,
  "güncelleye": 3634,
  "güncelleyebil": 3635,
  "güncelleyebile": 3636,
  "güncelleyebilece": 3637,
  "çekin": 3638,
  "çekinme": 3639,
  "çekinmey": 3640,
  "çekinmeyin": 3641,
  "imser": 3642,
  "enimser": 3643,
  "benimser": 3644,
  "Delik": 3645,
  "tirdi": 3646,
  "leştirdi": 3647,
  "çekleştirdi": 3648,
  "gerçekleştirdi": 3649,
  "gerçekleştirdiği": 3650,
  "malar": 3651,
  "alışmalar": 3652,
  "Çalışmalar": 3653,
  "alanmalar": 3654,
  "galanmalar": 3655,
  "algalanmalar": 3656,
  "dalgalanmalar": 3657,
  "tırmalar": 3658,
  "ştırmalar": 3659,
  "raştırmalar": 3660,
  "Araştırmalar": 3661,
  "ışmalar": 3662,
  "akışmalar": 3663,
  "çakışmalar": 3664,
  "izmalar": 3665,
  "anizmalar": 3666,
  "ekanizmalar": 3667,
  "Mekanizmalar": 3668,
  "inmalar": 3669,
  "alinmalar": 3670,
  "calinmalar": 3671,
  "lmalar": 3672,
  "Elmalar": 3673,
  "pmalar": 3674,
  "sapmalar": 3675,
  "calinmalardan": 3676,
  "Çalışmalarım": 3677,
  "Çalışmalarımız": 3678,
  "Çalışmalarımızın": 3679,
  "çakışmaların": 3680,
  "malarının": 3681,
  "lamalarının": 3682,
  "ulamalarının": 3683,
  "gulamalarının": 3684,
  "uygulamalarının": 3685,
  "malarında": 3686,
  "lamalarında": 3687,
  "ulamalarında": 3688,
  "gulamalarında": 3689,
  "uygulamalarında": 3690,
  "malarına": 3691,
  "çalışmalarına": 3692,
  "alarına": 3693,
  "amalarına": 3694,
  "alamalarına": 3695,
  "balamalarına": 3696,
  "ombalamalarına": 3697,
  "bombalamalarına": 3698,
  "çalarına": 3699,
  "arçalarına": 3700,
  "parçalarına": 3701,
  "malara": 3702,
  "çalışmalara": 3703,
  "bugün": 3704,
  "ezine": 3705,
  "kezine": 3706,
  "erkezine": 3707,
  "merkezine": 3708,
  "vardı": 3709,
  "aşama": 3710,
  "aşamaya": 3711,
  "çeker": 3712,
  "çekerken": 3713,
  "çekerek": 3714,
  "tanır": 3715,
  "denir": 3716,
  "oryan": 3717,
  "oryant": 3718,
  "oryantasyon": 3719,
  "oryantasyonun": 3720,
  "oryantasyonundan": 3721,
  "oryantasyonu": 3722,
  "tasyon": 3723,
  "mentasyon": 3724,
  "mentasyonun": 3725,
  "gmentasyonun": 3726,
  "igmentasyonun": 3727,
  "pigmentasyonun": 3728,
  "günlü": 3729,
  "üzgünlü": 3730,
  "düzgünlü": 3731,
  "eklik": 3732,
  "neklik": 3733,
  "esneklik": 3734,
  "makam": 3735,
  "makamlar": 3736,
  "makamlarla": 3737,
  "makamı": 3738,
  "turdu": 3739,
  "uşturdu": 3740,
  "oluşturdu": 3741,
  "istor": 3742,
  "Histor": 3743,
  "Histori": 3744,
  "histor": 3745,
  "history": 3746,
  "izmas": 3747,
  "izmasının": 3748,
  "anizmasının": 3749,
  "mekanizmasının": 3750,
  "izmasına": 3751,
  "olizmasına": 3752,
  "abolizmasına": 3753,
  "metabolizmasına": 3754,
  "ilver": 3755,
  "Silver": 3756,
  "Silverl": 3757,
  "Silverline": 3758,
  "ınmış": 3759,
  "arınmış": 3760,
  "azınmış": 3761,
  "Kazınmış": 3762,
  "imlen": 3763,
  "imlendir": 3764,
  "içimlendir": 3765,
  "içimlendirdi": 3766,
  "içimlendirdiği": 3767,
  "biçimlendirdiği": 3768,
  "isimlendir": 3769,
  "isimlendirm": 3770,
  "isimlendirmeler": 3771,
  "eçine": 3772,
  "Reçine": 3773,
  "reçine": 3774,
  "kenti": 3775,
  "çıktı": 3776,
  "çıktığı": 3777,
  "çıktıs": 3778,
  "çıktısını": 3779,
  "biniz": 3780,
  "ebiniz": 3781,
  "talebiniz": 3782,
  "alebiniz": 3783,
  "Talebiniz": 3784,
  "Talebinizi": 3785,
  "ilden": 3786,
  "atilden": 3787,
  "tatilden": 3788,
  "Silden": 3789,
  "Sildena": 3790,
  "enlem": 3791,
  "üzenlem": 3792,
  "üzenlemek": 3793,
  "düzenlemek": 3794,
  "onley": 3795,
  "mater": 3796,
  "matery": 3797,
  "materyal": 3798,
  "materyaller": 3799,
  "mında": 3800,
  "tamında": 3801,
  "ortamında": 3802,
  "lımında": 3803,
  "ılımında": 3804,
  "zılımında": 3805,
  "yazılımında": 3806,
  "ergel": 3807,
  "ergeleri": 3808,
  "önergeleri": 3809,
  "yönergeleri": 3810,
  "stergeleri": 3811,
  "östergeleri": 3812,
  "göstergeleri": 3813,
  "geleri": 3814,
  "lgeleri": 3815,
  "ölgeleri": 3816,
  "Bölgeleri": 3817,
  "ışmak": 3818,
  "artışmak": 3819,
  "tartışmak": 3820,
  "ıkışmak": 3821,
  "Sıkışmak": 3822,
  "atson": 3823,
  "Watson": 3824,
  "arket": 3825,
  "market": 3826,
  "Market": 3827,
  "artıl": 3828,
  "artılması": 3829,
  "ızartılması": 3830,
  "kızartılması": 3831,
  "abartıl": 3832,
  "abartıldı": 3833,
  "ardan": 3834,
  "ayardan": 3835,
  "isayardan": 3836,
  "gisayardan": 3837,
  "bilgisayardan": 3838,
  "ışardan": 3839,
  "Dışardan": 3840,
  "eşleş": 3841,
  "eşleşme": 3842,
  "eşleşmez": 3843,
  "eşleşm": 3844,
  "eşleşmiyor": 3845,
  "iktir": 3846,
  "itiktir": 3847,
  "ritiktir": 3848,
  "kritiktir": 3849,
  "eciktir": 3850,
  "geciktir": 3851,
  "geciktiri": 3852,
  "geciktirici": 3853,
  "ayede": 3854,
  "sayede": 3855,
  "imden": 3856,
  "itimden": 3857,
  "ğitimden": 3858,
  "Eğitimden": 3859,
  "cimden": 3860,
  "bicimden": 3861,
  "irley": 3862,
  "irleyebilir": 3863,
  "irleyebilirsiniz": 3864,
  "elirleyebilirsiniz": 3865,
  "belirleyebilirsiniz": 3866,
  "elirley": 3867,
  "belirley": 3868,
  "belirleyi": 3869,
  "belirleyici": 3870,
  "ezisi": 3871,
  "Gezisi": 3872,
  "lanca": 3873,
  "ablanca": 3874,
  "asablanca": 3875,
  "Casablanca": 3876,
  "blanca": 3877,
  "asblanca": 3878,
  "Casblanca": 3879,
  "manet": 3880,
  "Emanet": 3881,
  "buluş": 3882,
  "buluşt": 3883,
  "buluştu": 3884,
  "buluşu": 3885,
  "taret": 3886,
  "erhan": 3887,
  "erhangi": 3888,
  "Herhangi": 3889,
  "urist": 3890,
  "uristik": 3891,
  "Turistik": 3892,
  "Turist": 3893,
  "istik": 3894,
  "enistik": 3895,
  "elenistik": 3896,
  "Helenistik": 3897,
  "fistik": 3898,
  "ofistik": 3899,
  "sofistik": 3900,
  "sofistike": 3901,
  "araya": 3902,
  "umalı": 3903,
  "orumalı": 3904,
  "korumalı": 3905,
  "Korumalı": 3906,
  "laşın": 3907,
  "ulaşın": 3908,
  "artık": 3909,
  "lamay": 3910,
  "lamayı": 3911,
  "ulamayı": 3912,
  "gulamayı": 3913,
  "uygulamayı": 3914,
  "ılamayı": 3915,
  "şılamayı": 3916,
  "karşılamayı": 3917,
  "günün": 3918,
  "öngünün": 3919,
  "öngününüz": 3920,
  "Döngününüz": 3921,
  "larak": 3922,
  "ılarak": 3923,
  "kullanılarak": 3924,
  "etken": 3925,
  "üretken": 3926,
  "otter": 3927,
  "Hotter": 3928,
  "lotter": 3929,
  "Plotter": 3930,
  "allan": 3931,
  "allanır": 3932,
  "allanırsa": 3933,
  "sallanırsa": 3934,
  "allanma": 3935,
  "sallanma": 3936,
  "enter": 3937,
  "enteral": 3938,
  "Center": 3939,
  "konuk": 3940,
  "konukların": 3941,
  "konuklarına": 3942,
  "arıda": 3943,
  "ışarıda": 3944,
  "Dışarıda": 3945,
  "dışarıda": 3946,
  "tlama": 3947,
  "altlama": 3948,
  "faltlama": 3949,
  "asfaltlama": 3950,
  "Atlama": 3951,
  "ılama": 3952,
  "atılama": 3953,
  "natılama": 3954,
  "oynatılama": 3955,
  "oynatılamaz": 3956,
  "gılama": 3957,
  "yargılama": 3958,
  "ızdan": 3959,
  "amızdan": 3960,
  "azamızdan": 3961,
  "ğazamızdan": 3962,
  "ağazamızdan": 3963,
  "Mağazamızdan": 3964,
  "hızdan": 3965,
  "orsan": 3966,
  "uyorsan": 3967,
  "buluyorsan": 3968,
  "buluyorsanız": 3969,
  "Korsan": 3970,
  "istes": 3971,
  "istesine": 3972,
  "Listesine": 3973,
  "listesine": 3974,
  "sitey": 3975,
  "siteye": 3976,
  "ental": 3977,
  "inental": 3978,
  "tinental": 3979,
  "kontinental": 3980,
  "ontinental": 3981,
  "Continental": 3982,
  "Hızlı": 3983,
  "tirir": 3984,
  "leştirir": 3985,
  "birleştirir": 3986,
  "birleştirirs": 3987,
  "birleştirirsen": 3988,
  "birleştirirseniz": 3989,
  "birleştirirsenizAn": 3990,
  "birleştirirsenizAnti": 3991,
  "ştirir": 3992,
  "ileştirir": 3993,
  "iyileştirir": 3994,
  "dırır": 3995,
  "kaldırır": 3996,
  "andırır": 3997,
  "uyandırır": 3998,
  "andır": 3999
}