{
  "<unk>": 0,
  "<pad>": 1,
  " ": 3,
  "!": 4,
  "\"": 5,
  "#": 6,
  "$": 7,
  "%": 8,
  "&": 9,
  "'": 10,
  "(": 11,
  ")": 12,
  "*": 13,
  "+": 14,
  ",": 15,
  "-": 16,
  ".": 17,
  "/": 18,
  "0": 19,
  "1": 20,
  "2": 21,
  "3": 22,
  "4": 23,
  "5": 24,
  "6": 25,
  "7": 26,
  "8": 27,
  "9": 28,
  ":": 29,
  ";": 30,
  "<": 31,
  "=": 32,
  ">": 33,
  "?": 34,
  "@": 35,
  "A": 36,
  "B": 37,
  "C": 38,
  "D": 39,
  "E": 40,
  "F": 41,
  "G": 42,
  "H": 43,
  "I": 44,
  "J": 45,
  "K": 46,
  "L": 47,
  "M": 48,
  "N": 49,
  "O": 50,
  "P": 51,
  "Q": 52,
  "R": 53,
  "S": 54,
  "T": 55,
  "U": 56,
  "V": 57,
  "W": 58,
  "X": 59,
  "Y": 60,
  "Z": 61,
  "[": 62,
  "\\": 63,
  "]": 64,
  "^": 65,
  "_": 66,
  "`": 67,
  "a": 68,
  "b": 69,
  "c": 70,
  "d": 71,
  "e": 72,
  "f": 73,
  "g": 74,
  "h": 75,
  "i": 76,
  "j": 77,
  "k": 78,
  "l": 79,
  "m": 80,
  "n": 81,
  "o": 82,
  "p": 83,
  "q": 84,
  "r": 85,
  "s": 86,
  "t": 87,
  "u": 88,
  "v": 89,
  "w": 90,
  "x": 91,
  "y": 92,
  "z": 93,
  "{": 94,
  "|": 95,
  "}": 96,
  "~": 97,
  "£": 98,
  "¥": 99,
  "©": 100,
  "«": 101,
  "­": 102,
  "°": 103,
  "±": 104,
  "²": 105,
  "³": 106,
  "´": 107,
  "µ": 108,
  "·": 109,
  "¹": 110,
  "»": 111,
  "¼": 112,
  "½": 113,
  "¾": 114,
  "Å": 115,
  "É": 116,
  "Î": 117,
  "×": 118,
  "Ü": 119,
  "ß": 120,
  "à": 121,
  "á": 122,
  "â": 123,
  "ã": 124,
  "ä": 125,
  "å": 126,
  "æ": 127,
  "ç": 128,
  "è": 129,
  "é": 130,
  "ê": 131,
  "ë": 132,
  "ì": 133,
  "í": 134,
  "î": 135,
  "ï": 136,
  "ð": 137,
  "ñ": 138,
  "ò": 139,
  "ó": 140,
  "ô": 141,
  "õ": 142,
  "ö": 143,
  "÷": 144,
  "ø": 145,
  "ù": 146,
  "ú": 147,
  "û": 148,
  "ü": 149,
  "ý": 150,
  "Ā": 151,
  "ā": 152,
  "ă": 153,
  "ć": 154,
  "Č": 155,
  "č": 156,
  "Đ": 157,
  "ē": 158,
  "ĕ": 159,
  "ě": 160,
  "ī": 161,
  "İ": 162,
  "ı": 163,
  "Ļ": 164,
  "ļ": 165,
  "ł": 166,
  "ņ": 167,
  "ŋ": 168,
  "ō": 169,
  "ś": 170,
  "ş": 171,
  "š": 172,
  "Ţ": 173,
  "ţ": 174,
  "ū": 175,
  "ŭ": 176,
  "ž": 177,
  "ư": 178,
  "ǒ": 179,
  "ɐ": 180,
  "ɑ": 181,
  "ɔ": 182,
  "ə": 183,
  "ɛ": 184,
  "ɪ": 185,
  "ɫ": 186,
  "ɴ": 187,
  "ɹ": 188,
  "ɾ": 189,
  "ʀ": 190,
  "ʃ": 191,
  "ʊ": 192,
  "ʰ": 193,
  "ˈ": 194,
  "ː": 195,
  "˚": 196,
  "́": 197,
  "̈": 198,
  "Δ": 199,
  "Ζ": 200,
  "Η": 201,
  "Θ": 202,
  "Κ": 203,
  "Λ": 204,
  "Ν": 205,
  "Ξ": 206,
  "Π": 207,
  "Σ": 208,
  "Τ": 209,
  "Φ": 210,
  "Ω": 211,
  "ά": 212,
  "έ": 213,
  "ή": 214,
  "ί": 215,
  "α": 216,
  "β": 217,
  "γ": 218,
  "δ": 219,
  "ε": 220,
  "ζ": 221,
  "η": 222,
  "θ": 223,
  "ι": 224,
  "κ": 225,
  "λ": 226,
  "μ": 227,
  "ν": 228,
  "ξ": 229,
  "ο": 230,
  "π": 231,
  "ρ": 232,
  "ς": 233,
  "σ": 234,
  "τ": 235,
  "υ": 236,
  "φ": 237,
  "χ": 238,
  "ψ": 239,
  "ω": 240,
  "ό": 241,
  "ώ": 242,
  "В": 243,
  "Г": 244,
  "Д": 245,
  "И": 246,
  "К": 247,
  "М": 248,
  "О": 249,
  "П": 250,
  "Р": 251,
  "С": 252,
  "Ф": 253,
  "Ч": 254,
  "Я": 255,
  "а": 256,
  "б": 257,
  "в": 258,
  "г": 259,
  "д": 260,
  "е": 261,
  "ж": 262,
  "з": 263,
  "и": 264,
  "й": 265,
  "к": 266,
  "л": 267,
  "м": 268,
  "н": 269,
  "о": 270,
  "п": 271,
  "р": 272,
  "с": 273,
  "т": 274,
  "у": 275,
  "ф": 276,
  "х": 277,
  "ц": 278,
  "ч": 279,
  "ш": 280,
  "щ": 281,
  "ъ": 282,
  "ы": 283,
  "ь": 284,
  "ю": 285,
  "я": 286,
  "ё": 287,
  "і": 288,
  "ӯ": 289,
  "ִ": 290,
  "ַ": 291,
  "ָ": 292,
  "ׁ": 293,
  "ב": 294,
  "ה": 295,
  "ח": 296,
  "י": 297,
  "ם": 298,
  "מ": 299,
  "ס": 300,
  "ע": 301,
  "פ": 302,
  "ק": 303,
  "ר": 304,
  "ש": 305,
  "ת": 306,
  "ء": 307,
  "آ": 308,
  "أ": 309,
  "ؤ": 310,
  "إ": 311,
  "ا": 312,
  "ب": 313,
  "ت": 314,
  "ج": 315,
  "ح": 316,
  "د": 317,
  "ر": 318,
  "س": 319,
  "ش": 320,
  "ص": 321,
  "ع": 322,
  "غ": 323,
  "ق": 324,
  "ك": 325,
  "ل": 326,
  "م": 327,
  "ن": 328,
  "ه": 329,
  "و": 330,
  "ى": 331,
  "ي": 332,
  "ٹ": 333,
  "پ": 334,
  "ڌ": 335,
  "ک": 336,
  "گ": 337,
  "ں": 338,
  "ھ": 339,
  "ہ": 340,
  "ی": 341,
  "ۍ": 342,
  "ރ": 343,
  "ފ": 344,
  "ޔ": 345,
  "ާ": 346,
  "ި": 347,
  "ު": 348,
  "ँ": 349,
  "ं": 350,
  "ः": 351,
  "अ": 352,
  "आ": 353,
  "इ": 354,
  "ई": 355,
  "उ": 356,
  "ऊ": 357,
  "ऋ": 358,
  "ऌ": 359,
  "ऎ": 360,
  "ए": 361,
  "ऒ": 362,
  "औ": 363,
  "क": 364,
  "ख": 365,
  "ग": 366,
  "च": 367,
  "छ": 368,
  "ज": 369,
  "ट": 370,
  "ठ": 371,
  "ड": 372,
  "ण": 373,
  "त": 374,
  "द": 375,
  "ध": 376,
  "न": 377,
  "प": 378,
  "ब": 379,
  "भ": 380,
  "म": 381,
  "य": 382,
  "र": 383,
  "ल": 384,
  "ळ": 385,
  "व": 386,
  "श": 387,
  "स": 388,
  "ह": 389,
  "ा": 390,
  "ि": 391,
  "ी": 392,
  "ु": 393,
  "ू": 394,
  "ृ": 395,
  "े": 396,
  "ै": 397,
  "ो": 398,
  "ौ": 399,
  "्": 400,
  "ॠ": 401,
  "ॡ": 402,
  "ং": 403,
  "ক": 404,
  "জ": 405,
  "ট": 406,
  "ঠ": 407,
  "ত": 408,
  "থ": 409,
  "দ": 410,
  "ন": 411,
  "প": 412,
  "ব": 413,
  "য": 414,
  "র": 415,
  "শ": 416,
  "স": 417,
  "়": 418,
  "া": 419,
  "ি": 420,
  "ী": 421,
  "ু": 422,
  "্": 423,
  "ৎ": 424,
  "ৰ": 425,
  "ਆ": 426,
  "ਈ": 427,
  "ਖ": 428,
  "ਣ": 429,
  "ਦ": 430,
  "ਧ": 431,
  "ਨ": 432,
  "ਪ": 433,
  "ਰ": 434,
  "ਲ": 435,
  "ਸ": 436,
  "ਹ": 437,
  "ਾ": 438,
  "ਿ": 439,
  "ੀ": 440,
  "ੁ": 441,
  "ੰ": 442,
  "ੱ": 443,
  "ગ": 444,
  "ણ": 445,
  "ધ": 446,
  "પ": 447,
  "ય": 448,
  "ર": 449,
  "ળ": 450,
  "ા": 451,
  "િ": 452,
  "ી": 453,
  "ૂ": 454,
  "ો": 455,
  "କ": 456,
  "ଙ": 457,
  "ଟ": 458,
  "ା": 459,
  "୍": 460,
  "ஃ": 461,
  "அ": 462,
  "ஆ": 463,
  "இ": 464,
  "ஈ": 465,
  "உ": 466,
  "ஊ": 467,
  "எ": 468,
  "ஏ": 469,
  "ஐ": 470,
  "ஒ": 471,
  "ஓ": 472,
  "ஔ": 473,
  "க": 474,
  "ங": 475,
  "ச": 476,
  "ஜ": 477,
  "ஞ": 478,
  "ட": 479,
  "ண": 480,
  "த": 481,
  "ந": 482,
  "ன": 483,
  "ப": 484,
  "ம": 485,
  "ய": 486,
  "ர": 487,
  "ற": 488,
  "ல": 489,
  "ள": 490,
  "ழ": 491,
  "வ": 492,
  "ஶ": 493,
  "ஷ": 494,
  "ஸ": 495,
  "ஹ": 496,
  "ா": 497,
  "ி": 498,
  "ீ": 499,
  "ு": 500,
  "ூ": 501,
  "ெ": 502,
  "ே": 503,
  "ை": 504,
  "ொ": 505,
  "ோ": 506,
  "ௌ": 507,
  "்": 508,
  "ௗ": 509,
  "௦": 510,
  "௧": 511,
  "௨": 512,
  "௩": 513,
  "௫": 514,
  "௬": 515,
  "௭": 516,
  "௮": 517,
  "௯": 518,
  "௳": 519,
  "௴": 520,
  "௵": 521,
  "ం": 522,
  "ః": 523,
  "అ": 524,
  "ఋ": 525,
  "ఌ": 526,
  "క": 527,
  "ఖ": 528,
  "గ": 529,
  "ఘ": 530,
  "ఙ": 531,
  "చ": 532,
  "ఛ": 533,
  "జ": 534,
  "ఝ": 535,
  "ఞ": 536,
  "ట": 537,
  "ఠ": 538,
  "డ": 539,
  "ఢ": 540,
  "ణ": 541,
  "త": 542,
  "థ": 543,
  "ద": 544,
  "ధ": 545,
  "న": 546,
  "ప": 547,
  "ఫ": 548,
  "బ": 549,
  "భ": 550,
  "మ": 551,
  "య": 552,
  "ర": 553,
  "ఱ": 554,
  "ల": 555,
  "ళ": 556,
  "వ": 557,
  "శ": 558,
  "ష": 559,
  "స": 560,
  "హ": 561,
  "ా": 562,
  "ి": 563,
  "ు": 564,
  "ూ": 565,
  "ె": 566,
  "ే": 567,
  "ో": 568,
  "్": 569,
  "ౠ": 570,
  "ౡ": 571,
  "ಂ": 572,
  "ಃ": 573,
  "ಅ": 574,
  "ಆ": 575,
  "ಇ": 576,
  "ಈ": 577,
  "ಉ": 578,
  "ಊ": 579,
  "ಋ": 580,
  "ಎ": 581,
  "ಏ": 582,
  "ಐ": 583,
  "ಒ": 584,
  "ಓ": 585,
  "ಔ": 586,
  "ಕ": 587,
  "ಗ": 588,
  "ಡ": 589,
  "ಣ": 590,
  "ನ": 591,
  "ಪ": 592,
  "ಬ": 593,
  "ಮ": 594,
  "ಯ": 595,
  "ರ": 596,
  "ಱ": 597,
  "ಲ": 598,
  "ಳ": 599,
  "ವ": 600,
  "ಶ": 601,
  "ಷ": 602,
  "ಸ": 603,
  "ಹ": 604,
  "ಾ": 605,
  "ಿ": 606,
  "ು": 607,
  "ೂ": 608,
  "ೆ": 609,
  "ೇ": 610,
  "್": 611,
  "ೞ": 612,
  "ം": 613,
  "അ": 614,
  "ക": 615,
  "ഖ": 616,
  "ഗ": 617,
  "ങ": 618,
  "ച": 619,
  "ണ": 620,
  "ത": 621,
  "ഥ": 622,
  "ദ": 623,
  "ന": 624,
  "പ": 625,
  "ഭ": 626,
  "മ": 627,
  "യ": 628,
  "ര": 629,
  "റ": 630,
  "ല": 631,
  "ള": 632,
  "വ": 633,
  "ശ": 634,
  "ഷ": 635,
  "സ": 636,
  "ഹ": 637,
  "ാ": 638,
  "ി": 639,
  "ു": 640,
  "ൂ": 641,
  "േ": 642,
  "ൊ": 643,
  "ോ": 644,
  "്": 645,
  "ං": 646,
  "අ": 647,
  "එ": 648,
  "ක": 649,
  "ග": 650,
  "ජ": 651,
  "ට": 652,
  "ඩ": 653,
  "ණ": 654,
  "ත": 655,
  "ද": 656,
  "න": 657,
  "ප": 658,
  "ම": 659,
  "ඹ": 660,
  "ය": 661,
  "ර": 662,
  "ල": 663,
  "ව": 664,
  "ෂ": 665,
  "ස": 666,
  "හ": 667,
  "ළ": 668,
  "්": 669,
  "ා": 670,
  "ැ": 671,
  "ි": 672,
  "ු": 673,
  "ෙ": 674,
  "ේ": 675,
  "ො": 676,
  "ค": 677,
  "ญ": 678,
  "ท": 679,
  "น": 680,
  "ป": 681,
  "ม": 682,
  "ย": 683,
  "ร": 684,
  "ศ": 685,
  "ส": 686,
  "ะ": 687,
  "า": 688,
  "ี": 689,
  "ุ": 690,
  "เ": 691,
  "ไ": 692,
  "่": 693,
  "๋": 694,
  "་": 695,
  "།": 696,
  "ག": 697,
  "ང": 698,
  "པ": 699,
  "ཙ": 700,
  "ས": 701,
  "ེ": 702,
  "ོ": 703,
  "ა": 704,
  "ბ": 705,
  "ე": 706,
  "ვ": 707,
  "ი": 708,
  "ლ": 709,
  "ნ": 710,
  "ო": 711,
  "რ": 712,
  "ს": 713,
  "უ": 714,
  "ღ": 715,
  "შ": 716,
  "ძ": 717,
  "ჯ": 718,
  "ᐤ": 719,
  "ᱟ": 720,
  "ᱤ": 721,
  "ᱨ": 722,
  "ᱪ": 723,
  "ᱺ": 724,
  "ḍ": 725,
  "ḷ": 726,
  "ṇ": 727,
  "ṛ": 728,
  "ṟ": 729,
  "ṣ": 730,
  "ṭ": 731,
  "ả": 732,
  "ậ": 733,
  "ờ": 734,
  "ữ": 735,
  "ἀ": 736,
  "Ἀ": 737,
  "Ἁ": 738,
  "ἔ": 739,
  "ἤ": 740,
  "ἰ": 741,
  "ἱ": 742,
  "ἵ": 743,
  "Ἰ": 744,
  "Ἱ": 745,
  "ὰ": 746,
  "ὴ": 747,
  "ὶ": 748,
  "ᾰ": 749,
  "ᾶ": 750,
  "ῆ": 751,
  "ῦ": 752,
  "ῷ": 753,
  "​": 754,
  "‌": 755,
  "‍": 756,
  "‎": 757,
  "‏": 758,
  "‑": 759,
  "–": 760,
  "—": 761,
  "‘": 762,
  "’": 763,
  "“": 764,
  "”": 765,
  "†": 766,
  "‡": 767,
  "•": 768,
  "…": 769,
  "‰": 770,
  "‱": 771,
  "′": 772,
  "″": 773,
  "⁄": 774,
  "₤": 775,
  "₨": 776,
  "€": 777,
  "₱": 778,
  "₹": 779,
  "ℕ": 780,
  "℘": 781,
  "™": 782,
  "ℤ": 783,
  "ℵ": 784,
  "←": 785,
  "↑": 786,
  "→": 787,
  "↓": 788,
  "↔": 789,
  "⇌": 790,
  "∅": 791,
  "∆": 792,
  "∈": 793,
  "−": 794,
  "√": 795,
  "∝": 796,
  "∞": 797,
  "∠": 798,
  "∩": 799,
  "∪": 800,
  "≈": 801,
  "≠": 802,
  "≡": 803,
  "≤": 804,
  "≥": 805,
  "⋅": 806,
  "─": 807,
  "┌": 808,
  "┐": 809,
  "┬": 810,
  "┴": 811,
  "┼": 812,
  "☄": 813,
  "♄": 814,
  "♠": 815,
  "♣": 816,
  "♥": 817,
  "♦": 818,
  "➊": 819,
  "➋": 820,
  "➌": 821,
  "➍": 822,
  "あ": 823,
  "い": 824,
  "う": 825,
  "え": 826,
  "か": 827,
  "く": 828,
  "こ": 829,
  "ざ": 830,
  "し": 831,
  "だ": 832,
  "ち": 833,
  "つ": 834,
  "て": 835,
  "と": 836,
  "な": 837,
  "に": 838,
  "の": 839,
  "は": 840,
  "ふ": 841,
  "ほ": 842,
  "ま": 843,
  "や": 844,
  "ゅ": 845,
  "ょ": 846,
  "ら": 847,
  "ゑ": 848,
  "ん": 849,
  "イ": 850,
  "ェ": 851,
  "ク": 852,
  "ザ": 853,
  "チ": 854,
  "ド": 855,
  "ナ": 856,
  "ム": 857,
  "ヤ": 858,
  "ン": 859,
  "ー": 860,
  "一": 861,
  "三": 862,
  "上": 863,
  "中": 864,
  "丹": 865,
  "京": 866,
  "人": 867,
  "企": 868,
  "会": 869,
  "元": 870,
  "入": 871,
  "共": 872,
  "円": 873,
  "出": 874,
  "初": 875,
  "力": 876,
  "加": 877,
  "北": 878,
  "南": 879,
  "印": 880,
  "厘": 881,
  "原": 882,
  "双": 883,
  "各": 884,
  "合": 885,
  "和": 886,
  "哈": 887,
  "回": 888,
  "国": 889,
  "國": 890,
  "圓": 891,
  "坡": 892,
  "城": 893,
  "塔": 894,
  "塞": 895,
  "壁": 896,
  "大": 897,
  "字": 898,
  "家": 899,
  "小": 900,
  "尔": 901,
  "峰": 902,
  "州": 903,
  "帕": 904,
  "帝": 905,
  "度": 906,
  "心": 907,
  "恩": 908,
  "慰": 909,
  "戈": 910,
  "拉": 911,
  "文": 912,
  "新": 913,
  "方": 914,
  "日": 915,
  "曲": 916,
  "會": 917,
  "朝": 918,
  "本": 919,
  "東": 920,
  "校": 921,
  "栽": 922,
  "梆": 923,
  "業": 924,
  "樓": 925,
  "水": 926,
  "沙": 927,
  "油": 928,
  "泉": 929,
  "波": 930,
  "津": 931,
  "流": 932,
  "海": 933,
  "源": 934,
  "漠": 935,
  "漢": 936,
  "潘": 937,
  "爆": 938,
  "王": 939,
  "甲": 940,
  "白": 941,
  "盆": 942,
  "直": 943,
  "神": 944,
  "禄": 945,
  "禮": 946,
  "穿": 947,
  "笛": 948,
  "簫": 949,
  "純": 950,
  "纳": 951,
  "習": 952,
  "腦": 953,
  "臺": 954,
  "花": 955,
  "茉": 956,
  "茶": 957,
  "莉": 958,
  "葦": 959,
  "蓮": 960,
  "虎": 961,
  "融": 962,
  "補": 963,
  "西": 964,
  "見": 965,
  "詣": 966,
  "路": 967,
  "蹴": 968,
  "迪": 969,
  "郎": 970,
  "金": 971,
  "銀": 972,
  "錢": 973,
  "長": 974,
  "长": 975,
  "陽": 976,
  "際": 977,
  "電": 978,
  "鞠": 979,
  "风": 980,
  "食": 981,
  "飲": 982,
  "馬": 983,
  "马": 984,
  "骨": 985,
  "경": 986,
  "나": 987,
  "남": 988,
  "라": 989,
  "례": 990,
  "류": 991,
  "리": 992,
  "별": 993,
  "본": 994,
  "분": 995,
  "서": 996,
  "성": 997,
  "양": 998,
  "요": 999,
  "울": 1000,
  "위": 1001,
  "일": 1002,
  "주": 1003,
  "한": 1004,
  "": 1005,
  "﻿": 1006,
  "（": 1007,
  "）": 1008,
  "்க": 1008,
  "ம்": 1009,
  "்த": 1010,
  "ன்": 1011,
  "ல்": 1012,
  "ப்": 1013,
  "்ட": 1014,
  "க்க": 1015,
  "ிய": 1016,
  "ும்": 1017,
  "ப்ப": 1018,
  "த்த": 1019,
  "ள்": 1020,
  "ர்": 1021,
  "து": 1022,
  "ரு": 1023,
  "ட்ட": 1024,
  "ந்த": 1025,
  "ில்": 1026,
  "ின்": 1027,
  "ைய": 1028,
  "ற்": 1029,
  "ங்க": 1030,
  "ாக": 1031,
  "ுக": 1032,
  "ற்ற": 1033,
  "தி": 1034,
  "வி": 1035,
  "ண்ட": 1036,
  "ான": 1037,
  "ில": 1038,
  "மு": 1039,
  "கு": 1040,
  "ிற": 1041,
  "்ச": 1042,
  "ள்ள": 1043,
  "ரி": 1044,
  "ன்ற": 1045,
  "டு": 1046,
  "கா": 1047,
  "ர்க": 1048,
  "பா": 1049,
  "ைக": 1050,
  "க்கு": 1051,
  "டி": 1052,
  "பெ": 1053,
  "வா": 1054,
  "மா": 1055,
  "ிக": 1056,
  "ிர": 1057,
  "செ": 1058,
  "த்து": 1059,
  "பு": 1060,
  "லை": 1061,
  "ந்து": 1062,
  "ப்பட": 1063,
  "ப்பட்ட": 1064,
  "போ": 1065,
  "வர": 1066,
  "ங்கள": 1067,
  "த்": 1068,
  "நா": 1069,
  "சு": 1070,
  "ார்": 1071,
  "ின": 1072,
  "மை": 1073,
  "லா": 1074,
  "கொ": 1075,
  "று": 1076,
  "ரா": 1077,
  "வே": 1078,
  "தா": 1079,
  "ற்க": 1080,
  "வெ": 1081,
  "வு": 1082,
  "தொ": 1083,
  "இரு": 1084,
  "ப்பு": 1085,
  "ச்ச": 1086,
  "றி": 1087,
  "மி": 1088,
  "பொ": 1089,
  "க்": 1090,
  "மற்ற": 1091,
  "மே": 1092,
  "ண்": 1093,
  "பி": 1094,
  "ட்டு": 1095,
  "ளை": 1096,
  "வை": 1097,
  "ய்": 1098,
  "ல்ல": 1099,
  "த்தில்": 1100,
  "ியா": 1101,
  "ண்டு": 1102,
  "ஒரு": 1103,
  "ிரு": 1104,
  "மற்றும்": 1105,
  "ர்கள்": 1106,
  "ன்ப": 1107,
  "ின்ற": 1108,
  "சி": 1109,
  "ங்கள்": 1110,
  "19": 1111,
  "நில": 1112,
  "ன்ன": 1113,
  "ழு": 1114,
  "ுகள்": 1115,
  "இந்த": 1116,
  "ச்": 1117,
  "ால்": 1118,
  "ிறது": 1119,
  "மாக": 1120,
  "என்ற": 1121,
  "உள்ள": 1122,
  "தே": 1123,
  "ஆக": 1124,
  "க்கும்": 1125,
  "ழ்": 1126,
  "கி": 1127,
  "கோ": 1128,
  "திய": 1129,
  "ுகள": 1130,
  "வும்": 1131,
  "ையும்": 1132,
  "மான": 1133,
  "ளி": 1134,
  "டை": 1135,
  "சா": 1136,
  "ைக்": 1137,
  "00": 1138,
  "ஸ்": 1139,
  "மூ": 1140,
  "ையில்": 1141,
  "றை": 1142,
  "வர்": 1143,
  "ட்": 1144,
  "டுத்த": 1145,
  "ரிய": 1146,
  "என": 1147,
  "தன": 1148,
  "விய": 1149,
  "ட்ச": 1150,
  "வில்": 1151,
  "திக": 1152,
  "ப்படுக": 1153,
  "னர்": 1154,
  "தன்": 1155,
  "லும்": 1156,
  "ர்கள": 1157,
  "கூ": 1158,
  "ரை": 1159,
  "ற்ப": 1160,
  "நக": 1161,
  "க்கிய": 1162,
  "ல்க": 1163,
  "ழி": 1164,
  "ுக்கு": 1165,
  "ைகள்": 1166,
  "பய": 1167,
  "டிய": 1168,
  "ம்ப": 1169,
  "த்தின்": 1170,
  "தமி": 1171,
  "க்கப்பட்ட": 1172,
  "ுள்ள": 1173,
  "அமை": 1174,
  "ிட": 1175,
  "நீ": 1176,
  "அர": 1177,
  "முத": 1178,
  "மொ": 1179,
  "மைய": 1180,
  "மீ": 1181,
  "ணி": 1182,
  "பிர": 1183,
  "க்கா": 1184,
  "என்ப": 1185,
  "தொட": 1186,
  "ரும்": 1187,
  "ைகள": 1188,
  "இய": 1189,
  "ற்று": 1190,
  "ின்றன": 1191,
  "கால": 1192,
  "டைய": 1193,
  "டன்": 1194,
  "ப்பா": 1195,
  "ணை": 1196,
  "சிய": 1197,
  "செய": 1198,
  "பொரு": 1199,
  "லி": 1200,
  "குறி": 1201,
  "மெ": 1202,
  "கொண்ட": 1203,
  "ர்த": 1204,
  "த்தை": 1205,
  "தெ": 1206,
  "அவ": 1207,
  "னை": 1208,
  "இது": 1209,
  "சே": 1210,
  "பல": 1211,
  "நூ": 1212,
  "ஆம்": 1213,
  "பகு": 1214,
  "லக": 1215,
  "னி": 1216,
  "உரு": 1217,
  "தாக": 1218,
  "இவ": 1219,
  "தற்க": 1220,
  "நாட": 1221,
  "இர": 1222,
  "இல": 1223,
  "ரம்": 1224,
  "பின்": 1225,
  "மக்க": 1226,
  "வாக": 1227,
  "கை": 1228,
  "பே": 1229,
  "ங்கு": 1230,
  "ன்று": 1231,
  "சிற": 1232,
  "வது": 1233,
  "ஞ்ச": 1234,
  "ிலும்": 1235,
  "தை": 1236,
  "வீ": 1237,
  "்கள்": 1238,
  "கரு": 1239,
  "an": 1240,
  "er": 1241,
  "யா": 1242,
  "திரு": 1243,
  "கட்ட": 1244,
  "ண்ண": 1245,
  "நிற": 1246,
  "வின்": 1247,
  "சில": 1248,
  "தலை": 1249,
  "ுக்": 1250,
  "்கு": 1251,
  "ரோ": 1252,
  "வழ": 1253,
  "இல்": 1254,
  "உய": 1255,
  "பெற்ற": 1256,
  "ஆகிய": 1257,
  "இருந்த": 1258,
  "கட": 1259,
  "அல்ல": 1260,
  "on": 1261,
  "ப்படும்": 1262,
  "ிகள்": 1263,
  "நகர": 1264,
  "லம்": 1265,
  "பெய": 1266,
  "ியல்": 1267,
  "பிற": 1268,
  "மிக": 1269,
  "அல்லது": 1270,
  "ளில்": 1271,
  "ப்படுகிறது": 1272,
  "ஆண்ட": 1273,
  "in": 1274,
  "விள": 1275,
  "அறி": 1276,
  "தோ": 1277,
  "சோ": 1278,
  "ர்த்த": 1279,
  "ங்களில்": 1280,
  "ுவ": 1281,
  "ூர்": 1282,
  "இட": 1283,
  "சம": 1284,
  "லிய": 1285,
  "போன்ற": 1286,
  "ளின்": 1287,
  "செய்": 1288,
  "வரு": 1289,
  "வள": 1290,
  "பிரி": 1291,
  "எழு": 1292,
  "பட": 1293,
  "முற": 1294,
  "ரண": 1295,
  "பர": 1296,
  "தொடர்": 1297,
  "ையா": 1298,
  "என்று": 1299,
  "ளிய": 1300,
  "அடி": 1301,
  "ழை": 1302,
  "பாட": 1303,
  "தீ": 1304,
  "வரை": 1305,
  "ாகும்": 1306,
  "ிருந்து": 1307,
  "200": 1308,
  "மேற்க": 1309,
  "ஆகும்": 1310,
  "குறிப்ப": 1311,
  "றிய": 1312,
  "லாம்": 1313,
  "நே": 1314,
  "பயன்ப": 1315,
  "ர்க்க": 1316,
  "உலக": 1317,
  "20": 1318,
  "போது": 1319,
  "முதல்": 1320,
  "வான": 1321,
  "வட்ட": 1322,
  "ான்": 1323,
  "பட்ட": 1324,
  "தில்": 1325,
  "சீ": 1326,
  "ட்சி": 1327,
  "வடி": 1328,
  "அள": 1329,
  "நோ": 1330,
  "ti": 1331,
  "தமிழ்": 1332,
  "சூ": 1333,
  "கம்": 1334,
  "சை": 1335,
  "நட": 1336,
  "தமிழ": 1337,
  "18": 1338,
  "சொ": 1339,
  "மும்": 1340,
  "or": 1341,
  "al": 1342,
  "வேறு": 1343,
  "ிருந்த": 1344,
  "ிக்": 1345,
  "காண": 1346,
  "வெளி": 1347,
  "இந்திய": 1348,
  "த்திய": 1349,
  "ுக்க": 1350,
  "கொண்டு": 1351,
  "த்தி": 1352,
  "en": 1353,
  "தம்": 1354,
  "அதிக": 1355,
  "ங்களை": 1356,
  "லில்": 1357,
  "த்தா": 1358,
  "மின்": 1359,
  "ேய": 1360,
  "நிலை": 1361,
  "வ்": 1362,
  "செய்ய": 1363,
  "ையை": 1364,
  "வந்த": 1365,
  "பூ": 1366,
  "த்திற": 1367,
  "ar": 1368,
  "செய்த": 1369,
  "க்கம்": 1370,
  "ஆண்டு": 1371,
  "பெரும்": 1372,
  "விட": 1373,
  "ப்பட்டது": 1374,
  "படி": 1375,
  "ர்ந்த": 1376,
  "ின்றது": 1377,
  "இணை": 1378,
  "பொது": 1379,
  "இரா": 1380,
  "முறை": 1381,
  "ப்புகள்": 1382,
  "எதி": 1383,
  "தும்": 1384,
  "என்பது": 1385,
  "பெரு": 1386,
  "ையின்": 1387,
  "வெளிய": 1388,
  "முக": 1389,
  "வக": 1390,
  "ரிக்க": 1391,
  "ிலிருந்து": 1392,
  "மொழ": 1393,
  "னா": 1394,
  "தற்கு": 1395,
  "நெ": 1396,
  "ராக": 1397,
  "ரின்": 1398,
  "உருவா": 1399,
  "மக்கள்": 1400,
  "த்துவ": 1401,
  "டும்": 1402,
  "நாட்ட": 1403,
  "ஏற்ப": 1404,
  "முக்கிய": 1405,
  "நி": 1406,
  "ஒன்ற": 1407,
  "es": 1408,
  "பயன்படுத்த": 1409,
  "ற்றா": 1410,
  "கண": 1411,
  "ற்றிய": 1412,
  "ுகிறது": 1413,
  "உள்ளது": 1414,
  "ளா": 1415,
  "ர்ச்ச": 1416,
  "தர": 1417,
  "ளும்": 1418,
  "ுடன்": 1419,
  "அமெ": 1420,
  "இருந்து": 1421,
  "ண்டும்": 1422,
  "வட": 1423,
  "பதி": 1424,
  "ற்றி": 1425,
  "கே": 1426,
  "ள்ளது": 1427,
  "ையாக": 1428,
  "ியின்": 1429,
  "க்கி": 1430,
  "ியில்": 1431,
  "வில": 1432,
  "th": 1433,
  "ொரு": 1434,
  "கல": 1435,
  "முன்ன": 1436,
  "ந்திர": 1437,
  "வரலா": 1438,
  "மேலும்": 1439,
  "ுகளை": 1440,
  "ல்கள்": 1441,
  "இந்தியா": 1442,
  "ஆன": 1443,
  "க்கோ": 1444,
  "மாவட்ட": 1445,
  "வற்ற": 1446,
  "ுகளில்": 1447,
  "ப்படுத்த": 1448,
  "ப்படுகின்றன": 1449,
  "ட்டி": 1450,
  "த்திர": 1451,
  "மொழி": 1452,
  "is": 1453,
  "ையான": 1454,
  "மூலம்": 1455,
  "ங்கில": 1456,
  "ால": 1457,
  "டுத்து": 1458,
  "தியில்": 1459,
  "ப்பி": 1460,
  "மர": 1461,
  "ணம்": 1462,
  "நூற்றா": 1463,
  "தல்": 1464,
  "குறை": 1465,
  "விரு": 1466,
  "இலங்க": 1467,
  "காரண": 1468,
  "க்கொ": 1469,
  "மாநில": 1470,
  "ரே": 1471,
  "ைகளை": 1472,
  "ுள்ளது": 1473,
  "ள்க": 1474,
  "க்கள்": 1475,
  "திரை": 1476,
  "மல": 1477,
  "ஸ்ட": 1478,
  "கல்": 1479,
  "ினார்": 1480,
  "ாம்": 1481,
  "என்ன": 1482,
  "அதி": 1483,
  "யில்": 1484,
  "கூற": 1485,
  "இவ்": 1486,
  "மனி": 1487,
  "தால்": 1488,
  "வர்கள்": 1489,
  "அழை": 1490,
  "பகுதிக": 1491,
  "க்கூ": 1492,
  "உண": 1493,
  "முடி": 1494,
  "வல": 1495,
  "ளம்": 1496,
  "வன": 1497,
  "ியாக": 1498,
  "சார்": 1499,
  "வியல்": 1500,
  "கட்டு": 1501,
  "வழி": 1502,
  "மாற்ற": 1503,
  "பெரிய": 1504,
  "தொழ": 1505,
  "தனி": 1506,
  "ic": 1507,
  "உட": 1508,
  "ங்கா": 1509,
  "ங்கிய": 1510,
  "இதன்": 1511,
  "பழ": 1512,
  "அக": 1513,
  "அடிப்பட": 1514,
  "வரி": 1515,
  "ங்களின்": 1516,
  "டா": 1517,
  "ந்": 1518,
  "வாழ": 1519,
  "நிறுவ": 1520,
  "த்திற்கு": 1521,
  "கள்": 1522,
  "கீ": 1523,
  "ர்களின்": 1524,
  "ஸ்த": 1525,
  "யம்": 1526,
  "நிக": 1527,
  "உறு": 1528,
  "பால": 1529,
  "10": 1530,
  "of": 1531,
  "ரில்": 1532,
  "பின்னர்": 1533,
  "அரச": 1534,
  "அதன்": 1535,
  "நு": 1536,
  "பல்": 1537,
  "ட்டம்": 1538,
  "லோ": 1539,
  "ானது": 1540,
  "உள்ளன": 1541,
  "வடிவ": 1542,
  "le": 1543,
  "னு": 1544,
  "அனை": 1545,
  "199": 1546,
  "ைப்": 1547,
  "கிர": 1548,
  "கண்ட": 1549,
  "கிழ": 1550,
  "ருக்கு": 1551,
  "க்கிறது": 1552,
  "சியா": 1553,
  "ப்பின": 1554,
  "ிகள": 1555,
  "திரைப்பட": 1556,
  "ாகவும்": 1557,
  "ப்போ": 1558,
  "tion": 1559,
  "வுகள்": 1560,
  "கட்டிட": 1561,
  "மதி": 1562,
  "என்னும்": 1563,
  "யு": 1564,
  "ுகின்றன": 1565,
  "வரும்": 1566,
  "at": 1567,
  "லு": 1568,
  "அரசிய": 1569,
  "ங்களும்": 1570,
  "பரி": 1571,
  "தொகு": 1572,
  "சன": 1573,
  "குறிப்பிட": 1574,
  "க்கப்பட்டது": 1575,
  "ள்கள்": 1576,
  "அமைந்து": 1577,
  "த்தார்": 1578,
  "வகை": 1579,
  "இருக்கும்": 1580,
  "தூ": 1581,
  "16": 1582,
  "ிட்ட": 1583,
  "15": 1584,
  "தான": 1585,
  "ர்வ": 1586,
  "வழங்க": 1587,
  "முழு": 1588,
  "ட்டை": 1589,
  "ப்பெ": 1590,
  "நீர்": 1591,
  "வெப்ப": 1592,
  "பெயர்": 1593,
  "ேயே": 1594,
  "நூற்றாண்ட": 1595,
  "பெற": 1596,
  "ப்பகு": 1597,
  "மூல": 1598,
  "தவி": 1599,
  "இரண்ட": 1600,
  "ின்றனர்": 1601,
  "ாலும்": 1602,
  "என்றும்": 1603,
  "ஆனால்": 1604,
  "பாடு": 1605,
  "ார்கள்": 1606,
  "வண": 1607,
  "ந்தி": 1608,
  "சன்": 1609,
  "ைகளில்": 1610,
  "வேண்டும்": 1611,
  "ினர்": 1612,
  "வன்": 1613,
  "17": 1614,
  "அவர்": 1615,
  "இரண்டு": 1616,
  "ந்தது": 1617,
  "வரது": 1618,
  "வாய்": 1619,
  "தனது": 1620,
  "மல்": 1621,
  "இவர்": 1622,
  "கன": 1623,
  "தேச": 1624,
  "நிறுவன": 1625,
  "ளர்கள்": 1626,
  "அம": 1627,
  "ுகளின்": 1628,
  "மன": 1629,
  "ரிக்கா": 1630,
  "அண": 1631,
  "மலை": 1632,
  "பண்": 1633,
  "பிடி": 1634,
  "அட": 1635,
  "ப்படு": 1636,
  "உயி": 1637,
  "ஆண்டில்": 1638,
  "நிலைய": 1639,
  "am": 1640,
  "ங்கி": 1641,
  "நடை": 1642,
  "ைத்": 1643,
  "இற": 1644,
  "புல": 1645,
  "தார": 1646,
  "அரு": 1647,
  "விளையா": 1648,
  "மையான": 1649,
  "மாகும்": 1650,
  "ளர்": 1651,
  "வில்லை": 1652,
  "ானிய": 1653,
  "it": 1654,
  "இதன": 1655,
  "நான": 1656,
  "om": 1657,
  "ஆங்கில": 1658,
  "ஆய்": 1659,
  "மார்": 1660,
  "அல": 1661,
  "ளு": 1662,
  "198": 1663,
  "நிய": 1664,
  "மண்ட": 1665,
  "பாக": 1666,
  "நேர": 1667,
  "கார": 1668,
  "மது": 1669,
  "மரு": 1670,
  "மண": 1671,
  "்ச்ச": 1672,
  "197": 1673,
  "சட்ட": 1674,
  "பொருள்": 1675,
  "ினை": 1676,
  "த்தது": 1677,
  "தேசிய": 1678,
  "இன": 1679,
  "இருக்க": 1680,
  "and": 1681,
  "000": 1682,
  "தல": 1683,
  "சிர": 1684,
  "இந்": 1685,
  "யில": 1686,
  "மக்கள": 1687,
  "ண்க": 1688,
  "பார": 1689,
  "குடிய": 1690,
  "ப்பை": 1691,
  "ல்லா": 1692,
  "st": 1693,
  "இவை": 1694,
  "வோ": 1695,
  "ஷ்": 1696,
  "பேர": 1697,
  "இவற்ற": 1698,
  "ையே": 1699,
  "மன்ற": 1700,
  "ol": 1701,
  "re": 1702,
  "புக": 1703,
  "ஐக்கிய": 1704,
  "அமெரிக்க": 1705,
  "14": 1706,
  "மோ": 1707,
  "12": 1708,
  "வாழ்": 1709,
  "வருக": 1710,
  "எதிர்": 1711,
  "அந்த": 1712,
  "ராய": 1713,
  "ச்சு": 1714,
  "டம்": 1715,
  "சமய": 1716,
  "அரசியல்": 1717,
  "நாட்டு": 1718,
  "மன்": 1719,
  "பகுதிய": 1720,
  "மின்ன": 1721,
  "ட்ப": 1722,
  "ியம்": 1723,
  "தான்": 1724,
  "சோழ": 1725,
  "கருத": 1726,
  "க்கான": 1727,
  "விருது": 1728,
  "சின்": 1729,
  "யி": 1730,
  "்க்க": 1731,
  "பற்றிய": 1732,
  "ேற்ற": 1733,
  "வர்கள": 1734,
  "த்துக்கு": 1735,
  "ங்": 1736,
  "்த்த": 1737,
  "ள்ளி": 1738,
  "அது": 1739,
  "அழைக்க": 1740,
  "ிலுள்ள": 1741,
  "மன்ன": 1742,
  "லின்": 1743,
  "ம்பர்": 1744,
  "மிகவும்": 1745,
  "மனித": 1746,
  "சென்ன": 1747,
  "விட்ட": 1748,
  "பொருட": 1749,
  "மீட்ட": 1750,
  "ினும்": 1751,
  "ிருக்க": 1752,
  "கலை": 1753,
  "மேற்கோ": 1754,
  "முன்": 1755,
  "கள": 1756,
  "அனைத்து": 1757,
  "செயல்": 1758,
  "காலத்தில்": 1759,
  "முதன்": 1760,
  "ாவது": 1761,
  "ெடு": 1762,
  "ியை": 1763,
  "புதிய": 1764,
  "பண": 1765,
  "தொலை": 1766,
  "சேர்ந்த": 1767,
  "பல்வேறு": 1768,
  "புற": 1769,
  "மட்டு": 1770,
  "மில்": 1771,
  "ரீ": 1772,
  "எண்": 1773,
  "11": 1774,
  "ing": 1775,
  "ப்பட்டு": 1776,
  "ற்கு": 1777,
  "மேற்கோள்கள்": 1778,
  "விடு": 1779,
  "the": 1780,
  "தொழில்": 1781,
  "பார்க்க": 1782,
  "நாடு": 1783,
  "நடு": 1784,
  "அனு": 1785,
  "யாழ்": 1786,
  "நாக": 1787,
  "ிருக்கும்": 1788,
  "வளர்ச்ச": 1789,
  "ண்டிய": 1790,
  "ாகப்": 1791,
  "நடி": 1792,
  "அவற்ற": 1793,
  "196": 1794,
  "மூன்று": 1795,
  "கூட்ட": 1796,
  "திற": 1797,
  "ஜி": 1798,
  "திர": 1799,
  "ஒன்று": 1800,
  "ங்களுக்கு": 1801,
  "அரசு": 1802,
  "வுக்கு": 1803,
  "அறிய": 1804,
  "வம்": 1805,
  "க்கை": 1806,
  "வரைய": 1807,
  "இருந்தது": 1808,
  "ஐரோ": 1809,
  "ிறார்": 1810,
  "பாட்ட": 1811,
  "பொதுவாக": 1812,
  "ுகளுக்கு": 1813,
  "தக": 1814,
  "அமெரிக்கா": 1815,
  "சக": 1816,
  "கிடை": 1817,
  "இலக்கிய": 1818,
  "ப்பிய": 1819,
  "இருப்ப": 1820,
  "னின்": 1821,
  "ினால்": 1822,
  "பிரித்த": 1823,
  "il": 1824,
  "ந்தை": 1825,
  "ன்க": 1826,
  "கணி": 1827,
  "ர்களை": 1828,
  "ation": 1829,
  "சங்க": 1830,
  "ராஜ": 1831,
  "சிரிய": 1832,
  "கொள்ள": 1833,
  "el": 1834,
  "விளை": 1835,
  "ch": 1836,
  "எடுத்து": 1837,
  "நாடுகள்": 1838,
  "ப்படுகின்றது": 1839,
  "காரணமாக": 1840,
  "போர்": 1841,
  "ச்சி": 1842,
  "வார்": 1843,
  "கல்ல": 1844,
  "கிழக்கு": 1845,
  "ஸ்க": 1846,
  "ப்பில்": 1847,
  "ப்பின்": 1848,
  "ங்கும்": 1849,
  "பெரும்பா": 1850,
  "ாகக்": 1851,
  "ர்ட": 1852,
  "13": 1853,
  "195": 1854,
  "தாகும்": 1855,
  "ழக": 1856,
  "செல்": 1857,
  "ரான": 1858,
  "ுள்ளன": 1859,
  "ed": 1860,
  "வரலாறு": 1861,
  "ஜெ": 1862,
  "பகுதி": 1863,
  "உற்ப": 1864,
  "ுகளும்": 1865,
  "பர்": 1866,
  "வீர": 1867,
  "ro": 1868,
  "த்தல்": 1869,
  "ிலேயே": 1870,
  "மானது": 1871,
  "ra": 1872,
  "இடம்": 1873,
  "புத்த": 1874,
  "புர": 1875,
  "யாழ்ப்பா": 1876,
  "முய": 1877,
  "நாய": 1878,
  "இயக்க": 1879,
  "கால்": 1880,
  "கண்டு": 1881,
  "பாது": 1882,
  "194": 1883,
  "வின": 1884,
  "மக": 1885,
  "அம்": 1886,
  "பை": 1887,
  "ரசு": 1888,
  "ரிக": 1889,
  "மின": 1890,
  "க்கள": 1891,
  "ோர்": 1892,
  "ent": 1893,
  "ிகளை": 1894,
  "இம்": 1895,
  "குழ": 1896,
  "ஒவ்": 1897,
  "க்கூடிய": 1898,
  "பண்ட": 1899,
  "செல்ல": 1900,
  "படை": 1901,
  "உருவாக்க": 1902,
  "தள": 1903,
  "மட்ட": 1904,
  "திட்ட": 1905,
  "மைப்பு": 1906,
  "மொத்த": 1907,
  "தற்": 1908,
  "காட்ட": 1909,
  "அவை": 1910,
  "புவிய": 1911,
  "திகள்": 1912,
  "சமூ": 1913,
  "மத்திய": 1914,
  "வய": 1915,
  "நாட்டின்": 1916,
  "பொருளா": 1917,
  "கொள்க": 1918,
  "போல": 1919,
  "ஆர": 1920,
  "துற": 1921,
  "கைய": 1922,
  "த்தொ": 1923,
  "முடிய": 1924,
  "இணைப்புகள்": 1925,
  "பிறகு": 1926,
  "மாத": 1927,
  "as": 1928,
  "us": 1929,
  "யூ": 1930,
  "மறு": 1931,
  "ந்தார்": 1932,
  "ைகளின்": 1933,
  "பான": 1934,
  "போக்கு": 1935,
  "மேற்கு": 1936,
  "ஆற்ற": 1937,
  "த்துடன்": 1938,
  "வித": 1939,
  "தேவ": 1940,
  "ர்ந்து": 1941,
  "டும்ப": 1942,
  "லியன்": 1943,
  "தொடர்ந்து": 1944,
  "நிர": 1945,
  "ஆட்சி": 1946,
  "ுக்கும்": 1947,
  "பல்க": 1948,
  "ள்ளன": 1949,
  "ிகளில்": 1950,
  "சமூக": 1951,
  "செரு": 1952,
  "இண": 1953,
  "பாதுகா": 1954,
  "க்கில்": 1955,
  "மணி": 1956,
  "க்கால": 1957,
  "மிய": 1958,
  "மாறு": 1959,
  "ஒவ்வ": 1960,
  "த்தையும்": 1961,
  "ur": 1962,
  "கடல்": 1963,
  "குற": 1964,
  "தயா": 1965,
  "இங்கு": 1966,
  "ளவு": 1967,
  "வணிக": 1968,
  "சரி": 1969,
  "ஆய": 1970,
  "சம்": 1971,
  "ந்திய": 1972,
  "அங்க": 1973,
  "நாள்": 1974,
  "ஒளி": 1975,
  "த்திற்க": 1976,
  "ளுக்கு": 1977,
  "முறையில்": 1978,
  "உத": 1979,
  "அமைப்பு": 1980,
  "பகுதியில்": 1981,
  "ட்சிய": 1982,
  "காலம்": 1983,
  "எண்ண": 1984,
  "பின்ன": 1985,
  "ஆறு": 1986,
  "டெ": 1987,
  "மர்": 1988,
  "கண்ண": 1989,
  "பயன்": 1990,
  "இதில்": 1991,
  "ஆகியவற்ற": 1992,
  "கிற": 1993,
  "நகர்": 1994,
  "வதற்கு": 1995,
  "ிலான": 1996,
  "தின": 1997,
  "த்திலும்": 1998,
  "மாவட்டம்": 1999,
  "பாட்டு": 2000,
  "விரி": 2001,
  "வாறு": 2002,
  "குடும்ப": 2003,
  "பக்க": 2004,
  "ட்டிய": 2005,
  "ப்படி": 2006,
  "30": 2007,
  "ண்டி": 2008,
  "சூரிய": 2009,
  "லே": 2010,
  "இந்தியாவின்": 2011,
  "தன்ன": 2012,
  "பீ": 2013,
  "கர": 2014,
  "இந்து": 2015,
  "மீட்டர்": 2016,
  "டியா": 2017,
  "வதற்க": 2018,
  "et": 2019,
  "ருந்து": 2020,
  "உறுப்பின": 2021,
  "எனும்": 2022,
  "அளவு": 2023,
  "சொல்ல": 2024,
  "பில": 2025,
  "தென்": 2026,
  "25": 2027,
  "எனினும்": 2028,
  "நகரம்": 2029,
  "நான்கு": 2030,
  "சது": 2031,
  "ஓர்": 2032,
  "இடை": 2033,
  "சென்னை": 2034,
  "ர்களும்": 2035,
  "கோயில்": 2036,
  "முடியும்": 2037,
  "குழு": 2038,
  "சிறிய": 2039,
  "நிகழ்": 2040,
  "வாழ்க்க": 2041,
  "பெரும்பாலும்": 2042,
  "நுட்ப": 2043,
  "ங்கம்": 2044,
  "கர்": 2045,
  "வல்": 2046,
  "யாழ்ப்பாண": 2047,
  "த்தக்க": 2048,
  "மீது": 2049,
  "த்தும்": 2050,
  "சுமார்": 2051,
  "ிற்கு": 2052,
  "கல்லூ": 2053,
  "மட்டுமே": 2054,
  "ண்கள்": 2055,
  "டுகள்": 2056,
  "சர்": 2057,
  "அவரது": 2058,
  "க்கலை": 2059,
  "சிறந்த": 2060,
  "நியூ": 2061,
  "ாத": 2062,
  "உலகின்": 2063,
  "ஏற்பட்ட": 2064,
  "கண்டுபிடி": 2065,
  "ரியா": 2066,
  "லாக": 2067,
  "ுகின்றது": 2068,
  "நிறை": 2069,
  "கீழ்": 2070,
  "ப்பட்டன": 2071,
  "ுள்": 2072,
  "பக": 2073,
  "னிய": 2074,
  "கல்வி": 2075,
  "சிவ": 2076,
  "என்": 2077,
  "இலங்கை": 2078,
  "வரின்": 2079,
  "பெற்றது": 2080,
  "மாற": 2081,
  "பரு": 2082,
  "டல்": 2083,
  "நிலையில்": 2084,
  "இறு": 2085,
  "இத": 2086,
  "மேல்": 2087,
  "அதன": 2088,
  "ைகளும்": 2089,
  "தமிழக": 2090,
  "இரண்டாம்": 2091,
  "தர்": 2092,
  "சுற்று": 2093,
  "படுத்த": 2094,
  "In": 2095,
  "he": 2096,
  "ர்களுக்கு": 2097,
  "ப்பான": 2098,
  "தாகவும்": 2099,
  "ப்பூர்": 2100,
  "ுடைய": 2101,
  "உருவாக": 2102,
  "ஞ்சா": 2103,
  "ிகளின்": 2104,
  "கூடிய": 2105,
  "மத": 2106,
  "எழுத்து": 2107,
  "ங்களையும்": 2108,
  "ச்சிய": 2109,
  "ac": 2110,
  "ினி": 2111,
  "த்தைக்": 2112,
  "ப்பட்டுள்ளது": 2113,
  "ஒவ்வொரு": 2114,
  "மேற்ப": 2115,
  "அறிவியல்": 2116,
  "இடைய": 2117,
  "ஒப்ப": 2118,
  "ஒரே": 2119,
  "அமைந்துள்ளது": 2120,
  "நடவடி": 2121,
  "ஆரம்ப": 2122,
  "டுக்க": 2123,
  "மருத்துவ": 2124,
  "இயற்க": 2125,
  "சார்ந்த": 2126,
  "த்தால்": 2127,
  "பிரித்தானிய": 2128,
  "ri": 2129,
  "க்குப்": 2130,
  "எஸ்": 2131,
  "நிர்": 2132,
  "லைக்க": 2133,
  "ப்ர": 2134,
  "சக்த": 2135,
  "அளவில்": 2136,
  "முயற்": 2137,
  "தோன்ற": 2138,
  "கெ": 2139,
  "சரா": 2140,
  "ிறார்கள்": 2141,
  "அடிப்படையில்": 2142,
  "மம்": 2143,
  "ரின": 2144,
  "இள": 2145,
  "ர்க்": 2146,
  "அவர்கள்": 2147,
  "்கா": 2148,
  "மகா": 2149,
  "ணுவ": 2150,
  "கரி": 2151,
  "un": 2152,
  "தேர்த": 2153,
  "தியாக": 2154,
  "பரப்ப": 2155,
  "ைட்": 2156,
  "சிறு": 2157,
  "புது": 2158,
  "அமைந்த": 2159,
  "அன்று": 2160,
  "மானிய": 2161,
  "ோடு": 2162,
  "ல்களை": 2163,
  "த்தம்": 2164,
  "னும்": 2165,
  "சாக": 2166,
  "ுக்கான": 2167,
  "பொருட்க": 2168,
  "மென்": 2169,
  "ிலோ": 2170,
  "உள்ளட": 2171,
  "தாய": 2172,
  "அதிகார": 2173,
  "கிறி": 2174,
  "நோய": 2175,
  "தங்கள்": 2176,
  "த்துக்": 2177,
  "நிறு": 2178,
  "கருத்து": 2179,
  "க்கப்பட்டு": 2180,
  "வந்து": 2181,
  "மூன்ற": 2182,
  "ப்த": 2183,
  "வதில்": 2184,
  "50": 2185,
  "ப்பொரு": 2186,
  "ருக்க": 2187,
  "எந்த": 2188,
  "த்திலிருந்து": 2189,
  "கொண்டுள்ளது": 2190,
  "பிரான்": 2191,
  "னைய": 2192,
  "உற்பத்தி": 2193,
  "um": 2194,
  "மொழிய": 2195,
  "சிக்க": 2196,
  "பிரதேச": 2197,
  "ஆர்": 2198,
  "விழ": 2199,
  "ைச்": 2200,
  "பில்": 2201,
  "வச": 2202,
  "மண்டல": 2203,
  "அடை": 2204,
  "இதனால்": 2205,
  "அளி": 2206,
  "நிகழ": 2207,
  "பொருளாதார": 2208,
  "உண்டு": 2209,
  "யோ": 2210,
  "ப்பது": 2211,
  "பால்": 2212,
  "பாலான": 2213,
  "ஈடு": 2214,
  "த்தைப்": 2215,
  "எரி": 2216,
  "ஐரோப்பிய": 2217,
  "பற்றி": 2218,
  "பார்": 2219,
  "மையில்": 2220,
  "இவரது": 2221,
  "இசை": 2222,
  "சிங்க": 2223,
  "ன்னி": 2224,
  "உட்": 2225,
  "தொடர்பு": 2226,
  "எண்ணி": 2227,
  "காங்க": 2228,
  "புரி": 2229,
  "பெரும்பாலான": 2230,
  "பிய": 2231,
  "முதலில்": 2232,
  "வுகள": 2233,
  "ர்த்து": 2234,
  "de": 2235,
  "வெள்ள": 2236,
  "ளவில்": 2237,
  "த்தின": 2238,
  "ட்டா": 2239,
  "உயர்": 2240,
  "தெரி": 2241,
  "்தொ": 2242,
  "உள்": 2243,
  "ட்டில்": 2244,
  "மாகவும்": 2245,
  "நல்ல": 2246,
  "தொழில": 2247,
  "ச்சா": 2248,
  "பாடுகள்": 2249,
  "எனப்படும்": 2250,
  "துறை": 2251,
  "பத": 2252,
  "முக்கியமான": 2253,
  "வான்": 2254,
  "குறிப்பிட்ட": 2255,
  "நூல்கள்": 2256,
  "தாவர": 2257,
  "விடுதலை": 2258,
  "ல்கள": 2259,
  "இல்லா": 2260,
  "நூல்": 2261,
  "வந்தது": 2262,
  "பல்கலைக்க": 2263,
  "இன்ற": 2264,
  "இன்ன": 2265,
  "சிக": 2266,
  "நினை": 2267,
  "பாதி": 2268,
  "நாடுகளில்": 2269,
  "24": 2270,
  "செய்து": 2271,
  "உற": 2272,
  "மீண்டும்": 2273,
  "எழுதிய": 2274,
  "எல்ல": 2275,
  "சுக": 2276,
  "பூர்": 2277,
  "ென": 2278,
  "ag": 2279,
  "ையாகும்": 2280,
  "ph": 2281,
  "ஏற்படுத்த": 2282,
  "வீன": 2283,
  "கொண்டது": 2284,
  "யர்": 2285,
  "தாவது": 2286,
  "ஒலி": 2287,
  "உணவு": 2288,
  "அதே": 2289,
  "வளர்ச்சி": 2290,
  "விளங்க": 2291,
  "சொல்": 2292,
  "ந்தா": 2293,
  "வெற்றி": 2294,
  "ங்கியது": 2295,
  "ர்த்தி": 2296,
  "மில்லியன்": 2297,
  "கோட்": 2298,
  "கார்": 2299,
  "வகு": 2300,
  "og": 2301,
  "போக்குவர": 2302,
  "விளக்க": 2303,
  "பொறு": 2304,
  "அற": 2305,
  "கோயில": 2306,
  "தொகை": 2307,
  "நம்": 2308,
  "குறைந்த": 2309,
  "குறிப்பிடத்தக்க": 2310,
  "எனவும்": 2311,
  "நூற்றாண்டு": 2312,
  "லான": 2313,
  "க்கப்பட்டுள்ளது": 2314,
  "இழ": 2315,
  "ழுது": 2316,
  "நடவடிக்க": 2317,
  "சிறப்பு": 2318,
  "மிகு": 2319,
  "விட்டு": 2320,
  "தைய": 2321,
  "தோற்ற": 2322,
  "ொள்ள": 2323,
  "மய": 2324,
  "அறிமுக": 2325,
  "ஆராய": 2326,
  "ist": 2327,
  "அழி": 2328,
  "அடைய": 2329,
  "இயல்": 2330,
  "லோக": 2331,
  "புகழ்": 2332,
  "சென்ற": 2333,
  "குடி": 2334,
  "கதி": 2335,
  "di": 2336,
  "ைகளுக்கு": 2337,
  "முடியா": 2338,
  "ரால்": 2339,
  "எம்": 2340,
  "தற்போது": 2341,
  "வகையில்": 2342,
  "போட்ட": 2343,
  "ஆகவும்": 2344,
  "இல்லை": 2345,
  "The": 2346,
  "வளி": 2347,
  "ட்சியின்": 2348,
  "இத்த": 2349,
  "பன்ன": 2350,
  "நாட்டில்": 2351,
  "சீன": 2352,
  "கைப்ப": 2353,
  "அறிவி": 2354,
  "ழகம்": 2355,
  "விளையாட்டு": 2356,
  "ங்களைக்": 2357,
  "பொருள": 2358,
  "ஆசிரிய": 2359,
  "சூழ": 2360,
  "ிருந்தது": 2361,
  "சதுர": 2362,
  "த்தன்": 2363,
  "வருகிறது": 2364,
  "அண்ட": 2365,
  "தொடங்க": 2366,
  "ொண்ட": 2367,
  "ங்களிலும்": 2368,
  "ஆகியவை": 2369,
  "தாகக்": 2370,
  "முறைகள்": 2371,
  "ப்போது": 2372,
  "ந்தைய": 2373,
  "வதும்": 2374,
  "ந்தன": 2375,
  "ர்களில்": 2376,
  "ரூ": 2377,
  "படைய": 2378,
  "விலங்க": 2379,
  "நடத்த": 2380,
  "பார்க்கவும்": 2381,
  "பேரர": 2382,
  "எழுத": 2383,
  "இராணுவ": 2384,
  "லாந்து": 2385,
  "ஆற": 2386,
  "te": 2387,
  "க்காக": 2388,
  "ியது": 2389,
  "ப்பகுதியில்": 2390,
  "மான்": 2391,
  "இவற்றையும்": 2392,
  "மாகக்": 2393,
  "னியா": 2394,
  "வுகளை": 2395,
  "வேக": 2396,
  "உயிர": 2397,
  "டோ": 2398,
  "அமைப்ப": 2399,
  "க்கொண்ட": 2400,
  "துணை": 2401,
  "அரசா": 2402,
  "குரு": 2403,
  "உண்": 2404,
  "களில்": 2405,
  "அவ்": 2406,
  "சால": 2407,
  "இணைய": 2408,
  "திலும்": 2409,
  "22": 2410,
  "பங்கு": 2411,
  "அமில": 2412,
  "இதற்கு": 2413,
  "பயி": 2414,
  "ாய": 2415,
  "ர்வு": 2416,
  "வினை": 2417,
  "வராக": 2418,
  "விண்": 2419,
  "பகுதிகளில்": 2420,
  "ஈழ": 2421,
  "க்கொள்ள": 2422,
  "ஸ்ட்": 2423,
  "வழக்க": 2424,
  "நாடக": 2425,
  "os": 2426,
  "நூற்றாண்டில்": 2427,
  "வைத்து": 2428,
  "ஞான": 2429,
  "என்பதை": 2430,
  "வியா": 2431,
  "ஐந்து": 2432,
  "பெற்று": 2433,
  "பல்ல": 2434,
  "தயாரி": 2435,
  "க்காட்ட": 2436,
  "ers": 2437,
  "ருக": 2438,
  "ீர்": 2439,
  "ul": 2440,
  "புரம்": 2441,
  "எல்": 2442,
  "தலைநகர": 2443,
  "வெடி": 2444,
  "சொற்க": 2445,
  "ப்பொ": 2446,
  "இன்": 2447,
  "ர்களால்": 2448,
  "ீடு": 2449,
  "கருதப்படுகிறது": 2450,
  "வாத": 2451,
  "சில்": 2452,
  "காணப்படும்": 2453,
  "ஏற்று": 2454,
  "மறை": 2455,
  "23": 2456,
  "tic": 2457,
  "பொருட்கள்": 2458,
  "நிர்வாக": 2459,
  "இயக்கு": 2460,
  "விகி": 2461,
  "இதை": 2462,
  "மட": 2463,
  "தமிழர்": 2464,
  "த்தோ": 2465,
  "டாக": 2466,
  "தாய்": 2467,
  "ாள்": 2468,
  "மையாக": 2469,
  "மிக்க": 2470,
  "வால்": 2471,
  "வலை": 2472,
  "இலங்கையின்": 2473,
  "பட்டு": 2474,
  "ேசு": 2475,
  "ருடைய": 2476,
  "கூட": 2477,
  "உரி": 2478,
  "பிலி": 2479,
  "ுள்ளார்": 2480,
  "உடைய": 2481,
  "தாரண": 2482,
  "ct": 2483,
  "ன்கள்": 2484,
  "யின்": 2485,
  "லெ": 2486,
  "எழுத்தா": 2487,
  "செய்யப்பட்ட": 2488,
  "இந்தியாவில்": 2489,
  "க்கல்": 2490,
  "்ச்சி": 2491,
  "193": 2492,
  "ங்களாக": 2493,
  "ாலத்தில்": 2494,
  "ல்களில்": 2495,
  "கீழ": 2496,
  "தாக்கு": 2497,
  "ணா": 2498,
  "செய்யும்": 2499,
  "காந்த": 2500,
  "கிரா": 2501,
  "கணக்க": 2502,
  "அடுத்த": 2503,
  "சாய": 2504,
  "றும்": 2505,
  "கட்டிடக்கலை": 2506,
  "ிரம்": 2507,
  "ுகின்றனர்": 2508,
  "வழியாக": 2509,
  "ஆண்டுகள்": 2510,
  "வடக்கு": 2511,
  "செலு": 2512,
  "பந்து": 2513,
  "நவீன": 2514,
  "கட்டுப்பா": 2515,
  "ce": 2516,
  "வரலாற்ற": 2517,
  "ig": 2518,
  "ண்ணா": 2519,
  "ிடம்": 2520,
  "க்கின்றன": 2521,
  "போக்குவரத்து": 2522,
  "கும்": 2523,
  "அவற்றின்": 2524,
  "ைகளையும்": 2525,
  "எனவே": 2526,
  "உள்ளனர்": 2527,
  "த்தே": 2528,
  "ியும்": 2529,
  "பெருங்க": 2530,
  "புகள்": 2531,
  "மக்கள்தொ": 2532,
  "நூற்றாண்டின்": 2533,
  "இக்க": 2534,
  "க்கப்படுகிறது": 2535,
  "காங்கிர": 2536,
  "விர": 2537,
  "பகுதிகள்": 2538,
  "சைய": 2539,
  "வாக்க": 2540,
  "கல்லூரி": 2541,
  "க்களை": 2542,
  "ht": 2543,
  "வேண்டிய": 2544,
  "ஆவார்": 2545,
  "பிறந்த": 2546,
  "ந்தர்": 2547,
  "இசு": 2548,
  "கிரு": 2549,
  "உலோக": 2550,
  "ப்பாக": 2551,
  "்ட்": 2552,
  "மனை": 2553,
  "நைட்": 2554,
  "ச்செ": 2555,
  "விழு": 2556,
  "சோவிய": 2557,
  "சரிய": 2558,
  "க்கப்படும்": 2559,
  "நீள": 2560,
  "த்தனர்": 2561,
  "பண்டைய": 2562,
  "நாடுகள": 2563,
  "ஆய்வு": 2564,
  "மைகள்": 2565,
  "மொழியில்": 2566,
  "ிகளும்": 2567,
  "வகைகள்": 2568,
  "கப்ப": 2569,
  "மாகா": 2570,
  "மீன்": 2571,
  "தொழில்நுட்ப": 2572,
  "பெண்": 2573,
  "ிற்க": 2574,
  "என்பன": 2575,
  "அதாவது": 2576,
  "கிலோ": 2577,
  "புள்ள": 2578,
  "ராட்ட": 2579,
  "செல்லும்": 2580,
  "போல்": 2581,
  "ிரா": 2582,
  "குறிக்கும்": 2583,
  "அதிகரி": 2584,
  "விலும்": 2585,
  "லுக்கு": 2586,
  "21": 2587,
  "கடவு": 2588,
  "40": 2589,
  "பேர்": 2590,
  "வாய": 2591,
  "வாழும்": 2592,
  "சம்பர்": 2593,
  "வல்ல": 2594,
  "ரிட": 2595,
  "எனக்": 2596,
  "ழும்": 2597,
  "பகுதிகள": 2598,
  "ஆப்பி": 2599,
  "னம்": 2600,
  "பட்டியல்": 2601,
  "நெடு": 2602,
  "வரலாற்று": 2603,
  "தொடக்க": 2604,
  "பற": 2605,
  "வேதிய": 2606,
  "இங்க": 2607,
  "பயண": 2608,
  "பன்": 2609,
  "வேலை": 2610,
  "பாய": 2611,
  "ter": 2612,
  "ப்பானிய": 2613,
  "விழா": 2614,
  "மங்கள்": 2615,
  "பிரா": 2616,
  "ழுத்த": 2617,
  "பாண்டிய": 2618,
  "தெற்கு": 2619,
  "ஜன": 2620,
  "தொடர்பான": 2621,
  "த்துவம்": 2622,
  "வேல": 2623,
  "துரு": 2624,
  "த்தீ": 2625,
  "இங்கில": 2626,
  "கோண": 2627,
  "ஒழு": 2628,
  "கடை": 2629,
  "குறிய": 2630,
  "கட்சி": 2631,
  "கவி": 2632,
  "வளை": 2633,
  "வர்த்த": 2634,
  "பேச": 2635,
  "பற்ற": 2636,
  "ிலிருந்த": 2637,
  "கிரே": 2638,
  "ci": 2639,
  "உயர": 2640,
  "திரி": 2641,
  "்கிறது": 2642,
  "இறை": 2643,
  "இத்தா": 2644,
  "அதை": 2645,
  "இங்கிலா": 2646,
  "இடங்களில்": 2647,
  "ஆண்டுகளுக்கு": 2648,
  "ஞ்சி": 2649,
  "அலை": 2650,
  "பழைய": 2651,
  "நிலையம்": 2652,
  "னே": 2653,
  "ய்ய": 2654,
  "ad": 2655,
  "இலக்க": 2656,
  "அருக": 2657,
  "எல்லா": 2658,
  "கொடு": 2659,
  "இவர்கள்": 2660,
  "ot": 2661,
  "நீதி": 2662,
  "சுத": 2663,
  "மைக்": 2664,
  "இரண்டாவது": 2665,
  "நோக்க": 2666,
  "ண்மை": 2667,
  "வுடன்": 2668,
  "க்குக்": 2669,
  "்டோ": 2670,
  "ப்பர": 2671,
  "உருவான": 2672,
  "பள்ள": 2673,
  "விவ": 2674,
  "உர": 2675,
  "பொழுது": 2676,
  "க்கப்பட்டன": 2677,
  "ஹா": 2678,
  "நகரா": 2679,
  "மக்களின்": 2680,
  "அதற்கு": 2681,
  "வதால்": 2682,
  "கூடு": 2683,
  "ஏற்ற": 2684,
  "வார": 2685,
  "முதலிய": 2686,
  "வையாக": 2687,
  "அங்கு": 2688,
  "நாடா": 2689,
  "விரும்": 2690,
  "வருட": 2691,
  "ஞ்சு": 2692,
  "பயன்பட": 2693,
  "ப்பினும்": 2694,
  "மட்டும்": 2695,
  "60": 2696,
  "ஆதர": 2697,
  "தலைமைய": 2698,
  "தீர்": 2699,
  "க்கே": 2700,
  "தெற்க": 2701,
  "எடுத்த": 2702,
  "op": 2703,
  "தையும்": 2704,
  "இடத்தில்": 2705,
  "தியின்": 2706,
  "லியா": 2707,
  "பிள்ள": 2708,
  "ஆக்க": 2709,
  "உயிரின": 2710,
  "நீண்ட": 2711,
  "குழந்த": 2712,
  "விற்கு": 2713,
  "ளுமன்ற": 2714,
  "ஒப்பந்த": 2715,
  "em": 2716,
  "சோவியத்": 2717,
  "மொழிகள்": 2718,
  "ப்புற": 2719,
  "ஸ்திர": 2720,
  "தற்கான": 2721,
  "சேர்": 2722,
  "for": 2723,
  "நேர்": 2724,
  "ஏற்படும்": 2725,
  "சுர": 2726,
  "2005": 2727,
  "ஒளிய": 2728,
  "வாகும்": 2729,
  "சோதன": 2730,
  "இணைந்து": 2731,
  "ப்புக்": 2732,
  "க்காலத்தில்": 2733,
  "இருக்கிறது": 2734,
  "ங்களைப்": 2735,
  "கோட்ட": 2736,
  "ப்பதி": 2737,
  "எடுத்துக்காட்ட": 2738,
  "ஆரம்": 2739,
  "பௌ": 2740,
  "ம்பு": 2741,
  "நாடுகளின்": 2742,
  "பொறிய": 2743,
  "மாற்றம்": 2744,
  "வித்த": 2745,
  "ள்ளனர்": 2746,
  "நகரில்": 2747,
  "மாதம்": 2748,
  "ஆதி": 2749,
  "ஞர்கள்": 2750,
  "ஜ்": 2751,
  "தங்க": 2752,
  "நோய்": 2753,
  "26": 2754,
  "100": 2755,
  "உடல்": 2756,
  "அரி": 2757,
  "ஞர்": 2758,
  "வகையான": 2759,
  "வெளியே": 2760,
  "இயேசு": 2761,
  "வையும்": 2762,
  "த்தைச்": 2763,
  "விமான": 2764,
  "கணித": 2765,
  "னெ": 2766,
  "ையானது": 2767,
  "ஆங்கிலேய": 2768,
  "இயற்ப": 2769,
  "ab": 2770,
  "களை": 2771,
  "மிகப்பெ": 2772,
  "சித்த": 2773,
  "ஓவிய": 2774,
  "சுழ": 2775,
  "வதை": 2776,
  "ளைய": 2777,
  "ஷ்ண": 2778,
  "பாய்": 2779,
  "மாண": 2780,
  "பங்க": 2781,
  "இரயில்": 2782,
  "நாற்க": 2783,
  "தாம்": 2784,
  "சர": 2785,
  "ஏனைய": 2786,
  "பிரத": 2787,
  "ப்பிர": 2788,
  "வைகள்": 2789,
  "சந்தி": 2790,
  "அணு": 2791,
  "வங்கா": 2792,
  "உயிர்": 2793,
  "தவிர": 2794,
  "முனை": 2795,
  "ட்க": 2796,
  "தியான": 2797,
  "27": 2798,
  "ிருக்கிறது": 2799,
  "நடந்த": 2800,
  "ஃப்": 2801,
  "கடி": 2802,
  "காய": 2803,
  "காணப்படுகின்றன": 2804,
  "முதலாம்": 2805,
  "தைக்": 2806,
  "பணி": 2807,
  "பத்து": 2808,
  "செருமானிய": 2809,
  "சிறுக": 2810,
  "தோல்": 2811,
  "அழைக்கப்படுகிறது": 2812,
  "தமிழ்நாடு": 2813,
  "பந்த": 2814,
  "ப்புக்கள்": 2815,
  "ிருப்ப": 2816,
  "நேரத்தில்": 2817,
  "புவியியல்": 2818,
  "இருப்பினும்": 2819,
  "னார்": 2820,
  "சீனா": 2821,
  "தாக்க": 2822,
  "திரும்": 2823,
  "மணம்": 2824,
  "கத": 2825,
  "குறு": 2826,
  "அதில்": 2827,
  "குறிப்பாக": 2828,
  "ாள": 2829,
  "ஒன்றிய": 2830,
  "மேற்பட்ட": 2831,
  "சுவா": 2832,
  "துவ": 2833,
  "தற்காக": 2834,
  "பம்": 2835,
  "ww": 2836,
  "வெளியிட": 2837,
  "லால்": 2838,
  "மதிப்ப": 2839,
  "கிரேக்க": 2840,
  "தாரம்": 2841,
  "ப்படுவது": 2842,
  "உள்ளடக்கிய": 2843,
  "ரெ": 2844,
  "ஆட்ச": 2845,
  "மிகப்பெரிய": 2846,
  "சமயம்": 2847,
  "சாலை": 2848,
  "ல்த": 2849,
  "ண்ட்": 2850,
  "ிட்டு": 2851,
  "அணி": 2852,
  "புரா": 2853,
  "சின்ன": 2854,
  "வெற்ற": 2855,
  "போன்றவற்ற": 2856,
  "சான்ற": 2857,
  "வாழ்க்கை": 2858,
  "மிகப்": 2859,
  "ொன்ற": 2860,
  "க்ச": 2861,
  "னில்": 2862,
  "பெற்றார்": 2863,
  "தமது": 2864,
  "ுகளாக": 2865,
  "ையாள": 2866,
  "தேவை": 2867,
  "முன்னர்": 2868,
  "னுக்கு": 2869,
  "வதாக": 2870,
  "டர்": 2871,
  "ள்ளார்": 2872,
  "கொண்டிருந்த": 2873,
  "ஐரோப்பா": 2874,
  "முழுவதும்": 2875,
  "நாடாளுமன்ற": 2876,
  "யான": 2877,
  "டியாக": 2878,
  "தீவு": 2879,
  "ூட்ட": 2880,
  "த்திற்கும்": 2881,
  "கற்க": 2882,
  "சியம்": 2883,
  "பெறும்": 2884,
  "மதுரை": 2885,
  "ஆக்ச": 2886,
  "அமைந்துள்ள": 2887,
  "ட்டுகள்": 2888,
  "ுகளையும்": 2889,
  "வைத்த": 2890,
  "திரா": 2891,
  "படு": 2892,
  "சேர்ந்து": 2893,
  "கழி": 2894,
  "2011": 2895,
  "அரசாங்க": 2896,
  "80": 2897,
  "சார": 2898,
  "ுகிறார்": 2899,
  "ளையும்": 2900,
  "லாளர்கள்": 2901,
  "ந்தர": 2902,
  "ஆசியா": 2903,
  "உறுப்பினர்கள்": 2904,
  "வென்ற": 2905,
  "கையில்": 2906,
  "சுதந்திர": 2907,
  "காணப்படுகிறது": 2908,
  "படும்": 2909,
  "கோவில்": 2910,
  "மிட": 2911,
  "சல்": 2912,
  "இன்று": 2913,
  "பெண்கள்": 2914,
  "190": 2915,
  "வகி": 2916,
  "ையாகக்": 2917,
  "குளி": 2918,
  "முதல": 2919,
  "ுகளைக்": 2920,
  "அலுவ": 2921,
  "பர்கள்": 2922,
  "குள": 2923,
  "அணுக்க": 2924,
  "நிதி": 2925,
  "வதில்லை": 2926,
  "ப்படவில்லை": 2927,
  "இரும்": 2928,
  "கலா": 2929,
  "னித": 2930,
  "நகரின்": 2931,
  "ia": 2932,
  "ஒன்றாகும்": 2933,
  "பரவல": 2934,
  "ir": 2935,
  "ஜா": 2936,
  "போதும்": 2937,
  "மாகாண": 2938,
  "சையில்": 2939,
  "பல்கலைக்கழக": 2940,
  "od": 2941,
  "iv": 2942,
  "பிறப்புகள்": 2943,
  "பனி": 2944,
  "குறித்த": 2945,
  "குறிப்புகள்": 2946,
  "ந்தனர்": 2947,
  "ஒன்றாக": 2948,
  "28": 2949,
  "கூட்டு": 2950,
  "போன்றவை": 2951,
  "பணியா": 2952,
  "ையோ": 2953,
  "த்தைத்": 2954,
  "An": 2955,
  "தேர்ந்த": 2956,
  "விதி": 2957,
  "்து": 2958,
  "ess": 2959,
  "சந்திர": 2960,
  "எனப்": 2961,
  "to": 2962,
  "ாட்டு": 2963,
  "கங்கள்": 2964,
  "வுகளில்": 2965,
  "நகரங்கள்": 2966,
  "விஜ": 2967,
  "90": 2968,
  "பிக்க": 2969,
  "நிறுவனம்": 2970,
  "புனித": 2971,
  "ம்பரிய": 2972,
  "ஜூ": 2973,
  "எவ்": 2974,
  "லயம்": 2975,
  "ைகளைக்": 2976,
  "ine": 2977,
  "Ch": 2978,
  "திராவிட": 2979,
  "என்பவர்": 2980,
  "கடற்க": 2981,
  "லாமிய": 2982,
  "த்திலுள்ள": 2983,
  "பெரும": 2984,
  "ங்கோ": 2985,
  "முதலா": 2986,
  "இடையில்": 2987,
  "விகள்": 2988,
  "பாரம்பரிய": 2989,
  "ாமல்": 2990,
  "ராகவும்": 2991,
  "்த்": 2992,
  "அல்": 2993,
  "அதிகமாக": 2994,
  "பார்வ": 2995,
  "ையிலும்": 2996,
  "பாதுகாப்பு": 2997,
  "ஏற": 2998,
  "்டோபர்": 2999,
  "BC": 3000,
  "தேர்தலில்": 3001,
  "ூர்த": 3002,
  "தந்த": 3003,
  "சேர்க்க": 3004,
  "முன": 3005,
  "கால்பந்து": 3006,
  "அறிவிய": 3007,
  "நம்ப": 3008,
  "பயன்படுத்தப்படுகிறது": 3009,
  "மையை": 3010,
  "க்கப்பட்டுள்ளன": 3011,
  "ையைப்": 3012,
  "ருடன்": 3013,
  "ஆஸ்திர": 3014,
  "புவி": 3015,
  "இடையே": 3016,
  "மியின்": 3017,
  "அச்ச": 3018,
  "டிகள்": 3019,
  "சிந்து": 3020,
  "ழ்க": 3021,
  "உலகில்": 3022,
  "வடிவமை": 3023,
  "ளாக": 3024,
  "க்ஸ்": 3025,
  "ப்பே": 3026,
  "மிருந்து": 3027,
  "செப்": 3028,
  "அரசின்": 3029,
  "பெறு": 3030,
  "நோக்கி": 3031,
  "தகவ": 3032,
  "சிறி": 3033,
  "தாம": 3034,
  "வெளியிட்ட": 3035,
  "இலங்கையில்": 3036,
  "ுக்காக": 3037,
  "ளைக்": 3038,
  "வெண்": 3039,
  "வெப்பநிலை": 3040,
  "னான": 3041,
  "நடைபெற்ற": 3042,
  "ளைப்": 3043,
  "அக்டோபர்": 3044,
  "கட்ச": 3045,
  "பிரெ": 3046,
  "சம்ப": 3047,
  "பயன்படுத்தி": 3048,
  "லிருந்து": 3049,
  "துறைமுக": 3050,
  "கொண்டா": 3051,
  "விக்க": 3052,
  "முத்து": 3053,
  "மாநிலத்தின்": 3054,
  "சாமி": 3055,
  "லகம்": 3056,
  "பார்த்த": 3057,
  "ப்பாட்ட": 3058,
  "ஸ்ரீ": 3059,
  "வெவ்": 3060,
  "வலி": 3061,
  "மையும்": 3062,
  "சண்ட": 3063,
  "பாடல்கள்": 3064,
  "ap": 3065,
  "கனடா": 3066,
  "குற்ற": 3067,
  "ங்களுடன்": 3068,
  "உத்த": 3069,
  "தமிழில்": 3070,
  "நவ": 3071,
  "ut": 3072,
  "ர்ச்சி": 3073,
  "மக்கள்தொகை": 3074,
  "ப்பகுதி": 3075,
  "பன்னாட்டு": 3076,
  "29": 3077,
  "பிரபல": 3078,
  "ரிக்": 3079,
  "ன்ஸ்": 3080,
  "களின்": 3081,
  "வைப்": 3082,
  "த்தன": 3083,
  "பாத": 3084,
  "காரம்": 3085,
  "எசு": 3086,
  "இராச்சிய": 3087,
  "றைகள்": 3088,
  "ஆண்டின்": 3089,
  "அமைச்ச": 3090,
  "ைகிறது": 3091,
  "உலகப்": 3092,
  "கொண்டிருக்கும்": 3093,
  "நபர்கள்": 3094,
  "ப்புகளை": 3095,
  "க்குள்": 3096,
  "தொழி": 3097,
  "கிய": 3098,
  "வாக்கு": 3099,
  "டைந்து": 3100,
  "கட்டுமான": 3101,
  "சாதன": 3102,
  "ஹெ": 3103,
  "லய": 3104,
  "மிகுந்த": 3105,
  "ப்ரல்": 3106,
  "ஏப்ரல்": 3107,
  "ay": 3108,
  "மாய": 3109,
  "ப்பும்": 3110,
  "தன்மை": 3111,
  "அய": 3112,
  "தலைமை": 3113,
  "com": 3114,
  "சந்த": 3115,
  "தீவுகள்": 3116,
  "ாது": 3117,
  "உட்க": 3118,
  "ப்பர்": 3119,
  "த்தான்": 3120,
  "im": 3121,
  "அப்போது": 3122,
  "க்கப்": 3123,
  "ஆற்றல்": 3124,
  "சிவா": 3125,
  "தகவல்": 3126,
  "வாய்ந்த": 3127,
  "பாடல்": 3128,
  "சக்தி": 3129,
  "ல்களும்": 3130,
  "ியான": 3131,
  "ச்சே": 3132,
  "திட்டம்": 3133,
  "சென்று": 3134,
  "தென்க": 3135,
  "முந்தைய": 3136,
  "க்குற": 3137,
  "நவம்பர்": 3138,
  "இத்தாலிய": 3139,
  "தெளி": 3140,
  "இயற்கை": 3141,
  "எண்ணிக்க": 3142,
  "ுட": 3143,
  "தந்தை": 3144,
  "மகன்": 3145,
  "தென்னி": 3146,
  "அத்துடன்": 3147,
  "ரியில்": 3148,
  "ோட்ட": 3149,
  "த்தான": 3150,
  "ஏற்பட": 3151,
  "உறுதி": 3152,
  "ப்பான்": 3153,
  "ிலே": 3154,
  "ஜெர்": 3155,
  "பாலை": 3156,
  "உருவாக்கிய": 3157,
  "பெயரில்": 3158,
  "றிவு": 3159,
  "விளங்குகிறது": 3160,
  "கந்த": 3161,
  "வைக்": 3162,
  "நான்க": 3163,
  "இறுதியில்": 3164,
  "குறித்து": 3165,
  "பெரும்பான்": 3166,
  "இத்தகைய": 3167,
  "அழைக்கப்படும்": 3168,
  "வர்களின்": 3169,
  "id": 3170,
  "பேரரசு": 3171,
  "70": 3172,
  "இந்தப்": 3173,
  "2004": 3174,
  "ிணை": 3175,
  "மாவட்டத்தில்": 3176,
  "ண்களின்": 3177,
  "குடியரசு": 3178,
  "ிகளுக்கு": 3179,
  "இல்லாத": 3180,
  "ப்பட்டுள்ளன": 3181,
  "டிக்க": 3182,
  "ன்கு": 3183,
  "வங்காள": 3184,
  "லாளர்": 3185,
  "பஞ்சா": 3186,
  "கதை": 3187,
  "ஜே": 3188,
  "எதிராக": 3189,
  "க்கார": 3190,
  "பிரச்ச": 3191,
  "திறன்": 3192,
  "பேருந்து": 3193,
  "பள்ளி": 3194,
  "முறைய": 3195,
  "முன்னேற்ற": 3196,
  "டே": 3197,
  "கிள": 3198,
  "ல்களின்": 3199,
  "க்களில்": 3200,
  "இருந்தன": 3201,
  "க்களின்": 3202,
  "பரிசு": 3203,
  "எது": 3204,
  "வாழ்ந்த": 3205,
  "அவருக்கு": 3206,
  "அடுத்து": 3207,
  "திருத்த": 3208,
  "ந்தில்": 3209,
  "ஆங்கிலம்": 3210,
  "எளி": 3211,
  "வதற்கான": 3212,
  "St": 3213,
  "இவ்வாறு": 3214,
  "வெவ்வேறு": 3215,
  "2000": 3216,
  "னாக": 3217,
  "மழை": 3218,
  "நாண": 3219,
  "சிம்": 3220,
  "அமையும்": 3221,
  "ub": 3222,
  "க்கப்பட்டார்": 3223,
  "மரபு": 3224,
  "ற்றுள்": 3225,
  "த்துறை": 3226,
  "ோஸ்": 3227,
  "அதிகம்": 3228,
  "கன்ன": 3229,
  "வைத்": 3230,
  "தோடு": 3231,
  "கம்ப": 3232,
  "வாழ்க": 3233,
  "உயர்ந்த": 3234,
  "்களில்": 3235,
  "கிறிஸ்த": 3236,
  "ராம": 3237,
  "ட்டன்": 3238,
  "மெய்ய": 3239,
  "கொழும்": 3240,
  "மாநிலத்தில்": 3241,
  "காந்தி": 3242,
  "ராஜா": 3243,
  "ஆதார": 3244,
  "கலந்து": 3245,
  "ைக்கு": 3246,
  "ணைய": 3247,
  "வாற": 3248,
  "மாறிய": 3249,
  "வற": 3250,
  "ப்பூ": 3251,
  "உள்நாட்டு": 3252,
  "வண்ண": 3253,
  "ஓட்ட": 3254,
  "கல்விய": 3255,
  "ைகளைப்": 3256,
  "ர்க்கு": 3257,
  "Re": 3258,
  "ரைகள்": 3259,
  "டிசம்பர்": 3260,
  "ந்தின்": 3261,
  "பௌத்த": 3262,
  "ity": 3263,
  "சர்வ": 3264,
  "கொழு": 3265,
  "அவர்களின்": 3266,
  "முள்ள": 3267,
  "ியே": 3268,
  "ஆரம்பி": 3269,
  "ew": 3270,
  "முதலாவது": 3271,
  "வானூர்த": 3272,
  "தொலைக்கா": 3273,
  "அதிகமான": 3274,
  "கங்க": 3275,
  "துடு": 3276,
  "2006": 3277,
  "மூலக்கூ": 3278,
  "மின்த": 3279,
  "வாதிகள்": 3280,
  "இரத்த": 3281,
  "சமு": 3282,
  "தோற்றம்": 3283,
  "விரை": 3284,
  "நாயக": 3285,
  "ஆன்": 3286,
  "உடன்": 3287,
  "காரணம்": 3288,
  "அலக": 3289,
  "நிறுவனங்கள்": 3290,
  "நாம்": 3291,
  "வயது": 3292,
  "கிப்த": 3293,
  "எகிப்த": 3294,
  "பொறியியல்": 3295,
  "லாய": 3296,
  "இந்தக்": 3297,
  "ரிகள்": 3298,
  "டியில்": 3299,
  "ப்பதற்கு": 3300,
  "பெல்": 3301,
  "இதனை": 3302,
  "டைந்த": 3303,
  "ஏழு": 3304,
  "ப்பட்டனர்": 3305,
  "pe": 3306,
  "ருக்கும்": 3307,
  "கொள்": 3308,
  "ட்சம்": 3309,
  "தடு": 3310,
  "இவருக்கு": 3311,
  "பிரம்": 3312,
  "க்கல": 3313,
  "ைகளிலும்": 3314,
  "கடந்த": 3315,
  "அமைந்துள்ளன": 3316,
  "ாக்": 3317,
  "ஒத்த": 3318,
  "புலிகள்": 3319,
  "எழுத்தாளர்கள்": 3320,
  "நைட்ர": 3321,
  "சகோ": 3322,
  "ரக": 3323,
  "உதவி": 3324,
  "தலைவர்": 3325,
  "க்களும்": 3326,
  "கருது": 3327,
  "நொ": 3328,
  "வரையறு": 3329,
  "செய்தார்": 3330,
  "சத": 3331,
  "இவற்றில்": 3332,
  "ஆயு": 3333,
  "அருகில்": 3334,
  "ஆத்திர": 3335,
  "போரில்": 3336,
  "போதிலும்": 3337,
  "நாணய": 3338,
  "காட்டு": 3339,
  "ர்ட்": 3340,
  "கிரி": 3341,
  "செய்க": 3342,
  "ளுக்கும்": 3343,
  "பகுதிகளை": 3344,
  "விமர்": 3345,
  "த்திலேயே": 3346,
  "தெலு": 3347,
  "சொந்த": 3348,
  "வேதியியல்": 3349,
  "மகன": 3350,
  "விலான": 3351,
  "்டன்": 3352,
  "ஏற்க": 3353,
  "இங்கிலாந்து": 3354,
  "பாடுகளை": 3355,
  "வீதம்": 3356,
  "ஊட": 3357,
  "எண்ணிக்கை": 3358,
  "பொதுவான": 3359,
  "ஞ்சல்": 3360,
  "புவியின்": 3361,
  "பெரி": 3362,
  "ற்சி": 3363,
  "னோ": 3364,
  "உண்ட": 3365,
  "35": 3366,
  "பத்": 3367,
  "ரல்": 3368,
  "கழகம்": 3369,
  "கருத்த": 3370,
  "இலங்கைத்": 3371,
  "ுகிறார்கள்": 3372,
  "ஆரம்பத்தில்": 3373,
  "வைய": 3374,
  "சொற்கள்": 3375,
  "மாலை": 3376,
  "இயற்பியல்": 3377,
  "இதுவே": 3378,
  "கட்டட": 3379,
  "நல": 3380,
  "கோயில்கள்": 3381,
  "அடங்கும்": 3382,
  "ிருந்தார்": 3383,
  "தெரிய": 3384,
  "தயாரிக்க": 3385,
  "காங்கிரஸ்": 3386,
  "கொடுத்த": 3387,
  "வீரர்கள்": 3388,
  "189": 3389,
  "ஆண்டுகளில்": 3390,
  "மன்னர்": 3391,
  "டுக்கு": 3392,
  "ஒருவர்": 3393,
  "Un": 3394,
  "போராட்ட": 3395,
  "உதவிய": 3396,
  "ran": 3397,
  "முறையாக": 3398,
  "சப": 3399,
  "வுகளின்": 3400,
  "இறுதி": 3401,
  "இந்தியப்": 3402,
  "ழல்": 3403,
  "சிங்கள": 3404,
  "மூன்றாவது": 3405,
  "வள்ள": 3406,
  "Ar": 3407,
  "ஆனது": 3408,
  "ெழு": 3409,
  "ுள்ளனர்": 3410,
  "கௌ": 3411,
  "ியால்": 3412,
  "ion": 3413,
  "முன்னாள்": 3414,
  "இறப்புகள்": 3415,
  "சுற்ற": 3416,
  "ஆடி": 3417,
  "அறிவு": 3418,
  "வதற்காக": 3419,
  "வந்தனர்": 3420,
  "ேலியா": 3421,
  "மூன்றாம்": 3422,
  "ணு": 3423,
  "கேர": 3424,
  "ப்பதில்": 3425,
  "வடிவம்": 3426,
  "உற்பத்திய": 3427,
  "அடிப்படை": 3428,
  "லீ": 3429,
  "அதனால்": 3430,
  "பட்டிய": 3431,
  "அழக": 3432,
  "ப்புப்": 3433,
  "தேர்ந்தெடு": 3434,
  "ருந்த": 3435,
  "மலே": 3436,
  "தீர்மான": 3437,
  "ve": 3438,
  "குடியேற்ற": 3439,
  "இருந்தாலும்": 3440,
  "கிறித்த": 3441,
  "2001": 3442,
  "க்கப்படுகின்றன": 3443,
  "ப்புக்கு": 3444,
  "ுகு": 3445,
  "விகிதம்": 3446,
  "விகித": 3447,
  "க்கர": 3448,
  "முடிவு": 3449,
  "கடு": 3450,
  "கணக்கெடு": 3451,
  "வயதில்": 3452,
  "ட்டின்": 3453,
  "வார்கள்": 3454,
  "ண்டன்": 3455,
  "வரால்": 3456,
  "பதவிய": 3457,
  "கட்டத்தில்": 3458,
  "ற்பகு": 3459,
  "வார்த்த": 3460,
  "தாலும்": 3461,
  "ure": 3462,
  "அறிமுகப்படுத்த": 3463,
  "ard": 3464,
  "ரான்": 3465,
  "ொலி": 3466,
  "மார்ச்": 3467,
  "உச்ச": 3468,
  "ஞ்": 3469,
  "முதன்மை": 3470,
  "வெளியில்": 3471,
  "லைக்": 3472,
  "நாட்கள்": 3473,
  "திகளில்": 3474,
  "த்தலை": 3475,
  "பெங்கள": 3476,
  "பயன்படுகிறது": 3477,
  "ஆகியன": 3478,
  "சோழன்": 3479,
  "என்க": 3480,
  "லூ": 3481,
  "கழக": 3482,
  "திட": 3483,
  "சராசரி": 3484,
  "மரா": 3485,
  "நிறுத்த": 3486,
  "முடியாது": 3487,
  "கட்டப்பட்ட": 3488,
  "பிரதி": 3489,
  "க்கொண்டு": 3490,
  "செலுத்த": 3491,
  "போதைய": 3492,
  "ைகளாக": 3493,
  "தெய்": 3494,
  "நீளம்": 3495,
  "படுகிறது": 3496,
  "தெலுங்கு": 3497,
  "நெல்": 3498,
  "சுரு": 3499,
  "ow": 3500,
  "கிராம": 3501,
  "ஆசிய": 3502,
  "பூமியின்": 3503,
  "இலக்கியம்": 3504,
  "றுகள்": 3505,
  "தோன்றிய": 3506,
  "ர்ச்சத்து": 3507,
  "கிடைக்கும்": 3508,
  "வளர்ச்சிய": 3509,
  "தற்போதைய": 3510,
  "ர்களையும்": 3511,
  "திகளை": 3512,
  "கொல": 3513,
  "த்திரம்": 3514,
  "எச்": 3515,
  "வர்களுக்கு": 3516,
  "பாட்டில்": 3517,
  "சட்டம்": 3518,
  "இசுலாமிய": 3519,
  "ஊர்": 3520,
  "பல்கலைக்கழகம்": 3521,
  "ஞ்சிய": 3522,
  "ஆவது": 3523,
  "தமிழ்த்": 3524,
  "பரிந்து": 3525,
  "ங்களாகும்": 3526,
  "ப்படாத": 3527,
  "பொருட்களை": 3528,
  "ory": 3529,
  "En": 3530,
  "வூர்": 3531,
  "ஸ்கோ": 3532,
  "தொகுதி": 3533,
  "இருக்கலாம்": 3534,
  "க்குச்": 3535,
  "ிருக்கலாம்": 3536,
  "கைப்பற்ற": 3537,
  "இன்றைய": 3538,
  "வேத": 3539,
  "குடும்பம்": 3540,
  "சய": 3541,
  "காலங்களில்": 3542,
  "கொண்டுள்ளன": 3543,
  "போர்த்த": 3544,
  "செல": 3545,
  "சுட்ட": 3546,
  "பெயர்கள்": 3547,
  "கிட்ட": 3548,
  "தளம்": 3549,
  "ஆட்ட": 3550,
  "எடு": 3551,
  "செய்யப்பட்டது": 3552,
  "ite": 3553,
  "மாற்று": 3554,
  "சமுதாய": 3555,
  "நேரம்": 3556,
  "த்துப்": 3557,
  "அழ": 3558,
  "முக்கியத்துவம்": 3559,
  "வையாகும்": 3560,
  "க்குத்": 3561,
  "இயங்கு": 3562,
  "பகுதியாக": 3563,
  "சட்டமன்ற": 3564,
  "எண்கள்": 3565,
  "ிலை": 3566,
  "வரிசை": 3567,
  "செவ்": 3568,
  "ச்சை": 3569,
  "விருதுகள்": 3570,
  "தொடருந்து": 3571,
  "உருவாக்கு": 3572,
  "க்கோண": 3573,
  "ய்வு": 3574,
  "சுற்றுலா": 3575,
  "ிகளையும்": 3576,
  "மூலமாக": 3577,
  "ிழ": 3578,
  "மக்களுக்கு": 3579,
  "எடுத்துக்காட்டாக": 3580,
  "வதன்": 3581,
  "பெருங்கட": 3582,
  "க்கவும்": 3583,
  "குல": 3584,
  "கனி": 3585,
  "குடா": 3586,
  "பூர்வ": 3587,
  "தட": 3588,
  "மொழியாக": 3589,
  "கத்தில்": 3590,
  "்களை": 3591,
  "ign": 3592,
  "குறைவான": 3593,
  "கிமு": 3594,
  "பிற்க": 3595,
  "விலிருந்து": 3596,
  "இருந்தார்": 3597,
  "வந்தார்": 3598,
  "என்றாலும்": 3599,
  "செப்ட": 3600,
  "உயிர்ச்சத்து": 3601,
  "ப்பொருள்": 3602,
  "பங்கள": 3603,
  "தற்கால": 3604,
  "டுகளை": 3605,
  "மொழிகளில்": 3606,
  "எழுத்த": 3607,
  "தண்ட": 3608,
  "கட்சியின்": 3609,
  "ினம்": 3610,
  "க்கர்": 3611,
  "டையே": 3612,
  "tp": 3613,
  "ீன்": 3614,
  "அடிப்படையாகக்": 3615,
  "வதி": 3616,
  "காண்க": 3617,
  "பன": 3618,
  "சமன்": 3619,
  "அத்த": 3620,
  "ell": 3621,
  "ஸ்தான்": 3622,
  "ுகின்ற": 3623,
  "னாலும்": 3624,
  "எதுவும்": 3625,
  "ப்பாடு": 3626,
  "நான்": 3627,
  "con": 3628,
  "மென்பொருள்": 3629,
  "சுற்றி": 3630,
  "விற்க": 3631,
  "ப்படை": 3632,
  "கூறிய": 3633,
  "இந்தியத்": 3634,
  "2007": 3635,
  "யின": 3636,
  "காணலாம்": 3637,
  "முற்ற": 3638,
  "பிள்ளை": 3639,
  "உட்பட": 3640,
  "தகு": 3641,
  "குறைவாக": 3642,
  "பது": 3643,
  "பற்றியும்": 3644,
  "டுகளில்": 3645,
  "பழங்கு": 3646,
  "ுக்கிட": 3647,
  "கண்டறிய": 3648,
  "போட்டிய": 3649,
  "க்கின்றது": 3650,
  "விவசாய": 3651,
  "பண்பாட்டு": 3652,
  "இயக்கம்": 3653,
  "இன்னும்": 3654,
  "se": 3655,
  "ட்டர்": 3656,
  "ங்களுக்கும்": 3657,
  "நடவடிக்கைகள்": 3658,
  "ர்களி": 3659,
  "ஜெய": 3660,
  "அரை": 3661,
  "திரைப்படம்": 3662,
  "த்துக்கும்": 3663,
  "கவன": 3664,
  "ரையில்": 3665,
  "புகளை": 3666,
  "்க்": 3667,
  "தூர": 3668,
  "வீழ": 3669,
  "நர": 3670,
  "வளர்": 3671,
  "சிகள்": 3672,
  "லியம்": 3673,
  "நிலப்பர": 3674,
  "இருக்கின்றன": 3675,
  "ளால்": 3676,
  "2003": 3677,
  "உள்ளிட்ட": 3678,
  "பிக்": 3679,
  "அன்": 3680,
  "அண்ணா": 3681,
  "ார": 3682,
  "ையைச்": 3683,
  "லையும்": 3684,
  "க்கட்ட": 3685,
  "எல்லை": 3686,
  "45": 3687,
  "பரப்பளவு": 3688,
  "கொல்ல": 3689,
  "வருகின்றன": 3690,
  "தரும்": 3691,
  "அமைதி": 3692,
  "த்தளம்": 3693,
  "ரியின்": 3694,
  "சைவ": 3695,
  "பதவி": 3696,
  "பாடிய": 3697,
  "உருவாக்கப்பட்ட": 3698,
  "உதாரண": 3699,
  "தேவையான": 3700,
  "அனுமதி": 3701,
  "பண்பாடு": 3702,
  "கூறப்படுகிறது": 3703,
  "சீக்கிய": 3704,
  "த்தட்ட": 3705,
  "வாசி": 3706,
  "இவற்றின்": 3707,
  "ரைய": 3708,
  "பொருள்க": 3709,
  "ge": 3710,
  "அமெரிக்காவின்": 3711,
  "இளைய": 3712,
  "ல்லிய": 3713,
  "amil": 3714,
  "குண்ட": 3715,
  "பெறுகிறது": 3716,
  "மரம்": 3717,
  "இயந்திர": 3718,
  "ந்துக": 3719,
  "2008": 3720,
  "பண்புகள்": 3721,
  "பின்வரு": 3722,
  "187": 3723,
  "படையெடு": 3724,
  "பத்தி": 3725,
  "ஆத": 3726,
  "மேற்கொள்ள": 3727,
  "தொழிற்": 3728,
  "மக்களும்": 3729,
  "தென்ன": 3730,
  "மையின்": 3731,
  "நாத": 3732,
  "தரு": 3733,
  "தலைமையில்": 3734,
  "ாடி": 3735,
  "தியை": 3736,
  "கூறு": 3737,
  "வாளர்கள்": 3738,
  "ஆட்சியின்": 3739,
  "ஒருங்கி": 3740,
  "சர்வதேச": 3741,
  "செப்டம்பர்": 3742,
  "மனிதன": 3743,
  "ழில்": 3744,
  "ோக": 3745,
  "லாத": 3746,
  "அறு": 3747,
  "வாயு": 3748,
  "அட்ட": 3749,
  "ஸ்தான": 3750,
  "திரைப்படங்கள்": 3751,
  "விளையாட்ட": 3752,
  "வழங்கும்": 3753,
  "ரோட்ட": 3754,
  "ும்போது": 3755,
  "அனைத்தும்": 3756,
  "ஜீ": 3757,
  "வரம்": 3758,
  "ங்கல்": 3759,
  "எண்க": 3760,
  "கோணம்": 3761,
  "ஆல்": 3762,
  "இக்": 3763,
  "ங்டன்": 3764,
  "புரிந்து": 3765,
  "உலகம்": 3766,
  "்காந்த": 3767,
  "கட்டிடங்கள்": 3768,
  "விளக்கு": 3769,
  "ற்பட்ட": 3770,
  "ச்சியம்": 3771,
  "செல்வாக்கு": 3772,
  "மேல": 3773,
  "மற்றொரு": 3774,
  "படைகள்": 3775,
  "நன்கு": 3776,
  "ரையும்": 3777,
  "ிற்கும்": 3778,
  "லின": 3779,
  "இக்கோ": 3780,
  "ையைத்": 3781,
  "age": 3782,
  "ரைப்": 3783,
  "தாவரங்கள்": 3784,
  "ராய்": 3785,
  "கணின": 3786,
  "பரவலாக": 3787,
  "எட்டு": 3788,
  "ணியில்": 3789,
  "மங்க": 3790,
  "கூறுகிறது": 3791,
  "க்கலாம்": 3792,
  "சிலர்": 3793,
  "all": 3794,
  "http": 3795,
  "ian": 3796,
  "விலங்குகள்": 3797,
  "கணினி": 3798,
  "ஆகியோ": 3799,
  "நேரங்களில்": 3800,
  "முறையே": 3801,
  "பொருளாதாரம்": 3802,
  "சித": 3803,
  "மின்காந்த": 3804,
  "படத்தில்": 3805,
  "மஞ்ச": 3806,
  "மன்னன்": 3807,
  "விண்ட": 3808,
  "நைட்ரசன்": 3809,
  "செயற்": 3810,
  "ction": 3811,
  "வளர்ந்த": 3812,
  "olog": 3813,
  "சான்றுகள்": 3814,
  "பேரரசின்": 3815,
  "1990": 3816,
  "மதிப்பு": 3817,
  "வண்டி": 3818,
  "அமைப்புகள்": 3819,
  "பயன": 3820,
  "தைகள்": 3821,
  "கட்டுப்படுத்த": 3822,
  "ish": 3823,
  "பரவிய": 3824,
  "பூங்கா": 3825,
  "மைல்": 3826,
  "சேவ": 3827,
  "்களின்": 3828,
  "ஆய்வுகள்": 3829,
  "ப்பாளர்கள்": 3830,
  "ழிய": 3831,
  "முயற்சியா": 3832,
  "த்தினால்": 3833,
  "கன்": 3834,
  "pl": 3835,
  "சியில்": 3836,
  "திருமணம்": 3837,
  "டிக்": 3838,
  "கொள்ளும்": 3839,
  "ஆட": 3840,
  "செல்க": 3841,
  "கதிர": 3842,
  "பிரெஞ்சு": 3843,
  "மாகப்": 3844,
  "பிறந்தார்": 3845,
  "ியாவின்": 3846,
  "பருவ": 3847,
  "ஆண்": 3848,
  "ஒருங்கிணை": 3849,
  "வகைப்படுத்த": 3850,
  "நீரா": 3851,
  "செருமனி": 3852,
  "பெரிதும்": 3853,
  "சூலை": 3854,
  "தொண்ட": 3855,
  "ங்களால்": 3856,
  "செங்கு": 3857,
  "ரோடு": 3858,
  "தொடங்கியது": 3859,
  "தொன்": 3860,
  "எதிர்க": 3861,
  "நாளில்": 3862,
  "தலைவர்கள்": 3863,
  "கல்வெ": 3864,
  "செய்தது": 3865,
  "உயரம்": 3866,
  "ரன்": 3867,
  "உருவாகும்": 3868,
  "வருகின்றது": 3869,
  "சாலைகள்": 3870,
  "உருவாக்கும்": 3871,
  "அக்காலத்தில்": 3872,
  "சிற்ப": 3873,
  "தொடக்கத்தில்": 3874,
  "அவர்கள": 3875,
  "லர்": 3876,
  "ரிகிறது": 3877,
  "தெரிவி": 3878,
  "த்திற்கான": 3879,
  "ஆகியோர்": 3880,
  "ெடுத்த": 3881,
  "அதிகாரப்பூர்": 3882,
  "தொலைக்காட்சி": 3883,
  "மண்": 3884,
  "ட்சு": 3885,
  "பொன்ன": 3886,
  "குறியீ": 3887,
  "காணப்படுகின்றது": 3888,
  "ேன்": 3889,
  "படம்": 3890,
  "தியும்": 3891,
  "வளர்ந்து": 3892,
  "திருச்ச": 3893,
  "வாழ்கின்றனர்": 3894,
  "கிட்டத்தட்ட": 3895,
  "தனிய": 3896,
  "சேவை": 3897,
  "துடுப்பாட்ட": 3898,
  "உரை": 3899,
  "தனிம": 3900,
  "வடிவில்": 3901,
  "188": 3902,
  "பெர்": 3903,
  "ஜோ": 3904,
  "ff": 3905,
  "மேம்ப": 3906,
  "நடன": 3907,
  "தொடர்புடைய": 3908,
  "மித": 3909,
  "அளவுக்கு": 3910,
  "மாவட்டத்தின்": 3911,
  "நாற்கர": 3912,
  "தத்துவ": 3913,
  "பங்களி": 3914,
  "வழங்கு": 3915,
  "படங்கள்": 3916,
  "ெல்": 3917,
  "இராம": 3918,
  "வழங்கப்பட்டது": 3919,
  "வேளா": 3920,
  "தற்கும்": 3921,
  "சிங்கப்பூர்": 3922,
  "ஏற்பட்டது": 3923,
  "மொழிபெயர்": 3924,
  "நூலில்": 3925,
  "ையிலிருந்து": 3926,
  "வீத": 3927,
  "சான்": 3928,
  "கரை": 3929,
  "வுக்": 3930,
  "ையால்": 3931,
  "தோட்ட": 3932,
  "முருக": 3933,
  "க்கண": 3934,
  "பிரச்சின": 3935,
  "II": 3936,
  "காலநிலை": 3937,
  "பின்வரும்": 3938,
  "ிருந்தனர்": 3939,
  "வரான": 3940,
  "முடியாத": 3941,
  "மாள்": 3942,
  "அரிய": 3943,
  "முது": 3944,
  "உருவானது": 3945,
  "உரிய": 3946,
  "நிலம்": 3947,
  "மண்டலம்": 3948,
  "விளைவாக": 3949,
  "அமெரிக்காவில்": 3950,
  "அன்ன": 3951,
  "ளராக": 3952,
  "மலைகள்": 3953,
  "கணக்கெடுப்பின்": 3954,
  "இதே": 3955,
  "வாகன": 3956,
  "ளான": 3957,
  "சுவாமி": 3958,
  "ஒழுங்க": 3959,
  "ியலாளர்கள்": 3960,
  "இருந்தனர்": 3961,
  "ஆறுகள்": 3962,
  "கதிர்": 3963,
  "தொல்க": 3964,
  "ையையும்": 3965,
  "ையிலான": 3966,
  "பின்பற்ற": 3967,
  "ையு": 3968,
  "De": 3969,
  "இச்ச": 3970,
  "னது": 3971,
  "ணர்": 3972,
  "வுகளும்": 3973,
  "திர்": 3974,
  "31": 3975,
  "க்கத்தில்": 3976,
  "38": 3977,
  "உருவாக்கப்பட்டது": 3978,
  "வியின்": 3979,
  "மகள்": 3980,
  "விதைகள்": 3981,
  "ரொ": 3982,
  "ud": 3983,
  "ஜன்": 3984,
  "ஆகத்து": 3985,
  "குடியே": 3986,
  "ெனில்": 3987,
  "பொருட்களின்": 3988,
  "ூரில்": 3989,
  "ப்புகளில்": 3990,
  "நெரு": 3991,
  "நாகரிக": 3992,
  "சாதாரண": 3993,
  "மாற்றங்கள்": 3994,
  "தகவல்கள்": 3995,
  "ிகை": 3996,
  "கோட்டை": 3997,
  "மார்க்க": 3998,
  "ணிய": 3999
}