{
  "<unk>": 0,
  "<pad>": 1,
  " ": 2,
  "!": 3,
  "\"": 4,
  "#": 5,
  "$": 6,
  "%": 7,
  "&": 8,
  "'": 9,
  "(": 10,
  ")": 11,
  "*": 12,
  "+": 13,
  ",": 14,
  "-": 15,
  ".": 16,
  "/": 17,
  "0": 18,
  "1": 19,
  "2": 20,
  "3": 21,
  "4": 22,
  "5": 23,
  "6": 24,
  "7": 25,
  "8": 26,
  "9": 27,
  ":": 28,
  ";": 29,
  "<": 30,
  "=": 31,
  ">": 32,
  "?": 33,
  "@": 34,
  "A": 35,
  "B": 36,
  "C": 37,
  "D": 38,
  "E": 39,
  "F": 40,
  "G": 41,
  "H": 42,
  "I": 43,
  "J": 44,
  "K": 45,
  "L": 46,
  "M": 47,
  "N": 48,
  "O": 49,
  "P": 50,
  "Q": 51,
  "R": 52,
  "S": 53,
  "T": 54,
  "U": 55,
  "V": 56,
  "W": 57,
  "X": 58,
  "Y": 59,
  "Z": 60,
  "[": 61,
  "\\": 62,
  "]": 63,
  "^": 64,
  "_": 65,
  "`": 66,
  "a": 67,
  "b": 68,
  "c": 69,
  "d": 70,
  "e": 71,
  "f": 72,
  "g": 73,
  "h": 74,
  "i": 75,
  "j": 76,
  "k": 77,
  "l": 78,
  "m": 79,
  "n": 80,
  "o": 81,
  "p": 82,
  "q": 83,
  "r": 84,
  "s": 85,
  "t": 86,
  "u": 87,
  "v": 88,
  "w": 89,
  "x": 90,
  "y": 91,
  "z": 92,
  "{": 93,
  "|": 94,
  "}": 95,
  "~": 96,
  "¡": 97,
  "£": 98,
  "¤": 99,
  "¥": 100,
  "§": 101,
  "¨": 102,
  "«": 103,
  "­": 104,
  "®": 105,
  "¯": 106,
  "°": 107,
  "±": 108,
  "²": 109,
  "³": 110,
  "´": 111,
  "µ": 112,
  "·": 113,
  "»": 114,
  "¼": 115,
  "½": 116,
  "¾": 117,
  "¿": 118,
  "Á": 119,
  "Â": 120,
  "Ä": 121,
  "Å": 122,
  "Æ": 123,
  "Ç": 124,
  "È": 125,
  "É": 126,
  "Í": 127,
  "Î": 128,
  "Ð": 129,
  "Ñ": 130,
  "Ó": 131,
  "Õ": 132,
  "Ö": 133,
  "×": 134,
  "Ø": 135,
  "Ú": 136,
  "Ü": 137,
  "Ý": 138,
  "Þ": 139,
  "ß": 140,
  "à": 141,
  "á": 142,
  "â": 143,
  "ã": 144,
  "ä": 145,
  "å": 146,
  "æ": 147,
  "ç": 148,
  "è": 149,
  "é": 150,
  "ê": 151,
  "ë": 152,
  "ì": 153,
  "í": 154,
  "î": 155,
  "ï": 156,
  "ð": 157,
  "ñ": 158,
  "ò": 159,
  "ó": 160,
  "ô": 161,
  "õ": 162,
  "ö": 163,
  "÷": 164,
  "ø": 165,
  "ù": 166,
  "ú": 167,
  "û": 168,
  "ü": 169,
  "ý": 170,
  "þ": 171,
  "ÿ": 172,
  "Ā": 173,
  "ā": 174,
  "ă": 175,
  "Ą": 176,
  "ą": 177,
  "Ć": 178,
  "ć": 179,
  "Ĉ": 180,
  "ĉ": 181,
  "ċ": 182,
  "Č": 183,
  "č": 184,
  "Đ": 185,
  "đ": 186,
  "Ē": 187,
  "ē": 188,
  "ĕ": 189,
  "ė": 190,
  "Ę": 191,
  "ę": 192,
  "ě": 193,
  "Ĝ": 194,
  "ĝ": 195,
  "Ğ": 196,
  "ğ": 197,
  "ġ": 198,
  "Ĥ": 199,
  "ĥ": 200,
  "ħ": 201,
  "Ī": 202,
  "ī": 203,
  "ĭ": 204,
  "į": 205,
  "İ": 206,
  "ı": 207,
  "Ĵ": 208,
  "ĵ": 209,
  "Ķ": 210,
  "ķ": 211,
  "Ļ": 212,
  "ļ": 213,
  "Ľ": 214,
  "ľ": 215,
  "Ŀ": 216,
  "ŀ": 217,
  "Ł": 218,
  "ł": 219,
  "Ń": 220,
  "ń": 221,
  "Ņ": 222,
  "ņ": 223,
  "ň": 224,
  "ŋ": 225,
  "Ō": 226,
  "ō": 227,
  "ŏ": 228,
  "ő": 229,
  "Œ": 230,
  "œ": 231,
  "Ŗ": 232,
  "ŗ": 233,
  "ř": 234,
  "Ś": 235,
  "ś": 236,
  "Ŝ": 237,
  "ŝ": 238,
  "Ş": 239,
  "ş": 240,
  "Š": 241,
  "š": 242,
  "Ţ": 243,
  "ţ": 244,
  "ť": 245,
  "ũ": 246,
  "Ū": 247,
  "ū": 248,
  "Ŭ": 249,
  "ŭ": 250,
  "ů": 251,
  "Ÿ": 252,
  "Ź": 253,
  "ź": 254,
  "Ż": 255,
  "ż": 256,
  "Ž": 257,
  "ž": 258,
  "Ə": 259,
  "ơ": 260,
  "ư": 261,
  "ǎ": 262,
  "ǐ": 263,
  "ǒ": 264,
  "ǔ": 265,
  "ǜ": 266,
  "Ǟ": 267,
  "ǟ": 268,
  "Ș": 269,
  "ș": 270,
  "Ț": 271,
  "ț": 272,
  "ȟ": 273,
  "Ȭ": 274,
  "ȭ": 275,
  "Ȯ": 276,
  "ȯ": 277,
  "Ȱ": 278,
  "ȱ": 279,
  "ɐ": 280,
  "ɑ": 281,
  "ɔ": 282,
  "ɕ": 283,
  "ə": 284,
  "ɚ": 285,
  "ɛ": 286,
  "ɜ": 287,
  "ɡ": 288,
  "ɨ": 289,
  "ɪ": 290,
  "ɫ": 291,
  "ɻ": 292,
  "ɾ": 293,
  "ʀ": 294,
  "ʁ": 295,
  "ʂ": 296,
  "ʃ": 297,
  "ʊ": 298,
  "ʍ": 299,
  "ʏ": 300,
  "ʒ": 301,
  "ʔ": 302,
  "ʕ": 303,
  "ʝ": 304,
  "ʰ": 305,
  "ʻ": 306,
  "ʼ": 307,
  "ʾ": 308,
  "ʿ": 309,
  "ˈ": 310,
  "ˌ": 311,
  "ː": 312,
  "ˤ": 313,
  "̂": 314,
  "̃": 315,
  "̩": 316,
  "̯": 317,
  "͜": 318,
  "͡": 319,
  "Α": 320,
  "Δ": 321,
  "Ε": 322,
  "Θ": 323,
  "Κ": 324,
  "Π": 325,
  "Φ": 326,
  "Χ": 327,
  "Ψ": 328,
  "Ω": 329,
  "ά": 330,
  "έ": 331,
  "ή": 332,
  "ί": 333,
  "α": 334,
  "β": 335,
  "γ": 336,
  "δ": 337,
  "ε": 338,
  "ζ": 339,
  "η": 340,
  "θ": 341,
  "ι": 342,
  "κ": 343,
  "λ": 344,
  "μ": 345,
  "ν": 346,
  "ξ": 347,
  "ο": 348,
  "π": 349,
  "ρ": 350,
  "ς": 351,
  "σ": 352,
  "τ": 353,
  "υ": 354,
  "φ": 355,
  "χ": 356,
  "ψ": 357,
  "ω": 358,
  "ό": 359,
  "ύ": 360,
  "Ё": 361,
  "Ђ": 362,
  "Ѓ": 363,
  "Є": 364,
  "Ѕ": 365,
  "І": 366,
  "Ї": 367,
  "Ј": 368,
  "Љ": 369,
  "Њ": 370,
  "Ћ": 371,
  "Ќ": 372,
  "Ў": 373,
  "Џ": 374,
  "А": 375,
  "Б": 376,
  "В": 377,
  "Г": 378,
  "Д": 379,
  "Е": 380,
  "Ж": 381,
  "З": 382,
  "И": 383,
  "Й": 384,
  "К": 385,
  "Л": 386,
  "М": 387,
  "Н": 388,
  "О": 389,
  "П": 390,
  "Р": 391,
  "С": 392,
  "Т": 393,
  "У": 394,
  "Ф": 395,
  "Х": 396,
  "Ц": 397,
  "Ч": 398,
  "Ш": 399,
  "Щ": 400,
  "Ъ": 401,
  "Ы": 402,
  "Ь": 403,
  "Э": 404,
  "Ю": 405,
  "Я": 406,
  "а": 407,
  "б": 408,
  "в": 409,
  "г": 410,
  "д": 411,
  "е": 412,
  "ж": 413,
  "з": 414,
  "и": 415,
  "й": 416,
  "к": 417,
  "л": 418,
  "м": 419,
  "н": 420,
  "о": 421,
  "п": 422,
  "р": 423,
  "с": 424,
  "т": 425,
  "у": 426,
  "ф": 427,
  "х": 428,
  "ц": 429,
  "ч": 430,
  "ш": 431,
  "щ": 432,
  "ъ": 433,
  "ы": 434,
  "ь": 435,
  "э": 436,
  "ю": 437,
  "я": 438,
  "ё": 439,
  "ђ": 440,
  "ѓ": 441,
  "є": 442,
  "ѕ": 443,
  "і": 444,
  "ї": 445,
  "ј": 446,
  "љ": 447,
  "њ": 448,
  "ћ": 449,
  "ќ": 450,
  "ў": 451,
  "џ": 452,
  "Ѣ": 453,
  "Ґ": 454,
  "ґ": 455,
  "ү": 456,
  "ְ": 457,
  "ִ": 458,
  "ֵ": 459,
  "ֶ": 460,
  "ַ": 461,
  "ָ": 462,
  "ֹ": 463,
  "ֻ": 464,
  "ּ": 465,
  "ׁ": 466,
  "א": 467,
  "ב": 468,
  "ג": 469,
  "ד": 470,
  "ה": 471,
  "ו": 472,
  "ח": 473,
  "ט": 474,
  "י": 475,
  "כ": 476,
  "ל": 477,
  "ם": 478,
  "מ": 479,
  "נ": 480,
  "ס": 481,
  "ע": 482,
  "פ": 483,
  "צ": 484,
  "ר": 485,
  "ש": 486,
  "ת": 487,
  "آ": 488,
  "إ": 489,
  "ئ": 490,
  "ا": 491,
  "ب": 492,
  "ة": 493,
  "ت": 494,
  "ث": 495,
  "ج": 496,
  "ح": 497,
  "خ": 498,
  "د": 499,
  "ذ": 500,
  "ر": 501,
  "ز": 502,
  "س": 503,
  "ش": 504,
  "ط": 505,
  "ظ": 506,
  "ع": 507,
  "غ": 508,
  "ف": 509,
  "ق": 510,
  "ل": 511,
  "م": 512,
  "ن": 513,
  "ه": 514,
  "و": 515,
  "ى": 516,
  "ي": 517,
  "ً": 518,
  "ُ": 519,
  "ِ": 520,
  "ْ": 521,
  "ک": 522,
  "ی": 523,
  "थ": 524,
  "द": 525,
  "र": 526,
  "व": 527,
  "ा": 528,
  "े": 529,
  "ং": 530,
  "ক": 531,
  "খ": 532,
  "গ": 533,
  "চ": 534,
  "জ": 535,
  "ট": 536,
  "ঢ": 537,
  "দ": 538,
  "ন": 539,
  "প": 540,
  "ব": 541,
  "ম": 542,
  "র": 543,
  "ল": 544,
  "শ": 545,
  "স": 546,
  "হ": 547,
  "া": 548,
  "ি": 549,
  "ী": 550,
  "ু": 551,
  "ে": 552,
  "্": 553,
  "་": 554,
  "ཏ": 555,
  "ད": 556,
  "འ": 557,
  "ལ": 558,
  "ས": 559,
  "ི": 560,
  "ྐ": 561,
  "ྦ": 562,
  "ᐃ": 563,
  "ᑦ": 564,
  "ᓄ": 565,
  "ᔭ": 566,
  "ḍ": 567,
  "Ḑ": 568,
  "ḑ": 569,
  "ḙ": 570,
  "Ḥ": 571,
  "ḥ": 572,
  "ṃ": 573,
  "ṇ": 574,
  "ṛ": 575,
  "ṣ": 576,
  "ṭ": 577,
  "ạ": 578,
  "ả": 579,
  "ấ": 580,
  "ầ": 581,
  "ẩ": 582,
  "ắ": 583,
  "ẵ": 584,
  "ặ": 585,
  "ẹ": 586,
  "ẽ": 587,
  "ế": 588,
  "ễ": 589,
  "ệ": 590,
  "ị": 591,
  "Ọ": 592,
  "ọ": 593,
  "ồ": 594,
  "ỗ": 595,
  "ộ": 596,
  "ờ": 597,
  "ụ": 598,
  "ủ": 599,
  "ứ": 600,
  "ử": 601,
  "ự": 602,
  "ỳ": 603,
  "ἀ": 604,
  "ἁ": 605,
  "ἄ": 606,
  "ἅ": 607,
  "ἑ": 608,
  "Ἰ": 609,
  "ὁ": 610,
  "ὄ": 611,
  "ὕ": 612,
  "ῆ": 613,
  "ῖ": 614,
  "ῥ": 615,
  "ῦ": 616,
  "ῶ": 617,
  "​": 618,
  "‎": 619,
  "‐": 620,
  "‑": 621,
  "–": 622,
  "—": 623,
  "‘": 624,
  "’": 625,
  "“": 626,
  "”": 627,
  "†": 628,
  "•": 629,
  "…": 630,
  "‬": 631,
  "‰": 632,
  "′": 633,
  "″": 634,
  "₤": 635,
  "€": 636,
  "ℂ": 637,
  "℃": 638,
  "ℚ": 639,
  "ℝ": 640,
  "←": 641,
  "→": 642,
  "⇒": 643,
  "⇤": 644,
  "⇥": 645,
  "∈": 646,
  "−": 647,
  "∞": 648,
  "∩": 649,
  "∪": 650,
  "∫": 651,
  "≈": 652,
  "≠": 653,
  "≡": 654,
  "≤": 655,
  "≥": 656,
  "⊇": 657,
  "⋅": 658,
  "█": 659,
  "☉": 660,
  "☺": 661,
  "♀": 662,
  "。": 663,
  "は": 664,
  "へ": 665,
  "を": 666,
  "゛": 667,
  "゜": 668,
  "一": 669,
  "丁": 670,
  "三": 671,
  "上": 672,
  "下": 673,
  "不": 674,
  "丙": 675,
  "东": 676,
  "丝": 677,
  "中": 678,
  "丰": 679,
  "主": 680,
  "义": 681,
  "乙": 682,
  "九": 683,
  "书": 684,
  "亂": 685,
  "争": 686,
  "二": 687,
  "云": 688,
  "五": 689,
  "井": 690,
  "亳": 691,
  "亶": 692,
  "人": 693,
  "今": 694,
  "代": 695,
  "令": 696,
  "仲": 697,
  "伊": 698,
  "伏": 699,
  "会": 700,
  "体": 701,
  "使": 702,
  "來": 703,
  "儒": 704,
  "元": 705,
  "全": 706,
  "八": 707,
  "公": 708,
  "六": 709,
  "共": 710,
  "兴": 711,
  "兵": 712,
  "冈": 713,
  "册": 714,
  "农": 715,
  "分": 716,
  "切": 717,
  "刑": 718,
  "刘": 719,
  "刺": 720,
  "劉": 721,
  "力": 722,
  "動": 723,
  "勰": 724,
  "化": 725,
  "北": 726,
  "匡": 727,
  "区": 728,
  "十": 729,
  "华": 730,
  "卑": 731,
  "協": 732,
  "南": 733,
  "卜": 734,
  "卷": 735,
  "卿": 736,
  "历": 737,
  "原": 738,
  "厪": 739,
  "厲": 740,
  "去": 741,
  "县": 742,
  "友": 743,
  "发": 744,
  "受": 745,
  "台": 746,
  "史": 747,
  "司": 748,
  "吃": 749,
  "合": 750,
  "后": 751,
  "吏": 752,
  "君": 753,
  "启": 754,
  "吳": 755,
  "吴": 756,
  "周": 757,
  "和": 758,
  "員": 759,
  "唐": 760,
  "商": 761,
  "啟": 762,
  "嘗": 763,
  "嚣": 764,
  "囂": 765,
  "国": 766,
  "國": 767,
  "園": 768,
  "均": 769,
  "城": 770,
  "堅": 771,
  "堯": 772,
  "士": 773,
  "壬": 774,
  "売": 775,
  "夏": 776,
  "外": 777,
  "大": 778,
  "天": 779,
  "太": 780,
  "夫": 781,
  "头": 782,
  "夷": 783,
  "契": 784,
  "奴": 785,
  "她": 786,
  "妈": 787,
  "姬": 788,
  "威": 789,
  "子": 790,
  "孔": 791,
  "字": 792,
  "孙": 793,
  "孝": 794,
  "孟": 795,
  "孫": 796,
  "宇": 797,
  "安": 798,
  "宋": 799,
  "宗": 800,
  "定": 801,
  "宣": 802,
  "宰": 803,
  "家": 804,
  "密": 805,
  "察": 806,
  "寺": 807,
  "小": 808,
  "尚": 809,
  "尹": 810,
  "山": 811,
  "岡": 812,
  "崔": 813,
  "州": 814,
  "工": 815,
  "己": 816,
  "师": 817,
  "帝": 818,
  "師": 819,
  "席": 820,
  "平": 821,
  "幽": 822,
  "庆": 823,
  "庚": 824,
  "府": 825,
  "康": 826,
  "廩": 827,
  "延": 828,
  "式": 829,
  "律": 830,
  "後": 831,
  "御": 832,
  "微": 833,
  "德": 834,
  "怀": 835,
  "思": 836,
  "患": 837,
  "悼": 838,
  "惠": 839,
  "慎": 840,
  "懿": 841,
  "戊": 842,
  "成": 843,
  "我": 844,
  "战": 845,
  "戰": 846,
  "戶": 847,
  "户": 848,
  "房": 849,
  "扃": 850,
  "抗": 851,
  "护": 852,
  "拓": 853,
  "拼": 854,
  "援": 855,
  "收": 856,
  "放": 857,
  "政": 858,
  "教": 859,
  "散": 860,
  "敬": 861,
  "文": 862,
  "新": 863,
  "方": 864,
  "日": 865,
  "旦": 866,
  "时": 867,
  "昌": 868,
  "明": 869,
  "易": 870,
  "春": 871,
  "昨": 872,
  "昭": 873,
  "是": 874,
  "显": 875,
  "時": 876,
  "晉": 877,
  "晋": 878,
  "晏": 879,
  "晚": 880,
  "景": 881,
  "曆": 882,
  "書": 883,
  "月": 884,
  "朋": 885,
  "朝": 886,
  "本": 887,
  "李": 888,
  "東": 889,
  "杼": 890,
  "柔": 891,
  "桀": 892,
  "案": 893,
  "桓": 894,
  "梁": 895,
  "楊": 896,
  "楚": 897,
  "榮": 898,
  "横": 899,
  "橫": 900,
  "正": 901,
  "武": 902,
  "歷": 903,
  "殷": 904,
  "毎": 905,
  "民": 906,
  "気": 907,
  "水": 908,
  "汉": 909,
  "汗": 910,
  "汤": 911,
  "汴": 912,
  "沃": 913,
  "沟": 914,
  "河": 915,
  "泄": 916,
  "法": 917,
  "注": 918,
  "浩": 919,
  "海": 920,
  "淀": 921,
  "済": 922,
  "湯": 923,
  "漢": 924,
  "烈": 925,
  "燕": 926,
  "爭": 927,
  "爵": 928,
  "王": 929,
  "産": 930,
  "田": 931,
  "甲": 932,
  "申": 933,
  "男": 934,
  "疏": 935,
  "病": 936,
  "發": 937,
  "百": 938,
  "的": 939,
  "皇": 940,
  "皋": 941,
  "皮": 942,
  "盐": 943,
  "监": 944,
  "監": 945,
  "盤": 946,
  "相": 947,
  "省": 948,
  "督": 949,
  "石": 950,
  "礼": 951,
  "祖": 952,
  "神": 953,
  "禮": 954,
  "禹": 955,
  "秋": 956,
  "秦": 957,
  "稷": 958,
  "穆": 959,
  "空": 960,
  "策": 961,
  "简": 962,
  "管": 963,
  "節": 964,
  "簡": 965,
  "粉": 966,
  "粵": 967,
  "紂": 968,
  "経": 969,
  "經": 970,
  "縣": 971,
  "縱": 972,
  "繁": 973,
  "纵": 974,
  "经": 975,
  "美": 976,
  "義": 977,
  "羲": 978,
  "老": 979,
  "考": 980,
  "者": 981,
  "耳": 982,
  "耶": 983,
  "聂": 984,
  "聞": 985,
  "肚": 986,
  "胤": 987,
  "膑": 988,
  "臏": 989,
  "臘": 990,
  "自": 991,
  "臺": 992,
  "航": 993,
  "节": 994,
  "芒": 995,
  "苏": 996,
  "荀": 997,
  "莊": 998,
  "蕣": 999,
  "藩": 1000,
  "蘇": 1001,
  "蜀": 1002,
  "血": 1003,
  "術": 1004,
  "裕": 1005,
  "襄": 1006,
  "西": 1007,
  "要": 1008,
  "解": 1009,
  "詩": 1010,
  "語": 1011,
  "読": 1012,
  "論": 1013,
  "諸": 1014,
  "護": 1015,
  "论": 1016,
  "诗": 1017,
  "语": 1018,
  "诸": 1019,
  "谁": 1020,
  "谷": 1021,
  "貞": 1022,
  "賈": 1023,
  "贏": 1024,
  "贞": 1025,
  "赢": 1026,
  "赤": 1027,
  "赧": 1028,
  "赵": 1029,
  "起": 1030,
  "趙": 1031,
  "跋": 1032,
  "跟": 1033,
  "軍": 1034,
  "辛": 1035,
  "辞": 1036,
  "辭": 1037,
  "迁": 1038,
  "进": 1039,
  "送": 1040,
  "通": 1041,
  "進": 1042,
  "道": 1043,
  "遷": 1044,
  "遼": 1045,
  "邢": 1046,
  "部": 1047,
  "都": 1048,
  "里": 1049,
  "釐": 1050,
  "金": 1051,
  "錢": 1052,
  "鎮": 1053,
  "镇": 1054,
  "門": 1055,
  "门": 1056,
  "阳": 1057,
  "陈": 1058,
  "降": 1059,
  "陳": 1060,
  "陵": 1061,
  "陶": 1062,
  "陽": 1063,
  "隋": 1064,
  "隞": 1065,
  "隶": 1066,
  "隸": 1067,
  "难": 1068,
  "雍": 1069,
  "雙": 1070,
  "靈": 1071,
  "靓": 1072,
  "靚": 1073,
  "面": 1074,
  "鞅": 1075,
  "韓": 1076,
  "韩": 1077,
  "音": 1078,
  "韻": 1079,
  "頃": 1080,
  "頭": 1081,
  "顯": 1082,
  "顺": 1083,
  "飛": 1084,
  "饭": 1085,
  "馆": 1086,
  "馬": 1087,
  "马": 1088,
  "骨": 1089,
  "體": 1090,
  "高": 1091,
  "魏": 1092,
  "魯": 1093,
  "鮮": 1094,
  "鲜": 1095,
  "鶚": 1096,
  "鸭": 1097,
  "黃": 1098,
  "黑": 1099,
  "齊": 1100,
  "齐": 1101,
  "龍": 1102,
  "ꦗ": 1103,
  "ꦮ": 1104,
  "간": 1105,
  "갑": 1106,
  "강": 1107,
  "개": 1108,
  "경": 1109,
  "골": 1110,
  "공": 1111,
  "관": 1112,
  "광": 1113,
  "구": 1114,
  "국": 1115,
  "군": 1116,
  "금": 1117,
  "김": 1118,
  "남": 1119,
  "대": 1120,
  "도": 1121,
  "동": 1122,
  "라": 1123,
  "란": 1124,
  "량": 1125,
  "문": 1126,
  "민": 1127,
  "반": 1128,
  "방": 1129,
  "별": 1130,
  "봉": 1131,
  "북": 1132,
  "사": 1133,
  "산": 1134,
  "선": 1135,
  "성": 1136,
  "수": 1137,
  "시": 1138,
  "신": 1139,
  "안": 1140,
  "양": 1141,
  "업": 1142,
  "원": 1143,
  "의": 1144,
  "일": 1145,
  "자": 1146,
  "쟁": 1147,
  "전": 1148,
  "정": 1149,
  "조": 1150,
  "주": 1151,
  "지": 1152,
  "직": 1153,
  "진": 1154,
  "특": 1155,
  "평": 1156,
  "학": 1157,
  "한": 1158,
  "할": 1159,
  "함": 1160,
  "해": 1161,
  "행": 1162,
  "황": 1163,
  "﻿": 1164,
  "𝔸": 1165,
  "en": 1166,
  "in": 1167,
  "ta": 1168,
  "is": 1169,
  "an": 1170,
  "al": 1171,
  "ja": 1172,
  "ti": 1173,
  "el": 1174,
  "ku": 1175,
  "on": 1176,
  "si": 1177,
  "it": 1178,
  "sa": 1179,
  "la": 1180,
  "er": 1181,
  "ka": 1182,
  "et": 1183,
  "inen": 1184,
  "uo": 1185,
  "es": 1186,
  "li": 1187,
  "ko": 1188,
  "ma": 1189,
  "va": 1190,
  "us": 1191,
  "to": 1192,
  "19": 1193,
  "ki": 1194,
  "tä": 1195,
  "tu": 1196,
  "kuu": 1197,
  "ala": 1198,
  "ri": 1199,
  "jo": 1200,
  "kuuta": 1201,
  "te": 1202,
  "ra": 1203,
  "il": 1204,
  "le": 1205,
  "ää": 1206,
  "val": 1207,
  "uu": 1208,
  "mi": 1209,
  "ks": 1210,
  "ar": 1211,
  "jä": 1212,
  "alainen": 1213,
  "as": 1214,
  "ke": 1215,
  "os": 1216,
  "ksi": 1217,
  "ys": 1218,
  "den": 1219,
  "un": 1220,
  "ty": 1221,
  "ut": 1222,
  "ol": 1223,
  "uom": 1224,
  "lis": 1225,
  "lä": 1226,
  "vä": 1227,
  "vi": 1228,
  "hd": 1229,
  "18": 1230,
  "ik": 1231,
  "20": 1232,
  "lo": 1233,
  "yt": 1234,
  "ul": 1235,
  "im": 1236,
  "oli": 1237,
  "tel": 1238,
  "vat": 1239,
  "kä": 1240,
  "sä": 1241,
  "pa": 1242,
  "een": 1243,
  "or": 1244,
  "ei": 1245,
  "mis": 1246,
  "oi": 1247,
  "mä": 1248,
  "suom": 1249,
  "pi": 1250,
  "lainen": 1251,
  "se": 1252,
  "ur": 1253,
  "valta": 1254,
  "kan": 1255,
  "at": 1256,
  "tiin": 1257,
  "he": 1258,
  "nn": 1259,
  "ist": 1260,
  "so": 1261,
  "suomalainen": 1262,
  "re": 1263,
  "man": 1264,
  "ista": 1265,
  "lu": 1266,
  "kko": 1267,
  "na": 1268,
  "taja": 1269,
  "hdys": 1270,
  "kir": 1271,
  "kin": 1272,
  "vuo": 1273,
  "op": 1274,
  "yö": 1275,
  "uh": 1276,
  "mu": 1277,
  "ia": 1278,
  "issa": 1279,
  "nä": 1280,
  "lan": 1281,
  "oh": 1282,
  "hdysvalta": 1283,
  "eri": 1284,
  "ään": 1285,
  "ro": 1286,
  "sta": 1287,
  "min": 1288,
  "tti": 1289,
  "lija": 1290,
  "ne": 1291,
  "ssa": 1292,
  "per": 1293,
  "än": 1294,
  "isen": 1295,
  "kes": 1296,
  "ed": 1297,
  "pal": 1298,
  "sy": 1299,
  "van": 1300,
  "ha": 1301,
  "yhdysvalta": 1302,
  "ran": 1303,
  "kun": 1304,
  "yh": 1305,
  "ten": 1306,
  "yhdysvaltalainen": 1307,
  "pää": 1308,
  "ksen": 1309,
  "17": 1310,
  "ot": 1311,
  "esta": 1312,
  "am": 1313,
  "00": 1314,
  "essa": 1315,
  "maa": 1316,
  "aa": 1317,
  "oit": 1318,
  "ir": 1319,
  "kau": 1320,
  "isi": 1321,
  "ih": 1322,
  "ilija": 1323,
  "de": 1324,
  "sen": 1325,
  "taa": 1326,
  "kon": 1327,
  "uon": 1328,
  "muu": 1329,
  "tö": 1330,
  "ing": 1331,
  "teli": 1332,
  "puo": 1333,
  "myö": 1334,
  "ettiin": 1335,
  "maan": 1336,
  "men": 1337,
  "pä": 1338,
  "ita": 1339,
  "mer": 1340,
  "kaan": 1341,
  "ni": 1342,
  "ai": 1343,
  "mikuuta": 1344,
  "200": 1345,
  "mat": 1346,
  "rit": 1347,
  "suu": 1348,
  "Suom": 1349,
  "eli": 1350,
  "kirja": 1351,
  "all": 1352,
  "ina": 1353,
  "näyt": 1354,
  "uonna": 1355,
  "taan": 1356,
  "ken": 1357,
  "assa": 1358,
  "liit": 1359,
  "usta": 1360,
  "ky": 1361,
  "ali": 1362,
  "tiet": 1363,
  "uot": 1364,
  "ch": 1365,
  "allis": 1366,
  "tai": 1367,
  "äkuuta": 1368,
  "esi": 1369,
  "utta": 1370,
  "iset": 1371,
  "199": 1372,
  "jan": 1373,
  "mmä": 1374,
  "itä": 1375,
  "joh": 1376,
  "jen": 1377,
  "197": 1378,
  "vät": 1379,
  "elo": 1380,
  "16": 1381,
  "ella": 1382,
  "poli": 1383,
  "isto": 1384,
  "ulu": 1385,
  "telijä": 1386,
  "san": 1387,
  "198": 1388,
  "194": 1389,
  "myös": 1390,
  "istä": 1391,
  "alla": 1392,
  "uv": 1393,
  "aan": 1394,
  "isti": 1395,
  "ter": 1396,
  "iden": 1397,
  "käyt": 1398,
  "di": 1399,
  "näyttelijä": 1400,
  "voi": 1401,
  "esti": 1402,
  "196": 1403,
  "pu": 1404,
  "että": 1405,
  "mar": 1406,
  "vel": 1407,
  "pan": 1408,
  "uus": 1409,
  "mo": 1410,
  "kirjailija": 1411,
  "kka": 1412,
  "pun": 1413,
  "tar": 1414,
  "no": 1415,
  "teen": 1416,
  "yn": 1417,
  "tam": 1418,
  "uko": 1419,
  "15": 1420,
  "alis": 1421,
  "hel": 1422,
  "ovat": 1423,
  "kit": 1424,
  "alu": 1425,
  "Sa": 1426,
  "tin": 1427,
  "ras": 1428,
  "po": 1429,
  "eh": 1430,
  "193": 1431,
  "llä": 1432,
  "illa": 1433,
  "tikko": 1434,
  "elle": 1435,
  "täjä": 1436,
  "vuonna": 1437,
  "Ma": 1438,
  "195": 1439,
  "sin": 1440,
  "vo": 1441,
  "kunn": 1442,
  "siden": 1443,
  "residen": 1444,
  "jär": 1445,
  "rin": 1446,
  "simmä": 1447,
  "em": 1448,
  "tan": 1449,
  "ho": 1450,
  "sk": 1451,
  "ver": 1452,
  "ob": 1453,
  "ton": 1454,
  "tui": 1455,
  "elin": 1456,
  "alais": 1457,
  "ud": 1458,
  "ön": 1459,
  "vuoden": 1460,
  "perus": 1461,
  "enä": 1462,
  "gi": 1463,
  "ole": 1464,
  "eksi": 1465,
  "tta": 1466,
  "uvos": 1467,
  "joka": 1468,
  "valti": 1469,
  "ille": 1470,
  "ikan": 1471,
  "192": 1472,
  "ker": 1473,
  "hän": 1474,
  "ussa": 1475,
  "Suomen": 1476,
  "hall": 1477,
  "isten": 1478,
  "10": 1479,
  "saa": 1480,
  "presiden": 1481,
  "lle": 1482,
  "kiel": 1483,
  "joulu": 1484,
  "luv": 1485,
  "14": 1486,
  "inn": 1487,
  "itikko": 1488,
  "maalis": 1489,
  "kaupun": 1490,
  "Ka": 1491,
  "läinen": 1492,
  "vasta": 1493,
  "päi": 1494,
  "essä": 1495,
  "toim": 1496,
  "joit": 1497,
  "uksen": 1498,
  "saks": 1499,
  "läh": 1500,
  "12": 1501,
  "elä": 1502,
  "jes": 1503,
  "ettu": 1504,
  "minist": 1505,
  "tyi": 1506,
  "kuva": 1507,
  "tammikuuta": 1508,
  "uhti": 1509,
  "ensimmä": 1510,
  "syys": 1511,
  "aja": 1512,
  "ula": 1513,
  "mää": 1514,
  "poliitikko": 1515,
  "uks": 1516,
  "ttu": 1517,
  "loka": 1518,
  "var": 1519,
  "yy": 1520,
  "touko": 1521,
  "Ne": 1522,
  "lanti": 1523,
  "järjes": 1524,
  "las": 1525,
  "ve": 1526,
  "13": 1527,
  "kul": 1528,
  "maaliskuuta": 1529,
  "hy": 1530,
  "tut": 1531,
  "kas": 1532,
  "joulukuuta": 1533,
  "huhti": 1534,
  "An": 1535,
  "hein": 1536,
  "len": 1537,
  "hi": 1538,
  "marras": 1539,
  "ura": 1540,
  "toukokuuta": 1541,
  "non": 1542,
  "ilman": 1543,
  "alle": 1544,
  "sekä": 1545,
  "jäl": 1546,
  "osa": 1547,
  "skalainen": 1548,
  "kaa": 1549,
  "keen": 1550,
  "lokakuuta": 1551,
  "lin": 1552,
  "me": 1553,
  "marraskuuta": 1554,
  "eng": 1555,
  "190": 1556,
  "olo": 1557,
  "ym": 1558,
  "kesäkuuta": 1559,
  "helmikuuta": 1560,
  "syyskuuta": 1561,
  "kki": 1562,
  "11": 1563,
  "ros": 1564,
  "Joh": 1565,
  "isä": 1566,
  "189": 1567,
  "huhtikuuta": 1568,
  "su": 1569,
  "ministeri": 1570,
  "mutta": 1571,
  "puol": 1572,
  "toi": 1573,
  "ollis": 1574,
  "suo": 1575,
  "vai": 1576,
  "uvosto": 1577,
  "jon": 1578,
  "mukaan": 1579,
  "yli": 1580,
  "issä": 1581,
  "Mar": 1582,
  "tun": 1583,
  "heinäkuuta": 1584,
  "itse": 1585,
  "han": 1586,
  "elokuuta": 1587,
  "oike": 1588,
  "jel": 1589,
  "mies": 1590,
  "tää": 1591,
  "uro": 1592,
  "kal": 1593,
  "lais": 1594,
  "din": 1595,
  "ans": 1596,
  "yksi": 1597,
  "La": 1598,
  "johtaja": 1599,
  "saksalainen": 1600,
  "ulla": 1601,
  "etta": 1602,
  "met": 1603,
  "hit": 1604,
  "dan": 1605,
  "tr": 1606,
  "kol": 1607,
  "saan": 1608,
  "sija": 1609,
  "lö": 1610,
  "isesti": 1611,
  "use": 1612,
  "linen": 1613,
  "da": 1614,
  "muo": 1615,
  "Se": 1616,
  "sti": 1617,
  "talo": 1618,
  "vin": 1619,
  "mon": 1620,
  "188": 1621,
  "lantilainen": 1622,
  "har": 1623,
  "Ja": 1624,
  "ranskalainen": 1625,
  "palkin": 1626,
  "tus": 1627,
  "nim": 1628,
  "ikki": 1629,
  "ritti": 1630,
  "iin": 1631,
  "tutki": 1632,
  "alue": 1633,
  "rä": 1634,
  "ruot": 1635,
  "voit": 1636,
  "presidentti": 1637,
  "ssä": 1638,
  "män": 1639,
  "estä": 1640,
  "of": 1641,
  "yhte": 1642,
  "ber": 1643,
  "sai": 1644,
  "iten": 1645,
  "kor": 1646,
  "um": 1647,
  "asta": 1648,
  "maailman": 1649,
  "ent": 1650,
  "Al": 1651,
  "mia": 1652,
  "jal": 1653,
  "enn": 1654,
  "Pa": 1655,
  "puolu": 1656,
  "pit": 1657,
  "ossa": 1658,
  "Ro": 1659,
  "son": 1660,
  "pel": 1661,
  "jälkeen": 1662,
  "Ra": 1663,
  "Vi": 1664,
  "kais": 1665,
  "Nob": 1666,
  "ulaja": 1667,
  "gin": 1668,
  "Hel": 1669,
  "kö": 1670,
  "kunta": 1671,
  "yle": 1672,
  "lut": 1673,
  "uud": 1674,
  "edus": 1675,
  "stä": 1676,
  "do": 1677,
  "vir": 1678,
  "ellä": 1679,
  "Nobelin": 1680,
  "ellis": 1681,
  "ikka": 1682,
  "teet": 1683,
  "hti": 1684,
  "sävel": 1685,
  "vaa": 1686,
  "pro": 1687,
  "Ar": 1688,
  "raken": 1689,
  "etty": 1690,
  "sia": 1691,
  "om": 1692,
  "ohjo": 1693,
  "päivä": 1694,
  "koi": 1695,
  "ck": 1696,
  "lijä": 1697,
  "par": 1698,
  "ria": 1699,
  "lla": 1700,
  "isa": 1701,
  "kansan": 1702,
  "sikko": 1703,
  "ihmis": 1704,
  "21": 1705,
  "osta": 1706,
  "kos": 1707,
  "En": 1708,
  "kuning": 1709,
  "ruots": 1710,
  "Ni": 1711,
  "run": 1712,
  "hen": 1713,
  "uvostoliit": 1714,
  "kehit": 1715,
  "Ta": 1716,
  "ann": 1717,
  "uuden": 1718,
  "187": 1719,
  "pp": 1720,
  "koko": 1721,
  "utu": 1722,
  "säveltäjä": 1723,
  "her": 1724,
  "22": 1725,
  "kunnan": 1726,
  "syn": 1727,
  "käsi": 1728,
  "olla": 1729,
  "asti": 1730,
  "tettiin": 1731,
  "ksia": 1732,
  "hallit": 1733,
  "hin": 1734,
  "kirjoit": 1735,
  "saanut": 1736,
  "ian": 1737,
  "tuli": 1738,
  "ien": 1739,
  "laulaja": 1740,
  "and": 1741,
  "ihin": 1742,
  "186": 1743,
  "noin": 1744,
  "onn": 1745,
  "ase": 1746,
  "mil": 1747,
  "britti": 1748,
  "uri": 1749,
  "uroop": 1750,
  "työ": 1751,
  "ua": 1752,
  "luo": 1753,
  "minen": 1754,
  "II": 1755,
  "sota": 1756,
  "eita": 1757,
  "kut": 1758,
  "laa": 1759,
  "Li": 1760,
  "In": 1761,
  "jou": 1762,
  "23": 1763,
  "palkinnon": 1764,
  "kel": 1765,
  "pia": 1766,
  "ruotsalainen": 1767,
  "seura": 1768,
  "kuin": 1769,
  "tietei": 1770,
  "tyy": 1771,
  "Tä": 1772,
  "puh": 1773,
  "nyt": 1774,
  "tori": 1775,
  "ven": 1776,
  "mista": 1777,
  "tunn": 1778,
  "To": 1779,
  "jää": 1780,
  "kuningas": 1781,
  "llis": 1782,
  "ino": 1783,
  "Venä": 1784,
  "lop": 1785,
  "Mi": 1786,
  "25": 1787,
  "kar": 1788,
  "ge": 1789,
  "tio": 1790,
  "vallan": 1791,
  "äis": 1792,
  "massa": 1793,
  "englantilainen": 1794,
  "siir": 1795,
  "tuo": 1796,
  "kiksi": 1797,
  "pallo": 1798,
  "tieteilijä": 1799,
  "sisä": 1800,
  "paa": 1801,
  "Le": 1802,
  "isia": 1803,
  "ek": 1804,
  "ohja": 1805,
  "ine": 1806,
  "kuiten": 1807,
  "neet": 1808,
  "30": 1809,
  "Jo": 1810,
  "mit": 1811,
  "ard": 1812,
  "Neuvostoliit": 1813,
  "Yhdysvalta": 1814,
  "jul": 1815,
  "hem": 1816,
  "eiden": 1817,
  "yhd": 1818,
  "merkiksi": 1819,
  "brittiläinen": 1820,
  "liik": 1821,
  "von": 1822,
  "lää": 1823,
  "jat": 1824,
  "kesku": 1825,
  "pros": 1826,
  "kra": 1827,
  "pah": 1828,
  "tele": 1829,
  "kuussa": 1830,
  "Vuonna": 1831,
  "yr": 1832,
  "isiin": 1833,
  "misen": 1834,
  "yks": 1835,
  "000": 1836,
  "au": 1837,
  "Venäjä": 1838,
  "tii": 1839,
  "tion": 1840,
  "ohjois": 1841,
  "Euroop": 1842,
  "ollut": 1843,
  "Yhdysvaltain": 1844,
  "atti": 1845,
  "kanssa": 1846,
  "vit": 1847,
  "olivat": 1848,
  "taide": 1849,
  "yky": 1850,
  "ppi": 1851,
  "kana": 1852,
  "sel": 1853,
  "tis": 1854,
  "tal": 1855,
  "merkit": 1856,
  "uden": 1857,
  "teki": 1858,
  "185": 1859,
  "maala": 1860,
  "He": 1861,
  "etään": 1862,
  "kans": 1863,
  "muod": 1864,
  "28": 1865,
  "24": 1866,
  "ale": 1867,
  "suur": 1868,
  "istu": 1869,
  "jot": 1870,
  "koh": 1871,
  "tävä": 1872,
  "jonka": 1873,
  "venä": 1874,
  "ju": 1875,
  "pien": 1876,
  "alkoi": 1877,
  "mien": 1878,
  "teh": 1879,
  "aikan": 1880,
  "26": 1881,
  "raali": 1882,
  "ologi": 1883,
  "asi": 1884,
  "27": 1885,
  "Vuo": 1886,
  "Wil": 1887,
  "mus": 1888,
  "nin": 1889,
  "olle": 1890,
  "jossa": 1891,
  "bi": 1892,
  "ug": 1893,
  "eet": 1894,
  "määrä": 1895,
  "jalka": 1896,
  "isin": 1897,
  "ui": 1898,
  "lialainen": 1899,
  "mas": 1900,
  "ohjel": 1901,
  "tien": 1902,
  "ana": 1903,
  "sing": 1904,
  "käyttö": 1905,
  "tila": 1906,
  "entti": 1907,
  "Suomessa": 1908,
  "John": 1909,
  "histo": 1910,
  "29": 1911,
  "tur": 1912,
  "elokuva": 1913,
  "jäsen": 1914,
  "vain": 1915,
  "aikana": 1916,
  "telu": 1917,
  "kiin": 1918,
  "luvulla": 1919,
  "via": 1920,
  "Va": 1921,
  "jallis": 1922,
  "mp": 1923,
  "kseen": 1924,
  "Ruot": 1925,
  "etti": 1926,
  "Val": 1927,
  "oitti": 1928,
  "Ed": 1929,
  "ell": 1930,
  "tais": 1931,
  "jalainen": 1932,
  "yhteis": 1933,
  "ulko": 1934,
  "toimit": 1935,
  "Yhdys": 1936,
  "valla": 1937,
  "esimerkiksi": 1938,
  "tieto": 1939,
  "daan": 1940,
  "kuitenkin": 1941,
  "mesta": 1942,
  "tasa": 1943,
  "muun": 1944,
  "Ko": 1945,
  "ensimmäinen": 1946,
  "jotka": 1947,
  "der": 1948,
  "vuosi": 1949,
  "kuten": 1950,
  "ry": 1951,
  "synty": 1952,
  "Tur": 1953,
  "uun": 1954,
  "ilm": 1955,
  "luku": 1956,
  "väli": 1957,
  "Fran": 1958,
  "Es": 1959,
  "toimi": 1960,
  "ark": 1961,
  "Hän": 1962,
  "Ri": 1963,
  "184": 1964,
  "Car": 1965,
  "ksan": 1966,
  "vas": 1967,
  "ttä": 1968,
  "Kar": 1969,
  "ga": 1970,
  "muassa": 1971,
  "Ha": 1972,
  "pääministeri": 1973,
  "ero": 1974,
  "Helsing": 1975,
  "luvun": 1976,
  "kat": 1977,
  "asu": 1978,
  "vää": 1979,
  "Rans": 1980,
  "välis": 1981,
  "nnit": 1982,
  "inä": 1983,
  "maalari": 1984,
  "Pi": 1985,
  "käy": 1986,
  "itti": 1987,
  "ori": 1988,
  "huo": 1989,
  "runoi": 1990,
  "mur": 1991,
  "italialainen": 1992,
  "kr": 1993,
  "sodan": 1994,
  "rik": 1995,
  "län": 1996,
  "talous": 1997,
  "järjestel": 1998,
  "Si": 1999,
  "vastaan": 2000,
  "runoilija": 2001,
  "tuu": 2002,
  "kuun": 2003,
  "ce": 2004,
  "mm": 2005,
  "mään": 2006,
  "muusikko": 2007,
  "jalkapallo": 2008,
  "lisä": 2009,
  "Na": 2010,
  "valtio": 2011,
  "Ge": 2012,
  "alaiset": 2013,
  "taidemaalari": 2014,
  "Lo": 2015,
  "Per": 2016,
  "korke": 2017,
  "nor": 2018,
  "So": 2019,
  "fil": 2020,
  "ak": 2021,
  "ime": 2022,
  "ose": 2023,
  "kap": 2024,
  "mieh": 2025,
  "co": 2026,
  "llo": 2027,
  "ili": 2028,
  "kke": 2029,
  "suuri": 2030,
  "äh": 2031,
  "inti": 2032,
  "tait": 2033,
  "vien": 2034,
  "histori": 2035,
  "itsen": 2036,
  "ysi": 2037,
  "ensimmäisen": 2038,
  "iä": 2039,
  "yys": 2040,
  "prosentti": 2041,
  "alta": 2042,
  "toa": 2043,
  "kaupungin": 2044,
  "Ki": 2045,
  "ilu": 2046,
  "valtion": 2047,
  "koit": 2048,
  "ikko": 2049,
  "rakenn": 2050,
  "visi": 2051,
  "od": 2052,
  "isty": 2053,
  "tied": 2054,
  "olym": 2055,
  "ler": 2056,
  "edustaja": 2057,
  "kansa": 2058,
  "osof": 2059,
  "enteri": 2060,
  "kenraali": 2061,
  "yrit": 2062,
  "Is": 2063,
  "kalenteri": 2064,
  "hä": 2065,
  "fes": 2066,
  "uutta": 2067,
  "hänen": 2068,
  "aika": 2069,
  "tieteen": 2070,
  "nyky": 2071,
  "Mon": 2072,
  "illä": 2073,
  "hyvä": 2074,
  "usi": 2075,
  "yd": 2076,
  "hyö": 2077,
  "pid": 2078,
  "erit": 2079,
  "rauh": 2080,
  "Re": 2081,
  "Da": 2082,
  "Kes": 2083,
  "kaksi": 2084,
  "ekko": 2085,
  "johta": 2086,
  "lai": 2087,
  "prosenttia": 2088,
  "ohjaaja": 2089,
  "att": 2090,
  "toimin": 2091,
  "sori": 2092,
  "ene": 2093,
  "Kir": 2094,
  "telä": 2095,
  "vet": 2096,
  "musi": 2097,
  "henki": 2098,
  "kia": 2099,
  "tor": 2100,
  "pahtu": 2101,
  "alan": 2102,
  "valit": 2103,
  "Etelä": 2104,
  "ulun": 2105,
  "mahd": 2106,
  "ppa": 2107,
  "itt": 2108,
  "profes": 2109,
  "lloin": 2110,
  "183": 2111,
  "mmen": 2112,
  "sina": 2113,
  "miseen": 2114,
  "Ch": 2115,
  "pim": 2116,
  "lii": 2117,
  "ehti": 2118,
  "tuot": 2119,
  "Venäjän": 2120,
  "hden": 2121,
  "lento": 2122,
  "pe": 2123,
  "Hen": 2124,
  "ope": 2125,
  "ren": 2126,
  "venäläinen": 2127,
  "desta": 2128,
  "sää": 2129,
  "filosof": 2130,
  "kään": 2131,
  "ssi": 2132,
  "sar": 2133,
  "oma": 2134,
  "liitto": 2135,
  "alku": 2136,
  "ris": 2137,
  "istö": 2138,
  "voidaan": 2139,
  "Kor": 2140,
  "Euroopan": 2141,
  "Kiin": 2142,
  "uskon": 2143,
  "tois": 2144,
  "dio": 2145,
  "kot": 2146,
  "kuulu": 2147,
  "kieli": 2148,
  "professori": 2149,
  "ba": 2150,
  "kaikki": 2151,
  "lait": 2152,
  "kset": 2153,
  "puolue": 2154,
  "Geor": 2155,
  "Itä": 2156,
  "uta": 2157,
  "joon": 2158,
  "les": 2159,
  "valmis": 2160,
  "isiä": 2161,
  "Ale": 2162,
  "vara": 2163,
  "niin": 2164,
  "Os": 2165,
  "ystä": 2166,
  "vaiku": 2167,
  "tul": 2168,
  "Pohjois": 2169,
  "matta": 2170,
  "piir": 2171,
  "elleen": 2172,
  "gen": 2173,
  "joukko": 2174,
  "alo": 2175,
  "saar": 2176,
  "tia": 2177,
  "Ber": 2178,
  "tojen": 2179,
  "gia": 2180,
  "Kan": 2181,
  "Ba": 2182,
  "kann": 2183,
  "isari": 2184,
  "äi": 2185,
  "Bri": 2186,
  "kymmen": 2187,
  "ehd": 2188,
  "ff": 2189,
  "ong": 2190,
  "alli": 2191,
  "ilma": 2192,
  "Puo": 2193,
  "vil": 2194,
  "yttä": 2195,
  "Ai": 2196,
  "vaan": 2197,
  "vapa": 2198,
  "suomen": 2199,
  "mestari": 2200,
  "ean": 2201,
  "mokra": 2202,
  "Tam": 2203,
  "ryh": 2204,
  "kil": 2205,
  "pala": 2206,
  "arkkit": 2207,
  "Har": 2208,
  "eseen": 2209,
  "yl": 2210,
  "oni": 2211,
  "toja": 2212,
  "Helsingin": 2213,
  "stan": 2214,
  "pol": 2215,
  "mahdollis": 2216,
  "por": 2217,
  "ais": 2218,
  "tarkoit": 2219,
  "kuvan": 2220,
  "eilija": 2221,
  "uk": 2222,
  "Saksan": 2223,
  "jalkapalloilija": 2224,
  "viä": 2225,
  "opet": 2226,
  "kulttu": 2227,
  "ger": 2228,
  "ee": 2229,
  "pys": 2230,
  "epä": 2231,
  "kone": 2232,
  "juu": 2233,
  "kaupunki": 2234,
  "lain": 2235,
  "olympia": 2236,
  "up": 2237,
  "mei": 2238,
  "vaih": 2239,
  "ani": 2240,
  "toimittaja": 2241,
  "estö": 2242,
  "Nor": 2243,
  "ympä": 2244,
  "henkilö": 2245,
  "tann": 2246,
  "öö": 2247,
  "miel": 2248,
  "luon": 2249,
  "koulu": 2250,
  "toon": 2251,
  "miljoon": 2252,
  "kirjallis": 2253,
  "vallo": 2254,
  "aihe": 2255,
  "th": 2256,
  "Neuvostoliiton": 2257,
  "pani": 2258,
  "lannin": 2259,
  "ajan": 2260,
  "180": 2261,
  "demokra": 2262,
  "utui": 2263,
  "ensä": 2264,
  "mät": 2265,
  "ikä": 2266,
  "ert": 2267,
  "itsi": 2268,
  "suunnit": 2269,
  "keisari": 2270,
  "mistä": 2271,
  "suh": 2272,
  "Suu": 2273,
  "don": 2274,
  "tär": 2275,
  "tiiv": 2276,
  "for": 2277,
  "179": 2278,
  "31": 2279,
  "Myö": 2280,
  "tunut": 2281,
  "nel": 2282,
  "alaisten": 2283,
  "yliop": 2284,
  "alaisen": 2285,
  "pin": 2286,
  "norjalainen": 2287,
  "tua": 2288,
  "dyn": 2289,
  "utti": 2290,
  "res": 2291,
  "Rob": 2292,
  "sopim": 2293,
  "keskus": 2294,
  "muodos": 2295,
  "yysikko": 2296,
  "era": 2297,
  "urin": 2298,
  "The": 2299,
  "hemmin": 2300,
  "av": 2301,
  "oiden": 2302,
  "Lu": 2303,
  "oita": 2304,
  "puolueen": 2305,
  "fi": 2306,
  "Ti": 2307,
  "kassa": 2308,
  "vuotta": 2309,
  "Nä": 2310,
  "st": 2311,
  "kilpa": 2312,
  "keske": 2313,
  "rauhan": 2314,
  "ihmistä": 2315,
  "enne": 2316,
  "berg": 2317,
  "sijaitse": 2318,
  "lisäksi": 2319,
  "sitä": 2320,
  "Kuo": 2321,
  "Lin": 2322,
  "päät": 2323,
  "anta": 2324,
  "perin": 2325,
  "fysi": 2326,
  "jouko": 2327,
  "fyysikko": 2328,
  "uksia": 2329,
  "eivät": 2330,
  "Ju": 2331,
  "kis": 2332,
  "yty": 2333,
  "etaan": 2334,
  "ca": 2335,
  "palvel": 2336,
  "1980": 2337,
  "jö": 2338,
  "sur": 2339,
  "usein": 2340,
  "yleis": 2341,
  "julis": 2342,
  "Läh": 2343,
  "muut": 2344,
  "gan": 2345,
  "Ad": 2346,
  "Ranskan": 2347,
  "go": 2348,
  "tilas": 2349,
  "Er": 2350,
  "ikin": 2351,
  "miin": 2352,
  "oikeus": 2353,
  "etu": 2354,
  "tule": 2355,
  "red": 2356,
  "tekijä": 2357,
  "perustettiin": 2358,
  "olf": 2359,
  "Vä": 2360,
  "ennen": 2361,
  "käri": 2362,
  "Char": 2363,
  "Willi": 2364,
  "jun": 2365,
  "tanut": 2366,
  "Ensimmä": 2367,
  "armei": 2368,
  "sillä": 2369,
  "tek": 2370,
  "Kat": 2371,
  "itsenäis": 2372,
  "iri": 2373,
  "uut": 2374,
  "hde": 2375,
  "neen": 2376,
  "illis": 2377,
  "paik": 2378,
  "gra": 2379,
  "etelä": 2380,
  "voima": 2381,
  "kansanedustaja": 2382,
  "joiden": 2383,
  "For": 2384,
  "vallis": 2385,
  "hyväks": 2386,
  "2017": 2387,
  "vuoksi": 2388,
  "voim": 2389,
  "kemis": 2390,
  "Kun": 2391,
  "koo": 2392,
  "hol": 2393,
  "esiin": 2394,
  "vasti": 2395,
  "viime": 2396,
  "itta": 2397,
  "Ruotsin": 2398,
  "puolella": 2399,
  "kirkko": 2400,
  "rat": 2401,
  "väestö": 2402,
  "allinen": 2403,
  "ksa": 2404,
  "onen": 2405,
  "1970": 2406,
  "tutkimus": 2407,
  "onin": 2408,
  "nnö": 2409,
  "ste": 2410,
  "kari": 2411,
  "kea": 2412,
  "kesä": 2413,
  "sivat": 2414,
  "filosofi": 2415,
  "laiset": 2416,
  "puheen": 2417,
  "elta": 2418,
  "suurin": 2419,
  "Maa": 2420,
  "1990": 2421,
  "kku": 2422,
  "2019": 2423,
  "Suo": 2424,
  "liike": 2425,
  "William": 2426,
  "je": 2427,
  "tali": 2428,
  "jolloin": 2429,
  "ab": 2430,
  "Por": 2431,
  "neljä": 2432,
  "keski": 2433,
  "missa": 2434,
  "Kr": 2435,
  "Van": 2436,
  "suosi": 2437,
  "iseen": 2438,
  "mann": 2439,
  "kansallis": 2440,
  "50": 2441,
  "id": 2442,
  "ulta": 2443,
  "meri": 2444,
  "muualla": 2445,
  "2016": 2446,
  "io": 2447,
  "alin": 2448,
  "kus": 2449,
  "Te": 2450,
  "kasta": 2451,
  "Bo": 2452,
  "2010": 2453,
  "2000": 2454,
  "ppu": 2455,
  "pian": 2456,
  "voittaja": 2457,
  "yksen": 2458,
  "vos": 2459,
  "hyvin": 2460,
  "poliitt": 2461,
  "Il": 2462,
  "Pet": 2463,
  "kautta": 2464,
  "käyttä": 2465,
  "yi": 2466,
  "kiekko": 2467,
  "enter": 2468,
  "erin": 2469,
  "järjestö": 2470,
  "Af": 2471,
  "julkais": 2472,
  "metri": 2473,
  "tivat": 2474,
  "Britann": 2475,
  "mian": 2476,
  "tit": 2477,
  "teollis": 2478,
  "Lähteet": 2479,
  "vah": 2480,
  "arkkitehti": 2481,
  "hallin": 2482,
  "lli": 2483,
  "käsit": 2484,
  "mate": 2485,
  "Sch": 2486,
  "elokuvaohjaaja": 2487,
  "jien": 2488,
  "2011": 2489,
  "tapa": 2490,
  "iste": 2491,
  "erity": 2492,
  "tuksen": 2493,
  "iston": 2494,
  "ööri": 2495,
  "est": 2496,
  "ilta": 2497,
  "vaikut": 2498,
  "mikä": 2499,
  "Eng": 2500,
  "laisia": 2501,
  "emmin": 2502,
  "And": 2503,
  "olisi": 2504,
  "Paa": 2505,
  "koska": 2506,
  "ph": 2507,
  "kuoli": 2508,
  "Pe": 2509,
  "Robert": 2510,
  "nan": 2511,
  "joita": 2512,
  "ydin": 2513,
  "uksessa": 2514,
  "Juh": 2515,
  "ser": 2516,
  "2009": 2517,
  "käyttöön": 2518,
  "uusi": 2519,
  "esty": 2520,
  "nope": 2521,
  "ellinen": 2522,
  "joista": 2523,
  "Vir": 2524,
  "lääke": 2525,
  "sal": 2526,
  "myöhemmin": 2527,
  "kuul": 2528,
  "tärke": 2529,
  "jääkiekko": 2530,
  "masta": 2531,
  "puolis": 2532,
  "valittiin": 2533,
  "telija": 2534,
  "2018": 2535,
  "2007": 2536,
  "kato": 2537,
  "taiteilija": 2538,
  "De": 2539,
  "2015": 2540,
  "otta": 2541,
  "Co": 2542,
  "kilo": 2543,
  "lamen": 2544,
  "ill": 2545,
  "miä": 2546,
  "kemisti": 2547,
  "und": 2548,
  "1960": 2549,
  "teita": 2550,
  "uni": 2551,
  "pelaa": 2552,
  "Kon": 2553,
  "innan": 2554,
  "määrit": 2555,
  "laki": 2556,
  "mpi": 2557,
  "misesta": 2558,
  "2006": 2559,
  "Carl": 2560,
  "bo": 2561,
  "uksi": 2562,
  "auto": 2563,
  "heesta": 2564,
  "arti": 2565,
  "hyök": 2566,
  "Kiinan": 2567,
  "kys": 2568,
  "välillä": 2569,
  "178": 2570,
  "olympiavoittaja": 2571,
  "2003": 2572,
  "avat": 2573,
  "aloitti": 2574,
  "ukset": 2575,
  "suku": 2576,
  "emi": 2577,
  "Myös": 2578,
  "piis": 2579,
  "nuo": 2580,
  "tään": 2581,
  "ikk": 2582,
  "lev": 2583,
  "maiden": 2584,
  "kansain": 2585,
  "malla": 2586,
  "ini": 2587,
  "mmän": 2588,
  "tutkija": 2589,
  "vuosina": 2590,
  "lit": 2591,
  "ret": 2592,
  "Aiheesta": 2593,
  "kanad": 2594,
  "ames": 2595,
  "1900": 2596,
  "Japan": 2597,
  "Ku": 2598,
  "ang": 2599,
  "Johann": 2600,
  "matka": 2601,
  "liitty": 2602,
  "Sen": 2603,
  "alit": 2604,
  "kri": 2605,
  "är": 2606,
  "jos": 2607,
  "hal": 2608,
  "sky": 2609,
  "1945": 2610,
  "pohjois": 2611,
  "ea": 2612,
  "dynasti": 2613,
  "aina": 2614,
  "1918": 2615,
  "lääkäri": 2616,
  "arvo": 2617,
  "Katso": 2618,
  "Johan": 2619,
  "cha": 2620,
  "teiden": 2621,
  "2008": 2622,
  "Mo": 2623,
  "James": 2624,
  "vaale": 2625,
  "sit": 2626,
  "Ho": 2627,
  "sisäl": 2628,
  "kkö": 2629,
  "plo": 2630,
  "tiete": 2631,
  "hallituksen": 2632,
  "vän": 2633,
  "oman": 2634,
  "niiden": 2635,
  "dia": 2636,
  "2012": 2637,
  "rich": 2638,
  "kutsu": 2639,
  "Ur": 2640,
  "yleensä": 2641,
  "Charles": 2642,
  "hte": 2643,
  "oikeuden": 2644,
  "Ann": 2645,
  "yhty": 2646,
  "imo": 2647,
  "tilan": 2648,
  "kumo": 2649,
  "kier": 2650,
  "siitä": 2651,
  "kanadalainen": 2652,
  "Maan": 2653,
  "muksen": 2654,
  "avar": 2655,
  "tote": 2656,
  "elmä": 2657,
  "keksi": 2658,
  "2020": 2659,
  "Espan": 2660,
  "nimit": 2661,
  "juh": 2662,
  "San": 2663,
  "alueella": 2664,
  "presidentin": 2665,
  "jaa": 2666,
  "ona": 2667,
  "ov": 2668,
  "jota": 2669,
  "qu": 2670,
  "2005": 2671,
  "deksi": 2672,
  "piispa": 2673,
  "car": 2674,
  "ympär": 2675,
  "Yhd": 2676,
  "pui": 2677,
  "ele": 2678,
  "iseksi": 2679,
  "Her": 2680,
  "inin": 2681,
  "Ab": 2682,
  "gn": 2683,
  "vuodesta": 2684,
  "tyivät": 2685,
  "nut": 2686,
  "pahtumia": 2687,
  "osallis": 2688,
  "attori": 2689,
  "ehdo": 2690,
  "ela": 2691,
  "kokon": 2692,
  "kusta": 2693,
  "käytetään": 2694,
  "gh": 2695,
  "mansa": 2696,
  "Vuoden": 2697,
  "tian": 2698,
  "ust": 2699,
  "kielen": 2700,
  "vis": 2701,
  "jana": 2702,
  "2004": 2703,
  "fysiikan": 2704,
  "Isra": 2705,
  "öl": 2706,
  "suun": 2707,
  "hallitus": 2708,
  "vu": 2709,
  "zz": 2710,
  "lähes": 2711,
  "Han": 2712,
  "metriä": 2713,
  "puoli": 2714,
  "yllä": 2715,
  "esit": 2716,
  "ile": 2717,
  "yhteen": 2718,
  "perusta": 2719,
  "2013": 2720,
  "Hit": 2721,
  "televisi": 2722,
  "2014": 2723,
  "Kau": 2724,
  "itävalta": 2725,
  "säh": 2726,
  "1940": 2727,
  "Jose": 2728,
  "Yhdisty": 2729,
  "yhti": 2730,
  "ilmoitti": 2731,
  "Di": 2732,
  "olevan": 2733,
  "ttiin": 2734,
  "tyne": 2735,
  "edusta": 2736,
  "Tamper": 2737,
  "iksi": 2738,
  "uis": 2739,
  "atta": 2740,
  "gy": 2741,
  "177": 2742,
  "vielä": 2743,
  "useita": 2744,
  "str": 2745,
  "Presiden": 2746,
  "laisten": 2747,
  "arvi": 2748,
  "kauden": 2749,
  "mmun": 2750,
  "kalenter": 2751,
  "lääketieteen": 2752,
  "1991": 2753,
  "osoit": 2754,
  "luonnon": 2755,
  "tyä": 2756,
  "laisen": 2757,
  "lämp": 2758,
  "pur": 2759,
  "alueen": 2760,
  "ustus": 2761,
  "politi": 2762,
  "Yle": 2763,
  "Itali": 2764,
  "diplo": 2765,
  "alaisia": 2766,
  "sään": 2767,
  "Saksa": 2768,
  "miljoonaa": 2769,
  "Suomi": 2770,
  "joukot": 2771,
  "kolme": 2772,
  "seuraa": 2773,
  "jia": 2774,
  "espan": 2775,
  "Ke": 2776,
  "osti": 2777,
  "huon": 2778,
  "1950": 2779,
  "amma": 2780,
  "mio": 2781,
  "Mu": 2782,
  "wa": 2783,
  "sotilas": 2784,
  "parlamen": 2785,
  "Kaar": 2786,
  "tähti": 2787,
  "lään": 2788,
  "ron": 2789,
  "ena": 2790,
  "tie": 2791,
  "Afri": 2792,
  "yliopisto": 2793,
  "jet": 2794,
  "musiikki": 2795,
  "artik": 2796,
  "miseksi": 2797,
  "japani": 2798,
  "ulle": 2799,
  "hallinn": 2800,
  "tämä": 2801,
  "lähet": 2802,
  "George": 2803,
  "pyr": 2804,
  "radio": 2805,
  "pitkä": 2806,
  "1973": 2807,
  "1944": 2808,
  "paljon": 2809,
  "kommun": 2810,
  "lon": 2811,
  "sosia": 2812,
  "Jos": 2813,
  "be": 2814,
  "1994": 2815,
  "sarja": 2816,
  "sosi": 2817,
  "nousi": 2818,
  "ineen": 2819,
  "saman": 2820,
  "ustr": 2821,
  "vesi": 2822,
  "teke": 2823,
  "No": 2824,
  "perustaja": 2825,
  "oppi": 2826,
  "ksessa": 2827,
  "jääkiekkoilija": 2828,
  "hei": 2829,
  "maatikko": 2830,
  "ru": 2831,
  "Syn": 2832,
  "puu": 2833,
  "Mc": 2834,
  "1930": 2835,
  "Un": 2836,
  "ley": 2837,
  "mentaja": 2838,
  "alussa": 2839,
  "vallat": 2840,
  "perä": 2841,
  "Tho": 2842,
  "Ste": 2843,
  "tetaan": 2844,
  "järjestelmä": 2845,
  "utus": 2846,
  "lap": 2847,
  "Do": 2848,
  "kää": 2849,
  "Chr": 2850,
  "2021": 2851,
  "1999": 2852,
  "tod": 2853,
  "Rich": 2854,
  "ksesta": 2855,
  "pitä": 2856,
  "40": 2857,
  "1979": 2858,
  "alka": 2859,
  "opper": 2860,
  "1995": 2861,
  "Bar": 2862,
  "ci": 2863,
  "1920": 2864,
  "vaali": 2865,
  "kulttuuri": 2866,
  "ukseen": 2867,
  "Mer": 2868,
  "ban": 2869,
  "matemaatikko": 2870,
  "tuho": 2871,
  "Su": 2872,
  "mari": 2873,
  "kaik": 2874,
  "dy": 2875,
  "Kuolle": 2876,
  "eikä": 2877,
  "Hal": 2878,
  "yhä": 2879,
  "johd": 2880,
  "koma": 2881,
  "ois": 2882,
  "empi": 2883,
  "lau": 2884,
  "kirjoittaja": 2885,
  "euvos": 2886,
  "meren": 2887,
  "ksua": 2888,
  "päivää": 2889,
  "herra": 2890,
  "kuole": 2891,
  "kausi": 2892,
  "2001": 2893,
  "dän": 2894,
  "1969": 2895,
  "Gusta": 2896,
  "dessa": 2897,
  "Var": 2898,
  "YK": 2899,
  "Jean": 2900,
  "2002": 2901,
  "sano": 2902,
  "diploma": 2903,
  "eaa": 2904,
  "nous": 2905,
  "juo": 2906,
  "sähkö": 2907,
  "kirjallisuus": 2908,
  "työn": 2909,
  "kohta": 2910,
  "tinen": 2911,
  "New": 2912,
  "una": 2913,
  "toisen": 2914,
  "bert": 2915,
  "ald": 2916,
  "kaisi": 2917,
  "aloit": 2918,
  "itävaltalainen": 2919,
  "juuta": 2920,
  "joissa": 2921,
  "Län": 2922,
  "Yhdysvallo": 2923,
  "konen": 2924,
  "syntyinen": 2925,
  "suurim": 2926,
  "af": 2927,
  "kirkon": 2928,
  "Ah": 2929,
  "sol": 2930,
  "Tapahtumia": 2931,
  "60": 2932,
  "rah": 2933,
  "Ir": 2934,
  "1989": 2935,
  "otto": 2936,
  "1939": 2937,
  "1972": 2938,
  "vallankumo": 2939,
  "pain": 2940,
  "dassa": 2941,
  "keskeiset": 2942,
  "Esi": 2943,
  "sotila": 2944,
  "tulo": 2945,
  "onnan": 2946,
  "opettaja": 2947,
  "matto": 2948,
  "ette": 2949,
  "usten": 2950,
  "toinen": 2951,
  "tanskalainen": 2952,
  "laus": 2953,
  "kansainvälis": 2954,
  "ellisen": 2955,
  "uudesta": 2956,
  "katso": 2957,
  "etto": 2958,
  "ski": 2959,
  "1982": 2960,
  "Tämä": 2961,
  "haa": 2962,
  "väki": 2963,
  "bur": 2964,
  "Kuu": 2965,
  "1975": 2966,
  "Paul": 2967,
  "Fred": 2968,
  "vapaa": 2969,
  "uttaa": 2970,
  "isäksi": 2971,
  "lähtien": 2972,
  "virallis": 2973,
  "kemian": 2974,
  "otti": 2975,
  "Turun": 2976,
  "1981": 2977,
  "ytti": 2978,
  "kappal": 2979,
  "tyneitä": 2980,
  "hu": 2981,
  "2022": 2982,
  "uksena": 2983,
  "artikkel": 2984,
  "ito": 2985,
  "poi": 2986,
  "muuta": 2987,
  "Nyky": 2988,
  "kai": 2989,
  "oopper": 2990,
  "kerta": 2991,
  "suorit": 2992,
  "Mari": 2993,
  "Lisäksi": 2994,
  "1946": 2995,
  "ihen": 2996,
  "gu": 2997,
  "edelleen": 2998,
  "Kos": 2999,
  "pappi": 3000,
  "siirto": 3001,
  "teo": 3002,
  "1941": 3003,
  "ly": 3004,
  "III": 3005,
  "1948": 3006,
  "opäi": 3007,
  "uudessa": 3008,
  "ener": 3009,
  "osi": 3010,
  "istin": 3011,
  "tto": 3012,
  "unn": 3013,
  "Neuvostoliitto": 3014,
  "länsi": 3015,
  "usko": 3016,
  "uuteen": 3017,
  "vaati": 3018,
  "välinen": 3019,
  "virka": 3020,
  "my": 3021,
  "lyh": 3022,
  "tš": 3023,
  "avulla": 3024,
  "Me": 3025,
  "sena": 3026,
  "ise": 3027,
  "muuto": 3028,
  "raa": 3029,
  "Man": 3030,
  "1974": 3031,
  "Kol": 3032,
  "Tans": 3033,
  "kaupung": 3034,
  "Kirjallis": 3035,
  "suomenruotsalainen": 3036,
  "tari": 3037,
  "tely": 3038,
  "Kuolleita": 3039,
  "Fer": 3040,
  "psy": 3041,
  "1977": 3042,
  "tuom": 3043,
  "Syntyneitä": 3044,
  "misto": 3045,
  "1964": 3046,
  "Ensimmäinen": 3047,
  "med": 3048,
  "Yhdysvallat": 3049,
  "aiko": 3050,
  "Kas": 3051,
  "helm": 3052,
  "atin": 3053,
  "tynyt": 3054,
  "erot": 3055,
  "ad": 3056,
  "ham": 3057,
  "1968": 3058,
  "aikaan": 3059,
  "pom": 3060,
  "kaus": 3061,
  "jalla": 3062,
  "Jac": 3063,
  "1998": 3064,
  "artikkelit": 3065,
  "1997": 3066,
  "neuvosto": 3067,
  "tuivat": 3068,
  "maksi": 3069,
  "sis": 3070,
  "El": 3071,
  "1917": 3072,
  "kielinen": 3073,
  "reg": 3074,
  "Ira": 3075,
  "1986": 3076,
  "voitti": 3077,
  "käytö": 3078,
  "1976": 3079,
  "taistelu": 3080,
  "Oscar": 3081,
  "valtiopäi": 3082,
  "ava": 3083,
  "vanhem": 3084,
  "Richard": 3085,
  "orto": 3086,
  "japanilainen": 3087,
  "Karl": 3088,
  "1988": 3089,
  "kohd": 3090,
  "ji": 3091,
  "1967": 3092,
  "ttua": 3093,
  "1993": 3094,
  "lämpö": 3095,
  "1800": 3096,
  "käyttää": 3097,
  "Toinen": 3098,
  "Mos": 3099,
  "saat": 3100,
  "sil": 3101,
  "art": 3102,
  "imen": 3103,
  "vaaleissa": 3104,
  "päätö": 3105,
  "tehd": 3106,
  "ustrali": 3107,
  "espanjalainen": 3108,
  "ulonnan": 3109,
  "Seulonnan": 3110,
  "urhe": 3111,
  "mistö": 3112,
  "Yhdysvalloissa": 3113,
  "kuuluu": 3114,
  "puolesta": 3115,
  "hoi": 3116,
  "puheenjohtaja": 3117,
  "1978": 3118,
  "ppo": 3119,
  "by": 3120,
  "koul": 3121,
  "gian": 3122,
  "St": 3123,
  "ander": 3124,
  "kaud": 3125,
  "ensi": 3126,
  "päälli": 3127,
  "1947": 3128,
  "vuoteen": 3129,
  "net": 3130,
  "kista": 3131,
  "taistel": 3132,
  "tapahtu": 3133,
  "kien": 3134,
  "rii": 3135,
  "kkin": 3136,
  "1987": 3137,
  "vaikka": 3138,
  "1971": 3139,
  "Pal": 3140,
  "1996": 3141,
  "1992": 3142,
  "sul": 3143,
  "kuljet": 3144,
  "Wal": 3145,
  "siihen": 3146,
  "Kana": 3147,
  "rauta": 3148,
  "Je": 3149,
  "Länsi": 3150,
  "aset": 3151,
  "kertaa": 3152,
  "Koi": 3153,
  "kittu": 3154,
  "keli": 3155,
  "oitsija": 3156,
  "1936": 3157,
  "eltä": 3158,
  "pen": 3159,
  "laulun": 3160,
  "asema": 3161,
  "istaan": 3162,
  "vid": 3163,
  "pelaaja": 3164,
  "tiede": 3165,
  "merkittä": 3166,
  "listi": 3167,
  "pyrki": 3168,
  "Presidentti": 3169,
  "1966": 3170,
  "Po": 3171,
  "yyden": 3172,
  "taas": 3173,
  "itto": 3174,
  "Ara": 3175,
  "doks": 3176,
  "yvä": 3177,
  "gyp": 3178,
  "tämän": 3179,
  "ittiin": 3180,
  "opis": 3181,
  "voin": 3182,
  "koti": 3183,
  "vii": 3184,
  "1985": 3185,
  "1963": 3186,
  "Ter": 3187,
  "teollisuus": 3188,
  "viin": 3189,
  "muoto": 3190,
  "sijaitsee": 3191,
  "ät": 3192,
  "wi": 3193,
  "maahan": 3194,
  "kunin": 3195,
  "omis": 3196,
  "Thomas": 3197,
  "mita": 3198,
  "olleet": 3199,
  "piti": 3200,
  "ner": 3201,
  "Par": 3202,
  "tasavalta": 3203,
  "kär": 3204,
  "kymmenen": 3205,
  "eten": 3206,
  "tug": 3207,
  "jar": 3208,
  "keskusta": 3209,
  "läis": 3210,
  "1984": 3211,
  "hava": 3212,
  "järjest": 3213,
  "osan": 3214,
  "Ca": 3215,
  "istys": 3216,
  "Tš": 3217,
  "radi": 3218,
  "veistä": 3219,
  "ologia": 3220,
  "kuver": 3221,
  "tettu": 3222,
  "176": 3223,
  "1925": 3224,
  "SD": 3225,
  "neuvos": 3226,
  "valo": 3227,
  "eloku": 3228,
  "1956": 3229,
  "sijoit": 3230,
  "1938": 3231,
  "käsikirjoittaja": 3232,
  "Kre": 3233,
  "jopa": 3234,
  "Sam": 3235,
  "uran": 3236,
  "Ben": 3237,
  "lehti": 3238,
  "1983": 3239,
  "palkinto": 3240,
  "kate": 3241,
  "1928": 3242,
  "metsä": 3243,
  "Fri": 3244,
  "aine": 3245,
  "1965": 3246,
  "tiksi": 3247,
  "Hol": 3248,
  "enemmän": 3249,
  "Aug": 3250,
  "armeijan": 3251,
  "1942": 3252,
  "erityisesti": 3253,
  "ily": 3254,
  "merkittävä": 3255,
  "maassa": 3256,
  "toista": 3257,
  "mäki": 3258,
  "1922": 3259,
  "menet": 3260,
  "ast": 3261,
  "Be": 3262,
  "Joseph": 3263,
  "oon": 3264,
  "Hi": 3265,
  "aino": 3266,
  "1962": 3267,
  "Alan": 3268,
  "taminen": 3269,
  "Niko": 3270,
  "saksalais": 3271,
  "Franc": 3272,
  "muodosta": 3273,
  "eläin": 3274,
  "sata": 3275,
  "Japanin": 3276,
  "As": 3277,
  "kerran": 3278,
  "1929": 3279,
  "Pää": 3280,
  "suhte": 3281,
  "Or": 3282,
  "Matti": 3283,
  "raan": 3284,
  "malli": 3285,
  "1932": 3286,
  "tekni": 3287,
  "missä": 3288,
  "Vil": 3289,
  "1943": 3290,
  "vana": 3291,
  "Aleks": 3292,
  "masen": 3293,
  "veitsi": 3294,
  "sut": 3295,
  "siv": 3296,
  "ward": 3297,
  "jolla": 3298,
  "1958": 3299,
  "lleen": 3300,
  "liikemies": 3301,
  "1949": 3302,
  "til": 3303,
  "kuitenkaan": 3304,
  "kuvern": 3305,
  "yhten": 3306,
  "1937": 3307,
  "josta": 3308,
  "muiden": 3309,
  "1926": 3310,
  "Ver": 3311,
  "keskit": 3312,
  "one": 3313,
  "ytä": 3314,
  "valtakunnan": 3315,
  "tuki": 3316,
  "äyt": 3317,
  "ilun": 3318,
  "Ul": 3319,
  "keksijä": 3320,
  "fysiikanpalkinnon": 3321,
  "hallinto": 3322,
  "turvallis": 3323,
  "tusta": 3324,
  "koke": 3325,
  "tasavallan": 3326,
  "Micha": 3327,
  "ksista": 3328,
  "osin": 3329,
  "1924": 3330,
  "1957": 3331,
  "Pie": 3332,
  "rad": 3333,
  "puna": 3334,
  "omin": 3335,
  "ksin": 3336,
  "tavoit": 3337,
  "sopimuksen": 3338,
  "1961": 3339,
  "én": 3340,
  "paavi": 3341,
  "tapah": 3342,
  "Hitler": 3343,
  "ruo": 3344,
  "heim": 3345,
  "Louis": 3346,
  "plan": 3347,
  "kauppa": 3348,
  "päivän": 3349,
  "hat": 3350,
  "liiken": 3351,
  "Jan": 3352,
  "näytelmä": 3353,
  "muita": 3354,
  "Gu": 3355,
  "oihin": 3356,
  "diplomaatti": 3357,
  "ittä": 3358,
  "old": 3359,
  "murha": 3360,
  "pelli": 3361,
  "loppu": 3362,
  "kkaa": 3363,
  "verkko": 3364,
  "maissa": 3365,
  "yden": 3366,
  "inta": 3367,
  "atter": 3368,
  "mmin": 3369,
  "alist": 3370,
  "essaan": 3371,
  "rata": 3372,
  "palkittu": 3373,
  "uudelleen": 3374,
  "krain": 3375,
  "vassa": 3376,
  "Kansa": 3377,
  "olog": 3378,
  "syyt": 3379,
  "Sal": 3380,
  "its": 3381,
  "main": 3382,
  "Kaupun": 3383,
  "Con": 3384,
  "za": 3385,
  "1931": 3386,
  "korkea": 3387,
  "amer": 3388,
  "yhtiö": 3389,
  "Hänen": 3390,
  "yyd": 3391,
  "Esimerkiksi": 3392,
  "Tor": 3393,
  "ortodoks": 3394,
  "Mor": 3395,
  "nen": 3396,
  "ulo": 3397,
  "Lon": 3398,
  "eto": 3399,
  "pianisti": 3400,
  "sissa": 3401,
  "päättyi": 3402,
  "alisti": 3403,
  "asan": 3404,
  "sio": 3405,
  "uno": 3406,
  "visti": 3407,
  "1919": 3408,
  "koos": 3409,
  "1934": 3410,
  "1953": 3411,
  "uskonn": 3412,
  "Mann": 3413,
  "käytä": 3414,
  "isena": 3415,
  "ght": 3416,
  "kapelli": 3417,
  "äinen": 3418,
  "suure": 3419,
  "puhe": 3420,
  "ott": 3421,
  "Johannes": 3422,
  "ykset": 3423,
  "sisällis": 3424,
  "ölj": 3425,
  "yhtä": 3426,
  "aikais": 3427,
  "kuvanveistä": 3428,
  "kolla": 3429,
  "esin": 3430,
  "rann": 3431,
  "sodassa": 3432,
  "alaista": 3433,
  "väen": 3434,
  "1952": 3435,
  "kkaan": 3436,
  "jään": 3437,
  "kinen": 3438,
  "myötä": 3439,
  "syö": 3440,
  "yssä": 3441,
  "historian": 3442,
  "Ga": 3443,
  "Yhdysval": 3444,
  "liiton": 3445,
  "1959": 3446,
  "kapellimestari": 3447,
  "harjoit": 3448,
  "avaruus": 3449,
  "ksiin": 3450,
  "rian": 3451,
  "Elo": 3452,
  "gentiin": 3453,
  "perustus": 3454,
  "80": 3455,
  "ollinen": 3456,
  "öm": 3457,
  "1933": 3458,
  "valtiopäivä": 3459,
  "perinte": 3460,
  "Hä": 3461,
  "voivat": 3462,
  "saav": 3463,
  "1955": 3464,
  "rasi": 3465,
  "175": 3466,
  "stein": 3467,
  "historioitsija": 3468,
  "isla": 3469,
  "katolinen": 3470,
  "huomatta": 3471,
  "posi": 3472,
  "Sta": 3473,
  "upse": 3474,
  "suunnitel": 3475,
  "asian": 3476,
  "nissa": 3477,
  "salkka": 3478,
  "määr": 3479,
  "viera": 3480,
  "räjä": 3481,
  "komaalainen": 3482,
  "Roman": 3483,
  "David": 3484,
  "inaan": 3485,
  "kee": 3486,
  "dt": 3487,
  "jaan": 3488,
  "Inter": 3489,
  "kre": 3490,
  "Britannian": 3491,
  "yksiä": 3492,
  "fa": 3493,
  "oll": 3494,
  "kala": 3495,
  "näky": 3496,
  "osto": 3497,
  "kristi": 3498,
  "ongel": 3499,
  "valmentaja": 3500,
  "neuv": 3501,
  "päätti": 3502,
  "ettua": 3503,
  "surmansa": 3504,
  "kutsutaan": 3505,
  "laista": 3506,
  "nimi": 3507,
  "halu": 3508,
  "pois": 3509,
  "kahden": 3510,
  "Fa": 3511,
  "alankomaalainen": 3512,
  "Mat": 3513,
  "tulee": 3514,
  "1927": 3515,
  "Anton": 3516,
  "tävän": 3517,
  "suomalais": 3518,
  "kilometriä": 3519,
  "nais": 3520,
  "arvos": 3521,
  "htori": 3522,
  "jäi": 3523,
  "vista": 3524,
  "misestä": 3525,
  "kuntien": 3526,
  "terve": 3527,
  "ympäristö": 3528,
  "Ser": 3529,
  "Am": 3530,
  "eissa": 3531,
  "Tar": 3532,
  "lia": 3533,
  "kui": 3534,
  "ussi": 3535,
  "prin": 3536,
  "aiheutta": 3537,
  "Pari": 3538,
  "taristi": 3539,
  "laajen": 3540,
  "jalle": 3541,
  "ittu": 3542,
  "insin": 3543,
  "ror": 3544,
  "kemianpalkinnon": 3545,
  "utettiin": 3546,
  "syntyi": 3547,
  "dolla": 3548,
  "mana": 3549,
  "ikke": 3550,
  "reak": 3551,
  "laan": 3552,
  "lauluntekijä": 3553,
  "taloud": 3554,
  "saari": 3555,
  "kuntaan": 3556,
  "Englannin": 3557,
  "teella": 3558,
  "menn": 3559,
  "logi": 3560,
  "telun": 3561,
  "ensimmäisenä": 3562,
  "vaksi": 3563,
  "Michael": 3564,
  "Gar": 3565,
  "puolustus": 3566,
  "pääsi": 3567,
  "Vuodesta": 3568,
  "Keski": 3569,
  "ammatti": 3570,
  "raja": 3571,
  "ustaa": 3572,
  "1923": 3573,
  "meen": 3574,
  "Euroopassa": 3575,
  "vastaa": 3576,
  "olin": 3577,
  "1954": 3578,
  "neuvostoliit": 3579,
  "Alex": 3580,
  "ppä": 3581,
  "ns": 3582,
  "Mosko": 3583,
  "neuvostoliitto": 3584,
  "käynn": 3585,
  "aatio": 3586,
  "sveitsi": 3587,
  "kuvernööri": 3588,
  "elämän": 3589,
  "johti": 3590,
  "oriaan": 3591,
  "juoksi": 3592,
  "ain": 3593,
  "land": 3594,
  "lie": 3595,
  "miljar": 3596,
  "kehitys": 3597,
  "roman": 3598,
  "masenn": 3599,
  "yhteyd": 3600,
  "aal": 3601,
  "fe": 3602,
  "välit": 3603,
  "yhden": 3604,
  "marsalkka": 3605,
  "Helsingissä": 3606,
  "kasvi": 3607,
  "vaalit": 3608,
  "Iran": 3609,
  "Alf": 3610,
  "muka": 3611,
  "pohjo": 3612,
  "saira": 3613,
  "eihin": 3614,
  "teja": 3615,
  "valko": 3616,
  "yritys": 3617,
  "ttain": 3618,
  "asia": 3619,
  "kuvanveistäjä": 3620,
  "1921": 3621,
  "jazz": 3622,
  "nnen": 3623,
  "Ve": 3624,
  "1912": 3625,
  "mikuu": 3626,
  "Histo": 3627,
  "musta": 3628,
  "asiassa": 3629,
  "kestä": 3630,
  "Henry": 3631,
  "elokuvan": 3632,
  "Kaarle": 3633,
  "Lud": 3634,
  "liikkeen": 3635,
  "vissa": 3636,
  "käytössä": 3637,
  "atteri": 3638,
  "1951": 3639,
  "avattiin": 3640,
  "Suomeen": 3641,
  "Peter": 3642,
  "the": 3643,
  "Kansain": 3644,
  "bu": 3645,
  "nis": 3646,
  "hiih": 3647,
  "kro": 3648,
  "vaihe": 3649,
  "uteen": 3650,
  "johon": 3651,
  "Jaa": 3652,
  "kitaristi": 3653,
  "irlantilainen": 3654,
  "ylä": 3655,
  "vier": 3656,
  "vähen": 3657,
  "Amer": 3658,
  "Helsin": 3659,
  "Espanjan": 3660,
  "ettei": 3661,
  "1935": 3662,
  "metrin": 3663,
  "moot": 3664,
  "presidentiksi": 3665,
  "insinööri": 3666,
  "televisio": 3667,
  "1914": 3668,
  "pyö": 3669,
  "arin": 3670,
  "yhteydessä": 3671,
  "Eri": 3672,
  "antoi": 3673,
  "sveitsiläinen": 3674,
  "pitää": 3675,
  "Tampereen": 3676,
  "näytelmäkirjailija": 3677,
  "eks": 3678,
  "uksesta": 3679,
  "Tämän": 3680,
  "suunta": 3681,
  "istian": 3682,
  "skot": 3683,
  "rolainen": 3684,
  "rakennus": 3685,
  "pai": 3686,
  "kur": 3687,
  "näkö": 3688,
  "ikkaa": 3689,
  "muuttu": 3690,
  "ket": 3691,
  "alkaen": 3692,
  "valtioiden": 3693,
  "teitä": 3694,
  "ara": 3695,
  "kieltä": 3696,
  "muse": 3697,
  "isessä": 3698,
  "samalla": 3699,
  "ismi": 3700,
  "mel": 3701,
  "hiihtäjä": 3702,
  "päällikkö": 3703,
  "unkari": 3704,
  "isessa": 3705,
  "Tu": 3706,
  "kaappa": 3707,
  "enää": 3708,
  "tamalla": 3709,
  "nu": 3710,
  "puhu": 3711,
  "piiri": 3712,
  "sson": 3713,
  "maailmansota": 3714,
  "paikallis": 3715,
  "alkoivat": 3716,
  "olemassa": 3717,
  "joen": 3718,
  "liikenne": 3719,
  "tajat": 3720,
  "kerto": 3721,
  "merkki": 3722,
  "Suuri": 3723,
  "onnetto": 3724,
  "ilmas": 3725,
  "kokonais": 3726,
  "Wilhelm": 3727,
  "Bro": 3728,
  "mennessä": 3729,
  "maailmansodan": 3730,
  "maat": 3731,
  "bin": 3732,
  "rajoit": 3733,
  "Rooman": 3734,
  "ohjan": 3735,
  "isuus": 3736,
  "pinta": 3737,
  "immat": 3738,
  "sto": 3739,
  "ever": 3740,
  "toiminta": 3741,
  "tietokone": 3742,
  "teks": 3743,
  "kossa": 3744,
  "saivat": 3745,
  "puisto": 3746,
  "hun": 3747,
  "mitta": 3748,
  "1907": 3749,
  "isissa": 3750,
  "kuri": 3751,
  "innä": 3752,
  "Len": 3753,
  "ympäri": 3754,
  "kahd": 3755,
  "oja": 3756,
  "1913": 3757,
  "Wa": 3758,
  "kunnallis": 3759,
  "takia": 3760,
  "poika": 3761,
  "174": 3762,
  "Sha": 3763,
  "ore": 3764,
  "psyko": 3765,
  "Pro": 3766,
  "kaudella": 3767,
  "Ander": 3768,
  "Jär": 3769,
  "Israelin": 3770,
  "yksity": 3771,
  "markkin": 3772,
  "olleen": 3773,
  "Mal": 3774,
  "otettiin": 3775,
  "viisi": 3776,
  "skotlantilainen": 3777,
  "maali": 3778,
  "hajo": 3779,
  "ullis": 3780,
  "Georg": 3781,
  "Win": 3782,
  "1908": 3783,
  "julkaisi": 3784,
  "tyksen": 3785,
  "kannat": 3786,
  "con": 3787,
  "telee": 3788,
  "tekn": 3789,
  "valtaa": 3790,
  "myön": 3791,
  "Seura": 3792,
  "lue": 3793,
  "etun": 3794,
  "1916": 3795,
  "hteeri": 3796,
  "matkailija": 3797,
  "toimii": 3798,
  "Bel": 3799,
  "SDP": 3800,
  "regoriaan": 3801,
  "valtu": 3802,
  "teri": 3803,
  "kunnassa": 3804,
  "70": 3805,
  "ajat": 3806,
  "sitten": 3807,
  "sala": 3808,
  "Valko": 3809,
  "neuvostoliittolainen": 3810,
  "pako": 3811,
  "Go": 3812,
  "joten": 3813,
  "kaasu": 3814,
  "allekirjoit": 3815,
  "Jon": 3816,
  "Gi": 3817,
  "keä": 3818,
  "tuotan": 3819,
  "voimien": 3820,
  "saapui": 3821,
  "Yor": 3822,
  "2023": 3823,
  "bel": 3824,
  "lian": 3825,
  "ruu": 3826,
  "kollis": 3827,
  "tehtä": 3828,
  "sijaan": 3829,
  "laivas": 3830,
  "mikuussa": 3831,
  "aiemmin": 3832,
  "ekkonen": 3833,
  "lähel": 3834,
  "pil": 3835,
  "lähetti": 3836,
  "juhla": 3837,
  "Edus": 3838,
  "Ein": 3839,
  "koneen": 3840,
  "ksella": 3841,
  "kohti": 3842,
  "vuoro": 3843,
  "vuoti": 3844,
  "syy": 3845,
  "ortodoksinen": 3846,
  "1911": 3847,
  "ottu": 3848,
  "tamaan": 3849,
  "100": 3850,
  "kruun": 3851,
  "atar": 3852,
  "ihmisen": 3853,
  "Intian": 3854,
  "500": 3855,
  "nimellä": 3856,
  "sien": 3857,
  "Henrik": 3858,
  "Hall": 3859,
  "usto": 3860,
  "ville": 3861,
  "ota": 3862,
  "upseeri": 3863,
  "tutkimu": 3864,
  "Maria": 3865,
  "Kekkonen": 3866,
  "oksen": 3867,
  "ya": 3868,
  "mun": 3869,
  "armeija": 3870,
  "Manner": 3871,
  "tava": 3872,
  "1901": 3873,
  "teatter": 3874,
  "Ros": 3875,
  "kalenterin": 3876,
  "uudet": 3877,
  "viljel": 3878,
  "julkaistiin": 3879,
  "Pekka": 3880,
  "Ruotsi": 3881,
  "Kale": 3882,
  "1910": 3883,
  "Ven": 3884,
  "Egyp": 3885,
  "ilmoit": 3886,
  "1906": 3887,
  "mikko": 3888,
  "ismin": 3889,
  "hyökkä": 3890,
  "kiinn": 3891,
  "udet": 3892,
  "Sim": 3893,
  "gregoriaan": 3894,
  "esiinty": 3895,
  "Afrikan": 3896,
  "koulun": 3897,
  "Puolan": 3898,
  "tas": 3899,
  "Martin": 3900,
  "asukka": 3901,
  "euroop": 3902,
  "pidettiin": 3903,
  "oper": 3904,
  "vaikutus": 3905,
  "ektr": 3906,
  "järjestelmän": 3907,
  "teeseen": 3908,
  "tonin": 3909,
  "du": 3910,
  "ellisesti": 3911,
  "talon": 3912,
  "syr": 3913,
  "Ger": 3914,
  "karkaus": 3915,
  "siirtyi": 3916,
  "joilla": 3917,
  "ominais": 3918,
  "sii": 3919,
  "ilijä": 3920,
  "juoksija": 3921,
  "tavat": 3922,
  "paan": 3923,
  "maton": 3924,
  "1904": 3925,
  "Francis": 3926,
  "ens": 3927,
  "istettiin": 3928,
  "aikaa": 3929,
  "Fredrik": 3930,
  "euro": 3931,
  "gar": 3932,
  "puoliso": 3933,
  "ratkais": 3934,
  "perusteella": 3935,
  "joutui": 3936,
  "Bor": 3937,
  "tuottaja": 3938,
  "uhtin": 3939,
  "vase": 3940,
  "Pla": 3941,
  "Mad": 3942,
  "peri": 3943,
  "pop": 3944,
  "osassa": 3945,
  "Mil": 3946,
  "romaan": 3947,
  "hui": 3948,
  "tansa": 3949,
  "tähtitieteilijä": 3950,
  "yksin": 3951,
  "peräis": 3952,
  "kunnat": 3953,
  "viimeinen": 3954,
  "lopulla": 3955,
  "Yr": 3956,
  "valtiopäivämies": 3957,
  "95": 3958,
  "ston": 3959,
  "kkä": 3960,
  "vansa": 3961,
  "Otto": 3962,
  "kuuluvat": 3963,
  "amen": 3964,
  "päivät": 3965,
  "yyttä": 3966,
  "oa": 3967,
  "niitä": 3968,
  "EU": 3969,
  "ologian": 3970,
  "musiikin": 3971,
  "elektr": 3972,
  "hyväksyi": 3973,
  "Korean": 3974,
  "ksissa": 3975,
  "pallon": 3976,
  "julisti": 3977,
  "1905": 3978,
  "iken": 3979,
  "lei": 3980,
  "sion": 3981,
  "TV": 3982,
  "etna": 3983,
  "put": 3984,
  "kissa": 3985,
  "säil": 3986,
  "puolelle": 3987,
  "Sc": 3988,
  "Ern": 3989,
  "Oy": 3990,
  "alia": 3991,
  "eversti": 3992,
  "varten": 3993,
  "osuus": 3994,
  "väestöstä": 3995,
  "Gustaf": 3996,
  "tilalle": 3997,
  "etenkin": 3998,
  "isesta": 3999
}