e n
i n
t a
i s
a n
a l
j a
t i
e l
k u
o n
s i
i t
s a
l a
e r
k a
e t
in en
u o
e s
l i
k o
m a
v a
u s
t o
1 9
k i
t ä
t u
ku u
al a
r i
j o
kuu ta
t e
r a
i l
l e
ä ä
v al
u u
m i
k s
a r
j ä
ala inen
a s
k e
o s
k si
y s
d en
u n
t y
u t
o l
uo m
l is
l ä
v ä
v i
h d
1 8
i k
2 0
l o
y t
u l
i m
o li
t el
va t
k ä
s ä
p a
e en
o r
e i
m is
o i
m ä
s uom
p i
la inen
s e
u r
val ta
k an
a t
ti in
h e
n n
is t
s o
suom alainen
r e
m an
is ta
l u
k ko
n a
ta ja
hd ys
ki r
k in
v uo
o p
y ö
u h
m u
i a
is sa
n ä
l an
o h
hdys valta
er i
ää n
r o
s ta
m in
t ti
li ja
n e
s sa
p er
ä n
is en
k es
e d
p al
s y
v an
h a
y hdysvalta
r an
ku n
y h
t en
yhdysvalta lainen
p ää
ks en
1 7
o t
es ta
a m
0 0
es sa
ma a
a a
o it
i r
ka u
is i
i h
i lija
d e
s en
ta a
k on
u on
m uu
t ö
in g
tel i
p uo
m yö
et tiin
ma an
m en
p ä
i ta
m er
ka an
n i
a i
mi kuuta
20 0
ma t
r it
s uu
S uom
el i
kir ja
al l
in a
nä yt
uon na
ta an
k en
as sa
li it
us ta
k y
al i
ti et
uo t
c h
al lis
ta i
ä kuuta
e si
ut ta
is et
19 9
j an
m mä
it ä
jo h
j en
19 7
vä t
el o
1 6
el la
p oli
is to
ul u
teli jä
s an
19 8
19 4
myö s
is tä
al la
u v
a an
is ti
t er
i den
kä yt
d i
näyt telijä
v oi
es ti
19 6
p u
et tä
ma r
v el
p an
u us
m o
kirja ilija
k ka
p un
ta r
n o
te en
y n
ta m
u ko
1 5
al is
h el
o vat
k it
al u
S a
t in
ra s
p o
e h
19 3
l lä
il la
ti kko
el le
tä jä
v uonna
M a
19 5
s in
v o
ku nn
si den
re siden
jä r
r in
si mmä
e m
ta n
h o
s k
v er
o b
t on
tu i
el in
ala is
u d
ö n
vuo den
per us
en ä
g i
o le
e ksi
t ta
uv os
jo ka
val ti
il le
ik an
19 2
k er
h än
us sa
Suom en
h all
ist en
1 0
sa a
p residen
l le
ki el
jo ulu
lu v
1 4
in n
i tikko
ma alis
kau pun
K a
lä inen
va sta
pä i
es sä
to im
jo it
u ksen
sa ks
lä h
1 2
el ä
j es
et tu
min ist
ty i
ku va
tam mikuuta
uh ti
en simmä
sy ys
a ja
u la
m ää
poli itikko
u ks
t tu
lo ka
va r
y y
to uko
N e
lan ti
jär jes
la s
v e
1 3
ku l
maalis kuuta
h y
tu t
ka s
joulu kuuta
h uhti
A n
he in
l en
h i
mar ras
u ra
touko kuuta
n on
il man
al le
se kä
jä l
o sa
sk alainen
ka a
ke en
loka kuuta
l in
m e
marras kuuta
en g
19 0
ol o
y m
kes äkuuta
hel mikuuta
syys kuuta
k ki
1 1
r os
J oh
is ä
18 9
huhti kuuta
s u
minist eri
m utta
puo l
to i
ol lis
s uo
va i
uvos to
j on
mu kaan
y li
is sä
M ar
tu n
hein äkuuta
it se
h an
elo kuuta
oi ke
j el
mi es
tä ä
ur o
k al
la is
d in
an s
y ksi
L a
joh taja
saks alainen
ul la
et ta
m et
h it
d an
t r
ko l
sa an
si ja
l ö
is esti
us e
l inen
d a
m uo
S e
s ti
ta lo
v in
m on
18 8
lanti lainen
h ar
J a
ran skalainen
pal kin
t us
n im
ik ki
rit ti
i in
tut ki
alu e
r ä
r uot
v oit
presiden tti
s sä
mä n
es tä
o f
yh te
b er
sa i
it en
ko r
u m
as ta
maa ilman
en t
A l
mi a
j al
en n
P a
puo lu
p it
os sa
R o
s on
p el
jäl keen
R a
V i
ka is
N ob
ula ja
g in
H el
k ö
kun ta
y le
l ut
uu d
ed us
s tä
d o
vi r
el lä
Nob elin
el lis
ik ka
te et
h ti
sä vel
va a
p ro
A r
ra ken
et ty
si a
o m
oh jo
päi vä
ko i
c k
li jä
p ar
ri a
l la
is a
kan san
si kko
ih mis
2 1
os ta
ko s
E n
kun ing
ruot s
N i
r un
h en
uvosto liit
ke hit
T a
an n
uu den
18 7
p p
ko ko
u tu
sävel täjä
h er
2 2
kunn an
sy n
kä si
ol la
as ti
t ettiin
ksi a
hall it
h in
kir joit
saan ut
i an
tu li
i en
la ulaja
an d
ih in
18 6
no in
on n
as e
m il
b ritti
u ri
uro op
ty ö
u a
l uo
m inen
I I
so ta
ei ta
ku t
la a
L i
I n
jo u
2 3
palkin non
k el
pi a
ruots alainen
se ura
ku in
tiet ei
ty y
T ä
p uh
n yt
to ri
v en
mis ta
tu nn
T o
j ää
kuning as
l lis
in o
V enä
lo p
M i
2 5
ka r
g e
ti o
val lan
ä is
ma ssa
eng lantilainen
si ir
t uo
ki ksi
pal lo
tietei lijä
s isä
pa a
L e
is ia
e k
oh ja
in e
ku iten
ne et
3 0
J o
m it
ar d
Ne uvostoliit
Y hdysvalta
j ul
he m
ei den
y hd
mer kiksi
britti läinen
li ik
v on
l ää
ja t
kes ku
p ros
k ra
pa h
tel e
ku ussa
V uonna
y r
isi in
mis en
y ks
00 0
a u
Venä jä
ti i
ti on
ohjo is
E uroop
ol lut
Yhdysvalta in
at ti
kan ssa
v it
oli vat
tai de
y ky
p pi
kan a
s el
t is
ta l
mer kit
u den
te ki
18 5
ma ala
H e
et ään
kan s
muo d
2 8
2 4
al e
suu r
is tu
jo t
ko h
tä vä
jon ka
v enä
j u
pi en
al koi
mi en
te h
a ikan
2 6
ra ali
olo gi
a si
2 7
V uo
W il
m us
n in
ol le
jo ssa
b i
u g
e et
mää rä
jal ka
is in
u i
li alainen
ma s
oh jel
ti en
an a
s ing
käyt tö
ti la
en tti
Suom essa
Joh n
h isto
2 9
tu r
elo kuva
jä sen
va in
aikan a
tel u
ki in
luv ulla
vi a
V a
j allis
m p
ks een
R uot
et ti
V al
oit ti
E d
el l
ta is
j alainen
yhte is
ul ko
toim it
Y hdys
val la
esi merkiksi
tiet o
d aan
kuiten kin
m esta
ta sa
muu n
K o
ensimmä inen
jot ka
d er
vuo si
ku ten
r y
syn ty
T ur
uu n
il m
lu ku
vä li
F ran
E s
toi mi
ar k
H än
R i
18 4
C ar
ks an
va s
t tä
K ar
g a
mu assa
H a
pää ministeri
er o
Hel sing
luv un
ka t
as u
v ää
R ans
vä lis
nn it
in ä
maala ri
P i
kä y
it ti
o ri
h uo
run oi
m ur
ita lialainen
k r
so dan
ri k
lä n
talo us
järjes tel
S i
vasta an
runoi lija
tu u
kuu n
c e
m m
m ään
muu sikko
jalka pallo
lis ä
N a
valti o
G e
ala iset
taide maalari
L o
P er
kor ke
n or
S o
f il
a k
im e
os e
ka p
mi eh
c o
l lo
i li
k ke
suu ri
ä h
in ti
ta it
vi en
histo ri
it sen
y si
ensimmä isen
i ä
y ys
pros entti
al ta
to a
kaupun gin
K i
il u
valti on
ko it
ik ko
raken n
v isi
o d
is ty
ti ed
ol ym
l er
edus taja
kan sa
os of
ent eri
ken raali
y rit
I s
kal enteri
h ä
f es
uu tta
hän en
ai ka
tiet een
n yky
M on
il lä
hy vä
u si
y d
h yö
pi d
er it
ra uh
R e
D a
K es
ka ksi
e kko
joh ta
la i
prosentti a
ohja aja
at t
toim in
so ri
en e
K ir
tel ä
v et
mu si
hen ki
ki a
to r
pah tu
al an
val it
E telä
ul un
ma hd
p pa
it t
pro fes
llo in
18 3
m men
s ina
mis een
C h
p im
li i
eh ti
t uot
Venäjä n
h den
len to
p e
H en
op e
r en
venä läinen
d esta
s ää
fil osof
k ään
s si
sa r
o ma
liit to
al ku
r is
ist ö
voi daan
K or
Euroop an
K iin
us kon
to is
di o
ko t
kuu lu
ki eli
profes sori
b a
ka ikki
la it
ks et
puolu e
Ge or
I tä
u ta
jo on
l es
val mis
isi ä
A le
va ra
ni in
O s
ys tä
vai ku
tu l
P ohjois
mat ta
pi ir
elle en
g en
jou kko
al o
sa ar
ti a
B er
to jen
g ia
K an
B a
kan n
isa ri
ä i
B ri
ky mmen
e hd
f f
on g
al li
il ma
P uo
v il
yt tä
A i
va an
va pa
suom en
mesta ri
e an
mo kra
T am
r yh
ki l
p ala
ark kit
H ar
es een
y l
on i
to ja
Helsing in
sta n
p ol
mahd ollis
p or
a is
tar koit
ku van
ei lija
u k
Sa ksan
jalkapallo ilija
vi ä
op et
kul ttu
g er
e e
p ys
e pä
kon e
j uu
kaupun ki
la in
olym pia
u p
m ei
va ih
an i
toimit taja
es tö
N or
ym pä
henki lö
ta nn
ö ö
mi el
lu on
ko ulu
to on
mil joon
kir jallis
val lo
ai he
t h
Neuvostoliit on
pan i
lan nin
a jan
18 0
de mokra
u tui
en sä
mä t
ik ä
er t
it si
suu nnit
ke isari
mis tä
s uh
S uu
d on
tä r
tii v
f or
17 9
3 1
M yö
tun ut
n el
ala isten
yli op
ala isen
p in
nor jalainen
tu a
d yn
ut ti
r es
R ob
so pim
kesku s
muod os
yy sikko
er a
ur in
T he
hem min
a v
oi den
L u
oi ta
puolu een
f i
T i
ka ssa
vuo tta
N ä
s t
kil pa
kes ke
rauh an
ihmis tä
en ne
ber g
sija itse
lisä ksi
si tä
K uo
L in
pää t
an ta
per in
f ysi
jo uko
f yysikko
u ksia
ei vät
J u
k is
y ty
e taan
c a
pal vel
198 0
j ö
s ur
use in
yle is
ju lis
L äh
muu t
g an
A d
Rans kan
g o
ti las
E r
ik in
mi in
oike us
et u
tu le
re d
teki jä
perus tettiin
ol f
V ä
enn en
kä ri
C har
Wil li
j un
tan ut
En simmä
ar mei
si llä
te k
K at
itsen äis
i ri
uu t
hd e
n een
il lis
pa ik
g ra
et elä
voi ma
kansan edustaja
jo iden
F or
val lis
hyvä ks
20 17
vuo ksi
vo im
ke mis
K un
ko o
h ol
esi in
va sti
vi ime
it ta
Ruot sin
puol ella
kir kko
ra t
vä estö
all inen
k sa
on en
197 0
tutki mus
on in
nn ö
s te
ka ri
ke a
kes ä
si vat
filosof i
la iset
puh een
el ta
suu rin
M aa
199 0
k ku
20 19
S uo
lii ke
Willi am
j e
ta li
jo lloin
a b
P or
nel jä
kes ki
mis sa
K r
V an
suo si
is een
man n
kans allis
5 0
i d
ul ta
m eri
muu alla
20 16
i o
al in
ku s
T e
ka sta
B o
20 10
20 00
p pu
pi an
voit taja
y ksen
v os
hy vin
poli itt
I l
P et
ka utta
käyt tä
y i
ki ekko
en ter
er in
järjes tö
A f
jul kais
met ri
ti vat
Bri tann
mi an
ti t
te ollis
Läh teet
va h
arkkit ehti
hall in
l li
käsi t
ma te
S ch
elokuva ohjaaja
j ien
20 11
ta pa
is te
erit y
tu ksen
ist on
öö ri
es t
il ta
vai kut
mi kä
En g
lais ia
em min
An d
ol isi
P aa
kos ka
p h
ku oli
P e
Rob ert
n an
jo ita
y din
uks essa
J uh
s er
200 9
käyttö ön
uu si
es ty
n ope
el linen
jo ista
V ir
lää ke
s al
myö hemmin
kuu l
tär ke
jää kiekko
ma sta
puo lis
valit tiin
teli ja
20 18
200 7
ka to
tait eilija
D e
20 15
ot ta
C o
ki lo
la men
il l
mi ä
kemis ti
un d
196 0
te ita
un i
pel aa
K on
inn an
mää rit
la ki
m pi
mis esta
200 6
Car l
b o
u ksi
au to
he esta
ar ti
hyö k
Kiin an
k ys
väli llä
17 8
olympia voittaja
200 3
a vat
al oitti
uks et
su ku
e mi
Myö s
pi is
n uo
tä än
ik k
le v
ma iden
kansa in
m alla
in i
mmä n
tutki ja
vuo sina
l it
r et
Ai heesta
kana d
am es
19 00
Ja pan
K u
an g
Joh ann
mat ka
liit ty
S en
al it
k ri
ä r
jo s
h al
s ky
194 5
p ohjois
e a
dyn asti
a ina
19 18
lää käri
ar vo
Kat so
Joh an
c ha
te iden
200 8
M o
J ames
va ale
si t
H o
sisä l
k kö
p lo
tiet e
hallit uksen
vä n
o man
ni iden
d ia
20 12
ri ch
kut su
U r
yle ensä
Char les
h te
oike uden
A nn
yh ty
im o
ti lan
ku mo
ki er
si itä
kanad alainen
M aan
mu ksen
a var
to te
el mä
ke ksi
20 20
Es pan
nim it
j uh
S an
alue ella
presiden tin
ja a
on a
o v
jo ta
q u
200 5
de ksi
piis pa
c ar
ympä r
Y hd
pu i
el e
is eksi
H er
in in
A b
g n
vuo desta
tyi vät
n ut
pahtu mia
os allis
at tori
ehd o
el a
ko kon
ku sta
käyt etään
g h
man sa
Vuo den
ti an
us t
kiel en
v is
jan a
200 4
fysi ikan
Is ra
ö l
suu n
hallit us
v u
z z
läh es
H an
metri ä
puo li
y llä
esi t
il e
yh teen
per usta
20 13
H it
tele visi
20 14
Ka u
itä valta
sä h
194 0
J ose
Yhd isty
yh ti
ilm oitti
D i
ole van
t tiin
ty ne
ed usta
Tam per
i ksi
u is
at ta
g y
17 7
vi elä
us eita
s tr
P residen
la isten
ar vi
kau den
mm un
kal enter
lääke tieteen
199 1
os oit
luon non
ty ä
la isen
lä mp
p ur
alu een
us tus
poli ti
Y le
I tali
di plo
alais ia
s ään
Sa ksa
miljoon aa
Suo mi
jouko t
kol me
seura a
j ia
es pan
K e
os ti
h uon
195 0
am ma
mi o
M u
w a
so tilas
par lamen
Ka ar
tä hti
l ään
r on
en a
ti e
Af ri
yliop isto
j et
musi ikki
arti k
mis eksi
ja pani
ul le
hall inn
tä mä
läh et
Geor ge
p yr
ra dio
pit kä
197 3
194 4
pal jon
ko mmun
l on
so sia
J os
b e
199 4
sar ja
so si
no usi
in een
sa man
us tr
v esi
te ke
N o
perus taja
op pi
ks essa
jääkiekko ilija
h ei
maa tikko
r u
S yn
p uu
M c
193 0
U n
le y
men taja
al ussa
valla t
per ä
T ho
S te
te taan
järjestel mä
ut us
la p
D o
k ää
Ch r
20 21
199 9
to d
Ri ch
ks esta
p itä
4 0
197 9
al ka
op per
199 5
B ar
c i
19 20
va ali
kulttu uri
uks een
M er
b an
mate maatikko
tu ho
S u
ma ri
ka ik
d y
Kuo lle
e ikä
H al
yh ä
jo hd
ko ma
o is
em pi
la u
kirjoit taja
e uvos
mer en
ks ua
päi vää
her ra
ku ole
kau si
200 1
d än
196 9
G usta
d essa
V ar
Y K
J ean
200 2
san o
diplo ma
e aa
no us
j uo
säh kö
kirjallis uus
ty ön
koh ta
t inen
Ne w
un a
to isen
ber t
al d
ka isi
al oit
itävalta lainen
juu ta
jo issa
L än
Yhdys vallo
kon en
synty inen
suuri m
a f
kir kon
A h
s ol
Ta pahtumia
6 0
ra h
I r
198 9
ot to
193 9
197 2
vallan kumo
pa in
d assa
keske iset
E si
so tila
tu lo
onn an
opet taja
mat to
et te
us ten
to inen
tan skalainen
la us
kansain välis
ellis en
uud esta
kat so
et to
s ki
198 2
Tä mä
ha a
vä ki
b ur
K uu
197 5
Pa ul
F red
va paa
ut taa
isä ksi
läh tien
vir allis
ke mian
o tti
Tur un
198 1
yt ti
kap pal
tyne itä
h u
20 22
uksen a
artik kel
it o
p oi
muu ta
N yky
ka i
o opper
ker ta
suo rit
Ma ri
L isäksi
194 6
ih en
g u
ed elleen
K os
pa ppi
siir to
te o
194 1
l y
II I
194 8
op äi
uud essa
en er
o si
ist in
t to
un n
Neuvostoliit to
län si
us ko
uu teen
vaa ti
vä linen
vir ka
m y
l yh
t š
av ulla
M e
sen a
is e
muu to
ra a
M an
197 4
K ol
T ans
kaupun g
Kir jallis
suomen ruotsalainen
ta ri
tel y
Kuolle ita
F er
p sy
197 7
t uom
Syn tyneitä
mis to
196 4
Ensimmä inen
m ed
Yhdys vallat
ai ko
K as
hel m
at in
ty nyt
er ot
a d
ha m
196 8
ai kaan
po m
ka us
j alla
Ja c
199 8
artikkel it
199 7
ne uvosto
tui vat
ma ksi
s is
E l
19 17
kiel inen
re g
I ra
198 6
voit ti
käyt ö
197 6
tais telu
Os car
valti opäi
a va
van hem
Rich ard
or to
japani lainen
Kar l
198 8
ko hd
j i
196 7
ttu a
199 3
lämp ö
18 00
käyt tää
To inen
M os
sa at
si l
ar t
im en
vaale issa
pää tö
te hd
ustr ali
espan jalainen
ul onnan
Se ulonnan
ur he
mis tö
Yhdysvallo issa
kuul uu
puol esta
h oi
puheen johtaja
197 8
p po
b y
ko ul
gi an
S t
and er
kau d
en si
pää lli
194 7
vuo teen
n et
k ista
tais tel
ta pahtu
ki en
ri i
k kin
198 7
va ikka
197 1
P al
199 6
199 2
s ul
kul jet
W al
si ihen
K ana
ra uta
J e
Län si
as et
ker taa
K oi
kit tu
k eli
oit sija
193 6
el tä
p en
la ulun
ase ma
ista an
vi d
pelaa ja
tied e
merkit tä
lis ti
pyr ki
Presiden tti
196 6
P o
yy den
ta as
it to
A ra
do ks
y vä
gy p
tä män
it tiin
op is
vo in
ko ti
vi i
198 5
196 3
T er
teollis uus
vi in
muo to
sijaitse e
ä t
w i
maa han
kun in
o mis
Tho mas
mi ta
olle et
pi ti
n er
P ar
tasa valta
kä r
kymmen en
et en
tu g
ja r
kesku sta
lä is
198 4
ha va
järjes t
os an
C a
ist ys
T š
ra di
ve istä
olo gia
ku ver
t ettu
17 6
192 5
S D
ne uvos
val o
elo ku
195 6
si joit
193 8
käsi kirjoittaja
K re
jo pa
S am
ur an
B en
le hti
198 3
palkin to
ka te
192 8
met sä
F ri
a ine
196 5
ti ksi
H ol
ene mmän
A ug
armei jan
194 2
erity isesti
il y
merkit tävä
ma assa
to ista
mä ki
192 2
men et
as t
B e
Jose ph
o on
H i
a ino
196 2
A lan
tam inen
Ni ko
saks alais
Fran c
muod osta
elä in
sa ta
Japan in
A s
ker ran
192 9
P ää
suh te
O r
M atti
ra an
m alli
193 2
tek ni
mis sä
V il
194 3
van a
Ale ks
ma sen
ve itsi
s ut
si v
w ard
jo lla
195 8
lle en
liike mies
194 9
ti l
kuiten kaan
kuver n
yh ten
193 7
jo sta
mu iden
192 6
V er
kes kit
on e
y tä
valta kunnan
tu ki
ä yt
il un
U l
keksi jä
fysiikan palkinnon
hallin to
tur vallis
t usta
ko ke
tasa vallan
Mi cha
ks ista
os in
192 4
195 7
Pi e
ra d
pun a
o min
ks in
ta voit
sopim uksen
196 1
é n
paa vi
ta pah
Hit ler
r uo
he im
Lo uis
p lan
kau ppa
päivä n
h at
liik en
J an
näyt elmä
mu ita
G u
oi hin
diploma atti
it tä
ol d
mur ha
pel li
lop pu
kka a
ver kko
ma issa
y den
in ta
at ter
m min
al ist
essa an
ra ta
pal kittu
uud elleen
kra in
va ssa
Kan sa
olo g
sy yt
S al
it s
ma in
Kau pun
C on
z a
193 1
korke a
am er
yhti ö
Hän en
yy d
Esi merkiksi
T or
orto doks
M or
n en
u lo
L on
et o
pian isti
s issa
päät tyi
al isti
as an
si o
un o
v isti
19 19
ko os
193 4
195 3
uskon n
M ann
käy tä
isen a
gh t
ka pelli
ä inen
suu re
pu he
ot t
Johann es
yks et
sisä llis
öl j
yh tä
ai kais
kuvan veistä
kol la
es in
ran n
so dassa
ala ista
vä en
195 2
k kaan
j ään
k inen
myö tä
s yö
ys sä
histori an
G a
Yhdys val
liit on
195 9
kapelli mestari
har joit
avar uus
ksi in
ri an
E lo
gen tiin
perus tus
8 0
ol linen
ö m
193 3
valtiopäi vä
perin te
H ä
voi vat
saa v
195 5
ra si
17 5
ste in
histori oitsija
is la
kato linen
huo matta
po si
S ta
up se
suunnit el
asi an
n issa
sal kka
mää r
vi era
rä jä
koma alainen
Ro man
Da vid
ina an
ke e
d t
ja an
In ter
k re
Britann ian
yksi ä
f a
ol l
k ala
nä ky
os to
kr isti
ong el
val mentaja
ne uv
pää tti
ettu a
sur mansa
kutsu taan
la ista
ni mi
h alu
po is
ka hden
F a
alan komaalainen
M at
tule e
192 7
An ton
tävä n
suom alais
kilo metriä
na is
ar vos
h tori
jä i
v ista
mis estä
kun tien
ter ve
ympär istö
S er
A m
e issa
T ar
li a
ku i
us si
p rin
aihe utta
Pa ri
tar isti
laa jen
j alle
it tu
in sin
r or
kemian palkinnon
ut ettiin
syn tyi
d olla
man a
ik ke
re ak
la an
laulun tekijä
talo ud
saa ri
kun taan
Eng lannin
te ella
men n
lo gi
tel un
ensimmäisen ä
va ksi
Micha el
G ar
puol ustus
pää si
Vuo desta
Kes ki
amma tti
ra ja
us taa
192 3
m een
Euroop assa
vasta a
ol in
195 4
ne uvostoliit
Ale x
p pä
n s
Mos ko
neuvostoliit to
käy nn
aa tio
s veitsi
kuvern ööri
elä män
joh ti
ori aan
juo ksi
a in
lan d
li e
mil jar
kehit ys
ro man
masen n
yhte yd
a al
f e
vä lit
yh den
mar salkka
Helsing issä
kas vi
va alit
I ran
Al f
mu ka
p ohjo
sai ra
ei hin
te ja
val ko
yrit ys
tta in
a sia
kuvanveistä jä
192 1
ja zz
nn en
V e
19 12
mi kuu
H isto
m usta
asi assa
kes tä
Hen ry
elo kuvan
Kaar le
L ud
liik keen
v issa
käytö ssä
att eri
195 1
avat tiin
Suom een
Pet er
t he
Kansa in
b u
n is
hi ih
k ro
vai he
u teen
joh on
J aa
ki taristi
ir lantilainen
y lä
vi er
vä hen
A mer
Hel sin
Espan jan
ette i
193 5
met rin
mo ot
presiden tiksi
insin ööri
televisi o
19 14
p yö
ar in
yhteyd essä
E ri
an toi
sveitsi läinen
pit ää
Tamper een
näytelmä kirjailija
e ks
uks esta
Tä män
suun ta
isti an
s kot
ro lainen
rakenn us
pa i
ku r
nä kö
ik kaa
muu ttu
k et
alka en
valti oiden
te itä
a ra
kiel tä
m use
is essä
sa malla
is mi
m el
hiih täjä
päälli kkö
un kari
is essa
T u
kaa ppa
en ää
tam alla
n u
puh u
pi iri
s son
maailman sota
paik allis
alkoi vat
ole massa
jo en
liik enne
taja t
ker to
mer kki
Suu ri
onn etto
il mas
kokon ais
Wil helm
B ro
menn essä
maailman sodan
ma at
b in
ra joit
Ro oman
oh jan
is uus
pin ta
im mat
s to
e ver
toimin ta
tieto kone
te ks
ko ssa
sai vat
pu isto
h un
mit ta
190 7
is issa
ku ri
in nä
L en
ympä ri
ka hd
o ja
19 13
W a
kunn allis
ta kia
poi ka
17 4
S ha
or e
psy ko
P ro
kaud ella
An der
J är
Isra elin
yksi ty
mar kkin
olle en
M al
ot ettiin
vi isi
skot lantilainen
ma ali
ha jo
ul lis
Geor g
W in
190 8
jul kaisi
ty ksen
kann at
c on
tele e
tek n
valta a
myö n
Se ura
lu e
et un
19 16
hte eri
matka ilija
toimi i
B el
SD P
reg oriaan
val tu
t eri
kunn assa
7 0
aja t
sit ten
s ala
Val ko
neuvostoliitto lainen
pa ko
G o
jo ten
ka asu
alle kirjoit
J on
G i
ke ä
tuo tan
voi mien
saa pui
Y or
20 23
b el
li an
r uu
kol lis
teh tä
sija an
lai vas
mi kuussa
ai emmin
ek konen
lä hel
p il
läh etti
juh la
Ed us
E in
kon een
ks ella
ko hti
vuo ro
vuo ti
sy y
ortodoks inen
19 11
ot tu
ta maan
1 00
kr uun
a tar
ihmis en
In tian
5 00
nim ellä
si en
Hen rik
H all
us to
v ille
o ta
upse eri
tutki mu
Ma ria
K ekkonen
o ksen
y a
m un
armei ja
Mann er
ta va
190 1
te atter
R os
kalenter in
uud et
vil jel
julkais tiin
Pe kka
Ruot si
K ale
19 10
V en
E gyp
ilm oit
190 6
mi kko
is min
hyök kä
ki inn
ud et
S im
g regoriaan
esiin ty
Afri kan
ko ulun
Puo lan
ta s
Mar tin
asu kka
e uroop
pid ettiin
op er
vaiku tus
ek tr
järjestel män
te eseen
ton in
d u
ellis esti
tal on
sy r
G er
kar kaus
siir tyi
jo illa
omin ais
si i
i lijä
juoksi ja
ta vat
pa an
mat on
190 4
Franc is
en s
ist ettiin
ai kaa
Fred rik
e uro
g ar
puolis o
rat kais
perus teella
jou tui
B or
tuot taja
uh tin
va se
P la
Ma d
p eri
p op
osa ssa
M il
ro maan
h ui
tan sa
tähti tieteilijä
yks in
per äis
kunn at
viime inen
lop ulla
Y r
valtiopäivä mies
9 5
s ton
k kä
van sa
O tto
kuulu vat
am en
päi vät
y yttä
o a
ni itä
E U
ologi an
musi ikin
el ektr
hyväks yi
Kor ean
ks issa
pal lon
julis ti
190 5
ik en
le i
si on
T V
et na
p ut
k issa
sä il
puol elle
S c
Er n
O y
al ia
ever sti
var ten
os uus
väestö stä
Gusta f
til alle
eten kin
is esta
