<unk>	0
<s>	0
</s>	0
।	-3.60863
▁के	-3.62049
ी	-3.86405
▁में	-3.87745
े	-3.9205
▁है	-4.06667
▁की	-4.10314
ा	-4.23028
▁को	-4.2478
ों	-4.31264
,	-4.32437
▁से	-4.40448
▁	-4.49353
▁ने	-4.59601
▁का	-4.61532
ने	-4.78453
न	-4.79
▁और	-4.80529
▁पर	-4.87506
▁कि	-4.92677
.	-4.94643
▁हैं	-5.08758
▁भी	-5.28398
▁इस	-5.33923
क	-5.34585
▁कर	-5.35772
र	-5.39423
▁हो	-5.39562
▁लिए	-5.41519
ल	-5.43489
▁नहीं	-5.56137
▁एक	-5.59624
ई	-5.63165
कर	-5.63931
म	-5.6832
-	-5.70357
▁किया	-5.70847
▁गया	-5.75258
त	-5.75443
▁ही	-5.78661
ं	-5.79538
▁यह	-5.86066
▁स	-5.88562
▁था	-5.90874
▁कहा	-5.91053
ना	-5.91358
स	-5.91654
ता	-5.93951
▁आ	-5.99542
▁साथ	-6.0451
ित	-6.05427
▁करने	-6.05912
ि	-6.08151
▁तो	-6.09717
ू	-6.09834
▁व	-6.10869
▁बाद	-6.10932
▁लोग	-6.13253
ो	-6.13299
ट	-6.13466
▁रहे	-6.14694
व	-6.14732
▁क	-6.15927
ह	-6.16009
▁ले	-6.16891
▁जा	-6.18422
ियों	-6.21073
▁दिया	-6.21961
ज	-6.25167
य	-6.26257
▁गई	-6.29069
▁हुए	-6.31749
द	-6.3183
▁न	-6.33823
▁तक	-6.33841
▁रही	-6.34039
प	-6.35102
▁उनक	-6.39771
▁रहा	-6.40124
)	-6.40595
▁(	-6.44465
▁पुलिस	-6.4466
▁वह	-6.45416
▁वाल	-6.45971
ण	-6.48466
▁अ	-6.48498
▁थे	-6.51607
▁लेकिन	-6.52702
ां	-6.53116
▁उन्ह	-6.54789
▁थी	-6.55762
ओं	-6.57218
छ	-6.57443
▁म	-6.57787
▁जो	-6.5849
▁सरकार	-6.58581
▁उस	-6.58742
ु	-6.58819
▁इसक	-6.58927
श	-6.59573
▁प	-6.60256
▁अपने	-6.61009
▁कु	-6.61091
्स	-6.61578
▁बार	-6.62006
▁अब	-6.64884
▁दी	-6.65498
सी	-6.65894
ार	-6.67731
▁गए	-6.70473
ड	-6.7334
वार	-6.75407
ब	-6.75503
ें	-6.75592
▁बताया	-6.76406
:	-6.76953
ली	-6.77963
▁करते	-6.81425
▁भारत	-6.81501
▁पहले	-6.82102
्	-6.83393
▁सिंह	-6.83968
▁दो	-6.84045
िंग	-6.84084
▁जिस	-6.84197
ते	-6.84411
▁ब	-6.84665
में	-6.86193
ग	-6.88896
िक	-6.89506
▁साल	-6.91109
▁र	-6.91164
▁अपन	-6.91188
से	-6.93443
▁मिल	-6.94858
▁या	-6.95068
फ	-6.96651
▁हुई	-6.97411
▁उसक	-6.98147
▁प्र	-6.99022
▁दे	-6.99821
▁दौरा	-7.0113
ए	-7.01391
▁त	-7.03308
▁बना	-7.0402
▁ये	-7.0407
कि	-7.04452
ला	-7.05826
▁ज	-7.05946
▁बात	-7.07499
▁दिन	-7.07795
▁देश	-7.08017
▁हुआ	-7.08268
▁इन	-7.08456
▁प्रदेश	-7.11416
▁जाने	-7.11985
नी	-7.12987
के	-7.15149
ीय	-7.15297
▁घर	-7.15404
▁कोरोना	-7.15413
▁चुनाव	-7.16268
▁श	-7.16814
▁समय	-7.17955
▁सभी	-7.17977
▁हम	-7.18321
▁तरह	-7.19616
रा	-7.19675
ती	-7.20642
▁आप	-7.21724
▁फिल्म	-7.22224
ंग	-7.22984
▁बीच	-7.23127
▁जब	-7.23155
▁लिया	-7.23469
▁द	-7.24131
िया	-7.24208
▁राम	-7.24335
▁काम	-7.24406
वा	-7.24823
▁दिल्ली	-7.26728
▁वहीं	-7.26742
▁राज	-7.26836
▁नाम	-7.27921
▁द्वारा	-7.28588
▁रह	-7.28877
▁वे	-7.29408
्य	-7.2943
▁राज्य	-7.30597
▁होगा	-7.30637
▁आरोप	-7.31199
▁क्षेत्र	-7.31446
▁जानकारी	-7.31446
▁लाख	-7.31469
▁आग	-7.32738
▁भ	-7.32937
▁उन्हें	-7.33669
▁टीम	-7.34004
▁लग	-7.34884
▁मामल	-7.34915
▁कांग्रेस	-7.35404
▁पूर्व	-7.35496
▁पूर	-7.35512
▁हर	-7.3673
ध	-7.3725
▁कम	-7.37312
▁दोनों	-7.3951
▁तीन	-7.39536
▁रूप	-7.39556
▁आज	-7.39788
▁लगा	-7.40049
▁अधिक	-7.40435
▁शुरू	-7.40543
▁करोड़	-7.40544
का	-7.40968
▁दूसर	-7.41243
▁सकता	-7.41612
▁वि	-7.41633
▁जारी	-7.41809
▁एव	-7.41846
पुर	-7.42561
▁चाहिए	-7.42687
जी	-7.42802
ख	-7.43209
▁मोदी	-7.45998
▁कुमार	-7.46106
▁आपक	-7.47057
▁गांव	-7.4725
▁सं	-7.4729
▁सा	-7.47949
मा	-7.48093
▁विभाग	-7.48246
▁करना	-7.4831
शन	-7.48723
▁ऐस	-7.48761
▁चल	-7.50377
▁पार्टी	-7.50554
▁कार्य	-7.50827
▁उ	-7.51883
कार	-7.51997
▁पास	-7.52114
▁10	-7.52572
▁'	-7.52729
▁जांच	-7.53002
▁कारण	-7.53275
ेंद्र	-7.53314
▁जाता	-7.53967
▁मुख्य	-7.54118
स्ट	-7.54381
▁किस	-7.54806
▁अभी	-7.55395
▁फिर	-7.55405
▁ओर	-7.55448
़	-7.56418
▁बड़	-7.56533
▁महा	-7.56931
च	-7.57515
'	-7.57581
▁सामन	-7.57998
▁हजार	-7.59093
▁खेल	-7.59126
▁नेता	-7.59426
री	-7.59578
▁ख	-7.59957
▁अस्पताल	-7.60375
▁जाएगा	-7.6039
▁शामिल	-7.60393
्र	-7.60723
▁ग	-7.61138
▁इससे	-7.61401
▁बन	-7.61441
▁डॉ	-7.61756
▁बता	-7.61768
भ	-7.62183
▁नगर	-7.62204
▁पा	-7.62912
▁मौत	-7.6299
▁रुपये	-7.62993
▁मैं	-7.63252
▁देख	-7.63255
8	-7.64186
▁ज्यादा	-7.64323
▁भाजपा	-7.64323
▁अन्य	-7.64398
िल	-7.65382
▁:	-7.65654
▁तैयार	-7.65674
▁‘	-7.65674
▁खिलाफ	-7.65748
▁ह	-7.6736
▁जिले	-7.67402
▁ए	-7.68313
▁च	-7.68582
▁मांग	-7.68702
▁19	-7.6885
▁वो	-7.68908
▁छ	-7.68959
▁2	-7.69813
▁अध्यक्ष	-7.6987
ै	-7.70021
▁वाली	-7.70035
एं	-7.71028
▁सकते	-7.71273
▁किए	-7.71371
सभा	-7.71573
ॉ	-7.72011
ड़	-7.72343
टी	-7.72587
▁उत्तर	-7.72786
▁भारतीय	-7.72931
या	-7.73752
4	-7.73851
ाई	-7.74369
▁जी	-7.74442
वे	-7.74801
9	-7.751
▁-	-7.7526
2	-7.75621
▁दिए	-7.75721
▁शहर	-7.75753
▁बच्च	-7.75819
▁खान	-7.76142
मंत्री	-7.76244
ओ	-7.76618
▁विकास	-7.77198
सा	-7.77229
▁देने	-7.77554
▁पी	-7.77608
▁फ	-7.78128
ास	-7.78176
1	-7.78379
▁इसी	-7.78478
’	-7.78733
▁संबंध	-7.78777
▁क्या	-7.78885
▁हाल	-7.78919
ंड	-7.78952
▁करें	-7.80242
▁मंत्री	-7.8029
?	-7.80298
▁कंपन	-7.80298
▁क्यों	-7.80304
▁मे	-7.8034
मान	-7.80429
वि	-7.80485
▁भर	-7.80707
▁मान	-7.80917
गी	-7.8128
▁हालांकि	-7.81886
▁रिपोर्ट	-7.81891
▁बहुत	-7.8194
▁करीब	-7.81945
▁प्रति	-7.82003
▁जिला	-7.82087
▁जान	-7.82213
को	-7.82798
▁ल	-7.83322
▁योजना	-7.83545
▁बंद	-7.83658
ेट	-7.84191
▁मह	-7.84315
▁तथा	-7.85163
ले	-7.85306
▁करा	-7.85602
▁ट	-7.86467
ंत	-7.86557
▁महिला	-7.86615
▁होता	-7.86627
▁जीत	-7.86642
▁ध	-7.86651
बी	-7.86682
▁पद	-7.86755
▁आए	-7.87146
हर	-7.87208
थ	-7.87263
00	-7.87889
▁5	-7.8836
▁अलावा	-7.885
▁3	-7.88645
0	-7.89165
▁अन	-7.89209
▁बढ़	-7.89341
ष	-7.8951
5	-7.89661
▁दिनों	-7.89843
▁मरीज	-7.90231
▁प्रधानमंत्री	-7.90237
▁1	-7.90682
▁आने	-7.90712
डी	-7.90883
स्त	-7.90922
दा	-7.91186
▁आई	-7.91318
a	-7.9142
▁सी	-7.91521
ठ	-7.91725
▁अनुसार	-7.91995
▁जबकि	-7.92157
▁दर्ज	-7.92915
▁लगात	-7.93713
▁6	-7.93761
▁बैंक	-7.93765
▁उन	-7.93976
▁ना	-7.94241
ेज	-7.94247
▁पहुंच	-7.94248
▁कहन	-7.94865
▁संख्या	-7.95582
▁स्थान	-7.95587
▁मैच	-7.95606
▁निवास	-7.95643
▁नई	-7.95672
▁रात	-7.95976
▁सब	-7.9599
▁होगी	-7.96151
▁जिसक	-7.96843
▁अपना	-7.97135
▁वजह	-7.97436
▁जुड़	-7.97661
▁सु	-7.97665
▁चार	-7.97829
...	-7.98506
▁मो	-7.98823
▁सदस्य	-7.9932
▁मंदिर	-7.99353
▁बजे	-7.99669
▁8	-8.00251
जा	-8.00575
क्स	-8.00858
▁रुपए	-8.01262
▁बुध	-8.01272
▁पानी	-8.01431
▁बा	-8.02155
▁मु	-8.02185
▁केंद्र	-8.02631
▁ली	-8.02798
▁शिव	-8.03051
▁इसलिए	-8.03206
▁पिछले	-8.03208
▁पांच	-8.03294
▁अगर	-8.0335
▁मेर	-8.03371
वी	-8.03623
3	-8.03749
▁होती	-8.0434
▁4	-8.0434
▁जाए	-8.04541
▁उप	-8.05062
▁आयोज	-8.05207
▁मार	-8.0543
▁पहल	-8.05925
ंट	-8.06711
▁काफ	-8.06873
एस	-8.07012
▁बिहार	-8.0727
ति	-8.07365
▁सूचना	-8.07511
▁12	-8.07811
▁20	-8.07811
▁योग	-8.08191
की	-8.0901
▁गिर	-8.09416
▁जनता	-8.0949
▁तेज	-8.09635
▁7	-8.09815
▁बॉ	-8.09879
क्ष	-8.09924
▁लोक	-8.10275
▁जैसे	-8.10401
▁तह	-8.106
आई	-8.10607
▁कल	-8.10987
▁चला	-8.11027
▁गिरफ्तार	-8.11418
▁परीक्षा	-8.1146
▁जाएगी	-8.11504
▁जगह	-8.1162
त्र	-8.11807
▁सुरक्षा	-8.11865
ेशन	-8.11956
▁हिंदी	-8.12134
▁वर्ष	-8.12371
नाथ	-8.12662
▁सो	-8.13176
/	-8.1363
▁निर्देश	-8.13635
▁जहां	-8.13681
▁नि	-8.13681
▁पंचायत	-8.13693
▁युवक	-8.1373
▁सुब	-8.13764
युक्त	-8.13805
▁मिली	-8.14028
िन	-8.1403
▁पड़	-8.14055
ियां	-8.14768
बंध	-8.14913
टर	-8.14973
बसे	-8.15816
▁स्थिति	-8.15827
▁कार्रवाई	-8.15852
▁मौजूद	-8.15852
▁सकती	-8.15856
▁हाथ	-8.15888
▁घटना	-8.15937
▁भाग	-8.1595
▁नजर	-8.15956
▁हत्या	-8.15968
▁प्रशासन	-8.15997
▁सवाल	-8.16009
▁दूर	-8.16136
▁सोमव	-8.16158
▁थाना	-8.16267
▁मिला	-8.1632
▁रा	-8.17219
योग	-8.17316
वर	-8.17418
दी	-8.17584
▁पार	-8.17661
्या	-8.17677
ंस	-8.17713
▁टी	-8.17751
िस	-8.17795
▁डे	-8.18063
▁मुताबिक	-8.18125
▁गांधी	-8.18125
▁कार्यक्रम	-8.18133
▁विधान	-8.18146
▁स्थित	-8.18215
▁आधार	-8.18248
▁श्री	-8.18423
पी	-8.18446
▁जाती	-8.18776
▁हमार	-8.18792
▁अधिकारी	-8.18919
िम	-8.1931
i	-8.19658
▁रि	-8.20207
िप	-8.20394
▁परिवार	-8.2056
्ट	-8.20803
ढ़	-8.20969
▁ता	-8.21074
▁ऐसा	-8.21119
▁मौक	-8.2133
▁स्व	-8.21616
▁रोक	-8.21817
▁दें	-8.2192
t	-8.21964
िका	-8.22171
▁बी	-8.2234
▁तब	-8.22511
बा	-8.22654
▁पूरे	-8.22798
▁स्वास्थ्य	-8.22824
▁शिकायत	-8.22832
▁खुद	-8.22832
▁हूं	-8.22833
▁लगे	-8.22874
▁स्कूल	-8.22928
▁अलग	-8.23342
प्र	-8.23445
▁लाल	-8.2379
देश	-8.24016
▁नर	-8.2465
▁गु	-8.24788
▁बढ़ा	-8.24831
▁विश्व	-8.25223
▁बैठक	-8.25229
▁चर्चा	-8.25271
▁मदद	-8.25272
▁बाजार	-8.25419
▁पेश	-8.25516
▁व्यक्ति	-8.25625
▁पहुंचे	-8.26604
6	-8.27733
▁समस्या	-8.27771
▁जल्द	-8.27771
▁न्यूज़	-8.27795
▁इतन	-8.27823
▁अधिकारियों	-8.27852
▁समिति	-8.27872
▁निकल	-8.27874
▁फीसद	-8.27931
▁मा	-8.27971
▁15	-8.28104
▁करेंगे	-8.28145
▁किसानों	-8.28665
टा	-8.29061
आ	-8.29099
▁डि	-8.29451
▁ला	-8.29583
माल	-8.2988
▁बेट	-8.30145
फी	-8.30279
▁तरफ	-8.30337
▁बस	-8.30503
▁दाव	-8.30584
ौ	-8.30603
▁कह	-8.30802
ोर	-8.31325
▁भेज	-8.31603
▁आम	-8.31746
▁आदि	-8.32033
▁रख	-8.32232
▁होते	-8.32404
▁खरीद	-8.32793
▁वीडियो	-8.32966
▁कोविड	-8.32971
▁प्रभाव	-8.32979
▁राजनीति	-8.32981
▁प्राप्त	-8.33
यू	-8.33103
दार	-8.3359
▁रेल	-8.33727
▁एस	-8.33741
▁आया	-8.33969
इ	-8.34196
▁सह	-8.34873
▁कुल	-8.34983
▁चलत	-8.3519
रिया	-8.35392
▁गंभीर	-8.35669
▁पाकिस्तान	-8.35669
▁विशेष	-8.35669
▁परेशान	-8.35677
▁बाहर	-8.35726
▁पीएम	-8.35929
▁युवा	-8.36061
गत	-8.36453
मेंट	-8.36463
ेश	-8.3649
▁कै	-8.36756
हित	-8.36875
र्क	-8.36981
▁महीन	-8.37039
▁परि	-8.37154
▁रे	-8.37492
▁सि	-8.37619
षण	-8.37946
▁शाह	-8.38131
▁सिर्फ	-8.38447
▁सड़क	-8.38449
▁शादी	-8.38467
▁निकाल	-8.385
▁पत्र	-8.38556
▁यादव	-8.38558
▁बल्	-8.38599
▁इंडिया	-8.38637
िए	-8.38681
▁शर्मा	-8.38762
▁देते	-8.38902
▁राष्ट्रीय	-8.38981
▁किलो	-8.3918
▁जाते	-8.39477
▁दल	-8.39517
▁रखा	-8.39617
▁कोर्ट	-8.39718
र्	-8.39765
देव	-8.40266
ाया	-8.40466
तर	-8.40561
▁जल	-8.40808
▁लड़	-8.41185
▁दुकान	-8.41278
▁उपलब्ध	-8.41304
▁घायल	-8.41304
▁वापस	-8.41305
▁छोड़	-8.41305
▁होंगे	-8.41333
▁पकड़	-8.4134
▁मंगल	-8.41348
▁व्यापार	-8.41351
▁लगाया	-8.41501
▁महिलाओं	-8.4155
अ	-8.4161
▁घंटे	-8.4169
रे	-8.42124
▁सीट	-8.42196
नए	-8.42585
▁इ	-8.42657
A	-8.43099
▁थीं	-8.4327
लो	-8.43439
▁जिन	-8.43588
चा	-8.43691
▁यू	-8.43795
रो	-8.43965
▁मीडिया	-8.44245
▁मुंबई	-8.44245
▁ग्रामीण	-8.44248
▁शिक्षा	-8.44248
▁ध्यान	-8.44255
▁बेहतर	-8.44258
▁प्रमुख	-8.44271
▁24	-8.44337
▁प्रदर्शन	-8.44381
न्न	-8.44601
यों	-8.44696
▁ई	-8.45444
▁सके	-8.46214
जय	-8.46405
ंच	-8.46662
सर	-8.467
नगर	-8.46721
जन	-8.46879
▁डाल	-8.46956
पाल	-8.46986
यर	-8.47244
▁शेयर	-8.47316
▁लाभ	-8.4734
▁ड	-8.47528
▁बनाया	-8.47534
▁पक्ष	-8.47557
▁ग्राम	-8.47924
शा	-8.47983
हार	-8.48006
गा	-8.48804
कल	-8.49275
▁धन	-8.49587
▁पता	-8.49677
▁पे	-8.49963
▁सुन	-8.50381
▁विधायक	-8.504
▁अभियान	-8.50401
▁अमेरिक	-8.50401
▁समझ	-8.50411
▁माह	-8.50459
▁सर्व	-8.50497
▁दुनिया	-8.50572
▁कभी	-8.50594
▁देखते	-8.5067
▁ट्रेन	-8.50765
▁आर	-8.50865
▁16	-8.51584
▁हि	-8.51729
▁वर	-8.52064
राम	-8.52133
▁मि	-8.52189
▁करके	-8.5265
▁लिखा	-8.52976
▁अनु	-8.52979
ाबाद	-8.53325
बर	-8.53386
E	-8.53626
▁वायरस	-8.53626
▁शुक्र	-8.53626
▁प्रयास	-8.53627
▁गुरु	-8.53639
▁अगल	-8.53655
ोक	-8.53799
राज	-8.53874
▁मुझ	-8.53932
▁फोन	-8.53948
▁हाई	-8.54
▁देखा	-8.54026
▁मन	-8.5408
▁कार्ड	-8.54123
▁बे	-8.54124
ेंगे	-8.5413
▁फैसला	-8.54342
ये	-8.54675
ुल	-8.55059
▁14	-8.55203
▁30	-8.55244
्यू	-8.55407
मेत	-8.55631
▁सर	-8.55638
टिव	-8.55684
▁11	-8.56382
▁साफ	-8.56492
▁जरूर	-8.56649
▁शाम	-8.56937
▁विरोध	-8.56987
▁सहयोग	-8.56997
▁जेल	-8.57011
▁बजट	-8.57028
▁उम्मीदवार	-8.57031
▁नंबर	-8.57045
▁पति	-8.57051
ाहुल	-8.57127
▁व्यवस्था	-8.57134
▁ट्रक	-8.57288
ज़	-8.57291
▁भाई	-8.57403
▁बदल	-8.57523
▁इस्त	-8.57549
▁गठ	-8.57562
o	-8.57787
▁"	-8.57977
वाद	-8.58984
्म	-8.59246
लब	-8.60025
▁अंत	-8.60142
▁संक्रम	-8.60204
▁चुक	-8.6035
िष्ठ	-8.60365
▁घोषणा	-8.60408
▁प्रस्ताव	-8.60408
▁बिजली	-8.60408
▁शिक्षक	-8.60408
▁प्रतिशत	-8.60409
▁बीजेपी	-8.60413
▁कॉलेज	-8.60424
▁आरक्ष	-8.60444
▁जीवन	-8.60454
▁निर्माण	-8.60469
▁राशि	-8.60612
▁सचिव	-8.60749
▁कराया	-8.61084
▁रो	-8.61158
▁यात्रा	-8.61228
र्स	-8.61266
ल्	-8.61267
▁डा	-8.61308
▁छात्रों	-8.61474
▁खास	-8.61682
▁इलाक	-8.61725
टे	-8.61823
▁हे	-8.62202
्‍	-8.62382
▁इं	-8.62409
▁करती	-8.62545
▁चुकी	-8.62558
▁25	-8.62608
▁पड़ा	-8.6289
▁हार	-8.62921
▁उठा	-8.63322
ड़ी	-8.63656
▁बो	-8.63887
s	-8.63902
▁प्रा	-8.63914
▁फोटो	-8.63979
▁शनिवार	-8.63979
▁जवाब	-8.6398
▁भर्ती	-8.63981
▁टे	-8.63986
▁स्तर	-8.63991
▁खर्च	-8.64007
▁सीएम	-8.64013
▁रविवार	-8.64014
▁कार्यकर्ता	-8.64017
▁एयर	-8.64036
▁खबर	-8.6404
▁सीमा	-8.64128
▁बयान	-8.64144
▁17	-8.64184
▁तौर	-8.64407
e	-8.64486
▁बच	-8.6454
ड़ा	-8.64684
▁असर	-8.64687
भर	-8.64969
शल	-8.65424
▁घ	-8.65654
▁9	-8.6574
नि	-8.65806
▁बु	-8.66114
▁बड़े	-8.66344
"	-8.66562
▁मै	-8.66706
▁थ	-8.66778
▁मिन	-8.66837
्‍य	-8.67041
लर	-8.67127
लाइन	-8.67181
▁जन	-8.67229
ची	-8.67289
▁प्रो	-8.67309
▁होना	-8.6759
▁भगवान	-8.67683
▁लंब	-8.67692
▁वाहन	-8.67692
▁–	-8.67707
▁समूह	-8.67731
▁खा	-8.67756
▁यद	-8.68009
▁जरूरत	-8.68036
षद	-8.68078
मी	-8.68237
▁13	-8.68785
▁आत्म	-8.69194
▁कर्मचारी	-8.69299
भग	-8.69386
▁चीन	-8.6939
भी	-8.69405
▁बि	-8.69578
लू	-8.69712
घ	-8.69742
▁सम	-8.69998
▁किसान	-8.70215
P	-8.70365
पूर्ण	-8.7039
फा	-8.70684
ियर	-8.70782
▁इनक	-8.71486
T	-8.71529
▁शुरुआत	-8.71529
▁अगस्त	-8.71529
▁पीछे	-8.71537
▁गयी	-8.71541
▁जमीन	-8.71544
▁समाज	-8.71548
▁लूट	-8.7156
▁इलाज	-8.71601
▁चोर	-8.71607
▁कश्मीर	-8.71642
▁बारिश	-8.71648
▁पिता	-8.71811
ाब	-8.71836
▁50	-8.72132
दान	-8.72168
्त	-8.7224
▁बिन	-8.72257
आर	-8.72432
▁बोल	-8.72848
▁हॉ	-8.73392
▁सार	-8.73756
ाँ	-8.73931
बाव	-8.73991
ेगा	-8.7427
▁देव	-8.74342
B	-8.74375
▁पहला	-8.74425
7	-8.74612
निक	-8.74621
वाह	-8.74851
यो	-8.7487
▁क्ल	-8.74989
▁ऑफ	-8.7502
▁एल	-8.75118
▁लिय	-8.7527
▁पहुंचा	-8.75455
▁टेस्ट	-8.75472
▁सुविधा	-8.75529
▁आंकड़	-8.75529
▁बाइक	-8.7553
▁आवेदन	-8.7553
▁हिस्सा	-8.7553
▁शराब	-8.75538
▁बोर्ड	-8.7554
▁मैदान	-8.75547
▁मुद्द	-8.75559
▁गा	-8.75756
ग्र	-8.75778
दर	-8.75813
▁करेगा	-8.76019
▁दर	-8.76025
र्ग	-8.76277
▁मिले	-8.76309
बल	-8.76323
लैंड	-8.76419
▁रंग	-8.76532
▁अच्छा	-8.76848
▁कार	-8.77009
▁पढ़	-8.7723
ाइ	-8.77243
एफ	-8.7759
▁जैस	-8.77695
रण	-8.78021
वन	-8.78149
▁बर	-8.78198
▁देखने	-8.78242
▁दौर	-8.7829
▁कट	-8.78393
ोल	-8.7846
S	-8.78541
▁पट	-8.78685
▁अभि	-8.78713
िट	-8.78878
ाज	-8.78892
वाल	-8.78995
▁18	-8.79159
केंद्रीय	-8.79173
-19	-8.7941
▁बनाए	-8.79647
”	-8.79696
▁2021	-8.79696
▁नुकसान	-8.79696
मौसम	-8.79696
▁संगठन	-8.79696
▁जनवरी	-8.79697
▁कानून	-8.79698
डाउन	-8.79699
▁अमित	-8.79704
▁जन्म	-8.79718
▁यूपी	-8.79743
▁धर्म	-8.79744
▁दाम	-8.79795
▁सामान	-8.79866
▁वर्षीय	-8.79869
▁अव	-8.79895
▁संक्रमित	-8.7999
नपुर	-8.80378
▁मंडल	-8.8046
▁भा	-8.80489
▁मनो	-8.80604
▁गो	-8.80641
▁फ़	-8.8065
▁सात	-8.80974
▁रखने	-8.81091
ेश्वर	-8.81121
▁सपा	-8.8115
ेंस	-8.81394
▁बीत	-8.81462
र्म	-8.81533
लीव	-8.81554
▁मामला	-8.81744
ुड	-8.81888
र्य	-8.82004
णी	-8.82215
▁जमा	-8.82491
झ	-8.82725
▁सेवा	-8.82826
▁उत्पाद	-8.84044
▁ऑन	-8.84044
▁जोड़	-8.84055
▁सुनवाई	-8.84057
▁सप्ताह	-8.84075
▁मात्र	-8.84102
▁उपयोग	-8.84107
▁विवाद	-8.84123
▁वैक्सीन	-8.84139
▁निगम	-8.84153
▁वक्त	-8.84174
▁कैसे	-8.84213
▁रहेगा	-8.84462
▁माल	-8.84464
▁बाल	-8.84543
▁सफा	-8.84613
ामी	-8.84808
▁दिखा	-8.85135
▁देर	-8.8524
▁अल	-8.85562
▁छात्र	-8.85668
पर	-8.85692
▁हास	-8.85777
▁एप	-8.86308
▁बने	-8.86535
द्द	-8.86547
▁इसका	-8.86612
िग	-8.86639
गढ़	-8.86938
िंद	-8.87022
▁मुकाबल	-8.8705
ियन	-8.87056
▁क्रिकेट	-8.87114
िश	-8.87563
▁बनी	-8.8761
▁सही	-8.87747
▁एम	-8.88159
▁रै	-8.88435
▁चाह	-8.88584
▁मोबाइल	-8.88589
▁राजस्थान	-8.88589
▁उपस्थित	-8.88589
▁विचार	-8.88591
▁भोज	-8.88613
▁अवसर	-8.88616
▁भारी	-8.88669
▁राष्ट्रपति	-8.88679
ॉजि	-8.8869
▁बैठ	-8.88691
▁खाद्य	-8.88714
▁चालक	-8.88721
▁केवल	-8.88768
▁पुरान	-8.88837
▁पुत्र	-8.88898
▁राय	-8.88943
▁लगी	-8.89058
▁खड़	-8.89073
चर	-8.89105
▁तीसर	-8.89409
▁कप	-8.89601
▁शव	-8.89788
▁एन	-8.89837
▁पूर्ण	-8.89958
▁रन	-8.90325
एन	-8.90354
वान	-8.90776
▁कड़	-8.90877
▁मच	-8.9126
धार	-8.91572
चित	-8.91664
ूत	-8.91899
वें	-8.92085
उ	-8.92205
स्प	-8.92374
लाल	-8.92472
▁वै	-8.92541
ंध	-8.92546
एम	-8.92631
गर	-8.92811
▁समर्थ	-8.92875
इस	-8.92992
▁झ	-8.93071
▁लौट	-8.93175
▁हमल	-8.93191
ियो	-8.93264
मो	-8.93278
▁पहचान	-8.93351
▁याचिका	-8.93351
▁रिकॉर्ड	-8.93351
▁लखनऊ	-8.93351
▁हरियाणा	-8.93351
िस्तान	-8.93351
▁पत्नी	-8.93351
▁पीड़ित	-8.93351
▁पेंशन	-8.93352
▁कोशिश	-8.93353
▁मंत्रालय	-8.93354
▁बदलाव	-8.93355
20	-8.93401
ुक	-8.93456
▁खतर	-8.93471
मन	-8.93605
▁हवा	-8.9361
▁ट्र	-8.9372
▁200	-8.93727
ंगी	-8.93737
▁पहन	-8.93786
▁रोड	-8.93823
▁जु	-8.93854
▁खत्	-8.93898
▁कहत	-8.94073
▁बचा	-8.94123
वैध	-8.94152
▁लिख	-8.94326
र्द	-8.94424
▁रहते	-8.94544
▁अश	-8.9479
▁बढ़त	-8.94926
▁पैद	-8.95016
िटल	-8.9512
▁हमला	-8.95407
▁चुका	-8.95441
▁सेना	-8.95686
पहर	-8.95735
ौर	-8.95781
▁अंतर	-8.9599
▁रण	-8.96012
िड	-8.96094
▁कर्मचार	-8.96196
▁प्रद	-8.96421
▁बल	-8.96452
▁नव	-8.96555
प्	-8.97145
र्ट	-8.97406
..	-8.97773
वेश	-8.98008
▁सूच	-8.98159
ानी	-8.98163
▁सम्मान	-8.98218
ष्ट	-8.98231
संद	-8.98296
l	-8.98297
▁2019	-8.98351
▁तैनात	-8.98351
▁पश्चिम	-8.98351
▁ठीक	-8.98351
▁पूजा	-8.98352
▁सूत्र	-8.98353
▁चोट	-8.98353
▁कदम	-8.98361
▁फसल	-8.98364
▁गौर	-8.9837
गंज	-8.98375
▁भूमिका	-8.98381
▁वर्मा	-8.98392
▁टिकट	-8.98412
▁कपूर	-8.98438
▁तेल	-8.98456
▁मेडि	-8.985
▁सफलता	-8.98541
▁उम्	-8.98561
ूर	-8.98621
▁पाया	-8.98783
▁परिजनों	-8.98818
▁M	-8.98822
▁आठ	-8.99074
वीं	-8.99246
फर	-8.99301
m	-8.9954
ौल	-8.99577
▁मत	-8.99742
▁केन्द्र	-8.99779
▁आश	-8.99809
म्	-8.9986
▁बच्चे	-9.00123
ोद	-9.00549
▁आते	-9.00601
स्थ	-9.00709
▁शो	-9.00815
▁कमल	-9.00834
▁हा	-9.00962
▁क्र	-9.01037
▁दवा	-9.01096
▁भेजा	-9.0128
▁बहन	-9.01441
काल	-9.01637
गु	-9.01969
▁100	-9.0197
▁दिख	-9.02034
▁सोन	-9.02221
C	-9.0244
ग्राम	-9.02472
चल	-9.02477
ेक्ट	-9.02613
‍	-9.02654
▁काट	-9.02941
ेंट	-9.0299
▁जम	-9.03124
स्व	-9.03221
▁नही	-9.03383
▁टै	-9.03487
ैक	-9.03549
कर्ता	-9.0358
▁प्ला	-9.03582
u	-9.03593
▁अफगान	-9.03614
▁एसोसिए	-9.03614
▁गृह	-9.03614
▁चिकित्सा	-9.03614
▁विभिन्	-9.03614
▁ऊपर	-9.03614
▁गैस	-9.03615
▁सितंबर	-9.03615
▁बंगाल	-9.03615
▁उपचार	-9.03615
▁विद्यालय	-9.03615
▁फुट	-9.03615
▁न्यायालय	-9.03617
▁प्यार	-9.03618
▁मकान	-9.03621
▁निशान	-9.03623
▁प्रतिनिधि	-9.03624
▁पटेल	-9.03626
▁कार्यालय	-9.03637
सूस	-9.03644
▁प्रधान	-9.03651
▁आसान	-9.03656
▁स्टेशन	-9.03666
▁शरीर	-9.03666
▁रक्षा	-9.03673
▁आवाज	-9.03677
▁अमर	-9.03681
▁रास्त	-9.0371
▁पार्क	-9.03715
▁लॉक	-9.03889
▁संघ	-9.03979
▁दिखाई	-9.04106
यम	-9.04273
▁पं	-9.04837
▁याद	-9.04899
▁खोल	-9.04899
▁अच्छी	-9.04907
▁चाहते	-9.0509
िटी	-9.0511
म्प	-9.05112
▁हटा	-9.05158
▁B	-9.05163
▁गाय	-9.0524
▁फेस	-9.05275
▁बाबा	-9.05293
▁दिल	-9.05468
▁यही	-9.05968
▁खुल	-9.06042
द्ध	-9.06371
पो	-9.06653
▁कमर	-9.0681
▁दीप	-9.07203
▁जाएं	-9.07658
▁मानव	-9.07791
▁लाग	-9.07958
▁पै	-9.08038
(	-9.08054
्टर	-9.0817
ध्या	-9.08188
▁जरि	-9.08327
हत	-9.08824
बू	-9.08922
h	-9.08989
▁उम्मीद	-9.0905
p	-9.09145
कल्प	-9.09148
▁आतंक	-9.0915
O	-9.09159
▁वृद्ध	-9.09169
▁कृषि	-9.0917
▁घोषित	-9.0917
▁चिकित्सक	-9.0917
▁दिसंबर	-9.0917
▁बल्लेबाज	-9.0917
▁हादसे	-9.0917
▁भोपाल	-9.0917
▁मास्क	-9.0917
▁सीरीज	-9.0917
▁प्रभारी	-9.09173
▁संकट	-9.09175
▁कोतवाल	-9.09177
▁ट्वीट	-9.09178
▁नवंबर	-9.0918
▁कहीं	-9.09183
▁वार्ड	-9.09191
▁मार्च	-9.09193
▁निवेश	-9.09204
▁गीत	-9.09212
▁चयन	-9.09214
▁सांसद	-9.09217
▁संभावना	-9.09227
▁शि	-9.09248
▁40	-9.0926
▁इंतजार	-9.09263
▁एडमि	-9.09316
भाषा	-9.09395
▁प्रसाद	-9.09402
▁प्रभ	-9.09556
▁नौ	-9.0958
मीटर	-9.09625
▁अनुम	-9.09683
ेक्टर	-9.09965
कुल	-9.10268
▁घाट	-9.10292
▁नोट	-9.10522
▁नीत	-9.10739
▁22	-9.10753
एंगे	-9.10795
▁सिर	-9.10961
▁लाइन	-9.10971
▁लाने	-9.11245
ाइल	-9.11349
▁दूसरा	-9.11449
▁डेट	-9.11599
जीत	-9.11779
▁गोली	-9.11916
ँ	-9.12021
ar	-9.12108
▁चा	-9.12158
ुद्ध	-9.12273
▁मां	-9.12307
ल्ट	-9.12373
क्त	-9.12534
▁इन्ह	-9.12827
ार्थ	-9.1295
फ़	-9.13134
▁अनि	-9.13372
▁बेटे	-9.13824
N	-9.13862
I	-9.13866
अलग	-9.13926
27	-9.13939
▁ब्ल	-9.14015
▁रोग	-9.14321
▁वन	-9.14403
र्थ	-9.14443
▁21	-9.14445
▁विन	-9.14647
▁नियम	-9.14841
D	-9.14862
ृत	-9.14871
▁तस्वीर	-9.14924
L	-9.15052
›	-9.15052
▁छत्तीसगढ़	-9.15052
▁दक्षिण	-9.15052
▁दाखिल	-9.15052
▁व्यवसाय	-9.15052
▁पंजाब	-9.15052
▁प्रथम	-9.15053
▁खराब	-9.15054
▁स्थाप	-9.15054
▁कारोबार	-9.15054
,000	-9.15056
▁प्रदा	-9.15069
▁आतंकवाद	-9.15073
▁पालन	-9.15133
▁विदेश	-9.15205
▁मिलेगा	-9.15234
▁गुप्ता	-9.15286
▁विमान	-9.15293
▁पढ़ें	-9.15402
▁पाए	-9.15404
▁वर्ग	-9.15457
▁बेह	-9.15469
्ड	-9.15475
▁प्रकार	-9.1555
▁गलत	-9.15679
▁साबि	-9.15759
▁भाव	-9.16109
▁खिलाड़ी	-9.16203
▁बीमारी	-9.16327
ानदार	-9.16488
▁जिम्मेदार	-9.16587
ूम	-9.16619
▁मध्य	-9.16841
▁ओ	-9.16846
र्ज	-9.16847
▁कर्म	-9.16979
▁भू	-9.17248
बे	-9.1732
▁A	-9.17405
▁जोर	-9.17651
▁लें	-9.17764
▁कॉ	-9.17812
्यु	-9.18262
▁लु	-9.18282
▁सच	-9.18355
▁डर	-9.18453
वत	-9.18541
▁23	-9.18563
▁होकर	-9.18779
▁एक्स	-9.18851
▁दान	-9.18872
एसपी	-9.18908
▁जिनक	-9.19089
इय	-9.19227
तम	-9.19238
ट्टी	-9.1926
▁बनने	-9.19372
िमा	-9.19383
▁ग्र	-9.19584
▁अधिकार	-9.19876
▁अली	-9.19899
िस्ट	-9.19994
▁यात्र	-9.2011
ैंड	-9.20156
राष्ट्रीय	-9.20173
मंडल	-9.20298
▁सबक	-9.20566
ेड	-9.20834
काश	-9.21061
▁राष्ट्र	-9.21205
H	-9.2121
▁करवा	-9.21252
धान	-9.2127
▁उत्	-9.21285
▁गेंद	-9.21292
!	-9.21302
महाराष्ट्र	-9.21302
▁अपडेट	-9.21302
▁पूछताछ	-9.21302
▁भविष्य	-9.21302
▁मजबूत	-9.21302
▁मध्यप्रदेश	-9.21302
▁निर्णय	-9.21302
▁विपक्ष	-9.21302
▁उत्तराखंड	-9.21303
▁अंदर	-9.21303
▁नेतृत्	-9.21303
▁अपराध	-9.21303
निश्चित	-9.21303
▁विषय	-9.21303
▁दर्शक	-9.21304
▁चौहान	-9.21306
▁समीक्षा	-9.21306
▁संसद	-9.21307
▁स्टार	-9.21317
▁जून	-9.21318
▁फरवरी	-9.21328
▁नोटिस	-9.21335
▁दिवस	-9.2139
जूद	-9.21401
▁भवन	-9.21427
▁राज्यपाल	-9.21445
▁टॉप	-9.21467
50	-9.21486
▁कृष्ण	-9.21491
▁सत्ता	-9.21507
▁निजी	-9.21528
▁गुजर	-9.2165
▁दोस्त	-9.217
▁बेच	-9.21705
पत	-9.2173
▁विश्वास	-9.21763
▁चीज	-9.21788
पुरा	-9.21811
▁35	-9.2192
▁कमेट	-9.21942
▁प्रकाश	-9.21961
▁स्टे	-9.22084
ेन्द्र	-9.22301
▁लो	-9.22446
▁कमी	-9.22468
▁छोटे	-9.22504
▁पहुंची	-9.22521
▁आसप	-9.22659
रुख	-9.2271
ीजन	-9.22733
▁ब्र	-9.22909
▁साह	-9.23232
स्	-9.23552
िक्र	-9.23618
▁ज़	-9.2372
र्ड	-9.23724
▁लगाई	-9.23925
▁संप	-9.24137
ेयर	-9.24184
▁60	-9.24401
▁लगाए	-9.24854
सपा	-9.25248
▁देवी	-9.25274
▁मौका	-9.25453
▁फै	-9.25482
शनल	-9.2558
▁हिंद	-9.25754
था	-9.25847
▁जानत	-9.25999
▁हल	-9.26241
▁अच	-9.26248
बुक	-9.26263
▁उठ	-9.26316
▁मिश्र	-9.26429
▁फ्र	-9.26452
▁फैसल	-9.26486
▁सौ	-9.2678
R	-9.26795
ंद्र	-9.2695
▁ओम	-9.26978
ग्री	-9.26984
ंगा	-9.27013
खंड	-9.27079
अप	-9.27259
▁चली	-9.27434
▁संचाल	-9.27462
22	-9.27734
एमसी	-9.27899
U	-9.27969
y	-9.27969
▁आंदोलन	-9.27969
▁झारखंड	-9.27969
▁दरअसल	-9.27969
▁परिणाम	-9.27969
▁बच्‍च	-9.27969
▁चौधरी	-9.27969
▁लक्ष्य	-9.27969
▁स्पष्ट	-9.27969
▁मारपीट	-9.27969
▁अभिनेत्री	-9.27969
▁अदालत	-9.2797
▁तलाश	-9.2797
▁सौंप	-9.2797
▁थोड़	-9.27973
▁निभा	-9.27975
on	-9.27988
▁तकनीक	-9.27989
▁खुलासा	-9.27997
▁रूस	-9.27997
n	-9.28
▁पुरस्कार	-9.28002
▁कैमर	-9.28008
▁होटल	-9.28015
▁मार्ग	-9.28016
▁अकाउंट	-9.28017
▁चंद्र	-9.28018
▁वित्त	-9.28023
▁चढ़	-9.28103
▁आवश्यकता	-9.28131
प्ले	-9.28143
▁सैनिक	-9.28146
टेन	-9.28206
▁पर्यटक	-9.28222
श्त	-9.28294
▁कीमत	-9.2832
▁चिंता	-9.2834
80	-9.28348
र्च	-9.28449
फॉर्म	-9.28458
ेगी	-9.28484
▁शक्ति	-9.28545
▁ताप	-9.28568
राह	-9.28701
▁पड़ता	-9.28827
▁गर्म	-9.28887
▁खंड	-9.29365
▁बाग	-9.29528
▁दिला	-9.29605
▁ख़	-9.29944
▁वीर	-9.29951
▁नया	-9.29985
▁एड	-9.30072
▁बै	-9.3012
ॉट	-9.30135
▁चि	-9.30558
▁वोट	-9.3092
ुत	-9.31135
ंटर	-9.3128
▁रोल	-9.31322
▁श्र	-9.31455
दो	-9.31536
▁डिज	-9.31763
र्ष	-9.31851
▁कराई	-9.31852
▁डिस्	-9.31987
▁ब्रि	-9.32031
▁चौ	-9.32845
ाइज	-9.32956
ः	-9.32975
यन	-9.33147
स्म	-9.33579
▁मजदूर	-9.33704
▁गरीब	-9.33704
|	-9.33954
▁दम	-9.33955
कोर्ट	-9.34054
▁जिसमे	-9.34155
साथ	-9.34202
केश	-9.34741
▁पोस्ट	-9.34756
क्क	-9.34878
F	-9.34921
▁प्रशिक्ष	-9.35111
▁शीघ्र	-9.35111
w	-9.35112
▁अक्टूबर	-9.35112
▁अतिरिक्	-9.35112
▁इंस्पेक्टर	-9.35112
▁गतिविधिय	-9.35112
▁बदमाश	-9.35112
▁माध्यम	-9.35112
▁सामाजिक	-9.35112
▁अफसर	-9.35112
▁आबादी	-9.35112
▁जुलाई	-9.35112
▁मधु	-9.35113
▁सूर्य	-9.35115
▁विकेट	-9.35115
▁आंख	-9.35117
▁सलमान	-9.35117
▁सलाह	-9.35118
▁अपील	-9.35122
▁हालात	-9.35134
▁महत्व	-9.35137
ध्यक्ष	-9.35139
▁नीच	-9.3514
▁उच्च	-9.35147
▁सफल	-9.35148
▁फैल	-9.35149
▁सब्ज	-9.3515
▁मूल्य	-9.35174
ानक	-9.35187
फल	-9.35197
▁साझ	-9.35218
▁26	-9.35252
▁मालिक	-9.35297
▁बिल	-9.353
▁देंगे	-9.35305
▁निर्ध	-9.3534
▁सिद्ध	-9.35352
▁तुल	-9.35365
▁जाएंगे	-9.35393
▁आता	-9.35474
क्कर	-9.35549
ड़े	-9.35556
ंबर	-9.35646
ीश	-9.35674
शाल	-9.35696
▁एंड	-9.35709
ब्ब	-9.35976
▁माता	-9.35981
▁इंटरने	-9.36006
▁डॉक्टरों	-9.36111
ैक्ट	-9.36119
ाप्त	-9.36346
▁घट	-9.36369
▁गाड़	-9.36473
ल्ड	-9.36591
रोध	-9.36731
वाई	-9.36815
▁न्यूज	-9.36832
▁ऐ	-9.37278
ेशा	-9.37387
▁क्व	-9.37566
र्न	-9.37642
▁जुटा	-9.37722
▁गल	-9.37873
गठ	-9.38153
िटर	-9.38227
निया	-9.38268
▁1.	-9.38417
▁मना	-9.3857
▁फरा	-9.3873
ारित	-9.38828
▁नाग	-9.38888
मिन	-9.39275
▁चीनी	-9.39405
▁उर्	-9.39484
▁जिल	-9.39569
▁प्रवक्	-9.39598
▁ताल	-9.39889
▁अस	-9.39935
▁वर्षों	-9.4001
ाभ	-9.4009
वीर	-9.40095
ाइड	-9.40234
▁आखिर	-9.40576
▁पल	-9.40779
▁सुनी	-9.40806
r	-9.4091
▁सभा	-9.41184
▁रखी	-9.41293
▁न्यू	-9.41331
▁सुरक्ष	-9.41333
▁नाल	-9.41333
▁पत	-9.41362
ीकरण	-9.41525
पोर्ट	-9.41623
M	-9.41651
ंडा	-9.41668
▁परमा	-9.41738
▁गईं	-9.41931
▁चम	-9.42022
▁वितर	-9.42181
▁इंटर	-9.42375
तक	-9.42414
▁अंक	-9.42743
g	-9.42763
धिकारि	-9.42768
▁अहम	-9.42774
ज्ञ	-9.42775
▁अप्रैल	-9.42804
▁इतिहास	-9.42804
▁ऊर्जा	-9.42804
▁पेट्रोल	-9.42804
▁प्रक्रिया	-9.42804
▁शुक्ला	-9.42804
▁जम्मू	-9.42804
▁ढा	-9.42804
▁मार्केट	-9.42804
▁मुश्किल	-9.42804
▁स्वर्ण	-9.42804
▁तिवारी	-9.42804
▁ग्रुप	-9.42804
▁पुष्ट	-9.42804
▁राजधानी	-9.42806
in	-9.42807
▁विद्यार्थ	-9.42808
▁नागरिक	-9.42813
ियस	-9.42828
▁नवीन	-9.42841
▁धारा	-9.42846
▁सुधार	-9.42862
▁ऑफिस	-9.4287
▁महंगा	-9.42881
▁नाराज	-9.42915
▁रोशन	-9.42948
▁पैसे	-9.42957
▁फंस	-9.43
▁ओवर	-9.43009
ण्ड	-9.43026
▁पृष्ठ	-9.43038
▁डीएम	-9.43042
▁सुख	-9.4311
▁प्रयोग	-9.43143
रोजगार	-9.43151
▁सीध	-9.43151
▁प्रबंध	-9.43152
पन्न	-9.43169
▁जनप	-9.43202
▁अर्ज	-9.43264
▁आय	-9.43312
▁500	-9.43345
▁निरीक्षक	-9.43345
▁तमा	-9.43535
▁हटान	-9.43548
▁बिल्	-9.43608
▁टाइ	-9.43646
▁लड़ा	-9.43746
र्डर	-9.43751
▁सिटी	-9.43883
▁मानस	-9.43899
▁पढ़ा	-9.43913
▁|	-9.44069
▁स्थल	-9.44113
▁लीग	-9.44233
त्त	-9.44258
▁प्रवास	-9.44313
ूट	-9.44321
▁मजदूरों	-9.44347
▁बेल	-9.44419
▁पैर	-9.44635
एच	-9.44901
।'	-9.44909
▁सपन	-9.44956
▁S	-9.4501
गण	-9.45515
▁ट्व	-9.45609
करण	-9.45678
▁भीड़	-9.45707
▁फे	-9.45878
▁रहता	-9.45938
मारी	-9.46033
रिक	-9.46047
▁मंत्र	-9.46097
▁कहानी	-9.46267
ेंज	-9.46335
ग्रह	-9.46598
d	-9.46791
मर	-9.47103
ाइन	-9.47162
▁साव	-9.47228
पति	-9.47346
▁हिस	-9.47451
वती	-9.47908
ाही	-9.4825
er	-9.48442
▁बुर	-9.48571
▁रोहि	-9.48721
व्य	-9.48837
ियत	-9.49073
टीव	-9.49182
वर्त	-9.49309
▁सोना	-9.49403
▁खेत	-9.49672
हम	-9.49852
G	-9.49959
गांव	-9.50027
▁मृत	-9.50162
▁अप	-9.50209
▁खो	-9.50517
▁लेना	-9.50596
र्त	-9.50789
दिन	-9.50792
▁सहाय	-9.50867
▁विल	-9.51109
▁प्राथमिक	-9.51137
▁इच्छ	-9.51137
▁इस्लाम	-9.51137
▁कर्नाटक	-9.51137
▁गेहूं	-9.51137
▁चंडीगढ़	-9.51137
▁चेयरमैन	-9.51137
▁प्रत्येक	-9.51137
▁फिलहाल	-9.51137
▁वायरल	-9.51137
▁सक्रिय	-9.51137
▁हफ्त	-9.51137
▁अग्रवाल	-9.51137
▁सिन्हा	-9.51137
▁खुश	-9.51138
▁खूब	-9.51139
▁घुस	-9.51139
▁दिशा	-9.5114
▁युद्ध	-9.5114
▁शासन	-9.51141
▁शिविर	-9.51142
▁दर्शन	-9.51143
▁स्क	-9.51149
▁घूम	-9.51165
▁गोपाल	-9.51181
▁45	-9.51187
▁चक्कर	-9.51192
▁संगीत	-9.51198
▁जग	-9.51211
▁अकेल	-9.51219
जागरण	-9.51229
▁शेर	-9.51234
▁नै	-9.51239
▁चरण	-9.51246
▁जानिए	-9.51264
▁दर्द	-9.51265
▁दोबार	-9.51274
▁पेड़	-9.51277
▁उठाया	-9.51287
▁पुलिसकर्म	-9.51297
बार	-9.51305
▁कैंप	-9.51308
▁शाय	-9.51317
▁अरब	-9.51319
▁तस्वीरें	-9.51322
थित	-9.51356
▁मिलेगी	-9.51368
▁महिलाएं	-9.51384
▁लक्ष्म	-9.51393
▁व्याप	-9.514
ावट	-9.51416
▁सहायता	-9.51417
ानंद	-9.5142
▁J	-9.51421
▁मगर	-9.51422
▁चौक	-9.51443
मेश	-9.51456
▁पोल	-9.51509
▁रखते	-9.51514
▁चुना	-9.51689
▁अर	-9.51822
▁स्थ	-9.51895
▁कौन	-9.51918
▁सीसी	-9.51973
▁समर्थक	-9.52017
िविल	-9.52107
▁ड्र	-9.52219
▁कक्षा	-9.5233
▁मृतक	-9.52338
30	-9.52383
▁दू	-9.52495
तु	-9.52496
▁किशोरी	-9.52801
ऊ	-9.53055
ंदा	-9.53104
▁चले	-9.53142
▁पदाधिकारी	-9.53227
क्ति	-9.53262
▁सुर	-9.53278
▁P	-9.53526
न्ना	-9.53695
▁दस	-9.53833
▁गर्	-9.53885
णु	-9.54006
पन	-9.5403
▁परिस	-9.54445
▁छात्रा	-9.54462
▁4.	-9.54488
▁कहां	-9.5463
▁आकर	-9.54823
▁तोड़	-9.5493
▁अच्छ	-9.55048
▁वर्	-9.55322
▁चाहत	-9.55752
▁जोन	-9.56078
िंदा	-9.56143
▁संज	-9.56414
10	-9.56416
कर्म	-9.56495
त्मा	-9.56532
ुन	-9.56658
खा	-9.56799
ड्ड	-9.57207
re	-9.57342
▁बह	-9.57692
▁कैं	-9.57729
▁फा	-9.57926
▁पदाधिकार	-9.58021
मुदाय	-9.58188
▁सोने	-9.58369
▁गोल	-9.58506
चंद	-9.58587
▁शर	-9.58587
▁अपर	-9.58616
▁जिन्ह	-9.58758
▁व्यक्त	-9.58875
लेज	-9.58919
गार	-9.59096
घाट	-9.5911
मैं	-9.59114
▁रु	-9.59121
▁धर	-9.59245
स्त्र	-9.59397
ra	-9.5957
▁एक्ट	-9.59745
ौन	-9.59885
गति	-9.59919
▁फॉ	-9.59958
▁अवध	-9.59967
वाड़	-9.60061
ेक्शन	-9.60116
कृति	-9.60157
▁रखें	-9.60162
▁न्याय	-9.60224
b	-9.60228
K	-9.60228
व्यवहार	-9.60228
॰	-9.60228
▁अधीक्षक	-9.60228
▁ऑस्ट्रेलिया	-9.60228
▁औद्योगिक	-9.60228
▁क्षमता	-9.60228
▁खूबसूरत	-9.60228
▁न्यायाधी	-9.60228
▁मजबूर	-9.60228
▁लॉन्च	-9.60228
▁विकसित	-9.60228
▁श्रद्धांजलि	-9.60228
▁स्टूडेंट	-9.60228
▁हथियार	-9.60228
▁नामांकन	-9.60228
▁धनबाद	-9.60228
▁मुलाकात	-9.60228
▁ऊंच	-9.60228
▁सामग्री	-9.60228
▁सख्त	-9.60228
▁श्रमिक	-9.60229
▁उपाध्यक्ष	-9.60229
▁भरोसा	-9.60229
▁तरीके	-9.60229
▁चुनौती	-9.6023
▁01	-9.60231
▁स्वयं	-9.60231
▁मोहन	-9.60237
▁सकेंगे	-9.60238
▁ओपन	-9.60243
▁फर्जी	-9.60248
▁सीबीआ	-9.60249
▁मंडी	-9.6025
▁समाप्त	-9.60251
▁मशीन	-9.60252
▁प्रसार	-9.60279
▁स्वामी	-9.60289
▁गर्भ	-9.60291
▁चेक	-9.60293
▁पदार्थ	-9.60296
▁रुप	-9.60298
▁पहलवान	-9.60299
▁दूध	-9.603
al	-9.60306
▁रजिस्ट्र	-9.6032
▁पड़ेगा	-9.6032
▁नकद	-9.60331
▁प्रेम	-9.60343
▁सेल्स	-9.60349
▁लड़की	-9.60368
▁अनुमान	-9.60376
▁गिरफ्तारी	-9.60398
▁जब्त	-9.6041
▁सहमत	-9.60414
▁बांट	-9.60426
▁संदेश	-9.60466
▁31	-9.60475
▁रहेंगे	-9.60481
▁लहर	-9.60503
▁पात्र	-9.60506
▁वार्ता	-9.60574
▁नियमित	-9.60619
▁सर्च	-9.60635
▁करवाया	-9.60644
शांत	-9.60656
▁कचर	-9.60755
त्ता	-9.60776
▁नियुक्त	-9.6088
▁आना	-9.61126
▁लॉ	-9.61486
स्वरूप	-9.61553
मल	-9.617
▁सम्म	-9.6176
▁नेशनल	-9.61821
▁R	-9.61833
▁बातें	-9.61857
▁पेट	-9.61936
▁लाय	-9.61981
▁एकत्र	-9.61982
▁क्रम	-9.62014
एल	-9.62111
▁C	-9.62329
ॉय	-9.62342
▁अंग	-9.62499
िजय	-9.62586
न्ह	-9.62631
▁खेती	-9.62693
▁आरोपित	-9.62699
▁मॉड	-9.62871
▁किये	-9.62895
लिंग	-9.62961
रास	-9.63011
▁क्रिकेटर	-9.63316
▁असल	-9.63393
▁होम	-9.63532
सेना	-9.63649
स्वस्थ	-9.63804
▁ओल	-9.64001
▁बौ	-9.64043
▁शार	-9.64503
▁ट्रे	-9.64726
▁जय	-9.65062
▁जोड़ी	-9.65455
▁2.	-9.65476
▁हु	-9.66207
शंक	-9.66658
इन	-9.66848
▁लै	-9.66986
तिक	-9.6705
▁विरा	-9.67233
▁90	-9.6769
नदी	-9.67828
▁सम्	-9.68027
▁युव	-9.68274
गो	-9.68318
ंगल	-9.68364
▁नय	-9.68442
▁रहीं	-9.68777
शिया	-9.68782
▁डॉक्टर	-9.68826
ैग	-9.69023
25	-9.691
पूर्व	-9.69109
सिंह	-9.69111
ाउंड	-9.69258
▁उपाय	-9.69643
मेर	-9.69763
▁जर	-9.69771
रात	-9.69865
▁बीमार	-9.69876
▁मूल	-9.70165
W	-9.70228
▁अध्यापक	-9.70228
▁दिक्कत	-9.70228
▁पाउडर	-9.70228
▁पुरुष	-9.70228
▁वेबसाइट	-9.70228
▁संतोष	-9.70228
▁एक्ट्रेस	-9.70228
▁दिग्गज	-9.70228
▁दुर्घटना	-9.70228
▁प्रियंका	-9.70228
▁विज्ञान	-9.70228
▁संबोधित	-9.70228
▁संस्कार	-9.70228
▁सुप्रीम	-9.70228
▁कैबिन	-9.70228
▁कॉलोनी	-9.70228
▁वायु	-9.70228
▁ऑक्स	-9.70228
▁आनंद	-9.70228
▁उन्‍ह	-9.70228
▁ठाकुर	-9.70228
▁पहाड़	-9.70228
▁इंग्ल	-9.70229
▁स्नान	-9.70229
▁लाइट	-9.70231
▁छावन	-9.70231
▁चैनल	-9.70231
▁मुंह	-9.70232
▁शांति	-9.70232
▁सिलसिल	-9.70232
▁फायद	-9.70234
▁चेहर	-9.70235
▁गंद	-9.70236
▁स्ट्र	-9.70236
▁नक्सलवाद	-9.70237
▁वर्ल्ड	-9.70239
▁आवास	-9.70241
वंश	-9.70243
▁नेहरू	-9.70243
▁जताई	-9.70244
▁संभाल	-9.70245
कल्याण	-9.70247
▁रिलीज	-9.70247
▁2014	-9.70249
▁नतीज	-9.7025
▁फायर	-9.70256
▁2017	-9.70257
▁टीकाकर	-9.70259
▁मिर्च	-9.7026
▁हायर	-9.70279
▁एशिया	-9.70282
▁मोर्च	-9.70285
▁कलाकार	-9.70288
▁ओपी	-9.70288
▁बनारस	-9.70298
▁राहत	-9.70299
▁बिगड़	-9.70303
▁सत्य	-9.7032
▁जिम	-9.70321
▁इंच	-9.7033
जिद	-9.70348
ार्मिक	-9.70364
▁सागर	-9.70377
▁धीर	-9.70384
▁बंगल	-9.70392
▁संवाद	-9.70418
▁अंदाज	-9.7042
▁जवान	-9.70443
▁उतर	-9.70458
▁स्टोर	-9.7052
▁अर्थ	-9.70532
▁गैर	-9.70543
▁खाते	-9.70545
▁निराश	-9.70613
निर्भर	-9.7064
▁चौथ	-9.70688
▁शेख	-9.70693
▁सेक्टर	-9.70773
▁बीसी	-9.70895
▁अभिनेत	-9.70936
जरी	-9.70938
रवरी	-9.70977
▁देखें	-9.70988
-20	-9.7099
77	-9.70994
काली	-9.71004
▁खाना	-9.71118
▁आईसी	-9.7112
▁जिलाधिकार	-9.71189
▁अदा	-9.71213
लिका	-9.71402
▁सौर	-9.71567
▁साइ	-9.71675
▁मुक्त	-9.7186
डर	-9.71889
▁इंद	-9.71892
वानी	-9.71893
.5	-9.72118
▁जुटे	-9.72235
वेद	-9.72237
▁सोच	-9.72337
▁फैला	-9.72585
▁प्रण	-9.72691
▁सीज	-9.7291
▁बद	-9.73166
▁मश	-9.73168
्वास	-9.73221
▁आखिरी	-9.73236
▁मुह	-9.73252
▁लेख	-9.73431
▁मुकाबला	-9.73798
▁मर	-9.73816
▁सिया	-9.73866
▁खड़ा	-9.73907
्वे	-9.74107
टेड	-9.74199
▁जाम	-9.74272
▁माय	-9.74285
ांश	-9.74296
▁पाई	-9.74302
▁पड़े	-9.74368
▁शिवान	-9.7452
▁गाने	-9.74626
▁कुश	-9.74703
▁उद्	-9.74805
सीओ	-9.74811
चना	-9.74842
▁कितन	-9.74987
▁पढ़े	-9.75101
▁सवार	-9.75981
मुख	-9.76007
▁टन	-9.76031
▁पीट	-9.76042
ड्र	-9.76458
न्द्र	-9.76538
वंत	-9.76742
▁...	-9.76897
▁हिमा	-9.77303
▁जुट	-9.77352
क्षा	-9.77362
▁समी	-9.77434
िरा	-9.7745
▁गान	-9.7748
45	-9.77645
गंगा	-9.77655
▁रखे	-9.77784
ट्वि	-9.77821
▁सुल	-9.7801
▁पैक	-9.78014
र्थि	-9.78032
▁सिंग	-9.78144
▁इला	-9.78393
▁बज	-9.78605
िकल	-9.78706
ak	-9.7899
▁किशोर	-9.79137
▁खिलाड़	-9.79206
▁कब्ज	-9.79764
▁पर्य	-9.79929
बंद	-9.7993
लीला	-9.80118
सचिव	-9.80206
भारत	-9.80231
फोन	-9.80232
टीएम	-9.80277
▁संस्था	-9.80454
शील	-9.80522
हिर	-9.80614
▁खिला	-9.8066
▁शुभ	-9.80687
ंतु	-9.80756
▁डीए	-9.80761
▁त्रि	-9.80772
तौर	-9.80969
ंस्कृति	-9.81048
▁आवश्यक	-9.81062
घर	-9.81087
लेख	-9.81101
ैनिक	-9.81201
च्च	-9.81213
त्व	-9.8122
ज्ज	-9.81244
▁मेह	-9.81323
०	-9.81339
▁ऋषि	-9.81339
▁एक्सप्रेस	-9.81339
▁डाउनलोड	-9.81339
▁तत्काल	-9.81339
▁तालिबान	-9.81339
▁पूंजी	-9.81339
▁बढ़ोतरी	-9.81339
▁मंजूर	-9.81339
▁मुस्लिम	-9.81339
▁वास्तव	-9.81339
▁शब्द	-9.81339
▁सिंधिया	-9.81339
▁स्टेडियम	-9.81339
▁2012	-9.81339
▁पब्लिक	-9.81339
▁मुफ्त	-9.81339
नारायण	-9.81339
▁खारिज	-9.81339
▁तारीख	-9.81339
▁ठिकान	-9.81339
▁विस्तार	-9.8134
▁फोर्स	-9.8134
▁वसूल	-9.8134
▁दुख	-9.8134
▁ट्रंप	-9.8134
▁जायेगा	-9.81341
▁आदमी	-9.81341
▁अनुभव	-9.81341
▁बनर्जी	-9.81341
▁निधन	-9.81342
▁ग्रहण	-9.81342
▁तहसील	-9.81343
▁इंटरव्यू	-9.81344
▁निर्वाच	-9.81344
▁पशु	-9.81344
▁बिक्री	-9.81344
▁आकर्ष	-9.81345
▁गौतम	-9.81346
▁ताकत	-9.81348
▁रक्तदान	-9.81348
▁तनाव	-9.8135
▁नौकरी	-9.81355
▁तुर	-9.81355
▁अखिलेश	-9.81357
ैंपल	-9.81359
▁डीसी	-9.81362
▁Re	-9.81363
▁2018	-9.81365
▁लंदन	-9.81365
▁खून	-9.81366
▁उद्योग	-9.81371
▁बगैर	-9.81373
▁एजेंसी	-9.81382
ad	-9.8139
▁कला	-9.81391
▁बाब	-9.81394
▁उधर	-9.81398
▁रावत	-9.81404
▁तुम	-9.81407
▁टूट	-9.81415
▁आपूर्ति	-9.81417
▁सुपर	-9.81441
▁दुष्	-9.81443
▁दुकानदार	-9.81444
▁शिकार	-9.81468
▁आदित्य	-9.81479
▁शोध	-9.81491
▁ठे	-9.81493
▁Ho	-9.81507
▁चिन्	-9.81542
▁गये	-9.81562
▁वैसे	-9.81608
▁मतदाता	-9.81609
▁कविता	-9.81613
▁ऐप	-9.81623
▁रूम	-9.81627
स्‍ट	-9.81642
▁सरदार	-9.8166
▁बैग	-9.81707
▁चै	-9.81724
▁गहर	-9.81751
▁लौटे	-9.81766
तिथि	-9.81831
▁V	-9.81832
ाधिकारी	-9.8189
▁शक	-9.81905
▁सम्मानित	-9.81916
▁मंच	-9.81929
▁देगा	-9.81963
▁मुला	-9.81964
▁हैरान	-9.81967
▁दिवा	-9.81997
▁मदर	-9.82005
रामद	-9.82068
▁गुण	-9.82075
▁सर्ज	-9.82138
▁श्रे	-9.82144
एसए	-9.82199
ेलन	-9.82212
▁अक्ष	-9.82224
▁भूमि	-9.82323
▁दलित	-9.8239
▁किनार	-9.82425
एक	-9.82507
ंकेत	-9.82517
▁फाइन	-9.82528
▁गेंदबाजी	-9.82528
ंकल	-9.82648
स्टिक	-9.82654
▁ऑफर	-9.82722
▁नकल	-9.82729
▁जयंती	-9.82817
▁मिलती	-9.82836
▁दत्त	-9.82868
▁G	-9.82955
क्सर	-9.82961
स्कर	-9.8308
बोध	-9.83228
रेखा	-9.8344
जनक	-9.8346
▁नाक	-9.83517
▁खाल	-9.836
▁बैल	-9.83612
▁गरीबों	-9.83659
ंका	-9.83663
बारी	-9.83759
▁27	-9.83805
▁कॉल	-9.83891
▁जंग	-9.84217
धुन	-9.84225
▁चौकी	-9.84501
मेल	-9.84592
▁चाहती	-9.84788
▁कहर	-9.84955
17	-9.85174
▁आती	-9.85218
पिक	-9.85261
▁चू	-9.85405
st	-9.85682
▁इन्ही	-9.85833
ट्री	-9.85844
▁बढ़ाने	-9.85875
ादी	-9.85877
▁जित	-9.86139
▁मतदा	-9.86183
्‍या	-9.86435
▁कोर्स	-9.86578
▁वैज्ञानिक	-9.86671
))	-9.86752
▁मल	-9.87063
▁दर्जन	-9.87218
हनत	-9.87431
▁परिच	-9.87518
▁खाद	-9.87675
▁वाद	-9.87735
▁कवि	-9.87856
दीप	-9.88024
डीजल	-9.88125
▁नाथ	-9.88187
▁खुला	-9.88269
▁बच्चन	-9.88347
▁रवि	-9.884
लाइ	-9.88738
▁आये	-9.88823
▁जाति	-9.8885
देन	-9.89496
▁यूनि	-9.9009
▁निर्	-9.90322
द्र	-9.90406
क्‍	-9.90432
िलीप	-9.90465
प्रिय	-9.9047
पुल	-9.90533
37	-9.90598
▁जहा	-9.90938
रूप	-9.9095
▁70	-9.91221
गाह	-9.91403
▁छोट	-9.91827
धर	-9.91856
▁शर्म	-9.92645
मूर्ति	-9.92652
भूमि	-9.92661
▁ड्यू	-9.92675
मुझ	-9.92715
प्रकाश	-9.9275
पीएम	-9.92806
सेज	-9.93049
97	-9.93072
▁जितन	-9.93087
भूष	-9.93244
▁अधि	-9.93324
▁पर्यट	-9.93646
▁कक्ष	-9.93714
हम्मद	-9.93803
▁स्मार्ट	-9.93833
▁हाउस	-9.93838
रफ्तार	-9.93839
३	-9.93839
▁कॉन्फ्रेंस	-9.93839
▁ज्योति	-9.93839
▁मेट्रो	-9.93839
▁इंडस्ट्री	-9.93839
▁इत्यादि	-9.93839
▁उल्लंघन	-9.93839
▁गैंग	-9.93839
▁ग्राहक	-9.93839
▁चेतावनी	-9.93839
▁नोएडा	-9.93839
▁प्रतियोगिता	-9.93839
▁फ़िल्म	-9.93839
▁बांग्लादेश	-9.93839
▁भुगतान	-9.93839
▁भ्रष्टाचार	-9.93839
▁महोत्सव	-9.93839
▁मुकदमा	-9.93839
▁लापरवाह	-9.93839
▁वारदात	-9.93839
▁विश्वविद्यालय	-9.93839
▁समारोह	-9.93839
▁अरविंद	-9.93839
▁चैंपियन	-9.93839
▁निर्माता	-9.93839
▁विजेता	-9.93839
▁संवाददाता	-9.93839
▁लक्षण	-9.9384
▁प्राधिक	-9.9384
▁मुखिया	-9.93841
ात्मक	-9.93841
▁इराक	-9.93841
▁ब्रांड	-9.93841
▁संरक्ष	-9.93841
▁चावल	-9.93842
▁दावेदार	-9.93842
▁सिस्टम	-9.93842
▁पर्यावर	-9.93843
▁पंडित	-9.93843
▁प्रत्याश	-9.93843
हादु	-9.93843
▁सॉन्	-9.93843
▁कार्यवाही	-9.93843
▁मनीष	-9.93844
▁हिस्से	-9.93844
▁अभ्यर्थ	-9.93845
र्वज	-9.93845
▁स्मार्टफोन	-9.93845
▁सक्षम	-9.93845
▁दायर	-9.93846
▁प्रचार	-9.93847
▁ड्रेस	-9.93848
▁वकील	-9.93848
▁परियोजना	-9.93848
▁निकाय	-9.93852
ec	-9.93856
▁कर्ण	-9.93858
▁आर्मी	-9.93858
▁ईश्वर	-9.9386
▁मुनाफ	-9.93862
▁डिफें	-9.93862
▁मिठा	-9.93863
▁छाप	-9.93865
▁गार्ड	-9.93873
▁प्रसिद्ध	-9.93873
▁फूल	-9.93874
ीआरपी	-9.93885
▁विधि	-9.93886
▁कमांड	-9.93892
▁एसएसपी	-9.93895
▁मुख्यालय	-9.93896
▁प्लांट	-9.93924
▁गाइड	-9.93929
▁जयपुर	-9.9393
▁छूट	-9.93934
▁वैक्सीनेशन	-9.93936
▁स्कोर	-9.93948
▁सानिया	-9.93952
▁फेंक	-9.93961
▁डांस	-9.93979
▁संकल्प	-9.93984
▁रचना	-9.93984
िटाई	-9.93985
▁शूट	-9.93986
▁हिंस	-9.93995
▁घेर	-9.94011
श्रेष्ठ	-9.94026
▁अमरीक	-9.94057
▁मेरठ	-9.94101
खेड़	-9.94105
▁कूद	-9.94112
▁उड़ान	-9.94121
▁44	-9.94148
▁रूपये	-9.94157
PF	-9.94184
▁51	-9.94187
▁फिट	-9.94202
▁बहस	-9.94255
▁कराए	-9.94272
▁योग्य	-9.94322
▁बर्	-9.94342
▁शरण	-9.94361
▁कर्ज	-9.94375
▁संभ	-9.94415
▁''	-9.94458
▁गहन	-9.94461
▁जंगल	-9.94482
▁किरदार	-9.94522
▁नेहा	-9.94532
▁दास	-9.94619
शासक	-9.94628
▁कपड़	-9.94657
▁अंतर्	-9.94731
ालय	-9.94907
▁चार्ज	-9.94908
▁अमन	-9.94947
▁मूर्ति	-9.95042
▁I	-9.95093
▁जला	-9.95191
▁होंगी	-9.95305
ुरु	-9.95324
रीफ	-9.9548
न्द	-9.95536
▁कठ	-9.95537
▁कौ	-9.95578
60	-9.95713
▁पोर्ट	-9.95848
▁सै	-9.95923
▁जिन्हे	-9.95934
पार्ट	-9.96004
▁कॉम	-9.96059
▁रहेगी	-9.9607
▁अभिन	-9.96074
▁टो	-9.96154
▁जाट	-9.96254
▁केरल	-9.96658
▁सिस	-9.96846
▁मिश्रा	-9.96923
▁कितने	-9.96983
वां	-9.97167
▁टोल	-9.97319
76	-9.97363
्रेंड	-9.97369
89	-9.97402
▁कब	-9.97439
▁गण	-9.97479
ैप	-9.97835
▁लीक	-9.97853
59	-9.97945
▁कंस	-9.97955
98	-9.97973
▁फि	-9.98098
▁राइ	-9.98196
▁साइन	-9.98208
▁बचत	-9.98234
्लू	-9.98413
राए	-9.98461
▁बतात	-9.98562
▁अर्	-9.98588
सारी	-9.98706
▁बजा	-9.9878
▁चप	-9.98933
▁लीड	-9.98957
▁निग	-9.99003
रीर	-9.99195
मेट	-9.99259
्‍स	-9.99275
▁मास	-9.99662
फेर	-9.99751
▁रोज	-9.99829
ुअ	-9.99874
▁बोला	-9.99899
▁चाक	-10.0009
▁पाट	-10.002
▁उड़	-10.0049
▁बाला	-10.0054
निस	-10.0106
ैंस	-10.0149
ब्ल	-10.0162
वाया	-10.0184
96	-10.0185
हाँ	-10.024
▁हिंदु	-10.0244
सब	-10.0279
▁33	-10.0297
▁भक्त	-10.0302
▁सीरिय	-10.0319
ir	-10.0347
बाजी	-10.0387
▁28	-10.0454
▁(1	-10.0486
▁घा	-10.0523
ूद	-10.0533
▁सका	-10.0546
▁स्टॉ	-10.057
▁प्रस्तुति	-10.0592
▁नीति	-10.0592
हूर	-10.0615
▁घंट	-10.0625
▁संपत्ति	-10.0643
▁दुर्ग	-10.0664
▁परिजन	-10.0689
सूचना	-10.07
चार्ज	-10.0719
रीब	-10.072
▁नियुक्ति	-10.0729
23	-10.0744
वर्ष	-10.0748
ट्रिक	-10.0757
▁चुन	-10.076
नीति	-10.0763
दर्श	-10.0778
ष्ठ	-10.0797
c	-10.0806
यंत्र	-10.081
ृष्ट	-10.0812
▁उल्लेख	-10.0812
j	-10.0812
व्हाट्सएप	-10.0812
—	-10.0812
▁अध्ययन	-10.0812
▁अफ्रीक	-10.0812
▁एसडीएम	-10.0812
▁गूगल	-10.0812
▁ग्वालियर	-10.0812
▁जुर्माना	-10.0812
▁ढेर	-10.0812
▁पंजीयन	-10.0812
▁परिवहन	-10.0812
▁प्रधानाचार्य	-10.0812
▁प्रारंभ	-10.0812
▁प्वाइंट	-10.0812
▁महानिदेशक	-10.0812
▁मुसलमान	-10.0812
▁म्यांमा	-10.0812
▁शौचालय	-10.0812
▁श्रद्धालु	-10.0812
▁श्रीवास्तव	-10.0812
▁हड़कंप	-10.0812
▁गैले	-10.0812
▁चौटाला	-10.0812
▁पहुँच	-10.0812
▁प्रतिक्रिया	-10.0812
▁प्रोजेक्ट	-10.0812
▁रिजर्व	-10.0812
▁हंगामा	-10.0812
▁कप्तान	-10.0813
▁क्राइम	-10.0813
▁पूछा	-10.0813
▁प्रावधान	-10.0813
▁प्लस	-10.0813
▁बिलासपुर	-10.0813
▁शहीद	-10.0813
▁अरुण	-10.0813
▁उजाला	-10.0813
▁पेंटिंग	-10.0813
▁ब्लॉक	-10.0813
▁बधाई	-10.0813
▁गोरख	-10.0813
▁आइए	-10.0813
▁सेल्फी	-10.0813
▁फ्रांस	-10.0813
▁द्वि	-10.0813
िफिके	-10.0813
▁कनेक्शन	-10.0813
▁विवेक	-10.0813
▁अतिक्रम	-10.0813
▁आवंट	-10.0813
▁जिंदग	-10.0813
▁शुरूआत	-10.0813
▁प्लेट	-10.0813
▁पायल	-10.0814
▁नाटक	-10.0814
▁जमानत	-10.0814
नेटाइज	-10.0814
▁सिलेंडर	-10.0814
▁कारखान	-10.0814
▁रजत	-10.0814
▁कीजिए	-10.0814
▁सावधान	-10.0815
स्‍थ	-10.0815
▁आलोच	-10.0815
पीड़न	-10.0815
▁माइक	-10.0815
▁झटक	-10.0815
▁नियंत्र	-10.0816
▁फार्म	-10.0816
▁चांद	-10.0816
har	-10.0817
▁दिव्यांग	-10.0817
▁ट्रैक	-10.0817
▁अर्पित	-10.0817
▁वेतन	-10.0817
▁प्रोग्राम	-10.0818
▁गोल्ड	-10.0818
▁उतार	-10.0819
▁एंटी	-10.0819
▁विक्रम	-10.0819
▁बीएसए	-10.0819
▁इस्तीफ	-10.082
▁प्रश्न	-10.0821
▁सदन	-10.0823
▁उत्साह	-10.0823
सुझा	-10.0825
▁यूजर	-10.0825
▁सकेगा	-10.0825
एफआई	-10.0827
▁उत्सव	-10.0828
श्‍व	-10.0828
▁रिहा	-10.083
▁स्वीकृत	-10.0831
▁साधन	-10.0833
्‌	-10.0834
डिंग	-10.0835
▁66	-10.0836
▁छाया	-10.0839
इंस्टी	-10.0839
▁आमदन	-10.0839
▁पार्टिय	-10.0839
▁महाराज	-10.084
▁शुल्क	-10.0841
▁प्रतिबंध	-10.0842
▁हवाला	-10.0843
▁बीबी	-10.0843
▁पुत	-10.0847
द्दीन	-10.085
▁संस्कृति	-10.0852
▁टाट	-10.0852
▁यौ	-10.0852
▁निरा	-10.0852
▁मेहता	-10.0852
डीपी	-10.0855
▁नारे	-10.0857
एक्शन	-10.0858
▁आईटी	-10.0859
▁अंकित	-10.0863
▁टकरा	-10.087
▁टैग	-10.087
▁पौध	-10.0877
▁गौरव	-10.088
खला	-10.0882
▁रवान	-10.0884
▁पोस्टम	-10.0887
ात्रि	-10.0894
▁त्रिप	-10.0899
ck	-10.0899
▁खरीदार	-10.0913
▁रवी	-10.0927
▁संस्थान	-10.093
ाठी	-10.0932
▁लेट	-10.0933
▁विशेषज्ञों	-10.0937
▁पॉ	-10.094
धारण	-10.0942
▁इल	-10.0943
▁पथ	-10.0946
हान	-10.0952
▁दुर्गा	-10.0974
ल्ली	-10.0983
▁रखना	-10.0986
ोदय	-10.1007
कारो	-10.1012
18	-10.1017
▁कब्जा	-10.1022
▁रुक	-10.1034
एसएस	-10.1045
▁श्रीम	-10.1055
▁पीटा	-10.107
▁चाल	-10.1083
▁मिलते	-10.1089
▁बग	-10.1089
▁नाका	-10.1091
पंप	-10.1091
▁गन्न	-10.1101
▁गुहा	-10.1107
▁आईं	-10.1108
▁नंद	-10.1108
▁सकी	-10.111
▁N	-10.1121
▁धान	-10.1142
्रेशर	-10.1172
पूर	-10.1187
कथा	-10.1211
घात	-10.1212
शीर्	-10.1214
▁सिम	-10.1219
हकीक	-10.1247
ँच	-10.1262
▁मिस	-10.1265
तः	-10.1271
▁मानत	-10.131
लेव	-10.1317
▁एक्सप	-10.1326
▁रेप	-10.1326
▁यून	-10.1339
क्रम	-10.1342
रदार	-10.1371
▁प्रतिमा	-10.141
ैन्य	-10.1461
ाइय	-10.147
वासियों	-10.1489
nd	-10.1499
▁उठाए	-10.1507
▁मज	-10.1534
▁डीज	-10.1541
▁फट	-10.1548
▁राजस्	-10.1586
बॉल	-10.1606
04	-10.1615
▁बिक	-10.1622
नरेश	-10.1666
िहार	-10.1705
लील	-10.1783
ब्र	-10.18
प्रीत	-10.1808
64	-10.183
रियल	-10.1832
▁बाज	-10.1839
बिट	-10.189
55	-10.1898
14	-10.1902
▁32	-10.1912
श्वर	-10.1933
इजर	-10.1984
▁आश्व	-10.1984
रंजन	-10.1997
▁दिय	-10.2009
▁रिज	-10.2046
▁सकें	-10.2053
me	-10.2065
han	-10.2075
मऊ	-10.209
▁रहत	-10.213
11	-10.2153
▁फल	-10.2159
मंत्र	-10.2168
▁तीस	-10.2189
चाय	-10.2212
▁मिश	-10.2257
▁जयंत	-10.2263
एसटी	-10.2267
़त	-10.2287
है	-10.2287
▁हट	-10.2333
▁विशेषज्ञ	-10.2339
J	-10.2364
बहन	-10.2371
पुत्र	-10.2376
पिता	-10.2381
्रेटर	-10.2382
ार्टम	-10.2399
राज्य	-10.241
▁निरीक्ष	-10.2431
▁बहु	-10.2431
▁जागरूक	-10.2449
▁आयु	-10.2456
▁दुर्	-10.2466
▁विभा	-10.247
▁अखिल	-10.2476
▁उपभोक्ता	-10.2479
▁दिल्‍ली	-10.2479
▁यमुना	-10.2479
>	-10.2479
स्पर्धा	-10.2479
१	-10.2479
७	-10.2479
▁अल्पसंख्यक	-10.2479
▁आक्रोश	-10.2479
▁इकाइय	-10.2479
▁उद्देश्य	-10.2479
▁कमिश्नर	-10.2479
▁ज्ञापन	-10.2479
▁ठेकेदार	-10.2479
▁तूफान	-10.2479
▁पश्चात	-10.2479
▁प्रशंसक	-10.2479
▁प्राप्‍त	-10.2479
▁फ्लाइट	-10.2479
▁बुजुर्ग	-10.2479
▁मैनेजमेंट	-10.2479
▁रिश्तेदार	-10.2479
▁लखीमपुर	-10.2479
▁लाइसेंस	-10.2479
▁लिंक	-10.2479
▁लिमिटेड	-10.2479
▁वाराणसी	-10.2479
▁विधेयक	-10.2479
▁संदिग्ध	-10.2479
▁संसाधन	-10.2479
▁सप्लाई	-10.2479
▁ससुराल	-10.2479
▁स्पेशल	-10.2479
▁हेल्थ	-10.2479
अभिभावकों	-10.2479
लिफ्ट	-10.2479
▁2013	-10.2479
▁इमरान	-10.2479
▁एकजुट	-10.2479
▁डिवाइस	-10.2479
▁पेयजल	-10.2479
▁रत्न	-10.2479
▁रिकार्ड	-10.2479
▁संन्यास	-10.2479
▁छापेमारी	-10.2479
▁श्रीलंका	-10.2479
▁कोलकाता	-10.2479
▁हादसा	-10.2479
ुग्ग	-10.2479
▁आपत्ति	-10.2479
▁डेस्क	-10.2479
▁दुबे	-10.2479
▁परंपरा	-10.2479
▁पार्षद	-10.2479
हनुमान	-10.2479
▁निर्यात	-10.2479
▁अंसारी	-10.2479
▁साजिश	-10.2479
▁जूझ	-10.2479
▁जहरील	-10.2479
▁निदेशक	-10.2479
▁बुद्धि	-10.2479
▁शत्रु	-10.2479
▁कॉन्ट	-10.2479
▁दौड़	-10.2479
▁ड्राइव	-10.2479
▁जोधपुर	-10.2479
▁अमृत	-10.2479
▁धमकी	-10.2479
वृत्त	-10.2479
▁प्रिंस	-10.2479
▁शख्स	-10.2479
▁स्टील	-10.2479
▁नृत्य	-10.2479
▁आउट	-10.2479
▁कंटेन	-10.2479
▁नाइट	-10.2479
▁श्याम	-10.2479
▁डोज	-10.2479
▁डिमरी	-10.2479
बेडकर	-10.2479
▁बराबर	-10.2479
▁संयोज	-10.2479
▁सिनेमा	-10.248
▁इंस्टा	-10.248
▁भागीदार	-10.248
▁पुनर	-10.248
▁लापता	-10.248
▁हल्द	-10.248
▁अल्प	-10.248
▁तमिल	-10.248
ब्यूरो	-10.248
▁भिड़	-10.248
▁वनडे	-10.248
▁बाधा	-10.248
▁जैन	-10.248
▁प्रतीक	-10.248
▁नायक	-10.248
▁तलाक	-10.248
▁ईरान	-10.248
▁कामयाब	-10.248
▁बबु	-10.2481
▁दशक	-10.2481
पिछल	-10.2481
▁अहमदाबाद	-10.2481
शियल	-10.2481
▁चुरा	-10.2481
▁PM	-10.2481
▁निर्मल	-10.2481
▁एजेंसिय	-10.2481
▁घातक	-10.2481
▁जापान	-10.2482
▁कामकाज	-10.2482
▁2016	-10.2482
▁काउंसिल	-10.2483
▁2011	-10.2483
▁रजनी	-10.2483
▁ग्रेड	-10.2483
▁ठाक	-10.2483
▁ख़बर	-10.2485
▁लाठी	-10.2485
▁खुफ	-10.2486
▁सितार	-10.2487
ेमडे	-10.2489
so	-10.2489
▁अपमान	-10.2489
ष्‍	-10.249
▁सराहन	-10.249
▁डबल	-10.249
▁सिखा	-10.2491
▁बहाल	-10.2492
्पण	-10.2492
▁2020	-10.2492
▁हर्ष	-10.2493
तंत्र	-10.2493
▁नजार	-10.2493
▁बांध	-10.2494
▁फैंस	-10.2494
▁शीत	-10.2495
▁तस्कर	-10.2495
▁पैसा	-10.2495
▁पाएंगे	-10.2497
▁2008	-10.2497
▁मित्र	-10.2498
▁दाग	-10.2498
साइकिल	-10.2499
▁पर्व	-10.25
▁आरपी	-10.25
▁नैनी	-10.2501
▁राजेश	-10.2502
▁मिथ	-10.2502
▁झंड	-10.2503
▁छीन	-10.2504
▁रायपुर	-10.2504
मुन	-10.2505
▁फुल	-10.2506
▁अमीर	-10.2506
▁आएगा	-10.2506
▁क्रमश	-10.2507
▁दिखाया	-10.2508
▁इजाज	-10.2508
▁पंजीक	-10.2509
नौत	-10.2511
▁चलेगा	-10.2511
▁रसोई	-10.2513
श्न	-10.2513
▁सलीम	-10.2515
▁पौ	-10.2518
स्थल	-10.2519
▁बर्फ	-10.2524
▁सहकार	-10.2524
▁सिल	-10.2524
▁स्क्र	-10.2524
▁क्लास	-10.2524
▁खोज	-10.2525
▁पहुंचाया	-10.2526
▁48	-10.2527
▁इश्	-10.253
▁आएगी	-10.2531
्यूट	-10.2532
▁फंड	-10.2534
▁प्रताप	-10.2536
कड़	-10.2538
▁कराएं	-10.2538
ौती	-10.2539
▁करेंगी	-10.2539
▁पैग	-10.2541
ोत्त	-10.2544
▁लोह	-10.2544
▁स्वास्	-10.2546
▁सेवाओं	-10.2547
सुन	-10.2548
▁वर्च	-10.2556
जेपी	-10.2559
▁बेस	-10.2561
▁एंब	-10.2564
▁दस्त	-10.2564
▁शीट	-10.2565
ुकेश	-10.2565
▁चिप	-10.2566
▁पावर	-10.2568
▁कुर्	-10.2568
▁असम	-10.2569
▁शुभम	-10.2581
▁हुक	-10.2591
▁सफर	-10.2593
▁आर्ट	-10.2595
▁व्‍य	-10.2597
▁वेस्ट	-10.2597
▁दोष	-10.2601
म्भ	-10.2603
▁पाती	-10.2603
▁सेंसे	-10.2609
शेष	-10.261
▁संचालक	-10.2614
ूबर	-10.262
ुराग	-10.262
▁करेगी	-10.2626
▁पंक	-10.2632
▁हब	-10.2644
▁अवस्थ	-10.266
1990	-10.2662
सिटी	-10.2685
▁नर्स	-10.2696
▁संपत्तिय	-10.2697
87	-10.2699
▁बिग	-10.2701
▁कैद	-10.275
िमला	-10.2763
सून	-10.2777
िखर	-10.2805
वाएं	-10.2843
ाहिद	-10.2846
▁बाड़	-10.2871
▁सौद	-10.2875
▁सामु	-10.2881
ाइप	-10.2889
▁उत्त	-10.2893
राफे	-10.2911
▁अनुस	-10.2913
▁टिक	-10.2937
▁बया	-10.2953
▁जज	-10.2977
56	-10.2991
▁फिल	-10.2992
वेयर	-10.3033
मदन	-10.3041
▁इनाम	-10.3058
▁36	-10.3088
4)	-10.3133
▁कॉप	-10.3145
▁आदिवास	-10.3169
▁रेड	-10.3231
▁मंत्रि	-10.3238
ानू	-10.3281
वक्ता	-10.3286
विदा	-10.3305
70	-10.3322
▁रिक्	-10.334
▁हेम	-10.3472
67	-10.3541
▁अंतरि	-10.3578
▁खाक	-10.3602
ंदन	-10.3653
ड़िया	-10.3677
▁प्रां	-10.3698
is	-10.3741
▁सन्	-10.3793
बिश	-10.3808
en	-10.3853
▁कैप	-10.3975
▁42	-10.4089
▁बीमारिय	-10.4106
धिकारी	-10.4156
ड्यूल	-10.4194
ट्टा	-10.4222
सिल	-10.4251
▁गेंदबाज	-10.4263
सिवि	-10.43
▁इंडिय	-10.4333
k	-10.4351
▁फीस	-10.4352
▁दिखाए	-10.4355
ऐ	-10.4364
विश्वास	-10.4364
संघ	-10.4365
व्यवस्था	-10.4367
कुमार	-10.4367
बाजार	-10.4367
दूसर	-10.4368
जगह	-10.4368
हत्या	-10.438
दुनिया	-10.4383
35	-10.4392
16	-10.44
्रस्त	-10.4417
निधि	-10.4425
▁गौ	-10.444
दित्य	-10.4454
मूह	-10.4457
जिस्ट्रे	-10.4462
काउंट	-10.4464
▁निपट	-10.4472
शिल्प	-10.4478
द्घ	-10.4478
;	-10.4479
▁ट्रिब्य	-10.4479
v	-10.4479
x	-10.4479
जेएनएन	-10.4479
५	-10.4479
▁आइपीए	-10.4479
▁उपचुनाव	-10.4479
▁एग्जाम	-10.4479
▁एजुकेशन	-10.4479
▁औसत	-10.4479
▁गुरुद्वार	-10.4479
▁घोटाल	-10.4479
▁जबरदस्त	-10.4479
▁ज्वैलर	-10.4479
▁टूर्नामेंट	-10.4479
▁ढूंढ	-10.4479
▁तबादला	-10.4479
▁दस्तावेज	-10.4479
▁दिलचस्प	-10.4479
▁दीपावली	-10.4479
▁निरंतर	-10.4479
▁पांडेय	-10.4479
▁पुष्प	-10.4479
▁फ्लैट	-10.4479
▁महत्वाकांक्ष	-10.4479
▁मानवाधिकार	-10.4479
▁मुरादाबाद	-10.4479
▁लिहाज	-10.4479
▁विक्रेता	-10.4479
▁संज्ञान	-10.4479
▁संदर्भ	-10.4479
▁समन्वय	-10.4479
▁समुद्र	-10.4479
▁सिफारिश	-10.4479
▁सेवानिवृत्त	-10.4479
▁स्वच्छ	-10.4479
▁08:	-10.4479
▁उजागर	-10.4479
▁पुस्तक	-10.4479
▁प्रौद्योगिक	-10.4479
▁माइक्रो	-10.4479
▁शिफ्ट	-10.4479
प्रत्यक्ष	-10.4479
▁2015	-10.4479
▁चोपड़ा	-10.4479
▁दुश्	-10.4479
▁नक्श	-10.4479
▁प्रयागराज	-10.4479
▁सुपरस्टार	-10.4479
डब्ल्यू	-10.4479
▁उन्नाव	-10.4479
▁धोखा	-10.4479
▁पथराव	-10.4479
▁म्यूजि	-10.4479
▁रिटायर	-10.4479
▁स्पेस	-10.4479
▁दृष्टि	-10.4479
▁रोहतक	-10.4479
▁सुंदर	-10.4479
▁गुर्जर	-10.4479
▁युग	-10.4479
▁छात्रावास	-10.4479
आरजेडी	-10.4479
▁ज्ञान	-10.4479
▁मुकदमे	-10.4479
▁दुआ	-10.4479
▁साहित्य	-10.4479
▁इराद	-10.4479
इंद्रजीत	-10.4479
▁स्पोर्ट	-10.4479
▁कार्यभार	-10.4479
▁ब्रांच	-10.4479
▁खुरा	-10.4479
▁प्रेरणा	-10.4479
▁लम्ब	-10.4479
आईपीएल	-10.4479
▁ऐलान	-10.4479
▁दंडाधिकार	-10.4479
▁मराठ	-10.4479
▁अटकल	-10.4479
▁स्थिर	-10.4479
▁छुप	-10.448
▁तुर्क	-10.448
▁सूजन	-10.448
▁गंवा	-10.448
▁धूप	-10.448
▁लाइव	-10.448
▁काउंटर	-10.448
▁ठंड	-10.448
▁अंजा	-10.448
▁संचय	-10.448
▁संचार	-10.448
▁अज्ञा	-10.448
▁राठौ	-10.448
▁जबलपुर	-10.448
▁अंचल	-10.448
▁सतर्क	-10.448
▁गमेती	-10.448
▁फीचर	-10.448
मिंट	-10.448
▁फेस्टिव	-10.448
▁आमिर	-10.448
▁मॉल	-10.448
▁डूब	-10.448
▁प्रसन्न	-10.448
▁विद्य	-10.448
▁मस्	-10.448
▁बैनर	-10.448
▁लाभदायक	-10.448
▁समझौत	-10.448
▁मल्टी	-10.4481
▁आर्टिस्ट	-10.4481
▁गड़बड	-10.4481
▁ट्रांसफर	-10.4481
।’’	-10.4481
▁शिल्पा	-10.4481
▁जेवर	-10.4481
▁संजीव	-10.4481
▁प्रभात	-10.4481
▁अग्नि	-10.4482
▁जगदीश	-10.4482
▁शैल	-10.4482
▁ब्लाक	-10.4482
▁इंदौर	-10.4482
▁इंसान	-10.4482
▁ब्रेक	-10.4483
▁हरकत	-10.4483
▁प्रजापत	-10.4483
▁स्वतंत्र	-10.4483
चप्प	-10.4483
▁हसन	-10.4483
▁स्‍वा	-10.4483
णमू	-10.4483
▁उदास	-10.4483
▁चौबे	-10.4483
▁डायरेक्	-10.4484
ीएलए	-10.4484
pp	-10.4484
▁चरम	-10.4484
▁अटल	-10.4485
च्‍छ	-10.4485
ed	-10.4485
▁मुहम्मद	-10.4485
▁ठो	-10.4485
▁परिवर्त	-10.4486
▁स्वास्थ्यकर्म	-10.4486
क्षेप	-10.4487
▁पॉलिसी	-10.4488
▁तिर	-10.4489
▁उपकरण	-10.4489
म्बर	-10.449
ag	-10.449
ain	-10.449
▁गेम्स	-10.4491
▁अनुदान	-10.4492
▁वर्जन	-10.4492
▁आपात	-10.4492
▁शुरु	-10.4493
▁कूड़	-10.4493
▁आजादी	-10.4493
▁बिखर	-10.4494
ॉर्न	-10.4494
▁फास्ट	-10.4495
▁मेहरा	-10.4496
▁एनपी	-10.4497
▁पाएगी	-10.4497
▁सर्कि	-10.4498
▁धूम	-10.4498
▁तत्व	-10.4498
▁गढ़वा	-10.4499
▁बायो	-10.45
▁बहुम	-10.4501
हैया	-10.4501
▁सिंच	-10.4501
▁आश्र	-10.4502
▁बीयर	-10.4502
▁मैथ	-10.4503
▁पत्रिका	-10.4504
▁मीटि	-10.4504
▁रैंक	-10.4505
कुंभ	-10.4506
▁दिलाया	-10.4506
▁पद्म	-10.4508
▁प्रकरण	-10.4509
▁भेंट	-10.4511
▁चलेगी	-10.4512
▁जागरूकता	-10.4515
▁विवाह	-10.4516
▁आदर्श	-10.4519
▁रक्त	-10.4522
▁लेंगे	-10.4523
डीआर	-10.4524
▁पक्क	-10.4525
▁विपर	-10.4526
▁पत्त	-10.4528
▁पत्रकार	-10.4528
टेलि	-10.4528
▁हराया	-10.4532
फोड़	-10.4532
▁अहमद	-10.4532
▁नीं	-10.4533
▁(198	-10.4539
▁दशा	-10.4539
▁लगेगा	-10.4541
▁भगत	-10.4541
्रेन	-10.4542
▁जलवा	-10.4543
फ्यू	-10.4543
▁हस्त	-10.4544
▁टेस्टिंग	-10.4544
▁उत्स	-10.4547
▁बजाय	-10.4549
▁अमल	-10.455
▁मौल	-10.455
▁सांस	-10.455
▁पटवार	-10.455
▁बढ़ाया	-10.4558
व्रत	-10.456
▁नाच	-10.456
ीनियर	-10.4565
▁गिल	-10.4567
▁नष्ट	-10.4568
सीएच	-10.4572
▁बैट	-10.4573
▁पीडि	-10.4574
▁कम्प	-10.4577
▁जायज	-10.459
▁काशी	-10.4594
05	-10.4595
Maha	-10.4596
्रिक	-10.46
▁लाश	-10.4615
7.2	-10.462
▁जेट	-10.4621
▁जॉ	-10.4625
83	-10.4625
थिय	-10.4631
▁बहान	-10.4632
▁प्रॉ	-10.4636
di	-10.464
▁मिड	-10.464
ाडु	-10.4648
......	-10.4656
्जर	-10.4675
▁ओव	-10.4677
चित्र	-10.4685
निर्वा	-10.4706
्रोत	-10.4732
▁नील	-10.4745
क्वीन	-10.4767
▁प्रस्तुत	-10.4806
▁फैट	-10.4839
स्टॉक	-10.4845
▁बेड	-10.4848
▁ब्लू	-10.4875
श्रेय	-10.4897
▁रैप	-10.4902
▁घड़	-10.4927
kha	-10.4941
▁हिला	-10.4967
लांस	-10.497
दायिक	-10.4971
▁क्रि	-10.5006
▁दंग	-10.504
रोग्य	-10.5047
▁विशा	-10.5084
54	-10.5086
गोड़	-10.5117
नियत	-10.5155
▁जुआ	-10.5163
▁झू	-10.5164
▁आपरे	-10.5167
ंजर	-10.5183
250	-10.5211
्रमण	-10.5244
▁टॉ	-10.5271
1996	-10.529
्यूम	-10.53
▁नक्सल	-10.5308
सूर	-10.5314
▁प्रोट	-10.5394
▁फाइ	-10.5424
क्रेट	-10.5486
थॉ	-10.5495
▁रंज	-10.5515
्वर	-10.5545
्मच	-10.5619
डंड	-10.5658
57	-10.5672
▁यूए	-10.5736
03	-10.5921
▁निक्	-10.6139
▁फर्	-10.6221
or	-10.6242
व्यू	-10.6285
ाहो	-10.6308
▁नोटबं	-10.6325
फ्ल	-10.6342
▁दिलात	-10.6408
ूचि	-10.6413
फक्	-10.651
डि़	-10.6748
ख्याल	-10.6773
▁दिव	-10.6785
जियो	-10.6796
ic	-10.6827
▁चिंत	-10.6847
ीजेए	-10.6853
V	-10.6861
कॉम	-10.6863
भाव	-10.6863
छात्रा	-10.6863
निरीक्षक	-10.6864
प्रसाद	-10.6865
स्कूल	-10.6867
राशि	-10.6867
▁प्रदर्श	-10.687
शेख	-10.687
कहां	-10.6872
देख	-10.6877
अगर	-10.6882
नजर	-10.6901
फाइन	-10.6903
पहल	-10.6906
महा	-10.6918
▁इंतजा	-10.6933
कॉल	-10.6938
‌	-10.6939
क्चर	-10.6944
▁संभाव	-10.6958
▁पुरस्क	-10.6965
▁प्रतिभा	-10.697
जुर	-10.6972
▁इजा	-10.6973
▁काउंस	-10.6974
▁रजिस्ट	-10.6974
▁दिव्या	-10.6975
स्को	-10.6975
▁चतुर्	-10.6975
त्साह	-10.6977
मर्श	-10.6977
मोहल्ल	-10.6977
▁अभ्य	-10.6979
श्चि	-10.6979
Q	-10.6979
▁फिरोजपुर	-10.6979
▁वाणिज्य	-10.6979
%	-10.6979
*	-10.6979
+	-10.6979
»	-10.6979
आईएएनएस	-10.6979
बेगूसराय	-10.6979
सुश्री	-10.6979
िष्णु	-10.6979
२	-10.6979
▁Cho	-10.6979
▁Chopra	-10.6979
▁अंबानी	-10.6979
▁अफ़ग़ान	-10.6979
▁आयुर्वेद	-10.6979
▁इसलिये	-10.6979
▁उपाध्याय	-10.6979
▁ऑटो	-10.6979
▁ऑडि	-10.6979
▁ऑपरे	-10.6979
▁ऑप्श	-10.6979
▁कंप्यूटर	-10.6979
▁कुरुक्षेत्र	-10.6979
▁कुरैशी	-10.6979
▁क्वारंटा	-10.6979
▁ख्वाब	-10.6979
▁जनप्रतिनिधि	-10.6979
▁जनसंख्या	-10.6979
▁जायसवाल	-10.6979
▁जालंधर	-10.6979
▁त्योहार	-10.6979
▁दफ्तर	-10.6979
▁देहरादून	-10.6979
▁पाऊडर	-10.6979
▁भेदभाव	-10.6979
▁मतभेद	-10.6979
▁माओवादियो	-10.6979
▁मुजफ्फर	-10.6979
▁लद्दाख	-10.6979
▁वाशिंगटन	-10.6979
▁संवेदनशील	-10.6979
▁संशोध	-10.6979
▁स्टूडियो	-10.6979
▁हुसैन	-10.6979
निष्क	-10.6979
▁2302236	-10.6979
▁इकट्ठ	-10.6979
▁बुलंद	-10.6979
▁रवैय	-10.6979
▁विद्रोह	-10.6979
▁सरस्वती	-10.6979
▁हनीप्रीत	-10.6979
एथलीट	-10.6979
▁खींचा	-10.6979
▁परिस्थितिय	-10.6979
▁मैनेजर	-10.6979
▁मौर्या	-10.6979
▁सक्सेना	-10.6979
▁हजरत	-10.6979
▁दिग्	-10.6979
▁भिजवा	-10.6979
▁अखबार	-10.6979
▁क्विंट	-10.6979
▁सैलून	-10.6979
▁इलेक्ट्र	-10.6979
▁तृतीय	-10.6979
▁जर्मनी	-10.6979
▁8.30	-10.6979
▁आह्वा	-10.6979
▁एचआर	-10.6979
▁गिरिराज	-10.6979
▁माफिया	-10.6979
▁बजरंग	-10.6979
▁बर्बाद	-10.6979
▁झाड़िय	-10.6979
▁जोखिम	-10.6979
▁तथ्य	-10.6979
▁बुलाया	-10.6979
▁स्थानांतर	-10.6979
▁स्पेन	-10.6979
▁डीजीपी	-10.6979
▁बिस्तर	-10.6979
▁रघु	-10.6979
▁खिताब	-10.6979
▁मांझी	-10.6979
▁तरीका	-10.6979
▁राघव	-10.6979
▁सैमस	-10.6979
▁धातु	-10.6979
▁स्पिन	-10.6979
▁अभियोज	-10.6979
▁स्लाइड	-10.6979
▁बटोर	-10.6979
▁लटका	-10.6979
ब्ध	-10.698
फैक्‍स	-10.698
ट्ठ	-10.698
ल्‍ड	-10.698
▁जटिल	-10.698
▁जवाहर	-10.698
▁इकाई	-10.698
▁फौज	-10.698
▁रावण	-10.698
▁फूड	-10.698
▁वस्तु	-10.698
▁प्रसूत	-10.698
▁बरसात	-10.698
ज्वेलर	-10.698
▁खंगाल	-10.698
▁सूरज	-10.698
▁पिस्त	-10.698
▁चमत्कार	-10.698
▁दहला	-10.698
▁स्ट्राइक	-10.698
▁ध्व	-10.698
▁इशार	-10.698
▁पटाख	-10.698
▁थाईलैंड	-10.698
▁जताया	-10.698
▁वंचित	-10.698
▁सूरत	-10.698
▁न्‍याय	-10.698
▁शौक	-10.698
▁शशि	-10.698
▁गेम	-10.698
▁काबुल	-10.698
▁मुद्रा	-10.698
▁गुजार	-10.698
▁अवतार	-10.6981
मंजस	-10.6981
▁कस्ब	-10.6981
ॉफ्ट	-10.6981
एनडीए	-10.6981
▁संभाग	-10.6981
▁मोहल्ला	-10.6981
▁रुद्र	-10.6981
▁साक्षी	-10.6981
▁डीटी	-10.6981
▁रेडियो	-10.6982
▁सेकेंड	-10.6982
डिवीजन	-10.6982
▁चौंका	-10.6982
▁स्टाफ	-10.6982
▁फर्जीवाड़	-10.6982
▁दादा	-10.6982
▁अंश	-10.6982
क्लोरो	-10.6983
▁डिजाइन	-10.6983
▁बिन्द	-10.6983
▁चतुर्थ	-10.6983
▁यकी	-10.6983
्वल	-10.6984
▁झूठ	-10.6984
▁चित्रक	-10.6984
नुभ	-10.6984
OR	-10.6984
▁मॉन	-10.6985
▁रावल	-10.6985
▁इधर	-10.6985
न्तु	-10.6985
▁असीम	-10.6986
▁Al	-10.6986
▁शोभा	-10.6986
▁लोकप्रिय	-10.6987
ुख्ता	-10.6987
▁राजनेता	-10.6987
▁गुड्ड	-10.6988
▁बेरोजगार	-10.6988
बूझ	-10.6988
लेंडर	-10.6988
िम्बा	-10.6989
आजमगढ़	-10.6989
▁सिक्क	-10.6989
प्रयाग	-10.6989
ou	-10.699
▁प्रतिभाग	-10.6991
▁लाभार्थ	-10.6991
▁प्रोमो	-10.6991
▁पाएगा	-10.6991
▁अत्य	-10.6992
▁गाड़ियां	-10.6992
वाजे	-10.6993
▁यश	-10.6993
▁जबरन	-10.6993
ंतरिक	-10.6996
िलंब	-10.6996
▁ख़तर	-10.6997
▁प्रतिरोध	-10.6997
▁पानीपत	-10.6997
▁घुल	-10.6998
▁भवानी	-10.7001
ष्ठान	-10.7002
▁सैफ	-10.7002
▁अलवर	-10.7002
तड़प	-10.7003
दयाल	-10.7005
▁फौर	-10.7007
▁ज़िल	-10.7007
ॉर्ट	-10.7008
▁रज्ज	-10.7009
▁ओनर	-10.701
▁समस्त	-10.7011
▁उधार	-10.7015
ब्दी	-10.7016
▁माफी	-10.7016
▁गवाह	-10.702
▁प्रेर	-10.702
▁नायर	-10.7021
▁मनाया	-10.7024
▁उद्ध	-10.7028
्यर्थ	-10.7035
▁सेलेब	-10.7044
लाएगी	-10.7048
▁उतन	-10.7048
▁मसल	-10.7048
ैलेंट	-10.7059
निवर्	-10.706
▁बितान	-10.7068
फ़ोन	-10.7068
JD	-10.7069
दैव	-10.7081
क्यो	-10.7084
▁डील	-10.7084
एमएल	-10.7093
▁अटार	-10.7094
▁रतन	-10.7098
रईस	-10.7108
▁जेस	-10.7131
पीडिया	-10.7136
म्‍ब	-10.7144
विलिय	-10.7145
160	-10.7154
▁अलमार	-10.7198
पाउंड	-10.725
▁चीफ	-10.7251
▁खातो	-10.7251
शीट	-10.727
In	-10.7277
ाजपे	-10.7301
एम्स	-10.7307
1.4	-10.7346
▁तेर	-10.7357
हार्द	-10.7386
▁एडिट	-10.7412
षित	-10.7414
्लाद	-10.7418
पाट	-10.7439
वर्ध	-10.7445
▁प्रोडक्श	-10.746
▁कांस्	-10.7502
भूल	-10.7515
▁कोहरा	-10.7746
ुनिया	-10.7768
▁सुर्ख	-10.7939
▁कैप्	-10.7942
मैन	-10.7952
घरान	-10.8032
▁अब्दुल	-10.8036
दुस्तान	-10.8193
▁135	-10.8523
्वचा	-10.8569
नक्सलियों	-10.8991
▁सुर्खिय	-10.9112
तिमाह	-10.9124
ुष्क	-10.9232
हार्ट	-10.9399
▁प्रोडक्	-10.9697
्लास	-10.9735
144	-10.9782
ॉर्ड	-10.9859
▁(199	-10.9865
▁बांद	-10.9875
ाध्य	-10.992
वस्था	-10.9946
1994	-11.0035
▁गुप्त	-11.0161
गैर	-11.0186
सिद्ध	-11.0188
प्रताप	-11.0193
कॉप	-11.0195
लक्ष्म	-11.0197
पृष्ठ	-11.0197
कृष्ण	-11.0198
छोटे	-11.0199
योजना	-11.0199
वैक्सीन	-11.0199
कश्मीर	-11.02
पंचायत	-11.0201
जैसे	-11.0201
वार्ता	-11.0202
लेकिन	-11.0204
पांच	-11.0205
व्याप	-11.021
शिवरा	-11.0211
सुफ	-11.0223
पेक्ष	-11.0225
स्टोरे	-11.0242
▁इन्फ	-11.0264
त्थ	-11.0265
प्ताह	-11.0294
पूर्ति	-11.0296
▁पॉलि	-11.0298
▁एजें	-11.031
▁ट्रांस	-11.031
▁रिस्पांस	-11.0312
f	-11.0312
ext	-11.0312
▁सांप्रदायिक	-11.0312
6.12	-11.0312
Gang	-11.0312
Photo	-11.0312
Watch	-11.0312
]	-11.0312
ams	-11.0312
ember	-11.0312
एमसीएलआर	-11.0312
८	-11.0312
▁News	-11.0312
▁Pro	-11.0312
▁Video	-11.0312
▁[...]	-11.0312
▁अद्भ	-11.0312
▁अप्लाई	-11.0312
▁अभियंता	-11.0312
▁अश्विन	-11.0312
▁असिस्टेंट	-11.0312
▁अस्थिर	-11.0312
▁उत्पत्ति	-11.0312
▁उम्‍मीद	-11.0312
▁कट्टरपंथ	-11.0312
▁कन्हैया	-11.0312
▁कम्युनिस्ट	-11.0312
▁कैल्शियम	-11.0312
▁खुशखबरी	-11.0312
▁ग्वांगझ	-11.0312
▁चुनौतिय	-11.0312
▁झोपड़	-11.0312
▁टिहरी	-11.0312
▁दुबई	-11.0312
▁ध्रुव	-11.0312
▁नजदीक	-11.0312
▁नयनादेवी	-11.0312
▁निषेध	-11.0312
▁परिश्रम	-11.0312
▁फायदेमंद	-11.0312
▁फिजिक्स	-11.0312
▁बृहस्पति	-11.0312
▁मणिपुर	-11.0312
▁मरम्मत	-11.0312
▁मलयालम	-11.0312
▁महिंद्रा	-11.0312
▁माइग्रे	-11.0312
▁मीरजापुर	-11.0312
▁मुखर्जी	-11.0312
▁मुम्बई	-11.0312
▁योद्धा	-11.0312
▁विश्लेष	-11.0312
▁वीरभद्र	-11.0312
▁श्रृं	-11.0312
▁सेलिब्र	-11.0312
▁स्काउट	-11.0312
▁हाइड्रो	-11.0312
▁हितग्राह	-11.0312
▁हॉरिज	-11.0312
टॉयलेट	-11.0312
▁इंज्व	-11.0312
▁उग्रवाद	-11.0312
▁कंडीशन	-11.0312
▁गोपनीय	-11.0312
▁हाजिर	-11.0312
▁हौसल	-11.0312
▁(2002)	-11.0312
▁अख्तर	-11.0312
▁उपप्रधान	-11.0312
▁तुम्हार	-11.0312
▁फोटोशूट	-11.0312
▁बिचौलि	-11.0312
▁भौतिक	-11.0312
▁हिन्दु	-11.0312
▁उदारवाद	-11.0313
Y	-11.5312
z	-11.5312
̈	-11.5312
ऱ	-11.5312
४	-11.5312
–	-12.5208
Z	-12.5298
#	-12.5299
​	-12.53
६	-12.5301
@	-12.5302
[	-12.5303
ॅ	-12.5304
“	-12.5305
ऋ	-12.5306
ञ	-12.5307
‘	-12.5308
ऑ	-12.5309
ृ	-12.531
ढ	-12.5311
=	-12.5312
×	-12.5312
&	-12.5312
X	-12.5312
_	-12.5312
ï	-12.5312
ऌ	-12.5312
←	-12.5312
�	-12.5312
🔊	-12.5312
🔵	-12.5312
औ	-12.5312
