<unk>	0
<s>	0
</s>	0
▁क	-0
▁स	-1
▁ह	-2
▁म	-3
▁प	-4
ें	-5
ार	-6
ने	-7
▁के	-8
▁ब	-9
्र	-10
▁ज	-11
▁है	-12
या	-13
▁द	-14
▁में	-15
▁र	-16
▁ल	-17
▁व	-18
ों	-19
▁अ	-20
▁की	-21
▁न	-22
▁को	-23
▁ग	-24
र्	-25
ान	-26
▁से	-27
▁आ	-28
▁कि	-29
▁इ	-30
ता	-31
▁कर	-32
▁का	-33
▁भ	-34
▁उ	-35
▁ने	-36
▁त	-37
ना	-38
िक	-39
्य	-40
ला	-41
▁पर	-42
▁च	-43
▁श	-44
▁प्र	-45
▁औ	-46
स्	-47
▁और	-48
क्	-49
ाल	-50
ही	-51
▁ए	-52
▁इस	-53
हा	-54
ड़	-55
▁हो	-56
िल	-57
▁थ	-58
िए	-59
▁य	-60
ित	-61
▁हैं	-62
वा	-63
▁जा	-64
िया	-65
▁ख	-66
ाम	-67
▁फ	-68
िय	-69
के	-70
ते	-71
ंग	-72
▁भी	-73
री	-74
▁बा	-75
हीं	-76
ेश	-77
न्	-78
त्र	-79
▁स्	-80
ले	-81
▁लिए	-82
कर	-83
ारी	-84
▁वि	-85
▁रा	-86
िस	-87
रा	-88
▁सा	-89
ती	-90
गा	-91
िन	-92
से	-93
नी	-94
▁नहीं	-95
ोग	-96
▁ट	-97
▁सं	-98
सी	-99
▁एक	-100
▁ले	-101
▁हु	-102
्या	-103
ति	-104
ली	-105
▁ड	-106
क्ष	-107
▁1	-108
▁अप	-109
ुर	-110
▁सम	-111
▁रह	-112
▁किया	-113
का	-114
ंद	-115
▁दे	-116
▁गया	-117
ाय	-118
वार	-119
▁ही	-120
▁मु	-121
ुल	-122
त्	-123
▁पह	-124
ार्	-125
▁नि	-126
▁कहा	-127
ियों	-128
ंच	-129
▁2	-130
▁घ	-131
▁था	-132
िला	-133
टी	-134
ंड	-135
की	-136
▁सि	-137
▁कार	-138
न्ह	-139
मा	-140
▁करने	-141
▁साथ	-142
▁तो	-143
▁पा	-144
▁रहे	-145
रो	-146
दी	-147
▁बाद	-148
▁यह	-149
▁लोग	-150
भा	-151
्म	-152
रे	-153
▁पू	-154
ढ़	-155
कार	-156
▁कु	-157
▁राज	-158
ाह	-159
कि	-160
▁उन्ह	-161
▁उन	-162
▁अध	-163
▁दिया	-164
ल्	-165
िर	-166
ष्	-167
भी	-168
▁गई	-169
गी	-170
ां	-171
▁दो	-172
▁ला	-173
▁तक	-174
देश	-175
जी	-176
▁जो	-177
वि	-178
▁अन	-179
▁हुए	-180
▁बी	-181
▁वाल	-182
पी	-183
दा	-184
▁रही	-185
्री	-186
सा	-187
▁छ	-188
▁सु	-189
्रे	-190
टे	-191
▁या	-192
टर	-193
▁(	-194
पा	-195
▁मिल	-196
▁उस	-197
▁पुल	-198
▁बता	-199
गे	-200
िव	-201
ंत्र	-202
▁सर	-203
▁रहा	-204
ओं	-205
▁पुलिस	-206
▁थी	-207
▁सी	-208
वी	-209
गर	-210
ानी	-211
▁ध	-212
बा	-213
ौर	-214
▁भार	-215
▁सक	-216
▁मह	-217
▁चु	-218
में	-219
▁हा	-220
▁लोगों	-221
किन	-222
श्	-223
▁जिस	-224
द्	-225
▁थे	-226
▁दी	-227
स्त	-228
स्ट	-229
ाना	-230
▁मा	-231
▁बार	-232
▁लेकिन	-233
शन	-234
ोज	-235
ोंने	-236
▁आप	-237
तर	-238
ेल	-239
टा	-240
च्	-241
ैं	-242
▁मौ	-243
▁लगा	-244
▁अपने	-245
▁उन्होंने	-246
▁अब	-247
▁जाए	-248
्त	-249
जा	-250
्ष	-251
र्म	-252
▁भा	-253
िका	-254
द्र	-255
स्थ	-256
▁मो	-257
ीन	-258
बर	-259
हां	-260
▁स्थ	-261
▁अधिक	-262
▁हम	-263
..	-264
ुप	-265
खा	-266
ड़ा	-267
▁गए	-268
ंत्री	-269
ंह	-270
▁20	-271
▁मे	-272
▁बना	-273
▁होने	-274
ूर	-275
▁दिन	-276
▁इसके	-277
हर	-278
▁पी	-279
▁वह	-280
▁जब	-281
ंध	-282
िंग	-283
▁जान	-284
▁उप	-285
▁बताया	-286
नों	-287
्स	-288
क्र	-289
ड़ी	-290
▁बे	-291
▁सरकार	-292
वे	-293
▁कम	-294
▁बि	-295
कों	-296
▁करते	-297
▁ओ	-298
्यू	-299
▁पहले	-300
र्ट	-301
▁कार्य	-302
▁वाले	-303
ष्ट	-304
▁कुछ	-305
ूस	-306
ड़े	-307
▁सिंह	-308
▁जी	-309
▁लेकर	-310
▁टी	-311
▁तर	-312
▁हि	-313
▁वर्	-314
▁भारत	-315
▁ऐ	-316
ये	-317
कारी	-318
को	-319
▁साल	-320
जे	-321
एम	-322
िल्	-323
▁उत्	-324
▁चाह	-325
▁पहु	-326
00	-327
र्व	-328
क्षा	-329
▁दौर	-330
▁अपनी	-331
जार	-332
धान	-333
पुर	-334
▁इन	-335
▁सो	-336
▁साम	-337
▁हुई	-338
▁दु	-339
▁कोई	-340
▁बढ़	-341
▁बात	-342
▁पहुंच	-343
▁रो	-344
▁देख	-345
ाप	-346
▁3	-347
वर	-348
▁रुप	-349
▁निर्	-350
▁दौरान	-351
ूप	-352
▁ना	-353
▁ये	-354
ंप	-355
▁कई	-356
▁गां	-357
▁उनके	-358
क्त	-359
▁देश	-360
▁परि	-361
चा	-362
नाव	-363
▁जु	-364
▁शुर	-365
वं	-366
ोड़	-367
▁सब	-368
▁हुआ	-369
िप	-370
▁वे	-371
▁फिल	-372
▁माम	-373
▁मै	-374
▁अनु	-375
▁काम	-376
ेंद्र	-377
▁पार्	-378
्ल	-379
▁ऑ	-380
द्ध	-381
्रेस	-382
▁प्रदेश	-383
▁जाने	-384
ास	-385
ेट	-386
बंध	-387
वाल	-388
िम	-389
िश	-390
ोट	-391
मार	-392
स्प	-393
▁कह	-394
▁बह	-395
▁सू	-396
रोना	-397
▁क्ष	-398
▁नाम	-399
▁किसी	-400
मंत्री	-401
▁कोरोना	-402
यर	-403
▁अम	-404
▁चल	-405
▁द्	-406
▁राज्य	-407
▁अभ	-408
▁जन	-409
▁बु	-410
▁शिक	-411
▁सभी	-412
▁समय	-413
▁करा	-414
सर	-415
ारा	-416
वारा	-417
▁तरह	-418
▁5	-419
मान	-420
▁इं	-421
▁प्रति	-422
▁आरो	-423
▁व्य	-424
▁दिल्	-425
▁यु	-426
▁राम	-427
▁बन	-428
▁रख	-429
▁ग्र	-430
▁बीच	-431
▁लिया	-432
▁चुनाव	-433
▁फिल्म	-434
▁4	-435
▁हर	-436
ेंगे	-437
▁दूस	-438
एस	-439
▁आय	-440
सान	-441
▁बच्	-442
ंक	-443
दार	-444
र्ज	-445
ेत्र	-446
▁खिला	-447
▁वहीं	-448
▁दिल्ली	-449
▁बै	-450
▁मुख	-451
▁शाम	-452
बी	-453
िट	-454
ोल	-455
▁महिला	-456
▁द्वारा	-457
ूल	-458
ारियों	-459
्रा	-460
▁होगा	-461
क्रम	-462
▁रूप	-463
▁लाख	-464
▁क्षेत्र	-465
▁जानकारी	-466
▁कै	-467
▁घर	-468
▁सह	-469
▁शुरू	-470
▁उन्हें	-471
डी	-472
फी	-473
ताल	-474
▁डॉ	-475
्यक्ष	-476
▁कांग	-477
ंस	-478
एं	-479
▁पि	-480
▁पु	-481
▁लग	-482
▁स्ट	-483
▁खु	-484
▁टीम	-485
▁पूर्व	-486
▁कांग्रेस	-487
▁आज	-488
▁दोनों	-489
दे	-490
लो	-491
हार	-492
▁कॉ	-493
▁तै	-494
▁फै	-495
▁वा	-496
▁तीन	-497
▁करोड़	-498
जन	-499
नि	-500
भाग	-501
▁दि	-502
▁जारी	-503
▁सकता	-504
ंट	-505
▁'	-506
▁आई	-507
▁चाहिए	-508
मी	-509
धार	-510
वाई	-511
िति	-512
्मी	-513
▁चौ	-514
▁छा	-515
इन	-516
जर	-517
ज़	-518
▁दा	-519
्रीय	-520
िले	-521
▁खा	-522
▁निक	-523
▁मोदी	-524
▁यहां	-525
ेर	-526
ोर	-527
▁ठ	-528
▁करना	-529
▁गांव	-530
दान	-531
ायर	-532
▁एवं	-533
र्स	-534
ायत	-535
्यों	-536
▁उसे	-537
ब्	-538
ूम	-539
धिक	-540
▁19	-541
▁अं	-542
▁एस	-543
▁जर	-544
▁पै	-545
▁पार्टी	-546
हत	-547
ाई	-548
वाद	-549
ोर्ट	-550
▁201	-551
▁मान	-552
▁बच्च	-553
दि	-554
▁झ	-555
▁ली	-556
▁पास	-557
▁आरोप	-558
▁कारण	-559
▁जांच	-560
▁जाता	-561
▁वर्ष	-562
▁विभाग	-563
था	-564
▁6	-565
क्स	-566
चार	-567
▁10	-568
▁अव	-569
ताओं	-570
▁हाला	-571
▁कुमार	-572
आई	-573
ेज	-574
तीय	-575
र्थ	-576
▁गु	-577
▁अभी	-578
▁गिर	-579
ुत	-580
ून	-581
क्ट	-582
चना	-583
ेशन	-584
▁अग	-585
▁ओर	-586
▁जै	-587
▁इसी	-588
▁क्र	-589
▁ट्र	-590
▁मामले	-591
▁मुख्य	-592
ज्	-593
धी	-594
ोक	-595
▁फिर	-596
र्ड	-597
▁वै	-598
फ्त	-599
लों	-600
▁लि	-601
क्टर	-602
▁महा	-603
▁अस्प	-604
▁इससे	-605
▁उनकी	-606
▁जाएगा	-607
▁शामिल	-608
▁अस्पताल	-609
शी	-610
ूं	-611
ंदी	-612
ंबर	-613
च्छ	-614
सार	-615
▁आर	-616
▁उम	-617
▁प्रश	-618
▁प्रधान	-619
जू	-620
णा	-621
▁:	-622
जपा	-623
▁नगर	-624
▁मौत	-625
्यादा	-626
▁उसके	-627
▁वाली	-628
▁रुपये	-629
लय	-630
ीड	-631
रीज	-632
▁आए	-633
▁ता	-634
▁बद	-635
क्ति	-636
▁मैं	-637
▁सुर	-638
▁हजार	-639
▁भाजपा	-640
▁ज्यादा	-641
प्	-642
वन	-643
ीस	-644
ुक	-645
▁-	-646
▁‘	-647
टना	-648
पाल	-649
वान	-650
ारे	-651
▁डि	-652
त्रा	-653
▁तैय	-654
▁अन्य	-655
▁खिलाफ	-656
▁राष्ट	-657
प्र	-658
योग	-659
▁पद	-660
▁वो	-661
ोजना	-662
▁कंप	-663
▁जिला	-664
▁जिले	-665
ोष	-666
द्य	-667
र्ण	-668
ियो	-669
▁बारे	-670
▁मांग	-671
▁विश्	-672
▁।	-673
कान	-674
▁अल	-675
▁किए	-676
▁शिव	-677
▁करें	-678
▁अध्यक्ष	-679
ंब	-680
वासी	-681
ार्ड	-682
ियां	-683
▁सकते	-684
पर	-685
ोन	-686
भाव	-687
सभा	-688
▁शु	-689
▁न्यू	-690
▁भारतीय	-691
ंत	-692
वास	-693
▁सद	-694
▁सफ	-695
▁ऐसे	-696
▁काफी	-697
▁स्वा	-698
मु	-699
शे	-700
ेंट	-701
▁गो	-702
िकास	-703
▁दिए	-704
▁देने	-705
▁श्री	-706
▁ग्राम	-707
ष्ठ	-708
▁रे	-709
ख्या	-710
▁सबसे	-711
▁किसान	-712
▁विकास	-713
▁सामने	-714
▁8	-715
बाद	-716
ासन	-717
▁डी	-718
▁बो	-719
▁संबंध	-720
▁मंत्री	-721
ैन	-722
ंकि	-723
तार	-724
न्न	-725
र्च	-726
▁यू	-727
▁अला	-728
▁इला	-729
▁पढ़	-730
▁रिप	-731
▁कर्म	-732
▁दर्ज	-733
▁इसमें	-734
▁क्यों	-735
धा	-736
म्	-737
...	-738
्ला	-739
▁गा	-740
▁जग	-741
▁करी	-742
▁बैठ	-743
▁क्या	-744
▁शिक्ष	-745
▁हालांकि	-746
ीत	-747
ाली	-748
▁उठ	-749
▁मज	-750
्याप	-751
▁करीब	-752
▁बहुत	-753
▁होता	-754
▁योजना	-755
ृत	-756
ेंद	-757
▁आने	-758
▁तथा	-759
▁बंद	-760
▁स्व	-761
ीक्षा	-762
▁7	-763
▁मद	-764
▁प्रत	-765
▁दिनों	-766
▁रिपोर्ट	-767
▁टे	-768
▁मन	-769
▁शहर	-770
▁हाल	-771
▁अलावा	-772
ज्ञ	-773
▁जम	-774
▁खेल	-775
▁मार्	-776
▁गिरफ्त	-777
▁प्रधानमंत्री	-778
जह	-779
ेत	-780
कर्	-781
लिए	-782
वरी	-783
ुरु	-784
▁पिछ	-785
▁अपना	-786
▁कहना	-787
▁जबकि	-788
▁नेता	-789
▁प्रद	-790
▁उत्तर	-791
▁अनुसार	-792
ूट	-793
ेंस	-794
▁कप	-795
▁डे	-796
▁नई	-797
▁बैं	-798
▁मंद	-799
▁युव	-800
▁आपको	-801
▁पानी	-802
▁पूरी	-803
▁मरीज	-804
आर	-805
ाज	-806
र्फ	-807
स्क	-808
▁आग	-809
ुक्त	-810
▁इसे	-811
▁निय	-812
▁मैच	-813
▁याद	-814
▁रात	-815
▁विक	-816
स्तान	-817
्यालय	-818
▁अच्छ	-819
▁होगी	-820
▁दूसरे	-821
▁संख्या	-822
▁ई	-823
र्य	-824
▁आम	-825
निया	-826
▁इंड	-827
▁बल्	-828
▁वजह	-829
▁करता	-830
▁प्रा	-831
▁मिले	-832
▁व्यव	-833
वल	-834
्‍	-835
ंगल	-836
क्सी	-837
▁खान	-838
▁पंच	-839
▁बजे	-840
▁योग	-841
▁सदस	-842
▁मंदिर	-843
▁निवासी	-844
▁संक्रम	-845
बह	-846
गढ़	-847
त्म	-848
शेष	-849
ेयर	-850
▁अफ	-851
▁रि	-852
▁चार	-853
▁पड़	-854
▁स्क	-855
▁इसकी	-856
▁रुपए	-857
रण	-858
ताब	-859
▁नए	-860
▁मि	-861
▁शा	-862
मेंट	-863
▁अगर	-864
▁आगे	-865
▁बुध	-866
▁दिखा	-867
▁पांच	-868
▁होती	-869
▁इसलिए	-870
▁छात्र	-871
-1	-872
गत	-873
करण	-874
▁12	-875
त्या	-876
र्चा	-877
स्ता	-878
ार्थ	-879
▁इस्	-880
▁खरी	-881
▁चला	-882
▁जीत	-883
▁आयोज	-884
▁वहां	-885
▁पिछले	-886
▁विशेष	-887
एन	-888
दन	-889
ोध	-890
▁बॉ	-891
▁मध	-892
▁बढ़ा	-893
▁मिली	-894
▁जिससे	-895
▁विश्व	-896
▁सूचना	-897
▁बुधवार	-898
जय	-899
शा	-900
सम	-901
सल	-902
ीर	-903
▁गै	-904
▁भर	-905
स्था	-906
्मीद	-907
▁घोष	-908
▁मार	-909
▁लगे	-910
▁विध	-911
▁हों	-912
▁जनता	-913
▁जैसे	-914
▁कंपनी	-915
▁उम्मीद	-916
▁केंद्र	-917
▁स्वास्थ	-918
▁मुख्यमंत्री	-919
डा	-920
हम	-921
▁ऊ	-922
ंगे	-923
जूद	-924
नाथ	-925
मिक	-926
▁ऑफ	-927
क्षण	-928
▁जगह	-929
▁जिन	-930
▁लोक	-931
▁स्प	-932
▁कर्मच	-933
▁जाएगी	-934
▁बनाने	-935
▁व्याप	-936
▁हिंदी	-937
▁जिसमें	-938
▁सुरक्षा	-939
▁स्वास्थ्य	-940
ट्	-941
मे	-942
खंड	-943
राज	-944
▁डा	-945
▁बज	-946
स्या	-947
▁फैस	-948
▁बेह	-949
▁सुन	-950
▁जहां	-951
▁थाना	-952
▁पत्र	-953
▁मिला	-954
▁लगातार	-955
▁निर्देश	-956
▁गिरफ्तार	-957
चित	-958
राब	-959
▁पं	-960
▁सच	-961
र्शन	-962
▁नजर	-963
▁फीस	-964
▁श्र	-965
▁सोम	-966
ताबिक	-967
्रवाई	-968
▁घटना	-969
▁वायर	-970
▁सकती	-971
▁सवाल	-972
▁सुबह	-973
▁स्थिति	-974
▁परीक्षा	-975
▁प्रशासन	-976
▁कार्रवाई	-977
बे	-978
हन	-979
▁,	-980
▁9	-981
ंटे	-982
वीर	-983
▁गं	-984
▁नर	-985
▁पे	-986
मारी	-987
▁ऐसा	-988
▁दें	-989
▁आधार	-990
▁ट्रे	-991
▁पूरे	-992
▁गांधी	-993
▁तैयार	-994
▁दुकान	-995
▁प्राप	-996
▁बिहार	-997
▁विधान	-998
▁स्थित	-999
▁बच्चों	-1000
▁सोमवार	-1001
▁अधिकारी	-1002
▁मुताबिक	-1003
▁कार्यक्रम	-1004
इक	-1005
एल	-1006
डर	-1007
पू	-1008
फ्	-1009
शि	-1010
माण	-1011
विड	-1012
ायल	-1013
ियर	-1014
िये	-1015
ूरी	-1016
▁बस	-1017
▁अभि	-1018
▁करे	-1019
▁कान	-1020
▁जल्	-1021
▁तहत	-1022
▁हाथ	-1023
▁युवक	-1024
▁मिलने	-1025
इट	-1026
इल	-1027
यन	-1028
यी	-1029
तिक	-1030
यों	-1031
ैंड	-1032
▁कल	-1033
▁खे	-1034
▁धन	-1035
▁नी	-1036
▁लॉ	-1037
▁अलग	-1038
▁आदि	-1039
▁भाग	-1040
▁हूं	-1041
▁जाती	-1042
▁मौके	-1043
▁रहने	-1044
▁पंचायत	-1045
▁परिवार	-1046
▁पहुंचे	-1047
▁शिकायत	-1048
▁क्योंकि	-1049
ग्	-1050
रि	-1051
सि	-1052
ीय	-1053
ूरत	-1054
▁15	-1055
▁मत	-1056
▁सौ	-1057
▁कुल	-1058
▁खुद	-1059
▁पेश	-1060
▁मदद	-1061
▁लाल	-1062
▁संग	-1063
न्द्र	-1064
▁न्या	-1065
▁पूरा	-1066
▁चर्चा	-1067
▁बाजार	-1068
▁स्कूल	-1069
टन	-1070
फा	-1071
मुख	-1072
यास	-1073
लेज	-1074
हरी	-1075
▁इत	-1076
र्मा	-1077
▁उठा	-1078
▁चिक	-1079
▁मंड	-1080
▁लाभ	-1081
▁सके	-1082
▁पाकि	-1083
▁प्रो	-1084
▁बड़ी	-1085
▁लेने	-1086
▁सम्म	-1087
▁जिसके	-1088
▁करेंगे	-1089
▁न्यूज़	-1090
▁समस्या	-1091
▁किसानों	-1092
▁अधिकारियों	-1093
तन	-1094
▁ढ	-1095
ब्ध	-1096
भीर	-1097
िता	-1098
ियन	-1099
▁चा	-1100
▁तब	-1101
▁दर	-1102
▁तरफ	-1103
▁वीड	-1104
▁शाह	-1105
▁परेश	-1106
▁बैंक	-1107
▁बैठक	-1108
▁होते	-1109
▁मंत्र	-1110
▁सदस्य	-1111
▁हत्या	-1112
▁व्यक्ति	-1113
ंज	-1114
झे	-1115
डे	-1116
षण	-1117
काश	-1118
ग्र	-1119
माल	-1120
र्श	-1121
ल्प	-1122
ायक	-1123
▁कृ	-1124
▁चे	-1125
▁हे	-1126
▁202	-1127
▁आया	-1128
▁दिव	-1129
▁मही	-1130
▁रेल	-1131
▁लड़	-1132
▁पीएम	-1133
▁वाला	-1134
▁कोविड	-1135
▁राजनी	-1136
▁राष्ट्र	-1137
▁विधानसभा	-1138
ुआ	-1139
र्क	-1140
▁ची	-1141
▁जि	-1142
▁फे	-1143
बंधन	-1144
्यान	-1145
▁नोट	-1146
▁रखा	-1147
▁रवि	-1148
▁उनका	-1149
▁पहली	-1150
▁बड़ा	-1151
▁युवा	-1152
धिकारी	-1153
▁गंभीर	-1154
▁चिकित	-1155
▁समिति	-1156
▁वीडियो	-1157
▁सरकारी	-1158
उन	-1159
णी	-1160
ॉल	-1161
काल	-1162
▁अर	-1163
▁चि	-1164
▁पक	-1165
▁भे	-1166
दारी	-1167
ियान	-1168
▁उपल	-1169
▁रोक	-1170
▁वाप	-1171
▁सड़	-1172
▁समझ	-1173
▁उसका	-1174
▁उसकी	-1175
▁गुरु	-1176
▁जाते	-1177
▁देते	-1178
▁यादव	-1179
▁शादी	-1180
▁कोर्ट	-1181
▁फीसदी	-1182
▁शर्मा	-1183
▁सिर्फ	-1184
▁इंडिया	-1185
▁राष्ट्रीय	-1186
चे	-1187
ीण	-1188
ूह	-1189
ंबई	-1190
काब	-1191
तरा	-1192
त्व	-1193
पति	-1194
ालय	-1195
▁16	-1196
▁आत	-1197
▁फ़	-1198
▁थीं	-1199
▁दूर	-1200
▁माल	-1201
▁संप	-1202
▁घंटे	-1203
▁मंगल	-1204
▁सेवा	-1205
▁हिस्	-1206
▁क्रिक	-1207
▁लगाया	-1208
▁होंगे	-1209
▁उपलब्ध	-1210
▁मरीजों	-1211
▁महिलाओं	-1212
कत	-1213
टक	-1214
बू	-1215
षा	-1216
जिट	-1217
वाब	-1218
▁24	-1219
▁जल	-1220
▁नौ	-1221
ार्ट	-1222
▁बया	-1223
▁मीड	-1224
▁रिक	-1225
▁वाह	-1226
▁सफल	-1227
▁इंटर	-1228
▁बल्कि	-1229
▁मुंबई	-1230
▁प्रमुख	-1231
▁मीडिया	-1232
▁शिक्षा	-1233
▁ग्रामीण	-1234
▁नरेंद्र	-1235
षद	-1236
ानि	-1237
ोटो	-1238
▁11	-1239
▁14	-1240
▁25	-1241
▁जय	-1242
▁बर	-1243
▁शी	-1244
क्शन	-1245
क्षक	-1246
र्जी	-1247
र्ती	-1248
र्या	-1249
▁तस्	-1250
▁पता	-1251
▁पाए	-1252
स्थान	-1253
▁आयोग	-1254
▁शेयर	-1255
▁बनाया	-1256
▁समर्थ	-1257
▁स्थान	-1258
▁प्राप्त	-1259
भर	-1260
ूब	-1261
ल्ड	-1262
वेश	-1263
िली	-1264
ोरी	-1265
▁आद	-1266
▁आस	-1267
▁भग	-1268
कर्म	-1269
जेपी	-1270
▁कभी	-1271
▁पुर	-1272
तेमाल	-1273
▁अमेर	-1274
▁करके	-1275
▁देखा	-1276
▁पक्ष	-1277
▁बाहर	-1278
▁लिखा	-1279
▁दूसरी	-1280
▁देखते	-1281
▁ध्यान	-1282
▁मुकाब	-1283
▁अभियान	-1284
▁दुनिया	-1285
▁मंगलवार	-1286
20	-1287
ar	-1288
एफ	-1289
टल	-1290
धि	-1291
वत	-1292
शत	-1293
शल	-1294
ोस	-1295
चान	-1296
जली	-1297
ूर्	-1298
ैंप	-1299
्रि	-1300
▁13	-1301
▁एड	-1302
▁क्	-1303
▁छो	-1304
▁ट्	-1305
▁लौ	-1306
ंद्र	-1307
िस्ट	-1308
▁माह	-1309
▁शनि	-1310
▁सप्	-1311
▁सर्	-1312
▁सीट	-1313
▁हटा	-1314
▁हाई	-1315
कर्ता	-1316
▁उसने	-1317
▁चलते	-1318
▁प्रभ	-1319
▁समेत	-1320
▁आरोपी	-1321
▁कार्ड	-1322
▁फैसला	-1323
▁महीने	-1324
▁मौजूद	-1325
▁वायरस	-1326
▁शुक्र	-1327
▁पहुंचा	-1328
▁प्रभाव	-1329
▁प्रयास	-1330
▁वैक्सी	-1331
गम	-1332
छे	-1333
▁"	-1334
ंगा	-1335
ंदर	-1336
त्त	-1337
देव	-1338
रों	-1339
रोध	-1340
हुल	-1341
्यक	-1342
▁एन	-1343
▁एम	-1344
▁गठ	-1345
▁गि	-1346
▁दल	-1347
▁फर	-1348
त्री	-1349
▁चाल	-1350
▁जिम	-1351
▁जेल	-1352
▁पति	-1353
▁फोन	-1354
▁बजट	-1355
▁भाई	-1356
▁भूम	-1357
▁संक	-1358
▁साफ	-1359
▁आतंक	-1360
▁किलो	-1361
▁खरीद	-1362
▁गेंद	-1363
▁घायल	-1364
▁जिसे	-1365
▁नंबर	-1366
▁मध्य	-1367
▁लक्ष	-1368
▁सहित	-1369
▁जुड़े	-1370
▁टेस्ट	-1371
▁वालों	-1372
▁सहयोग	-1373
▁न्याया	-1374
▁इस्तेमाल	-1375
▁प्रदर्शन	-1376
▁व्यवस्था	-1377
ची	-1378
जल	-1379
पु	-1380
यू	-1381
ैल	-1382
▁0	-1383
000	-1384
ंका	-1385
ंदा	-1386
खिल	-1387
हरा	-1388
▁17	-1389
▁30	-1390
▁घा	-1391
▁रज	-1392
▁लख	-1393
श्मी	-1394
▁पार	-1395
▁वित	-1396
स्ताव	-1397
▁अंतर	-1398
▁एक्स	-1399
▁करती	-1400
▁चुकी	-1401
▁छोड़	-1402
▁जल्द	-1403
▁जीवन	-1404
▁पड़ा	-1405
▁फोटो	-1406
▁बड़े	-1407
▁मुझे	-1408
▁सचिव	-1409
▁समाज	-1410
▁होना	-1411
▁कराने	-1412
▁कराया	-1413
▁कॉलेज	-1414
▁जरूरत	-1415
▁निकाल	-1416
▁बिजली	-1417
▁राहुल	-1418
▁तस्वीर	-1419
▁बीजेपी	-1420
▁यात्रा	-1421
▁सम्मान	-1422
▁छात्रों	-1423
▁प्रतिशत	-1424
▁प्रस्ताव	-1425
▁शुक्रवार	-1426
▁उम्मीदवार	-1427
▁पाकिस्तान	-1428
ंख	-1429
इड	-1430
नर	-1431
मत	-1432
मन	-1433
मो	-1434
लर	-1435
लू	-1436
ांस	-1437
िनि	-1438
ुओं	-1439
▁जे	-1440
▁पो	-1441
▁वृ	-1442
वेदन	-1443
▁200	-1444
▁असर	-1445
▁तेज	-1446
▁बंग	-1447
▁बने	-1448
▁राय	-1449
न्हें	-1450
▁आपके	-1451
▁खर्च	-1452
▁दावा	-1453
▁बयान	-1454
▁राशि	-1455
▁सीएम	-1456
▁सीमा	-1457
द्यालय	-1458
▁घोषणा	-1459
▁भर्ती	-1460
ेंद्रीय	-1461
▁शनिवार	-1462
▁निर्माण	-1463
▁राज्यों	-1464
▁संक्रमण	-1465
इस	-1466
जु	-1467
्व	-1468
▁P	-1469
▁–	-1470
टेड	-1471
र्ग	-1472
वनी	-1473
शनल	-1474
श्च	-1475
िकल	-1476
ूषण	-1477
▁आख	-1478
▁आव	-1479
▁गे	-1480
▁टा	-1481
▁फा	-1482
लाइन	-1483
▁एयर	-1484
▁खबर	-1485
▁तीस	-1486
▁तौर	-1487
▁ब्ल	-1488
▁भेज	-1489
▁मजद	-1490
▁संय	-1491
ज्ञान	-1492
स्कार	-1493
▁चुके	-1494
▁जवाब	-1495
▁समूह	-1496
▁स्तर	-1497
▁भगवान	-1498
▁रविवार	-1499
▁कर्मचारी	-1500
▁केंद्रीय	-1501
तम	-1502
बल	-1503
भि	-1504
लब	-1505
रिक	-1506
हाय	-1507
ालन	-1508
्रम	-1509
▁छह	-1510
▁पॉ	-1511
▁प्	-1512
▁रन	-1513
▁वन	-1514
▁हॉ	-1515
क्कर	-1516
त्ता	-1517
वादी	-1518
विधा	-1519
ानीय	-1520
▁गयी	-1521
▁चीन	-1522
▁पें	-1523
▁मिन	-1524
▁संच	-1525
द्योग	-1526
स्थित	-1527
▁इसका	-1528
▁जमीन	-1529
▁नियम	-1530
▁पिता	-1531
▁पीछे	-1532
▁बदला	-1533
▁बिना	-1534
▁हालत	-1535
▁कश्मी	-1536
▁बारिश	-1537
▁बेहतर	-1538
▁रेलवे	-1539
▁शुरुआ	-1540
▁नेताओं	-1541
▁परेशान	-1542
▁स्थानीय	-1543
ुन	-1544
ूड	-1545
ैक	-1546
-19	-1547
ताह	-1548
मति	-1549
रीब	-1550
लाई	-1551
सिल	-1552
▁18	-1553
▁आइ	-1554
▁ख़	-1555
▁ते	-1556
▁रु	-1557
▁रै	-1558
ड़ों	-1559
रिया	-1560
▁आंक	-1561
▁इंत	-1562
▁टिक	-1563
▁डाल	-1564
▁नुक	-1565
▁पूछ	-1566
▁यदि	-1567
▁सित	-1568
▁हाद	-1569
▁हार	-1570
▁इलाज	-1571
▁ट्रक	-1572
▁दिला	-1573
▁पर्य	-1574
▁पहला	-1575
▁मुद्	-1576
▁शराब	-1577
▁हिंद	-1578
ध्यक्ष	-1579
▁अगस्त	-1580
▁अच्छा	-1581
▁अभिने	-1582
▁करेगा	-1583
▁देखने	-1584
▁परिषद	-1585
▁बोर्ड	-1586
▁मामला	-1587
▁आयोजित	-1588
▁सुविधा	-1589
▁हिस्सा	-1590
an	-1591
गल	-1592
दम	-1593
दु	-1594
धन	-1595
भग	-1596
िज	-1597
ोह	-1598
ौन	-1599
▁A	-1600
बार	-1601
लेट	-1602
हित	-1603
ोजन	-1604
▁50	-1605
▁बच	-1606
किंग	-1607
श्यक	-1608
ानों	-1609
ितों	-1610
ैनिक	-1611
▁अहम	-1612
▁गौर	-1613
▁जन्	-1614
▁दाम	-1615
▁पत्	-1616
▁बनी	-1617
▁मिश	-1618
▁मेड	-1619
▁लगी	-1620
▁वरि	-1621
▁सपा	-1622
▁सात	-1623
▁2021	-1624
▁आदेश	-1625
▁करवा	-1626
▁खुला	-1627
▁जागर	-1628
▁निकल	-1629
▁बनाए	-1630
▁बाइक	-1631
▁यूपी	-1632
▁रखने	-1633
▁वापस	-1634
▁संगठ	-1635
▁सहाय	-1636
▁सेना	-1637
▁आवेदन	-1638
▁जनवरी	-1639
▁सामान	-1640
▁हमारे	-1641
▁आरक्षण	-1642
▁आवश्यक	-1643
▁नुकसान	-1644
▁वरिष्ठ	-1645
अल	-1646
फे	-1647
षि	-1648
सब	-1649
सू	-1650
ुड	-1651
ूक	-1652
ेक	-1653
ॉप	-1654
ोद	-1655
गार	-1656
जीत	-1657
दाय	-1658
न्स	-1659
ब्ल	-1660
राव	-1661
र्द	-1662
र्ष	-1663
साद	-1664
ियम	-1665
्ता	-1666
्‍य	-1667
▁गल	-1668
▁तय	-1669
▁नक	-1670
▁मी	-1671
ग्री	-1672
द्धि	-1673
बाइल	-1674
राने	-1675
लिया	-1676
ॉर्ड	-1677
▁उन्	-1678
▁क्ल	-1679
▁खास	-1680
▁खूब	-1681
▁चले	-1682
▁जमा	-1683
▁पदा	-1684
▁पेट	-1685
▁बाल	-1686
▁मृत	-1687
▁विप	-1688
▁संत	-1689
▁सही	-1690
पूर्ण	-1691
मार्ट	-1692
▁कैसे	-1693
▁निगम	-1694
▁बेटी	-1695
▁मौसम	-1696
▁लगभग	-1697
▁लिये	-1698
▁उत्पा	-1699
▁उपयोग	-1700
▁रहेगा	-1701
▁विरोध	-1702
▁तैयारी	-1703
▁वर्षीय	-1704
▁विधायक	-1705
▁सुनवाई	-1706
▁क्रिकेट	-1707
कु	-1708
चर	-1709
झा	-1710
थम	-1711
नल	-1712
पन	-1713
फर	-1714
वै	-1715
िब	-1716
ृह	-1717
▁B	-1718
काउ	-1719
केट	-1720
वाह	-1721
स्व	-1722
▁भो	-1723
▁मश	-1724
▁शव	-1725
क्ता	-1726
चिका	-1727
जनों	-1728
त्ति	-1729
▁अति	-1730
▁आवा	-1731
▁उल्	-1732
▁किश	-1733
▁कोश	-1734
▁तला	-1735
▁दिल	-1736
▁बचा	-1737
▁मूल	-1738
▁यही	-1739
▁समु	-1740
▁सें	-1741
ूर्ति	-1742
▁अवसर	-1743
▁एक्ट	-1744
▁केवल	-1745
▁जाना	-1746
▁पड़े	-1747
▁प्ला	-1748
▁भारी	-1749
▁मेरी	-1750
▁सफाई	-1751
▁सांस	-1752
▁सेल्	-1753
▁आयोजन	-1754
▁ट्रेन	-1755
▁पुत्र	-1756
▁पूर्ण	-1757
▁मैंने	-1758
▁मैदान	-1759
▁लगाने	-1760
▁विवाद	-1761
▁संभाव	-1762
▁हरिया	-1763
▁कश्मीर	-1764
▁डॉक्टर	-1765
▁मोबाइल	-1766
▁शुरुआत	-1767
▁सप्ताह	-1768
▁मुकाबले	-1769
30	-1770
ंभ	-1771
घा	-1772
ठी	-1773
नऊ	-1774
फ़	-1775
सन	-1776
सव	-1777
ीक	-1778
▁C	-1779
▁M	-1780
ंडी	-1781
गंज	-1782
टेल	-1783
पास	-1784
बाज	-1785
भार	-1786
लाल	-1787
वुड	-1788
ष्ण	-1789
संद	-1790
साय	-1791
▁ऑन	-1792
▁दौ	-1793
▁फु	-1794
▁रण	-1795
▁शि	-1796
▁सत	-1797
▁सै	-1798
बाजी	-1799
▁गुप	-1800
▁दिख	-1801
▁बदल	-1802
▁मां	-1803
▁रंग	-1804
▁लूट	-1805
▁शरी	-1806
क्षित	-1807
जिटिव	-1808
श्चिम	-1809
▁आत्म	-1810
▁चुका	-1811
▁ताकि	-1812
▁धर्म	-1813
▁पीड़	-1814
▁रहते	-1815
▁लखनऊ	-1816
▁विभि	-1817
▁हमला	-1818
▁कोशिश	-1819
▁पत्नी	-1820
▁पेंशन	-1821
▁बच्चे	-1822
▁बदलाव	-1823
▁महारा	-1824
▁विचार	-1825
▁याचिका	-1826
▁लोकसभा	-1827
▁अमेरिका	-1828
▁रिकॉर्ड	-1829
▁वैक्सीन	-1830
▁हरियाणा	-1831
▁मंत्रालय	-1832
▁राजस्थान	-1833
▁राष्ट्रपति	-1834
),	-1835
in	-1836
ंव	-1837
▁R	-1838
▁ऋ	-1839
तरी	-1840
फ्ट	-1841
रात	-1842
वीं	-1843
वें	-1844
हान	-1845
ांत	-1846
िकी	-1847
िटी	-1848
ूबर	-1849
ृति	-1850
ेश्	-1851
▁आठ	-1852
▁एप	-1853
▁एल	-1854
▁ज़	-1855
▁टै	-1856
▁तु	-1857
त्ती	-1858
धानी	-1859
न्ना	-1860
प्री	-1861
ेंडर	-1862
▁199	-1863
▁आते	-1864
▁कदम	-1865
▁कमल	-1866
▁ठीक	-1867
▁तेल	-1868
▁प्य	-1869
▁रोड	-1870
▁लिख	-1871
▁सला	-1872
▁साब	-1873
धिकार	-1874
लीवुड	-1875
▁2019	-1876
▁अगले	-1877
▁उम्र	-1878
▁कपूर	-1879
▁चुना	-1880
▁टिकट	-1881
▁तैना	-1882
▁देकर	-1883
▁देता	-1884
▁पसंद	-1885
▁पाया	-1886
▁पूजा	-1887
▁बीते	-1888
▁भेजा	-1889
▁मिनट	-1890
▁मुला	-1891
▁सड़क	-1892
▁सोशल	-1893
▁मजदूर	-1894
▁वर्मा	-1895
▁संगठन	-1896
▁सफलता	-1897
▁सूत्र	-1898
▁हटाने	-1899
▁पश्चिम	-1900
▁भूमिका	-1901
▁समर्थन	-1902
▁चिकित्स	-1903
▁परिजनों	-1904
▁पॉजिटिव	-1905
▁आरोपियों	-1906
▁प्रभावित	-1907
▁राजनीतिक	-1908
▁कर्मचारियों	-1909
.1	-1910
.2	-1911
ंघ	-1912
इम	-1913
एच	-1914
कल	-1915
ड्	-1916
तृ	-1917
धर	-1918
ॉक	-1919
▁H	-1920
▁“	-1921
ट्र	-1922
तिम	-1923
पहर	-1924
मता	-1925
ष्य	-1926
सिक	-1927
सों	-1928
ामी	-1929
ियल	-1930
्मे	-1931
▁(1	-1932
▁दू	-1933
▁फॉ	-1934
▁मॉ	-1935
▁शे	-1936
रेलू	-1937
ष्टि	-1938
िएशन	-1939
िक्र	-1940
िक्ष	-1941
▁100	-1942
▁अफग	-1943
▁एडम	-1944
▁ऐसी	-1945
▁कमा	-1946
▁कला	-1947
▁गति	-1948
▁गृह	-1949
▁चोट	-1950
▁जोर	-1951
▁तभी	-1952
▁दवा	-1953
▁दिस	-1954
▁देर	-1955
▁नही	-1956
▁पहल	-1957
▁फ्र	-1958
▁बोल	-1959
▁मना	-1960
▁रोज	-1961
▁संघ	-1962
▁अप्र	-1963
▁उनसे	-1964
▁एसोस	-1965
▁तेजी	-1966
▁निरी	-1967
▁प्रव	-1968
▁बाबा	-1969
▁मंडल	-1970
▁मकान	-1971
▁यानी	-1972
▁होकर	-1973
प्रदेश	-1974
▁अच्छी	-1975
▁इलाके	-1976
▁खाद्य	-1977
▁घरेलू	-1978
▁चाहते	-1979
▁दिखाई	-1980
▁दूसरा	-1981
▁दोपहर	-1982
▁पहचान	-1983
▁बल्ले	-1984
▁हासिल	-1985
▁उत्तरा	-1986
▁प्रदान	-1987
▁मेडिकल	-1988
▁युवाओं	-1989
▁श्रद्ध	-1990
▁सितंबर	-1991
ानिस्तान	-1992
▁प्रतिनि	-1993
▁प्रदूषण	-1994
▁संयुक्त	-1995
▁कार्यालय	-1996
▁न्यायालय	-1997
▁विद्यालय	-1998
▁संक्रमित	-1999
er	-2000
इज	-2001
तु	-2002
पे	-2003
पो	-2004
भव	-2005
िग	-2006
ैर	-2007
कडा	-2008
केश	-2009
क्‍	-2010
ध्य	-2011
नेट	-2012
फ्र	-2013
बोध	-2014
रान	-2015
वीन	-2016
सूस	-2017
स्‍	-2018
िसर	-2019
▁21	-2020
▁22	-2021
▁आन	-2022
▁एज	-2023
▁कट	-2024
▁घु	-2025
▁ज्	-2026
▁मई	-2027
इयों	-2028
ड़ने	-2029
तवाल	-2030
लैंड	-2031
वंबर	-2032
वाही	-2033
्राम	-2034
▁कमी	-2035
▁कित	-2036
▁गीत	-2037
▁चयन	-2038
▁चुन	-2039
▁दीप	-2040
▁नदी	-2041
▁निश	-2042
▁मुक	-2043
▁रोग	-2044
▁साव	-2045
▁साह	-2046
▁सिल	-2047
▁हवा	-2048
कडाउन	-2049
धियों	-2050
ष्ट्र	-2051
ेश्वर	-2052
▁उपाय	-2053
▁कड़ी	-2054
▁कहते	-2055
▁कहीं	-2056
▁कृषि	-2057
▁खड़े	-2058
▁खत्म	-2059
▁गरीब	-2060
▁गोली	-2061
▁चालक	-2062
▁ट्वी	-2063
▁थाने	-2064
▁दक्ष	-2065
▁दुर्	-2066
▁पटेल	-2067
▁बेटे	-2068
▁ब्रा	-2069
▁भोजन	-2070
▁माना	-2071
▁लाने	-2072
▁वाहन	-2073
▁संकट	-2074
▁स्वी	-2075
▁हमले	-2076
▁अंतिम	-2077
▁उपचार	-2078
▁घोषित	-2079
▁जरूरी	-2080
▁देशों	-2081
▁नवंबर	-2082
▁निवेश	-2083
▁पर्या	-2084
▁बंगाल	-2085
▁भोपाल	-2086
▁मार्च	-2087
▁मास्क	-2088
▁रक्षा	-2089
▁वार्ड	-2090
▁सांसद	-2091
▁सीरीज	-2092
▁हादसे	-2093
▁इंतजार	-2094
▁ऑनलाइन	-2095
▁कोतवाल	-2096
▁जिम्मे	-2097
▁दिसंबर	-2098
▁प्रसाद	-2099
▁मामलों	-2100
▁शिक्षक	-2101
▁प्रभारी	-2102
▁राजनीति	-2103
▁संभावना	-2104
▁एसोसिएशन	-2105
▁कार्यकर्ता	-2106
)।	-2107
at	-2108
चन	-2109
चल	-2110
ठा	-2111
ण्	-2112
तक	-2113
ील	-2114
ैध	-2115
▁›	-2116
ंतर	-2117
ंता	-2118
अलग	-2119
चीत	-2120
जाम	-2121
टने	-2122
टाई	-2123
ट्स	-2124
धरी	-2125
न्द	-2126
पीट	-2127
व्य	-2128
िक्	-2129
िशा	-2130
ौती	-2131
्यु	-2132
्यो	-2133
्सा	-2134
▁35	-2135
▁खो	-2136
▁गौ	-2137
▁ठा	-2138
▁तम	-2139
▁थो	-2140
▁भु	-2141
▁लु	-2142
,000	-2143
क्षी	-2144
त्मा	-2145
र्मी	-2146
सगढ़	-2147
स्टर	-2148
स्पे	-2149
िक्स	-2150
ियार	-2151
▁अली	-2152
▁ऊपर	-2153
▁किस	-2154
▁गाय	-2155
▁गैस	-2156
▁चली	-2157
▁जता	-2158
▁बहन	-2159
▁लें	-2160
▁विन	-2161
▁संस	-2162
काउंट	-2163
▁अवैध	-2164
▁इतना	-2165
▁इनके	-2166
▁कारो	-2167
▁जाएं	-2168
▁जैसी	-2169
▁नक्स	-2170
▁निरा	-2171
▁पंजा	-2172
▁पकड़	-2173
▁लगाए	-2174
▁वक्त	-2175
▁वर्ग	-2176
▁शरीर	-2177
▁सर्व	-2178
▁छत्ती	-2179
▁जानते	-2180
▁ट्वीट	-2181
▁दक्षि	-2182
▁पढ़ें	-2183
▁पोस्ट	-2184
▁प्रथम	-2185
▁प्रभा	-2186
▁विदेश	-2187
▁विद्य	-2188
▁विमान	-2189
▁संवाद	-2190
▁स्थाप	-2191
▁गुप्ता	-2192
▁छात्रा	-2193
▁पहुंची	-2194
▁प्रकार	-2195
▁बातचीत	-2196
▁बीमारी	-2197
▁मिलेगा	-2198
▁स्टेशन	-2199
▁उपस्थित	-2200
▁खिलाड़ी	-2201
▁गुरुवार	-2202
▁लॉकडाउन	-2203
▁विभिन्न	-2204
▁व्यवसाय	-2205
धिकारियों	-2206
▁चिकित्सा	-2207
▁ग्रामीणों	-2208
▁छत्तीसगढ़	-2209
▁अफगानिस्तान	-2210
खर	-2211
खी	-2212
गू	-2213
छा	-2214
णय	-2215
धे	-2216
ॉय	-2217
ंगी	-2218
ंडल	-2219
असल	-2220
उंड	-2221
करी	-2222
टेज	-2223
टेन	-2224
डेट	-2225
ताछ	-2226
निक	-2227
फोन	-2228
राह	-2229
र्प	-2230
श्क	-2231
हाल	-2232
ालत	-2233
िमा	-2234
ेंड	-2235
ेशा	-2236
ोलन	-2237
▁23	-2238
▁40	-2239
▁अद	-2240
▁मच	-2241
एसपी	-2242
बादी	-2243
र्जा	-2244
वजूद	-2245
शिया	-2246
स्तव	-2247
िलों	-2248
ृष्ठ	-2249
▁अमर	-2250
▁इन्	-2251
▁ओवर	-2252
▁कब्	-2253
▁कवि	-2254
▁जित	-2255
▁जून	-2256
▁देव	-2257
▁पदक	-2258
▁भवि	-2259
▁मेह	-2260
▁वार	-2261
▁विष	-2262
▁वीर	-2263
▁शान	-2264
▁सां	-2265
▁सोन	-2266
श्चित	-2267
ारखंड	-2268
▁अंदर	-2269
▁अपरा	-2270
▁अमित	-2271
▁कंपन	-2272
▁छोटे	-2273
▁जन्म	-2274
▁जरिए	-2275
▁दर्श	-2276
▁देना	-2277
▁देवी	-2278
▁निजी	-2279
▁नेतृ	-2280
▁पालन	-2281
▁बनने	-2282
▁बेहद	-2283
▁मजबू	-2284
▁मेरे	-2285
▁मौका	-2286
▁रिश्	-2287
▁लगाई	-2288
▁लाइन	-2289
▁सूची	-2290
▁हमें	-2291
▁अपडेट	-2292
▁आगामी	-2293
▁कानून	-2294
▁चौहान	-2295
▁नोटिस	-2296
▁फरवरी	-2297
▁महसूस	-2298
ष्ट्रीय	-2299
▁अधिकार	-2300
▁अनुमति	-2301
▁कानपुर	-2302
▁पूछताछ	-2303
▁प्रकाश	-2304
▁बावजूद	-2305
▁भविष्य	-2306
▁शानदार	-2307
▁सड़कों	-2308
▁केन्द्र	-2309
▁बॉलीवुड	-2310
▁विश्वास	-2311
▁समीक्षा	-2312
▁स्मार्ट	-2313
▁राज्यपाल	-2314
▁उत्तराखंड	-2315
▁मध्यप्रदेश	-2316
.4	-2317
27	-2318
on	-2319
अप	-2320
क़	-2321
गु	-2322
पद	-2323
ात	-2324
िद	-2325
ौल	-2326
।'	-2327
ंकर	-2328
ंजी	-2329
ंडे	-2330
ंबे	-2331
ग्ग	-2332
टों	-2333
णाम	-2334
नगर	-2335
नीय	-2336
लेख	-2337
ांक	-2338
िरी	-2339
िसा	-2340
ेटी	-2341
▁60	-2342
▁अश	-2343
▁गह	-2344
▁दम	-2345
▁नै	-2346
▁बल	-2347
▁लो	-2348
▁शो	-2349
▁शौ	-2350
▁सप	-2351
सेना	-2352
ांति	-2353
ित्य	-2354
▁अंक	-2355
▁आंद	-2356
▁आता	-2357
▁उच्	-2358
▁उपा	-2359
▁कर्	-2360
▁कले	-2361
▁काउ	-2362
▁कैम	-2363
▁खंड	-2364
▁गर्	-2365
▁गलत	-2366
▁चढ़	-2367
▁तरी	-2368
▁नया	-2369
▁बिक	-2370
▁बिग	-2371
▁भाव	-2372
▁यून	-2373
▁सब्	-2374
धारित	-2375
▁अखिल	-2376
▁उससे	-2377
▁कराई	-2378
▁कॉन्	-2379
▁क्रम	-2380
▁खराब	-2381
▁खाने	-2382
▁चोरी	-2383
▁डाउन	-2384
▁डॉलर	-2385
▁तकनी	-2386
▁नागर	-2387
▁पैदा	-2388
▁प्रे	-2389
▁बच्‍	-2390
▁बदमा	-2391
▁मानव	-2392
▁रैली	-2393
▁लगता	-2394
▁लड़ा	-2395
▁वार्	-2396
▁श्रे	-2397
ड़ियों	-2398
▁अदालत	-2399
▁आसपास	-2400
▁कमेटी	-2401
▁चिंता	-2402
▁चौधरी	-2403
▁दरअसल	-2404
▁देखकर	-2405
▁नक्सल	-2406
▁पंजाब	-2407
▁पार्क	-2408
▁फर्जी	-2409
▁बीमार	-2410
▁मजबूत	-2411
▁मार्ग	-2412
▁मिश्र	-2413
▁सिद्ध	-2414
▁सैनिक	-2415
▁स्टूड	-2416
▁हमारी	-2417
▁हमेशा	-2418
कर्ताओं	-2419
▁अकाउंट	-2420
▁आंदोलन	-2421
▁खुलासा	-2422
▁झारखंड	-2423
▁निर्णय	-2424
▁परिणाम	-2425
▁पीड़ित	-2426
▁मारपीट	-2427
▁मुद्दे	-2428
▁संबंधी	-2429
▁दुकानों	-2430
▁व्यापार	-2431
▁कंपनियों	-2432
▁पुरस्कार	-2433
▁अभिनेत्री	-2434
▁अस्पतालों	-2435
.5	-2436
.8	-2437
कम	-2438
डल	-2439
डि	-2440
पत	-2441
सत	-2442
ूत	-2443
ंदन	-2444
घ्र	-2445
द्द	-2446
बाव	-2447
रोज	-2448
लोड	-2449
वर्	-2450
श्व	-2451
साथ	-2452
साह	-2453
सित	-2454
हल्	-2455
हाँ	-2456
ियत	-2457
▁26	-2458
▁कू	-2459
▁बग	-2460
▁सल	-2461
एमसी	-2462
क्रो	-2463
जूदा	-2464
देशक	-2465
न्हा	-2466
पमान	-2467
बारी	-2468
वाना	-2469
वाने	-2470
श्वर	-2471
स्ते	-2472
ाजिक	-2473
्रोल	-2474
▁अंत	-2475
▁आंख	-2476
▁इरा	-2477
▁काल	-2478
▁कैब	-2479
▁कोल	-2480
▁खोल	-2481
▁गईं	-2482
▁चीज	-2483
▁ज्ञ	-2484
▁टॉप	-2485
▁ताल	-2486
▁प्ल	-2487
▁बेच	-2488
▁भ्र	-2489
▁मनी	-2490
▁रखी	-2491
▁वोट	-2492
▁स्‍	-2493
कोर्ट	-2494
दाबाद	-2495
दारों	-2496
श्किल	-2497
िवारी	-2498
्रेशन	-2499
▁अक्ट	-2500
▁अग्र	-2501
▁अपील	-2502
▁अफसर	-2503
▁आपकी	-2504
▁आवाज	-2505
▁इतनी	-2506
▁करनी	-2507
▁कीमत	-2508
▁चीनी	-2509
▁नारा	-2510
▁पटना	-2511
▁बनाई	-2512
▁मेरा	-2513
▁रक्त	-2514
▁लंबे	-2515
▁लागू	-2516
▁विजय	-2517
▁शाहर	-2518
▁शुक्	-2519
▁सलाह	-2520
▁सिंध	-2521
▁सुनी	-2522
▁सुपर	-2523
▁हमने	-2524
▁होटल	-2525
ोग्राम	-2526
▁आबादी	-2527
▁एक्सप	-2528
▁एडमिट	-2529
▁गतिवि	-2530
▁चंद्र	-2531
▁जुलाई	-2532
▁दाखिल	-2533
▁देंगे	-2534
▁प्रिय	-2535
▁बदमाश	-2536
▁महत्व	-2537
▁माध्य	-2538
▁मालिक	-2539
▁रोकने	-2540
▁विकेट	-2541
▁शीघ्र	-2542
▁संचाल	-2543
▁सलमान	-2544
▁साबित	-2545
▁सामना	-2546
▁सालों	-2547
▁स्टार	-2548
▁हालात	-2549
▁अतिरिक	-2550
▁इंस्पे	-2551
▁इन्हें	-2552
▁जाएंगे	-2553
▁तापमान	-2554
▁मात्रा	-2555
▁मौजूदा	-2556
▁वर्षों	-2557
▁वृद्धि	-2558
कर्मियों	-2559
▁अक्टूबर	-2560
▁नेतृत्व	-2561
▁संबंधित	-2562
▁सदस्यों	-2563
▁सामाजिक	-2564
▁सूत्रों	-2565
▁डॉक्टरों	-2566
▁प्रवक्ता	-2567
▁प्रशिक्ष	-2568
▁हाईकोर्ट	-2569
▁इंस्पेक्टर	-2570
▁महाराष्ट्र	-2571
▁उम्मीदवारों	-2572
50	-2573
am	-2574
खे	-2575
गठ	-2576
टो	-2577
फल	-2578
यक	-2579
यम	-2580
सु	-2581
सो	-2582
ीव	-2583
▁J	-2584
▁S	-2585
▁V	-2586
▁|	-2587
ंडर	-2588
ंसा	-2589
कात	-2590
कुल	-2591
जलि	-2592
तलब	-2593
दों	-2594
मैन	-2595
म्प	-2596
विल	-2597
हास	-2598
हूं	-2599
ियस	-2600
ेंज	-2601
्मू	-2602
▁(2	-2603
▁आश	-2604
▁ठे	-2605
▁डर	-2606
▁नव	-2607
▁नो	-2608
▁पौ	-2609
▁फो	-2610
▁सॉ	-2611
▁हथ	-2612
....	-2613
ंदगी	-2614
करों	-2615
थमिक	-2616
दाता	-2617
बीआई	-2618
भाषा	-2619
हम्म	-2620
ार्ज	-2621
ित्र	-2622
्रेट	-2623
▁आकर	-2624
▁इंद	-2625
▁इति	-2626
▁उद्	-2627
▁कां	-2628
▁तत्	-2629
▁नाक	-2630
▁निर	-2631
▁फाय	-2632
▁फ्ल	-2633
▁बर्	-2634
▁बाग	-2635
▁भरो	-2636
▁भवन	-2637
▁रिज	-2638
▁रूस	-2639
▁लौट	-2640
▁सभा	-2641
▁हड़	-2642
▁होम	-2643
र्थिक	-2644
स्कृत	-2645
ांजलि	-2646
ेंट्स	-2647
▁अशोक	-2648
▁आखिर	-2649
▁कहां	-2650
▁चेयर	-2651
▁जनपद	-2652
▁जमकर	-2653
▁जाये	-2654
▁टीका	-2655
▁डीएम	-2656
▁दबाव	-2657
▁दलों	-2658
▁दावे	-2659
▁देखी	-2660
▁दौरे	-2661
▁धारा	-2662
▁निभा	-2663
▁नीचे	-2664
▁पंजी	-2665
▁पदों	-2666
▁परिव	-2667
▁प्रक	-2668
▁बिल्	-2669
▁ब्रि	-2670
▁भीड़	-2671
▁महास	-2672
▁माता	-2673
▁मुकद	-2674
▁रहता	-2675
▁लेना	-2676
▁लॉन्	-2677
▁समाप	-2678
▁सिटी	-2679
क्रिया	-2680
गठबंधन	-2681
स्ट्रे	-2682
ायरिंग	-2683
▁कहानी	-2684
▁ग्रुप	-2685
▁चाहता	-2686
▁जम्मू	-2687
▁जिलों	-2688
▁जिसका	-2689
▁टक्कर	-2690
▁तैनात	-2691
▁दोस्त	-2692
▁नाराज	-2693
▁पड़ता	-2694
▁परिसर	-2695
▁पृष्ठ	-2696
▁फैसले	-2697
▁बनाकर	-2698
▁मिलकर	-2699
▁संबोध	-2700
▁सत्ता	-2701
▁सुधार	-2702
▁हिंदू	-2703
▁अंतररा	-2704
▁अप्रैल	-2705
▁आधारित	-2706
▁आर्थिक	-2707
▁इतिहास	-2708
▁गठबंधन	-2709
▁गांवों	-2710
▁तिवारी	-2711
▁नागरिक	-2712
▁प्रत्य	-2713
▁प्रयोग	-2714
▁व्यक्त	-2715
▁शुक्ला	-2716
▁स्वर्ण	-2717
▁पेट्रोल	-2718
▁मजदूरों	-2719
▁मार्केट	-2720
▁मुश्किल	-2721
▁राजधानी	-2722
▁सामान्य	-2723
▁अतिरिक्त	-2724
▁बल्लेबाज	-2725
▁विशेषज्ञ	-2726
▁समस्याओं	-2727
▁सुरक्षित	-2728
स्ट्रेलिया	-2729
▁निर्धारित	-2730
▁प्रक्रिया	-2731
▁विद्यार्थ	-2732
▁अंतरराष्ट्रीय	-2733
.9	-2734
ak	-2735
ho	-2736
ra	-2737
re	-2738
ंथ	-2739
चु	-2740
दो	-2741
यल	-2742
रम	-2743
रल	-2744
्प	-2745
।’	-2746
▁I	-2747
करा	-2748
ख्त	-2749
त्‍	-2750
थित	-2751
दिन	-2752
नान	-2753
नाम	-2754
प्त	-2755
राम	-2756
वेज	-2757
श्न	-2758
सेस	-2759
स्ल	-2760
्टी	-2761
▁45	-2762
▁अय	-2763
▁अस	-2764
▁एफ	-2765
▁चम	-2766
▁तह	-2767
▁पट	-2768
▁पथ	-2769
▁फस	-2770
▁फी	-2771
▁लं	-2772
▁वी	-2773
▁हल	-2774
गांव	-2775
टकों	-2776
नाटक	-2777
पुरा	-2778
मीटर	-2779
र्डर	-2780
वरूप	-2781
वानी	-2782
ष्टा	-2783
सबुक	-2784
सीटी	-2785
स्तु	-2786
ियोग	-2787
ेंसी	-2788
्राइ	-2789
्रिय	-2790
▁(19	-2791
▁500	-2792
▁अके	-2793
▁आना	-2794
▁आलो	-2795
▁उजा	-2796
▁एंड	-2797
▁कने	-2798
▁किन	-2799
▁केस	-2800
▁कैं	-2801
▁कौन	-2802
▁खुल	-2803
▁चरण	-2804
▁जबर	-2805
▁तुल	-2806
▁दोब	-2807
▁बिल	-2808
▁ब्र	-2809
▁मगर	-2810
▁मुह	-2811
▁रोल	-2812
▁वाय	-2813
▁विल	-2814
▁वेब	-2815
▁शेर	-2816
कारों	-2817
ग्राम	-2818
श्वास	-2819
हम्मद	-2820
▁अनिल	-2821
▁अनुर	-2822
▁अर्ज	-2823
▁इच्छ	-2824
▁उच्च	-2825
▁उनको	-2826
▁कार्	-2827
▁कैंप	-2828
▁चंडी	-2829
▁जरूर	-2830
▁जोड़	-2831
▁दर्द	-2832
▁दिशा	-2833
▁पैसे	-2834
▁फरार	-2835
▁बीएस	-2836
▁मैने	-2837
▁योगी	-2838
▁रखते	-2839
▁शासन	-2840
▁साझा	-2841
▁सारे	-2842
▁सोने	-2843
▁स्टे	-2844
▁इनमें	-2845
▁इस्ला	-2846
▁उठाया	-2847
▁ऊर्जा	-2848
▁कक्षा	-2849
▁कृष्ण	-2850
▁गाड़ी	-2851
▁गेहूं	-2852
▁गोपाल	-2853
▁चक्कर	-2854
▁जानिए	-2855
▁दर्शन	-2856
▁पढ़ाई	-2857
▁प्यार	-2858
▁प्रभु	-2859
▁मानना	-2860
▁युद्ध	-2861
▁वायरल	-2862
▁विस्त	-2863
▁शक्ति	-2864
▁शिविर	-2865
▁सिविल	-2866
▁सूर्य	-2867
▁सेंटर	-2868
द्योगिक	-2869
▁किशोरी	-2870
▁गौरतलब	-2871
▁जिनमें	-2872
▁डिग्री	-2873
▁नामांक	-2874
▁पुराने	-2875
▁पुष्टि	-2876
▁फिलहाल	-2877
▁फेसबुक	-2878
▁मिलेगी	-2879
▁योगदान	-2880
▁राजस्व	-2881
▁रोजगार	-2882
▁लक्ष्य	-2883
▁संपर्क	-2884
▁सक्रिय	-2885
▁सहायता	-2886
▁सिन्हा	-2887
▁स्पष्ट	-2888
▁अग्रवाल	-2889
▁कर्नाटक	-2890
▁कलेक्टर	-2891
▁कोतवाली	-2892
▁चंडीगढ़	-2893
▁चेयरमैन	-2894
▁दर्शकों	-2895
▁महिलाएं	-2896
▁किलोमीटर	-2897
▁तस्वीरें	-2898
▁निरीक्षक	-2899
▁प्रत्येक	-2900
▁प्राथमिक	-2901
▁क्षेत्रों	-2902
▁गिरफ्तारी	-2903
▁पदाधिकारी	-2904
▁प्रतिनिधि	-2905
▁महागठबंधन	-2906
▁महत्वपूर्ण	-2907
▁व्यापारियों	-2908
उस	-2909
गो	-2910
यं	-2911
ुख	-2912
ोप	-2913
‍ह	-2914
▁G	-2915
▁N	-2916
ंदे	-2917
करे	-2918
चों	-2919
जिए	-2920
देन	-2921
धीश	-2922
भाल	-2923
मैं	-2924
रीय	-2925
ल्स	-2926
वरण	-2927
वली	-2928
शिप	-2929
ायण	-2930
ुल्	-2931
ैंस	-2932
ैया	-2933
ोत्	-2934
▁01	-2935
▁1,	-2936
▁31	-2937
▁ओम	-2938
▁कच	-2939
▁ग्	-2940
▁दस	-2941
▁पत	-2942
▁मू	-2943
▁रम	-2944
▁वॉ	-2945
ंग्ल	-2946
क्सर	-2947
चानक	-2948
जिटल	-2949
डीएम	-2950
ध्या	-2951
निर्	-2952
नेशन	-2953
पुरी	-2954
रासत	-2955
लोनी	-2956
वारी	-2957
विटर	-2958
स्टम	-2959
स्टी	-2960
्‍या	-2961
▁198	-2962
▁अंग	-2963
▁अजय	-2964
▁अधी	-2965
▁इंच	-2966
▁ऊंच	-2967
▁काट	-2968
▁खेत	-2969
▁घुस	-2970
▁घूम	-2971
▁चोर	-2972
▁छाप	-2973
▁जाय	-2974
▁जोन	-2975
▁डेट	-2976
▁त्र	-2977
▁दान	-2978
▁दूध	-2979
▁नाग	-2980
▁नीत	-2981
▁पोल	-2982
▁बहु	-2983
▁मजब	-2984
▁माइ	-2985
▁रेड	-2986
▁शुभ	-2987
▁साइ	-2988
▁साज	-2989
▁सिर	-2990
▁सीओ	-2991
ायकों	-2992
▁अभिय	-2993
▁अल्प	-2994
▁आर्ट	-2995
▁कमरे	-2996
▁किये	-2997
▁खाना	-2998
▁खूबस	-2999
▁खेती	-3000
▁गैंग	-3001
▁ग्रह	-3002
▁जब्त	-3003
▁नेहर	-3004
▁पारी	-3005
▁पेड़	-3006
▁बढ़ो	-3007
▁बैठे	-3008
▁भुगत	-3009
▁मंडी	-3010
▁मशीन	-3011
▁मोहन	-3012
▁रखें	-3013
▁रहीं	-3014
▁रिली	-3015
▁लेते	-3016
▁विवे	-3017
▁विषय	-3018
▁संजय	-3019
▁सर्च	-3020
▁सोना	-3021
क्सीजन	-3022
फ्रेंस	-3023
सीटीवी	-3024
▁अचानक	-3025
▁अच्छे	-3026
▁उसमें	-3027
▁एकत्र	-3028
▁जल्दी	-3029
▁जागरण	-3030
▁जोड़ी	-3031
▁तरीके	-3032
▁तीसरे	-3033
▁थोड़ा	-3034
▁धनबाद	-3035
▁नौकरी	-3036
▁प्रार	-3037
▁फुटेज	-3038
▁बातें	-3039
▁भरोसा	-3040
▁भारती	-3041
▁मिलता	-3042
▁मैचों	-3043
▁यात्र	-3044
▁राजीव	-3045
▁रोहित	-3046
▁लगाते	-3047
▁लड़की	-3048
▁लॉन्च	-3049
▁वापसी	-3050
▁संदेश	-3051
▁सहायक	-3052
▁सुनील	-3053
▁स्वयं	-3054
धिकारिक	-3055
वादियों	-3056
वासियों	-3057
▁अनुमान	-3058
▁उत्पाद	-3059
▁करवाया	-3060
▁चुनौती	-3061
▁जागरूक	-3062
▁ट्विटर	-3063
▁डिजिटल	-3064
▁दक्षिण	-3065
▁दोबारा	-3066
▁नियमित	-3067
▁पड़ेगा	-3068
▁पदार्थ	-3069
▁पहलवान	-3070
▁प्रवेश	-3071
▁प्रसार	-3072
▁माध्यम	-3073
▁मानसिक	-3074
▁रजिस्ट	-3075
▁रहेंगे	-3076
▁रास्ते	-3077
▁रिश्ते	-3078
▁वार्ता	-3079
▁विकसित	-3080
▁श्रमिक	-3081
▁सकेंगे	-3082
▁समुदाय	-3083
▁स्वामी	-3084
▁हथियार	-3085
▁चुनावों	-3086
▁जिन्हें	-3087
▁नामांकन	-3088
▁नियुक्त	-3089
▁परेशानी	-3090
▁पहुंचने	-3091
▁बच्‍चों	-3092
▁महामारी	-3093
▁मुलाकात	-3094
▁सामग्री	-3095
▁स्थापित	-3096
▁आधिकारिक	-3097
▁आवश्यकता	-3098
▁पर्यटकों	-3099
▁शिक्षकों	-3100
▁सीसीटीवी	-3101
▁अध्यक्षता	-3102
▁उपाध्यक्ष	-3103
▁यात्रियों	-3104
▁गतिविधियों	-3105
▁ऑस्ट्रेलिया	-3106
▁श्रद्धांजलि	-3107
▁पदाधिकारियों	-3108
-2	-3109
40	-3110
77	-3111
ad	-3112
al	-3113
ंश	-3114
बु	-3115
मल	-3116
मस	-3117
मि	-3118
यो	-3119
िड	-3120
ौत	-3121
-20	-3122
ंकी	-3123
ंघन	-3124
ंटर	-3125
ंटी	-3126
ंडा	-3127
ंती	-3128
उडर	-3129
कीय	-3130
कुर	-3131
कोर	-3132
ढ़े	-3133
न्‍	-3134
र्न	-3135
ल्ट	-3136
वाइ	-3137
वेद	-3138
शील	-3139
षित	-3140
हरे	-3141
ामा	-3142
िरा	-3143
ेटर	-3144
ेलन	-3145
्हा	-3146
▁4.	-3147
▁गू	-3148
▁छु	-3149
▁टन	-3150
▁धर	-3151
▁धी	-3152
▁बू	-3153
▁बौ	-3154
▁यो	-3155
▁शर	-3156
एंगे	-3157
ग्गज	-3158
घटना	-3159
त्रि	-3160
द्दी	-3161
न्या	-3162
राया	-3163
रावट	-3164
लंघन	-3165
लाने	-3166
वाले	-3167
विंद	-3168
साइट	-3169
सियस	-3170
स्ती	-3171
िसाब	-3172
ुरुष	-3173
ैक्ट	-3174
्याण	-3175
्रमण	-3176
▁अपर	-3177
▁अरब	-3178
▁आयु	-3179
▁इका	-3180
▁इजा	-3181
▁ओपी	-3182
▁किर	-3183
▁गोर	-3184
▁चैन	-3185
▁नती	-3186
▁नार	-3187
▁नाल	-3188
▁पहा	-3189
▁पाई	-3190
▁पुण	-3191
▁पैर	-3192
▁फैल	-3193
▁रखे	-3194
▁लाइ	-3195
▁लीग	-3196
▁शाय	-3197
▁समा	-3198
▁सुख	-3199
▁सौर	-3200
चार्य	-3201
टियों	-3202
प्रीत	-3203
िक्कत	-3204
ोध्या	-3205
▁2014	-3206
▁2017	-3207
▁अर्थ	-3208
▁आईसी	-3209
▁आपने	-3210
▁आसान	-3211
▁उचित	-3212
▁उर्फ	-3213
▁खाते	-3214
▁खेले	-3215
▁गाने	-3216
▁ग्रे	-3217
▁जताई	-3218
▁जवान	-3219
▁जुटा	-3220
▁जुटे	-3221
▁ठेके	-3222
▁ड्यू	-3223
▁तमाम	-3224
▁तलाश	-3225
▁तारी	-3226
▁तोड़	-3227
▁त्रि	-3228
▁दिवस	-3229
▁दूरी	-3230
▁नवीन	-3231
▁पढ़े	-3232
▁प्रि	-3233
▁प्री	-3234
▁प्ले	-3235
▁बनार	-3236
▁बाकी	-3237
▁बीसी	-3238
▁माने	-3239
▁मुंह	-3240
▁रहती	-3241
▁रहें	-3242
▁राहत	-3243
▁लगने	-3244
▁लाइट	-3245
▁लालू	-3246
▁लौटे	-3247
▁वायु	-3248
▁विभा	-3249
▁संसद	-3250
▁सत्र	-3251
▁सागर	-3252
▁साथी	-3253
▁सिलस	-3254
▁सुनि	-3255
▁स्थल	-3256
▁होनी	-3257
स्तानी	-3258
▁आखिरी	-3259
▁इंग्ल	-3260
▁उन्‍ह	-3261
▁एशिया	-3262
▁काउंस	-3263
▁कैमरे	-3264
▁जुड़ी	-3265
▁ठाकुर	-3266
▁तीनों	-3267
▁देखें	-3268
▁निर्म	-3269
▁नेशनल	-3270
▁नेहरू	-3271
▁पाउडर	-3272
▁पात्र	-3273
▁पुरुष	-3274
▁प्रेम	-3275
▁प्रोज	-3276
▁बच्चा	-3277
▁मांगा	-3278
▁मिर्च	-3279
▁मूल्य	-3280
▁लाखों	-3281
▁वितरण	-3282
▁विनोद	-3283
▁शांति	-3284
▁संतोष	-3285
▁हाथों	-3286
▁हिसाब	-3287
ज्ञानिक	-3288
▁अध्याप	-3289
▁कॉलोनी	-3290
▁गिरावट	-3291
▁दिक्कत	-3292
▁दिग्गज	-3293
▁निर्वा	-3294
▁बैंकों	-3295
▁वर्ल्ड	-3296
▁विपक्ष	-3297
▁व्यापक	-3298
▁शिवानी	-3299
▁समाप्त	-3300
▁सीबीआई	-3301
▁सुप्री	-3302
▁सेक्टर	-3303
▁हिरासत	-3304
▁अधीक्षक	-3305
▁अभिनेता	-3306
▁अमेरिकी	-3307
▁अयोध्या	-3308
▁उत्पादन	-3309
▁कार्यों	-3310
▁बिल्कुल	-3311
▁ब्रिटेन	-3312
▁मुकाबला	-3313
▁योजनाओं	-3314
▁लक्ष्मी	-3315
▁वेबसाइट	-3316
▁संबोधित	-3317
▁संस्कार	-3318
▁आतंकियों	-3319
▁औद्योगिक	-3320
▁क्रिकेटर	-3321
▁दुर्घटना	-3322
▁पर्याप्त	-3323
▁प्रियंका	-3324
▁सेल्सियस	-3325
▁न्यायाधीश	-3326
▁सुनिश्चित	-3327
▁चिकित्सकों	-3328
▁जिम्मेदारी	-3329
▁प्रस्तावित	-3330
▁स्टूडेंट्स	-3331
▁कार्यकर्ताओं	-3332
))	-3333
60	-3334
st	-3335
एक	-3336
कू	-3337
गण	-3338
गन	-3339
थे	-3340
नु	-3341
फॉ	-3342
लम	-3343
षी	-3344
ॉट	-3345
्न	-3346
।"	-3347
▁W	-3348
ंकल	-3349
ंटा	-3350
एलए	-3351
कृत	-3352
केत	-3353
गीय	-3354
चिव	-3355
जनक	-3356
जरी	-3357
जान	-3358
डि़	-3359
तरे	-3360
तों	-3361
त्य	-3362
दर्	-3363
दीप	-3364
पात	-3365
फिक	-3366
ब्द	-3367
याग	-3368
राए	-3369
लील	-3370
षेक	-3371
सील	-3372
हनत	-3373
ामद	-3374
ाये	-3375
िटल	-3376
ूनी	-3377
▁1.	-3378
▁27	-3379
▁90	-3380
▁Ho	-3381
▁Re	-3382
▁इम	-3383
▁ऐप	-3384
▁खी	-3385
▁ढा	-3386
▁तृ	-3387
▁दृ	-3388
▁धै	-3389
▁धो	-3390
▁पल	-3391
▁पश	-3392
▁फि	-3393
▁मर	-3394
▁मल	-3395
▁री	-3396
▁वस	-3397
टीएम	-3398
ट्वि	-3399
धाना	-3400
पीएम	-3401
फिया	-3402
फ्ते	-3403
माणु	-3404
रवरी	-3405
वधान	-3406
व्यू	-3407
सपुर	-3408
ारिज	-3409
ार्व	-3410
िनेट	-3411
िबान	-3412
ुद्ध	-3413
ुरंत	-3414
्यता	-3415
▁...	-3416
▁अश्	-3417
▁आती	-3418
▁आये	-3419
▁आशी	-3420
▁उधर	-3421
▁ओपन	-3422
▁कहर	-3423
▁कुश	-3424
▁कोच	-3425
▁खुश	-3426
▁गढ़	-3427
▁गये	-3428
▁गुज	-3429
▁गेम	-3430
▁गैर	-3431
▁गोल	-3432
▁चेक	-3433
▁जंग	-3434
▁जाम	-3435
▁नयी	-3436
▁नाथ	-3437
▁पहन	-3438
▁पाल	-3439
▁पॉल	-3440
▁बहा	-3441
▁मंच	-3442
▁मधु	-3443
▁मनो	-3444
▁माय	-3445
▁मेर	-3446
▁लेख	-3447
▁वही	-3448
▁शास	-3449
▁शोध	-3450
▁संर	-3451
ंग्ला	-3452
कर्मी	-3453
कालीन	-3454
पोर्ट	-3455
फॉर्म	-3456
फ्तार	-3457
ब्लिक	-3458
सिद्ध	-3459
स्लिम	-3460
ानिया	-3461
ोत्सव	-3462
▁2012	-3463
▁2018	-3464
▁अक्ष	-3465
▁आकर्	-3466
▁आदमी	-3467
▁आनंद	-3468
▁आवास	-3469
▁इतने	-3470
▁एसपी	-3471
▁क्ला	-3472
▁खड़ा	-3473
▁गंगा	-3474
▁गिरि	-3475
▁चेता	-3476
▁चौकी	-3477
▁जानी	-3478
▁ज्यो	-3479
▁टीवी	-3480
▁डीसी	-3481
▁तनाव	-3482
▁ताकत	-3483
▁देगा	-3484
▁निधन	-3485
▁पाने	-3486
▁प्रण	-3487
▁फ़िल	-3488
▁फाइन	-3489
▁फार्	-3490
▁बगैर	-3491
▁बताई	-3492
▁बिला	-3493
▁बुला	-3494
▁ब्रे	-3495
▁मतलब	-3496
▁मनोज	-3497
▁रद्द	-3498
▁रमेश	-3499
▁राजा	-3500
▁रावत	-3501
▁रेफर	-3502
▁लंदन	-3503
▁वैसे	-3504
▁शायद	-3505
▁सख्त	-3506
▁समझा	-3507
▁सर्ज	-3508
▁सिया	-3509
▁सीधे	-3510
▁सुना	-3511
▁सेले	-3512
▁स्टा	-3513
▁स्पे	-3514
▁हाउस	-3515
टेडियम	-3516
ड़ियां	-3517
दाताओं	-3518
ार्मिक	-3519
▁आंखों	-3520
▁आसानी	-3521
▁करियर	-3522
▁कविता	-3523
▁किशोर	-3524
▁खेलने	-3525
▁ग्रहण	-3526
▁चाहती	-3527
▁छावनी	-3528
▁जगहों	-3529
▁जयंती	-3530
▁जुर्म	-3531
▁ट्रंप	-3532
▁तहसील	-3533
▁तारीख	-3534
▁तुरंत	-3535
▁दैनिक	-3536
▁धैर्य	-3537
▁निकले	-3538
▁न्याय	-3539
▁पूंजी	-3540
▁प्रेर	-3541
▁प्लेट	-3542
▁फसलों	-3543
▁फोर्स	-3544
▁बच्चन	-3545
▁बढ़कर	-3546
▁बनारस	-3547
▁बरामद	-3548
▁मजबूर	-3549
▁मतदान	-3550
▁मात्र	-3551
▁मिलती	-3552
▁मुकेश	-3553
▁मुक्त	-3554
▁मेहनत	-3555
▁रिलीज	-3556
▁लड़ने	-3557
▁वित्त	-3558
▁संभाल	-3559
▁सरदार	-3560
▁सहमति	-3561
▁साढ़े	-3562
▁सीटों	-3563
▁स्नान	-3564
▁हफ्ते	-3565
ट्विंकल	-3566
न्होंने	-3567
ष्टाचार	-3568
स्कृतिक	-3569
▁अखिलेश	-3570
▁आंकड़ा	-3571
▁आदित्य	-3572
▁इंडस्ट	-3573
▁उत्तरी	-3574
▁उद्योग	-3575
▁एजेंसी	-3576
▁कल्याण	-3577
▁क्षमता	-3578
▁गरीबों	-3579
▁जायेगा	-3580
▁दिव्या	-3581
▁नियमों	-3582
▁निर्मा	-3583
▁निशाना	-3584
▁पब्लिक	-3585
▁परमाणु	-3586
▁पुरानी	-3587
▁प्रबंध	-3588
▁फ़रवरी	-3589
▁बढ़ाने	-3590
▁बनर्जी	-3591
▁बिक्री	-3592
▁वास्तव	-3593
▁वाहनों	-3594
▁शाहरुख	-3595
▁संपन्न	-3596
▁सहयोगी	-3597
▁स्वस्थ	-3598
ंग्लादेश	-3599
विद्यालय	-3600
▁आपूर्ति	-3601
▁ऑक्सीजन	-3602
▁कारोबार	-3603
▁कैबिनेट	-3604
▁टीकाकरण	-3605
▁डाउनलोड	-3606
▁तालिबान	-3607
▁पश्चिमी	-3608
▁प्रधाना	-3609
▁प्रवासी	-3610
▁बढ़ोतरी	-3611
▁महासचिव	-3612
▁मुस्लिम	-3613
▁रक्तदान	-3614
▁विज्ञान	-3615
▁सिंधिया	-3616
▁सैनिकों	-3617
▁इंग्लैंड	-3618
▁इंटरव्यू	-3619
▁गेंदबाजी	-3620
▁ज्यादातर	-3621
▁प्रतियोग	-3622
▁समर्थकों	-3623
▁सम्मानित	-3624
▁स्टेडियम	-3625
▁एक्सप्रेस	-3626
▁प्रशासनिक	-3627
▁प्रशिक्षण	-3628
▁वैज्ञानिक	-3629
▁सांस्कृतिक	-3630
▁रजिस्ट्रेशन	-3631
,1	-3632
.0	-3633
22	-3634
:2	-3635
ch	-3636
it	-3637
ँच	-3638
जो	-3639
थि	-3640
दर	-3641
दल	-3642
भो	-3643
मह	-3644
रत	-3645
सं	-3646
ृज	-3647
ेद	-3648
ैप	-3649
▁)	-3650
▁L	-3651
har	-3652
ंचल	-3653
एडा	-3654
कंप	-3655
कील	-3656
टका	-3657
टील	-3658
ण्ड	-3659
ताप	-3660
तीश	-3661
तौर	-3662
दात	-3663
नाक	-3664
निस	-3665
पंथ	-3666
पान	-3667
फान	-3668
बरी	-3669
बीर	-3670
बुल	-3671
भूम	-3672
मंद	-3673
मती	-3674
मिन	-3675
मेल	-3676
रीन	-3677
लाब	-3678
ल्थ	-3679
वती	-3680
वां	-3681
श्म	-3682
संख	-3683
सेज	-3684
सेट	-3685
सोई	-3686
स्म	-3687
हली	-3688
हाज	-3689
ापन	-3690
िनी	-3691
िसी	-3692
्रह	-3693
्रॉ	-3694
्रो	-3695
▁''	-3696
▁28	-3697
▁44	-3698
▁51	-3699
▁70	-3700
▁अख	-3701
▁एच	-3702
▁कठ	-3703
▁घट	-3704
▁जू	-3705
▁डो	-3706
▁दश	-3707
▁दह	-3708
▁फं	-3709
▁मं	-3710
▁रू	-3711
ंगाई	-3712
ंदाज	-3713
आरपी	-3714
क्का	-3715
क्षम	-3716
क्‍स	-3717
गणना	-3718
जनिक	-3719
जारा	-3720
टाला	-3721
ट्टी	-3722
त्मक	-3723
दायक	-3724
द्धा	-3725
पीएल	-3726
भूमि	-3727
रियल	-3728
रीका	-3729
रोधी	-3730
र्सी	-3731
लपुर	-3732
लीला	-3733
ल्टी	-3734
वाया	-3735
शंकर	-3736
स्कर	-3737
स्टे	-3738
हरीर	-3739
ारोह	-3740
िताभ	-3741
ित्व	-3742
िवार	-3743
ुल्क	-3744
ेंगी	-3745
्याज	-3746
▁Cho	-3747
▁अदा	-3748
▁अब्	-3749
▁असम	-3750
▁आजा	-3751
▁आशा	-3752
▁इले	-3753
▁उतर	-3754
▁उसी	-3755
▁ऑफर	-3756
▁कही	-3757
▁कॉल	-3758
▁खतर	-3759
▁खून	-3760
▁गठन	-3761
▁गुर	-3762
▁चतु	-3763
▁जुट	-3764
▁डाय	-3765
▁डिफ	-3766
▁ढंग	-3767
▁तुम	-3768
▁दुख	-3769
▁निप	-3770
▁पंड	-3771
▁फसल	-3772
▁फिट	-3773
▁फुट	-3774
▁फूल	-3775
▁फें	-3776
▁बंध	-3777
▁बजा	-3778
▁बहस	-3779
▁बुल	-3780
▁बैग	-3781
▁बैल	-3782
▁मिट	-3783
▁यूज	-3784
▁रूम	-3785
▁शरण	-3786
▁शरद	-3787
▁शूट	-3788
▁शौच	-3789
▁सजा	-3790
▁साध	-3791
▁सिस	-3792
▁सीन	-3793
▁सुल	-3794
▁सौं	-3795
▁हंग	-3796
▁हल्	-3797
तंत्र	-3798
दायिक	-3799
नेशनल	-3800
पूर्व	-3801
र्पित	-3802
हाबाद	-3803
िमंडल	-3804
ुक्ति	-3805
्यर्थ	-3806
▁अभिन	-3807
▁ऑफिस	-3808
▁कक्ष	-3809
▁कराए	-3810
▁कर्ज	-3811
▁कर्ण	-3812
▁काली	-3813
▁क्रा	-3814
▁क्लब	-3815
▁खादी	-3816
▁खाली	-3817
▁खेला	-3818
▁	-3819
ा	-3820
क	-3821
र	-3822
े	-3823
न	-3824
्	-3825
ी	-3826
स	-3827
ि	-3828
ं	-3829
ह	-3830
म	-3831
ल	-3832
ो	-3833
त	-3834
प	-3835
य	-3836
व	-3837
द	-3838
ज	-3839
ग	-3840
ब	-3841
ु	-3842
ै	-3843
ट	-3844
।	-3845
ए	-3846
श	-3847
च	-3848
ड	-3849
अ	-3850
भ	-3851
ू	-3852
इ	-3853
आ	-3854
थ	-3855
ख	-3856
,	-3857
ध	-3858
फ	-3859
उ	-3860
़	-3861
ई	-3862
ष	-3863
.	-3864
औ	-3865
ण	-3866
1	-3867
ौ	-3868
0	-3869
2	-3870
छ	-3871
ॉ	-3872
-	-3873
घ	-3874
ओ	-3875
ठ	-3876
ढ	-3877
5	-3878
4	-3879
9	-3880
3	-3881
(	-3882
)	-3883
ृ	-3884
:	-3885
6	-3886
8	-3887
7	-3888
झ	-3889
‍	-3890
'	-3891
a	-3892
ऐ	-3893
ऑ	-3894
e	-3895
i	-3896
r	-3897
o	-3898
ऊ	-3899
‘	-3900
n	-3901
’	-3902
t	-3903
ञ	-3904
ँ	-3905
A	-3906
P	-3907
?	-3908
h	-3909
"	-3910
s	-3911
B	-3912
d	-3913
/	-3914
M	-3915
R	-3916
m	-3917
S	-3918
C	-3919
c	-3920
I	-3921
l	-3922
p	-3923
E	-3924
N	-3925
T	-3926
k	-3927
–	-3928
H	-3929
u	-3930
|	-3931
g	-3932
G	-3933
”	-3934
D	-3935
ः	-3936
F	-3937
J	-3938
O	-3939
ऋ	-3940
“	-3941
V	-3942
y	-3943
L	-3944
U	-3945
W	-3946
w	-3947
ॅ	-3948
›	-3949
!	-3950
b	-3951
‌	-3952
K	-3953
॰	-3954
j	-3955
v	-3956
०	-3957
x	-3958
३	-3959
—	-3960
>	-3961
[	-3962
]	-3963
१	-3964
७	-3965
;	-3966
@	-3967
५	-3968
६	-3969
%	-3970
*	-3971
+	-3972
Q	-3973
z	-3974
»	-3975
२	-3976
​	-3977
#	-3978
Z	-3979
f	-3980
८	-3981
Y	-3982
̈	-3983
ऱ	-3984
४	-3985
&	-3986
=	-3987
X	-3988
_	-3989
×	-3990
ï	-3991
ऌ	-3992
←	-3993
�	-3994
🔊	-3995
🔵	-3996
