a r
e r
a n
i n
i r
i l
e n
a l
a k
ı n
e l
e k
l ar
v e
a s
i k
e t
e s
o n
d a
l a
d e
l er
y a
m a
i z
o l
u n
o r
ı r
i s
b ir
i m
e m
a t
i ş
i y
i t
u l
l ı
a y
i ç
b il
l an
u r
t a
iç in
l e
ü r
ü n
ı ş
l i
as ı
m ak
lar ı
a m
es i
ı z
al ar
e d
o t
ü k
ı k
s a
k a
er i
u m
ler i
a z
o k
ı l
d ır
ı m
in i
s t
ö r
il e
bil ir
ö n
d an
m e
ü z
t i
u z
h a
r a
il er
ın da
o lar
ar a
u t
b a
ü m
is t
c e
y on
u k
d i
ul lan
d en
t ir
in e
d ir
e y
el er
ö z
m ek
c ı
m an
k ullan
lar ın
u y
l ik
in de
t r
alar ı
in iz
b u
t e
o s
ğ ı
m ası
v ar
g i
v er
t ır
ü ş
l em
t er
o m
c i
k on
lı k
y ük
c ak
g el
ın ı
ar ı
y an
r e
k al
l en
s e
u ş
d ı
il eri
k ar
olar ak
s ek
t ik
o y
g er
d ak
ve ya
as yon
t ı
m esi
s un
p r
o la
in in
g e
b ul
p ar
B u
d u
h i
in esi
et i
s on
mak ta
c a
an lar
el eri
is i
b i
g ör
ın a
et ler
ğ er
e ş
s ı
ek ler
l u
t an
makta dır
la ş
es ini
d er
ot el
da ha
ğ i
t ek
ün ler
lik ler
et leri
c iler
ü l
la ma
man ları
a ma
ın dan
it esi
v a
öz el
ür ünler
d alar
m alar
ın ız
o ğ
mak inesi
al ış
n ası
cı lar
y ıl
t ar
ar ası
ç ık
s iz
d r
al ı
le ş
p ı
ıl ması
m ış
k en
ü ler
im ler
t ak
e z
s itesi
ç ok
il mesi
im leri
el i
uk lar
y er
ğ lar
g eri
ik ler
ak inesi
M akinesi
am an
v i
il i
u lar
el ler
s ür
at aları
iş tir
ğ ini
t eri
eti ciler
k ur
h er
iy i
s lar
ç ları
p manları
i pmanları
ı cılar
ç lar
g en
r u
al ataları
b alataları
in ası
d aları
k ay
sa ğlar
t lar
k iler
üş teri
un ları
özel likler
er ler
k ipmanları
E kipmanları
g ileri
m esini
m eler
u slar
o dalar
g iler
y alar
otel ler
ç iler
ı lar
ör ler
dak i
r en
t manları
par tmanları
ul uslar
t alar
c uklar
o cuklar
A n
ver iler
ç aları
iy or
o z
uluslar arası
al an
en i
m et
bilir ler
bil giler
d ası
ir ler
d esi
lan ması
ç ler
s anlar
n eler
c ekler
ün leri
lik leri
uk arı
ol an
o ları
im ini
ba ş
ak inası
M akinası
a partmanları
c ileri
as ası
bul un
o daları
il m
iz ler
u ları
ver sitesi
i versitesi
n iversitesi
Ü niversitesi
al er
lem ler
b ası
en ler
m etleri
iz metleri
in ler
m aları
in sanlar
ter iler
ç alar
par çalar
ey ler
ür ünleri
um lar
len mesi
y ukarı
m ini
iy e
y e
t örler
a ş
eti cileri
ç alış
ık ları
r an
ç ocuklar
k ler
ar çaları
P arçaları
m lar
O dalar
r ası
is ler
m etler
iz metler
ik çiler
ar ikçiler
ed arikçiler
on lar
ik ası
r eticiler
Ü reticiler
bir imleri
ür eticileri
ç ileri
z aman
çalış malar
ş ları
üm leri
os yalar
an ları
la malar
u lamalar
g ulamalar
s eri
t ası
iş lemler
bil gileri
t ler
p üler
o püler
b unları
k ası
em eler
z emeler
al zemeler
m alzemeler
ım ları
son rası
ı ları
iç eri
ist esi
sür esi
özel likleri
cı ları
t eller
O teller
m üşteri
ım lar
ot lar
F eri
n lar
O nlar
t ur
t arı
f i
ik çileri
ar ikçileri
ed arikçileri
t el
on uklar
K onuklar
d osyalar
ız lar
uy gulamalar
m en
is ini
M üşteri
ik leri
en leri
h izmetleri
al ler
em leri
al lar
c esi
ter ası
uk ları
ör leri
iy esi
v eri
üş teriler
em esi
p leri
l istesi
ler ini
f irler
a firler
is afirler
H izmetler
t ları
ı cıları
il ler
ol ması
k ileri
T edarikçiler
ar tlar
k etler
it ler
el likler
z ellikler
Ö zellikler
t aları
g ü
on ları
ik tarı
m iktarı
t edarikçileri
as talar
al ıkları
kon ular
ın ın
at ları
ş lar
da şları
y aları
K ızlar
o dası
as arı
ul ması
ger ek
b alar
um arası
ar kası
ez ler
dır ılması
lık lar
ak ları
it eler
a bilirler
m üşteriler
ış arı
V eri
un lar
kullan ıcılar
üz eyler
asyon ları
p ları
eler ini
b eri
li ğini
tak ları
ek leri
d eler
s ler
al ları
u çları
y eler
t iler
ren ciler
ğ renciler
ar lar
ir ketler
ş irketler
f ler
f eri
y ıcılar
iy etleri
f lar
c ası
em ekler
y emekler
es imler
ak lar
baş arı
l ü
kullan ılması
D esi
D oları
g ün
ğ mesini
ü ğmesini
d üğmesini
iş ler
m as
ay lar
k asası
z arası
man zarası
t es
at ası
es imleri
it eleri
ç e
os yaları
j iler
o jiler
ol ojiler
n olojiler
tek nolojiler
k üler
as küler
v asküler
d desi
iş kiler
g esi
n umarası
al anlar
j esi
o jesi
n esi
ü leri
t üleri
f ları
m arkası
pı lar
ist emleri
et kiler
tik ler
as tikler
tar lar
iş leri
at alar
ma ması
ut ları
p ası
ce ğini
ük ler
d eller
o deller
p ılması
ya pılması
e çler
sür eçler
ar ları
P opüler
t örleri
r esi
e cekler
k alar
in alar
b inalar
k eler
bil mesi
ç leri
er desi
P erdesi
ya tları
fi yatları
ur umlar
d urumlar
el leri
j eler
o jeler
pr ojeler
an allar
it ikası
ol itikası
ğ ları
as alları
y asalları
im yasalları
K imyasalları
len tiler
tr esi
leş mesi
ık lar
m isafirler
d ini
la maları
m eleri
al iyetleri
y olar
an yolar
b anyolar
s iteler
st alar
am lar
ra flar
oğ raflar
ot oğraflar
la ması
g eler
ır lar
an cası
b ancası
k eri
er iler
V eriler
et ini
eş itler
ç eşitler
iş imini
em ini
üm ler
em ler
y ıcıları
la yıcıları
ğ layıcıları
sa ğlayıcıları
R esimler
am alar
l etler
tes tler
s ini
er leri
iy onları
s iyonları
u çlar
ç a
0 0
ın lar
h eri
ver ileri
h astalar
t alıkları
as talıkları
ik alar
at lar
man lar
h atası
da şlar
ka daşlar
ar kadaşlar
y ar
c uları
u cuları
sun ucuları
az ları
es ler
ül ler
h asarı
e de
r eleri
em alar
iz leri
lan ları
il işkiler
en ekler
S arı
iy eler
y ler
ö yler
iç ekler
v ler
or balar
ür leri
t esi
otel leri
z eri
en zeri
in eleri
mak ineleri
yıl lar
b arı
ra fları
p opüler
b ekler
s istemleri
er ezler
g ası
b aları
gel eri
baş lar
ren kler
h atalar
ğer ler
f esi
ka fesi
o vasküler
iy ovasküler
d iyovasküler
kar diyovasküler
kal itesi
oy utları
y ası
os yası
d osyası
l ükler
N ası
uy arı
or mlar
f ormlar
t formlar
la tformlar
p latformlar
ed ilmesi
u arları
es uarları
s esuarları
b erler
de olar
H izmetleri
p lar
ek çiler
iç ekçiler
par çaları
ür ler
etler ini
z emesi
al zemesi
de oları
vi deoları
k anlar
ek üler
ara çları
ul lar
ş ullar
o şullar
l etleri
v letleri
e vletleri
D evletleri
k inler
iş kinler
et işkinler
a çlar
il açlar
l aları
ö cekler
b öcekler
dak lar
cak ları
or ları
er esi
l ukları
or takları
il leri
er ası
var ı
u varı
lı mlar
ı lımlar
ek törler
d deler
et ilmesi
ek sler
l eksler
p leksler
ti pleksler
ul tipleksler
m ultipleksler
am ları
iy esini
v iyesini
se viyesini
K ası
ak ası
y üzeyler
gen çler
ş eyler
er ileri
ay anlar
at ler
am ası
iş lenmesi
j ları
an talar
Ç antalar
d artlar
t leri
tes tleri
Ç ocuklar
al yeler
az lar
h azlar
ci hazlar
ra çlar
A raçlar
il tresi
F iltresi
v iyesi
it esini
Ö ğrenciler
un ması
cak lar
l ası
v leri
ut lar
ak teriler
k anallar
ay daları
f aydaları
de meler
ö demeler
it kileri
ç ılar
çalış anlar
ı yıcılar
ş ıyıcılar
ta şıyıcılar
as alar
a aliyetleri
f aaliyetleri
o stalar
p ostalar
f otoğraflar
t ileri
ir tileri
el irtileri
b elirtileri
ül mesi
s keri
A skeri
ok tası
n oktası
yemekler ini
er ikler
ar kalar
m arkalar
d osyaları
ğ eri
o ler
t oler
in toler
ol ası
as taları
r eler
ğ eler
ö ğeler
it kiler
ek lentiler
b eklentiler
d ışarı
yer ler
v alar
ist ler
ak alar
l akalar
p lakalar
süreçler ini
özellikler ini
g ları
k siyonları
on ksiyonları
f onksiyonları
son uçlar
ir ması
f irması
c ini
e cini
sür ecini
gi bi
mak inası
ol anlar
d ınlar
ka dınlar
v heri
e vheri
C evheri
ç ekler
ger çekler
h astalıkları
ti ğini
f leri
i fleri
de partmanları
ka daşları
ar kadaşları
y ları
r esimleri
s iteleri
ış ıkları
h ası
en ini
h azları
ci hazları
s esler
Y arı
em anları
el emanları
ay seri
K ayseri
iy eleri
v iyeleri
se viyeleri
oz ulması
b ozulması
c releri
ü creleri
h ücreleri
k isini
et kisini
t emalar
ma ddesi
j ileri
o jileri
ol ojileri
n olojileri
ek nolojileri
T eknolojileri
A lanları
k anları
im kanları
h tası
ta htası
P aler
ça balar
at ini
ç enekler
se çenekler
z iler
ge ziler
k öyler
a bası
as abası
k asabası
ç içekler
e vler
el ikleri
s atları
eş enleri
bil eşenleri
pr ojesi
l gesi
ö lgesi
b ölgesi
g ünler
d iler
s ları
kur sları
b enzeri
ey enler
ist eyenler
ç esi
h çesi
a hçesi
B ahçesi
ün tüleri
gör üntüleri
oğ rafları
ot oğrafları
f otoğrafları
ur ular
uy urular
D uyurular
y aller
ter yaller
ma teryaller
e bekler
ist aller
r istaller
k ristaller
ka pılar
d ler
alan ması
kur allar
m gası
da mgası
l astikler
t emleri
ön temleri
ik likler
iş iklikler
ğ işiklikler
de ğişiklikler
kal dırılması
h ataları
ed enleri
n edenleri
er geleri
d ları
iz ması
an izması
ik tarlar
m iktarlar
et imini
ür etimini
et ikler
ön cesi
gü çler
üş ler
gör üşler
ıl maması
ır ılmaması
k ırılmaması
de ğerler
ok talar
al esi
B oyutları
om pası
k aları
ar kaları
m arkaları
ile ceğini
r ojesi
P rojesi
ed iler
ak etleri
m odeller
ir iler
b ıları
ka bıları
ak kabıları
y akkabıları
A yakkabıları
y esi
ü yesi
g esini
i deolar
V ideolar
ilm ler
f ilmler
ak ımları
T akımları
la törleri
ü latörleri
d ülatörleri
o dülatörleri
M odülatörleri
kullan ılar
lan dırılması
b ılar
ka bılar
ak kabılar
el ikler
s iyesi
h isler
st resi
ek stresi
ç erezler
t ürler
iç ecekler
ak abilirler
b akabilirler
D ışarı
ın ları
ış ınları
ol eküler
M oleküler
k oşullar
M isafirler
y etişkinler
k esi
öz ümleri
iy etler
ül keler
er cekler
M ercekler
iş elerini
d işelerini
en dişelerini
üm etler
ük ümetler
h ükümetler
ir esi
iş eleri
du daklar
p orları
s porları
an neler
or unlar
s orunlar
kullan ıcıları
d isler
en disler
h endisler
ü hendisler
m ühendisler
ey imler
den eyimler
em izler
t emizler
em ekleri
y emekleri
f ini
lan lar
am erası
y arı
iz esi
ma ddeler
l etilmesi
r amları
ya takları
ür eticiler
t edarikçiler
men iler
p olitikası
ön ler
B ayanlar
t ılması
es ilmesi
k esilmesi
at örler
an aması
k anaması
ok uları
ba ğları
D eri
tak ılar
iz ikler
ç izikler
ta jları
an tajları
v antajları
a vantajları
z ılımlar
ya zılımlar
son uçları
b unlar
dr esi
et kileri
iz malar
an izmalar
ya şları
len cesi
ğ lencesi
e ğlencesi
p eri
a çları
ğ açları
a ğaçları
m asası
t ekler
es tekler
d estekler
m emesi
imler ini
b ini
öz leşmesi
s özleşmesi
e viyesi
S eviyesi
kal itesini
in likler
k inlikler
M odeller
ç anlar
ı çanlar
S ıçanlar
m lanması
ma mlanması
ta mamlanması
dir meler
len dirmeler
tır ılması
ar tırılması
iştir ilmesi
gel iştirilmesi
or unması
k orunması
un caklar
y uncaklar
O yuncaklar
ön eticiler
y öneticiler
im eler
el imeler
k elimeler
tan esi
l iler
az lası
f azlası
e vleri
p alar
om palar
p ompalar
h alar
v halar
oy utlar
b oyutlar
i fler
ken dini
b akteriler
ek etler
ar eketler
h areketler
b otlar
b alıkları
lık ları
P olitikası
yer ini
li pleri
k lipleri
il laları
v illaları
es neler
in eler
öz ler
g özler
öz leri
or ular
k ini
is kini
iş eler
O lar
v alyeler
ö valyeler
ş övalyeler
d elleri
o delleri
m odelleri
ç içekçiler
uk etleri
b uketleri
L astikler
v anlar
lem eler
en lemeler
üz enlemeler
d üzenlemeler
çalış maları
e çleri
h izmetler
ver siteler
i versiteler
aş arı
B aşarı
or anlar
st aları
o staları
p ostaları
tik leri
ol lar
y ollar
am bası
L ambası
el likleri
z ellikleri
Ö zellikleri
r amlar
g ramlar
o gramlar
pr ogramlar
f erleri
ğ eleri
it ası
ar itası
siz ler
or unları
s orunları
l eticiler
iş leticiler
gen işleticiler
et mesi
l etmesi
zaman laması
dır lar
in imler
s inimler
gerek sinimler
s örleri
en sörleri
S ensörleri
i ciler
iştir iciler
gel iştiriciler
e ceğini
bil eceğini
l geler
ö lgeler
b ölgeler
l ler
sek mesi
p kası
a pkası
ta bancası
p ler
uş lar
in imleri
s inimleri
gerek sinimleri
ğ lanması
sa ğlanması
ç ası
ır alar
P ini
laş ımlar
ak laşımlar
y aklaşımlar
v isler
er visler
S ervisler
iç erikler
h akları
ar ımlar
as arımlar
t asarımlar
g olar
o golar
l ogolar
çık lar
a çıklar
ey ini
üz eyini
p aları
om paları
P ompaları
de ğeri
ez leri
er ezleri
n ler
y nler
ve ynler
e veynler
b eveynler
di alar
d dialar
i ddialar
it leri
ı dalar
g ıdalar
ım cılar
tır ımcılar
ya tırımcılar
ok taları
p astaları
ek etini
ar eketini
h areketini
la yıcılar
ara birimleri
li fler
sa atler
ö ğrenciler
c reler
ü creler
h ücreler
ak sesuarları
y asalar
is kler
an dartlar
st andartlar
ya tlar
fi yatlar
b itkiler
am iler
c amiler
es eler
er işimini
ist emler
s istemler
il giler
B ilgiler
yan lar
ma yanlar
ol mayanlar
h ları
lem ciler
iş lemciler
em eleri
z emeleri
al zemeleri
R esimleri
aş amalar
eş yalar
et meler
l etmeler
um ları
ara çlar
b letler
ta bletler
ir ilmesi
tir ilmesi
bir ini
ik etler
et iketler
er ilmesi
st erilmesi
ö sterilmesi
g österilmesi
ed erler
at uvarı
or atuvarı
b oratuvarı
a boratuvarı
L aboratuvarı
an esi
h anesi
p hanesi
ü phanesi
t üphanesi
ü tüphanesi
b inler
el ar
B elar
di ğini
in olar
as inolar
c asinolar
ük kanlar
d ükkanlar
t asarı
lı lar
d eleri
h tarlar
a htarlar
an ahtarlar
M alzemesi
bil ecekler
a bilecekler
İ leri
çalış anları
b itkileri
l ümleri
ö lümleri
b ölümleri
ş artlar
H astalar
yar alar
e bilirler
p uçları
i puçları
il ikler
al amalar
iz lenmesi
k eresi
z keresi
te zkeresi
G eri
v eler
çe veler
er çeveler
ç erçeveler
ür esi
S üresi
s feri
ran sferi
T ransferi
pr aklar
o praklar
t opraklar
eş enler
bil eşenler
iy onlar
h iller
C hiller
dan lar
üz danlar
c üzdanlar
ullan ıcılar
K ullanıcılar
der ler
r ünler
Ü rünler
it imler
ğ itimler
e ğitimler
il letler
M illetler
öz lükler
ma şlar
u maşlar
k umaşlar
a bancası
T abancası
met ini
iz metini
h izmetini
er sini
m ersini
an mersini
b anmersini
a banmersini
Y abanmersini
r ikası
b rikası
a brikası
F abrikası
n erleri
ey nerleri
t eynerleri
on teynerleri
K onteynerleri
o gları
al ogları
an alogları
sek törler
ger gileri
bir imini
ed ler
P edler
l meler
ö lmeler
B ölmeler
ter ler
f terler
de fterler
as lar
es aslar
s an
r aylar
am ini
it amini
v itamini
el ik
v iler
da viler
te daviler
tedaviler ini
alış malar
Ç alışmalar
it ikalar
ol itikalar
p olitikalar
et tiğini
b izler
T atlar
ar ifleri
T arifleri
l manlar
A lmanlar
de bilirler
gi debilirler
bilgiler ini
c alar
ma calar
ul macalar
B ulmacalar
oz ler
g ozler
ara gozler
K aragozler
j eleri
o jeleri
pr ojeleri
bil er
o biler
H obiler
ola yları
b ümleri
al bümleri
D osyaları
a hası
D ahası
ed enini
n edenini
a dası
uş adası
K uşadası
iye Kuşadası
h iyeKuşadası
et hiyeKuşadası
F ethiyeKuşadası
um FethiyeKuşadası
dr umFethiyeKuşadası
o drumFethiyeKuşadası
B odrumFethiyeKuşadası
an BodrumFethiyeKuşadası
V anBodrumFethiyeKuşadası
sa VanBodrumFethiyeKuşadası
ur saVanBodrumFethiyeKuşadası
B ursaVanBodrumFethiyeKuşadası
ir BursaVanBodrumFethiyeKuşadası
m irBursaVanBodrumFethiyeKuşadası
z mirBursaVanBodrumFethiyeKuşadası
İ zmirBursaVanBodrumFethiyeKuşadası
bul İzmirBursaVanBodrumFethiyeKuşadası
an bulİzmirBursaVanBodrumFethiyeKuşadası
st anbulİzmirBursaVanBodrumFethiyeKuşadası
İ stanbulİzmirBursaVanBodrumFethiyeKuşadası
is Kayseri
ar isKayseri
m arisKayseri
ar marisKayseri
M armarisKayseri
İstanbulİzmirBursaVanBodrumFethiyeKuşadası MarmarisKayseri
ak törler
f aktörler
tik üller
ü tiküller
k ütiküller
ğ esi
ö ğesi
sa çları
an tlar
j antlar
ül mesini
ç ülmesini
ü çülmesini
k üçülmesini
laş ması
tı laşması
h tılaşması
pı htılaşması
b izleri
ik irler
f ikirler
dr ası
u drası
p udrası
p likler
i plikler
j lar
a jlar
al ajlar
b alajlar
am balajlar
ük eticiler
t üketiciler
k atini
ik katini
d ikkatini
ed iyeler
H ediyeler
z ileri
ge zileri
oy lar
K oylar
ba ğlar
t orbalar
t ürleri
lem esi
ter lemesi
as ması
b asması
el gesi
b elgesi
it elikleri
n itelikleri
ur uları
v uruları
baş vuruları
ar tesi
um artesi
C umartesi
ir satları
f irsatları
or tlar
k ortlar
es kortlar
t ması
la tması
ın latması
d ınlatması
ay dınlatması
va diler
j esini
o jesini
r ojesini
P rojesini
al ması
ğ nesi
i ğnesi
v iteleri
ti viteleri
ak tiviteleri
on gları
l ongları
ez longları
ş ezlongları
s iyeler
em siyeler
ş emsiyeler
ek tler
f ektler
e fektler
B ebekler
ş eler
te şeler
men teşeler
r inler
it rinler
v itrinler
is itesi
s isitesi
ok sisitesi
t oksisitesi
i dler
o idler
er oidler
st eroidler
er mesini
st ermesini
ö stermesini
g östermesini
ç alanması
par çalanması
etkiler ini
le vler
iş levler
Ç erezler
P lastikler
Y öntemleri
am baları
L ambaları
y öntemleri
ön ergeleri
y önergeleri
lem leri
iş lemleri
ma tlar
i matlar
al imatlar
t alimatlar
an dları
st andları
ir başlar
m irbaşlar
de mirbaşlar
pı lanması
ya pılanması
z etleri
z zetleri
le zzetleri
ok ular
d okular
cak lıklar
sı caklıklar
mek anizması
ış maları
t ışmaları
tar tışmaları
s öyler
et releri
am etreleri
ar ametreleri
P arametreleri
b ler
a bler
n abler
E nabler
an çlar
z ançlar
ka zançlar
il imini
em ilimini
t etikler
v itesi
ti vitesi
ak tivitesi
n akları
kay nakları
ış işleri
D ışişleri
d esini
üz desini
y üzdesini
r iler
st riler
ü striler
d üstriler
en düstriler
ol maması
t ini
ve tini
v vetini
u vvetini
k uvvetini
ed ikleri
m edikleri
et medikleri
er irler
st erirler
ö sterirler
g österirler
v iteler
ti viteler
ak tiviteler
n oktalar
h alesi
da halesi
ü dahalesi
m üdahalesi
g alanması
al galanması
d algalanması
oz ları
t ozları
ullan ımları
K ullanımları
P ompası
iştir ileceğini
ğ iştirileceğini
de ğiştirileceğini
e ğini
en eğini
ç eneğini
se çeneğini
h leri
i hleri
tar ihleri
h irler
e hirler
ş ehirler
şehirler ini
ür lükler
d ürlükler
ü dürlükler
m üdürlükler
B inası
c heri
a cheri
K acheri
t ukları
ol tukları
K oltukları
r ediler
k rediler
l ini
C lini
an atları
S anatları
P aketleri
Y erler
l inler
p linler
isi plinler
d isiplinler
tur ulması
uş turulması
ol uşturulması
et iriler
g etiriler
ış malar
ak ışmalar
ç akışmalar
der ilmesi
gi derilmesi
ik üler
tr iküler
en triküler
v entriküler
k sesuarları
A ksesuarları
a iler
N ailer
or ması
f orması
i forması
ün iforması
baş lıklar
A dası
em berler
Ç emberler
im gesini
s imgesini
b inası
ek anizması
M ekanizması
am plar
r amplar
k ramplar
ürünler ini
siz leri
er sizleri
z ersizleri
g zersizleri
e gzersizleri
S izler
yer leri
Ç içekçiler
ar lanması
ay arlanması
el esi
es elesi
m eselesi
ek etleri
ar eketleri
h areketleri
um landırılması
kon umlandırılması
y akkabılar
A yakkabılar
T ürleri
c elikler
in celikler
incelikler ini
d ileri
ken dileri
v siyesi
ta vsiyesi
ed eri
r ederi
F rederi
R esi
ar isini
im arisini
m imarisini
iz gileri
ç izgileri
en türler
t entürler
z etlerini
z zetlerini
le zzetlerini
os esi
pr osesi
s uslar
u suslar
h ususlar
m alzemesi
ti pleri
tr ası
es trası
k estrası
r kestrası
O rkestrası
a cılar
ık acılar
ız ıkacılar
M ızıkacılar
vi deolar
im kanlar
on elikleri
b onelikleri
a bonelikleri
B unlar
s ular
ul manlar
r ulmanlar
al kalar
h alkalar
dır ıcılar
lan dırıcılar
at landırıcılar
T atlandırıcılar
üm lerini
ük ümlerini
h ükümlerini
ara bilirler
çık arabilirler
z erler
en zerler
b enzerler
ş ması
ta şması
ş etleri
o şetleri
p oşetleri
ş etler
o şetler
p oşetler
b etler
ö betler
n öbetler
et esi
ç etesi
re çetesi
f tler
i ftler
ç iftler
d üzeyler
Ç özümleri
al iyetler
a aliyetler
f aaliyetler
ile bilmesi
tir ilebilmesi
leş tirilebilmesi
ek leştirilebilmesi
ç ekleştirilebilmesi
ger çekleştirilebilmesi
ul asyonları
g ulasyonları
re gulasyonları
en çleri
ir ençleri
D irençleri
hi pleri
sa hipleri
m laları
da mlaları
il mesini
ed ilmesini
len mesini
ön lenmesini
sağlar lar
T edarikçileri
ır lıklar
az ırlıklar
h azırlıklar
ka pları
de ciler
en deciler
ak endeciler
er akendeciler
p erakendeciler
en liğini
v enliğini
gü venliğini
a iresi
D airesi
ş işeleri
y etkisini
la cakları
ı lacakları
kullan ılacakları
tur lar
c eresi
en ceresi
p enceresi
uk lukları
oz uklukları
b ozuklukları
ye cekler
le yecekler
iz leyecekler
uk atları
v ukatları
a vukatları
k iller
ek killer
v ekkiller
ü vekkiller
m üvekkiller
d işleri
j elleri
at leri
sa atleri
ey fini
k eyfini
men üler
u ini
L uini
an nesi
yar arı
f likler
fi flikler
ha fiflikler
ek illeri
ş ekilleri
ı tlar
ş ıtlar
ta şıtlar
ı lanlar
kullan ılanlar
K amerası
D uvarı
az ılımlar
Y azılımlar
on ektörler
K onektörler
U yarı
S istemleri
tı cılar
sı tıcılar
I sıtıcılar
st eller
o steller
H osteller
az aları
ğ azaları
ma ğazaları
an daşları
at andaşları
v atandaşları
ama çları
V izesi
e Vizesi
olan ması
p olanması
de polanması
l iyesi
ak liyesi
n akliyesi
bir liğini
iş birliğini
ay dalar
f aydalar
iş letilmesi
gen işletilmesi
el mesi
ön elmesi
y önelmesi
K anallar
ak etler
p aketler
g ramları
o gramları
pr ogramları
üm esi
c ümesi
ter cümesi
p lanları
dir ilmesi
bil dirilmesi
ot ikler
iy otikler
b iyotikler
ti biyotikler
An tibiyotikler
iz Antibiyotikler
en izAntibiyotikler
s enizAntibiyotikler
ir senizAntibiyotikler
tir irsenizAntibiyotikler
leş tirirsenizAntibiyotikler
bir leştirirsenizAntibiyotikler
en diler
K endiler
ek eri
ş ekeri
b akası
ta bakası
der sler
in liğini
k inliğini
et kinliğini
l malar
E lmalar
O daları
r meniler
E rmeniler
er meniler
st erileri
ö sterileri
g österileri
k ları
tan kları
ç işleri
ge çişleri
an tası
Ç antası
es iller
n esiller
a atler
S aatler
ar tılması
ız artılması
k ızartılması
v atörler
ti vatörler
k tivatörler
A ktivatörler
im erler
r imerler
P rimerler
il atlar
r ilatlar
ak rilatlar
o akrilatlar
an oakrilatlar
iy anoakrilatlar
s iyanoakrilatlar
j elerini
o jelerini
pr ojelerini
g rafları
ara grafları
p aragrafları
D okuları
r tüleri
Ö rtüleri
is leri
tes isleri
g nesi
A gnesi
tı lar
ın tılar
r ıntılar
ay rıntılar
ak ılar
T akılar
kullan ımlar
im esi
k imesi
es kimesi
tak ıları
v hası
e vhası
L evhası
z avantajları
de zavantajları
t eler
en teler
c enteler
a centeler
un abilirler
ok unabilirler
d okunabilirler
in aları
ak inaları
M akinaları
K esi
Kesi ciler
A dresi
san iyeler
h esini
p hesini
ce phesini
sek likler
yük seklikler
f esini
a fesini
es afesini
m esafesini
k okuları
k leri
is kleri
r iskleri
z ümleri
Ü zümleri
ek anizmalar
M ekanizmalar
n ikler
tek nikler
in asyonları
b inasyonları
om binasyonları
k ombinasyonları
ol ler
ok oller
ot okoller
pr otokoller
tan dartlar
S tandartlar
Y etişkinler
ir eleri
da ireleri
on uçları
S onuçları
az arları
p azarları
ar ikalar
h arikalar
ar ketler
m arketler
r etleri
c retleri
ü cretleri
em siyesi
ş emsiyesi
d alyeler
san dalyeler
g lar
on glar
l onglar
ez longlar
ş ezlonglar
ş esi
ö şesi
k öşesi
ir memesi
g irmemesi
z imlerini
en zimlerini
h aler
in haler
ren ler
F renler
o bini
B obini
x lar
o xlar
B oxlar
k lentiler
E klentiler
u pası
K upası
il ikleri
l ilikleri
ek lilikleri
er eklilikleri
G ereklilikleri
olan akları
a berler
H aberler
t kinlikler
E tkinlikler
S tresi
B enzeri
ış lar
ran ışlar
v ranışlar
a vranışlar
D avranışlar
t kiler
E tkiler
as lanması
y aslanması
ı yaslanması
K ıyaslanması
dir mesi
len dirmesi
ğer lendirmesi
e ğerlendirmesi
D eğerlendirmesi
d ımlar
a dımlar
il keler
ğer lendirmeler
de ğerlendirmeler
H akları
on ular
K onular
al aması
ır alaması
S ıralaması
der mesini
ön dermesini
g öndermesini
y eleri
ü yeleri
p liğini
hi pliğini
sa hipliğini
em ezler
iştir emezler
ğ iştiremezler
de ğiştiremezler
ş ıklar
I şıklar
dı lar
a dılar
C adılar
c resi
ü cresi
H ücresi
bil yaları
o bilyaları
M obilyaları
ül tesi
ak ültesi
F akültesi
var lar
u varlar
at uvarlar
ar atuvarlar
b aratuvarlar
la baratuvarlar
im lendirmeler
is imlendirmeler
a caklar
al acaklar
t umlar
or tumlar
h ortumlar
es tanesi
k estanesi
iş mesini
ş işmesini
m arlar
da marlar
v liler
e vliler
gör evliler
dir iler
il diriler
B ildiriler
gör evleri
er tesi
le vhalar
se viyesi
ır gası
as ırgası
K asırgası
er imler
T erimler
ar ifler
T arifler
ti dler
p tidler
e ptidler
p eptidler
t itler
p titler
e ptitler
p eptitler
om ları
t omları
p tomları
em ptomları
s emptomları
ak törleri
f aktörleri
ut ikler
b utikler
ca ddesi
om utlar
k omutlar
d lar
o dlar
o odlar
l oodlar
f loodlar
in malar
al inmalar
c alinmalar
il ar
az ilar
b azilar
B otlar
c imleri
bi cimleri
o plar
dr oplar
g droplar
g gdroplar
e ggdroplar
it erler
r iterler
k riterler
ş unları
l alar
il lalar
V illalar
H atalar
N umarası
um alar
ok umalar
ı pları
kay ıpları
il esi
A ilesi
ı tası
b ıtası
a bıtası
z abıtası
ş lıkları
lı şlıkları
yan lışlıkları
D osyalar
kur ulması
ık lamaları
t ıklamaları
st ergeleri
ö stergeleri
g östergeleri
v cılar
a vcılar
or lukları
z orlukları
ya bilmesi
la yabilmesi
ı layabilmesi
ş ılayabilmesi
kar şılayabilmesi
gerek tiğini
ğ meleri
ü ğmeleri
d üğmeleri
f ikası
ti fikası
er tifikası
S ertifikası
p ini
ti pini
N esneler
n esneler
B itkileri
az iler
ar aziler
mak ineler
t üler
ün tüler
gör üntüler
v asyonları
er vasyonları
z ervasyonları
re zervasyonları
H astalıkları
il lar
p illar
er pillar
at erpillar
C aterpillar
p ompası
lu ları
v luları
ha vluları
g özleri
al akası
v izesi
b lemler
o blemler
pr oblemler
ot alar
r otalar
p malar
sa pmalar
s orular
d iskini
u lamaları
g ulamaları
y gulamaları
U ygulamaları
d işeler
n dişeler
E ndişeler
k ekler
r kekler
E rkekler
ç ular
ok çular
ş çılar
va şçılar
sa vaşçılar
k erler
s kerler
A skerler
Askerler ini
ed ileceğini
ir eler
a ireler
D aireler
G aller
D ini
M umlar
ara vanlar
K aravanlar
ör tüleri
iş meler
gel işmeler
et imler
den etimler
iy asalar
p iyasalar
ar ımları
as arımları
t asarımları
den ler
ma denler
sür eçleri
ön etilmesi
y önetilmesi
üm lenmesi
ç ümlenmesi
l çümlenmesi
ö lçümlenmesi
al izler
an alizler
Ş artlar
ük ümleri
h ükümleri
ger eçleri
d iller
a diller
u adiller
m uadiller
n iversiteler
Ü niversiteler
c anlar
uz canlar
ğ uzcanlar
O ğuzcanlar
den gesini
L istesi
de vleri
üş meler
gör üşmeler
ekler ini
as tikleri
l astikleri
uş umlar
ol uşumlar
os itler
k ositler
ö kositler
l ökositler
az esi
p azesi
el pazesi
y elpazesi
ğ mesi
ü ğmesi
d üğmesi
a dresi
a bilmesi
çalış abilmesi
ş imleri
ile şimleri
k ileşimleri
et kileşimleri
l akası
p lakası
e ferleri
S eferleri
n otlar
m üller
or müller
f ormüller
Ö ğeleri
h aritası
bir ler
bir birler
al evleri
or lar
y orlar
lü yorlar
y lüyorlar
ö ylüyorlar
s öylüyorlar
üz esi
M üzesi
son ları
em ikler
k emikler
c ukları
o cukları
ç ocukları
c eleri
ge celeri
ön lemler
em lerini
t emlerini
ön temlerini
y öntemlerini
S eri
s erileri
k emesi
h kemesi
ma hkemesi
iş letmesi
d olar
or baları
T orbaları
an taları
Ç antaları
F otoğraflar
ar etlerini
iş aretlerini
ut ulması
t utulması
alı dırlar
m alıdırlar
p malıdırlar
ya pmalıdırlar
ak ınlar
y akınlar
h ürleri
a hürleri
z ahürleri
te zahürleri
g uları
bul guları
an yalar
p anyalar
am panyalar
K ampanyalar
in ini
p inini
S pinini
ut uları
K utuları
son eller
er soneller
p ersoneller
l yeler
ö lyeler
at ölyeler
p olar
de polar
in çleri
v inçleri
f ası
ka fası
D illeri
al atası
S alatası
u laması
g ulaması
uy gulaması
e bileceğini
ver ebileceğini
ö ller
g öller
da ğlar
kar lar
ın ırlar
s ınırlar
e inler
ot einler
r oteinler
P roteinler
al leşmesi
ist alleşmesi
r istalleşmesi
k ristalleşmesi
e ini
ot eini
pr oteini
ul ları
ş ulları
o şulları
k oşulları
t ülmesi
ü tülmesi
y ütülmesi
ü yütülmesi
b üyütülmesi
m ları
da mları
a damları
den eyler
kur arlar
m lası
da mlası
ar ayanlar
tar ifleri
kar oları
ş apkası
am cası
bil yalar
o bilyalar
m obilyalar
e pler
al epler
t alepler
c aları
an caları
b ancaları
ta bancaları
t uşlar
kar tuşlar
ak aları
l akaları
p lakaları
iy elerini
v iyelerini
se viyelerini
üz enler
d üzenler
T orbalar
ul uşlar
kur uluşlar
E ller
ır çası
F ırçası
k ızlar
ot ları
B otları
bil leri
o billeri
om obilleri
t omobilleri
O tomobilleri
ak teri
kar akteri
par çası
ot orları
m otorları
öz yaşları
g özyaşları
kal bini
u pları
t upları
mek tupları
ay aller
h ayaller
ır daşları
s ırdaşları
at ıralar
h atıralar
ş yalar
E şyalar
R imini
ar etini
iş aretini
is esi
il isesi
K ilisesi
ir leri
f irleri
a firleri
is afirleri
m isafirleri
laş abilirler
u laşabilirler
ş letmesi
İ şletmesi
b orular
a ğları
la mlar
ek lamlar
r eklamlar
li fini
tek lifini
M arkası
or iler
ot oriler
lı lıklar
k lılıklar
ar klılıklar
f arklılıklar
T lar
O Tlar
D OTlar
ed ekler
y edekler
ed ekleri
y edekleri
yon lar
is yonlar
oz isyonlar
P ozisyonlar
ol unması
s olunması
r ini
T rini
r etlerini
c retlerini
ü cretlerini
s eleri
is seleri
h isseleri
s ırlar
es leri
dr esleri
a dresleri
ün vanlar
K oşullar
ur lar
s urlar
un surlar
d üzeyini
dr esini
a dresini
l işkiler
İ lişkiler
Ç erezleri
ç erezleri
r işimini
E rişimini
e beveynler
üz leri
d üzleri
gün düzleri
v lerini
de vlerini
ö devlerini
p maları
ya pmaları
iş lerini
m lamaları
ma mlamaları
ta mamlamaları
E beveynler
z ler
me zler
ede mezler
n leri
y nleri
ve ynleri
e veynleri
b eveynleri
e beveynleri
kal ırlar
gel lenmesi
en gellenmesi
im ciler
bil imciler
ar arı
z ararı
m itleri
l işeleri
k lişeleri
a çılar
v ramları
ka vramları
h ürler
a hürler
z ahürler
te zahürler
d ukları
ol dukları
j anlar
a janlar
ir tiler
el irtiler
b elirtiler
ma törler
or matörler
f ormatörler
s formatörler
an sformatörler
tr ansformatörler
ük törler
d üktörler
in düktörler
da yatırımcılar
kar arlar
n ikleri
tek nikleri
es enleri
d esenleri
Ş apkası
M asası
n oktaları
et kinlikler
p lanlar
es enler
d esenler
ı layıcılar
g ılayıcılar
al gılayıcılar
en kler
R enkler
g ini
ren gini
et enekler
y etenekler
d ikleri
il dikleri
tir ildikleri
leş tirildikleri
yer leştirildikleri
t emini
ön temini
y öntemini
dır ması
lan dırması
t landırması
ya tlandırması
fi yatlandırması
uy ması
t landırılması
ya tlandırılması
fi yatlandırılması
ka plar
n erler
ey nerler
t eynerler
on teynerler
K onteynerler
et reler
am etreler
par ametreler
f çılar
ra fçılar
oğ rafçılar
ot oğrafçılar
f otoğrafçılar
an dası
g andası
a gandası
p agandası
o pagandası
pr opagandası
izler ler
al ırlar
da iresi
l ümler
ö lümler
b ölümler
i pleri
ak ipleri
r akipleri
ı çları
g ıçları
yar gıçları
kay ıklar
k eller
ey keller
h eykeller
ola bileceğini
ar esini
em aresini
ok lar
st oklar
S eküler
l keler
Ü lkeler
an gileri
H angileri
al eler
mak aleler
s iller
es siller
üm essiller
m ümessiller
v irler
a virler
üş avirler
m üşavirler
ı slar
h ıslar
a hıslar
ş ahıslar
dak iler
ğı dakiler
a ğıdakiler
aş ağıdakiler
ek leşmesi
ç ekleşmesi
ger çekleşmesi
ar tları
ş artları
leş meleri
öz leşmeleri
s özleşmeleri
tak lıkları
or taklıkları
ter ileri
üş terileri
m üşterileri
di ğerler
mak amlar
c ular
un cular
y uncular
O yuncular
ır ası
s ırası
d iskler
gel mesini
iş imleri
ir işimleri
G irişimleri
i barı
it ibarı
as itesini
p asitesini
ka pasitesini
Ç içekler
lem eleri
en lemeleri
üz enlemeleri
d üzenlemeleri
p etleri
se petleri
tes isler
ş ası
in şası
o cakları
r eseler
ed reseler
m edreseler
k esimler
il iler
k ililer
et kililer
y etkililer
ay ini
g ular
uy gular
d uygular
par aları
g aları
ur gaları
b urgaları
ka burgaları
p aketleri
l geleri
ö lgeleri
B ölgeleri
l esi
ez lesi
n ezlesi
il gileri
B ilgileri
s leri
ü sleri
s üsleri
n sanlar
İ nsanlar
tr asyonları
san trasyonları
kon santrasyonları
gör ülmesi
ön görülmesi
ay lanması
on aylanması
dır ıları
al dırıları
s aldırıları
lan etikler
kal lanetikler
ara bası
ba hları
sa bahları
ş amları
ak şamları
er sizler
z ersizler
g zersizler
e gzersizler
öz ümler
ç özümler
ver gileri
m aliyetleri
üş üler
d üşüler
O dası
ola pları
D olapları
z ıkları
ka zıkları
ıl lar
Y ıllar
t emler
ön temler
y öntemler
m alzemeleri
ek ipmanları
az ıcılar
Y azıcılar
K asası
r ünleri
Ü rünleri
p esi
e pesi
T epesi
g atörler
ül gatörler
m ülgatörler
E mülgatörler
gör mesini
f illeri
o filleri
pr ofilleri
an seri
k anseri
iy etini
un iyetini
n uniyetini
em nuniyetini
m emnuniyetini
beklentiler ini
len meleri
ir lenmeleri
h irlenmeleri
e hirlenmeleri
z ehirlenmeleri
d eri
ay akkabılar
u stalar
d üller
Ö düller
f ikalar
ti fikalar
er tifikalar
S ertifikalar
em anlar
el emanlar
ya törler
d yatörler
a dyatörler
R adyatörler
ür lerini
t ürlerini
iş letmeler
ur umları
ot urumları
ö kler
k ökler
ç imler
se çimler
tar ifler
ş ular
tur şular
ed leri
P edleri
men tler
g mentler
i gmentler
p igmentler
al tılması
oğ altılması
ç oğaltılması
et irilmesi
g etirilmesi
ak siyonları
re aksiyonları
ik olar
r ikolar
k rikolar
leş tirilmesi
ek leştirilmesi
ç ekleştirilmesi
ger çekleştirilmesi
alan dırılması
ur alandırılması
at uralandırılması
f aturalandırılması
ı tları
kay ıtları
on uçlar
S onuçlar
v ıları
sı vıları
er gesi
st ergesi
ö stergesi
g östergesi
iz örler
al izörler
at alizörler
k atalizörler
on eticileri
Y oneticileri
ir lenmesi
el irlenmesi
b elirlenmesi
ım lanması
y ımlanması
ya yımlanması
ar aları
um araları
n umaraları
mek anizmalar
iş çiler
u valar
y uvalar
bil iyetleri
ka biliyetleri
P istler
ön lerini
y önlerini
b ederler
kay bederler
ğ meler
ü ğmeler
d üğmeler
ba hisler
az ıları
b azıları
ır satları
f ırsatları
v eller
e veller
L eveller
t olar
es tolar
ot estolar
pr otestolar
M esi
la çlar
İ laçlar
iş liler
d işliler
f tlar
a ftlar
ş aftlar
h aklar
iz ileri
D izileri
a ddesi
C addesi
man cılar
r mancılar
O rmancılar
K ütüphanesi
v lar
ına vlar
s ınavlar
ün iversiteler
v ası
ha vası
ak lanması
s aklanması
çık arı
il diğini
et ildiğini
ür etildiğini
ma cıları
uş macıları
on uşmacıları
K onuşmacıları
y esini
v yesini
la vyesini
k lavyesini
az ılması
Y azılması
f ikler
ra fikler
g rafikler
met inler
iz imler
ç izimler
y asası
ist esini
l istesini
n listesini
or nlistesini
H ornlistesini
es esi
r esesi
ed resesi
M edresesi
i pler
ak ipler
r akipler
lu slar
U luslar
Uluslar arası
tır malar
ş tırmalar
ra ştırmalar
A raştırmalar
ar lılar
ar arlılar
Z ararlılar
M ini
or deleri
K ordeleri
ey leri
ş eyleri
ım layıcılar
tan ımlayıcılar
ış ıklar
laş abilecekler
u laşabilecekler
da yları
a dayları
b elerini
ü belerini
r übelerini
c rübelerini
te crübelerini
it imleri
ğ itimleri
e ğitimleri
p abilecekler
ya pabilecekler
tan eleri
inde Kası
er indeKası
üz erindeKası
il ini
z ilini
men zilini
da ğları
s uları
la jları
p lajları
p eleri
te peleri
al eleri
el aleleri
ş elaleleri
r iskler
ız dırlar
s ızdırlar
ar sızdırlar
kar arsızdırlar
alan malar
g alanmalar
al galanmalar
d algalanmalar
p abilirler
ya pabilirler
ede fler
h edefler
iş imler
ğ işimler
de ğişimler
tak lar
r taklar
O rtaklar
i ğini
n iğini
tek niğini
iş kileri
il işkileri
tır ması
ş tırması
ara ştırması
vi dası
oz lar
n ozlar
or nozlar
b ornozlar
dir meleri
len dirmeleri
ğer lendirmeleri
de ğerlendirmeleri
s atlar
ır satlar
f ırsatlar
uş ları
ur uşları
v uruşları
et tikleri
s ettikleri
is settikleri
h issettikleri
a ddeler
M addeler
er ini
b erini
h berini
e hberini
R ehberini
ük ümler
h ükümler
c ekleri
e cekleri
bil ecekleri
a bilecekleri
lan abilecekleri
ak lanabilecekleri
s aklanabilecekleri
kur alları
bil meler
a bilmeler
al abilmeler
iyor lar
ed iyorlar
B itkiler
eş itleri
Ç eşitleri
M umları
M alzemeleri
gör ebilirler
il eleri
h ileleri
H aritası
an elleri
P anelleri
p lamaları
a plamaları
K aplamaları
t oranlar
es toranlar
R estoranlar
f eler
ka feler
er geler
ön ergeler
y önergeler
on rası
S onrası
ola törleri
z olatörleri
İ zolatörleri
en dini
K endini
sür atini
ek nesi
T eknesi
ol ları
y olları
E kler
ö ğeleri
as keri
veriler ini
g ılar
al gılar
s aklar
er deleri
p erdeleri
ter likler
y oları
an yoları
b anyoları
k amerası
c ıklar
ar cıklar
b arcıklar
ka barcıklar
c eler
ün celer
üş ünceler
d üşünceler
N oktalar
al leri
ist alleri
r istalleri
k ristalleri
v iriler
e viriler
Ç eviriler
B ini
en ilikler
Y enilikler
ha berler
b oyutları
v enleri
di venleri
el divenleri
laş ımları
ay laşımları
p aylaşımları
ön eler
y öneler
uluslar ası
az arlar
p azarlar
ist eler
l isteler
ır alamalar
s ıralamalar
s ıralar
ak sini
m ineler
y üzeyini
a pları
es apları
h esapları
alış maları
Ç alışmaları
ek eler
b ekeler
e bekeler
ş ebekeler
ar ılması
on arılması
ür ülmesi
d ürülmesi
sür dürülmesi
em izlenmesi
t emizlenmesi
dır ılar
al dırılar
s aldırılar
K imler
an cılar
b ancılar
a bancılar
Y abancılar
or bası
Ç orbası
ek neler
T ekneler
ý mlar
þ ýmlar
la þýmlar
u laþýmlar
it irilmesi
b itirilmesi
ay arlar
ü yeler
gör memesi
n aklar
kay naklar
e vhalar
L evhalar
z emini
ya pılar
er azları
om erazları
iz omerazları
o izomerazları
p oizomerazları
o poizomerazları
t opoizomerazları
ol onlar
in olonlar
ok inolonlar
or okinolonlar
l orokinolonlar
f lorokinolonlar
bir imlerini
m baları
la mbaları
tı ları
lan tıları
p lantıları
o plantıları
t oplantıları
ola bilmesi
es eller
R eseller
il enler
ed ilenler
y lar
ola ylar
ara flar
t araflar
ur istler
T uristler
ış ımları
kar ışımları
l ektörler
f lektörler
e flektörler
R eflektörler
N oktaları
M üşteriler
p isini
a pisini
ter apisini
p iyonlar
am piyonlar
Ş ampiyonlar
in eri
f ineri
ra fineri
n iteleri
Ü niteleri
a ğlar
Y ağlar
ya ğlar
ek lenmesi
Y ukarı
ist emini
s istemini
s arı
er deler
p erdeler
dan ları
üz danları
c üzdanları
f isler
o fisler
mek anlar
iye bilirler
y iyebilirler
u peri
s uperi
ük leri
l ükleri
gün lükleri
U çları
ed ektörler
D edektörler
iy erler
kar iyerler
f isini
ra fisini
g rafisini
o grafisini
iy ografisini
b iyografisini
du biyografisini
ur dubiyografisini
d urdubiyografisini
ol durdubiyografisini
d oldurdubiyografisini
da valar
c üler
ön cüler
ren cileri
ğ rencileri
ö ğrencileri
gör evler
bu günler
b alamalar
om balamalar
b ombalamalar
ça cakları
u çacakları
il otlar
p ilotlar
kur tarı
d esler
ar desler
K ardesler
oy unları
l ilikler
ir lilikler
k irlilikler
ş ikler
ile şikler
B ileşikler
D üzeyler
e ğeri
D eğeri
v eleri
y veleri
me yveleri
ış ımlar
kar ışımlar
os lar
s oslar
ve çler
gü veçler
ç orbalar
olası lıklar
en cesi
v encesi
ü vencesi
G üvencesi
on utları
K onutları
un lukları
oğ unlukları
y oğunlukları
as itesi
p asitesi
ka pasitesi
K alesi
kal emler
r iskini
ş işeler
ü pleri
t üpleri
t isini
par tisini
o dları
k odları
ar kodları
b arkodları
ış ları
at ışları
s atışları
eş ini
b eşini
ey ebilirler
den eyebilirler
bil ar
cak lılar
a caklılar
al acaklılar
di aları
d diaları
i ddiaları
a desi
i adesi
lik asyonları
p likasyonları
om plikasyonları
k omplikasyonları
ay ıları
s ayıları
c amlar
iy otlar
d iyotlar
ol aları
m olaları
en ekleri
ç enekleri
se çenekleri
s ımları
ı sımları
k ısımları
or talar
g ortalar
i gortalar
S igortalar
tur istler
ur ması
d urması
bulun durması
o derler
k oderler
n koderler
E nkoderler
B akteriler
yon ları
s yonları
ü syonları
ol üsyonları
S olüsyonları
iler letilmesi
ma cılar
tır macılar
ş tırmacılar
ara ştırmacılar
ş tirilmesi
ile ştirilmesi
iy ileştirilmesi
as aları
k asaları
b ezler
g resi
o gresi
r ogresi
P rogresi
üm anlar
ok ümanlar
D okümanlar
ay daşları
p aydaşları
ver enler
iş verenler
maktadır lar
bulun maktadırlar
lu lar
oy lular
s oylular
se ferleri
kal eler
ist erler
o valar
k ovalar
h astaları
it eri
r iteri
k riteri
