{
  "<unk>": 0,
  "<pad>": 1,
  " ": 2,
  "!": 3,
  "\"": 4,
  "'": 5,
  "(": 6,
  ")": 7,
  ",": 8,
  "-": 9,
  ".": 10,
  "0": 11,
  "1": 12,
  "2": 13,
  "3": 14,
  "4": 15,
  "5": 16,
  "6": 17,
  "7": 18,
  "8": 19,
  "9": 20,
  ":": 21,
  ";": 22,
  "?": 23,
  "A": 24,
  "B": 25,
  "C": 26,
  "D": 27,
  "E": 28,
  "F": 29,
  "G": 30,
  "H": 31,
  "I": 32,
  "J": 33,
  "K": 34,
  "L": 35,
  "M": 36,
  "N": 37,
  "O": 38,
  "P": 39,
  "Q": 40,
  "R": 41,
  "S": 42,
  "T": 43,
  "U": 44,
  "V": 45,
  "W": 46,
  "X": 47,
  "Y": 48,
  "Z": 49,
  "_": 50,
  "a": 51,
  "b": 52,
  "c": 53,
  "d": 54,
  "e": 55,
  "f": 56,
  "g": 57,
  "h": 58,
  "i": 59,
  "j": 60,
  "k": 61,
  "l": 62,
  "m": 63,
  "n": 64,
  "o": 65,
  "p": 66,
  "q": 67,
  "r": 68,
  "s": 69,
  "t": 70,
  "u": 71,
  "v": 72,
  "w": 73,
  "x": 74,
  "y": 75,
  "z": 76,
  "²": 77,
  "À": 78,
  "Â": 79,
  "Ç": 80,
  "Ð": 81,
  "Ö": 82,
  "Ü": 83,
  "Ý": 84,
  "à": 85,
  "â": 86,
  "ä": 87,
  "æ": 88,
  "ç": 89,
  "ê": 90,
  "ë": 91,
  "í": 92,
  "î": 93,
  "ð": 94,
  "ñ": 95,
  "ô": 96,
  "ö": 97,
  "û": 98,
  "ü": 99,
  "ý": 100,
  "þ": 101,
  "Č": 102,
  "Ğ": 103,
  "ğ": 104,
  "İ": 105,
  "ı": 106,
  "ł": 107,
  "Ş": 108,
  "ş": 109,
  "š": 110,
  "Ə": 111,
  "ə": 112,
  "ɪ": 113,
  "Ε": 114,
  "ά": 115,
  "α": 116,
  "η": 117,
  "ι": 118,
  "κ": 119,
  "λ": 120,
  "ν": 121,
  "А": 122,
  "Е": 123,
  "Ж": 124,
  "З": 125,
  "М": 126,
  "Р": 127,
  "Т": 128,
  "а": 129,
  "в": 130,
  "г": 131,
  "д": 132,
  "е": 133,
  "и": 134,
  "й": 135,
  "к": 136,
  "л": 137,
  "м": 138,
  "н": 139,
  "о": 140,
  "п": 141,
  "р": 142,
  "с": 143,
  "т": 144,
  "у": 145,
  "х": 146,
  "ш": 147,
  "ы": 148,
  "ь": 149,
  "я": 150,
  "א": 151,
  "ב": 152,
  "ה": 153,
  "ו": 154,
  "י": 155,
  "נ": 156,
  "ע": 157,
  "ק": 158,
  "ר": 159,
  "ת": 160,
  "ا": 161,
  "ب": 162,
  "ت": 163,
  "ر": 164,
  "س": 165,
  "ش": 166,
  "ع": 167,
  "و": 168,
  "ي": 169,
  "ک": 170,
  "ی": 171,
  "ộ": 172,
  "₂": 173,
  "ア": 174,
  "タ": 175,
  "ヤ": 176,
  "ル": 177,
  "ン": 178,
  "中": 179,
  "体": 180,
  "文": 181,
  "日": 182,
  "本": 183,
  "简": 184,
  "語": 185,
  "국": 186,
  "어": 187,
  "텔": 188,
  "한": 189,
  "호": 190,
  "ar": 191,
  "er": 192,
  "an": 193,
  "in": 194,
  "ir": 195,
  "il": 196,
  "en": 197,
  "al": 198,
  "ak": 199,
  "ın": 200,
  "el": 201,
  "ek": 202,
  "lar": 203,
  "ve": 204,
  "as": 205,
  "ik": 206,
  "et": 207,
  "es": 208,
  "on": 209,
  "da": 210,
  "la": 211,
  "de": 212,
  "ler": 213,
  "ya": 214,
  "ma": 215,
  "iz": 216,
  "ol": 217,
  "un": 218,
  "or": 219,
  "ır": 220,
  "is": 221,
  "bir": 222,
  "im": 223,
  "em": 224,
  "at": 225,
  "iş": 226,
  "iy": 227,
  "it": 228,
  "ul": 229,
  "lı": 230,
  "ay": 231,
  "iç": 232,
  "bil": 233,
  "lan": 234,
  "ur": 235,
  "ta": 236,
  "için": 237,
  "le": 238,
  "ür": 239,
  "ün": 240,
  "ış": 241,
  "li": 242,
  "ası": 243,
  "mak": 244,
  "ları": 245,
  "am": 246,
  "esi": 247,
  "ız": 248,
  "alar": 249,
  "ed": 250,
  "ot": 251,
  "ük": 252,
  "ık": 253,
  "sa": 254,
  "ka": 255,
  "eri": 256,
  "um": 257,
  "leri": 258,
  "az": 259,
  "ok": 260,
  "ıl": 261,
  "dır": 262,
  "ım": 263,
  "ini": 264,
  "st": 265,
  "ör": 266,
  "ile": 267,
  "bilir": 268,
  "ön": 269,
  "dan": 270,
  "me": 271,
  "üz": 272,
  "ti": 273,
  "uz": 274,
  "ha": 275,
  "ra": 276,
  "iler": 277,
  "ında": 278,
  "olar": 279,
  "ara": 280,
  "ut": 281,
  "ba": 282,
  "üm": 283,
  "ist": 284,
  "ce": 285,
  "yon": 286,
  "uk": 287,
  "di": 288,
  "ullan": 289,
  "den": 290,
  "tir": 291,
  "ine": 292,
  "dir": 293,
  "ey": 294,
  "eler": 295,
  "öz": 296,
  "mek": 297,
  "cı": 298,
  "man": 299,
  "kullan": 300,
  "ların": 301,
  "uy": 302,
  "lik": 303,
  "inde": 304,
  "tr": 305,
  "aları": 306,
  "iniz": 307,
  "bu": 308,
  "te": 309,
  "os": 310,
  "ğı": 311,
  "ması": 312,
  "var": 313,
  "gi": 314,
  "ver": 315,
  "tır": 316,
  "üş": 317,
  "lem": 318,
  "ter": 319,
  "om": 320,
  "ci": 321,
  "kon": 322,
  "lık": 323,
  "yük": 324,
  "cak": 325,
  "gel": 326,
  "ını": 327,
  "arı": 328,
  "yan": 329,
  "re": 330,
  "kal": 331,
  "len": 332,
  "se": 333,
  "uş": 334,
  "dı": 335,
  "ileri": 336,
  "kar": 337,
  "olarak": 338,
  "sek": 339,
  "tik": 340,
  "oy": 341,
  "ger": 342,
  "dak": 343,
  "veya": 344,
  "asyon": 345,
  "tı": 346,
  "mesi": 347,
  "sun": 348,
  "pr": 349,
  "ola": 350,
  "inin": 351,
  "ge": 352,
  "bul": 353,
  "par": 354,
  "Bu": 355,
  "du": 356,
  "hi": 357,
  "inesi": 358,
  "eti": 359,
  "son": 360,
  "makta": 361,
  "ca": 362,
  "anlar": 363,
  "eleri": 364,
  "isi": 365,
  "bi": 366,
  "gör": 367,
  "ına": 368,
  "etler": 369,
  "ğer": 370,
  "eş": 371,
  "sı": 372,
  "ekler": 373,
  "lu": 374,
  "tan": 375,
  "maktadır": 376,
  "laş": 377,
  "esini": 378,
  "der": 379,
  "otel": 380,
  "daha": 381,
  "ği": 382,
  "tek": 383,
  "ünler": 384,
  "likler": 385,
  "etleri": 386,
  "ciler": 387,
  "ül": 388,
  "lama": 389,
  "manları": 390,
  "ama": 391,
  "ından": 392,
  "itesi": 393,
  "va": 394,
  "özel": 395,
  "ürünler": 396,
  "dalar": 397,
  "malar": 398,
  "ınız": 399,
  "oğ": 400,
  "makinesi": 401,
  "alış": 402,
  "nası": 403,
  "cılar": 404,
  "yıl": 405,
  "tar": 406,
  "arası": 407,
  "çık": 408,
  "siz": 409,
  "dr": 410,
  "alı": 411,
  "leş": 412,
  "pı": 413,
  "ılması": 414,
  "mış": 415,
  "ken": 416,
  "üler": 417,
  "imler": 418,
  "tak": 419,
  "ez": 420,
  "sitesi": 421,
  "çok": 422,
  "ilmesi": 423,
  "imleri": 424,
  "eli": 425,
  "uklar": 426,
  "yer": 427,
  "ğlar": 428,
  "geri": 429,
  "ikler": 430,
  "akinesi": 431,
  "Makinesi": 432,
  "aman": 433,
  "vi": 434,
  "ili": 435,
  "ular": 436,
  "eller": 437,
  "sür": 438,
  "ataları": 439,
  "iştir": 440,
  "ğini": 441,
  "teri": 442,
  "eticiler": 443,
  "kur": 444,
  "her": 445,
  "iyi": 446,
  "slar": 447,
  "çları": 448,
  "pmanları": 449,
  "ipmanları": 450,
  "ıcılar": 451,
  "çlar": 452,
  "gen": 453,
  "ru": 454,
  "alataları": 455,
  "balataları": 456,
  "inası": 457,
  "daları": 458,
  "kay": 459,
  "sağlar": 460,
  "tlar": 461,
  "kiler": 462,
  "üşteri": 463,
  "unları": 464,
  "özellikler": 465,
  "erler": 466,
  "kipmanları": 467,
  "Ekipmanları": 468,
  "gileri": 469,
  "mesini": 470,
  "meler": 471,
  "uslar": 472,
  "odalar": 473,
  "giler": 474,
  "yalar": 475,
  "oteller": 476,
  "çiler": 477,
  "ılar": 478,
  "örler": 479,
  "daki": 480,
  "ren": 481,
  "tmanları": 482,
  "partmanları": 483,
  "uluslar": 484,
  "talar": 485,
  "cuklar": 486,
  "ocuklar": 487,
  "An": 488,
  "veriler": 489,
  "çaları": 490,
  "iyor": 491,
  "oz": 492,
  "uluslararası": 493,
  "alan": 494,
  "eni": 495,
  "met": 496,
  "bilirler": 497,
  "bilgiler": 498,
  "dası": 499,
  "irler": 500,
  "desi": 501,
  "lanması": 502,
  "çler": 503,
  "sanlar": 504,
  "neler": 505,
  "cekler": 506,
  "ünleri": 507,
  "likleri": 508,
  "ukarı": 509,
  "olan": 510,
  "oları": 511,
  "imini": 512,
  "baş": 513,
  "akinası": 514,
  "Makinası": 515,
  "apartmanları": 516,
  "cileri": 517,
  "asası": 518,
  "bulun": 519,
  "odaları": 520,
  "ilm": 521,
  "izler": 522,
  "uları": 523,
  "versitesi": 524,
  "iversitesi": 525,
  "niversitesi": 526,
  "Üniversitesi": 527,
  "aler": 528,
  "lemler": 529,
  "bası": 530,
  "enler": 531,
  "metleri": 532,
  "izmetleri": 533,
  "inler": 534,
  "maları": 535,
  "insanlar": 536,
  "teriler": 537,
  "çalar": 538,
  "parçalar": 539,
  "eyler": 540,
  "ürünleri": 541,
  "umlar": 542,
  "lenmesi": 543,
  "yukarı": 544,
  "mini": 545,
  "iye": 546,
  "ye": 547,
  "törler": 548,
  "aş": 549,
  "eticileri": 550,
  "çalış": 551,
  "ıkları": 552,
  "ran": 553,
  "çocuklar": 554,
  "kler": 555,
  "arçaları": 556,
  "Parçaları": 557,
  "mlar": 558,
  "Odalar": 559,
  "rası": 560,
  "isler": 561,
  "metler": 562,
  "izmetler": 563,
  "ikçiler": 564,
  "arikçiler": 565,
  "edarikçiler": 566,
  "onlar": 567,
  "ikası": 568,
  "reticiler": 569,
  "Üreticiler": 570,
  "birimleri": 571,
  "üreticileri": 572,
  "çileri": 573,
  "zaman": 574,
  "çalışmalar": 575,
  "şları": 576,
  "ümleri": 577,
  "osyalar": 578,
  "anları": 579,
  "lamalar": 580,
  "ulamalar": 581,
  "gulamalar": 582,
  "seri": 583,
  "tası": 584,
  "işlemler": 585,
  "bilgileri": 586,
  "tler": 587,
  "püler": 588,
  "opüler": 589,
  "bunları": 590,
  "kası": 591,
  "emeler": 592,
  "zemeler": 593,
  "alzemeler": 594,
  "malzemeler": 595,
  "ımları": 596,
  "sonrası": 597,
  "ıları": 598,
  "içeri": 599,
  "istesi": 600,
  "süresi": 601,
  "özellikleri": 602,
  "cıları": 603,
  "teller": 604,
  "Oteller": 605,
  "müşteri": 606,
  "ımlar": 607,
  "otlar": 608,
  "Feri": 609,
  "nlar": 610,
  "Onlar": 611,
  "tur": 612,
  "tarı": 613,
  "fi": 614,
  "ikçileri": 615,
  "arikçileri": 616,
  "edarikçileri": 617,
  "tel": 618,
  "onuklar": 619,
  "Konuklar": 620,
  "dosyalar": 621,
  "ızlar": 622,
  "uygulamalar": 623,
  "men": 624,
  "isini": 625,
  "Müşteri": 626,
  "ikleri": 627,
  "enleri": 628,
  "hizmetleri": 629,
  "aller": 630,
  "emleri": 631,
  "allar": 632,
  "cesi": 633,
  "terası": 634,
  "ukları": 635,
  "örleri": 636,
  "iyesi": 637,
  "veri": 638,
  "üşteriler": 639,
  "emesi": 640,
  "pleri": 641,
  "listesi": 642,
  "lerini": 643,
  "firler": 644,
  "afirler": 645,
  "isafirler": 646,
  "Hizmetler": 647,
  "tları": 648,
  "ıcıları": 649,
  "iller": 650,
  "olması": 651,
  "kileri": 652,
  "Tedarikçiler": 653,
  "artlar": 654,
  "ketler": 655,
  "itler": 656,
  "ellikler": 657,
  "zellikler": 658,
  "Özellikler": 659,
  "taları": 660,
  "gü": 661,
  "onları": 662,
  "iktarı": 663,
  "miktarı": 664,
  "tedarikçileri": 665,
  "astalar": 666,
  "alıkları": 667,
  "konular": 668,
  "ının": 669,
  "atları": 670,
  "şlar": 671,
  "daşları": 672,
  "yaları": 673,
  "Kızlar": 674,
  "odası": 675,
  "asarı": 676,
  "ulması": 677,
  "gerek": 678,
  "balar": 679,
  "umarası": 680,
  "arkası": 681,
  "ezler": 682,
  "dırılması": 683,
  "lıklar": 684,
  "akları": 685,
  "iteler": 686,
  "abilirler": 687,
  "müşteriler": 688,
  "ışarı": 689,
  "Veri": 690,
  "unlar": 691,
  "kullanıcılar": 692,
  "üzeyler": 693,
  "asyonları": 694,
  "pları": 695,
  "elerini": 696,
  "beri": 697,
  "liğini": 698,
  "takları": 699,
  "ekleri": 700,
  "deler": 701,
  "sler": 702,
  "alları": 703,
  "uçları": 704,
  "yeler": 705,
  "tiler": 706,
  "renciler": 707,
  "ğrenciler": 708,
  "arlar": 709,
  "irketler": 710,
  "şirketler": 711,
  "fler": 712,
  "feri": 713,
  "yıcılar": 714,
  "iyetleri": 715,
  "flar": 716,
  "cası": 717,
  "emekler": 718,
  "yemekler": 719,
  "esimler": 720,
  "aklar": 721,
  "başarı": 722,
  "lü": 723,
  "kullanılması": 724,
  "Desi": 725,
  "Doları": 726,
  "gün": 727,
  "ğmesini": 728,
  "üğmesini": 729,
  "düğmesini": 730,
  "işler": 731,
  "mas": 732,
  "aylar": 733,
  "kasası": 734,
  "zarası": 735,
  "manzarası": 736,
  "tes": 737,
  "atası": 738,
  "esimleri": 739,
  "iteleri": 740,
  "çe": 741,
  "osyaları": 742,
  "jiler": 743,
  "ojiler": 744,
  "olojiler": 745,
  "nolojiler": 746,
  "teknolojiler": 747,
  "küler": 748,
  "asküler": 749,
  "vasküler": 750,
  "ddesi": 751,
  "işkiler": 752,
  "gesi": 753,
  "numarası": 754,
  "alanlar": 755,
  "jesi": 756,
  "ojesi": 757,
  "nesi": 758,
  "üleri": 759,
  "tüleri": 760,
  "fları": 761,
  "markası": 762,
  "pılar": 763,
  "istemleri": 764,
  "etkiler": 765,
  "tikler": 766,
  "astikler": 767,
  "tarlar": 768,
  "işleri": 769,
  "atalar": 770,
  "maması": 771,
  "utları": 772,
  "pası": 773,
  "ceğini": 774,
  "ükler": 775,
  "deller": 776,
  "odeller": 777,
  "pılması": 778,
  "yapılması": 779,
  "eçler": 780,
  "süreçler": 781,
  "arları": 782,
  "Popüler": 783,
  "törleri": 784,
  "resi": 785,
  "ecekler": 786,
  "kalar": 787,
  "inalar": 788,
  "binalar": 789,
  "keler": 790,
  "bilmesi": 791,
  "çleri": 792,
  "erdesi": 793,
  "Perdesi": 794,
  "yatları": 795,
  "fiyatları": 796,
  "urumlar": 797,
  "durumlar": 798,
  "elleri": 799,
  "jeler": 800,
  "ojeler": 801,
  "projeler": 802,
  "anallar": 803,
  "itikası": 804,
  "olitikası": 805,
  "ğları": 806,
  "asalları": 807,
  "yasalları": 808,
  "imyasalları": 809,
  "Kimyasalları": 810,
  "lentiler": 811,
  "tresi": 812,
  "leşmesi": 813,
  "ıklar": 814,
  "misafirler": 815,
  "dini": 816,
  "lamaları": 817,
  "meleri": 818,
  "aliyetleri": 819,
  "yolar": 820,
  "anyolar": 821,
  "banyolar": 822,
  "siteler": 823,
  "stalar": 824,
  "amlar": 825,
  "raflar": 826,
  "oğraflar": 827,
  "otoğraflar": 828,
  "laması": 829,
  "geler": 830,
  "ırlar": 831,
  "ancası": 832,
  "bancası": 833,
  "keri": 834,
  "eriler": 835,
  "Veriler": 836,
  "etini": 837,
  "eşitler": 838,
  "çeşitler": 839,
  "işimini": 840,
  "emini": 841,
  "ümler": 842,
  "emler": 843,
  "yıcıları": 844,
  "layıcıları": 845,
  "ğlayıcıları": 846,
  "sağlayıcıları": 847,
  "Resimler": 848,
  "amalar": 849,
  "letler": 850,
  "testler": 851,
  "sini": 852,
  "erleri": 853,
  "iyonları": 854,
  "siyonları": 855,
  "uçlar": 856,
  "ça": 857,
  "00": 858,
  "ınlar": 859,
  "heri": 860,
  "verileri": 861,
  "hastalar": 862,
  "talıkları": 863,
  "astalıkları": 864,
  "ikalar": 865,
  "atlar": 866,
  "manlar": 867,
  "hatası": 868,
  "daşlar": 869,
  "kadaşlar": 870,
  "arkadaşlar": 871,
  "yar": 872,
  "cuları": 873,
  "ucuları": 874,
  "sunucuları": 875,
  "azları": 876,
  "esler": 877,
  "üller": 878,
  "hasarı": 879,
  "ede": 880,
  "releri": 881,
  "emalar": 882,
  "izleri": 883,
  "lanları": 884,
  "ilişkiler": 885,
  "enekler": 886,
  "Sarı": 887,
  "iyeler": 888,
  "yler": 889,
  "öyler": 890,
  "içekler": 891,
  "vler": 892,
  "orbalar": 893,
  "ürleri": 894,
  "tesi": 895,
  "otelleri": 896,
  "zeri": 897,
  "enzeri": 898,
  "ineleri": 899,
  "makineleri": 900,
  "yıllar": 901,
  "barı": 902,
  "rafları": 903,
  "popüler": 904,
  "bekler": 905,
  "sistemleri": 906,
  "erezler": 907,
  "gası": 908,
  "baları": 909,
  "geleri": 910,
  "başlar": 911,
  "renkler": 912,
  "hatalar": 913,
  "ğerler": 914,
  "fesi": 915,
  "kafesi": 916,
  "ovasküler": 917,
  "iyovasküler": 918,
  "diyovasküler": 919,
  "kardiyovasküler": 920,
  "kalitesi": 921,
  "oyutları": 922,
  "yası": 923,
  "osyası": 924,
  "dosyası": 925,
  "lükler": 926,
  "Nası": 927,
  "uyarı": 928,
  "ormlar": 929,
  "formlar": 930,
  "tformlar": 931,
  "latformlar": 932,
  "platformlar": 933,
  "edilmesi": 934,
  "uarları": 935,
  "esuarları": 936,
  "sesuarları": 937,
  "berler": 938,
  "deolar": 939,
  "Hizmetleri": 940,
  "plar": 941,
  "ekçiler": 942,
  "içekçiler": 943,
  "parçaları": 944,
  "ürler": 945,
  "etlerini": 946,
  "zemesi": 947,
  "alzemesi": 948,
  "deoları": 949,
  "videoları": 950,
  "kanlar": 951,
  "eküler": 952,
  "araçları": 953,
  "ullar": 954,
  "şullar": 955,
  "oşullar": 956,
  "letleri": 957,
  "vletleri": 958,
  "evletleri": 959,
  "Devletleri": 960,
  "kinler": 961,
  "işkinler": 962,
  "etişkinler": 963,
  "açlar": 964,
  "ilaçlar": 965,
  "laları": 966,
  "öcekler": 967,
  "böcekler": 968,
  "daklar": 969,
  "cakları": 970,
  "orları": 971,
  "eresi": 972,
  "lukları": 973,
  "ortakları": 974,
  "illeri": 975,
  "erası": 976,
  "varı": 977,
  "uvarı": 978,
  "lımlar": 979,
  "ılımlar": 980,
  "ektörler": 981,
  "ddeler": 982,
  "etilmesi": 983,
  "eksler": 984,
  "leksler": 985,
  "pleksler": 986,
  "tipleksler": 987,
  "ultipleksler": 988,
  "multipleksler": 989,
  "amları": 990,
  "iyesini": 991,
  "viyesini": 992,
  "seviyesini": 993,
  "Kası": 994,
  "akası": 995,
  "yüzeyler": 996,
  "gençler": 997,
  "şeyler": 998,
  "erileri": 999,
  "ayanlar": 1000,
  "atler": 1001,
  "aması": 1002,
  "işlenmesi": 1003,
  "jları": 1004,
  "antalar": 1005,
  "Çantalar": 1006,
  "dartlar": 1007,
  "tleri": 1008,
  "testleri": 1009,
  "Çocuklar": 1010,
  "alyeler": 1011,
  "azlar": 1012,
  "hazlar": 1013,
  "cihazlar": 1014,
  "raçlar": 1015,
  "Araçlar": 1016,
  "iltresi": 1017,
  "Filtresi": 1018,
  "viyesi": 1019,
  "itesini": 1020,
  "Öğrenciler": 1021,
  "unması": 1022,
  "caklar": 1023,
  "lası": 1024,
  "vleri": 1025,
  "utlar": 1026,
  "akteriler": 1027,
  "kanallar": 1028,
  "aydaları": 1029,
  "faydaları": 1030,
  "demeler": 1031,
  "ödemeler": 1032,
  "itkileri": 1033,
  "çılar": 1034,
  "çalışanlar": 1035,
  "ıyıcılar": 1036,
  "şıyıcılar": 1037,
  "taşıyıcılar": 1038,
  "asalar": 1039,
  "aaliyetleri": 1040,
  "faaliyetleri": 1041,
  "ostalar": 1042,
  "postalar": 1043,
  "fotoğraflar": 1044,
  "tileri": 1045,
  "irtileri": 1046,
  "elirtileri": 1047,
  "belirtileri": 1048,
  "ülmesi": 1049,
  "skeri": 1050,
  "Askeri": 1051,
  "oktası": 1052,
  "noktası": 1053,
  "yemeklerini": 1054,
  "erikler": 1055,
  "arkalar": 1056,
  "markalar": 1057,
  "dosyaları": 1058,
  "ğeri": 1059,
  "oler": 1060,
  "toler": 1061,
  "intoler": 1062,
  "olası": 1063,
  "astaları": 1064,
  "reler": 1065,
  "ğeler": 1066,
  "öğeler": 1067,
  "itkiler": 1068,
  "eklentiler": 1069,
  "beklentiler": 1070,
  "dışarı": 1071,
  "yerler": 1072,
  "valar": 1073,
  "istler": 1074,
  "akalar": 1075,
  "lakalar": 1076,
  "plakalar": 1077,
  "süreçlerini": 1078,
  "özelliklerini": 1079,
  "gları": 1080,
  "ksiyonları": 1081,
  "onksiyonları": 1082,
  "fonksiyonları": 1083,
  "sonuçlar": 1084,
  "irması": 1085,
  "firması": 1086,
  "cini": 1087,
  "ecini": 1088,
  "sürecini": 1089,
  "gibi": 1090,
  "makinası": 1091,
  "olanlar": 1092,
  "dınlar": 1093,
  "kadınlar": 1094,
  "vheri": 1095,
  "evheri": 1096,
  "Cevheri": 1097,
  "çekler": 1098,
  "gerçekler": 1099,
  "hastalıkları": 1100,
  "tiğini": 1101,
  "fleri": 1102,
  "ifleri": 1103,
  "departmanları": 1104,
  "kadaşları": 1105,
  "arkadaşları": 1106,
  "yları": 1107,
  "resimleri": 1108,
  "siteleri": 1109,
  "ışıkları": 1110,
  "hası": 1111,
  "enini": 1112,
  "hazları": 1113,
  "cihazları": 1114,
  "sesler": 1115,
  "Yarı": 1116,
  "emanları": 1117,
  "elemanları": 1118,
  "ayseri": 1119,
  "Kayseri": 1120,
  "iyeleri": 1121,
  "viyeleri": 1122,
  "seviyeleri": 1123,
  "ozulması": 1124,
  "bozulması": 1125,
  "creleri": 1126,
  "ücreleri": 1127,
  "hücreleri": 1128,
  "kisini": 1129,
  "etkisini": 1130,
  "temalar": 1131,
  "maddesi": 1132,
  "jileri": 1133,
  "ojileri": 1134,
  "olojileri": 1135,
  "nolojileri": 1136,
  "eknolojileri": 1137,
  "Teknolojileri": 1138,
  "Alanları": 1139,
  "kanları": 1140,
  "imkanları": 1141,
  "htası": 1142,
  "tahtası": 1143,
  "Paler": 1144,
  "çabalar": 1145,
  "atini": 1146,
  "çenekler": 1147,
  "seçenekler": 1148,
  "ziler": 1149,
  "geziler": 1150,
  "köyler": 1151,
  "abası": 1152,
  "asabası": 1153,
  "kasabası": 1154,
  "çiçekler": 1155,
  "evler": 1156,
  "elikleri": 1157,
  "satları": 1158,
  "eşenleri": 1159,
  "bileşenleri": 1160,
  "projesi": 1161,
  "lgesi": 1162,
  "ölgesi": 1163,
  "bölgesi": 1164,
  "günler": 1165,
  "diler": 1166,
  "sları": 1167,
  "kursları": 1168,
  "benzeri": 1169,
  "eyenler": 1170,
  "isteyenler": 1171,
  "çesi": 1172,
  "hçesi": 1173,
  "ahçesi": 1174,
  "Bahçesi": 1175,
  "üntüleri": 1176,
  "görüntüleri": 1177,
  "oğrafları": 1178,
  "otoğrafları": 1179,
  "fotoğrafları": 1180,
  "urular": 1181,
  "uyurular": 1182,
  "Duyurular": 1183,
  "yaller": 1184,
  "teryaller": 1185,
  "materyaller": 1186,
  "ebekler": 1187,
  "istaller": 1188,
  "ristaller": 1189,
  "kristaller": 1190,
  "kapılar": 1191,
  "dler": 1192,
  "alanması": 1193,
  "kurallar": 1194,
  "mgası": 1195,
  "damgası": 1196,
  "lastikler": 1197,
  "temleri": 1198,
  "öntemleri": 1199,
  "iklikler": 1200,
  "işiklikler": 1201,
  "ğişiklikler": 1202,
  "değişiklikler": 1203,
  "kaldırılması": 1204,
  "hataları": 1205,
  "edenleri": 1206,
  "nedenleri": 1207,
  "ergeleri": 1208,
  "dları": 1209,
  "izması": 1210,
  "anizması": 1211,
  "iktarlar": 1212,
  "miktarlar": 1213,
  "etimini": 1214,
  "üretimini": 1215,
  "etikler": 1216,
  "öncesi": 1217,
  "güçler": 1218,
  "üşler": 1219,
  "görüşler": 1220,
  "ılmaması": 1221,
  "ırılmaması": 1222,
  "kırılmaması": 1223,
  "değerler": 1224,
  "oktalar": 1225,
  "alesi": 1226,
  "Boyutları": 1227,
  "ompası": 1228,
  "kaları": 1229,
  "arkaları": 1230,
  "markaları": 1231,
  "ileceğini": 1232,
  "rojesi": 1233,
  "Projesi": 1234,
  "ediler": 1235,
  "aketleri": 1236,
  "modeller": 1237,
  "iriler": 1238,
  "bıları": 1239,
  "kabıları": 1240,
  "akkabıları": 1241,
  "yakkabıları": 1242,
  "Ayakkabıları": 1243,
  "yesi": 1244,
  "üyesi": 1245,
  "gesini": 1246,
  "ideolar": 1247,
  "Videolar": 1248,
  "ilmler": 1249,
  "filmler": 1250,
  "akımları": 1251,
  "Takımları": 1252,
  "latörleri": 1253,
  "ülatörleri": 1254,
  "dülatörleri": 1255,
  "odülatörleri": 1256,
  "Modülatörleri": 1257,
  "kullanılar": 1258,
  "landırılması": 1259,
  "bılar": 1260,
  "kabılar": 1261,
  "akkabılar": 1262,
  "elikler": 1263,
  "siyesi": 1264,
  "hisler": 1265,
  "stresi": 1266,
  "ekstresi": 1267,
  "çerezler": 1268,
  "türler": 1269,
  "içecekler": 1270,
  "akabilirler": 1271,
  "bakabilirler": 1272,
  "Dışarı": 1273,
  "ınları": 1274,
  "ışınları": 1275,
  "oleküler": 1276,
  "Moleküler": 1277,
  "koşullar": 1278,
  "Misafirler": 1279,
  "yetişkinler": 1280,
  "kesi": 1281,
  "özümleri": 1282,
  "iyetler": 1283,
  "ülkeler": 1284,
  "ercekler": 1285,
  "Mercekler": 1286,
  "işelerini": 1287,
  "dişelerini": 1288,
  "endişelerini": 1289,
  "ümetler": 1290,
  "ükümetler": 1291,
  "hükümetler": 1292,
  "iresi": 1293,
  "işeleri": 1294,
  "dudaklar": 1295,
  "porları": 1296,
  "sporları": 1297,
  "anneler": 1298,
  "orunlar": 1299,
  "sorunlar": 1300,
  "kullanıcıları": 1301,
  "disler": 1302,
  "endisler": 1303,
  "hendisler": 1304,
  "ühendisler": 1305,
  "mühendisler": 1306,
  "eyimler": 1307,
  "deneyimler": 1308,
  "emizler": 1309,
  "temizler": 1310,
  "emekleri": 1311,
  "yemekleri": 1312,
  "fini": 1313,
  "lanlar": 1314,
  "amerası": 1315,
  "yarı": 1316,
  "izesi": 1317,
  "maddeler": 1318,
  "letilmesi": 1319,
  "ramları": 1320,
  "yatakları": 1321,
  "üreticiler": 1322,
  "tedarikçiler": 1323,
  "meniler": 1324,
  "politikası": 1325,
  "önler": 1326,
  "Bayanlar": 1327,
  "tılması": 1328,
  "esilmesi": 1329,
  "kesilmesi": 1330,
  "atörler": 1331,
  "anaması": 1332,
  "kanaması": 1333,
  "okuları": 1334,
  "bağları": 1335,
  "Deri": 1336,
  "takılar": 1337,
  "izikler": 1338,
  "çizikler": 1339,
  "tajları": 1340,
  "antajları": 1341,
  "vantajları": 1342,
  "avantajları": 1343,
  "zılımlar": 1344,
  "yazılımlar": 1345,
  "sonuçları": 1346,
  "bunlar": 1347,
  "dresi": 1348,
  "etkileri": 1349,
  "izmalar": 1350,
  "anizmalar": 1351,
  "yaşları": 1352,
  "lencesi": 1353,
  "ğlencesi": 1354,
  "eğlencesi": 1355,
  "peri": 1356,
  "açları": 1357,
  "ğaçları": 1358,
  "ağaçları": 1359,
  "masası": 1360,
  "tekler": 1361,
  "estekler": 1362,
  "destekler": 1363,
  "memesi": 1364,
  "imlerini": 1365,
  "bini": 1366,
  "özleşmesi": 1367,
  "sözleşmesi": 1368,
  "eviyesi": 1369,
  "Seviyesi": 1370,
  "kalitesini": 1371,
  "inlikler": 1372,
  "kinlikler": 1373,
  "Modeller": 1374,
  "çanlar": 1375,
  "ıçanlar": 1376,
  "Sıçanlar": 1377,
  "mlanması": 1378,
  "mamlanması": 1379,
  "tamamlanması": 1380,
  "dirmeler": 1381,
  "lendirmeler": 1382,
  "tırılması": 1383,
  "artırılması": 1384,
  "iştirilmesi": 1385,
  "geliştirilmesi": 1386,
  "orunması": 1387,
  "korunması": 1388,
  "uncaklar": 1389,
  "yuncaklar": 1390,
  "Oyuncaklar": 1391,
  "öneticiler": 1392,
  "yöneticiler": 1393,
  "imeler": 1394,
  "elimeler": 1395,
  "kelimeler": 1396,
  "tanesi": 1397,
  "liler": 1398,
  "azlası": 1399,
  "fazlası": 1400,
  "evleri": 1401,
  "palar": 1402,
  "ompalar": 1403,
  "pompalar": 1404,
  "halar": 1405,
  "vhalar": 1406,
  "oyutlar": 1407,
  "boyutlar": 1408,
  "ifler": 1409,
  "kendini": 1410,
  "bakteriler": 1411,
  "eketler": 1412,
  "areketler": 1413,
  "hareketler": 1414,
  "botlar": 1415,
  "balıkları": 1416,
  "lıkları": 1417,
  "Politikası": 1418,
  "yerini": 1419,
  "lipleri": 1420,
  "klipleri": 1421,
  "illaları": 1422,
  "villaları": 1423,
  "esneler": 1424,
  "ineler": 1425,
  "özler": 1426,
  "gözler": 1427,
  "özleri": 1428,
  "orular": 1429,
  "kini": 1430,
  "iskini": 1431,
  "işeler": 1432,
  "Olar": 1433,
  "valyeler": 1434,
  "övalyeler": 1435,
  "şövalyeler": 1436,
  "delleri": 1437,
  "odelleri": 1438,
  "modelleri": 1439,
  "çiçekçiler": 1440,
  "uketleri": 1441,
  "buketleri": 1442,
  "Lastikler": 1443,
  "vanlar": 1444,
  "lemeler": 1445,
  "enlemeler": 1446,
  "üzenlemeler": 1447,
  "düzenlemeler": 1448,
  "çalışmaları": 1449,
  "eçleri": 1450,
  "hizmetler": 1451,
  "versiteler": 1452,
  "iversiteler": 1453,
  "aşarı": 1454,
  "Başarı": 1455,
  "oranlar": 1456,
  "staları": 1457,
  "ostaları": 1458,
  "postaları": 1459,
  "tikleri": 1460,
  "ollar": 1461,
  "yollar": 1462,
  "ambası": 1463,
  "Lambası": 1464,
  "ellikleri": 1465,
  "zellikleri": 1466,
  "Özellikleri": 1467,
  "ramlar": 1468,
  "gramlar": 1469,
  "ogramlar": 1470,
  "programlar": 1471,
  "ferleri": 1472,
  "ğeleri": 1473,
  "itası": 1474,
  "aritası": 1475,
  "sizler": 1476,
  "orunları": 1477,
  "sorunları": 1478,
  "leticiler": 1479,
  "işleticiler": 1480,
  "genişleticiler": 1481,
  "etmesi": 1482,
  "letmesi": 1483,
  "zamanlaması": 1484,
  "dırlar": 1485,
  "inimler": 1486,
  "sinimler": 1487,
  "gereksinimler": 1488,
  "sörleri": 1489,
  "ensörleri": 1490,
  "Sensörleri": 1491,
  "iciler": 1492,
  "iştiriciler": 1493,
  "geliştiriciler": 1494,
  "eceğini": 1495,
  "bileceğini": 1496,
  "lgeler": 1497,
  "ölgeler": 1498,
  "bölgeler": 1499,
  "ller": 1500,
  "sekmesi": 1501,
  "pkası": 1502,
  "apkası": 1503,
  "tabancası": 1504,
  "pler": 1505,
  "uşlar": 1506,
  "inimleri": 1507,
  "sinimleri": 1508,
  "gereksinimleri": 1509,
  "ğlanması": 1510,
  "sağlanması": 1511,
  "çası": 1512,
  "ıralar": 1513,
  "Pini": 1514,
  "laşımlar": 1515,
  "aklaşımlar": 1516,
  "yaklaşımlar": 1517,
  "visler": 1518,
  "ervisler": 1519,
  "Servisler": 1520,
  "içerikler": 1521,
  "hakları": 1522,
  "arımlar": 1523,
  "asarımlar": 1524,
  "tasarımlar": 1525,
  "golar": 1526,
  "ogolar": 1527,
  "logolar": 1528,
  "çıklar": 1529,
  "açıklar": 1530,
  "eyini": 1531,
  "üzeyini": 1532,
  "paları": 1533,
  "ompaları": 1534,
  "Pompaları": 1535,
  "değeri": 1536,
  "ezleri": 1537,
  "erezleri": 1538,
  "nler": 1539,
  "ynler": 1540,
  "veynler": 1541,
  "eveynler": 1542,
  "beveynler": 1543,
  "dialar": 1544,
  "ddialar": 1545,
  "iddialar": 1546,
  "itleri": 1547,
  "ıdalar": 1548,
  "gıdalar": 1549,
  "ımcılar": 1550,
  "tırımcılar": 1551,
  "yatırımcılar": 1552,
  "oktaları": 1553,
  "pastaları": 1554,
  "eketini": 1555,
  "areketini": 1556,
  "hareketini": 1557,
  "layıcılar": 1558,
  "arabirimleri": 1559,
  "lifler": 1560,
  "saatler": 1561,
  "öğrenciler": 1562,
  "creler": 1563,
  "ücreler": 1564,
  "hücreler": 1565,
  "aksesuarları": 1566,
  "yasalar": 1567,
  "iskler": 1568,
  "andartlar": 1569,
  "standartlar": 1570,
  "yatlar": 1571,
  "fiyatlar": 1572,
  "bitkiler": 1573,
  "amiler": 1574,
  "camiler": 1575,
  "eseler": 1576,
  "erişimini": 1577,
  "istemler": 1578,
  "sistemler": 1579,
  "ilgiler": 1580,
  "Bilgiler": 1581,
  "yanlar": 1582,
  "mayanlar": 1583,
  "olmayanlar": 1584,
  "hları": 1585,
  "lemciler": 1586,
  "işlemciler": 1587,
  "emeleri": 1588,
  "zemeleri": 1589,
  "alzemeleri": 1590,
  "Resimleri": 1591,
  "aşamalar": 1592,
  "eşyalar": 1593,
  "etmeler": 1594,
  "letmeler": 1595,
  "umları": 1596,
  "araçlar": 1597,
  "bletler": 1598,
  "tabletler": 1599,
  "irilmesi": 1600,
  "tirilmesi": 1601,
  "birini": 1602,
  "iketler": 1603,
  "etiketler": 1604,
  "erilmesi": 1605,
  "sterilmesi": 1606,
  "österilmesi": 1607,
  "gösterilmesi": 1608,
  "ederler": 1609,
  "atuvarı": 1610,
  "oratuvarı": 1611,
  "boratuvarı": 1612,
  "aboratuvarı": 1613,
  "Laboratuvarı": 1614,
  "anesi": 1615,
  "hanesi": 1616,
  "phanesi": 1617,
  "üphanesi": 1618,
  "tüphanesi": 1619,
  "ütüphanesi": 1620,
  "binler": 1621,
  "elar": 1622,
  "Belar": 1623,
  "diğini": 1624,
  "inolar": 1625,
  "asinolar": 1626,
  "casinolar": 1627,
  "ükkanlar": 1628,
  "dükkanlar": 1629,
  "tasarı": 1630,
  "lılar": 1631,
  "deleri": 1632,
  "htarlar": 1633,
  "ahtarlar": 1634,
  "anahtarlar": 1635,
  "Malzemesi": 1636,
  "bilecekler": 1637,
  "abilecekler": 1638,
  "İleri": 1639,
  "çalışanları": 1640,
  "bitkileri": 1641,
  "lümleri": 1642,
  "ölümleri": 1643,
  "bölümleri": 1644,
  "şartlar": 1645,
  "Hastalar": 1646,
  "yaralar": 1647,
  "ebilirler": 1648,
  "puçları": 1649,
  "ipuçları": 1650,
  "ilikler": 1651,
  "alamalar": 1652,
  "izlenmesi": 1653,
  "keresi": 1654,
  "zkeresi": 1655,
  "tezkeresi": 1656,
  "Geri": 1657,
  "veler": 1658,
  "çeveler": 1659,
  "erçeveler": 1660,
  "çerçeveler": 1661,
  "üresi": 1662,
  "Süresi": 1663,
  "sferi": 1664,
  "ransferi": 1665,
  "Transferi": 1666,
  "praklar": 1667,
  "opraklar": 1668,
  "topraklar": 1669,
  "eşenler": 1670,
  "bileşenler": 1671,
  "iyonlar": 1672,
  "hiller": 1673,
  "Chiller": 1674,
  "danlar": 1675,
  "üzdanlar": 1676,
  "cüzdanlar": 1677,
  "ullanıcılar": 1678,
  "Kullanıcılar": 1679,
  "derler": 1680,
  "rünler": 1681,
  "Ürünler": 1682,
  "itimler": 1683,
  "ğitimler": 1684,
  "eğitimler": 1685,
  "illetler": 1686,
  "Milletler": 1687,
  "özlükler": 1688,
  "maşlar": 1689,
  "umaşlar": 1690,
  "kumaşlar": 1691,
  "abancası": 1692,
  "Tabancası": 1693,
  "metini": 1694,
  "izmetini": 1695,
  "hizmetini": 1696,
  "ersini": 1697,
  "mersini": 1698,
  "anmersini": 1699,
  "banmersini": 1700,
  "abanmersini": 1701,
  "Yabanmersini": 1702,
  "rikası": 1703,
  "brikası": 1704,
  "abrikası": 1705,
  "Fabrikası": 1706,
  "nerleri": 1707,
  "eynerleri": 1708,
  "teynerleri": 1709,
  "onteynerleri": 1710,
  "Konteynerleri": 1711,
  "ogları": 1712,
  "alogları": 1713,
  "analogları": 1714,
  "sektörler": 1715,
  "gergileri": 1716,
  "birimini": 1717,
  "edler": 1718,
  "Pedler": 1719,
  "lmeler": 1720,
  "ölmeler": 1721,
  "Bölmeler": 1722,
  "terler": 1723,
  "fterler": 1724,
  "defterler": 1725,
  "aslar": 1726,
  "esaslar": 1727,
  "san": 1728,
  "raylar": 1729,
  "amini": 1730,
  "itamini": 1731,
  "vitamini": 1732,
  "elik": 1733,
  "viler": 1734,
  "daviler": 1735,
  "tedaviler": 1736,
  "tedavilerini": 1737,
  "alışmalar": 1738,
  "Çalışmalar": 1739,
  "itikalar": 1740,
  "olitikalar": 1741,
  "politikalar": 1742,
  "ettiğini": 1743,
  "bizler": 1744,
  "Tatlar": 1745,
  "arifleri": 1746,
  "Tarifleri": 1747,
  "lmanlar": 1748,
  "Almanlar": 1749,
  "debilirler": 1750,
  "gidebilirler": 1751,
  "bilgilerini": 1752,
  "calar": 1753,
  "macalar": 1754,
  "ulmacalar": 1755,
  "Bulmacalar": 1756,
  "ozler": 1757,
  "gozler": 1758,
  "aragozler": 1759,
  "Karagozler": 1760,
  "jeleri": 1761,
  "ojeleri": 1762,
  "projeleri": 1763,
  "biler": 1764,
  "obiler": 1765,
  "Hobiler": 1766,
  "olayları": 1767,
  "bümleri": 1768,
  "albümleri": 1769,
  "Dosyaları": 1770,
  "ahası": 1771,
  "Dahası": 1772,
  "edenini": 1773,
  "nedenini": 1774,
  "adası": 1775,
  "uşadası": 1776,
  "Kuşadası": 1777,
  "iyeKuşadası": 1778,
  "hiyeKuşadası": 1779,
  "ethiyeKuşadası": 1780,
  "FethiyeKuşadası": 1781,
  "umFethiyeKuşadası": 1782,
  "drumFethiyeKuşadası": 1783,
  "odrumFethiyeKuşadası": 1784,
  "BodrumFethiyeKuşadası": 1785,
  "anBodrumFethiyeKuşadası": 1786,
  "VanBodrumFethiyeKuşadası": 1787,
  "saVanBodrumFethiyeKuşadası": 1788,
  "ursaVanBodrumFethiyeKuşadası": 1789,
  "BursaVanBodrumFethiyeKuşadası": 1790,
  "irBursaVanBodrumFethiyeKuşadası": 1791,
  "mirBursaVanBodrumFethiyeKuşadası": 1792,
  "zmirBursaVanBodrumFethiyeKuşadası": 1793,
  "İzmirBursaVanBodrumFethiyeKuşadası": 1794,
  "bulİzmirBursaVanBodrumFethiyeKuşadası": 1795,
  "anbulİzmirBursaVanBodrumFethiyeKuşadası": 1796,
  "stanbulİzmirBursaVanBodrumFethiyeKuşadası": 1797,
  "İstanbulİzmirBursaVanBodrumFethiyeKuşadası": 1798,
  "isKayseri": 1799,
  "arisKayseri": 1800,
  "marisKayseri": 1801,
  "armarisKayseri": 1802,
  "MarmarisKayseri": 1803,
  "İstanbulİzmirBursaVanBodrumFethiyeKuşadasıMarmarisKayseri": 1804,
  "aktörler": 1805,
  "faktörler": 1806,
  "tiküller": 1807,
  "ütiküller": 1808,
  "kütiküller": 1809,
  "ğesi": 1810,
  "öğesi": 1811,
  "saçları": 1812,
  "antlar": 1813,
  "jantlar": 1814,
  "ülmesini": 1815,
  "çülmesini": 1816,
  "üçülmesini": 1817,
  "küçülmesini": 1818,
  "laşması": 1819,
  "tılaşması": 1820,
  "htılaşması": 1821,
  "pıhtılaşması": 1822,
  "bizleri": 1823,
  "ikirler": 1824,
  "fikirler": 1825,
  "drası": 1826,
  "udrası": 1827,
  "pudrası": 1828,
  "plikler": 1829,
  "iplikler": 1830,
  "jlar": 1831,
  "ajlar": 1832,
  "alajlar": 1833,
  "balajlar": 1834,
  "ambalajlar": 1835,
  "üketiciler": 1836,
  "tüketiciler": 1837,
  "katini": 1838,
  "ikkatini": 1839,
  "dikkatini": 1840,
  "ediyeler": 1841,
  "Hediyeler": 1842,
  "zileri": 1843,
  "gezileri": 1844,
  "oylar": 1845,
  "Koylar": 1846,
  "bağlar": 1847,
  "torbalar": 1848,
  "türleri": 1849,
  "lemesi": 1850,
  "terlemesi": 1851,
  "asması": 1852,
  "basması": 1853,
  "elgesi": 1854,
  "belgesi": 1855,
  "itelikleri": 1856,
  "nitelikleri": 1857,
  "uruları": 1858,
  "vuruları": 1859,
  "başvuruları": 1860,
  "artesi": 1861,
  "umartesi": 1862,
  "Cumartesi": 1863,
  "irsatları": 1864,
  "firsatları": 1865,
  "ortlar": 1866,
  "kortlar": 1867,
  "eskortlar": 1868,
  "tması": 1869,
  "latması": 1870,
  "ınlatması": 1871,
  "dınlatması": 1872,
  "aydınlatması": 1873,
  "vadiler": 1874,
  "jesini": 1875,
  "ojesini": 1876,
  "rojesini": 1877,
  "Projesini": 1878,
  "alması": 1879,
  "ğnesi": 1880,
  "iğnesi": 1881,
  "viteleri": 1882,
  "tiviteleri": 1883,
  "aktiviteleri": 1884,
  "ongları": 1885,
  "longları": 1886,
  "ezlongları": 1887,
  "şezlongları": 1888,
  "siyeler": 1889,
  "emsiyeler": 1890,
  "şemsiyeler": 1891,
  "ektler": 1892,
  "fektler": 1893,
  "efektler": 1894,
  "Bebekler": 1895,
  "şeler": 1896,
  "teşeler": 1897,
  "menteşeler": 1898,
  "rinler": 1899,
  "itrinler": 1900,
  "vitrinler": 1901,
  "isitesi": 1902,
  "sisitesi": 1903,
  "oksisitesi": 1904,
  "toksisitesi": 1905,
  "idler": 1906,
  "oidler": 1907,
  "eroidler": 1908,
  "steroidler": 1909,
  "ermesini": 1910,
  "stermesini": 1911,
  "östermesini": 1912,
  "göstermesini": 1913,
  "çalanması": 1914,
  "parçalanması": 1915,
  "etkilerini": 1916,
  "levler": 1917,
  "işlevler": 1918,
  "Çerezler": 1919,
  "Plastikler": 1920,
  "Yöntemleri": 1921,
  "ambaları": 1922,
  "Lambaları": 1923,
  "yöntemleri": 1924,
  "önergeleri": 1925,
  "yönergeleri": 1926,
  "lemleri": 1927,
  "işlemleri": 1928,
  "matlar": 1929,
  "imatlar": 1930,
  "alimatlar": 1931,
  "talimatlar": 1932,
  "andları": 1933,
  "standları": 1934,
  "irbaşlar": 1935,
  "mirbaşlar": 1936,
  "demirbaşlar": 1937,
  "pılanması": 1938,
  "yapılanması": 1939,
  "zetleri": 1940,
  "zzetleri": 1941,
  "lezzetleri": 1942,
  "okular": 1943,
  "dokular": 1944,
  "caklıklar": 1945,
  "sıcaklıklar": 1946,
  "mekanizması": 1947,
  "ışmaları": 1948,
  "tışmaları": 1949,
  "tartışmaları": 1950,
  "söyler": 1951,
  "etreleri": 1952,
  "ametreleri": 1953,
  "arametreleri": 1954,
  "Parametreleri": 1955,
  "bler": 1956,
  "abler": 1957,
  "nabler": 1958,
  "Enabler": 1959,
  "ançlar": 1960,
  "zançlar": 1961,
  "kazançlar": 1962,
  "ilimini": 1963,
  "emilimini": 1964,
  "tetikler": 1965,
  "vitesi": 1966,
  "tivitesi": 1967,
  "aktivitesi": 1968,
  "nakları": 1969,
  "kaynakları": 1970,
  "ışişleri": 1971,
  "Dışişleri": 1972,
  "desini": 1973,
  "üzdesini": 1974,
  "yüzdesini": 1975,
  "riler": 1976,
  "striler": 1977,
  "üstriler": 1978,
  "düstriler": 1979,
  "endüstriler": 1980,
  "olmaması": 1981,
  "tini": 1982,
  "vetini": 1983,
  "vvetini": 1984,
  "uvvetini": 1985,
  "kuvvetini": 1986,
  "edikleri": 1987,
  "medikleri": 1988,
  "etmedikleri": 1989,
  "erirler": 1990,
  "sterirler": 1991,
  "österirler": 1992,
  "gösterirler": 1993,
  "viteler": 1994,
  "tiviteler": 1995,
  "aktiviteler": 1996,
  "noktalar": 1997,
  "halesi": 1998,
  "dahalesi": 1999,
  "üdahalesi": 2000,
  "müdahalesi": 2001,
  "galanması": 2002,
  "algalanması": 2003,
  "dalgalanması": 2004,
  "ozları": 2005,
  "tozları": 2006,
  "ullanımları": 2007,
  "Kullanımları": 2008,
  "Pompası": 2009,
  "iştirileceğini": 2010,
  "ğiştirileceğini": 2011,
  "değiştirileceğini": 2012,
  "eğini": 2013,
  "eneğini": 2014,
  "çeneğini": 2015,
  "seçeneğini": 2016,
  "hleri": 2017,
  "ihleri": 2018,
  "tarihleri": 2019,
  "hirler": 2020,
  "ehirler": 2021,
  "şehirler": 2022,
  "şehirlerini": 2023,
  "ürlükler": 2024,
  "dürlükler": 2025,
  "üdürlükler": 2026,
  "müdürlükler": 2027,
  "Binası": 2028,
  "cheri": 2029,
  "acheri": 2030,
  "Kacheri": 2031,
  "tukları": 2032,
  "oltukları": 2033,
  "Koltukları": 2034,
  "rediler": 2035,
  "krediler": 2036,
  "lini": 2037,
  "Clini": 2038,
  "anatları": 2039,
  "Sanatları": 2040,
  "Paketleri": 2041,
  "Yerler": 2042,
  "linler": 2043,
  "plinler": 2044,
  "isiplinler": 2045,
  "disiplinler": 2046,
  "turulması": 2047,
  "uşturulması": 2048,
  "oluşturulması": 2049,
  "etiriler": 2050,
  "getiriler": 2051,
  "ışmalar": 2052,
  "akışmalar": 2053,
  "çakışmalar": 2054,
  "derilmesi": 2055,
  "giderilmesi": 2056,
  "iküler": 2057,
  "triküler": 2058,
  "entriküler": 2059,
  "ventriküler": 2060,
  "ksesuarları": 2061,
  "Aksesuarları": 2062,
  "ailer": 2063,
  "Nailer": 2064,
  "orması": 2065,
  "forması": 2066,
  "iforması": 2067,
  "üniforması": 2068,
  "başlıklar": 2069,
  "Adası": 2070,
  "emberler": 2071,
  "Çemberler": 2072,
  "imgesini": 2073,
  "simgesini": 2074,
  "binası": 2075,
  "ekanizması": 2076,
  "Mekanizması": 2077,
  "amplar": 2078,
  "ramplar": 2079,
  "kramplar": 2080,
  "ürünlerini": 2081,
  "sizleri": 2082,
  "ersizleri": 2083,
  "zersizleri": 2084,
  "gzersizleri": 2085,
  "egzersizleri": 2086,
  "Sizler": 2087,
  "yerleri": 2088,
  "Çiçekçiler": 2089,
  "arlanması": 2090,
  "ayarlanması": 2091,
  "elesi": 2092,
  "eselesi": 2093,
  "meselesi": 2094,
  "eketleri": 2095,
  "areketleri": 2096,
  "hareketleri": 2097,
  "umlandırılması": 2098,
  "konumlandırılması": 2099,
  "yakkabılar": 2100,
  "Ayakkabılar": 2101,
  "Türleri": 2102,
  "celikler": 2103,
  "incelikler": 2104,
  "inceliklerini": 2105,
  "dileri": 2106,
  "kendileri": 2107,
  "vsiyesi": 2108,
  "tavsiyesi": 2109,
  "ederi": 2110,
  "rederi": 2111,
  "Frederi": 2112,
  "Resi": 2113,
  "arisini": 2114,
  "imarisini": 2115,
  "mimarisini": 2116,
  "izgileri": 2117,
  "çizgileri": 2118,
  "entürler": 2119,
  "tentürler": 2120,
  "zetlerini": 2121,
  "zzetlerini": 2122,
  "lezzetlerini": 2123,
  "osesi": 2124,
  "prosesi": 2125,
  "suslar": 2126,
  "ususlar": 2127,
  "hususlar": 2128,
  "malzemesi": 2129,
  "tipleri": 2130,
  "trası": 2131,
  "estrası": 2132,
  "kestrası": 2133,
  "rkestrası": 2134,
  "Orkestrası": 2135,
  "acılar": 2136,
  "ıkacılar": 2137,
  "ızıkacılar": 2138,
  "Mızıkacılar": 2139,
  "videolar": 2140,
  "imkanlar": 2141,
  "onelikleri": 2142,
  "bonelikleri": 2143,
  "abonelikleri": 2144,
  "Bunlar": 2145,
  "sular": 2146,
  "ulmanlar": 2147,
  "rulmanlar": 2148,
  "alkalar": 2149,
  "halkalar": 2150,
  "dırıcılar": 2151,
  "landırıcılar": 2152,
  "atlandırıcılar": 2153,
  "Tatlandırıcılar": 2154,
  "ümlerini": 2155,
  "ükümlerini": 2156,
  "hükümlerini": 2157,
  "arabilirler": 2158,
  "çıkarabilirler": 2159,
  "zerler": 2160,
  "enzerler": 2161,
  "benzerler": 2162,
  "şması": 2163,
  "taşması": 2164,
  "şetleri": 2165,
  "oşetleri": 2166,
  "poşetleri": 2167,
  "şetler": 2168,
  "oşetler": 2169,
  "poşetler": 2170,
  "betler": 2171,
  "öbetler": 2172,
  "nöbetler": 2173,
  "etesi": 2174,
  "çetesi": 2175,
  "reçetesi": 2176,
  "ftler": 2177,
  "iftler": 2178,
  "çiftler": 2179,
  "düzeyler": 2180,
  "Çözümleri": 2181,
  "aliyetler": 2182,
  "aaliyetler": 2183,
  "faaliyetler": 2184,
  "ilebilmesi": 2185,
  "tirilebilmesi": 2186,
  "leştirilebilmesi": 2187,
  "ekleştirilebilmesi": 2188,
  "çekleştirilebilmesi": 2189,
  "gerçekleştirilebilmesi": 2190,
  "ulasyonları": 2191,
  "gulasyonları": 2192,
  "regulasyonları": 2193,
  "ençleri": 2194,
  "irençleri": 2195,
  "Dirençleri": 2196,
  "hipleri": 2197,
  "sahipleri": 2198,
  "mlaları": 2199,
  "damlaları": 2200,
  "ilmesini": 2201,
  "edilmesini": 2202,
  "lenmesini": 2203,
  "önlenmesini": 2204,
  "sağlarlar": 2205,
  "Tedarikçileri": 2206,
  "ırlıklar": 2207,
  "azırlıklar": 2208,
  "hazırlıklar": 2209,
  "kapları": 2210,
  "deciler": 2211,
  "endeciler": 2212,
  "akendeciler": 2213,
  "erakendeciler": 2214,
  "perakendeciler": 2215,
  "enliğini": 2216,
  "venliğini": 2217,
  "güvenliğini": 2218,
  "airesi": 2219,
  "Dairesi": 2220,
  "şişeleri": 2221,
  "yetkisini": 2222,
  "lacakları": 2223,
  "ılacakları": 2224,
  "kullanılacakları": 2225,
  "turlar": 2226,
  "ceresi": 2227,
  "enceresi": 2228,
  "penceresi": 2229,
  "uklukları": 2230,
  "ozuklukları": 2231,
  "bozuklukları": 2232,
  "yecekler": 2233,
  "leyecekler": 2234,
  "izleyecekler": 2235,
  "ukatları": 2236,
  "vukatları": 2237,
  "avukatları": 2238,
  "killer": 2239,
  "ekkiller": 2240,
  "vekkiller": 2241,
  "üvekkiller": 2242,
  "müvekkiller": 2243,
  "dişleri": 2244,
  "jelleri": 2245,
  "atleri": 2246,
  "saatleri": 2247,
  "eyfini": 2248,
  "keyfini": 2249,
  "menüler": 2250,
  "uini": 2251,
  "Luini": 2252,
  "annesi": 2253,
  "yararı": 2254,
  "flikler": 2255,
  "fiflikler": 2256,
  "hafiflikler": 2257,
  "ekilleri": 2258,
  "şekilleri": 2259,
  "ıtlar": 2260,
  "şıtlar": 2261,
  "taşıtlar": 2262,
  "ılanlar": 2263,
  "kullanılanlar": 2264,
  "Kamerası": 2265,
  "Duvarı": 2266,
  "azılımlar": 2267,
  "Yazılımlar": 2268,
  "onektörler": 2269,
  "Konektörler": 2270,
  "Uyarı": 2271,
  "Sistemleri": 2272,
  "tıcılar": 2273,
  "sıtıcılar": 2274,
  "Isıtıcılar": 2275,
  "steller": 2276,
  "osteller": 2277,
  "Hosteller": 2278,
  "azaları": 2279,
  "ğazaları": 2280,
  "mağazaları": 2281,
  "andaşları": 2282,
  "atandaşları": 2283,
  "vatandaşları": 2284,
  "amaçları": 2285,
  "Vizesi": 2286,
  "eVizesi": 2287,
  "olanması": 2288,
  "polanması": 2289,
  "depolanması": 2290,
  "liyesi": 2291,
  "akliyesi": 2292,
  "nakliyesi": 2293,
  "birliğini": 2294,
  "işbirliğini": 2295,
  "aydalar": 2296,
  "faydalar": 2297,
  "işletilmesi": 2298,
  "genişletilmesi": 2299,
  "elmesi": 2300,
  "önelmesi": 2301,
  "yönelmesi": 2302,
  "Kanallar": 2303,
  "aketler": 2304,
  "paketler": 2305,
  "gramları": 2306,
  "ogramları": 2307,
  "programları": 2308,
  "ümesi": 2309,
  "cümesi": 2310,
  "tercümesi": 2311,
  "planları": 2312,
  "dirilmesi": 2313,
  "bildirilmesi": 2314,
  "otikler": 2315,
  "iyotikler": 2316,
  "biyotikler": 2317,
  "tibiyotikler": 2318,
  "Antibiyotikler": 2319,
  "izAntibiyotikler": 2320,
  "enizAntibiyotikler": 2321,
  "senizAntibiyotikler": 2322,
  "irsenizAntibiyotikler": 2323,
  "tirirsenizAntibiyotikler": 2324,
  "leştirirsenizAntibiyotikler": 2325,
  "birleştirirsenizAntibiyotikler": 2326,
  "endiler": 2327,
  "Kendiler": 2328,
  "ekeri": 2329,
  "şekeri": 2330,
  "bakası": 2331,
  "tabakası": 2332,
  "dersler": 2333,
  "inliğini": 2334,
  "kinliğini": 2335,
  "etkinliğini": 2336,
  "lmalar": 2337,
  "Elmalar": 2338,
  "Odaları": 2339,
  "rmeniler": 2340,
  "Ermeniler": 2341,
  "ermeniler": 2342,
  "sterileri": 2343,
  "österileri": 2344,
  "gösterileri": 2345,
  "kları": 2346,
  "tankları": 2347,
  "çişleri": 2348,
  "geçişleri": 2349,
  "antası": 2350,
  "Çantası": 2351,
  "esiller": 2352,
  "nesiller": 2353,
  "aatler": 2354,
  "Saatler": 2355,
  "artılması": 2356,
  "ızartılması": 2357,
  "kızartılması": 2358,
  "vatörler": 2359,
  "tivatörler": 2360,
  "ktivatörler": 2361,
  "Aktivatörler": 2362,
  "imerler": 2363,
  "rimerler": 2364,
  "Primerler": 2365,
  "ilatlar": 2366,
  "rilatlar": 2367,
  "akrilatlar": 2368,
  "oakrilatlar": 2369,
  "anoakrilatlar": 2370,
  "iyanoakrilatlar": 2371,
  "siyanoakrilatlar": 2372,
  "jelerini": 2373,
  "ojelerini": 2374,
  "projelerini": 2375,
  "grafları": 2376,
  "aragrafları": 2377,
  "paragrafları": 2378,
  "Dokuları": 2379,
  "rtüleri": 2380,
  "Örtüleri": 2381,
  "isleri": 2382,
  "tesisleri": 2383,
  "gnesi": 2384,
  "Agnesi": 2385,
  "tılar": 2386,
  "ıntılar": 2387,
  "rıntılar": 2388,
  "ayrıntılar": 2389,
  "akılar": 2390,
  "Takılar": 2391,
  "kullanımlar": 2392,
  "imesi": 2393,
  "kimesi": 2394,
  "eskimesi": 2395,
  "takıları": 2396,
  "vhası": 2397,
  "evhası": 2398,
  "Levhası": 2399,
  "zavantajları": 2400,
  "dezavantajları": 2401,
  "teler": 2402,
  "enteler": 2403,
  "centeler": 2404,
  "acenteler": 2405,
  "unabilirler": 2406,
  "okunabilirler": 2407,
  "dokunabilirler": 2408,
  "inaları": 2409,
  "akinaları": 2410,
  "Makinaları": 2411,
  "Kesi": 2412,
  "Kesiciler": 2413,
  "Adresi": 2414,
  "saniyeler": 2415,
  "hesini": 2416,
  "phesini": 2417,
  "cephesini": 2418,
  "seklikler": 2419,
  "yükseklikler": 2420,
  "fesini": 2421,
  "afesini": 2422,
  "esafesini": 2423,
  "mesafesini": 2424,
  "kokuları": 2425,
  "kleri": 2426,
  "iskleri": 2427,
  "riskleri": 2428,
  "zümleri": 2429,
  "Üzümleri": 2430,
  "ekanizmalar": 2431,
  "Mekanizmalar": 2432,
  "nikler": 2433,
  "teknikler": 2434,
  "inasyonları": 2435,
  "binasyonları": 2436,
  "ombinasyonları": 2437,
  "kombinasyonları": 2438,
  "oller": 2439,
  "okoller": 2440,
  "otokoller": 2441,
  "protokoller": 2442,
  "tandartlar": 2443,
  "Standartlar": 2444,
  "Yetişkinler": 2445,
  "ireleri": 2446,
  "daireleri": 2447,
  "onuçları": 2448,
  "Sonuçları": 2449,
  "azarları": 2450,
  "pazarları": 2451,
  "arikalar": 2452,
  "harikalar": 2453,
  "arketler": 2454,
  "marketler": 2455,
  "retleri": 2456,
  "cretleri": 2457,
  "ücretleri": 2458,
  "emsiyesi": 2459,
  "şemsiyesi": 2460,
  "dalyeler": 2461,
  "sandalyeler": 2462,
  "glar": 2463,
  "onglar": 2464,
  "longlar": 2465,
  "ezlonglar": 2466,
  "şezlonglar": 2467,
  "şesi": 2468,
  "öşesi": 2469,
  "köşesi": 2470,
  "irmemesi": 2471,
  "girmemesi": 2472,
  "zimlerini": 2473,
  "enzimlerini": 2474,
  "haler": 2475,
  "inhaler": 2476,
  "renler": 2477,
  "Frenler": 2478,
  "obini": 2479,
  "Bobini": 2480,
  "xlar": 2481,
  "oxlar": 2482,
  "Boxlar": 2483,
  "klentiler": 2484,
  "Eklentiler": 2485,
  "upası": 2486,
  "Kupası": 2487,
  "ilikleri": 2488,
  "lilikleri": 2489,
  "eklilikleri": 2490,
  "ereklilikleri": 2491,
  "Gereklilikleri": 2492,
  "olanakları": 2493,
  "aberler": 2494,
  "Haberler": 2495,
  "tkinlikler": 2496,
  "Etkinlikler": 2497,
  "Stresi": 2498,
  "Benzeri": 2499,
  "ışlar": 2500,
  "ranışlar": 2501,
  "vranışlar": 2502,
  "avranışlar": 2503,
  "Davranışlar": 2504,
  "tkiler": 2505,
  "Etkiler": 2506,
  "aslanması": 2507,
  "yaslanması": 2508,
  "ıyaslanması": 2509,
  "Kıyaslanması": 2510,
  "dirmesi": 2511,
  "lendirmesi": 2512,
  "ğerlendirmesi": 2513,
  "eğerlendirmesi": 2514,
  "Değerlendirmesi": 2515,
  "dımlar": 2516,
  "adımlar": 2517,
  "ilkeler": 2518,
  "ğerlendirmeler": 2519,
  "değerlendirmeler": 2520,
  "Hakları": 2521,
  "onular": 2522,
  "Konular": 2523,
  "alaması": 2524,
  "ıralaması": 2525,
  "Sıralaması": 2526,
  "dermesini": 2527,
  "öndermesini": 2528,
  "göndermesini": 2529,
  "yeleri": 2530,
  "üyeleri": 2531,
  "pliğini": 2532,
  "hipliğini": 2533,
  "sahipliğini": 2534,
  "emezler": 2535,
  "iştiremezler": 2536,
  "ğiştiremezler": 2537,
  "değiştiremezler": 2538,
  "şıklar": 2539,
  "Işıklar": 2540,
  "dılar": 2541,
  "adılar": 2542,
  "Cadılar": 2543,
  "cresi": 2544,
  "ücresi": 2545,
  "Hücresi": 2546,
  "bilyaları": 2547,
  "obilyaları": 2548,
  "Mobilyaları": 2549,
  "ültesi": 2550,
  "akültesi": 2551,
  "Fakültesi": 2552,
  "varlar": 2553,
  "uvarlar": 2554,
  "atuvarlar": 2555,
  "aratuvarlar": 2556,
  "baratuvarlar": 2557,
  "labaratuvarlar": 2558,
  "imlendirmeler": 2559,
  "isimlendirmeler": 2560,
  "acaklar": 2561,
  "alacaklar": 2562,
  "tumlar": 2563,
  "ortumlar": 2564,
  "hortumlar": 2565,
  "estanesi": 2566,
  "kestanesi": 2567,
  "işmesini": 2568,
  "şişmesini": 2569,
  "marlar": 2570,
  "damarlar": 2571,
  "vliler": 2572,
  "evliler": 2573,
  "görevliler": 2574,
  "diriler": 2575,
  "ildiriler": 2576,
  "Bildiriler": 2577,
  "görevleri": 2578,
  "ertesi": 2579,
  "levhalar": 2580,
  "seviyesi": 2581,
  "ırgası": 2582,
  "asırgası": 2583,
  "Kasırgası": 2584,
  "erimler": 2585,
  "Terimler": 2586,
  "arifler": 2587,
  "Tarifler": 2588,
  "tidler": 2589,
  "ptidler": 2590,
  "eptidler": 2591,
  "peptidler": 2592,
  "titler": 2593,
  "ptitler": 2594,
  "eptitler": 2595,
  "peptitler": 2596,
  "omları": 2597,
  "tomları": 2598,
  "ptomları": 2599,
  "emptomları": 2600,
  "semptomları": 2601,
  "aktörleri": 2602,
  "faktörleri": 2603,
  "utikler": 2604,
  "butikler": 2605,
  "caddesi": 2606,
  "omutlar": 2607,
  "komutlar": 2608,
  "dlar": 2609,
  "odlar": 2610,
  "oodlar": 2611,
  "loodlar": 2612,
  "floodlar": 2613,
  "inmalar": 2614,
  "alinmalar": 2615,
  "calinmalar": 2616,
  "ilar": 2617,
  "azilar": 2618,
  "bazilar": 2619,
  "Botlar": 2620,
  "cimleri": 2621,
  "bicimleri": 2622,
  "oplar": 2623,
  "droplar": 2624,
  "gdroplar": 2625,
  "ggdroplar": 2626,
  "eggdroplar": 2627,
  "iterler": 2628,
  "riterler": 2629,
  "kriterler": 2630,
  "şunları": 2631,
  "lalar": 2632,
  "illalar": 2633,
  "Villalar": 2634,
  "Hatalar": 2635,
  "Numarası": 2636,
  "umalar": 2637,
  "okumalar": 2638,
  "ıpları": 2639,
  "kayıpları": 2640,
  "ilesi": 2641,
  "Ailesi": 2642,
  "ıtası": 2643,
  "bıtası": 2644,
  "abıtası": 2645,
  "zabıtası": 2646,
  "şlıkları": 2647,
  "lışlıkları": 2648,
  "yanlışlıkları": 2649,
  "Dosyalar": 2650,
  "kurulması": 2651,
  "ıklamaları": 2652,
  "tıklamaları": 2653,
  "stergeleri": 2654,
  "östergeleri": 2655,
  "göstergeleri": 2656,
  "vcılar": 2657,
  "avcılar": 2658,
  "orlukları": 2659,
  "zorlukları": 2660,
  "yabilmesi": 2661,
  "layabilmesi": 2662,
  "ılayabilmesi": 2663,
  "şılayabilmesi": 2664,
  "karşılayabilmesi": 2665,
  "gerektiğini": 2666,
  "ğmeleri": 2667,
  "üğmeleri": 2668,
  "düğmeleri": 2669,
  "fikası": 2670,
  "tifikası": 2671,
  "ertifikası": 2672,
  "Sertifikası": 2673,
  "pini": 2674,
  "tipini": 2675,
  "Nesneler": 2676,
  "nesneler": 2677,
  "Bitkileri": 2678,
  "aziler": 2679,
  "araziler": 2680,
  "makineler": 2681,
  "tüler": 2682,
  "üntüler": 2683,
  "görüntüler": 2684,
  "vasyonları": 2685,
  "ervasyonları": 2686,
  "zervasyonları": 2687,
  "rezervasyonları": 2688,
  "Hastalıkları": 2689,
  "illar": 2690,
  "pillar": 2691,
  "erpillar": 2692,
  "aterpillar": 2693,
  "Caterpillar": 2694,
  "pompası": 2695,
  "luları": 2696,
  "vluları": 2697,
  "havluları": 2698,
  "gözleri": 2699,
  "alakası": 2700,
  "vizesi": 2701,
  "blemler": 2702,
  "oblemler": 2703,
  "problemler": 2704,
  "otalar": 2705,
  "rotalar": 2706,
  "pmalar": 2707,
  "sapmalar": 2708,
  "sorular": 2709,
  "diskini": 2710,
  "ulamaları": 2711,
  "gulamaları": 2712,
  "ygulamaları": 2713,
  "Uygulamaları": 2714,
  "dişeler": 2715,
  "ndişeler": 2716,
  "Endişeler": 2717,
  "kekler": 2718,
  "rkekler": 2719,
  "Erkekler": 2720,
  "çular": 2721,
  "okçular": 2722,
  "şçılar": 2723,
  "vaşçılar": 2724,
  "savaşçılar": 2725,
  "kerler": 2726,
  "skerler": 2727,
  "Askerler": 2728,
  "Askerlerini": 2729,
  "edileceğini": 2730,
  "ireler": 2731,
  "aireler": 2732,
  "Daireler": 2733,
  "Galler": 2734,
  "Dini": 2735,
  "Mumlar": 2736,
  "aravanlar": 2737,
  "Karavanlar": 2738,
  "örtüleri": 2739,
  "işmeler": 2740,
  "gelişmeler": 2741,
  "etimler": 2742,
  "denetimler": 2743,
  "iyasalar": 2744,
  "piyasalar": 2745,
  "arımları": 2746,
  "asarımları": 2747,
  "tasarımları": 2748,
  "denler": 2749,
  "madenler": 2750,
  "süreçleri": 2751,
  "önetilmesi": 2752,
  "yönetilmesi": 2753,
  "ümlenmesi": 2754,
  "çümlenmesi": 2755,
  "lçümlenmesi": 2756,
  "ölçümlenmesi": 2757,
  "alizler": 2758,
  "analizler": 2759,
  "Şartlar": 2760,
  "ükümleri": 2761,
  "hükümleri": 2762,
  "gereçleri": 2763,
  "diller": 2764,
  "adiller": 2765,
  "uadiller": 2766,
  "muadiller": 2767,
  "niversiteler": 2768,
  "Üniversiteler": 2769,
  "canlar": 2770,
  "uzcanlar": 2771,
  "ğuzcanlar": 2772,
  "Oğuzcanlar": 2773,
  "dengesini": 2774,
  "Listesi": 2775,
  "devleri": 2776,
  "üşmeler": 2777,
  "görüşmeler": 2778,
  "eklerini": 2779,
  "astikleri": 2780,
  "lastikleri": 2781,
  "uşumlar": 2782,
  "oluşumlar": 2783,
  "ositler": 2784,
  "kositler": 2785,
  "ökositler": 2786,
  "lökositler": 2787,
  "azesi": 2788,
  "pazesi": 2789,
  "elpazesi": 2790,
  "yelpazesi": 2791,
  "ğmesi": 2792,
  "üğmesi": 2793,
  "düğmesi": 2794,
  "adresi": 2795,
  "abilmesi": 2796,
  "çalışabilmesi": 2797,
  "şimleri": 2798,
  "ileşimleri": 2799,
  "kileşimleri": 2800,
  "etkileşimleri": 2801,
  "lakası": 2802,
  "plakası": 2803,
  "eferleri": 2804,
  "Seferleri": 2805,
  "notlar": 2806,
  "müller": 2807,
  "ormüller": 2808,
  "formüller": 2809,
  "Öğeleri": 2810,
  "haritası": 2811,
  "birler": 2812,
  "birbirler": 2813,
  "alevleri": 2814,
  "orlar": 2815,
  "yorlar": 2816,
  "lüyorlar": 2817,
  "ylüyorlar": 2818,
  "öylüyorlar": 2819,
  "söylüyorlar": 2820,
  "üzesi": 2821,
  "Müzesi": 2822,
  "sonları": 2823,
  "emikler": 2824,
  "kemikler": 2825,
  "cukları": 2826,
  "ocukları": 2827,
  "çocukları": 2828,
  "celeri": 2829,
  "geceleri": 2830,
  "önlemler": 2831,
  "emlerini": 2832,
  "temlerini": 2833,
  "öntemlerini": 2834,
  "yöntemlerini": 2835,
  "Seri": 2836,
  "serileri": 2837,
  "kemesi": 2838,
  "hkemesi": 2839,
  "mahkemesi": 2840,
  "işletmesi": 2841,
  "dolar": 2842,
  "orbaları": 2843,
  "Torbaları": 2844,
  "antaları": 2845,
  "Çantaları": 2846,
  "Fotoğraflar": 2847,
  "aretlerini": 2848,
  "işaretlerini": 2849,
  "utulması": 2850,
  "tutulması": 2851,
  "alıdırlar": 2852,
  "malıdırlar": 2853,
  "pmalıdırlar": 2854,
  "yapmalıdırlar": 2855,
  "akınlar": 2856,
  "yakınlar": 2857,
  "hürleri": 2858,
  "ahürleri": 2859,
  "zahürleri": 2860,
  "tezahürleri": 2861,
  "guları": 2862,
  "bulguları": 2863,
  "anyalar": 2864,
  "panyalar": 2865,
  "ampanyalar": 2866,
  "Kampanyalar": 2867,
  "inini": 2868,
  "pinini": 2869,
  "Spinini": 2870,
  "utuları": 2871,
  "Kutuları": 2872,
  "soneller": 2873,
  "ersoneller": 2874,
  "personeller": 2875,
  "lyeler": 2876,
  "ölyeler": 2877,
  "atölyeler": 2878,
  "polar": 2879,
  "depolar": 2880,
  "inçleri": 2881,
  "vinçleri": 2882,
  "fası": 2883,
  "kafası": 2884,
  "Dilleri": 2885,
  "alatası": 2886,
  "Salatası": 2887,
  "ulaması": 2888,
  "gulaması": 2889,
  "uygulaması": 2890,
  "ebileceğini": 2891,
  "verebileceğini": 2892,
  "öller": 2893,
  "göller": 2894,
  "dağlar": 2895,
  "karlar": 2896,
  "ınırlar": 2897,
  "sınırlar": 2898,
  "einler": 2899,
  "oteinler": 2900,
  "roteinler": 2901,
  "Proteinler": 2902,
  "alleşmesi": 2903,
  "istalleşmesi": 2904,
  "ristalleşmesi": 2905,
  "kristalleşmesi": 2906,
  "eini": 2907,
  "oteini": 2908,
  "proteini": 2909,
  "ulları": 2910,
  "şulları": 2911,
  "oşulları": 2912,
  "koşulları": 2913,
  "tülmesi": 2914,
  "ütülmesi": 2915,
  "yütülmesi": 2916,
  "üyütülmesi": 2917,
  "büyütülmesi": 2918,
  "mları": 2919,
  "damları": 2920,
  "adamları": 2921,
  "deneyler": 2922,
  "kurarlar": 2923,
  "mlası": 2924,
  "damlası": 2925,
  "arayanlar": 2926,
  "tarifleri": 2927,
  "karoları": 2928,
  "şapkası": 2929,
  "amcası": 2930,
  "bilyalar": 2931,
  "obilyalar": 2932,
  "mobilyalar": 2933,
  "epler": 2934,
  "alepler": 2935,
  "talepler": 2936,
  "caları": 2937,
  "ancaları": 2938,
  "bancaları": 2939,
  "tabancaları": 2940,
  "tuşlar": 2941,
  "kartuşlar": 2942,
  "akaları": 2943,
  "lakaları": 2944,
  "plakaları": 2945,
  "iyelerini": 2946,
  "viyelerini": 2947,
  "seviyelerini": 2948,
  "üzenler": 2949,
  "düzenler": 2950,
  "Torbalar": 2951,
  "uluşlar": 2952,
  "kuruluşlar": 2953,
  "Eller": 2954,
  "ırçası": 2955,
  "Fırçası": 2956,
  "kızlar": 2957,
  "otları": 2958,
  "Botları": 2959,
  "billeri": 2960,
  "obilleri": 2961,
  "omobilleri": 2962,
  "tomobilleri": 2963,
  "Otomobilleri": 2964,
  "akteri": 2965,
  "karakteri": 2966,
  "parçası": 2967,
  "otorları": 2968,
  "motorları": 2969,
  "özyaşları": 2970,
  "gözyaşları": 2971,
  "kalbini": 2972,
  "upları": 2973,
  "tupları": 2974,
  "mektupları": 2975,
  "ayaller": 2976,
  "hayaller": 2977,
  "ırdaşları": 2978,
  "sırdaşları": 2979,
  "atıralar": 2980,
  "hatıralar": 2981,
  "şyalar": 2982,
  "Eşyalar": 2983,
  "Rimini": 2984,
  "aretini": 2985,
  "işaretini": 2986,
  "isesi": 2987,
  "ilisesi": 2988,
  "Kilisesi": 2989,
  "irleri": 2990,
  "firleri": 2991,
  "afirleri": 2992,
  "isafirleri": 2993,
  "misafirleri": 2994,
  "laşabilirler": 2995,
  "ulaşabilirler": 2996,
  "şletmesi": 2997,
  "İşletmesi": 2998,
  "borular": 2999,
  "ağları": 3000,
  "lamlar": 3001,
  "eklamlar": 3002,
  "reklamlar": 3003,
  "lifini": 3004,
  "teklifini": 3005,
  "Markası": 3006,
  "oriler": 3007,
  "otoriler": 3008,
  "lılıklar": 3009,
  "klılıklar": 3010,
  "arklılıklar": 3011,
  "farklılıklar": 3012,
  "Tlar": 3013,
  "OTlar": 3014,
  "DOTlar": 3015,
  "edekler": 3016,
  "yedekler": 3017,
  "edekleri": 3018,
  "yedekleri": 3019,
  "yonlar": 3020,
  "isyonlar": 3021,
  "ozisyonlar": 3022,
  "Pozisyonlar": 3023,
  "olunması": 3024,
  "solunması": 3025,
  "rini": 3026,
  "Trini": 3027,
  "retlerini": 3028,
  "cretlerini": 3029,
  "ücretlerini": 3030,
  "seleri": 3031,
  "isseleri": 3032,
  "hisseleri": 3033,
  "sırlar": 3034,
  "esleri": 3035,
  "dresleri": 3036,
  "adresleri": 3037,
  "ünvanlar": 3038,
  "Koşullar": 3039,
  "urlar": 3040,
  "surlar": 3041,
  "unsurlar": 3042,
  "düzeyini": 3043,
  "dresini": 3044,
  "adresini": 3045,
  "lişkiler": 3046,
  "İlişkiler": 3047,
  "Çerezleri": 3048,
  "çerezleri": 3049,
  "rişimini": 3050,
  "Erişimini": 3051,
  "ebeveynler": 3052,
  "üzleri": 3053,
  "düzleri": 3054,
  "gündüzleri": 3055,
  "vlerini": 3056,
  "devlerini": 3057,
  "ödevlerini": 3058,
  "pmaları": 3059,
  "yapmaları": 3060,
  "işlerini": 3061,
  "mlamaları": 3062,
  "mamlamaları": 3063,
  "tamamlamaları": 3064,
  "Ebeveynler": 3065,
  "zler": 3066,
  "mezler": 3067,
  "edemezler": 3068,
  "nleri": 3069,
  "ynleri": 3070,
  "veynleri": 3071,
  "eveynleri": 3072,
  "beveynleri": 3073,
  "ebeveynleri": 3074,
  "kalırlar": 3075,
  "gellenmesi": 3076,
  "engellenmesi": 3077,
  "imciler": 3078,
  "bilimciler": 3079,
  "ararı": 3080,
  "zararı": 3081,
  "mitleri": 3082,
  "lişeleri": 3083,
  "klişeleri": 3084,
  "açılar": 3085,
  "vramları": 3086,
  "kavramları": 3087,
  "hürler": 3088,
  "ahürler": 3089,
  "zahürler": 3090,
  "tezahürler": 3091,
  "dukları": 3092,
  "oldukları": 3093,
  "janlar": 3094,
  "ajanlar": 3095,
  "irtiler": 3096,
  "elirtiler": 3097,
  "belirtiler": 3098,
  "matörler": 3099,
  "ormatörler": 3100,
  "formatörler": 3101,
  "sformatörler": 3102,
  "ansformatörler": 3103,
  "transformatörler": 3104,
  "üktörler": 3105,
  "düktörler": 3106,
  "indüktörler": 3107,
  "dayatırımcılar": 3108,
  "kararlar": 3109,
  "nikleri": 3110,
  "teknikleri": 3111,
  "esenleri": 3112,
  "desenleri": 3113,
  "Şapkası": 3114,
  "Masası": 3115,
  "noktaları": 3116,
  "etkinlikler": 3117,
  "planlar": 3118,
  "esenler": 3119,
  "desenler": 3120,
  "ılayıcılar": 3121,
  "gılayıcılar": 3122,
  "algılayıcılar": 3123,
  "enkler": 3124,
  "Renkler": 3125,
  "gini": 3126,
  "rengini": 3127,
  "etenekler": 3128,
  "yetenekler": 3129,
  "dikleri": 3130,
  "ildikleri": 3131,
  "tirildikleri": 3132,
  "leştirildikleri": 3133,
  "yerleştirildikleri": 3134,
  "temini": 3135,
  "öntemini": 3136,
  "yöntemini": 3137,
  "dırması": 3138,
  "landırması": 3139,
  "tlandırması": 3140,
  "yatlandırması": 3141,
  "fiyatlandırması": 3142,
  "uyması": 3143,
  "tlandırılması": 3144,
  "yatlandırılması": 3145,
  "fiyatlandırılması": 3146,
  "kaplar": 3147,
  "nerler": 3148,
  "eynerler": 3149,
  "teynerler": 3150,
  "onteynerler": 3151,
  "Konteynerler": 3152,
  "etreler": 3153,
  "ametreler": 3154,
  "parametreler": 3155,
  "fçılar": 3156,
  "rafçılar": 3157,
  "oğrafçılar": 3158,
  "otoğrafçılar": 3159,
  "fotoğrafçılar": 3160,
  "andası": 3161,
  "gandası": 3162,
  "agandası": 3163,
  "pagandası": 3164,
  "opagandası": 3165,
  "propagandası": 3166,
  "izlerler": 3167,
  "alırlar": 3168,
  "dairesi": 3169,
  "lümler": 3170,
  "ölümler": 3171,
  "bölümler": 3172,
  "ipleri": 3173,
  "akipleri": 3174,
  "rakipleri": 3175,
  "ıçları": 3176,
  "gıçları": 3177,
  "yargıçları": 3178,
  "kayıklar": 3179,
  "keller": 3180,
  "eykeller": 3181,
  "heykeller": 3182,
  "olabileceğini": 3183,
  "aresini": 3184,
  "emaresini": 3185,
  "oklar": 3186,
  "stoklar": 3187,
  "Seküler": 3188,
  "lkeler": 3189,
  "Ülkeler": 3190,
  "angileri": 3191,
  "Hangileri": 3192,
  "aleler": 3193,
  "makaleler": 3194,
  "siller": 3195,
  "essiller": 3196,
  "ümessiller": 3197,
  "mümessiller": 3198,
  "virler": 3199,
  "avirler": 3200,
  "üşavirler": 3201,
  "müşavirler": 3202,
  "ıslar": 3203,
  "hıslar": 3204,
  "ahıslar": 3205,
  "şahıslar": 3206,
  "dakiler": 3207,
  "ğıdakiler": 3208,
  "ağıdakiler": 3209,
  "aşağıdakiler": 3210,
  "ekleşmesi": 3211,
  "çekleşmesi": 3212,
  "gerçekleşmesi": 3213,
  "artları": 3214,
  "şartları": 3215,
  "leşmeleri": 3216,
  "özleşmeleri": 3217,
  "sözleşmeleri": 3218,
  "taklıkları": 3219,
  "ortaklıkları": 3220,
  "terileri": 3221,
  "üşterileri": 3222,
  "müşterileri": 3223,
  "diğerler": 3224,
  "makamlar": 3225,
  "cular": 3226,
  "uncular": 3227,
  "yuncular": 3228,
  "Oyuncular": 3229,
  "ırası": 3230,
  "sırası": 3231,
  "diskler": 3232,
  "gelmesini": 3233,
  "işimleri": 3234,
  "irişimleri": 3235,
  "Girişimleri": 3236,
  "ibarı": 3237,
  "itibarı": 3238,
  "asitesini": 3239,
  "pasitesini": 3240,
  "kapasitesini": 3241,
  "Çiçekler": 3242,
  "lemeleri": 3243,
  "enlemeleri": 3244,
  "üzenlemeleri": 3245,
  "düzenlemeleri": 3246,
  "petleri": 3247,
  "sepetleri": 3248,
  "tesisler": 3249,
  "şası": 3250,
  "inşası": 3251,
  "ocakları": 3252,
  "reseler": 3253,
  "edreseler": 3254,
  "medreseler": 3255,
  "kesimler": 3256,
  "ililer": 3257,
  "kililer": 3258,
  "etkililer": 3259,
  "yetkililer": 3260,
  "ayini": 3261,
  "gular": 3262,
  "uygular": 3263,
  "duygular": 3264,
  "paraları": 3265,
  "gaları": 3266,
  "urgaları": 3267,
  "burgaları": 3268,
  "kaburgaları": 3269,
  "paketleri": 3270,
  "lgeleri": 3271,
  "ölgeleri": 3272,
  "Bölgeleri": 3273,
  "lesi": 3274,
  "ezlesi": 3275,
  "nezlesi": 3276,
  "ilgileri": 3277,
  "Bilgileri": 3278,
  "sleri": 3279,
  "üsleri": 3280,
  "süsleri": 3281,
  "nsanlar": 3282,
  "İnsanlar": 3283,
  "trasyonları": 3284,
  "santrasyonları": 3285,
  "konsantrasyonları": 3286,
  "görülmesi": 3287,
  "öngörülmesi": 3288,
  "aylanması": 3289,
  "onaylanması": 3290,
  "dırıları": 3291,
  "aldırıları": 3292,
  "saldırıları": 3293,
  "lanetikler": 3294,
  "kallanetikler": 3295,
  "arabası": 3296,
  "bahları": 3297,
  "sabahları": 3298,
  "şamları": 3299,
  "akşamları": 3300,
  "ersizler": 3301,
  "zersizler": 3302,
  "gzersizler": 3303,
  "egzersizler": 3304,
  "özümler": 3305,
  "çözümler": 3306,
  "vergileri": 3307,
  "maliyetleri": 3308,
  "üşüler": 3309,
  "düşüler": 3310,
  "Odası": 3311,
  "olapları": 3312,
  "Dolapları": 3313,
  "zıkları": 3314,
  "kazıkları": 3315,
  "ıllar": 3316,
  "Yıllar": 3317,
  "temler": 3318,
  "öntemler": 3319,
  "yöntemler": 3320,
  "malzemeleri": 3321,
  "ekipmanları": 3322,
  "azıcılar": 3323,
  "Yazıcılar": 3324,
  "Kasası": 3325,
  "rünleri": 3326,
  "Ürünleri": 3327,
  "pesi": 3328,
  "epesi": 3329,
  "Tepesi": 3330,
  "gatörler": 3331,
  "ülgatörler": 3332,
  "mülgatörler": 3333,
  "Emülgatörler": 3334,
  "görmesini": 3335,
  "filleri": 3336,
  "ofilleri": 3337,
  "profilleri": 3338,
  "anseri": 3339,
  "kanseri": 3340,
  "iyetini": 3341,
  "uniyetini": 3342,
  "nuniyetini": 3343,
  "emnuniyetini": 3344,
  "memnuniyetini": 3345,
  "beklentilerini": 3346,
  "lenmeleri": 3347,
  "irlenmeleri": 3348,
  "hirlenmeleri": 3349,
  "ehirlenmeleri": 3350,
  "zehirlenmeleri": 3351,
  "deri": 3352,
  "ayakkabılar": 3353,
  "ustalar": 3354,
  "düller": 3355,
  "Ödüller": 3356,
  "fikalar": 3357,
  "tifikalar": 3358,
  "ertifikalar": 3359,
  "Sertifikalar": 3360,
  "emanlar": 3361,
  "elemanlar": 3362,
  "yatörler": 3363,
  "dyatörler": 3364,
  "adyatörler": 3365,
  "Radyatörler": 3366,
  "ürlerini": 3367,
  "türlerini": 3368,
  "işletmeler": 3369,
  "urumları": 3370,
  "oturumları": 3371,
  "ökler": 3372,
  "kökler": 3373,
  "çimler": 3374,
  "seçimler": 3375,
  "tarifler": 3376,
  "şular": 3377,
  "turşular": 3378,
  "edleri": 3379,
  "Pedleri": 3380,
  "mentler": 3381,
  "gmentler": 3382,
  "igmentler": 3383,
  "pigmentler": 3384,
  "altılması": 3385,
  "oğaltılması": 3386,
  "çoğaltılması": 3387,
  "etirilmesi": 3388,
  "getirilmesi": 3389,
  "aksiyonları": 3390,
  "reaksiyonları": 3391,
  "ikolar": 3392,
  "rikolar": 3393,
  "krikolar": 3394,
  "leştirilmesi": 3395,
  "ekleştirilmesi": 3396,
  "çekleştirilmesi": 3397,
  "gerçekleştirilmesi": 3398,
  "alandırılması": 3399,
  "uralandırılması": 3400,
  "aturalandırılması": 3401,
  "faturalandırılması": 3402,
  "ıtları": 3403,
  "kayıtları": 3404,
  "onuçlar": 3405,
  "Sonuçlar": 3406,
  "vıları": 3407,
  "sıvıları": 3408,
  "ergesi": 3409,
  "stergesi": 3410,
  "östergesi": 3411,
  "göstergesi": 3412,
  "izörler": 3413,
  "alizörler": 3414,
  "atalizörler": 3415,
  "katalizörler": 3416,
  "oneticileri": 3417,
  "Yoneticileri": 3418,
  "irlenmesi": 3419,
  "elirlenmesi": 3420,
  "belirlenmesi": 3421,
  "ımlanması": 3422,
  "yımlanması": 3423,
  "yayımlanması": 3424,
  "araları": 3425,
  "umaraları": 3426,
  "numaraları": 3427,
  "mekanizmalar": 3428,
  "işçiler": 3429,
  "uvalar": 3430,
  "yuvalar": 3431,
  "biliyetleri": 3432,
  "kabiliyetleri": 3433,
  "Pistler": 3434,
  "önlerini": 3435,
  "yönlerini": 3436,
  "bederler": 3437,
  "kaybederler": 3438,
  "ğmeler": 3439,
  "üğmeler": 3440,
  "düğmeler": 3441,
  "bahisler": 3442,
  "azıları": 3443,
  "bazıları": 3444,
  "ırsatları": 3445,
  "fırsatları": 3446,
  "veller": 3447,
  "eveller": 3448,
  "Leveller": 3449,
  "tolar": 3450,
  "estolar": 3451,
  "otestolar": 3452,
  "protestolar": 3453,
  "Mesi": 3454,
  "laçlar": 3455,
  "İlaçlar": 3456,
  "işliler": 3457,
  "dişliler": 3458,
  "ftlar": 3459,
  "aftlar": 3460,
  "şaftlar": 3461,
  "haklar": 3462,
  "izileri": 3463,
  "Dizileri": 3464,
  "addesi": 3465,
  "Caddesi": 3466,
  "mancılar": 3467,
  "rmancılar": 3468,
  "Ormancılar": 3469,
  "Kütüphanesi": 3470,
  "vlar": 3471,
  "ınavlar": 3472,
  "sınavlar": 3473,
  "üniversiteler": 3474,
  "vası": 3475,
  "havası": 3476,
  "aklanması": 3477,
  "saklanması": 3478,
  "çıkarı": 3479,
  "ildiğini": 3480,
  "etildiğini": 3481,
  "üretildiğini": 3482,
  "macıları": 3483,
  "uşmacıları": 3484,
  "onuşmacıları": 3485,
  "Konuşmacıları": 3486,
  "yesini": 3487,
  "vyesini": 3488,
  "lavyesini": 3489,
  "klavyesini": 3490,
  "azılması": 3491,
  "Yazılması": 3492,
  "fikler": 3493,
  "rafikler": 3494,
  "grafikler": 3495,
  "metinler": 3496,
  "izimler": 3497,
  "çizimler": 3498,
  "yasası": 3499,
  "istesini": 3500,
  "listesini": 3501,
  "nlistesini": 3502,
  "ornlistesini": 3503,
  "Hornlistesini": 3504,
  "esesi": 3505,
  "resesi": 3506,
  "edresesi": 3507,
  "Medresesi": 3508,
  "ipler": 3509,
  "akipler": 3510,
  "rakipler": 3511,
  "luslar": 3512,
  "Uluslar": 3513,
  "Uluslararası": 3514,
  "tırmalar": 3515,
  "ştırmalar": 3516,
  "raştırmalar": 3517,
  "Araştırmalar": 3518,
  "arlılar": 3519,
  "ararlılar": 3520,
  "Zararlılar": 3521,
  "Mini": 3522,
  "ordeleri": 3523,
  "Kordeleri": 3524,
  "eyleri": 3525,
  "şeyleri": 3526,
  "ımlayıcılar": 3527,
  "tanımlayıcılar": 3528,
  "ışıklar": 3529,
  "laşabilecekler": 3530,
  "ulaşabilecekler": 3531,
  "dayları": 3532,
  "adayları": 3533,
  "belerini": 3534,
  "übelerini": 3535,
  "rübelerini": 3536,
  "crübelerini": 3537,
  "tecrübelerini": 3538,
  "itimleri": 3539,
  "ğitimleri": 3540,
  "eğitimleri": 3541,
  "pabilecekler": 3542,
  "yapabilecekler": 3543,
  "taneleri": 3544,
  "indeKası": 3545,
  "erindeKası": 3546,
  "üzerindeKası": 3547,
  "ilini": 3548,
  "zilini": 3549,
  "menzilini": 3550,
  "dağları": 3551,
  "suları": 3552,
  "lajları": 3553,
  "plajları": 3554,
  "peleri": 3555,
  "tepeleri": 3556,
  "aleleri": 3557,
  "elaleleri": 3558,
  "şelaleleri": 3559,
  "riskler": 3560,
  "ızdırlar": 3561,
  "sızdırlar": 3562,
  "arsızdırlar": 3563,
  "kararsızdırlar": 3564,
  "alanmalar": 3565,
  "galanmalar": 3566,
  "algalanmalar": 3567,
  "dalgalanmalar": 3568,
  "pabilirler": 3569,
  "yapabilirler": 3570,
  "edefler": 3571,
  "hedefler": 3572,
  "işimler": 3573,
  "ğişimler": 3574,
  "değişimler": 3575,
  "taklar": 3576,
  "rtaklar": 3577,
  "Ortaklar": 3578,
  "iğini": 3579,
  "niğini": 3580,
  "tekniğini": 3581,
  "işkileri": 3582,
  "ilişkileri": 3583,
  "tırması": 3584,
  "ştırması": 3585,
  "araştırması": 3586,
  "vidası": 3587,
  "ozlar": 3588,
  "nozlar": 3589,
  "ornozlar": 3590,
  "bornozlar": 3591,
  "dirmeleri": 3592,
  "lendirmeleri": 3593,
  "ğerlendirmeleri": 3594,
  "değerlendirmeleri": 3595,
  "satlar": 3596,
  "ırsatlar": 3597,
  "fırsatlar": 3598,
  "uşları": 3599,
  "uruşları": 3600,
  "vuruşları": 3601,
  "ettikleri": 3602,
  "settikleri": 3603,
  "issettikleri": 3604,
  "hissettikleri": 3605,
  "addeler": 3606,
  "Maddeler": 3607,
  "erini": 3608,
  "berini": 3609,
  "hberini": 3610,
  "ehberini": 3611,
  "Rehberini": 3612,
  "ükümler": 3613,
  "hükümler": 3614,
  "cekleri": 3615,
  "ecekleri": 3616,
  "bilecekleri": 3617,
  "abilecekleri": 3618,
  "lanabilecekleri": 3619,
  "aklanabilecekleri": 3620,
  "saklanabilecekleri": 3621,
  "kuralları": 3622,
  "bilmeler": 3623,
  "abilmeler": 3624,
  "alabilmeler": 3625,
  "iyorlar": 3626,
  "ediyorlar": 3627,
  "Bitkiler": 3628,
  "eşitleri": 3629,
  "Çeşitleri": 3630,
  "Mumları": 3631,
  "Malzemeleri": 3632,
  "görebilirler": 3633,
  "ileleri": 3634,
  "hileleri": 3635,
  "Haritası": 3636,
  "anelleri": 3637,
  "Panelleri": 3638,
  "plamaları": 3639,
  "aplamaları": 3640,
  "Kaplamaları": 3641,
  "toranlar": 3642,
  "estoranlar": 3643,
  "Restoranlar": 3644,
  "feler": 3645,
  "kafeler": 3646,
  "ergeler": 3647,
  "önergeler": 3648,
  "yönergeler": 3649,
  "onrası": 3650,
  "Sonrası": 3651,
  "olatörleri": 3652,
  "zolatörleri": 3653,
  "İzolatörleri": 3654,
  "endini": 3655,
  "Kendini": 3656,
  "süratini": 3657,
  "eknesi": 3658,
  "Teknesi": 3659,
  "olları": 3660,
  "yolları": 3661,
  "Ekler": 3662,
  "öğeleri": 3663,
  "askeri": 3664,
  "verilerini": 3665,
  "gılar": 3666,
  "algılar": 3667,
  "saklar": 3668,
  "erdeleri": 3669,
  "perdeleri": 3670,
  "terlikler": 3671,
  "yoları": 3672,
  "anyoları": 3673,
  "banyoları": 3674,
  "kamerası": 3675,
  "cıklar": 3676,
  "arcıklar": 3677,
  "barcıklar": 3678,
  "kabarcıklar": 3679,
  "celer": 3680,
  "ünceler": 3681,
  "üşünceler": 3682,
  "düşünceler": 3683,
  "Noktalar": 3684,
  "alleri": 3685,
  "istalleri": 3686,
  "ristalleri": 3687,
  "kristalleri": 3688,
  "viriler": 3689,
  "eviriler": 3690,
  "Çeviriler": 3691,
  "Bini": 3692,
  "enilikler": 3693,
  "Yenilikler": 3694,
  "haberler": 3695,
  "boyutları": 3696,
  "venleri": 3697,
  "divenleri": 3698,
  "eldivenleri": 3699,
  "laşımları": 3700,
  "aylaşımları": 3701,
  "paylaşımları": 3702,
  "öneler": 3703,
  "yöneler": 3704,
  "uluslarası": 3705,
  "azarlar": 3706,
  "pazarlar": 3707,
  "isteler": 3708,
  "listeler": 3709,
  "ıralamalar": 3710,
  "sıralamalar": 3711,
  "sıralar": 3712,
  "aksini": 3713,
  "mineler": 3714,
  "yüzeyini": 3715,
  "apları": 3716,
  "esapları": 3717,
  "hesapları": 3718,
  "alışmaları": 3719,
  "Çalışmaları": 3720,
  "ekeler": 3721,
  "bekeler": 3722,
  "ebekeler": 3723,
  "şebekeler": 3724,
  "arılması": 3725,
  "onarılması": 3726,
  "ürülmesi": 3727,
  "dürülmesi": 3728,
  "sürdürülmesi": 3729,
  "emizlenmesi": 3730,
  "temizlenmesi": 3731,
  "dırılar": 3732,
  "aldırılar": 3733,
  "saldırılar": 3734,
  "Kimler": 3735,
  "ancılar": 3736,
  "bancılar": 3737,
  "abancılar": 3738,
  "Yabancılar": 3739,
  "orbası": 3740,
  "Çorbası": 3741,
  "ekneler": 3742,
  "Tekneler": 3743,
  "ýmlar": 3744,
  "þýmlar": 3745,
  "laþýmlar": 3746,
  "ulaþýmlar": 3747,
  "itirilmesi": 3748,
  "bitirilmesi": 3749,
  "ayarlar": 3750,
  "üyeler": 3751,
  "görmemesi": 3752,
  "naklar": 3753,
  "kaynaklar": 3754,
  "evhalar": 3755,
  "Levhalar": 3756,
  "zemini": 3757,
  "yapılar": 3758,
  "erazları": 3759,
  "omerazları": 3760,
  "izomerazları": 3761,
  "oizomerazları": 3762,
  "poizomerazları": 3763,
  "opoizomerazları": 3764,
  "topoizomerazları": 3765,
  "olonlar": 3766,
  "inolonlar": 3767,
  "okinolonlar": 3768,
  "orokinolonlar": 3769,
  "lorokinolonlar": 3770,
  "florokinolonlar": 3771,
  "birimlerini": 3772,
  "mbaları": 3773,
  "lambaları": 3774,
  "tıları": 3775,
  "lantıları": 3776,
  "plantıları": 3777,
  "oplantıları": 3778,
  "toplantıları": 3779,
  "olabilmesi": 3780,
  "eseller": 3781,
  "Reseller": 3782,
  "ilenler": 3783,
  "edilenler": 3784,
  "ylar": 3785,
  "olaylar": 3786,
  "araflar": 3787,
  "taraflar": 3788,
  "uristler": 3789,
  "Turistler": 3790,
  "ışımları": 3791,
  "karışımları": 3792,
  "lektörler": 3793,
  "flektörler": 3794,
  "eflektörler": 3795,
  "Reflektörler": 3796,
  "Noktaları": 3797,
  "Müşteriler": 3798,
  "pisini": 3799,
  "apisini": 3800,
  "terapisini": 3801,
  "piyonlar": 3802,
  "ampiyonlar": 3803,
  "Şampiyonlar": 3804,
  "ineri": 3805,
  "fineri": 3806,
  "rafineri": 3807,
  "niteleri": 3808,
  "Üniteleri": 3809,
  "ağlar": 3810,
  "Yağlar": 3811,
  "yağlar": 3812,
  "eklenmesi": 3813,
  "Yukarı": 3814,
  "istemini": 3815,
  "sistemini": 3816,
  "sarı": 3817,
  "erdeler": 3818,
  "perdeler": 3819,
  "danları": 3820,
  "üzdanları": 3821,
  "cüzdanları": 3822,
  "fisler": 3823,
  "ofisler": 3824,
  "mekanlar": 3825,
  "iyebilirler": 3826,
  "yiyebilirler": 3827,
  "uperi": 3828,
  "superi": 3829,
  "ükleri": 3830,
  "lükleri": 3831,
  "günlükleri": 3832,
  "Uçları": 3833,
  "edektörler": 3834,
  "Dedektörler": 3835,
  "iyerler": 3836,
  "kariyerler": 3837,
  "fisini": 3838,
  "rafisini": 3839,
  "grafisini": 3840,
  "ografisini": 3841,
  "iyografisini": 3842,
  "biyografisini": 3843,
  "dubiyografisini": 3844,
  "urdubiyografisini": 3845,
  "durdubiyografisini": 3846,
  "oldurdubiyografisini": 3847,
  "doldurdubiyografisini": 3848,
  "davalar": 3849,
  "cüler": 3850,
  "öncüler": 3851,
  "rencileri": 3852,
  "ğrencileri": 3853,
  "öğrencileri": 3854,
  "görevler": 3855,
  "bugünler": 3856,
  "balamalar": 3857,
  "ombalamalar": 3858,
  "bombalamalar": 3859,
  "çacakları": 3860,
  "uçacakları": 3861,
  "ilotlar": 3862,
  "pilotlar": 3863,
  "kurtarı": 3864,
  "desler": 3865,
  "ardesler": 3866,
  "Kardesler": 3867,
  "oyunları": 3868,
  "lilikler": 3869,
  "irlilikler": 3870,
  "kirlilikler": 3871,
  "şikler": 3872,
  "ileşikler": 3873,
  "Bileşikler": 3874,
  "Düzeyler": 3875,
  "eğeri": 3876,
  "Değeri": 3877,
  "veleri": 3878,
  "yveleri": 3879,
  "meyveleri": 3880,
  "ışımlar": 3881,
  "karışımlar": 3882,
  "oslar": 3883,
  "soslar": 3884,
  "veçler": 3885,
  "güveçler": 3886,
  "çorbalar": 3887,
  "olasılıklar": 3888,
  "encesi": 3889,
  "vencesi": 3890,
  "üvencesi": 3891,
  "Güvencesi": 3892,
  "onutları": 3893,
  "Konutları": 3894,
  "unlukları": 3895,
  "oğunlukları": 3896,
  "yoğunlukları": 3897,
  "asitesi": 3898,
  "pasitesi": 3899,
  "kapasitesi": 3900,
  "Kalesi": 3901,
  "kalemler": 3902,
  "riskini": 3903,
  "şişeler": 3904,
  "üpleri": 3905,
  "tüpleri": 3906,
  "tisini": 3907,
  "partisini": 3908,
  "odları": 3909,
  "kodları": 3910,
  "arkodları": 3911,
  "barkodları": 3912,
  "ışları": 3913,
  "atışları": 3914,
  "satışları": 3915,
  "eşini": 3916,
  "beşini": 3917,
  "eyebilirler": 3918,
  "deneyebilirler": 3919,
  "bilar": 3920,
  "caklılar": 3921,
  "acaklılar": 3922,
  "alacaklılar": 3923,
  "diaları": 3924,
  "ddiaları": 3925,
  "iddiaları": 3926,
  "adesi": 3927,
  "iadesi": 3928,
  "likasyonları": 3929,
  "plikasyonları": 3930,
  "omplikasyonları": 3931,
  "komplikasyonları": 3932,
  "ayıları": 3933,
  "sayıları": 3934,
  "camlar": 3935,
  "iyotlar": 3936,
  "diyotlar": 3937,
  "olaları": 3938,
  "molaları": 3939,
  "enekleri": 3940,
  "çenekleri": 3941,
  "seçenekleri": 3942,
  "sımları": 3943,
  "ısımları": 3944,
  "kısımları": 3945,
  "ortalar": 3946,
  "gortalar": 3947,
  "igortalar": 3948,
  "Sigortalar": 3949,
  "turistler": 3950,
  "urması": 3951,
  "durması": 3952,
  "bulundurması": 3953,
  "oderler": 3954,
  "koderler": 3955,
  "nkoderler": 3956,
  "Enkoderler": 3957,
  "Bakteriler": 3958,
  "yonları": 3959,
  "syonları": 3960,
  "üsyonları": 3961,
  "olüsyonları": 3962,
  "Solüsyonları": 3963,
  "ilerletilmesi": 3964,
  "macılar": 3965,
  "tırmacılar": 3966,
  "ştırmacılar": 3967,
  "araştırmacılar": 3968,
  "ştirilmesi": 3969,
  "ileştirilmesi": 3970,
  "iyileştirilmesi": 3971,
  "asaları": 3972,
  "kasaları": 3973,
  "bezler": 3974,
  "gresi": 3975,
  "ogresi": 3976,
  "rogresi": 3977,
  "Progresi": 3978,
  "ümanlar": 3979,
  "okümanlar": 3980,
  "Dokümanlar": 3981,
  "aydaşları": 3982,
  "paydaşları": 3983,
  "verenler": 3984,
  "işverenler": 3985,
  "maktadırlar": 3986,
  "bulunmaktadırlar": 3987,
  "lular": 3988,
  "oylular": 3989,
  "soylular": 3990,
  "seferleri": 3991,
  "kaleler": 3992,
  "isterler": 3993,
  "ovalar": 3994,
  "kovalar": 3995,
  "hastaları": 3996,
  "iteri": 3997,
  "riteri": 3998,
  "kriteri": 3999
}