{
  "<unk>": 0,
  "<pad>": 1,
  " ": 3,
  "!": 4,
  "\"": 5,
  "#": 6,
  "$": 7,
  "%": 8,
  "&": 9,
  "'": 10,
  "(": 11,
  ")": 12,
  "*": 13,
  "+": 14,
  ",": 15,
  "-": 16,
  ".": 17,
  "/": 18,
  "0": 19,
  "1": 20,
  "2": 21,
  "3": 22,
  "4": 23,
  "5": 24,
  "6": 25,
  "7": 26,
  "8": 27,
  "9": 28,
  ":": 29,
  ";": 30,
  ">": 31,
  "?": 32,
  "@": 33,
  "A": 34,
  "B": 35,
  "C": 36,
  "D": 37,
  "E": 38,
  "F": 39,
  "G": 40,
  "H": 41,
  "I": 42,
  "J": 43,
  "K": 44,
  "L": 45,
  "M": 46,
  "N": 47,
  "O": 48,
  "P": 49,
  "Q": 50,
  "R": 51,
  "S": 52,
  "T": 53,
  "U": 54,
  "V": 55,
  "W": 56,
  "X": 57,
  "Y": 58,
  "Z": 59,
  "[": 60,
  "]": 61,
  "^": 62,
  "_": 63,
  "a": 64,
  "b": 65,
  "c": 66,
  "d": 67,
  "e": 68,
  "f": 69,
  "g": 70,
  "h": 71,
  "i": 72,
  "j": 73,
  "k": 74,
  "l": 75,
  "m": 76,
  "n": 77,
  "o": 78,
  "p": 79,
  "q": 80,
  "r": 81,
  "s": 82,
  "t": 83,
  "u": 84,
  "v": 85,
  "w": 86,
  "x": 87,
  "y": 88,
  "z": 89,
  "|": 90,
  "": 91,
  "°": 92,
  "²": 93,
  "»": 94,
  "×": 95,
  "ï": 96,
  "в": 97,
  "и": 98,
  "л": 99,
  "о": 100,
  "т": 101,
  "я": 102,
  "ا": 103,
  "ت": 104,
  "ل": 105,
  "و": 106,
  "ی": 107,
  "ँ": 108,
  "ं": 109,
  "ः": 110,
  "अ": 111,
  "आ": 112,
  "इ": 113,
  "ई": 114,
  "उ": 115,
  "ऊ": 116,
  "ऋ": 117,
  "ए": 118,
  "ऐ": 119,
  "ऑ": 120,
  "ओ": 121,
  "औ": 122,
  "क": 123,
  "ख": 124,
  "ग": 125,
  "घ": 126,
  "च": 127,
  "छ": 128,
  "ज": 129,
  "झ": 130,
  "ञ": 131,
  "ट": 132,
  "ठ": 133,
  "ड": 134,
  "ढ": 135,
  "ण": 136,
  "त": 137,
  "थ": 138,
  "द": 139,
  "ध": 140,
  "न": 141,
  "ऩ": 142,
  "प": 143,
  "फ": 144,
  "ब": 145,
  "भ": 146,
  "म": 147,
  "य": 148,
  "र": 149,
  "ऱ": 150,
  "ल": 151,
  "व": 152,
  "श": 153,
  "ष": 154,
  "स": 155,
  "ह": 156,
  "़": 157,
  "ा": 158,
  "ि": 159,
  "ी": 160,
  "ु": 161,
  "ू": 162,
  "ृ": 163,
  "ॅ": 164,
  "े": 165,
  "ै": 166,
  "ॉ": 167,
  "ो": 168,
  "ौ": 169,
  "्": 170,
  "।": 171,
  "०": 172,
  "१": 173,
  "३": 174,
  "५": 175,
  "८": 176,
  "९": 177,
  "॰": 178,
  "​": 179,
  "‌": 180,
  "‍": 181,
  "‎": 182,
  "–": 183,
  "—": 184,
  "‘": 185,
  "’": 186,
  "“": 187,
  "”": 188,
  "…": 189,
  "›": 190,
  "←": 191,
  "﻿": 192,
  "🔊": 193,
  "के": 193,
  "ार": 194,
  "ें": 195,
  "ने": 196,
  "्र": 197,
  "है": 198,
  "या": 199,
  "में": 200,
  "की": 201,
  "ों": 202,
  "का": 203,
  "से": 204,
  "कर": 205,
  "को": 206,
  "कि": 207,
  "ना": 208,
  "स्": 209,
  "र्": 210,
  "ता": 211,
  "ला": 212,
  "क्": 213,
  "वा": 214,
  "रा": 215,
  "ले": 216,
  "ही": 217,
  "लि": 218,
  "पर": 219,
  "जा": 220,
  "हा": 221,
  "प्र": 222,
  "मा": 223,
  "्य": 224,
  "सा": 225,
  "और": 226,
  "वि": 227,
  "इस": 228,
  "ड़": 229,
  "भी": 230,
  "हो": 231,
  "बा": 232,
  "दि": 233,
  "नि": 234,
  "कार": 235,
  "हैं": 236,
  "गा": 237,
  "दे": 238,
  "ते": 239,
  "नी": 240,
  "ति": 241,
  "ली": 242,
  "सी": 243,
  "मि": 244,
  "पा": 245,
  "त्र": 246,
  "हु": 247,
  "न्": 248,
  "था": 249,
  "क्ष": 250,
  "लिए": 251,
  "ती": 252,
  "सं": 253,
  "री": 254,
  "हीं": 255,
  "सि": 256,
  "जि": 257,
  "पु": 258,
  "ंग": 259,
  "त्": 260,
  "दी": 261,
  "मु": 262,
  "दा": 263,
  "ल्": 264,
  "एक": 265,
  "रह": 266,
  "टी": 267,
  "ोग": 268,
  "यों": 269,
  "नहीं": 270,
  "वार": 271,
  "रो": 272,
  "शा": 273,
  "अप": 274,
  "किया": 275,
  "चा": 276,
  "रि": 277,
  "हि": 278,
  "मी": 279,
  "सर": 280,
  "जी": 281,
  "भा": 282,
  "गया": 283,
  "पी": 284,
  "मं": 285,
  "धि": 286,
  "सम": 287,
  "पू": 288,
  "तो": 289,
  "कहा": 290,
  "खा": 291,
  "शि": 292,
  "बाद": 293,
  "ट्र": 294,
  "देश": 295,
  "कु": 296,
  "करने": 297,
  "सु": 298,
  "द्": 299,
  "मार": 300,
  "नों": 301,
  "बी": 302,
  "रू": 303,
  "वे": 304,
  "ंद": 305,
  "न्ह": 306,
  "साथ": 307,
  "ये": 308,
  "रे": 309,
  "यह": 310,
  "मे": 311,
  "राज": 312,
  "लोग": 313,
  "गी": 314,
  "्या": 315,
  "धा": 316,
  "रु": 317,
  "ित": 318,
  "उन": 319,
  "ढ़": 320,
  "वी": 321,
  "ंच": 322,
  "स्ट": 323,
  "उन्ह": 324,
  "क्र": 325,
  "दिया": 326,
  "रहे": 327,
  "ंड": 328,
  "पह": 329,
  "तक": 330,
  "उस": 331,
  "बि": 332,
  "ारी": 333,
  "दो": 334,
  "ष्": 335,
  "जन": 336,
  "20": 337,
  "पुलि": 338,
  "थी": 339,
  "श्": 340,
  "पुलिस": 341,
  "ओं": 342,
  "ार्": 343,
  "गे": 344,
  "प्": 345,
  "टर": 346,
  "गई": 347,
  "आप": 348,
  "जो": 349,
  "रहा": 350,
  "मंत्र": 351,
  "फि": 352,
  "तर": 353,
  "ैं": 354,
  "भार": 355,
  "किन": 356,
  "बता": 357,
  "अन": 358,
  "बार": 359,
  "मान": 360,
  "सक": 361,
  "चु": 362,
  "शन": 363,
  "डि": 364,
  "यो": 365,
  "टि": 366,
  "हर": 367,
  "इन": 368,
  "हुए": 369,
  "मिल": 370,
  "थे": 371,
  "रही": 372,
  "सरकार": 373,
  "ोंने": 374,
  "मो": 375,
  "जे": 376,
  "लगा": 377,
  "लेकिन": 378,
  "वर्": 379,
  "जब": 380,
  "बे": 381,
  "शु": 382,
  "स्थ": 383,
  "टा": 384,
  "जाए": 385,
  "टे": 386,
  "लोगों": 387,
  "ग्र": 388,
  "अपने": 389,
  "हम": 390,
  "अब": 391,
  "डी": 392,
  "उन्होंने": 393,
  "मंत्री": 394,
  "गर": 395,
  "ड़ा": 396,
  "सो": 397,
  "बर": 398,
  "ड़ी": 399,
  "दू": 400,
  "मौ": 401,
  "सू": 402,
  "इसके": 403,
  "बना": 404,
  "एम": 405,
  "वह": 406,
  "पि": 407,
  "क्षा": 408,
  "अधि": 409,
  "यर": 410,
  "च्": 411,
  "यु": 412,
  "परि": 413,
  "गए": 414,
  "वाले": 415,
  "जिस": 416,
  "चि": 417,
  "खि": 418,
  "पुर": 419,
  "होने": 420,
  "पे": 421,
  "लों": 422,
  "सिं": 423,
  "हां": 424,
  "दु": 425,
  "दौ": 426,
  "एस": 427,
  "स्त": 428,
  "लो": 429,
  "सब": 430,
  "निर्": 431,
  "स्था": 432,
  "जान": 433,
  "माम": 434,
  "श्र": 435,
  "कर्": 436,
  "म्": 437,
  "पूर्": 438,
  "कारी": 439,
  "आई": 440,
  "कों": 441,
  "ियों": 442,
  "फी": 443,
  "पहले": 444,
  "ध्य": 445,
  "बताया": 446,
  "र्ट": 447,
  "योग": 448,
  "सिंह": 449,
  "पहु": 450,
  "बं": 451,
  "जु": 452,
  "कुछ": 453,
  "डा": 454,
  "पो": 455,
  "रान": 456,
  "मुख": 457,
  "दर्": 458,
  "गु": 459,
  "द्र": 460,
  "भारत": 461,
  "लग": 462,
  "ज़": 463,
  "चार": 464,
  "धान": 465,
  "कोई": 466,
  "शे": 467,
  "व्य": 468,
  "रुप": 469,
  "अनु": 470,
  "छा": 471,
  "कार्य": 472,
  "लिया": 473,
  "क्त": 474,
  "ंत": 475,
  "उत्": 476,
  "प्रति": 477,
  "उप": 478,
  "हार": 479,
  "ब्": 480,
  "बात": 481,
  "हुई": 482,
  "यू": 483,
  "्यू": 484,
  "क्षे": 485,
  "भि": 486,
  "ड़े": 487,
  "बढ़": 488,
  "फा": 489,
  "दौरान": 490,
  "ंद्र": 491,
  "गि": 492,
  "करते": 493,
  "कई": 494,
  "क्षेत्र": 495,
  "घर": 496,
  "राम": 497,
  "लेकर": 498,
  "बै": 499,
  "द्वार": 500,
  "काम": 501,
  "दिन": 502,
  "कॉ": 503,
  "ीय": 504,
  "कम": 505,
  "किसी": 506,
  "साल": 507,
  "अपनी": 508,
  "ंप": 509,
  "शी": 510,
  "हुआ": 511,
  "करा": 512,
  "10": 513,
  "तरह": 514,
  "पार्": 515,
  "प्रदेश": 516,
  "जू": 517,
  "ोड़": 518,
  "ची": 519,
  "जार": 520,
  "इं": 521,
  "दिल्": 522,
  "चे": 523,
  "मैं": 524,
  "फै": 525,
  "ट्": 526,
  "धी": 527,
  "पहुंच": 528,
  "रूप": 529,
  "निक": 530,
  "फ्": 531,
  "मै": 532,
  "बु": 533,
  "सभी": 534,
  "चल": 535,
  "खे": 536,
  "ेस": 537,
  "वन": 538,
  "राज्य": 539,
  "द्वारा": 540,
  "दिल्ली": 541,
  "आर": 542,
  "वं": 543,
  "महि": 544,
  "समय": 545,
  "एं": 546,
  "वै": 547,
  "जाने": 548,
  "कोरो": 549,
  "कोरोना": 550,
  "उनके": 551,
  "तार": 552,
  "मत": 553,
  "लय": 554,
  "ज्": 555,
  "बो": 556,
  "अं": 557,
  "खिला": 558,
  "गो": 559,
  "गां": 560,
  "सार": 561,
  "खु": 562,
  "चौ": 563,
  "ष्ट्र": 564,
  "आरो": 565,
  "पास": 566,
  "होगा": 567,
  "नाम": 568,
  "महिला": 569,
  "वर": 570,
  "पता": 571,
  "201": 572,
  "ौर": 573,
  "सकता": 574,
  "सन": 575,
  "स्ता": 576,
  "जाता": 577,
  "चुना": 578,
  "नो": 579,
  "णा": 580,
  "कै": 581,
  "सद": 582,
  "उन्हें": 583,
  "जै": 584,
  "धार": 585,
  "दार": 586,
  "वर्ष": 587,
  "देख": 588,
  "िक": 589,
  "बीच": 590,
  "क्स": 591,
  "ंग्र": 592,
  "शुरू": 593,
  "लाख": 594,
  "पर्": 595,
  "भाग": 596,
  "मुख्य": 597,
  "ग्रा": 598,
  "पूर्व": 599,
  "वाई": 600,
  "तै": 601,
  "जारी": 602,
  "जर": 603,
  "कह": 604,
  "मू": 605,
  "करें": 606,
  "फिल्": 607,
  "क्ति": 608,
  "मामले": 609,
  "मार्": 610,
  "करना": 611,
  "00": 612,
  "बन": 613,
  "वो": 614,
  "पै": 615,
  "वाली": 616,
  "एन": 617,
  "डे": 618,
  "करी": 619,
  "यक": 620,
  "पार्टी": 621,
  "आज": 622,
  "करोड़": 623,
  "रख": 624,
  "धन": 625,
  "मह": 626,
  "ताओं": 627,
  "डॉ": 628,
  "जय": 629,
  "तीय": 630,
  "कृ": 631,
  "अभि": 632,
  "ध्यक्ष": 633,
  "क्रम": 634,
  "कांग्र": 635,
  "साम": 636,
  "ठा": 637,
  "प्रा": 638,
  "योज": 639,
  "त्य": 640,
  "हन": 641,
  "कारण": 642,
  "फो": 643,
  "उसके": 644,
  "एवं": 645,
  "यत": 646,
  "ंक": 647,
  "कुमार": 648,
  "कांग्रेस": 649,
  "लू": 650,
  "श्री": 651,
  "राष्ट्र": 652,
  "यहां": 653,
  "शो": 654,
  "वहीं": 655,
  "तु": 656,
  "जानकारी": 657,
  "किए": 658,
  "िया": 659,
  "चुनाव": 660,
  "फिल्म": 661,
  "दोनों": 662,
  "पोर्ट": 663,
  "हे": 664,
  "्यादा": 665,
  "ऐसे": 666,
  "रुपये": 667,
  "स्व": 668,
  "होगी": 669,
  "केंद्र": 670,
  "मोदी": 671,
  "टीम": 672,
  "ेंद्र": 673,
  "कंप": 674,
  "यन": 675,
  "सभा": 676,
  "दान": 677,
  "कान": 678,
  "भू": 679,
  "19": 680,
  "लां": 681,
  "जग": 682,
  "जीत": 683,
  "र्थ": 684,
  "भे": 685,
  "जाएगा": 686,
  "बहु": 687,
  "नगर": 688,
  "पाल": 689,
  "बद": 690,
  "ंचा": 691,
  "घा": 692,
  "ज्यादा": 693,
  "कू": 694,
  "योजना": 695,
  "शामिल": 696,
  "अधिक": 697,
  "सकते": 698,
  "सबसे": 699,
  "सुर": 700,
  "तैय": 701,
  "समा": 702,
  "टो": 703,
  "क्टर": 704,
  "बारे": 705,
  "फर": 706,
  "खिलाफ": 707,
  "ूं": 708,
  "जिले": 709,
  "फिर": 710,
  "ंस": 711,
  "नर": 712,
  "भारतीय": 713,
  "इससे": 714,
  "स्वा": 715,
  "आए": 716,
  "टना": 717,
  "गांव": 718,
  "उसे": 719,
  "झा": 720,
  "अव": 721,
  "हजार": 722,
  "हत": 723,
  "अध्यक्ष": 724,
  "माण": 725,
  "जवा": 726,
  "महा": 727,
  "उनकी": 728,
  "छात्र": 729,
  "बैठ": 730,
  "निया": 731,
  "यान": 732,
  "जांच": 733,
  "भर": 734,
  "हाल": 735,
  "आपको": 736,
  "स्थि": 737,
  "बाइ": 738,
  "चाहि": 739,
  "वज": 740,
  "मांग": 741,
  "त्या": 742,
  "र्स": 743,
  "विधा": 744,
  "इसी": 745,
  "गं": 746,
  "्रा": 747,
  "बहुत": 748,
  "क्यों": 749,
  "अन्य": 750,
  "मद": 751,
  "प्रधान": 752,
  "चाहिए": 753,
  "अगर": 754,
  "तथा": 755,
  "आत": 756,
  "जरू": 757,
  "र्ड": 758,
  "कल": 759,
  "सला": 760,
  "भग": 761,
  "न्न": 762,
  "ज्ञ": 763,
  "मन": 764,
  "पद": 765,
  "फ़": 766,
  "तीन": 767,
  "केट": 768,
  "हित": 769,
  "ध्या": 770,
  "अपना": 771,
  "ओर": 772,
  "बंध": 773,
  "विश्": 774,
  "ट्रे": 775,
  "चला": 776,
  "आने": 777,
  "अस्": 778,
  "स्थिति": 779,
  "हमार": 780,
  "30": 781,
  "नेता": 782,
  "सर्": 783,
  "ंगे": 784,
  "लॉ": 785,
  "न्यू": 786,
  "वाल": 787,
  "मौत": 788,
  "डल": 789,
  "जिला": 790,
  "हों": 791,
  "पड़": 792,
  "द्य": 793,
  "गिर": 794,
  "प्रधानमंत्री": 795,
  "काफी": 796,
  "वाद": 797,
  "काल": 798,
  "रात": 799,
  "त्व": 800,
  "वासी": 801,
  "मित": 802,
  "वाला": 803,
  "शेष": 804,
  "क्या": 805,
  "नई": 806,
  "करण": 807,
  "न्या": 808,
  "करे": 809,
  "यल": 810,
  "वल": 811,
  "सामने": 812,
  "द्ध": 813,
  "लै": 814,
  "चना": 815,
  "पत्": 816,
  "रत": 817,
  "होता": 818,
  "गढ़": 819,
  "यी": 820,
  "सै": 821,
  "दर्ज": 822,
  "पति": 823,
  "बच्": 824,
  "फे": 825,
  "बह": 826,
  "एल": 827,
  "ंदी": 828,
  "र्म": 829,
  "दर": 830,
  "सल": 831,
  "हालां": 832,
  "हालांकि": 833,
  "दिए": 834,
  "सके": 835,
  "प्रो": 836,
  "सरे": 837,
  "अस्पता": 838,
  "रिया": 839,
  "अच्": 840,
  "बड़ी": 841,
  "शासन": 842,
  "बॉ": 843,
  "इला": 844,
  "निय": 845,
  "छे": 846,
  "नीति": 847,
  "घो": 848,
  "गठ": 849,
  "अनुसार": 850,
  "रीज": 851,
  "अलग": 852,
  "नौ": 853,
  "अला": 854,
  "्ड": 855,
  "मुख्यमंत्री": 856,
  "विशेष": 857,
  "पत्र": 858,
  "टू": 859,
  "जपा": 860,
  "अभी": 861,
  "स्थान": 862,
  "पढ़": 863,
  "आदि": 864,
  "कट": 865,
  "पूरी": 866,
  "सम्": 867,
  "उत्तर": 868,
  "लं": 869,
  "भाव": 870,
  "क्रि": 871,
  "इसे": 872,
  "ेंगे": 873,
  "अलावा": 874,
  "हूं": 875,
  "ऐसा": 876,
  "भाजपा": 877,
  "डिया": 878,
  "गत": 879,
  "ंगा": 880,
  "रिपोर्ट": 881,
  "क्षण": 882,
  "लने": 883,
  "ख्या": 884,
  "करीब": 885,
  "बढ़ा": 886,
  "वजह": 887,
  "क्योंकि": 888,
  "कोर्ट": 889,
  "थाना": 890,
  "मिले": 891,
  "फल": 892,
  "पांच": 893,
  "देने": 894,
  "लाल": 895,
  "पिछ": 896,
  "तैयार": 897,
  "जल": 898,
  "आरोप": 899,
  "पार": 900,
  "प्त": 901,
  "12": 902,
  "दन": 903,
  "झे": 904,
  "स्थित": 905,
  "रुपए": 906,
  "घोष": 907,
  "वरी": 908,
  "इंड": 909,
  "अग": 910,
  "सदस्": 911,
  "रों": 912,
  "क्सी": 913,
  "विका": 914,
  "घटना": 915,
  "वास": 916,
  "कुल": 917,
  "इसकी": 918,
  "चाह": 919,
  "खान": 920,
  "परे": 921,
  "शान": 922,
  "सान": 923,
  "विभाग": 924,
  "युक्त": 925,
  "वान": 926,
  "सुरक्षा": 927,
  "15": 928,
  "नजर": 929,
  "जहां": 930,
  "ग्": 931,
  "लौ": 932,
  "ंबर": 933,
  "कंपनी": 934,
  "ज्ञा": 935,
  "स्टे": 936,
  "अस्पताल": 937,
  "इस्": 938,
  "बनाने": 939,
  "र्चा": 940,
  "इट": 941,
  "राष्ट्रीय": 942,
  "रहने": 943,
  "हरा": 944,
  "शिका": 945,
  "शहर": 946,
  "बल्": 947,
  "करता": 948,
  "परी": 949,
  "इसमें": 950,
  "ोल": 951,
  "पूर्ण": 952,
  "व्यव": 953,
  "जित": 954,
  "माल": 955,
  "युव": 956,
  "होती": 957,
  "सिल": 958,
  "विकास": 959,
  "गिरफ्": 960,
  "जीवन": 961,
  "आगे": 962,
  "जैसे": 963,
  "निवासी": 964,
  "अधिकार": 965,
  "ुक": 966,
  "यात्र": 967,
  "स्वी": 968,
  "लाई": 969,
  "गुरु": 970,
  "कार्र": 971,
  "कार्रवाई": 972,
  "पक": 973,
  "पिछले": 974,
  "र्फ": 975,
  "जूद": 976,
  "मना": 977,
  "ष्ठ": 978,
  "कोवि": 979,
  "यां": 980,
  "मंदि": 981,
  "मुझे": 982,
  "तहत": 983,
  "लेने": 984,
  "पं": 985,
  "यालय": 986,
  "अपरा": 987,
  "गै": 988,
  "लगे": 989,
  "गल": 990,
  "विश्व": 991,
  "मिली": 992,
  "इड": 993,
  "जाएगी": 994,
  "25": 995,
  "स्वास्थ": 996,
  "निर्देश": 997,
  "कहना": 998,
  "खरी": 999,
  "याद": 1000,
  "शर्": 1001,
  "रेल": 1002,
  "रण": 1003,
  "परिवार": 1004,
  "बजे": 1005,
  "संख्या": 1006,
  "ट्स": 1007,
  "अमे": 1008,
  "मिला": 1009,
  "बंद": 1010,
  "दिखा": 1011,
  "खंड": 1012,
  "बस": 1013,
  "हिंदी": 1014,
  "आयो": 1015,
  "दूसरे": 1016,
  "मृ": 1017,
  "राय": 1018,
  "सूचना": 1019,
  "मरीज": 1020,
  "जबकि": 1021,
  "कीमत": 1022,
  "उसकी": 1023,
  "लड़": 1024,
  "स्वास्थ्य": 1025,
  "पक्ष": 1026,
  "डर": 1027,
  "टन": 1028,
  "लर": 1029,
  "हमारे": 1030,
  "उम्": 1031,
  "मीद": 1032,
  "जें": 1033,
  "चर्चा": 1034,
  "हरी": 1035,
  "वायर": 1036,
  "बाहर": 1037,
  "सकती": 1038,
  "हत्या": 1039,
  "रोक": 1040,
  "बैठक": 1041,
  "विधान": 1042,
  "प्ता": 1043,
  "सौ": 1044,
  "कर्म": 1045,
  "मारी": 1046,
  "जनता": 1047,
  "ठी": 1048,
  "रन": 1049,
  "रवि": 1050,
  "जाना": 1051,
  "दिनों": 1052,
  "सदी": 1053,
  "21": 1054,
  "जाती": 1055,
  "नाथ": 1056,
  "लें": 1057,
  "इसलिए": 1058,
  "एफ": 1059,
  "व्यक्ति": 1060,
  "भूमि": 1061,
  "आइ": 1062,
  "हाथ": 1063,
  "उम्मीद": 1064,
  "दुनिया": 1065,
  "बैं": 1066,
  "व्या": 1067,
  "छो": 1068,
  "क्रमण": 1069,
  "मंदिर": 1070,
  "जिसमें": 1071,
  "खुद": 1072,
  "स्कू": 1073,
  "निग": 1074,
  "चों": 1075,
  "धे": 1076,
  "नए": 1077,
  "चित": 1078,
  "राजनीति": 1079,
  "मीडिया": 1080,
  "तौर": 1081,
  "सह": 1082,
  "स्तान": 1083,
  "वाह": 1084,
  "देते": 1085,
  "फैसला": 1086,
  "अधिकारी": 1087,
  "शिकायत": 1088,
  "बिहार": 1089,
  "निर्माण": 1090,
  "पूरा": 1091,
  "मही": 1092,
  "in": 1093,
  "सोम": 1094,
  "रोध": 1095,
  "प्रशासन": 1096,
  "बल": 1097,
  "थि": 1098,
  "बिक": 1099,
  "सेवा": 1100,
  "14": 1101,
  "जिससे": 1102,
  "उठा": 1103,
  "विष": 1104,
  "चो": 1105,
  "फोन": 1106,
  "सोमवार": 1107,
  "लगातार": 1108,
  "पॉ": 1109,
  "गू": 1110,
  "सें": 1111,
  "सुबह": 1112,
  "नरेंद्र": 1113,
  "अमेरि": 1114,
  "डियो": 1115,
  "अर्": 1116,
  "सदस्य": 1117,
  "कोविड": 1118,
  "नीय": 1119,
  "मदद": 1120,
  "शिक्षा": 1121,
  "वेश": 1122,
  "संबंध": 1123,
  "लाइन": 1124,
  "सुन": 1125,
  "धित": 1126,
  "संगठ": 1127,
  "इत": 1128,
  "बेह": 1129,
  "यं": 1130,
  "दें": 1131,
  "50": 1132,
  "षण": 1133,
  "व्यवस्था": 1134,
  "मध्य": 1135,
  "ख्": 1136,
  "चान": 1137,
  "वहां": 1138,
  "टिंग": 1139,
  "क्ट": 1140,
  "पहली": 1141,
  "त्म": 1142,
  "पानी": 1143,
  "ग्रामी": 1144,
  "ग्रामीण": 1145,
  "सिर्फ": 1146,
  "जिन": 1147,
  "मुं": 1148,
  "फीसदी": 1149,
  "न्यूज़": 1150,
  "चुका": 1151,
  "ग्राम": 1152,
  "बू": 1153,
  "आरोपी": 1154,
  "गिरफ्तार": 1155,
  "सड़": 1156,
  "दूर": 1157,
  "पेश": 1158,
  "पोस्ट": 1159,
  "उनका": 1160,
  "उपल": 1161,
  "पल": 1162,
  "युवक": 1163,
  "वित": 1164,
  "आम": 1165,
  "ंगल": 1166,
  "महिलाओं": 1167,
  "लगाया": 1168,
  "पूरे": 1169,
  "खो": 1170,
  "कद": 1171,
  "कानू": 1172,
  "बाइक": 1173,
  "ल्ड": 1174,
  "गर्": 1175,
  "अभियान": 1176,
  "शव": 1177,
  "इसका": 1178,
  "उपलब्": 1179,
  "पहुंचे": 1180,
  "ब्र": 1181,
  "मामला": 1182,
  "चिकि": 1183,
  "चिकित्": 1184,
  "लब": 1185,
  "धियों": 1186,
  "जगह": 1187,
  "मुता": 1188,
  "मिलने": 1189,
  "जरूरत": 1190,
  "विधायक": 1191,
  "पहुंचा": 1192,
  "मिक": 1193,
  "विद्": 1194,
  "होते": 1195,
  "बाजार": 1196,
  "स्ट्र": 1197,
  "तरा": 1198,
  "तब": 1199,
  "जिसके": 1200,
  "त्त": 1201,
  "मंडल": 1202,
  "मौके": 1203,
  "स्या": 1204,
  "तरी": 1205,
  "पस": 1206,
  "र्च": 1207,
  "राब": 1208,
  "बज": 1209,
  "वालों": 1210,
  "मुताबिक": 1211,
  "शादी": 1212,
  "श्य": 1213,
  "सरकारी": 1214,
  "पीछे": 1215,
  "भाई": 1216,
  "लोक": 1217,
  "रखा": 1218,
  "हाई": 1219,
  "11": 1220,
  "सफल": 1221,
  "विधानसभा": 1222,
  "अंत": 1223,
  "प्रया": 1224,
  "णी": 1225,
  "तेल": 1226,
  "आधार": 1227,
  "रानी": 1228,
  "हारा": 1229,
  "लख": 1230,
  "खरीद": 1231,
  "टिव": 1232,
  "सवाल": 1233,
  "टों": 1234,
  "राशि": 1235,
  "निवार": 1236,
  "मर": 1237,
  "वृ": 1238,
  "कार्ड": 1239,
  "भो": 1240,
  "दल": 1241,
  "मीर": 1242,
  "हटा": 1243,
  "प्रे": 1244,
  "प्रमुख": 1245,
  "दबा": 1246,
  "परीक्षा": 1247,
  "शाह": 1248,
  "पीएम": 1249,
  "बड़ा": 1250,
  "कराया": 1251,
  "जाते": 1252,
  "तन": 1253,
  "भीर": 1254,
  "वायरस": 1255,
  "काउ": 1256,
  "आपके": 1257,
  "गें": 1258,
  "बई": 1259,
  "किसा": 1260,
  "16": 1261,
  "माना": 1262,
  "पन": 1263,
  "दर्शन": 1264,
  "दूस": 1265,
  "तला": 1266,
  "वैक्सी": 1267,
  "किलो": 1268,
  "शर्मा": 1269,
  "18": 1270,
  "सेना": 1271,
  "कराने": 1272,
  "गण": 1273,
  "शल": 1274,
  "ar": 1275,
  "लक्ष": 1276,
  "चलते": 1277,
  "जेल": 1278,
  "उपलब्ध": 1279,
  "खेल": 1280,
  "चुके": 1281,
  "लेज": 1282,
  "घं": 1283,
  "नंबर": 1284,
  "वापस": 1285,
  "मार्ग": 1286,
  "जनों": 1287,
  "23": 1288,
  "उसने": 1289,
  "गांधी": 1290,
  "षि": 1291,
  "13": 1292,
  "at": 1293,
  "मैंने": 1294,
  "पंचा": 1295,
  "काली": 1296,
  "कैं": 1297,
  "राव": 1298,
  "आर्थ": 1299,
  "तेमाल": 1300,
  "टने": 1301,
  "मेंट": 1302,
  "बने": 1303,
  "छी": 1304,
  "प्रि": 1305,
  "बुध": 1306,
  "समस्या": 1307,
  "भेज": 1308,
  "सहित": 1309,
  "युवा": 1310,
  "बनाया": 1311,
  "पाकि": 1312,
  "अफ": 1313,
  "शं": 1314,
  "शुक्र": 1315,
  "चंद्र": 1316,
  "आयोग": 1317,
  "संक्रमण": 1318,
  "लाभ": 1319,
  "ंदर": 1320,
  "घोषणा": 1321,
  "पसं": 1322,
  "बचा": 1323,
  "शुरु": 1324,
  "घायल": 1325,
  "लाने": 1326,
  "केवल": 1327,
  "अति": 1328,
  "शाम": 1329,
  "अदा": 1330,
  "क्षक": 1331,
  "आया": 1332,
  "सित": 1333,
  "खू": 1334,
  "उपा": 1335,
  "कभी": 1336,
  "बिज": 1337,
  "संगठन": 1338,
  "खास": 1339,
  "गंभीर": 1340,
  "क़": 1341,
  "ष्ट": 1342,
  "कत": 1343,
  "किसानों": 1344,
  "माह": 1345,
  "चाहते": 1346,
  "मौजूद": 1347,
  "कमी": 1348,
  "कां": 1349,
  "24": 1350,
  "पिता": 1351,
  "छात्रा": 1352,
  "समझ": 1353,
  "चाल": 1354,
  "देव": 1355,
  "महीने": 1356,
  "पंचायत": 1357,
  "टल": 1358,
  "धु": 1359,
  "आर्थिक": 1360,
  "सां": 1361,
  "देवी": 1362,
  "मजब": 1363,
  "मजबू": 1364,
  "न्द्र": 1365,
  "सत": 1366,
  "200": 1367,
  "बुधवार": 1368,
  "कोशि": 1369,
  "कोशिश": 1370,
  "काउं": 1371,
  "प्रभा": 1372,
  "भव": 1373,
  "गति": 1374,
  "वीडियो": 1375,
  "बजट": 1376,
  "टेस्ट": 1377,
  "टै": 1378,
  "हिस्": 1379,
  "वेदन": 1380,
  "पर्य": 1381,
  "्यालय": 1382,
  "उन्": 1383,
  "कश्": 1384,
  "आतं": 1385,
  "होंगे": 1386,
  "मां": 1387,
  "मार्ट": 1388,
  "जमी": 1389,
  "स्तु": 1390,
  "बिना": 1391,
  "लॉक": 1392,
  "मात्र": 1393,
  "इस्तेमाल": 1394,
  "तीस": 1395,
  "बदला": 1396,
  "भारी": 1397,
  "बड़े": 1398,
  "हमने": 1399,
  "शत": 1400,
  "धर": 1401,
  "बैंक": 1402,
  "उसका": 1403,
  "लत": 1404,
  "स्तर": 1405,
  "शुक्रवार": 1406,
  "जवाब": 1407,
  "रविवार": 1408,
  "खबर": 1409,
  "समी": 1410,
  "करवा": 1411,
  "ेंट": 1412,
  "ध्यान": 1413,
  "निगम": 1414,
  "यादव": 1415,
  "अमेरिका": 1416,
  "तरफ": 1417,
  "अक्": 1418,
  "संघ": 1419,
  "डाउन": 1420,
  "कार्यक्रम": 1421,
  "भगवान": 1422,
  "ट्रा": 1423,
  "देखा": 1424,
  "ड्र": 1425,
  "काब": 1426,
  "एयर": 1427,
  "अंतर": 1428,
  "कित": 1429,
  "क्षम": 1430,
  "ताप": 1431,
  "कल्": 1432,
  "अवसर": 1433,
  "रिक": 1434,
  "करती": 1435,
  "मेरे": 1436,
  "सचि": 1437,
  "तस्वी": 1438,
  "समे": 1439,
  "जुलाई": 1440,
  "सलमान": 1441,
  "पसंद": 1442,
  "कृषि": 1443,
  "प्रयास": 1444,
  "टॉ": 1445,
  "घु": 1446,
  "लखन": 1447,
  "लिखा": 1448,
  "्स": 1449,
  "महारा": 1450,
  "जल्": 1451,
  "उपयोग": 1452,
  "एक्स": 1453,
  "जाम": 1454,
  "गुरुवार": 1455,
  "करेंगे": 1456,
  "पित": 1457,
  "दारी": 1458,
  "पुत्र": 1459,
  "नार": 1460,
  "मैच": 1461,
  "हमें": 1462,
  "चुकी": 1463,
  "जमा": 1464,
  "रज": 1465,
  "मुंबई": 1466,
  "इंडिया": 1467,
  "ट्रोल": 1468,
  "आव": 1469,
  "जुड़े": 1470,
  "कियों": 1471,
  "टिस": 1472,
  "नव": 1473,
  "सात": 1474,
  "नाग": 1475,
  "तृ": 1476,
  "छोड़": 1477,
  "र्ती": 1478,
  "गयी": 1479,
  "क्शन": 1480,
  "लिख": 1481,
  "ार्थ": 1482,
  "डिकल": 1483,
  "धर्म": 1484,
  "बच्चों": 1485,
  "होना": 1486,
  "दुर्": 1487,
  "सीएम": 1488,
  "बदलाव": 1489,
  "सुविधा": 1490,
  "पड़ा": 1491,
  "प्री": 1492,
  "सले": 1493,
  "अच्छी": 1494,
  "वु": 1495,
  "मोबाइ": 1496,
  "मोबाइल": 1497,
  "अहम": 1498,
  "17": 1499,
  "इंटर": 1500,
  "द्धि": 1501,
  "सब्": 1502,
  "ंत्र": 1503,
  "तम": 1504,
  "लगी": 1505,
  "पाए": 1506,
  "आग": 1507,
  "क्रिया": 1508,
  "स्कूल": 1509,
  "कश्मीर": 1510,
  "तारी": 1511,
  "षा": 1512,
  "जेपी": 1513,
  "on": 1514,
  "es": 1515,
  "विजय": 1516,
  "लखनऊ": 1517,
  "ख़": 1518,
  "सोशल": 1519,
  "मेडिकल": 1520,
  "आवा": 1521,
  "बिजली": 1522,
  "चने": 1523,
  "प्रका": 1524,
  "समर्थ": 1525,
  "शनिवार": 1526,
  "प्रतिशत": 1527,
  "क्रिकेट": 1528,
  "आदेश": 1529,
  "आस": 1530,
  "वर्षीय": 1531,
  "नेताओं": 1532,
  "कृति": 1533,
  "फु": 1534,
  "परिजनों": 1535,
  "प्रदर्शन": 1536,
  "नियम": 1537,
  "ऐसी": 1538,
  "मियों": 1539,
  "लैंड": 1540,
  "तेज": 1541,
  "केंद्रीय": 1542,
  "बल्कि": 1543,
  "भर्ती": 1544,
  "ेश": 1545,
  "2021": 1546,
  "पत्नी": 1547,
  "विद्यालय": 1548,
  "निकल": 1549,
  "वक्": 1550,
  "रै": 1551,
  "गौ": 1552,
  "मीटर": 1553,
  "er": 1554,
  "विभि": 1555,
  "इलाज": 1556,
  "शिव": 1557,
  "कैसे": 1558,
  "मामलों": 1559,
  "नेट": 1560,
  "विरोध": 1561,
  "घंटे": 1562,
  "लाइ": 1563,
  "देशों": 1564,
  "मुकाब": 1565,
  "बयान": 1566,
  "करके": 1567,
  "र्जी": 1568,
  "27": 1569,
  "साफ": 1570,
  "पाकिस्तान": 1571,
  "गरी": 1572,
  "ष्ण": 1573,
  "40": 1574,
  "पूर": 1575,
  "हॉ": 1576,
  "शू": 1577,
  "विचार": 1578,
  "यम": 1579,
  "समाज": 1580,
  "अधिकारियों": 1581,
  "प्राप्त": 1582,
  "सही": 1583,
  "कं": 1584,
  "साब": 1585,
  "आठ": 1586,
  "क्षित": 1587,
  "वैक्सीन": 1588,
  "लु": 1589,
  "तेजी": 1590,
  "खाने": 1591,
  "पीड़": 1592,
  "जन्": 1593,
  "टक": 1594,
  "प्रत्य": 1595,
  "मई": 1596,
  "खिल": 1597,
  "स्थानीय": 1598,
  "यूपी": 1599,
  "स्क": 1600,
  "मिश्र": 1601,
  "पड़ता": 1602,
  "बोर्ड": 1603,
  "मनो": 1604,
  "साइ": 1605,
  "निर्ण": 1606,
  "तैयारी": 1607,
  "एजें": 1608,
  "छात्रों": 1609,
  "लगाने": 1610,
  "फोटो": 1611,
  "चीन": 1612,
  "आं": 1613,
  "मरीजों": 1614,
  "लिये": 1615,
  "ज्ञान": 1616,
  "ग्री": 1617,
  "पेट्रोल": 1618,
  "मंगल": 1619,
  "समु": 1620,
  "नोटिस": 1621,
  "हुल": 1622,
  "आवेदन": 1623,
  "बनी": 1624,
  "यात्रा": 1625,
  "कर्ता": 1626,
  "जों": 1627,
  "वार्": 1628,
  "बीजेपी": 1629,
  "हमले": 1630,
  "थो": 1631,
  "मूल": 1632,
  "वीर": 1633,
  "थीं": 1634,
  "प्ले": 1635,
  "उत्पा": 1636,
  "कहीं": 1637,
  "अदालत": 1638,
  "an": 1639,
  "ad": 1640,
  "व्": 1641,
  "रेलवे": 1642,
  "रखने": 1643,
  "आयोजन": 1644,
  "योगी": 1645,
  "डो": 1646,
  "ृह": 1647,
  "ष्टि": 1648,
  "हाद": 1649,
  "कॉलेज": 1650,
  "वुड": 1651,
  "निकाल": 1652,
  "जिसे": 1653,
  "कप": 1654,
  "सिक": 1655,
  "सीमा": 1656,
  "अथ": 1657,
  "परेशान": 1658,
  "बंधन": 1659,
  "सीट": 1660,
  "खर्च": 1661,
  "सोसि": 1662,
  "मिन": 1663,
  "दिसं": 1664,
  "दिसंबर": 1665,
  "न्हें": 1666,
  "इनमें": 1667,
  "वारी": 1668,
  "तस्वीर": 1669,
  "लगभग": 1670,
  "दियों": 1671,
  "एड": 1672,
  "देखते": 1673,
  "प्ला": 1674,
  "प्रकार": 1675,
  "22": 1676,
  "ंगी": 1677,
  "100": 1678,
  "पहुंची": 1679,
  "000": 1680,
  "जीव": 1681,
  "सप्ता": 1682,
  "सपा": 1683,
  "सूची": 1684,
  "उच्": 1685,
  "पहला": 1686,
  "सड़क": 1687,
  "ंति": 1688,
  "ंदा": 1689,
  "लेख": 1690,
  "राष्ट्रपति": 1691,
  "अगस्त": 1692,
  "विभिन्न": 1693,
  "धू": 1694,
  "भावना": 1695,
  "वीं": 1696,
  "खर": 1697,
  "कानून": 1698,
  "मण": 1699,
  "डॉलर": 1700,
  "इंस्": 1701,
  "असर": 1702,
  "ताकि": 1703,
  "लित": 1704,
  "त्रि": 1705,
  "जाएंगे": 1706,
  "पाया": 1707,
  "राजस्थान": 1708,
  "िश": 1709,
  "लास": 1710,
  "सोसिए": 1711,
  "कर्मी": 1712,
  "छह": 1713,
  "व्यापार": 1714,
  "कमे": 1715,
  "यदि": 1716,
  "सम्मान": 1717,
  "समेत": 1718,
  "प्रवेश": 1719,
  "मुद्": 1720,
  "यही": 1721,
  "स्टि": 1722,
  "कोह": 1723,
  "एच": 1724,
  "उनसे": 1725,
  "60": 1726,
  "तभी": 1727,
  "मेरी": 1728,
  "सप्ताह": 1729,
  "न्य": 1730,
  "आयोजित": 1731,
  "धिकार": 1732,
  "बाल": 1733,
  "ेक": 1734,
  "स्वयं": 1735,
  "जल्द": 1736,
  "शेयर": 1737,
  "सामा": 1738,
  "समू": 1739,
  "डॉक्टर": 1740,
  "लॉकडाउन": 1741,
  "छता": 1742,
  "लिक": 1743,
  "लक्ष्": 1744,
  "ट्रॉ": 1745,
  "पश्": 1746,
  "निर्णय": 1747,
  "फैसले": 1748,
  "भेजा": 1749,
  "निधि": 1750,
  "समझा": 1751,
  "मंत्रा": 1752,
  "मल": 1753,
  "फाय": 1754,
  "संकट": 1755,
  "वकी": 1756,
  "चन": 1757,
  "श्यक": 1758,
  "हिस्सा": 1759,
  "एसोसिए": 1760,
  "28": 1761,
  "सहा": 1762,
  "वें": 1763,
  "राहुल": 1764,
  "वरि": 1765,
  "बल्ले": 1766,
  "बराम": 1767,
  "बरामद": 1768,
  "जरि": 1769,
  "आंक": 1770,
  "न्याय": 1771,
  "चले": 1772,
  "नेतृ": 1773,
  "अगले": 1774,
  "70": 1775,
  "गये": 1776,
  "खी": 1777,
  "मेल": 1778,
  "श्वर": 1779,
  "टूबर": 1780,
  "कौ": 1781,
  "मॉ": 1782,
  "हालत": 1783,
  "जमीन": 1784,
  "धो": 1785,
  "लिका": 1786,
  "राज्यों": 1787,
  "कदम": 1788,
  "ब्रा": 1789,
  "शक्ति": 1790,
  "हमला": 1791,
  "स्ते": 1792,
  "वाहन": 1793,
  "र्जा": 1794,
  "पालन": 1795,
  "पृ": 1796,
  "खूब": 1797,
  "शिया": 1798,
  "पूजा": 1799,
  "अच्छा": 1800,
  "बेहतर": 1801,
  "गृह": 1802,
  "जाकर": 1803,
  "ऑफ": 1804,
  "धानी": 1805,
  "बनाए": 1806,
  "गौर": 1807,
  "सिटी": 1808,
  "त्री": 1809,
  "त्रों": 1810,
  "आवश्यक": 1811,
  "मंगलवार": 1812,
  "45": 1813,
  "संपत्": 1814,
  "वरिष्ठ": 1815,
  "कमेटी": 1816,
  "मैन": 1817,
  "साद": 1818,
  "सचिव": 1819,
  "र्ष": 1820,
  "दोपह": 1821,
  "दोपहर": 1822,
  "कार्यालय": 1823,
  "जम्": 1824,
  "फरवरी": 1825,
  "धरी": 1826,
  "याचि": 1827,
  "याचिका": 1828,
  "हासिल": 1829,
  "मंजू": 1830,
  "दुकान": 1831,
  "26": 1832,
  "किस": 1833,
  "ड़ने": 1834,
  "आते": 1835,
  "ंडी": 1836,
  "जन्म": 1837,
  "पंजा": 1838,
  "रोड": 1839,
  "कब्": 1840,
  "पर्क": 1841,
  "दर्श": 1842,
  "िता": 1843,
  "विर": 1844,
  "ग्रामीणों": 1845,
  "त्ता": 1846,
  "पढ़ा": 1847,
  "बहन": 1848,
  "देता": 1849,
  "रिकॉ": 1850,
  "निश्": 1851,
  "चरण": 1852,
  "अल": 1853,
  "दाय": 1854,
  "संबं": 1855,
  "राजनीतिक": 1856,
  "घोषित": 1857,
  "लागू": 1858,
  "डीएम": 1859,
  "लीवुड": 1860,
  "आतंक": 1861,
  "रक्षा": 1862,
  "मंत्रालय": 1863,
  "सफा": 1864,
  "माध्य": 1865,
  "ंज": 1866,
  "भु": 1867,
  "क्री": 1868,
  "ह्": 1869,
  "ज़ा": 1870,
  "फ्र": 1871,
  "यार": 1872,
  "केश": 1873,
  "महत्व": 1874,
  "me": 1875,
  "दोस्त": 1876,
  "एसोसिएशन": 1877,
  "श्रे": 1878,
  "गार्": 1879,
  "ड़ों": 1880,
  "हाँ": 1881,
  "संयुक्त": 1882,
  "बल्लेबा": 1883,
  "ग्रह": 1884,
  "द्धा": 1885,
  "जम्मू": 1886,
  "स्थल": 1887,
  "स्ट्रे": 1888,
  "2020": 1889,
  "छू": 1890,
  "वानी": 1891,
  "नेतृत्व": 1892,
  "तय": 1893,
  "उल्": 1894,
  "हल": 1895,
  "वास्त": 1896,
  "बदल": 1897,
  "उम्मीदवार": 1898,
  "वाना": 1899,
  "अक्टूबर": 1900,
  "विक": 1901,
  "अध्या": 1902,
  "द्योग": 1903,
  "ैल": 1904,
  "तरण": 1905,
  "वर्षों": 1906,
  "स्ती": 1907,
  "ल्क": 1908,
  "दिव": 1909,
  "सुनवाई": 1910,
  "पहचान": 1911,
  "कर्ताओं": 1912,
  "राजा": 1913,
  "पान": 1914,
  "ंकन": 1915,
  "अंति": 1916,
  "पुरु": 1917,
  "स्टा": 1918,
  "डाय": 1919,
  "उद्": 1920,
  "रंग": 1921,
  "लौट": 1922,
  "रिकॉर्ड": 1923,
  "80": 1924,
  "विधे": 1925,
  "चिकित्सा": 1926,
  "प्रकाश": 1927,
  "विरा": 1928,
  "मुला": 1929,
  "सहयोग": 1930,
  "चेक": 1931,
  "दृ": 1932,
  "कार्": 1933,
  "विकेट": 1934,
  "बनाकर": 1935,
  "सामान": 1936,
  "शराब": 1937,
  "कन": 1938,
  "पढ़ें": 1939,
  "प्रभावित": 1940,
  "प्रेस": 1941,
  "मुश्": 1942,
  "दिखाई": 1943,
  "समीक्षा": 1944,
  "देर": 1945,
  "नदी": 1946,
  "नुक": 1947,
  "प्रक्रिया": 1948,
  "गार्ड": 1949,
  "मेरा": 1950,
  "वधान": 1951,
  "होकर": 1952,
  "अचान": 1953,
  "अचानक": 1954,
  "ब्ल": 1955,
  "वादी": 1956,
  "चौधरी": 1957,
  "संजय": 1958,
  "किशो": 1959,
  "किसान": 1960,
  "विपक्ष": 1961,
  "भविष": 1962,
  "भविष्य": 1963,
  "गंज": 1964,
  "संक्र": 1965,
  "घरे": 1966,
  "घरेलू": 1967,
  "डाल": 1968,
  "ठीक": 1969,
  "कला": 1970,
  "स्मार्ट": 1971,
  "प्रमाण": 1972,
  "तों": 1973,
  "लाखों": 1974,
  "महाराष्ट्र": 1975,
  "सिंग": 1976,
  "थाने": 1977,
  "विद्य": 1978,
  "जिक": 1979,
  "पंजाब": 1980,
  "वर्त": 1981,
  "तीनों": 1982,
  "विवाद": 1983,
  "मौसम": 1984,
  "बंगा": 1985,
  "करेगी": 1986,
  "नियों": 1987,
  "संपर्क": 1988,
  "प्रदान": 1989,
  "al": 1990,
  "अंतिम": 1991,
  "पुरुष": 1992,
  "दूसरी": 1993,
  "टीवी": 1994,
  "उम": 1995,
  "पॉजि": 1996,
  "याल": 1997,
  "निशा": 1998,
  "नामा": 1999,
  "रोग": 2000,
  "किंग": 2001,
  "हान": 2002,
  "दाम": 2003,
  "धिकारी": 2004,
  "हरिया": 2005,
  "जम": 2006,
  "बॉलीवुड": 2007,
  "सफाई": 2008,
  "जरूरी": 2009,
  "राजधानी": 2010,
  "कोल": 2011,
  "रिंग": 2012,
  "35": 2013,
  "चू": 2014,
  "स्कार": 2015,
  "नेशन": 2016,
  "यूनि": 2017,
  "गतिवि": 2018,
  "अनुम": 2019,
  "अनुमति": 2020,
  "महत्वपूर्ण": 2021,
  "आपकी": 2022,
  "दिशा": 2023,
  "वकील": 2024,
  "ारे": 2025,
  "डीजल": 2026,
  "पुरा": 2027,
  "क्षमता": 2028,
  "सियों": 2029,
  "अशो": 2030,
  "अशोक": 2031,
  "क्रे": 2032,
  "प्रसाद": 2033,
  "जता": 2034,
  "पटना": 2035,
  "राह": 2036,
  "उंड": 2037,
  "शुरुआत": 2038,
  "सिर": 2039,
  "खाद्य": 2040,
  "होम": 2041,
  "ंसी": 2042,
  "यात्रियों": 2043,
  "कने": 2044,
  "लाइट": 2045,
  "प्रस्तु": 2046,
  "सुपर": 2047,
  "उच्च": 2048,
  "प्रशि": 2049,
  "टाइ": 2050,
  "बंगाल": 2051,
  "2019": 2052,
  "बाकी": 2053,
  "बीमारी": 2054,
  "देकर": 2055,
  "कारो": 2056,
  "इंत": 2057,
  "सारे": 2058,
  "आवास": 2059,
  "ठे": 2060,
  "प्रस्ता": 2061,
  "बच्चे": 2062,
  "स्ट्री": 2063,
  "टीका": 2064,
  "निश्चित": 2065,
  "विधेयक": 2066,
  "2017": 2067,
  "वक्त": 2068,
  "नारा": 2069,
  "रहते": 2070,
  "चै": 2071,
  "इतना": 2072,
  "शिप": 2073,
  "तरीके": 2074,
  "गेंद": 2075,
  "वजूद": 2076,
  "फॉ": 2077,
  "किये": 2078,
  "संभव": 2079,
  "मेश": 2080,
  "तलब": 2081,
  "ग्रे": 2082,
  "मुक्त": 2083,
  "बारा": 2084,
  "मिलेगा": 2085,
  "नुकसान": 2086,
  "देंगे": 2087,
  "दीप": 2088,
  "बेहद": 2089,
  "शरी": 2090,
  "क्षकों": 2091,
  "बर्": 2092,
  "मैदान": 2093,
  "असल": 2094,
  "वाहनों": 2095,
  "भोपाल": 2096,
  "दिग्": 2097,
  "संक्रमित": 2098,
  "or": 2099,
  "ील": 2100,
  "क्कर": 2101,
  "चर": 2102,
  "ढा": 2103,
  "वृद्धि": 2104,
  "चालक": 2105,
  "गरीब": 2106,
  "सफलता": 2107,
  "पें": 2108,
  "गाइड": 2109,
  "सुधार": 2110,
  "पाठ": 2111,
  "सामाजिक": 2112,
  "हटाने": 2113,
  "निका": 2114,
  "वर्तमान": 2115,
  "रहेगा": 2116,
  "ंभ": 2117,
  "शित": 2118,
  "लिंग": 2119,
  "सिद्ध": 2120,
  "क्षेत्रों": 2121,
  "लियों": 2122,
  "तत्": 2123,
  "चलाने": 2124,
  "प्य": 2125,
  "म्मे": 2126,
  "परिणा": 2127,
  "परिणाम": 2128,
  "डिंग": 2129,
  "मृत्य": 2130,
  "मृत्यु": 2131,
  "पैदा": 2132,
  "भूमिका": 2133,
  "कहते": 2134,
  "शिविर": 2135,
  "सितंबर": 2136,
  "हल्": 2137,
  "परियोजना": 2138,
  "खिलाड़ी": 2139,
  "मज": 2140,
  "विराट": 2141,
  "उत्तरा": 2142,
  "मजबूत": 2143,
  "केन्द्र": 2144,
  "हरियाणा": 2145,
  "वत": 2146,
  "समर्थन": 2147,
  "बिल्": 2148,
  "कले": 2149,
  "प्रतिनिधि": 2150,
  "कही": 2151,
  "आखि": 2152,
  "माध्यम": 2153,
  "ंसा": 2154,
  "बावजूद": 2155,
  "प्रदू": 2156,
  "प्रदूषण": 2157,
  "आन": 2158,
  "ड़ियों": 2159,
  "हिंद": 2160,
  "पश्चि": 2161,
  "पार्क": 2162,
  "देखने": 2163,
  "पियों": 2164,
  "किल": 2165,
  "अथवा": 2166,
  "गैस": 2167,
  "दावा": 2168,
  "श्या": 2169,
  "टरी": 2170,
  "मिनट": 2171,
  "करेगा": 2172,
  "कर्मियों": 2173,
  "आतंकियों": 2174,
  "कक्षा": 2175,
  "स्टेशन": 2176,
  "बाबा": 2177,
  "मुकाबले": 2178,
  "घे": 2179,
  "दिख": 2180,
  "तलाश": 2181,
  "शानदार": 2182,
  "केस": 2183,
  "अपील": 2184,
  "अर": 2185,
  "पदा": 2186,
  "चार्": 2187,
  "2018": 2188,
  "आती": 2189,
  "धिक": 2190,
  "अपराधियों": 2191,
  "तैना": 2192,
  "रिक्त": 2193,
  "अंदर": 2194,
  "ार्थियों": 2195,
  "अप्र": 2196,
  "समूह": 2197,
  "वितरण": 2198,
  "उससे": 2199,
  "तियों": 2200,
  "छि": 2201,
  "खुला": 2202,
  "झार": 2203,
  "सों": 2204,
  "हमे": 2205,
  "तिथि": 2206,
  "ट्रेन": 2207,
  "उत्पादन": 2208,
  "एसपी": 2209,
  "मंजूरी": 2210,
  "सिले": 2211,
  "कर्मचार": 2212,
  "कर्मचारियों": 2213,
  "साय": 2214,
  "ऊर्जा": 2215,
  "निदेश": 2216,
  "न्यायालय": 2217,
  "पॉजिटिव": 2218,
  "ज्य": 2219,
  "सेंटर": 2220,
  "जरूर": 2221,
  "एसी": 2222,
  "कैंसर": 2223,
  "रॉ": 2224,
  "महामारी": 2225,
  "जवानों": 2226,
  "आसपास": 2227,
  "ऊपर": 2228,
  "मिट": 2229,
  "पुल": 2230,
  "सोन": 2231,
  "विदेश": 2232,
  "चिं": 2233,
  "ूड": 2234,
  "संदेश": 2235,
  "सार्": 2236,
  "अजय": 2237,
  "छत्": 2238,
  "तीसगढ़": 2239,
  "टिकट": 2240,
  "पृष्ठ": 2241,
  "पकड़": 2242,
  "क्रिय": 2243,
  "सैं": 2244,
  "नया": 2245,
  "ट्रांस": 2246,
  "49": 2247,
  "बीते": 2248,
  "अंतरराष्ट्रीय": 2249,
  "बारिश": 2250,
  "पर्या": 2251,
  "गौरतलब": 2252,
  "सामना": 2253,
  "सोच": 2254,
  "ट्रो": 2255,
  "कमा": 2256,
  "तापमान": 2257,
  "रल": 2258,
  "सत्र": 2259,
  "ियां": 2260,
  "रोहित": 2261,
  "टीएम": 2262,
  "बलों": 2263,
  "दूसरा": 2264,
  "बिग": 2265,
  "ट्टी": 2266,
  "नती": 2267,
  "लगाए": 2268,
  "पाई": 2269,
  "लोकसभा": 2270,
  "सुरक्षित": 2271,
  "सीसी": 2272,
  "बरा": 2273,
  "ओवर": 2274,
  "कोहली": 2275,
  "वाही": 2276,
  "नवं": 2277,
  "नवंबर": 2278,
  "चढ़": 2279,
  "भवन": 2280,
  "हता": 2281,
  "बातची": 2282,
  "बातचीत": 2283,
  "बेटी": 2284,
  "जनवरी": 2285,
  "गीत": 2286,
  "हड़": 2287,
  "ऑन": 2288,
  "नोट": 2289,
  "मस्": 2290,
  "लेना": 2291,
  "di": 2292,
  "वक्ता": 2293,
  "टेड": 2294,
  "हाला": 2295,
  "माइ": 2296,
  "प्रशिक्षण": 2297,
  "मतदान": 2298,
  "इन्": 2299,
  "फाइन": 2300,
  "ट्रक": 2301,
  "किलोमीटर": 2302,
  "धार्": 2303,
  "रायपुर": 2304,
  "ड्": 2305,
  "निदेशक": 2306,
  "लियन": 2307,
  "बत": 2308,
  "जिम्मे": 2309,
  "मिश्रा": 2310,
  "मास्क": 2311,
  "संभावना": 2312,
  "भागी": 2313,
  "जैसी": 2314,
  "जानते": 2315,
  "प्रयोग": 2316,
  "नक्स": 2317,
  "छत्तीसगढ़": 2318,
  "आत्म": 2319,
  "रोकने": 2320,
  "लाना": 2321,
  "गेंदबा": 2322,
  "आता": 2323,
  "प्रभारी": 2324,
  "गाय": 2325,
  "शांत": 2326,
  "कात": 2327,
  "ब्रि": 2328,
  "जब्": 2329,
  "शर": 2330,
  "थम": 2331,
  "तान": 2332,
  "नित": 2333,
  "ईडी": 2334,
  "खार": 2335,
  "गंगा": 2336,
  "इलाके": 2337,
  "नशे": 2338,
  "उसमें": 2339,
  "कपूर": 2340,
  "लड़ा": 2341,
  "िका": 2342,
  "नियमित": 2343,
  "लागत": 2344,
  "मंत्रि": 2345,
  "मंत्रिमंडल": 2346,
  "न्स": 2347,
  "श्याम": 2348,
  "सूत्रों": 2349,
  "दय": 2350,
  "जैन": 2351,
  "अग्र": 2352,
  "तिवारी": 2353,
  "ंदन": 2354,
  "बल्लेबाज": 2355,
  "चुनौ": 2356,
  "जरिए": 2357,
  "रेश": 2358,
  "खराब": 2359,
  "ऑफि": 2360,
  "श्न": 2361,
  "जाय": 2362,
  "वॉ": 2363,
  "वास्तव": 2364,
  "मूल्य": 2365,
  "टेल": 2366,
  "राजीव": 2367,
  "दिल": 2368,
  "लहाल": 2369,
  "मौका": 2370,
  "लेट": 2371,
  "आर्": 2372,
  "ंडे": 2373,
  "शाला": 2374,
  "कानपुर": 2375,
  "अतिरिक्त": 2376,
  "बचाव": 2377,
  "संबंधित": 2378,
  "अप्रैल": 2379,
  "एंड": 2380,
  "जिसका": 2381,
  "जाएं": 2382,
  "चौक": 2383,
  "्राम": 2384,
  "31": 2385,
  "कड़ी": 2386,
  "गाड़ी": 2387,
  "रखे": 2388,
  "90": 2389,
  "स्टो": 2390,
  "आतंकी": 2391,
  "हमेशा": 2392,
  "मल्": 2393,
  "दास": 2394,
  "पन्न": 2395,
  "वार्ड": 2396,
  "तुल": 2397,
  "रहता": 2398,
  "रास्ते": 2399,
  "धार्मिक": 2400,
  "आवाज": 2401,
  "निप": 2402,
  "माता": 2403,
  "दावे": 2404,
  "अक्ष": 2405,
  "कारों": 2406,
  "पूछता": 2407,
  "मनोज": 2408,
  "आरोपियों": 2409,
  "संवाद": 2410,
  "दाता": 2411,
  "केत": 2412,
  "षद": 2413,
  "ic": 2414,
  "ड्रा": 2415,
  "सार्वज": 2416,
  "लैक": 2417,
  "चौहान": 2418,
  "यालयों": 2419,
  "दुष्": 2420,
  "केशन": 2421,
  "हमारी": 2422,
  "मुलाकात": 2423,
  "दाबाद": 2424,
  "लिटी": 2425,
  "दक्ष": 2426,
  "सागर": 2427,
  "36": 2428,
  "साइट": 2429,
  "राग": 2430,
  "नाक": 2431,
  "ंट": 2432,
  "रित": 2433,
  "विमान": 2434,
  "सील": 2435,
  "अली": 2436,
  "परमाण": 2437,
  "परमाणु": 2438,
  "गतिविधियों": 2439,
  "सिडी": 2440,
  "हाउस": 2441,
  "जोर": 2442,
  "सख्": 2443,
  "वैध": 2444,
  "शिक्षकों": 2445,
  "चेयर": 2446,
  "बरी": 2447,
  "सर्च": 2448,
  "पश्चिम": 2449,
  "मच": 2450,
  "जाग": 2451,
  "चली": 2452,
  "नवा": 2453,
  "दौर": 2454,
  "दरअसल": 2455,
  "सलाह": 2456,
  "सरों": 2457,
  "भाषा": 2458,
  "फरार": 2459,
  "ंग्": 2460,
  "जेक्ट": 2461,
  "साह": 2462,
  "जुट": 2463,
  "ेंस": 2464,
  "थोड़ा": 2465,
  "खत्म": 2466,
  "स्ट्रेलिया": 2467,
  "वारा": 2468,
  "सदस्यों": 2469,
  "मर्": 2470,
  "छोटे": 2471,
  "बेड": 2472,
  "राज्यपाल": 2473,
  "आगा": 2474,
  "कमल": 2475,
  "फिलहाल": 2476,
  "ध्": 2477,
  "सैन्य": 2478,
  "नल": 2479,
  "बहा": 2480,
  "सीबी": 2481,
  "चारी": 2482,
  "कराई": 2483,
  "ऑनलाइन": 2484,
  "समाप्त": 2485,
  "मिति": 2486,
  "लंबे": 2487,
  "क्रा": 2488,
  "नही": 2489,
  "हेतु": 2490,
  "निए": 2491,
  "नीचे": 2492,
  "प्लां": 2493,
  "यानी": 2494,
  "शांति": 2495,
  "आय": 2496,
  "सजा": 2497,
  "क्रो": 2498,
  "झारखंड": 2499,
  "धम": 2500,
  "विरो": 2501,
  "निवेश": 2502,
  "बंदी": 2503,
  "अवधि": 2504,
  "कंपनियों": 2505,
  "तैनात": 2506,
  "शील": 2507,
  "कारोबार": 2508,
  "वली": 2509,
  "कौन": 2510,
  "नै": 2511,
  "आरोपित": 2512,
  "केदार": 2513,
  "उत्तराखंड": 2514,
  "खड़े": 2515,
  "न्ना": 2516,
  "ेंज": 2517,
  "भरो": 2518,
  "यद": 2519,
  "अमित": 2520,
  "महो": 2521,
  "पूछताछ": 2522,
  "उसी": 2523,
  "दौरे": 2524,
  "चारों": 2525,
  "पालिका": 2526,
  "अधी": 2527,
  "आंद": 2528,
  "आंदोल": 2529,
  "आंदोलन": 2530,
  "ak": 2531,
  "कर्ज": 2532,
  "सांसद": 2533,
  "नामांकन": 2534,
  "मनी": 2535,
  "tr": 2536,
  "सवार": 2537,
  "ट्वी": 2538,
  "सार्वजनिक": 2539,
  "टीकाकरण": 2540,
  "दुका": 2541,
  "हिसाब": 2542,
  "ट्रै": 2543,
  "छूट": 2544,
  "शुभ": 2545,
  "आउ": 2546,
  "लक्ष्मी": 2547,
  "ट्वि": 2548,
  "विषय": 2549,
  "रुख": 2550,
  "तीश": 2551,
  "मात्रा": 2552,
  "निरी": 2553,
  "देना": 2554,
  "सक्रिय": 2555,
  "बनने": 2556,
  "सुप्री": 2557,
  "बिल्कुल": 2558,
  "ढ़ी": 2559,
  "खतरा": 2560,
  "एजेंसी": 2561,
  "मिलकर": 2562,
  "वायु": 2563,
  "कथ": 2564,
  "पारी": 2565,
  "खाते": 2566,
  "झू": 2567,
  "वेब": 2568,
  "हरे": 2569,
  "एक्": 2570,
  "चिकित्सक": 2571,
  "इल": 2572,
  "चयन": 2573,
  "कृष्ण": 2574,
  "नौकरी": 2575,
  "जुड़ी": 2576,
  "ंदगी": 2577,
  "जगहों": 2578,
  "सहम": 2579,
  "कीमतों": 2580,
  "नियंत्र": 2581,
  "कृतिक": 2582,
  "रहीं": 2583,
  "घू": 2584,
  "जाये": 2585,
  "अवैध": 2586,
  "ईओ": 2587,
  "चेयरमैन": 2588,
  "रूक": 2589,
  "नागरिक": 2590,
  "हम्": 2591,
  "हथि": 2592,
  "हथियार": 2593,
  "लपुर": 2594,
  "एयरपोर्ट": 2595,
  "दस्ता": 2596,
  "वेज": 2597,
  "पीएस": 2598,
  "प्रताप": 2599,
  "ब्यू": 2600,
  "मगर": 2601,
  "पेट": 2602,
  "देगा": 2603,
  "42": 2604,
  "मारा": 2605,
  "जनपद": 2606,
  "बारी": 2607,
  "टक्कर": 2608,
  "निकलने": 2609,
  "उपस्थित": 2610,
  "जुर्": 2611,
  "सहाय": 2612,
  "समिति": 2613,
  "धिकारियों": 2614,
  "मिमी": 2615,
  "मिलेगी": 2616,
  "इम": 2617,
  "तकों": 2618,
  "इन्हें": 2619,
  "कर्मचारी": 2620,
  "परेशा": 2621,
  "प्रत्येक": 2622,
  "पात": 2623,
  "सिया": 2624,
  "मुकद": 2625,
  "दोष": 2626,
  "पुरानी": 2627,
  "राबाद": 2628,
  "गुज": 2629,
  "गुजरात": 2630,
  "चलने": 2631,
  "वर्ग": 2632,
  "मोहन": 2633,
  "दों": 2634,
  "रवाना": 2635,
  "मुना": 2636,
  "एक्सप्रेस": 2637,
  "आसान": 2638,
  "विल": 2639,
  "आद": 2640,
  "सरदार": 2641,
  "जवान": 2642,
  "पहल": 2643,
  "कार्यकर्ताओं": 2644,
  "दबाव": 2645,
  "खरीदने": 2646,
  "रिश्": 2647,
  "प्रावधान": 2648,
  "प्रस्ताव": 2649,
  "पण": 2650,
  "संकेत": 2651,
  "बें": 2652,
  "29": 2653,
  "वनी": 2654,
  "अपराध": 2655,
  "राजस्व": 2656,
  "Re": 2657,
  "स्टॉ": 2658,
  "चिंता": 2659,
  "र्ति": 2660,
  "प्यार": 2661,
  "पंचायतों": 2662,
  "हाइड": 2663,
  "हाइड्र": 2664,
  "फ्ट": 2665,
  "मार्च": 2666,
  "उड़ा": 2667,
  "आउट": 2668,
  "अपराधी": 2669,
  "अनि": 2670,
  "सीरीज": 2671,
  "रं": 2672,
  "चोरी": 2673,
  "जिद": 2674,
  "चुनावी": 2675,
  "साव": 2676,
  "वार्ता": 2677,
  "कॉलो": 2678,
  "ha": 2679,
  "चंद्रशे": 2680,
  "चंद्रशेखर": 2681,
  "बाग": 2682,
  "इतनी": 2683,
  "ट्री": 2684,
  "कलेक्टर": 2685,
  "दक्षि": 2686,
  "एंगे": 2687,
  "पैसे": 2688,
  "प्रती": 2689,
  "टर्": 2690,
  "दस": 2691,
  "कोलका": 2692,
  "कोलकाता": 2693,
  "भले": 2694,
  "गन": 2695,
  "वीन": 2696,
  "रखते": 2697,
  "र्डर": 2698,
  "नेह": 2699,
  "जुन": 2700,
  "शिल्": 2701,
  "चार्य": 2702,
  "मौजू": 2703,
  "मौजूदा": 2704,
  "लड़ाई": 2705,
  "मुश्किल": 2706,
  "स्वच्": 2707,
  "विवे": 2708,
  "बनाना": 2709,
  "निर्वा": 2710,
  "कल्प": 2711,
  "पड़े": 2712,
  "संपत्ति": 2713,
  "कमि": 2714,
  "नियर": 2715,
  "निरा": 2716,
  "टीन": 2717,
  "पथ": 2718,
  "साबित": 2719,
  "निजी": 2720,
  "रक्त": 2721,
  "क्सि": 2722,
  "जताई": 2723,
  "चुनौती": 2724,
  "जागरूक": 2725,
  "मोहम्": 2726,
  "मोहम्मद": 2727,
  "वादियों": 2728,
  "गिरा": 2729,
  "मारे": 2730,
  "रूम": 2731,
  "जून": 2732,
  "टेक": 2733,
  "शोध": 2734,
  "कोर": 2735,
  "आकर": 2736,
  "av": 2737,
  "सानी": 2738,
  "टॉप": 2739,
  "दवा": 2740,
  "चंडी": 2741,
  "चार्ज": 2742,
  "ग्राह": 2743,
  "परेशन": 2744,
  "सहायता": 2745,
  "नियुक्त": 2746,
  "अध्य": 2747,
  "क्कत": 2748,
  "आरटी": 2749,
  "क्वार": 2750,
  "निस्तान": 2751,
  "टिल": 2752,
  "विता": 2753,
  "प्रवक्ता": 2754,
  "लूट": 2755,
  "हालात": 2756,
  "शुल्क": 2757,
  "तंत्र": 2758,
  "आरएस": 2759,
  "आजा": 2760,
  "गणना": 2761,
  "गह": 2762,
  "आएगी": 2763,
  "खुलासा": 2764,
  "85": 2765,
  "आयु": 2766,
  "स्तार": 2767,
  "सच": 2768,
  "संर": 2769,
  "मॉडल": 2770,
  "समर्": 2771,
  "रोजग": 2772,
  "अभ": 2773,
  "ट्रंप": 2774,
  "यात": 2775,
  "ंची": 2776,
  "प्रशा": 2777,
  "सूरत": 2778,
  "पत": 2779,
  "अम": 2780,
  "तहरी": 2781,
  "लक्ष्य": 2782,
  "2015": 2783,
  "मिशन": 2784,
  "आत्": 2785,
  "युवाओं": 2786,
  "टिक": 2787,
  "दाखिल": 2788,
  "ग्रु": 2789,
  "ग्रुप": 2790,
  "पाने": 2791,
  "नाइ": 2792,
  "मानना": 2793,
  "तुर": 2794,
  "सव": 2795,
  "आना": 2796,
  "आश्": 2797,
  "पीट": 2798,
  "ंडा": 2799,
  "अंतर्": 2800,
  "कृत": 2801,
  "परिषद": 2802,
  "ग़": 2803,
  "प्रत्या": 2804,
  "2014": 2805,
  "ढ़े": 2806,
  "अर्थ": 2807,
  "जनक": 2808,
  "लाया": 2809,
  "38": 2810,
  "बीन": 2811,
  "मूर्ति": 2812,
  "फ़र": 2813,
  "झु": 2814,
  "मनु": 2815,
  "ष्य": 2816,
  "गुण": 2817,
  "कॉन्": 2818,
  "विरोधी": 2819,
  "मला": 2820,
  "मनाली": 2821,
  "बादी": 2822,
  "सीधे": 2823,
  "मक": 2824,
  "सिविल": 2825,
  "हादसे": 2826,
  "हरण": 2827,
  "दारों": 2828,
  "भीड़": 2829,
  "सुनिश्चित": 2830,
  "दर्द": 2831,
  "इंस्पे": 2832,
  "डु": 2833,
  "बिनेट": 2834,
  "जैसा": 2835,
  "गैर": 2836,
  "रहना": 2837,
  "जमकर": 2838,
  "गेट": 2839,
  "समस्याओं": 2840,
  "सैंपल": 2841,
  "टीज": 2842,
  "परिवर्": 2843,
  "परिवर्तन": 2844,
  "बद्ध": 2845,
  "कथित": 2846,
  "आईएम": 2847,
  "क़ा": 2848,
  "काउंट": 2849,
  "शाखा": 2850,
  "प्रथम": 2851,
  "वेबसाइट": 2852,
  "सामान्य": 2853,
  "धारण": 2854,
  "बढ़ाने": 2855,
  "इंडि": 2856,
  "ंद्रा": 2857,
  "निंग": 2858,
  "वित्": 2859,
  "शौ": 2860,
  "भ्र": 2861,
  "बाई": 2862,
  "दायर": 2863,
  "निर्वाचन": 2864,
  "समक्ष": 2865,
  "दोबारा": 2866,
  "गर्म": 2867,
  "वासियों": 2868,
  "शारी": 2869,
  "शारीरिक": 2870,
  "मानसिक": 2871,
  "रखें": 2872,
  "पदों": 2873,
  "लान": 2874,
  "शरीर": 2875,
  "प्रॉ": 2876,
  "गोली": 2877,
  "दूरी": 2878,
  "मुस्": 2879,
  "मुद्दे": 2880,
  "उठ": 2881,
  "आखिरी": 2882,
  "स्टार": 2883,
  "कितना": 2884,
  "जोशी": 2885,
  "तीसरे": 2886,
  "ूर": 2887,
  "तमाम": 2888,
  "आरक्षण": 2889,
  "उनको": 2890,
  "वैसे": 2891,
  "धीरे": 2892,
  "लीज": 2893,
  "मुंह": 2894,
  "अन्": 2895,
  "पटेल": 2896,
  "मध्यप्रदेश": 2897,
  "अध्यक्षता": 2898,
  "महंगा": 2899,
  "जर्": 2900,
  "श्रद्धा": 2901,
  "अयो": 2902,
  "बां": 2903,
  "पीएल": 2904,
  "तोष": 2905,
  "शही": 2906,
  "शहीद": 2907,
  "पने": 2908,
  "स्टेट": 2909,
  "पिक": 2910,
  "सीआर": 2911,
  "ंटा": 2912,
  "भीतर": 2913,
  "तिहा": 2914,
  "चाहे": 2915,
  "विद्यार्थियों": 2916,
  "em": 2917,
  "सुझा": 2918,
  "प्लांट": 2919,
  "यूं": 2920,
  "एमसी": 2921,
  "परेशानी": 2922,
  "चावल": 2923,
  "इसको": 2924,
  "निगरानी": 2925,
  "संबो": 2926,
  "मिलना": 2927,
  "सेव": 2928,
  "मधु": 2929,
  "आपरा": 2930,
  "आपराधिक": 2931,
  "मिलता": 2932,
  "निकले": 2933,
  "वसू": 2934,
  "जापान": 2935,
  "पौ": 2936,
  "मल्टी": 2937,
  "प्रत्यक्ष": 2938,
  "रोजगार": 2939,
  "शक": 2940,
  "घुस": 2941,
  "दीन": 2942,
  "2013": 2943,
  "डेट": 2944,
  "उम्र": 2945,
  "शह": 2946,
  "छोटी": 2947,
  "म्यू": 2948,
  "बम": 2949,
  "स्वागत": 2950,
  "सराय": 2951,
  "सली": 2952,
  "सम्मेल": 2953,
  "सम्मेलन": 2954,
  "स्थापित": 2955,
  "अंदा": 2956,
  "द्द": 2957,
  "ताल": 2958,
  "सूर्": 2959,
  "फैल": 2960,
  "मजबूर": 2961,
  "हार्": 2962,
  "खत": 2963,
  "पर्यटक": 2964,
  "शनी": 2965,
  "बढ़ते": 2966,
  "निंदा": 2967,
  "तुरंत": 2968,
  "उपचार": 2969,
  "स्थानों": 2970,
  "कॉल": 2971,
  "चंडीगढ़": 2972,
  "भरोसा": 2973,
  "हाईकोर्ट": 2974,
  "सत्ता": 2975,
  "सड़कों": 2976,
  "मार्टम": 2977,
  "जोड़ी": 2978,
  "जरी": 2979,
  "हराया": 2980,
  "फर्": 2981,
  "लगाई": 2982,
  "सिस्ट": 2983,
  "न्होंने": 2984,
  "व्यू": 2985,
  "तस्वीरें": 2986,
  "नीत": 2987,
  "एशिया": 2988,
  "आदित्य": 2989,
  "कोर्स": 2990,
  "र्द": 2991,
  "ट्वीट": 2992,
  "हिंसा": 2993,
  "विश्वास": 2994,
  "रावत": 2995,
  "वैज्ञा": 2996,
  "दुकानों": 2997,
  "प्रभाव": 2998,
  "स्टर": 2999,
  "दिवस": 3000,
  "सिने": 3001,
  "सिनेमा": 3002,
  "oc": 3003,
  "ow": 3004,
  "इतने": 3005,
  "पढ़ाई": 3006,
  "आकर्": 3007,
  "विश्वविद्यालय": 3008,
  "ब्लैक": 3009,
  "as": 3010,
  "धारा": 3011,
  "क्लब": 3012,
  "64": 3013,
  "आबादी": 3014,
  "आइए": 3015,
  "रैली": 3016,
  "शाहरुख": 3017,
  "कप्ता": 3018,
  "कप्तान": 3019,
  "महिलाएं": 3020,
  "मनाया": 3021,
  "गिरि": 3022,
  "म्स": 3023,
  "जानिए": 3024,
  "ल्ला": 3025,
  "पीड़ित": 3026,
  "किशोरी": 3027,
  "इयों": 3028,
  "किड": 3029,
  "कॉलोनी": 3030,
  "ओम": 3031,
  "बच": 3032,
  "जंग": 3033,
  "नाराज": 3034,
  "कैबिनेट": 3035,
  "उनमें": 3036,
  "सलों": 3037,
  "सकें": 3038,
  "पुष्टि": 3039,
  "सालों": 3040,
  "व्यक्त": 3041,
  "चालित": 3042,
  "जब्त": 3043,
  "आंख": 3044,
  "फर्जी": 3045,
  "जिसकी": 3046,
  "तह": 3047,
  "पर्याप्त": 3048,
  "इंडियन": 3049,
  "वर्सिटी": 3050,
  "बेटे": 3051,
  "कूल": 3052,
  "आईए": 3053,
  "रखी": 3054,
  "सब्सिडी": 3055,
  "करनी": 3056,
  "लड़कियों": 3057,
  "अने": 3058,
  "ज्ञापन": 3059,
  "कठ": 3060,
  "प्रिय": 3061,
  "देखकर": 3062,
  "अग्रवाल": 3063,
  "एनएस": 3064,
  "इच्": 3065,
  "लॉन्": 3066,
  "रक": 3067,
  "खेती": 3068,
  "एनकाउं": 3069,
  "एनकाउंटर": 3070,
  "शंकर": 3071,
  "ज़र": 3072,
  "प्रोजेक्ट": 3073,
  "सीटों": 3074,
  "गोल": 3075,
  "नक": 3076,
  "्यु": 3077,
  "ॉन": 3078,
  "फ्तार": 3079,
  "मैचों": 3080,
  "महसू": 3081,
  "महसूस": 3082,
  "तकनी": 3083,
  "पहुंचने": 3084,
  "आसानी": 3085,
  "हंगा": 3086,
  "देती": 3087,
  "लड़की": 3088,
  "लियर": 3089,
  "गरीबों": 3090,
  "सेल": 3091,
  "पैड": 3092,
  "चौकी": 3093,
  "निकों": 3094,
  "संभा": 3095,
  "लेन": 3096,
  "नोए": 3097,
  "नोएडा": 3098,
  "2016": 3099,
  "हफ्": 3100,
  "ौल": 3101,
  "बिक्री": 3102,
  "नियु": 3103,
  "इनके": 3104,
  "टियों": 3105,
  "बनाई": 3106,
  "अफगा": 3107,
  "अफगानिस्तान": 3108,
  "लायक": 3109,
  "सीख": 3110,
  "प्रस्तुत": 3111,
  "ion": 3112,
  "सुझाव": 3113,
  "दक": 3114,
  "संस्": 3115,
  "गिरफ्तारी": 3116,
  "फाइनल": 3117,
  "वित्त": 3118,
  "धमकी": 3119,
  "मृत": 3120,
  "हवाई": 3121,
  "मानित": 3122,
  "ol": 3123,
  "ch": 3124,
  "is": 3125,
  "जागर": 3126,
  "नय": 3127,
  "डीए": 3128,
  "it": 3129,
  "मंच": 3130,
  "कालीन": 3131,
  "लीला": 3132,
  "सेवन": 3133,
  "शंका": 3134,
  "अकाली": 3135,
  "वां": 3136,
  "कीय": 3137,
  "तहरीर": 3138,
  "सहमति": 3139,
  "छात्राओं": 3140,
  "रिमा": 3141,
  "कमरे": 3142,
  "पंच": 3143,
  "गांवों": 3144,
  "रोशनी": 3145,
  "इंतजार": 3146,
  "लंब": 3147,
  "शायद": 3148,
  "सफर": 3149,
  "नन": 3150,
  "न्हा": 3151,
  "फुट": 3152,
  "अच्छे": 3153,
  "रोज": 3154,
  "समीप": 3155,
  "अधीक्षक": 3156,
  "वारदा": 3157,
  "वारदात": 3158,
  "पोस्टमार्टम": 3159,
  "गोवा": 3160,
  "सुना": 3161,
  "आपने": 3162,
  "el": 3163,
  "विष्ण": 3164,
  "पियन": 3165,
  "योगदान": 3166,
  "नयी": 3167,
  "खुल": 3168,
  "अंतर्गत": 3169,
  "क्षी": 3170,
  "गार": 3171,
  "वाने": 3172,
  "मुकदमा": 3173,
  "बान": 3174,
  "ड्यू": 3175,
  "पावर": 3176,
  "गणेश": 3177,
  "जानने": 3178,
  "सबुक": 3179,
  "सूचित": 3180,
  "ur": 3181,
  "यण": 3182,
  "द्रा": 3183,
  "एप्": 3184,
  "प्रत्याशी": 3185,
  "चित्र": 3186,
  "वर्ड": 3187,
  "बोल": 3188,
  "फायदा": 3189,
  "en": 3190,
  "अयोध्या": 3191,
  "एडमिट": 3192,
  "रोहता": 3193,
  "रोहतांग": 3194,
  "मद्": 3195,
  "मद्दे": 3196,
  "मद्देनजर": 3197,
  "दून": 3198,
  "क्का": 3199,
  "समुदाय": 3200,
  "जिलों": 3201,
  "ज़ि": 3202,
  "डायबि": 3203,
  "ऑस्ट्रेलिया": 3204,
  "कानूनी": 3205,
  "संशो": 3206,
  "बचने": 3207,
  "उपाय": 3208,
  "अनिल": 3209,
  "ot": 3210,
  "पहुंचाया": 3211,
  "लुक": 3212,
  "गिराव": 3213,
  "गिरावट": 3214,
  "मुख्यालय": 3215,
  "दुष्कर्म": 3216,
  "साथी": 3217,
  "इंस्पेक्टर": 3218,
  "प्रतियोग": 3219,
  "अक्षय": 3220,
  "ट्रॉफी": 3221,
  "टैं": 3222,
  "ज़ार": 3223,
  "पर्व": 3224,
  "गोल्ड": 3225,
  "डें": 3226,
  "डेंगू": 3227,
  "मिठा": 3228,
  "गलत": 3229,
  "शीर्ष": 3230,
  "अंग": 3231,
  "ब्बत": 3232,
  "मस्जिद": 3233,
  "इस्ती": 3234,
  "बाजी": 3235,
  "बैठे": 3236,
  "ल्स": 3237,
  "मुकाबला": 3238,
  "चीनी": 3239,
  "अमेरिकी": 3240,
  "सर्वे": 3241,
  "दक्षिण": 3242,
  "अकाउंट": 3243,
  "बड़": 3244,
  "प्रबंध": 3245,
  "तिक": 3246,
  "47": 3247,
  "क्ला": 3248,
  "ट्रि": 3249,
  "कोट": 3250,
  "्री": 3251,
  "चाहता": 3252,
  "रमेश": 3253,
  "पुरस्कार": 3254,
  "अर्जुन": 3255,
  "सिस": 3256,
  "यूनिवर्सिटी": 3257,
  "खिलाड़ियों": 3258,
  "सामग्री": 3259,
  "जाति": 3260,
  "रेखा": 3261,
  "नेहा": 3262,
  "म्प": 3263,
  "नियंत्रण": 3264,
  "सेल्": 3265,
  "केरल": 3266,
  "प्राप्": 3267,
  "दोस्तों": 3268,
  "घूम": 3269,
  "सर्व": 3270,
  "सब्जी": 3271,
  "दम": 3272,
  "टकों": 3273,
  "इंद": 3274,
  "गज": 3275,
  "जोन": 3276,
  "क्रिके": 3277,
  "क्रिकेटर": 3278,
  "सौर": 3279,
  "फ़ी": 3280,
  "आग्रह": 3281,
  "गईं": 3282,
  "लॉन्च": 3283,
  "दत्त": 3284,
  "बेहत": 3285,
  "बेहतरी": 3286,
  "तारीख": 3287,
  "प्लान": 3288,
  "मांगी": 3289,
  "बिल": 3290,
  "फसल": 3291,
  "रोल": 3292,
  "आएगा": 3293,
  "महज": 3294,
  "रफ्तार": 3295,
  "लगता": 3296,
  "वाराण": 3297,
  "वाराणसी": 3298,
  "रेफर": 3299,
  "सदन": 3300,
  "उम्मीदवारों": 3301,
  "सोई": 3302,
  "69": 3303,
  "दित": 3304,
  "तुम्": 3305,
  "पहन": 3306,
  "उसको": 3307,
  "हारी": 3308,
  "आधारित": 3309,
  "घाट": 3310,
  "पुरी": 3311,
  "परिसर": 3312,
  "नाव": 3313,
  "एसटी": 3314,
  "स्पी": 3315,
  "खाली": 3316,
  "अमर": 3317,
  "सेक्टर": 3318,
  "लोन": 3319,
  "हिर": 3320,
  "माहौल": 3321,
  "नाटक": 3322,
  "नियुक्ति": 3323,
  "पदाधिकारियों": 3324,
  "सीजन": 3325,
  "अनिवार": 3326,
  "अनिवार्य": 3327,
  "क्वारंटा": 3328,
  "सौंप": 3329,
  "राहत": 3330,
  "हमारा": 3331,
  "इतिहा": 3332,
  "इतिहास": 3333,
  "विज्ञान": 3334,
  "व्यवह": 3335,
  "व्यवहार": 3336,
  "शै": 3337,
  "साझा": 3338,
  "निकाली": 3339,
  "तें": 3340,
  "लेंस": 3341,
  "धारी": 3342,
  "कैंप": 3343,
  "बदमा": 3344,
  "बदमाश": 3345,
  "अरवि": 3346,
  "एसडी": 3347,
  "जिश": 3348,
  "मरा": 3349,
  "इंग्": 3350,
  "बताई": 3351,
  "एमजी": 3352,
  "ेंड": 3353,
  "प्रसिद्ध": 3354,
  "विस्तार": 3355,
  "पेड़": 3356,
  "धोनी": 3357,
  "उत्पन्न": 3358,
  "्यास": 3359,
  "फिया": 3360,
  "श्रीवास्तव": 3361,
  "स्कूलों": 3362,
  "ज्यादातर": 3363,
  "सेले": 3364,
  "होनी": 3365,
  "57": 3366,
  "प्रशास": 3367,
  "प्रशासनिक": 3368,
  "ग्रस्त": 3369,
  "मंड": 3370,
  "उद्योग": 3371,
  "आशंका": 3372,
  "निपटने": 3373,
  "बादल": 3374,
  "गर्व": 3375,
  "रहती": 3376,
  "डेस्क": 3377,
  "आयुक्त": 3378,
  "पीड़िता": 3379,
  "रोम": 3380,
  "रद्द": 3381,
  "कार्यकर्ता": 3382,
  "प्लास्ट": 3383,
  "प्लास्टिक": 3384,
  "मूला": 3385,
  "शाही": 3386,
  "जिसने": 3387,
  "फैक्": 3388,
  "मुक्ति": 3389,
  "ट्यू": 3390,
  "जेएन": 3391,
  "लेश": 3392,
  "रिश्ते": 3393,
  "सकेंगे": 3394,
  "जेट": 3395,
  "बातें": 3396,
  "उर्फ": 3397,
  "उतार": 3398,
  "शब्": 3399,
  "विष्णु": 3400,
  "तोड़": 3401,
  "लाए": 3402,
  "जिन्होंने": 3403,
  "199": 3404,
  "शिकार": 3405,
  "डांस": 3406,
  "re": 3407,
  "चेता": 3408,
  "ड्राइ": 3409,
  "ईमेल": 3410,
  "स्प": 3411,
  "गोरख": 3412,
  "साढ़े": 3413,
  "पूर्ति": 3414,
  "स्टूड": 3415,
  "प्रभु": 3416,
  "आशी": 3417,
  "चाय": 3418,
  "पर्यटन": 3419,
  "विकसित": 3420,
  "हफ्ते": 3421,
  "अस्पतालों": 3422,
  "दलों": 3423,
  "पंप": 3424,
  "खेत": 3425,
  "बताते": 3426,
  "रजि": 3427,
  "फेसबुक": 3428,
  "फार्": 3429,
  "षित": 3430,
  "दूरों": 3431,
  "In": 3432,
  "वायरल": 3433,
  "कामका": 3434,
  "शिवानी": 3435,
  "पदक": 3436,
  "33": 3437,
  "लिस्ट": 3438,
  "नशा": 3439,
  "आदमी": 3440,
  "खाना": 3441,
  "सानिया": 3442,
  "युद्ध": 3443,
  "वाहि": 3444,
  "शीघ": 3445,
  "शीघ्र": 3446,
  "जिम्मेदारी": 3447,
  "पुलिसकर्मी": 3448,
  "गठबंधन": 3449,
  "क्सीजन": 3450,
  "छु": 3451,
  "पुण": 3452,
  "500": 3453,
  "प्रतियोगिता": 3454,
  "चम": 3455,
  "वस्तु": 3456,
  "ऑक्सि": 3457,
  "ऑक्सिजन": 3458,
  "लगने": 3459,
  "स्ना": 3460,
  "किडनी": 3461,
  "पीठ": 3462,
  "एंटी": 3463,
  "लक्ष्मण": 3464,
  "हाइड्रो": 3465,
  "रोशन": 3466,
  "तिब्बत": 3467,
  "टाला": 3468,
  "परिस्थिति": 3469,
  "हाथों": 3470,
  "खेलने": 3471,
  "डीपी": 3472,
  "हादसा": 3473,
  "नारे": 3474,
  "संचालित": 3475,
  "अहमदाबाद": 3476,
  "फ्रा": 3477,
  "प्रभावी": 3478,
  "मुकेश": 3479,
  "तहसील": 3480,
  "किता": 3481,
  "वित्तीय": 3482,
  "ईरान": 3483,
  "आलो": 3484,
  "Ho": 3485,
  "धीश": 3486,
  "55": 3487,
  "बढ़ो": 3488,
  "डिग्री": 3489,
  "पाएंगे": 3490,
  "अनेक": 3491,
  "आगरा": 3492,
  "सहायक": 3493,
  "32": 3494,
  "सख्त": 3495,
  "ताकत": 3496,
  "पर्यटकों": 3497,
  "यहाँ": 3498,
  "बीएस": 3499,
  "जिन्हें": 3500,
  "करोड़ों": 3501,
  "इंदौर": 3502,
  "बैंकों": 3503,
  "रक्तदान": 3504,
  "संग": 3505,
  "सकेगा": 3506,
  "सर्वि": 3507,
  "साहि": 3508,
  "किशोर": 3509,
  "ऑफिस": 3510,
  "जयपुर": 3511,
  "लहर": 3512,
  "उतर": 3513,
  "वोट": 3514,
  "पैर": 3515,
  "र्क": 3516,
  "ew": 3517,
  "PM": 3518,
  "खला": 3519,
  "लुओं": 3520,
  "जुड़ा": 3521,
  "प्रार": 3522,
  "ूप": 3523,
  "प्रेम": 3524,
  "यकों": 3525,
  "अब्": 3526,
  "वाइ": 3527,
  "श्रेणी": 3528,
  "रसोई": 3529,
  "घट": 3530,
  "हें": 3531,
  "आगामी": 3532,
  "स्त्र": 3533,
  "युवती": 3534,
  "जीतने": 3535,
  "स्मार्टफोन": 3536,
  "संतोष": 3537,
  "सैनिक": 3538,
  "एटीएम": 3539,
  "डिजि": 3540,
  "डिजिटल": 3541,
  "लाइफ": 3542,
  "ऑपरेशन": 3543,
  "प्राथ": 3544,
  "अध्ययन": 3545,
  "दिक्कत": 3546,
  "गेटिव": 3547,
  "48": 3548,
  "रखना": 3549,
  "रुण": 3550,
  "आनंद": 3551,
  "वही": 3552,
  "समाधान": 3553,
  "चीजों": 3554,
  "महीनों": 3555,
  "षेक": 3556,
  "स्टेडि": 3557,
  "स्टेडियम": 3558,
  "फैलने": 3559,
  "अना": 3560,
  "मस": 3561,
  "सश": 3562,
  "संबोधित": 3563,
  "मानव": 3564,
  "तलाशी": 3565,
  "हिरा": 3566,
  "इंच": 3567,
  "मिलती": 3568,
  "वाइस": 3569,
  "रेज": 3570,
  "अखिल": 3571,
  "इंग्लैंड": 3572,
  "44": 3573,
  "क्यो": 3574,
  "कब्जे": 3575,
  "फू": 3576,
  "आईसी": 3577,
  "हस्ता": 3578,
  "सेज": 3579,
  "माने": 3580,
  "अभ्यास": 3581,
  "विजे": 3582,
  "ed": 3583,
  "ing": 3584,
  "भक्त": 3585,
  "हिन्": 3586,
  "2012": 3587,
  "दूध": 3588,
  "अतिक्रमण": 3589,
  "रांची": 3590,
  "सिलसि": 3591,
  "सिलसिला": 3592,
  "खुश": 3593,
  "बुल": 3594,
  "स्वीकार": 3595,
  "टेज": 3596,
  "जायेगा": 3597,
  "संगठनों": 3598,
  "योजक": 3599,
  "उपाध्यक्ष": 3600,
  "बॉडी": 3601,
  "मेगा": 3602,
  "उद्देश": 3603,
  "उद्देश्य": 3604,
  "मिलियन": 3605,
  "शाल": 3606,
  "संरक्षण": 3607,
  "संस्था": 3608,
  "लगाकर": 3609,
  "पावली": 3610,
  "सुप्रीम": 3611,
  "हॉल": 3612,
  "हजारों": 3613,
  "इंटरनेट": 3614,
  "कोत": 3615,
  "ऊंचा": 3616,
  "सियासी": 3617,
  "खतरे": 3618,
  "गैंग": 3619,
  "जिनमें": 3620,
  "साई": 3621,
  "पिका": 3622,
  "लगाते": 3623,
  "मिया": 3624,
  "मृतक": 3625,
  "उपकरण": 3626,
  "सनी": 3627,
  "अरब": 3628,
  "दुर्ग": 3629,
  "लिखित": 3630,
  "हाईवे": 3631,
  "चौरा": 3632,
  "काने": 3633,
  "इजा": 3634,
  "रास्ता": 3635,
  "संवाददाता": 3636,
  "सदर": 3637,
  "पूजन": 3638,
  "चलता": 3639,
  "सृ": 3640,
  "परा": 3641,
  "खारि": 3642,
  "चेतावनी": 3643,
  "तालि": 3644,
  "तालिबान": 3645,
  "पहुंचाने": 3646,
  "ोगी": 3647,
  "इका": 3648,
  "पासवान": 3649,
  "नेश": 3650,
  "लोड": 3651,
  "le": 3652,
  "ोह": 3653,
  "भारती": 3654,
  "हेल्": 3655,
  "यानि": 3656,
  "मुद्रा": 3657,
  "टम": 3658,
  "ंव": 3659,
  "्यूटर": 3660,
  "संस्थान": 3661,
  "प्रोफे": 3662,
  "रामा": 3663,
  "मशी": 3664,
  "व्यवसाय": 3665,
  "वेस्ट": 3666,
  "वरण": 3667,
  "कितने": 3668,
  "नये": 3669,
  "चिन्": 3670,
  "men": 3671,
  "ment": 3672,
  "oo": 3673,
  "मनुष्य": 3674,
  "जाएंगी": 3675,
  "सेवी": 3676,
  "58": 3677,
  "ठेकेदार": 3678,
  "डू": 3679,
  "बढ़कर": 3680,
  "लगती": 3681,
  "बढ़ने": 3682,
  "विशेषज्ञ": 3683,
  "रहें": 3684,
  "लस": 3685,
  "डायबिटीज": 3686,
  "लड़ने": 3687,
  "ंजी": 3688,
  "कार्यों": 3689,
  "राइ": 3690,
  "चुनावों": 3691,
  "साइड": 3692,
  "निकालने": 3693,
  "प्रतिबंध": 3694,
  "ट्रॉली": 3695,
  "टेन": 3696,
  "घन": 3697,
  "प्रोग": 3698,
  "बीर": 3699,
  "बौ": 3700,
  "स्वच्छता": 3701,
  "िमा": 3702,
  "अक्सर": 3703,
  "मेट्रो": 3704,
  "हैद": 3705,
  "हैदराबाद": 3706,
  "दामों": 3707,
  "एएमजी": 3708,
  "अंग्र": 3709,
  "फोर्स": 3710,
  "कोरिया": 3711,
  "अपहरण": 3712,
  "नीतीश": 3713,
  "आईटी": 3714,
  "मजदूरों": 3715,
  "संस्कार": 3716,
  "अध्याप": 3717,
  "अध्यापकों": 3718,
  "अध्यापक": 3719,
  "रूस": 3720,
  "नक्सलियों": 3721,
  "कॉफी": 3722,
  "मैटर": 3723,
  "ताइ": 3724,
  "देहरा": 3725,
  "देहरादून": 3726,
  "फ़रवरी": 3727,
  "ट्विंक": 3728,
  "ट्विंकल": 3729,
  "ओमप्रकाश": 3730,
  "लेते": 3731,
  "हवाले": 3732,
  "उत": 3733,
  "प्रियं": 3734,
  "रेट": 3735,
  "एसडीएम": 3736,
  "ग्स": 3737,
  "ोन": 3738,
  "ट्रांसफर": 3739,
  "वादा": 3740,
  "मेर": 3741,
  "चिकित्सकों": 3742,
  "फाइल": 3743,
  "लोगो": 3744,
  "हिंदु": 3745,
  "फायरिंग": 3746,
  "नेहरू": 3747,
  "लॉजि": 3748,
  "चांदी": 3749,
  "हस्त": 3750,
  "वर्मा": 3751,
  "क्लास": 3752,
  "नेशनल": 3753,
  "सवालों": 3754,
  "Home": 3755,
  "न्याया": 3756,
  "महंत": 3757,
  "प्रबंधन": 3758,
  "फुल": 3759,
  "कुर्": 3760,
  "52": 3761,
  "मैने": 3762,
  "गुजर": 3763,
  "हैरान": 3764,
  "अल्": 3765,
  "तिन": 3766,
  "एमएल": 3767,
  "दाताओं": 3768,
  "ब्लड": 3769,
  "इच्छा": 3770,
  "होंने": 3771,
  "आतंकवादियों": 3772,
  "स्पे": 3773,
  "बोला": 3774,
  "जबलपुर": 3775,
  "ट्रिक": 3776,
  "बेहतरीन": 3777,
  "नज": 3778,
  "फॉर्म": 3779,
  "मंडी": 3780,
  "अफसरों": 3781,
  "कोड": 3782,
  "एप": 3783,
  "त्ति": 3784,
  "75": 3785,
  "सून": 3786,
  "तिल": 3787,
  "छोटा": 3788,
  "लालू": 3789,
  "तः": 3790,
  "बजाय": 3791,
  "सचिन": 3792,
  "पायल": 3793,
  "पायलट": 3794,
  "मानी": 3795,
  "ews": 3796,
  "वनडे": 3797,
  "स्य": 3798,
  "दरवा": 3799,
  "कार्यवाही": 3800,
  "कपड़": 3801,
  "खड़ा": 3802,
  "लंड": 3803,
  "ब्स": 3804,
  "तुम": 3805,
  "गांड": 3806,
  "श्रम": 3807,
  "ग्वा": 3808,
  "एसबी": 3809,
  "आरती": 3810,
  "रेप": 3811,
  "बहादु": 3812,
  "फें": 3813,
  "सवा": 3814,
  "पट": 3815,
  "नायक": 3816,
  "दुल्": 3817,
  "संगीत": 3818,
  "भरने": 3819,
  "धोखा": 3820,
  "प्राथमिक": 3821,
  "शुरुआती": 3822,
  "औसत": 3823,
  "क्वारंटाइन": 3824,
  "द्योगिक": 3825,
  "उठाए": 3826,
  "भगत": 3827,
  "एँ": 3828,
  "सत्य": 3829,
  "कविता": 3830,
  "विद्यार्": 3831,
  "विद्यार्थी": 3832,
  "प्रतिदिन": 3833,
  "ation": 3834,
  "बैठकर": 3835,
  "राकेश": 3836,
  "कन्": 3837,
  "लिमि": 3838,
  "भरा": 3839,
  "देखें": 3840,
  "id": 3841,
  "दृष्टि": 3842,
  "डन": 3843,
  "किनारे": 3844,
  "सीओ": 3845,
  "जस्टि": 3846,
  "जस्टिस": 3847,
  "आपात": 3848,
  "श्रेय": 3849,
  "बचाने": 3850,
  "84": 3851,
  "स्थग": 3852,
  "स्थगित": 3853,
  "तू": 3854,
  "खंगा": 3855,
  "कुर": 3856,
  "मानते": 3857,
  "माइक्रो": 3858,
  "निभा": 3859,
  "चुन": 3860,
  "फैशन": 3861,
  "समझौ": 3862,
  "कड़ों": 3863,
  "स्त्री": 3864,
  "व्यक्तियों": 3865,
  "जुटा": 3866,
  "मान्य": 3867,
  "समुद्र": 3868,
  "सम्मानित": 3869,
  "am": 3870,
  "उल्लेख": 3871,
  "सीटें": 3872,
  "दर्शक": 3873,
  "अभिनेता": 3874,
  "फिल्मों": 3875,
  "दर्जन": 3876,
  "एक्टर": 3877,
  "डाला": 3878,
  "वेद": 3879,
  "रहेंगे": 3880,
  "मदनी": 3881,
  "आंकड़े": 3882,
  "तत्काल": 3883,
  "स्टाफ": 3884,
  "विंग": 3885,
  "बदले": 3886,
  "आजादी": 3887,
  "हौ": 3888,
  "कैप्": 3889,
  "परंप": 3890,
  "परंपरा": 3891,
  "दुर्घटना": 3892,
  "हिया": 3893,
  "बिलास": 3894,
  "बिलासपुर": 3895,
  "परिवह": 3896,
  "परिवहन": 3897,
  "वीरेंद्र": 3898,
  "पशु": 3899,
  "इस्ला": 3900,
  "धूम": 3901,
  "धाम": 3902,
  "दीपावली": 3903,
  "छात्रावास": 3904,
  "ज्यो": 3905,
  "कोतवाली": 3906,
  "गोपाल": 3907,
  "सक्षम": 3908,
  "हासन": 3909,
  "सेट": 3910,
  "साध": 3911,
  "इनका": 3912,
  "प्रस्तुति": 3913,
  "तस्": 3914,
  "दीपिका": 3915,
  "सास": 3916,
  "लंबित": 3917,
  "गुम": 3918,
  "राजेश": 3919,
  "सिन्हा": 3920,
  "अनुप": 3921,
  "चोट": 3922,
  "मारपीट": 3923,
  "जागरण": 3924,
  "बीबी": 3925,
  "अंजाम": 3926,
  "न्यास": 3927,
  "चैं": 3928,
  "शब्द": 3929,
  "डालकर": 3930,
  "लौटे": 3931,
  "यहीं": 3932,
  "कामना": 3933,
  "व्यापारियों": 3934,
  "जिंदगी": 3935,
  "जमान": 3936,
  "खारिज": 3937,
  "प्रोड": 3938,
  "ग़ा": 3939,
  "्याज": 3940,
  "बघे": 3941,
  "बघेल": 3942,
  "दिवसी": 3943,
  "दिवसीय": 3944,
  "दुबे": 3945,
  "चालन": 3946,
  "दिनेश": 3947,
  "ate": 3948,
  "जहाँ": 3949,
  "ंती": 3950,
  "गृहमंत्री": 3951,
  "आपूर्ति": 3952,
  "खादी": 3953,
  "ेंट्स": 3954,
  "भक्ति": 3955,
  "विदेशी": 3956,
  "सिलसिले": 3957,
  "लीग": 3958,
  "पूछा": 3959,
  "प्रसार": 3960,
  "गहलो": 3961,
  "गहलोत": 3962,
  "सोया": 3963,
  "त्यो": 3964,
  "नियमों": 3965,
  "कंप्यूटर": 3966,
  "बुजुर्": 3967,
  "बुजुर्ग": 3968,
  "कहानी": 3969,
  "काट": 3970,
  "मशीन": 3971,
  "बचे": 3972,
  "ग्रीन": 3973,
  "Doc": 3974,
  "Docu": 3975,
  "Document": 3976,
  "वर्डपैड": 3977,
  "ईश्वर": 3978,
  "परीक्षण": 3979,
  "इंदि": 3980,
  "इंदिरा": 3981,
  "कालेज": 3982,
  "पुष्": 3983,
  "मानों": 3984,
  "यर्स": 3985,
  "अश्": 3986,
  "दीक्षित": 3987,
  "होटल": 3988,
  "हानि": 3989,
  "बाधा": 3990,
  "उपायुक्त": 3991,
  "Read": 3992,
  "क्यू": 3993,
  "सुविधाओं": 3994,
  "कोच": 3995,
  "जना": 3996,
  "रियल": 3997,
  "प्स": 3998,
  "अधिनियम": 3999
}