{
  "<unk>": 0,
  "<pad>": 1,
  " ": 3,
  "!": 4,
  "\"": 5,
  "#": 6,
  "$": 7,
  "%": 8,
  "&": 9,
  "'": 10,
  "(": 11,
  ")": 12,
  "*": 13,
  "+": 14,
  ",": 15,
  "-": 16,
  ".": 17,
  "/": 18,
  "0": 19,
  "1": 20,
  "2": 21,
  "3": 22,
  "4": 23,
  "5": 24,
  "6": 25,
  "7": 26,
  "8": 27,
  "9": 28,
  ":": 29,
  ";": 30,
  "=": 31,
  ">": 32,
  "?": 33,
  "@": 34,
  "A": 35,
  "B": 36,
  "C": 37,
  "D": 38,
  "E": 39,
  "F": 40,
  "G": 41,
  "H": 42,
  "I": 43,
  "J": 44,
  "K": 45,
  "L": 46,
  "M": 47,
  "N": 48,
  "O": 49,
  "P": 50,
  "Q": 51,
  "R": 52,
  "S": 53,
  "T": 54,
  "U": 55,
  "V": 56,
  "W": 57,
  "X": 58,
  "Y": 59,
  "Z": 60,
  "[": 61,
  "]": 62,
  "^": 63,
  "_": 64,
  "a": 65,
  "b": 66,
  "c": 67,
  "d": 68,
  "e": 69,
  "f": 70,
  "g": 71,
  "h": 72,
  "i": 73,
  "j": 74,
  "k": 75,
  "l": 76,
  "m": 77,
  "n": 78,
  "o": 79,
  "p": 80,
  "q": 81,
  "r": 82,
  "s": 83,
  "t": 84,
  "u": 85,
  "v": 86,
  "w": 87,
  "x": 88,
  "y": 89,
  "z": 90,
  "|": 91,
  "": 92,
  "£": 93,
  "¨": 94,
  "©": 95,
  "ª": 96,
  "«": 97,
  "°": 98,
  "²": 99,
  "»": 100,
  "Ó": 101,
  "×": 102,
  "Ü": 103,
  "í": 104,
  "ï": 105,
  "в": 106,
  "и": 107,
  "л": 108,
  "о": 109,
  "т": 110,
  "я": 111,
  "ا": 112,
  "ت": 113,
  "ل": 114,
  "و": 115,
  "ی": 116,
  "ँ": 117,
  "ं": 118,
  "ः": 119,
  "अ": 120,
  "आ": 121,
  "इ": 122,
  "ई": 123,
  "उ": 124,
  "ऊ": 125,
  "ऋ": 126,
  "ऌ": 127,
  "ए": 128,
  "ऐ": 129,
  "ऑ": 130,
  "ओ": 131,
  "औ": 132,
  "क": 133,
  "ख": 134,
  "ग": 135,
  "घ": 136,
  "ङ": 137,
  "च": 138,
  "छ": 139,
  "ज": 140,
  "झ": 141,
  "ञ": 142,
  "ट": 143,
  "ठ": 144,
  "ड": 145,
  "ढ": 146,
  "ण": 147,
  "त": 148,
  "थ": 149,
  "द": 150,
  "ध": 151,
  "न": 152,
  "ऩ": 153,
  "प": 154,
  "फ": 155,
  "ब": 156,
  "भ": 157,
  "म": 158,
  "य": 159,
  "र": 160,
  "ऱ": 161,
  "ल": 162,
  "व": 163,
  "श": 164,
  "ष": 165,
  "स": 166,
  "ह": 167,
  "़": 168,
  "ा": 169,
  "ि": 170,
  "ी": 171,
  "ु": 172,
  "ू": 173,
  "ृ": 174,
  "ॅ": 175,
  "े": 176,
  "ै": 177,
  "ॉ": 178,
  "ो": 179,
  "ौ": 180,
  "्": 181,
  "।": 182,
  "०": 183,
  "१": 184,
  "२": 185,
  "३": 186,
  "४": 187,
  "५": 188,
  "६": 189,
  "७": 190,
  "८": 191,
  "९": 192,
  "॰": 193,
  "​": 194,
  "‌": 195,
  "‍": 196,
  "‎": 197,
  "–": 198,
  "—": 199,
  "‘": 200,
  "’": 201,
  "“": 202,
  "”": 203,
  "…": 204,
  "›": 205,
  "←": 206,
  "➽": 207,
  "﻿": 208,
  "�": 209,
  "🔊": 210,
  "🔵": 211,
  "के": 211,
  "ार": 212,
  "ें": 213,
  "ने": 214,
  "्र": 215,
  "है": 216,
  "या": 217,
  "में": 218,
  "की": 219,
  "ों": 220,
  "का": 221,
  "कर": 222,
  "से": 223,
  "को": 224,
  "कि": 225,
  "ना": 226,
  "स्": 227,
  "ता": 228,
  "र्": 229,
  "ला": 230,
  "क्": 231,
  "पर": 232,
  "वा": 233,
  "ही": 234,
  "ले": 235,
  "रा": 236,
  "जा": 237,
  "हा": 238,
  "लि": 239,
  "प्र": 240,
  "सा": 241,
  "्य": 242,
  "मा": 243,
  "और": 244,
  "वि": 245,
  "कार": 246,
  "इस": 247,
  "भी": 248,
  "नि": 249,
  "ड़": 250,
  "हो": 251,
  "बा": 252,
  "दि": 253,
  "हैं": 254,
  "दे": 255,
  "गा": 256,
  "ते": 257,
  "ति": 258,
  "नी": 259,
  "ली": 260,
  "पा": 261,
  "सी": 262,
  "ती": 263,
  "त्र": 264,
  "मि": 265,
  "हु": 266,
  "न्": 267,
  "क्ष": 268,
  "था": 269,
  "लिए": 270,
  "ंग": 271,
  "री": 272,
  "जि": 273,
  "हीं": 274,
  "सं": 275,
  "सि": 276,
  "ल्": 277,
  "दी": 278,
  "रह": 279,
  "त्": 280,
  "पु": 281,
  "एक": 282,
  "यों": 283,
  "मु": 284,
  "टी": 285,
  "दा": 286,
  "वार": 287,
  "ोग": 288,
  "नहीं": 289,
  "किया": 290,
  "भा": 291,
  "रि": 292,
  "अप": 293,
  "हि": 294,
  "शा": 295,
  "चा": 296,
  "रो": 297,
  "सर": 298,
  "जी": 299,
  "गया": 300,
  "धि": 301,
  "मी": 302,
  "पी": 303,
  "कु": 304,
  "सम": 305,
  "देश": 306,
  "कहा": 307,
  "पू": 308,
  "सु": 309,
  "ंड": 310,
  "द्": 311,
  "बी": 312,
  "मार": 313,
  "बाद": 314,
  "ट्र": 315,
  "करने": 316,
  "तो": 317,
  "ंद": 318,
  "नों": 319,
  "वे": 320,
  "ित": 321,
  "खा": 322,
  "रे": 323,
  "रू": 324,
  "साथ": 325,
  "मे": 326,
  "शि": 327,
  "्या": 328,
  "यह": 329,
  "राज": 330,
  "ये": 331,
  "लोग": 332,
  "गी": 333,
  "न्ह": 334,
  "क्र": 335,
  "धा": 336,
  "मं": 337,
  "वी": 338,
  "उन": 339,
  "दिया": 340,
  "स्ट": 341,
  "ंच": 342,
  "रहे": 343,
  "रु": 344,
  "तक": 345,
  "भार": 346,
  "ढ़": 347,
  "उन्ह": 348,
  "पह": 349,
  "दो": 350,
  "बि": 351,
  "गे": 352,
  "फि": 353,
  "श्": 354,
  "मान": 355,
  "बार": 356,
  "शन": 357,
  "ष्": 358,
  "जन": 359,
  "सरकार": 360,
  "जो": 361,
  "थी": 362,
  "गई": 363,
  "उस": 364,
  "रहा": 365,
  "ार्": 366,
  "बता": 367,
  "आप": 368,
  "डि": 369,
  "20": 370,
  "तर": 371,
  "हुए": 372,
  "अन": 373,
  "चु": 374,
  "ओं": 375,
  "प्": 376,
  "ियों": 377,
  "टर": 378,
  "रही": 379,
  "सक": 380,
  "ारी": 381,
  "यो": 382,
  "अपने": 383,
  "मै": 384,
  "लोगों": 385,
  "मिल": 386,
  "इन": 387,
  "हर": 388,
  "मंत्र": 389,
  "जाए": 390,
  "पुलि": 391,
  "ोंने": 392,
  "किन": 393,
  "पुलिस": 394,
  "वर्": 395,
  "लगा": 396,
  "थे": 397,
  "शु": 398,
  "बे": 399,
  "टे": 400,
  "टि": 401,
  "अधि": 402,
  "गर": 403,
  "मो": 404,
  "टा": 405,
  "जे": 406,
  "उन्होंने": 407,
  "स्थ": 408,
  "बर": 409,
  "हम": 410,
  "बना": 411,
  "दू": 412,
  "लेकिन": 413,
  "लों": 414,
  "वाले": 415,
  "मौ": 416,
  "इसके": 417,
  "होने": 418,
  "्रा": 419,
  "जब": 420,
  "यर": 421,
  "हां": 422,
  "एस": 423,
  "स्था": 424,
  "सू": 425,
  "यु": 426,
  "कारी": 427,
  "अब": 428,
  "जिस": 429,
  "मंत्री": 430,
  "डी": 431,
  "परि": 432,
  "च्": 433,
  "गए": 434,
  "पहले": 435,
  "म्": 436,
  "बै": 437,
  "लो": 438,
  "जान": 439,
  "सिं": 440,
  "पि": 441,
  "वह": 442,
  "ड़ी": 443,
  "गु": 444,
  "बताया": 445,
  "क्षा": 446,
  "खि": 447,
  "कर्": 448,
  "ड़ा": 449,
  "सो": 450,
  "पे": 451,
  "चार": 452,
  "एम": 453,
  "कों": 454,
  "दौ": 455,
  "पुर": 456,
  "आई": 457,
  "दु": 458,
  "चि": 459,
  "कुछ": 460,
  "लिया": 461,
  "सब": 462,
  "कार्य": 463,
  "करते": 464,
  "सिंह": 465,
  "निर्": 466,
  "ध्य": 467,
  "पो": 468,
  "माम": 469,
  "रान": 470,
  "धान": 471,
  "लेकर": 472,
  "डा": 473,
  "दर्": 474,
  "बं": 475,
  "फी": 476,
  "लग": 477,
  "िया": 478,
  "मुख": 479,
  "प्रति": 480,
  "र्ट": 481,
  "बात": 482,
  "पूर्": 483,
  "उप": 484,
  "भारत": 485,
  "ड़े": 486,
  "व्य": 487,
  "्री": 488,
  "स्त": 489,
  "पहु": 490,
  "्रे": 491,
  "गां": 492,
  "अनु": 493,
  "उत्": 494,
  "जु": 495,
  "योग": 496,
  "दौरान": 497,
  "छा": 498,
  "ज़": 499,
  "यू": 500,
  "क्त": 501,
  "कोई": 502,
  "रुप": 503,
  "जार": 504,
  "स्ता": 505,
  "ंत": 506,
  "द्वार": 507,
  "ब्": 508,
  "हार": 509,
  "बढ़": 510,
  "्यू": 511,
  "ल्ली": 512,
  "काम": 513,
  "फा": 514,
  "कई": 515,
  "ंक": 516,
  "तार": 517,
  "खे": 518,
  "वाली": 519,
  "द्र": 520,
  "अपनी": 521,
  "धार": 522,
  "ंप": 523,
  "क्षे": 524,
  "किसी": 525,
  "दार": 526,
  "चुना": 527,
  "फ्": 528,
  "चल": 529,
  "प्रदेश": 530,
  "हुई": 531,
  "दिल्ली": 532,
  "उनके": 533,
  "साल": 534,
  "जाने": 535,
  "कै": 536,
  "करा": 537,
  "00": 538,
  "शी": 539,
  "सभी": 540,
  "क्षेत्र": 541,
  "करें": 542,
  "कम": 543,
  "समय": 544,
  "बु": 545,
  "सार": 546,
  "ट्": 547,
  "चे": 548,
  "पार्": 549,
  "दिन": 550,
  "शे": 551,
  "जू": 552,
  "गि": 553,
  "राज्य": 554,
  "तरह": 555,
  "लय": 556,
  "पता": 557,
  "वं": 558,
  "देख": 559,
  "मैं": 560,
  "होगा": 561,
  "भाग": 562,
  "खिला": 563,
  "जाता": 564,
  "उन्हें": 565,
  "फिल्": 566,
  "सद": 567,
  "वन": 568,
  "हिला": 569,
  "एं": 570,
  "रोना": 571,
  "वर": 572,
  "ची": 573,
  "धी": 574,
  "रूप": 575,
  "कोरोना": 576,
  "हुआ": 577,
  "राम": 578,
  "डे": 579,
  "द्वारा": 580,
  "इं": 581,
  "तीय": 582,
  "ोड़": 583,
  "महिला": 584,
  "कुमार": 585,
  "आर": 586,
  "वै": 587,
  "कल": 588,
  "पास": 589,
  "गो": 590,
  "सकता": 591,
  "पहुंच": 592,
  "ज्": 593,
  "घर": 594,
  "पै": 595,
  "कॉ": 596,
  "खु": 597,
  "करना": 598,
  "19": 599,
  "अभ": 600,
  "जना": 601,
  "बो": 602,
  "मामले": 603,
  "नाम": 604,
  "फिल्म": 605,
  "आरो": 606,
  "ीय": 607,
  "क्रम": 608,
  "णा": 609,
  "कान": 610,
  "नेता": 611,
  "जाएगा": 612,
  "ष्ट्र": 613,
  "दोनों": 614,
  "शुरू": 615,
  "टीम": 616,
  "यहां": 617,
  "नो": 618,
  "वाई": 619,
  "सकते": 620,
  "बीच": 621,
  "आज": 622,
  "दान": 623,
  "मू": 624,
  "क्यों": 625,
  "ौर": 626,
  "मुख्य": 627,
  "मत": 628,
  "ध्यक्ष": 629,
  "अं": 630,
  "चुनाव": 631,
  "रुपये": 632,
  "त्व": 633,
  "ंग्रे": 634,
  "जर": 635,
  "रख": 636,
  "प्रा": 637,
  "फै": 638,
  "वर्ष": 639,
  "ऐसे": 640,
  "धन": 641,
  "जै": 642,
  "लाख": 643,
  "नगर": 644,
  "टना": 645,
  "पं": 646,
  "कह": 647,
  "अपना": 648,
  "ंद्र": 649,
  "सबसे": 650,
  "बन": 651,
  "ज्या": 652,
  "िक": 653,
  "योजना": 654,
  "गांव": 655,
  "जानकारी": 656,
  "वो": 657,
  "हित": 658,
  "त्या": 659,
  "तै": 660,
  "जिला": 661,
  "भारतीय": 662,
  "इससे": 663,
  "कांग्रे": 664,
  "क्ति": 665,
  "उसके": 666,
  "अधिकार": 667,
  "स्क": 668,
  "चौ": 669,
  "साम": 670,
  "सन": 671,
  "हाला": 672,
  "चना": 673,
  "ग्रा": 674,
  "यार": 675,
  "रिया": 676,
  "निया": 677,
  "वहीं": 678,
  "उनकी": 679,
  "करी": 680,
  "फो": 681,
  "राष्ट्र": 682,
  "कांग्रेस": 683,
  "जय": 684,
  "जारी": 685,
  "उसे": 686,
  "यन": 687,
  "पूर्व": 688,
  "प्रधान": 689,
  "ठा": 690,
  "आपको": 691,
  "क्स": 692,
  "मह": 693,
  "यत": 694,
  "इसमें": 695,
  "जिले": 696,
  "सभा": 697,
  "ंगे": 698,
  "हत": 699,
  "हजार": 700,
  "सान": 701,
  "बहु": 702,
  "अधिक": 703,
  "एवं": 704,
  "महा": 705,
  "देने": 706,
  "सर्": 707,
  "हों": 708,
  "मार्": 709,
  "होगी": 710,
  "10": 711,
  "बैठ": 712,
  "ट्रे": 713,
  "पाल": 714,
  "जिसमें": 715,
  "कारण": 716,
  "हू": 717,
  "हन": 718,
  "जग": 719,
  "ंगा": 720,
  "्ड": 721,
  "तीन": 722,
  "रें": 723,
  "अध्यक्ष": 724,
  "वाला": 725,
  "कंप": 726,
  "फिर": 727,
  "आने": 728,
  "पार्टी": 729,
  "करोड़": 730,
  "सामने": 731,
  "हिए": 732,
  "बच्": 733,
  "दें": 734,
  "पोर्ट": 735,
  "चाहिए": 736,
  "पद": 737,
  "पर्": 738,
  "सला": 739,
  "यक": 740,
  "निक": 741,
  "जांच": 742,
  "स्तान": 743,
  "तु": 744,
  "शामिल": 745,
  "शो": 746,
  "घटना": 747,
  "र्थ": 748,
  "चला": 749,
  "घा": 750,
  "ख्या": 751,
  "इला": 752,
  "ंकि": 753,
  "ध्या": 754,
  "होता": 755,
  "विका": 756,
  "भू": 757,
  "ज्यादा": 758,
  "ंस": 759,
  "तथा": 760,
  "हे": 761,
  "मित": 762,
  "स्पता": 763,
  "अस्पता": 764,
  "स्थित": 765,
  "लू": 766,
  "बद": 767,
  "न्या": 768,
  "क्या": 769,
  "फे": 770,
  "विश्": 771,
  "एन": 772,
  "श्री": 773,
  "बहुत": 774,
  "कृ": 775,
  "अला": 776,
  "लें": 777,
  "जपा": 778,
  "किए": 779,
  "पार": 780,
  "डॉ": 781,
  "यी": 782,
  "इसे": 783,
  "201": 784,
  "मोदी": 785,
  "स्थान": 786,
  "नई": 787,
  "इसी": 788,
  "भाजपा": 789,
  "क्टर": 790,
  "अन्य": 791,
  "अधिकारियों": 792,
  "होती": 793,
  "स्थि": 794,
  "अनुसार": 795,
  "टो": 796,
  "वाद": 797,
  "निका": 798,
  "स्व": 799,
  "मद": 800,
  "ग्र": 801,
  "ओर": 802,
  "तैयार": 803,
  "भर": 804,
  "रों": 805,
  "आरोप": 806,
  "वाल": 807,
  "स्वा": 808,
  "जीत": 809,
  "हमार": 810,
  "आए": 811,
  "विभाग": 812,
  "सुर": 813,
  "हाल": 814,
  "करण": 815,
  "सके": 816,
  "तना": 817,
  "अव": 818,
  "ज्ञ": 819,
  "मन": 820,
  "मांग": 821,
  "चों": 822,
  "छले": 823,
  "पिछले": 824,
  "काफी": 825,
  "डिया": 826,
  "छात्र": 827,
  "वान": 828,
  "गं": 829,
  "प्ता": 830,
  "बारे": 831,
  "विधा": 832,
  "जरू": 833,
  "वज": 834,
  "अगर": 835,
  "संख्या": 836,
  "व्या": 837,
  "खिलाफ": 838,
  "राष्ट्रीय": 839,
  "न्यू": 840,
  "फ्तार": 841,
  "जहां": 842,
  "मिले": 843,
  "द्ध": 844,
  "सानों": 845,
  "जाएगी": 846,
  "विधान": 847,
  "रफ्तार": 848,
  "जों": 849,
  "दिनों": 850,
  "लं": 851,
  "त्य": 852,
  "स्थिति": 853,
  "बनाने": 854,
  "किसानों": 855,
  "खान": 856,
  "पत्र": 857,
  "जैसे": 858,
  "सूचना": 859,
  "सरे": 860,
  "पति": 861,
  "भे": 862,
  "आत": 863,
  "इसकी": 864,
  "शान": 865,
  "फ़": 866,
  "न्न": 867,
  "र्स": 868,
  "सै": 869,
  "मौत": 870,
  "समा": 871,
  "लै": 872,
  "धिकार": 873,
  "स्ते": 874,
  "केट": 875,
  "मिला": 876,
  "सकती": 877,
  "द्य": 878,
  "कहना": 879,
  "जित": 880,
  "पांच": 881,
  "लने": 882,
  "थाना": 883,
  "जाती": 884,
  "आगे": 885,
  "जनता": 886,
  "लाई": 887,
  "गत": 888,
  "इंड": 889,
  "र्ड": 890,
  "मिली": 891,
  "करता": 892,
  "अभी": 893,
  "रहने": 894,
  "बह": 895,
  "अभि": 896,
  "पूरी": 897,
  "परिवार": 898,
  "नौ": 899,
  "धियों": 900,
  "लेने": 901,
  "कर्ता": 902,
  "आधार": 903,
  "बॉ": 904,
  "परा": 905,
  "लॉ": 906,
  "रत": 907,
  "चित": 908,
  "दिए": 909,
  "मीडिया": 910,
  "वस्था": 911,
  "मुता": 912,
  "संबं": 913,
  "लगे": 914,
  "यां": 915,
  "मुख्यमंत्री": 916,
  "दर्ज": 917,
  "राज्यों": 918,
  "ंट": 919,
  "प्रो": 920,
  "माण": 921,
  "सल": 922,
  "द्या": 923,
  "यल": 924,
  "उत्तर": 925,
  "परी": 926,
  "प्रे": 927,
  "व्यवस्था": 928,
  "नीय": 929,
  "निय": 930,
  "नियों": 931,
  "इसका": 932,
  "नीति": 933,
  "वित": 934,
  "वहां": 935,
  "प्रकार": 936,
  "घो": 937,
  "फर": 938,
  "पड़": 939,
  "गिरफ्तार": 940,
  "उनका": 941,
  "रण": 942,
  "हमें": 943,
  "बढ़ा": 944,
  "ूल": 945,
  "कट": 946,
  "हत्या": 947,
  "जें": 948,
  "मौके": 949,
  "सामान": 950,
  "रात": 951,
  "धित": 952,
  "हालांकि": 953,
  "अग": 954,
  "र्म": 955,
  "जिससे": 956,
  "जाना": 957,
  "दर": 958,
  "याद": 959,
  "पहली": 960,
  "वल": 961,
  "विकास": 962,
  "करेंगे": 963,
  "प्रका": 964,
  "बल्": 965,
  "पक्ष": 966,
  "सां": 967,
  "जल": 968,
  "जूद": 969,
  "जवा": 970,
  "गढ़": 971,
  "भाव": 972,
  "पढ़": 973,
  "प्त": 974,
  "निवा": 975,
  "बैठक": 976,
  "क्षण": 977,
  "होते": 978,
  "दुनिया": 979,
  "महत्व": 980,
  "विद्या": 981,
  "संग": 982,
  "निवार": 983,
  "कोर्ट": 984,
  "हूं": 985,
  "हाई": 986,
  "्रवाई": 987,
  "कार्रवाई": 988,
  "अच्": 989,
  "झा": 990,
  "एल": 991,
  "किस्तान": 992,
  "स्कार": 993,
  "बंद": 994,
  "पन": 995,
  "खंड": 996,
  "करे": 997,
  "रिपोर्ट": 998,
  "बाजार": 999,
  "जिसके": 1000,
  "बाइ": 1001,
  "सह": 1002,
  "विश्व": 1003,
  "उसकी": 1004,
  "मियों": 1005,
  "बिहार": 1006,
  "30": 1007,
  "बड़ी": 1008,
  "मंड": 1009,
  "अलग": 1010,
  "तों": 1011,
  "वजह": 1012,
  "सदस्": 1013,
  "वालों": 1014,
  "ृत्व": 1015,
  "तृत्व": 1016,
  "बच्चों": 1017,
  "प्रधानमंत्री": 1018,
  "स्या": 1019,
  "सहित": 1020,
  "पाकिस्तान": 1021,
  "ज्ञा": 1022,
  "अलावा": 1023,
  "शिका": 1024,
  "दियों": 1025,
  "नेतृत्व": 1026,
  "प्रया": 1027,
  "आयो": 1028,
  "चारियों": 1029,
  "केंद्र": 1030,
  "ेंगे": 1031,
  "करीब": 1032,
  "ड़ियों": 1033,
  "12": 1034,
  "सम्": 1035,
  "हिं": 1036,
  "कर्म": 1037,
  "कुल": 1038,
  "देते": 1039,
  "शहर": 1040,
  "भग": 1041,
  "कर्मचारियों": 1042,
  "पक": 1043,
  "ुक": 1044,
  "चान": 1045,
  "सें": 1046,
  "सियों": 1047,
  "शेष": 1048,
  "युक्त": 1049,
  "15": 1050,
  "दूसरे": 1051,
  "नार": 1052,
  "नजर": 1053,
  "मिलने": 1054,
  "सलमान": 1055,
  "ऐसा": 1056,
  "हीने": 1057,
  "महीने": 1058,
  "थियों": 1059,
  "सित": 1060,
  "घोष": 1061,
  "आपके": 1062,
  "आदि": 1063,
  "कता": 1064,
  "सम्मान": 1065,
  "पानी": 1066,
  "कंपनियों": 1067,
  "नमें": 1068,
  "आरोपियों": 1069,
  "चुकी": 1070,
  "फैसला": 1071,
  "स्टे": 1072,
  "सेना": 1073,
  "मवार": 1074,
  "सोमवार": 1075,
  "मामला": 1076,
  "डियो": 1077,
  "निर्देश": 1078,
  "होंगे": 1079,
  "आया": 1080,
  "उसने": 1081,
  "लगाया": 1082,
  "क्सी": 1083,
  "श्र": 1084,
  "लगातार": 1085,
  "तमान": 1086,
  "तियों": 1087,
  "धवार": 1088,
  "बुधवार": 1089,
  "अधिकारी": 1090,
  "अस्पताल": 1091,
  "वर्तमान": 1092,
  "चलते": 1093,
  "समस्या": 1094,
  "मरी": 1095,
  "जबकि": 1096,
  "इनमें": 1097,
  "एफ": 1098,
  "रुपए": 1099,
  "उम्": 1100,
  "शासन": 1101,
  "परे": 1102,
  "मीद": 1103,
  "जाते": 1104,
  "ंबर": 1105,
  "गें": 1106,
  "क्योंकि": 1107,
  "क्रिया": 1108,
  "करती": 1109,
  "सदस्यों": 1110,
  "चो": 1111,
  "ियान": 1112,
  "यान": 1113,
  "ोल": 1114,
  "इंडिया": 1115,
  "कर्मियों": 1116,
  "कराने": 1117,
  "अभियान": 1118,
  "ट्स": 1119,
  "मना": 1120,
  "्रीय": 1121,
  "चुका": 1122,
  "टू": 1123,
  "चुके": 1124,
  "र्चा": 1125,
  "कराया": 1126,
  "करके": 1127,
  "पूर्ण": 1128,
  "सुरक्षा": 1129,
  "पना": 1130,
  "छे": 1131,
  "वें": 1132,
  "दन": 1133,
  "त्रा": 1134,
  "शानदार": 1135,
  "त्रियों": 1136,
  "नरें": 1137,
  "उसका": 1138,
  "कंपनी": 1139,
  "उसमें": 1140,
  "चाह": 1141,
  "प्ला": 1142,
  "किसान": 1143,
  "रदार": 1144,
  "व्यक्ति": 1145,
  "पत्रकार": 1146,
  "र्फ": 1147,
  "उम्मीद": 1148,
  "वरी": 1149,
  "ग्": 1150,
  "साइ": 1151,
  "युव": 1152,
  "ंगल": 1153,
  "पत्": 1154,
  "तला": 1155,
  "जली": 1156,
  "इसलिए": 1157,
  "लयों": 1158,
  "शनिवार": 1159,
  "बजे": 1160,
  "माल": 1161,
  "विमान": 1162,
  "माना": 1163,
  "मता": 1164,
  "पिता": 1165,
  "लाने": 1166,
  "धिकारियों": 1167,
  "ार्थियों": 1168,
  "जिनमें": 1169,
  "गल": 1170,
  "खिलाड़ियों": 1171,
  "रवि": 1172,
  "बिक": 1173,
  "स्‍": 1174,
  "25": 1175,
  "कार्या": 1176,
  "फल": 1177,
  "पें": 1178,
  "बिना": 1179,
  "समान": 1180,
  "होना": 1181,
  "मों": 1182,
  "लाल": 1183,
  "टने": 1184,
  "क्रि": 1185,
  "टों": 1186,
  "क्रवार": 1187,
  "विशेष": 1188,
  "तहत": 1189,
  "ध्यान": 1190,
  "टिंग": 1191,
  "टन": 1192,
  "ड़ने": 1193,
  "यात्रियों": 1194,
  "धे": 1195,
  "मारी": 1196,
  "इयों": 1197,
  "वायर": 1198,
  "ंगलवार": 1199,
  "मंगलवार": 1200,
  "झे": 1201,
  "स्वी": 1202,
  "जीवन": 1203,
  "सौ": 1204,
  "लियों": 1205,
  "नए": 1206,
  "बनाया": 1207,
  "शुक्रवार": 1208,
  "र्ती": 1209,
  "लाइन": 1210,
  "इस्ते": 1211,
  "पुरस्कार": 1212,
  "पमान": 1213,
  "तापमान": 1214,
  "ंकियों": 1215,
  "आतंकियों": 1216,
  "शर्": 1217,
  "रेल": 1218,
  "ar": 1219,
  "लगाने": 1220,
  "ठी": 1221,
  "टमें": 1222,
  "भाई": 1223,
  "भर्ती": 1224,
  "परीक्षा": 1225,
  "कने": 1226,
  "कार्यक्रम": 1227,
  "शिकार": 1228,
  "मैच": 1229,
  "विधियों": 1230,
  "रविवार": 1231,
  "पाए": 1232,
  "डर": 1233,
  "वास": 1234,
  "स्थानीय": 1235,
  "मुका": 1236,
  "बल्ले": 1237,
  "देखते": 1238,
  "क्षित": 1239,
  "रिका": 1240,
  "मां": 1241,
  "आयोजित": 1242,
  "टियों": 1243,
  "गुरु": 1244,
  "जमान": 1245,
  "शियों": 1246,
  "आधिकार": 1247,
  "बल": 1248,
  "तिविधियों": 1249,
  "गतिविधियों": 1250,
  "दर्शन": 1251,
  "दूस": 1252,
  "खरी": 1253,
  "कां": 1254,
  "्यों": 1255,
  "द्यार्थियों": 1256,
  "विद्यार्थियों": 1257,
  "क्ता": 1258,
  "बिजली": 1259,
  "तन": 1260,
  "जिसे": 1261,
  "कियों": 1262,
  "वासियों": 1263,
  "हरा": 1264,
  "त्म": 1265,
  "जल्": 1266,
  "तवाली": 1267,
  "कोतवाली": 1268,
  "केदार": 1269,
  "उनमें": 1270,
  "सुबह": 1271,
  "अफ": 1272,
  "निवासी": 1273,
  "जनों": 1274,
  "वादियों": 1275,
  "शल": 1276,
  "कानू": 1277,
  "किरदार": 1278,
  "सों": 1279,
  "लाकार": 1280,
  "अनुमान": 1281,
  "कोवि": 1282,
  "लोक": 1283,
  "जानकार": 1284,
  "उठा": 1285,
  "सदी": 1286,
  "ंगी": 1287,
  "हिंदी": 1288,
  "पंचा": 1289,
  "ंचा": 1290,
  "दाधिकारियों": 1291,
  "पदाधिकारियों": 1292,
  "कलाकार": 1293,
  "कार्यकर्ता": 1294,
  "पारियों": 1295,
  "संस्कार": 1296,
  "गै": 1297,
  "राब": 1298,
  "भावित": 1299,
  "दिखा": 1300,
  "चाहते": 1301,
  "भो": 1302,
  "भि": 1303,
  "क्षक": 1304,
  "स्वीकार": 1305,
  "सरदार": 1306,
  "कार्यों": 1307,
  "ार्टमें": 1308,
  "नामें": 1309,
  "हमने": 1310,
  "बनाए": 1311,
  "सेवा": 1312,
  "14": 1313,
  "21": 1314,
  "ंद्रीय": 1315,
  "दों": 1316,
  "रखने": 1317,
  "अपार्टमें": 1318,
  "र्नामें": 1319,
  "टूर्नामें": 1320,
  "छो": 1321,
  "मुताबिक": 1322,
  "ड़कियों": 1323,
  "केंद्रीय": 1324,
  "मैंने": 1325,
  "लना": 1326,
  "इनकार": 1327,
  "मृ": 1328,
  "मेदार": 1329,
  "लदार": 1330,
  "व्यापारियों": 1331,
  "मामलों": 1332,
  "मंत्रियों": 1333,
  "त्रों": 1334,
  "लड़कियों": 1335,
  "मंदि": 1336,
  "ियां": 1337,
  "मेरिका": 1338,
  "अमेरिका": 1339,
  "उम्मीदवार": 1340,
  "पूरा": 1341,
  "पराधियों": 1342,
  "अपराधियों": 1343,
  "म्मेदार": 1344,
  "एजें": 1345,
  "लर": 1346,
  "आम": 1347,
  "बित": 1348,
  "त्कार": 1349,
  "गुरुवार": 1350,
  "पित": 1351,
  "व्यक्तियों": 1352,
  "भावना": 1353,
  "स्ट्र": 1354,
  "कैसे": 1355,
  "स्ती": 1356,
  "रोध": 1357,
  "राजस्थान": 1358,
  "न्याया": 1359,
  "लगी": 1360,
  "बाहर": 1361,
  "स्वास्थ": 1362,
  "कमें": 1363,
  "सड़": 1364,
  "सीलदार": 1365,
  "हसीलदार": 1366,
  "तहसीलदार": 1367,
  "त्ता": 1368,
  "बदला": 1369,
  "स्थापना": 1370,
  "बने": 1371,
  "चर्चा": 1372,
  "देशों": 1373,
  "जाएंगे": 1374,
  "देखने": 1375,
  "जगह": 1376,
  "ंकवादियों": 1377,
  "आतंकवादियों": 1378,
  "वेश": 1379,
  "माता": 1380,
  "गयी": 1381,
  "आकार": 1382,
  "प्रदान": 1383,
  "जिम्मेदार": 1384,
  "विद्यालयों": 1385,
  "हवाले": 1386,
  "बड़े": 1387,
  "बयान": 1388,
  "ष्ठ": 1389,
  "दाता": 1390,
  "जुलाई": 1391,
  "बले": 1392,
  "यादव": 1393,
  "सिल": 1394,
  "प्ले": 1395,
  "राय": 1396,
  "प्रस्ता": 1397,
  "ुमान": 1398,
  "स्थितियों": 1399,
  "कॉले": 1400,
  "तान": 1401,
  "सप्ता": 1402,
  "पुलिसकर्मियों": 1403,
  "हवाला": 1404,
  "कानदार": 1405,
  "दुकानदार": 1406,
  "मारियों": 1407,
  "हकार": 1408,
  "सलाहकार": 1409,
  "बॉली": 1410,
  "मरीजों": 1411,
  "विचार": 1412,
  "रिकार": 1413,
  "मदद": 1414,
  "पंचायत": 1415,
  "वाधिकार": 1416,
  "मानवाधिकार": 1417,
  "तत्व": 1418,
  "त्याशियों": 1419,
  "प्रत्याशियों": 1420,
  "तेदार": 1421,
  "योगी": 1422,
  "सकार": 1423,
  "भाइयों": 1424,
  "हरिया": 1425,
  "बेह": 1426,
  "लाइ": 1427,
  "50": 1428,
  "वीडियो": 1429,
  "टै": 1430,
  "प्रक्रिया": 1431,
  "खुद": 1432,
  "मुझे": 1433,
  "स्वास्थ्य": 1434,
  "निग": 1435,
  "तैयारियों": 1436,
  "राव": 1437,
  "िता": 1438,
  "षियों": 1439,
  "श्तेदार": 1440,
  "रिश्तेदार": 1441,
  "ईमान": 1442,
  "हनुमान": 1443,
  "वेदार": 1444,
  "दावेदार": 1445,
  "टेनमें": 1446,
  "प्रभार": 1447,
  "छात्रों": 1448,
  "रकार": 1449,
  "खिरकार": 1450,
  "हरी": 1451,
  "फाई": 1452,
  "सदस्य": 1453,
  "श्य": 1454,
  "खो": 1455,
  "भूमि": 1456,
  "आसमान": 1457,
  "फिल्में": 1458,
  "निधियों": 1459,
  "प्रतिनिधियों": 1460,
  "जोरदार": 1461,
  "दिवाली": 1462,
  "र्में": 1463,
  "नीतियों": 1464,
  "षयों": 1465,
  "विषयों": 1466,
  "बीमारियों": 1467,
  "तब": 1468,
  "परिस्थितियों": 1469,
  "हाथ": 1470,
  "आखिरकार": 1471,
  "बैंक": 1472,
  "मुं": 1473,
  "प्रभावित": 1474,
  "थि": 1475,
  "ज्ञान": 1476,
  "न्हें": 1477,
  "विधानसभा": 1478,
  "पूरे": 1479,
  "बस": 1480,
  "लात्कार": 1481,
  "बलात्कार": 1482,
  "दूर": 1483,
  "कमान": 1484,
  "एजेंसियों": 1485,
  "ेकेदार": 1486,
  "ठेकेदार": 1487,
  "निकायों": 1488,
  "क्सलियों": 1489,
  "नक्सलियों": 1490,
  "करियों": 1491,
  "ंका": 1492,
  "इंकार": 1493,
  "खबर": 1494,
  "अगले": 1495,
  "ष्कार": 1496,
  "ग्राम": 1497,
  "अति": 1498,
  "in": 1499,
  "ल्पना": 1500,
  "कल्पना": 1501,
  "णों": 1502,
  "रियों": 1503,
  "़यों": 1504,
  "जमें": 1505,
  "नेजमें": 1506,
  "मैनेजमें": 1507,
  "धर्में": 1508,
  "र्थियों": 1509,
  "्यर्थियों": 1510,
  "अभ्यर्थियों": 1511,
  "गू": 1512,
  "अका": 1513,
  "वाप": 1514,
  "गाड़ियों": 1515,
  "मंदिर": 1516,
  "्स": 1517,
  "स्कूल": 1518,
  "षि": 1519,
  "हिष्कार": 1520,
  "बहिष्कार": 1521,
  "फोन": 1522,
  "बेटियों": 1523,
  "हमला": 1524,
  "खियों": 1525,
  "र्खियों": 1526,
  "सुर्खियों": 1527,
  "टीमें": 1528,
  "दोषियों": 1529,
  "कहते": 1530,
  "टकार": 1531,
  "‍यों": 1532,
  "साथियों": 1533,
  "ंटेनमें": 1534,
  "कंटेनमें": 1535,
  "डि़यों": 1536,
  "सले": 1537,
  "पहुंचे": 1538,
  "तौर": 1539,
  "लित": 1540,
  "सफाई": 1541,
  "जिन": 1542,
  "रन": 1543,
  "वर्षीय": 1544,
  "वृ": 1545,
  "कोविड": 1546,
  "ड़ों": 1547,
  "हमान": 1548,
  "रामान": 1549,
  "रहता": 1550,
  "अपमान": 1551,
  "हियों": 1552,
  "पत्तियों": 1553,
  "कभी": 1554,
  "योगियों": 1555,
  "सहयोगियों": 1556,
  "जियों": 1557,
  "्जियों": 1558,
  "सब्जियों": 1559,
  "कारियों": 1560,
  "कीदार": 1561,
  "चौकीदार": 1562,
  "नकार": 1563,
  "पार्टियों": 1564,
  "तित्व": 1565,
  "स्तित्व": 1566,
  "अस्तित्व": 1567,
  "नौकरियों": 1568,
  "बोकार": 1569,
  "प्रकाश": 1570,
  "एक्": 1571,
  "षण": 1572,
  "अली": 1573,
  "पुरा": 1574,
  "आदिवासियों": 1575,
  "काल": 1576,
  "11": 1577,
  "चले": 1578,
  "टल": 1579,
  "पहचान": 1580,
  "सर्दियों": 1581,
  "मुसलमान": 1582,
  "क्ष्यों": 1583,
  "बंदियों": 1584,
  "संपत्तियों": 1585,
  "शिया": 1586,
  "मेहमान": 1587,
  "यालयों": 1588,
  "्थियों": 1589,
  "भार्थियों": 1590,
  "लाभार्थियों": 1591,
  "बारियों": 1592,
  "ोबारियों": 1593,
  "कारोबारियों": 1594,
  "पायों": 1595,
  "उपायों": 1596,
  "काइयों": 1597,
  "इकाइयों": 1598,
  "मदार": 1599,
  "खिलाडि़यों": 1600,
  "पेमें": 1601,
  "ित्व": 1602,
  "यित्व": 1603,
  "दायित्व": 1604,
  "रहमान": 1605,
  "समें": 1606,
  "राजनीति": 1607,
  "इतना": 1608,
  "तरी": 1609,
  "पाया": 1610,
  "ंत्र": 1611,
  "परिजनों": 1612,
  "मीर": 1613,
  "हमले": 1614,
  "न्ना": 1615,
  "महार": 1616,
  "ब्धियों": 1617,
  "लब्धियों": 1618,
  "उपलब्धियों": 1619,
  "लक्ष्यों": 1620,
  "भगवान": 1621,
  "फटकार": 1622,
  "सपना": 1623,
  "टीका": 1624,
  "यायालयों": 1625,
  "‍यायालयों": 1626,
  "न्‍यायालयों": 1627,
  "दर्शनकारियों": 1628,
  "र्मियों": 1629,
  "जानकारियों": 1630,
  "कार्यकार": 1631,
  "ोगियों": 1632,
  "रोगियों": 1633,
  "तकार": 1634,
  "निवासियों": 1635,
  "विश्वविद्यालयों": 1636,
  "बेकार": 1637,
  "दमदार": 1638,
  "धित्व": 1639,
  "निधित्व": 1640,
  "प्रतिनिधित्व": 1641,
  "कार्यालयों": 1642,
  "वियों": 1643,
  "णियों": 1644,
  "राजमान": 1645,
  "विराजमान": 1646,
  "दायों": 1647,
  "मुदायों": 1648,
  "समुदायों": 1649,
  "मौजूद": 1650,
  "होकर": 1651,
  "बू": 1652,
  "वक्ता": 1653,
  "शां": 1654,
  "थ्यों": 1655,
  "तथ्यों": 1656,
  "खुला": 1657,
  "गियों": 1658,
  "छता": 1659,
  "भूमिका": 1660,
  "लोकार": 1661,
  "लकर": 1662,
  "पतियों": 1663,
  "पमें": 1664,
  "चियों": 1665,
  "क्‍यों": 1666,
  "णयों": 1667,
  "निर्णयों": 1668,
  "फरमान": 1669,
  "नदियों": 1670,
  "्यकार": 1671,
  "हित्यकार": 1672,
  "साहित्यकार": 1673,
  "प्रदर्शनकारियों": 1674,
  "गर्मियों": 1675,
  "शानियों": 1676,
  "परेशानियों": 1677,
  "डवाला": 1678,
  "डियाडवाला": 1679,
  "नाडियाडवाला": 1680,
  "व्यक्तित्व": 1681,
  "नौतियों": 1682,
  "चुनौतियों": 1683,
  "रुपयों": 1684,
  "ट्रियों": 1685,
  "क्ट्रियों": 1686,
  "फैक्ट्रियों": 1687,
  "गीदार": 1688,
  "भागीदार": 1689,
  "निकार": 1690,
  "हानिकार": 1691,
  "प्रवासियों": 1692,
  "जनमान": 1693,
  "नत्व": 1694,
  "घनत्व": 1695,
  "चनाकार": 1696,
  "रचनाकार": 1697,
  "स्वास्थ्यकर्मियों": 1698,
  "रणार्थियों": 1699,
  "शरणार्थियों": 1700,
  "प्लेसमें": 1701,
  "साकार": 1702,
  "र्तियों": 1703,
  "ष्मान": 1704,
  "युष्मान": 1705,
  "आयुष्मान": 1706,
  "बई": 1707,
  "दिखाई": 1708,
  "ुकसान": 1709,
  "नुकसान": 1710,
  "शिक्षा": 1711,
  "मैदान": 1712,
  "न्यूज़": 1713,
  "ल्यों": 1714,
  "मूल्यों": 1715,
  "आते": 1716,
  "सुधार": 1717,
  "पहला": 1718,
  "an": 1719,
  "देश्यों": 1720,
  "द्देश्यों": 1721,
  "उद्देश्यों": 1722,
  "पक्षियों": 1723,
  "स्टमें": 1724,
  "वेस्टमें": 1725,
  "न्वेस्टमें": 1726,
  "इन्वेस्टमें": 1727,
  "जिलों": 1728,
  "जनप्रतिनिधियों": 1729,
  "कमियों": 1730,
  "धारदार": 1731,
  "टीदार": 1732,
  "पाटीदार": 1733,
  "ज्वाला": 1734,
  "ंकार": 1735,
  "गलतियों": 1736,
  "सीमें": 1737,
  "पंथियों": 1738,
  "लीयों": 1739,
  "दलीयों": 1740,
  "निर्दलीयों": 1741,
  "जातियों": 1742,
  "वारियों": 1743,
  "क्तिमान": 1744,
  "शक्तिमान": 1745,
  "भाजपाइयों": 1746,
  "सदियों": 1747,
  "ओवादियों": 1748,
  "माओवादियों": 1749,
  "मत्कार": 1750,
  "चमत्कार": 1751,
  "वमें": 1752,
  "मूवमें": 1753,
  "प्राधिकार": 1754,
  "मूर्तियों": 1755,
  "मितियों": 1756,
  "समितियों": 1757,
  "ोंमें": 1758,
  "पियों": 1759,
  "क्रमण": 1760,
  "परेशान": 1761,
  "मध्य": 1762,
  "झाड़ियों": 1763,
  "सचि": 1764,
  "गांधी": 1765,
  "मुकाबले": 1766,
  "खाने": 1767,
  "पकार": 1768,
  "क्षेत्रों": 1769,
  "लाकमान": 1770,
  "आलाकमान": 1771,
  "करनेवाले": 1772,
  "पाबंदियों": 1773,
  "गुलदार": 1774,
  "गायों": 1775,
  "खरीदार": 1776,
  "भागियों": 1777,
  "प्रतिभागियों": 1778,
  "ोहियों": 1779,
  "बागियों": 1780,
  "त्तियों": 1781,
  "परिकल्पना": 1782,
  "जेदार": 1783,
  "असरदार": 1784,
  "पक्षकार": 1785,
  "बच्चियों": 1786,
  "पालियों": 1787,
  "हंकार": 1788,
  "अहंकार": 1789,
  "ग्रियों": 1790,
  "ट्टियों": 1791,
  "ुट्टियों": 1792,
  "छुट्टियों": 1793,
  "चाधिकारियों": 1794,
  "च्चाधिकारियों": 1795,
  "उच्चाधिकारियों": 1796,
  "झदार": 1797,
  "समझदार": 1798,
  "मारदार": 1799,
  "तीमारदार": 1800,
  "चोटियों": 1801,
  "ीतकार": 1802,
  "संगीतकार": 1803,
  "मपंथियों": 1804,
  "लोनियों": 1805,
  "िम्मेदार": 1806,
  "ज़िम्मेदार": 1807,
  "प्रेमियों": 1808,
  "गलियों": 1809,
  "सवारियों": 1810,
  "ोसियों": 1811,
  "पड़ोसियों": 1812,
  "क्तियों": 1813,
  "टरटेनमें": 1814,
  "क्षार्थियों": 1815,
  "परीक्षार्थियों": 1816,
  "षधियों": 1817,
  "औषधियों": 1818,
  "चार्यों": 1819,
  "नाचार्यों": 1820,
  "धानाचार्यों": 1821,
  "प्रधानाचार्यों": 1822,
  "हाईकमान": 1823,
  "वेशियों": 1824,
  "मवेशियों": 1825,
  "वानुमान": 1826,
  "पूर्वानुमान": 1827,
  "मस्कार": 1828,
  "नमस्कार": 1829,
  "कहानियों": 1830,
  "तीयों": 1831,
  "भारतीयों": 1832,
  "पुकार": 1833,
  "वलपमें": 1834,
  "डेवलपमें": 1835,
  "उदार": 1836,
  "यरमें": 1837,
  "टायरमें": 1838,
  "रिटायरमें": 1839,
  "सेनानियों": 1840,
  "मकार": 1841,
  "ईमानदार": 1842,
  "माकेदार": 1843,
  "धमाकेदार": 1844,
  "नालियों": 1845,
  "ुटकार": 1846,
  "छुटकार": 1847,
  "्‍यों": 1848,
  "राज्‍यों": 1849,
  "अमान": 1850,
  "ज़मान": 1851,
  "पार्टमें": 1852,
  "डिपार्टमें": 1853,
  "वर्षोंमें": 1854,
  "राशियों": 1855,
  "छलियों": 1856,
  "मछलियों": 1857,
  "जिलाधिकारियों": 1858,
  "वघनत्व": 1859,
  "द्रवघनत्व": 1860,
  "सारणियों": 1861,
  "रहते": 1862,
  "पीएम": 1863,
  "सिर्फ": 1864,
  "ष्ट": 1865,
  "लिये": 1866,
  "मित्व": 1867,
  "स्वामित्व": 1868,
  "ल्या": 1869,
  "उपस्थित": 1870,
  "देव": 1871,
  "अफगा": 1872,
  "भूतियों": 1873,
  "ंडमान": 1874,
  "अंडमान": 1875,
  "सवाल": 1876,
  "व्यों": 1877,
  "तिथियों": 1878,
  "द्रोहियों": 1879,
  "निवर्तमान": 1880,
  "ऊपर": 1881,
  "गालियों": 1882,
  "तगालियों": 1883,
  "र्तगालियों": 1884,
  "पुर्तगालियों": 1885,
  "लिमें": 1886,
  "णमान": 1887,
  "गणमान": 1888,
  "डें": 1889,
  "भाईयों": 1890,
  "ऋषियों": 1891,
  "बत्तियों": 1892,
  "त्ती": 1893,
  "सूचियों": 1894,
  "त्रकार": 1895,
  "चित्रकार": 1896,
  "श्चित": 1897,
  "निश्चित": 1898,
  "मजेदार": 1899,
  "बिमारियों": 1900,
  "मतवाले": 1901,
  "फिल्मकार": 1902,
  "ड़ीदार": 1903,
  "जोड़ीदार": 1904,
  "वायरमें": 1905,
  "सामग्रियों": 1906,
  "बडि़यों": 1907,
  "ड़बडि़यों": 1908,
  "गड़बडि़यों": 1909,
  "ालयों": 1910,
  "मंत्रालयों": 1911,
  "मीरियों": 1912,
  "श्मीरियों": 1913,
  "कश्मीरियों": 1914,
  "धीमान": 1915,
  "आरियों": 1916,
  "जुआरियों": 1917,
  "ठाइयों": 1918,
  "मिठाइयों": 1919,
  "गोलियों": 1920,
  "क्षात्कार": 1921,
  "साक्षात्कार": 1922,
  "कॉलोनियों": 1923,
  "चमें": 1924,
  "पार्चमें": 1925,
  "रहनेवाली": 1926,
  "चौलियों": 1927,
  "ईवाला": 1928,
  "ोईवाला": 1929,
  "डोईवाला": 1930,
  "ंगियों": 1931,
  "बिकवाली": 1932,
  "धिमान": 1933,
  "न्कार": 1934,
  "इन्कार": 1935,
  "घरवाले": 1936,
  "बाड़ियों": 1937,
  "कबाड़ियों": 1938,
  "त्त्व": 1939,
  "महत्त्व": 1940,
  "जेवाला": 1941,
  "सुरजेवाला": 1942,
  "युक्तियों": 1943,
  "रोधियों": 1944,
  "विरोधियों": 1945,
  "यियों": 1946,
  "सायियों": 1947,
  "वसायियों": 1948,
  "व्यवसायियों": 1949,
  "स्मान": 1950,
  "उस्मान": 1951,
  "रायवाला": 1952,
  "ंतियों": 1953,
  "श्तकार": 1954,
  "काश्तकार": 1955,
  "कांग्रेसियों": 1956,
  "वलदार": 1957,
  "हवलदार": 1958,
  "ढ़ियों": 1959,
  "पीढ़ियों": 1960,
  "बियों": 1961,
  "ससम्मान": 1962,
  "परमान": 1963,
  "जिमें": 1964,
  "रेजिमें": 1965,
  "वकार": 1966,
  "रोटियों": 1967,
  "देशवासियों": 1968,
  "ाधिकार": 1969,
  "विशेषाधिकार": 1970,
  "लाधिकारियों": 1971,
  "आलाधिकारियों": 1972,
  "वीकार": 1973,
  "स्‍वीकार": 1974,
  "ाधिकारियों": 1975,
  "ंडाधिकारियों": 1976,
  "दंडाधिकारियों": 1977,
  "द्दार": 1978,
  "पोद्दार": 1979,
  "ल्में": 1980,
  "िल्में": 1981,
  "फ़िल्में": 1982,
  "जनप्रतिनिधित्व": 1983,
  "ॉर्में": 1984,
  "फॉर्में": 1985,
  "परफॉर्में": 1986,
  "नेत्रियों": 1987,
  "अभिनेत्रियों": 1988,
  "युवतियों": 1989,
  "मताधिकार": 1990,
  "सत्कार": 1991,
  "संबंधियों": 1992,
  "असम्मान": 1993,
  "टयों": 1994,
  "ग्राहियों": 1995,
  "हितग्राहियों": 1996,
  "स्त्रियों": 1997,
  "प्रजातियों": 1998,
  "दमें": 1999,
  "कदमें": 2000,
  "मुकदमें": 2001,
  "ंसमें": 2002,
  "उंसमें": 2003,
  "नाउंसमें": 2004,
  "शिकारियों": 2005,
  "बकरियों": 2006,
  "इंटरटेनमें": 2007,
  "यूमें": 2008,
  "क्यूमें": 2009,
  "कड़ियों": 2010,
  "मेटियों": 2011,
  "कमेटियों": 2012,
  "शहरवासियों": 2013,
  "लनाकार": 2014,
  "बेलनाकार": 2015,
  "्यालयों": 2016,
  "मुख्यालयों": 2017,
  "दाकार": 2018,
  "अदाकार": 2019,
  "छाइयों": 2020,
  "प्रभारियों": 2021,
  "गुरुत्व": 2022,
  "तिषियों": 2023,
  "ोतिषियों": 2024,
  "्योतिषियों": 2025,
  "ज्योतिषियों": 2026,
  "ज्यों": 2027,
  "त्यों": 2028,
  "छवियों": 2029,
  "यारियों": 2030,
  "क्यारियों": 2031,
  "दमियों": 2032,
  "अकादमियों": 2033,
  "रमपंथियों": 2034,
  "चरमपंथियों": 2035,
  "अस्वीकार": 2036,
  "चालयों": 2037,
  "ौचालयों": 2038,
  "शौचालयों": 2039,
  "बवाली": 2040,
  "डबवाली": 2041,
  "ंवाली": 2042,
  "लांवाली": 2043,
  "कालांवाली": 2044,
  "सुरक्षाकर्मियों": 2045,
  "यांवाली": 2046,
  "ल्यांवाली": 2047,
  "कोल्यांवाली": 2048,
  "यमान": 2049,
  "हादियों": 2050,
  "जिहादियों": 2051,
  "खुशियों": 2052,
  "याशियों": 2053,
  "‍याशियों": 2054,
  "त्‍याशियों": 2055,
  "प्रत्‍याशियों": 2056,
  "रातत्व": 2057,
  "पुरातत्व": 2058,
  "सायों": 2059,
  "वसायों": 2060,
  "व्यवसायों": 2061,
  "तरा": 2062,
  "घोषित": 2063,
  "आता": 2064,
  "क्ला": 2065,
  "फिटमें": 2066,
  "पढ़ें": 2067,
  "युवक": 2068,
  "ल्पियों": 2069,
  "शिल्पियों": 2070,
  "स्तशिल्पियों": 2071,
  "हस्तशिल्पियों": 2072,
  "लब": 2073,
  "ंकर": 2074,
  "आपकी": 2075,
  "कित": 2076,
  "महिलाओं": 2077,
  "मिलेगा": 2078,
  "्रहमान": 2079,
  "र्रहमान": 2080,
  "जुर्रहमान": 2081,
  "फीजुर्रहमान": 2082,
  "हफीजुर्रहमान": 2083,
  "करेगा": 2084,
  "जता": 2085,
  "चिका": 2086,
  "साड़ियों": 2087,
  "गदार": 2088,
  "दागदार": 2089,
  "विभूतियों": 2090,
  "लिपकार": 2091,
  "फ्लिपकार": 2092,
  "धानियों": 2093,
  "राजधानियों": 2094,
  "खेलियों": 2095,
  "ठखेलियों": 2096,
  "अठखेलियों": 2097,
  "ओमान": 2098,
  "पोस्ट": 2099,
  "जानेवाले": 2100,
  "दव्यों": 2101,
  "दुत्व": 2102,
  "न्दुत्व": 2103,
  "हिन्दुत्व": 2104,
  "ब्दियों": 2105,
  "ताब्दियों": 2106,
  "शताब्दियों": 2107,
  "पड़ता": 2108,
  "देशद्रोहियों": 2109,
  "एलिमें": 2110,
  "राष्ट्रपतियों": 2111,
  "बादियों": 2112,
  "ंकबादियों": 2113,
  "आतंकबादियों": 2114,
  "विपमें": 2115,
  "क्विपमें": 2116,
  "इक्विपमें": 2117,
  "जदार": 2118,
  "कर्जदार": 2119,
  "लाया": 2120,
  "प्रेमान": 2121,
  "ल्दार": 2122,
  "हाल्दार": 2123,
  "अगरबत्तियों": 2124,
  "क्तव्यों": 2125,
  "वक्तव्यों": 2126,
  "क्वाली": 2127,
  "ल्पकार": 2128,
  "शिल्पकार": 2129,
  "चने": 2130,
  "भवाली": 2131,
  "आईकार": 2132,
  "उपकार": 2133,
  "क्सियों": 2134,
  "टैक्सियों": 2135,
  "यजमान": 2136,
  "हान": 2137,
  "स्मतवाले": 2138,
  "किस्मतवाले": 2139,
  "कलकर्मियों": 2140,
  "मकलकर्मियों": 2141,
  "दमकलकर्मियों": 2142,
  "थापना": 2143,
  "स्‍थापना": 2144,
  "र्स्‍थापना": 2145,
  "नर्स्‍थापना": 2146,
  "पुनर्स्‍थापना": 2147,
  "‍तियों": 2148,
  "पत्‍तियों": 2149,
  "संपत्‍तियों": 2150,
  "वाहियों": 2151,
  "कार्यवाहियों": 2152,
  "ंगीकार": 2153,
  "अंगीकार": 2154,
  "दसे": 2155,
  "बोरियों": 2156,
  "छकार": 2157,
  "च्छकार": 2158,
  "स्वच्छकार": 2159,
  "कुलपतियों": 2160,
  "सालवाला": 2161,
  "ूवाला": 2162,
  "रखूवाला": 2163,
  "गोरखूवाला": 2164,
  "नियमान": 2165,
  "तदार": 2166,
  "जमानतदार": 2167,
  "ुकार": 2168,
  "स्तुकार": 2169,
  "वास्तुकार": 2170,
  "स्ट्रियों": 2171,
  "इंडस्ट्रियों": 2172,
  "मीडियाकर्मियों": 2173,
  "रिवाले": 2174,
  "भूरिवाले": 2175,
  "ंचमें": 2176,
  "लंचमें": 2177,
  "क्वायरमें": 2178,
  "रिक्वायरमें": 2179,
  "लवाले": 2180,
  "ॉलवाले": 2181,
  "हॉलवाले": 2182,
  "साधिकारियों": 2183,
  "त्साधिकारियों": 2184,
  "कित्साधिकारियों": 2185,
  "चिकित्साधिकारियों": 2186,
  "स्टेटमें": 2187,
  "मरियों": 2188,
  "बीमरियों": 2189,
  "व्याधियों": 2190,
  "रमें": 2191,
  "ॉरमें": 2192,
  "फॉरमें": 2193,
  "परफॉरमें": 2194,
  "नगरवासियों": 2195,
  "रूपमें": 2196,
  "ंचाइयों": 2197,
  "ऊंचाइयों": 2198,
  "बरवाला": 2199,
  "र्गियों": 2200,
  "मुर्गियों": 2201,
  "ण्यों": 2202,
  "पुण्यों": 2203,
  "विद्रोहियों": 2204,
  "वीमें": 2205,
  "खंडवाला": 2206,
  "लोखंडवाला": 2207,
  "दयालयों": 2208,
  "विदयालयों": 2209,
  "विश्वविदयालयों": 2210,
  "यत्व": 2211,
  "दायत्व": 2212,
  "धार्थियों": 2213,
  "विधार्थियों": 2214,
  "कर्त्व": 2215,
  "ंदार": 2216,
  "मींदार": 2217,
  "जमींदार": 2218,
  "सेमें": 2219,
  "लसेमें": 2220,
  "प्लसेमें": 2221,
  "रिप्लसेमें": 2222,
  "प्यों": 2223,
  "स्में": 2224,
  "रस्में": 2225,
  "कंपार्टमें": 2226,
  "सेंटीमें": 2227,
  "वामपंथियों": 2228,
  "ग्गियों": 2229,
  "ुग्गियों": 2230,
  "झुग्गियों": 2231,
  "ववादियों": 2232,
  "लगाववादियों": 2233,
  "अलगाववादियों": 2234,
  "ुत्व": 2235,
  "ंदुत्व": 2236,
  "हिंदुत्व": 2237,
  "़ियों": 2238,
  "ख़ियों": 2239,
  "र्ख़ियों": 2240,
  "सुर्ख़ियों": 2241,
  "स्तिथियों": 2242,
  "परिस्तिथियों": 2243,
  "विचौलियों": 2244,
  "केटप्रेमियों": 2245,
  "क्रिकेटप्रेमियों": 2246,
  "स्तियों": 2247,
  "बस्तियों": 2248,
  "रिमें": 2249,
  "पेरिमें": 2250,
  "क्सपेरिमें": 2251,
  "एक्सपेरिमें": 2252,
  "र्पियों": 2253,
  "कॉर्पियों": 2254,
  "स्कॉर्पियों": 2255,
  "पेशियों": 2256,
  "ंसपेशियों": 2257,
  "मांसपेशियों": 2258,
  "वायरनमें": 2259,
  "एनवायरनमें": 2260,
  "जरंगियों": 2261,
  "बजरंगियों": 2262,
  "वशक्तिमान": 2263,
  "सर्वशक्तिमान": 2264,
  "विधिमान": 2265,
  "्रतियों": 2266,
  "व्रतियों": 2267,
  "सम्पत्तियों": 2268,
  "हसंस्कार": 2269,
  "दाहसंस्कार": 2270,
  "पदर्शनकारियों": 2271,
  "यानकारियों": 2272,
  "टायानकारियों": 2273,
  "हटायानकारियों": 2274,
  "नेवाले": 2275,
  "चलानेवाले": 2276,
  "नियुक्तियों": 2277,
  "कतत्व": 2278,
  "राजकतत्व": 2279,
  "अराजकतत्व": 2280,
  "गमें": 2281,
  "सेगमें": 2282,
  "ीमें": 2283,
  "क्रीमें": 2284,
  "इंक्रीमें": 2285,
  "भारतवासियों": 2286,
  "सलियों": 2287,
  "‍सलियों": 2288,
  "क्‍सलियों": 2289,
  "नक्‍सलियों": 2290,
  "पाहियों": 2291,
  "सिपाहियों": 2292,
  "बाकियों": 2293,
  "दंतियों": 2294,
  "वदंतियों": 2295,
  "ंवदंतियों": 2296,
  "किंवदंतियों": 2297,
  "एंटरटेनमें": 2298,
  "धिकरियों": 2299,
  "प्राधिकरियों": 2300,
  "न्यायालयों": 2301,
  "फेरियों": 2302,
  "व्यमान": 2303,
  "द्रव्यमान": 2304,
  "खबरदार": 2305,
  "जीवियों": 2306,
  "परजीवियों": 2307,
  "ारीदार": 2308,
  "धारीदार": 2309,
  "दीकियों": 2310,
  "जदीकियों": 2311,
  "नजदीकियों": 2312,
  "नबियों": 2313,
  "ुतियों": 2314,
  "स्तुतियों": 2315,
  "प्रस्तुतियों": 2316,
  "ड़ीयों": 2317,
  "छड़ीयों": 2318,
  "तयों": 2319,
  "नीतयों": 2320,
  "कलमें": 2321,
  "लाइमें": 2322,
  "क्लाइमें": 2323,
  "जिम्मेदारियों": 2324,
  "मालाकार": 2325,
  "मणियों": 2326,
  "नाइयों": 2327,
  "िनाइयों": 2328,
  "ठिनाइयों": 2329,
  "कठिनाइयों": 2330,
  "धवासियों": 2331,
  "सिंधवासियों": 2332,
  "संगकार": 2333,
  "प्रतिभूतियों": 2334,
  "येदार": 2335,
  "कायेदार": 2336,
  "बकायेदार": 2337,
  "कालोनियों": 2338,
  "पुलिसर्मियों": 2339,
  "फलदार": 2340,
  "आपमें": 2341,
  "लाईयों": 2342,
  "कलाईयों": 2343,
  "माग्रियों": 2344,
  "सामाग्रियों": 2345,
  "दाकर्मियों": 2346,
  "विदाकर्मियों": 2347,
  "संविदाकर्मियों": 2348,
  "मेवाला": 2349,
  "शक्तियों": 2350,
  "‍कार": 2351,
  "अधि‍कार": 2352,
  "बदियों": 2353,
  "ंबदियों": 2354,
  "पांबदियों": 2355,
  "विपक्षियों": 2356,
  "सरियों": 2357,
  "थालियों": 2358,
  "दर्शियों": 2359,
  "क्षदर्शियों": 2360,
  "त्यक्षदर्शियों": 2361,
  "प्रत्यक्षदर्शियों": 2362,
  "देनेवाली": 2363,
  "मीरवाला": 2364,
  "स्पना": 2365,
  "रिस्पना": 2366,
  "परमें": 2367,
  "रंगियों": 2368,
  "बेरंगियों": 2369,
  "पड़ियों": 2370,
  "ोपड़ियों": 2371,
  "झोपड़ियों": 2372,
  "आनेवाले": 2373,
  "हाथियों": 2374,
  "्याचारियों": 2375,
  "थ्याचारियों": 2376,
  "मिथ्याचारियों": 2377,
  "गलवाली": 2378,
  "बगलवाली": 2379,
  "कॉपियों": 2380,
  "ूमें": 2381,
  "झूमें": 2382,
  "ईवाले": 2383,
  "ंचाईवाले": 2384,
  "उंचाईवाले": 2385,
  "थामें": 2386,
  "मतवाला": 2387,
  "म्मतवाला": 2388,
  "हिम्मतवाला": 2389,
  "खिड़कियों": 2390,
  "न्धियों": 2391,
  "बन्धियों": 2392,
  "सम्बन्धियों": 2393,
  "िकियों": 2394,
  "ोगिकियों": 2395,
  "द्योगिकियों": 2396,
  "ौद्योगिकियों": 2397,
  "प्रौद्योगिकियों": 2398,
  "हनियों": 2399,
  "कोहनियों": 2400,
  "नेरियों": 2401,
  "जनेरियों": 2402,
  "प्लिमें": 2403,
  "म्प्लिमें": 2404,
  "कॉम्प्लिमें": 2405,
  "अफगानियों": 2406,
  "फादार": 2407,
  "वफादार": 2408,
  "गीतकार": 2409,
  "धमान": 2410,
  "वर्धमान": 2411,
  "र्यों": 2412,
  "खिर्यों": 2413,
  "सुखिर्यों": 2414,
  "सेदार": 2415,
  "स्सेदार": 2416,
  "हिस्सेदार": 2417,
  "अखिरकार": 2418,
  "ोपकार": 2419,
  "परोपकार": 2420,
  "ोगपतियों": 2421,
  "द्योगपतियों": 2422,
  "उद्योगपतियों": 2423,
  "लनिवासियों": 2424,
  "मूलनिवासियों": 2425,
  "ुवाला": 2426,
  "थुवाला": 2427,
  "त्थुवाला": 2428,
  "नत्थुवाला": 2429,
  "अकार": 2430,
  "उकार": 2431,
  "ेदार": 2432,
  "ज़ेदार": 2433,
  "मज़ेदार": 2434,
  "ि़यों": 2435,
  "ढि़यों": 2436,
  "सीढि़यों": 2437,
  "तकवादियों": 2438,
  "ंतकवादियों": 2439,
  "आंतकवादियों": 2440,
  "रीवाला": 2441,
  "नेरीवाला": 2442,
  "गनेरीवाला": 2443,
  "मातियों": 2444,
  "जमातियों": 2445,
  "लवादियों": 2446,
  "क्सलवादियों": 2447,
  "नक्सलवादियों": 2448,
  "बिचौलियों": 2449,
  "रखनेवाले": 2450,
  "बेसमें": 2451,
  "संकल्पना": 2452,
  "्याशियों": 2453,
  "य्याशियों": 2454,
  "अय्याशियों": 2455,
  "पैमें": 2456,
  "लावासियों": 2457,
  "ल्लावासियों": 2458,
  "हल्लावासियों": 2459,
  "मोहल्लावासियों": 2460,
  "न्टेनमें": 2461,
  "कन्टेनमें": 2462,
  "रामें": 2463,
  "न्हैं": 2464,
  "एन्हैं": 2465,
  "म्मान": 2466,
  "अम्मान": 2467,
  "झामान": 2468,
  "माझामान": 2469,
  "एनाउंसमें": 2470,
  "यादार": 2471,
  "कायादार": 2472,
  "बकायादार": 2473,
  "डाक्यूमें": 2474,
  "रीकार": 2475,
  "खिरीकार": 2476,
  "आखिरीकार": 2477,
  "ददार": 2478,
  "खरीददार": 2479,
  "रहवाली": 2480,
  "लकड़ियों": 2481,
  "ंइयों": 2482,
  "झांइयों": 2483,
  "मातृत्व": 2484,
  "्रेणियों": 2485,
  "श्रेणियों": 2486,
  "घड़ियों": 2487,
  "ओमकार": 2488,
  "टाचारियों": 2489,
  "ष्टाचारियों": 2490,
  "्रष्टाचारियों": 2491,
  "भ्रष्टाचारियों": 2492,
  "धमें": 2493,
  "्डवासियों": 2494,
  "वार्डवासियों": 2495,
  "वृत्तियों": 2496,
  "प्रवृत्तियों": 2497,
  "त्तमान": 2498,
  "वर्त्तमान": 2499,
  "्रकार": 2500,
  "म्रकार": 2501,
  "ताम्रकार": 2502,
  "वविद्यालयों": 2503,
  "‍वविद्यालयों": 2504,
  "विश्‍वविद्यालयों": 2505,
  "दीवाली": 2506,
  "कामियों": 2507,
  "नाकामियों": 2508,
  "टरपंथियों": 2509,
  "ट्टरपंथियों": 2510,
  "कट्टरपंथियों": 2511,
  "टीकाकर्मियों": 2512,
  "कार्रवाईयों": 2513,
  "रोकार": 2514,
  "पैरोकार": 2515,
  "युमें": 2516,
  "क्युमें": 2517,
  "डॉक्युमें": 2518,
  "अच्छाइयों": 2519,
  "धेसियों": 2520,
  "मधेसियों": 2521,
  "शनकार": 2522,
  "राशनकार": 2523,
  "हुंकार": 2524,
  "षिकार": 2525,
  "शोरियों": 2526,
  "किशोरियों": 2527,
  "विकार": 2528,
  "क्कार": 2529,
  "मक्कार": 2530,
  "मादियों": 2531,
  "न्मादियों": 2532,
  "उन्मादियों": 2533,
  "हासकार": 2534,
  "तिहासकार": 2535,
  "इतिहासकार": 2536,
  "कदार": 2537,
  "हकदार": 2538,
  "टीवाला": 2539,
  "रोटीवाला": 2540,
  "बरोटीवाला": 2541,
  "दूवाला": 2542,
  "आदूवाला": 2543,
  "साइनमें": 2544,
  "असाइनमें": 2545,
  "कनेवाला": 2546,
  "मकनेवाला": 2547,
  "चमकनेवाला": 2548,
  "धकार": 2549,
  "अंधकार": 2550,
  "तीत्व": 2551,
  "सतीत्व": 2552,
  "पार्टीयों": 2553,
  "सदस्‍यों": 2554,
  "बेईमान": 2555,
  "लमारियों": 2556,
  "अलमारियों": 2557,
  "नदार": 2558,
  "ब्बियों": 2559,
  "डिब्बियों": 2560,
  "विष्कार": 2561,
  "अविष्कार": 2562,
  "एनवायरमें": 2563,
  "ग्रामवासियों": 2564,
  "माहियों": 2565,
  "तिमाहियों": 2566,
  "ंगामेदार": 2567,
  "हंगामेदार": 2568,
  "ककार": 2569,
  "मैककार": 2570,
  "बड़ियों": 2571,
  "ड़बड़ियों": 2572,
  "गड़बड़ियों": 2573,
  "वंशियों": 2574,
  "ंद्रवंशियों": 2575,
  "चंद्रवंशियों": 2576,
  "जनवाली": 2577,
  "योजनवाली": 2578,
  "प्रयोजनवाली": 2579,
  "बीवियों": 2580,
  "कवियों": 2581,
  "दरकार": 2582,
  "मानियों": 2583,
  "भिमानियों": 2584,
  "माभिमानियों": 2585,
  "र्माभिमानियों": 2586,
  "धर्माभिमानियों": 2587,
  "विमें": 2588,
  "क्षेत्रवासियों": 2589,
  "लेपमें": 2590,
  "वलेपमें": 2591,
  "डेवलेपमें": 2592,
  "द्रियों": 2593,
  "न्द्रियों": 2594,
  "इंन्द्रियों": 2595,
  "रिकियों": 2596,
  "मेरिकियों": 2597,
  "अमेरिकियों": 2598,
  "‍तेदार": 2599,
  "श्‍तेदार": 2600,
  "रिश्‍तेदार": 2601,
  "भिमान": 2602,
  "स्वाभिमान": 2603,
  "नाकार": 2604,
  "‍छाइयों": 2605,
  "अच्‍छाइयों": 2606,
  "वनियों": 2607,
  "छावनियों": 2608,
  "गिरदार": 2609,
  "ृतियों": 2610,
  "स्कृतियों": 2611,
  "संस्कृतियों": 2612,
  "त्ताकार": 2613,
  "हत्ताकार": 2614,
  "वृहत्ताकार": 2615,
  "होनेवाले": 2616,
  "बूदार": 2617,
  "बदबूदार": 2618,
  "रमान": 2619,
  "मयों": 2620,
  "किमयों": 2621,
  "र्किमयों": 2622,
  "पत्नियों": 2623,
  "कालमें": 2624,
  "राष्ट्रोंमें": 2625,
  "भारतमें": 2626,
  "फनामें": 2627,
  "लफनामें": 2628,
  "हलफनामें": 2629,
  "तिमान": 2630,
  "गतिमान": 2631,
  "रहवासियों": 2632,
  "रियादियों": 2633,
  "फरियादियों": 2634,
  "शेड़ियों": 2635,
  "नशेड़ियों": 2636,
  "शास्त्रियों": 2637,
  "र्थशास्त्रियों": 2638,
  "अर्थशास्त्रियों": 2639,
  "सफाईकर्मियों": 2640,
  "साक्ष्यों": 2641,
  "सांत्व": 2642,
  "ईयों": 2643,
  "काईयों": 2644,
  "इकाईयों": 2645,
  "करनेवाला": 2646,
  "राइयों": 2647,
  "बुराइयों": 2648,
  "मिटमें": 2649,
  "कमिटमें": 2650,
  "श्वारियों": 2651,
  "दुश्वारियों": 2652,
  "भकार": 2653,
  "ंभकार": 2654,
  "कुंभकार": 2655,
  "रिप्लेसमें": 2656,
  "जूमकार": 2657,
  "ंगाइयों": 2658,
  "दंगाइयों": 2659,
  "वमान": 2660,
  "सर्वमान": 2661,
  "पापना": 2662,
  "अनाउंसमें": 2663,
  "्रीमें": 2664,
  "ग्रीमें": 2665,
  "एग्रीमें": 2666,
  "बेदार": 2667,
  "सूबेदार": 2668,
  "कॉमें": 2669,
  "रीदार": 2670,
  "़रीदार": 2671,
  "ख़रीदार": 2672,
  "ठियों": 2673,
  "लाठियों": 2674,
  "ंवाला": 2675,
  "रांवाला": 2676,
  "जरांवाला": 2677,
  "गुजरांवाला": 2678,
  "स्तकार": 2679,
  "कास्तकार": 2680,
  "तिकार": 2681,
  "र्तिकार": 2682,
  "मूर्तिकार": 2683,
  "ओंकार": 2684,
  "कायमान": 2685,
  "न्में": 2686,
  "टेन्में": 2687,
  "ंटेन्में": 2688,
  "कंटेन्में": 2689,
  "र्सियों": 2690,
  "कुर्सियों": 2691,
  "पुत्रियों": 2692,
  "जायमान": 2693,
  "ंजायमान": 2694,
  "गुंजायमान": 2695,
  "नेदार": 2696,
  "थानेदार": 2697,
  "रोजेदार": 2698,
  "बतियों": 2699,
  "ब्बतियों": 2700,
  "तिब्बतियों": 2701,
  "सहकार": 2702,
  "लंकार": 2703,
  "अलंकार": 2704,
  "भर्तियों": 2705,
  "‍मान": 2706,
  "ष्‍मान": 2707,
  "युष्‍मान": 2708,
  "आयुष्‍मान": 2709,
  "बरदार": 2710,
  "ाबरदार": 2711,
  "ंडाबरदार": 2712,
  "झंडाबरदार": 2713,
  "ैलियों": 2714,
  "रैलियों": 2715,
  "‍ियों": 2716,
  "ड़‍ियों": 2717,
  "खिलाड़‍ियों": 2718,
  "ग्रवादियों": 2719,
  "उग्रवादियों": 2720,
  "कसमें": 2721,
  "लीमें": 2722,
  "प्लीमें": 2723,
  "इंप्लीमें": 2724,
  "द्धिमान": 2725,
  "बुद्धिमान": 2726,
  "ीटमें": 2727,
  "ट्रीटमें": 2728,
  "सेवादार": 2729,
  "रेयों": 2730,
  "लिवाली": 2731,
  "जारियों": 2732,
  "गुजारियों": 2733,
  "कारगुजारियों": 2734,
  "रहनेवाले": 2735,
  "बूटियों": 2736,
  "पणियों": 2737,
  "प्पणियों": 2738,
  "टिप्पणियों": 2739,
  "जूमदार": 2740,
  "मजूमदार": 2741,
  "ंधियों": 2742,
  "आंधियों": 2743,
  "जेसियों": 2744,
  "एंजेसियों": 2745,
  "असामान": 2746,
  "डॉक्यूमें": 2747,
  "क्षकार": 2748,
  "लक्षकार": 2749,
  "कार्यविधियों": 2750,
  "अतिथियों": 2751,
  "क्रमणकारियों": 2752,
  "अतिक्रमणकारियों": 2753,
  "लेमान": 2754,
  "सुलेमान": 2755,
  "विश्वासियों": 2756,
  "शिक्षाधिकारियों": 2757,
  "शीयों": 2758,
  "याशीयों": 2759,
  "तयाशीयों": 2760,
  "प्रतयाशीयों": 2761,
  "रस्कार": 2762,
  "तिरस्कार": 2763,
  "द्वियों": 2764,
  "वंद्वियों": 2765,
  "द्वंद्वियों": 2766,
  "प्रतिद्वंद्वियों": 2767,
  "ीकियों": 2768,
  "बारीकियों": 2769,
  "लिकार": 2770,
  "ल्लिकार": 2771,
  "मल्लिकार": 2772,
  "ढ़तियों": 2773,
  "आढ़तियों": 2774,
  "जयकार": 2775,
  "ईदार": 2776,
  "टाईदार": 2777,
  "बटाईदार": 2778,
  "तारोहियों": 2779,
  "वतारोहियों": 2780,
  "पर्वतारोहियों": 2781,
  "्रांतियों": 2782,
  "भ्रांतियों": 2783,
  "टेदार": 2784,
  "कांटेदार": 2785,
  "मकड़ियों": 2786,
  "अभिमान": 2787,
  "महकमें": 2788,
  "मर": 2789,
  "प्रि": 2790,
  "मुला": 2791,
  "लौ": 2792,
  "त्री": 2793,
  "वाने": 2794,
  "संबंध": 2795,
  "फीसदी": 2796,
  "निर्माण": 2797,
  "सुन": 2798,
  "रहेगा": 2799,
  "ल्ड": 2800,
  "ग्रामी": 2801,
  "हादसे": 2802,
  "200": 2803,
  "उपल": 2804,
  "पर्या": 2805,
  "क्षमता": 2806,
  "सरकारी": 2807,
  "सूत्रों": 2808,
  "याचिका": 2809,
  "क्रमित": 2810,
  "18": 2811,
  "खन": 2812,
  "कराई": 2813,
  "माने": 2814,
  "पॉ": 2815,
  "देकर": 2816,
  "ग्रामीणों": 2817,
  "जाकर": 2818,
  "इलाके": 2819,
  "टरने": 2820,
  "विक": 2821,
  "ंता": 2822,
  "देखकर": 2823,
  "संक्रमित": 2824,
  "क्कर": 2825,
  "टें": 2826,
  "तैना": 2827,
  "नाथ": 2828,
  "झार": 2829,
  "बंगा": 2830,
  "देता": 2831,
  "बड़ा": 2832,
  "बनाकर": 2833,
  "वाह": 2834,
  "देंगे": 2835,
  "समे": 2836,
  "उनसे": 2837,
  "ाई": 2838,
  "आरोपी": 2839,
  "पहुंचा": 2840,
  "आती": 2841,
  "निस्तान": 2842,
  "संबंधित": 2843,
  "्यार": 2844,
  "खू": 2845,
  "ल्ला": 2846,
  "देना": 2847,
  "न्द्र": 2848,
  "लका": 2849,
  "गोली": 2850,
  "विष": 2851,
  "अंत": 2852,
  "शर्मा": 2853,
  "फलता": 2854,
  "धु": 2855,
  "यता": 2856,
  "लिका": 2857,
  "थाने": 2858,
  "ैली": 2859,
  "सुनवाई": 2860,
  "संस्था": 2861,
  "संभावना": 2862,
  "गठ": 2863,
  "छत्ती": 2864,
  "राशि": 2865,
  "नया": 2866,
  "स्तर": 2867,
  "खार": 2868,
  "रित": 2869,
  "इंटरने": 2870,
  "चंद्र": 2871,
  "हिस्": 2872,
  "नर": 2873,
  "24": 2874,
  "लगता": 2875,
  "गये": 2876,
  "चाल": 2877,
  "जिसका": 2878,
  "शव": 2879,
  "सुना": 2880,
  "उपलब्": 2881,
  "खेल": 2882,
  "प्रशासन": 2883,
  "बाव": 2884,
  "लगाए": 2885,
  "णी": 2886,
  "ड़की": 2887,
  "सुपर": 2888,
  "आइ": 2889,
  "फैसले": 2890,
  "शत": 2891,
  "मंडल": 2892,
  "पैसे": 2893,
  "कानों": 2894,
  "कीमत": 2895,
  "जाये": 2896,
  "रखा": 2897,
  "सुरक्षित": 2898,
  "13": 2899,
  "वाना": 2900,
  "लाखों": 2901,
  "बनाई": 2902,
  "पेश": 2903,
  "ंकी": 2904,
  "काली": 2905,
  "्रें": 2906,
  "शिव": 2907,
  "अमित": 2908,
  "पूछता": 2909,
  "विश्वविद्या": 2910,
  "भीर": 2911,
  "टाने": 2912,
  "युवा": 2913,
  "नित": 2914,
  "बढ़ाने": 2915,
  "ंदगी": 2916,
  "आग": 2917,
  "जरूरत": 2918,
  "ंदर": 2919,
  "साबित": 2920,
  "घोषणा": 2921,
  "तिवार": 2922,
  "अचान": 2923,
  "at": 2924,
  "कला": 2925,
  "आगा": 2926,
  "मौका": 2927,
  "मिक": 2928,
  "उत्पा": 2929,
  "तीनों": 2930,
  "करेगी": 2931,
  "मकर": 2932,
  "ंटे": 2933,
  "खों": 2934,
  "बीते": 2935,
  "सामना": 2936,
  "प्रदर्शन": 2937,
  "व्यापार": 2938,
  "शिकायत": 2939,
  "पटना": 2940,
  "ट्रेलिया": 2941,
  "एच": 2942,
  "तरफ": 2943,
  "‍या": 2944,
  "सफलता": 2945,
  "कद": 2946,
  "अफगानिस्तान": 2947,
  "वाया": 2948,
  "शाह": 2949,
  "गुप्ता": 2950,
  "ड़ित": 2951,
  "कले": 2952,
  "तरीके": 2953,
  "मुंबई": 2954,
  "आव": 2955,
  "चली": 2956,
  "स्ट्रेलिया": 2957,
  "निकल": 2958,
  "अध्यक्षता": 2959,
  "मूल": 2960,
  "उससे": 2961,
  "मतदान": 2962,
  "रास्ते": 2963,
  "फ्रें": 2964,
  "पाने": 2965,
  "लगाई": 2966,
  "गार": 2967,
  "समार": 2968,
  "बनने": 2969,
  "किये": 2970,
  "अर्": 2971,
  "पदों": 2972,
  "वधान": 2973,
  "्ता": 2974,
  "प्रमुख": 2975,
  "पाई": 2976,
  "दुकान": 2977,
  "समि": 2978,
  "केवल": 2979,
  "दूसरी": 2980,
  "रहती": 2981,
  "परियोजना": 2982,
  "लिक": 2983,
  "रैली": 2984,
  "पीड़ित": 2985,
  "लेते": 2986,
  "जमकर": 2987,
  "ब्र": 2988,
  "नरेंद्र": 2989,
  "गंभीर": 2990,
  "नंबर": 2991,
  "कोलका": 2992,
  "कोलकाता": 2993,
  "जवाब": 2994,
  "शादी": 2995,
  "नियमित": 2996,
  "तम": 2997,
  "वैसे": 2998,
  "हायता": 2999,
  "सहायता": 3000,
  "अध्या": 3001,
  "वां": 3002,
  "सत्ता": 3003,
  "मिलकर": 3004,
  "वु": 3005,
  "िश": 3006,
  "क्षकों": 3007,
  "22": 3008,
  "प्रता": 3009,
  "वैक्सी": 3010,
  "समिति": 3011,
  "जल्द": 3012,
  "लेना": 3013,
  "त्ये": 3014,
  "बाकी": 3015,
  "फिल्मों": 3016,
  "वार्ड": 3017,
  "कैं": 3018,
  "गांवों": 3019,
  "बां": 3020,
  "दारी": 3021,
  "सवार": 3022,
  "सकी": 3023,
  "मले": 3024,
  "रोकने": 3025,
  "लाना": 3026,
  "धर": 3027,
  "वापस": 3028,
  "वकी": 3029,
  "लान": 3030,
  "विधायक": 3031,
  "टकर": 3032,
  "शंकर": 3033,
  "फें": 3034,
  "जेपी": 3035,
  "मिलता": 3036,
  "जगार": 3037,
  "रोजगार": 3038,
  "जेता": 3039,
  "विजेता": 3040,
  "टाई": 3041,
  "रेलवे": 3042,
  "खाना": 3043,
  "क्टरों": 3044,
  "गेंद": 3045,
  "चिकि": 3046,
  "कश्": 3047,
  "सरों": 3048,
  "तेल": 3049,
  "लड़की": 3050,
  "्यता": 3051,
  "वर्षों": 3052,
  "प्रत्ये": 3053,
  "सिया": 3054,
  "आतंकी": 3055,
  "डाउन": 3056,
  "आसान": 3057,
  "उपचार": 3058,
  "जानते": 3059,
  "चिंता": 3060,
  "दलों": 3061,
  "चौहान": 3062,
  "मुख्या": 3063,
  "समर्थ": 3064,
  "प्री": 3065,
  "जेल": 3066,
  "हमारे": 3067,
  "सालों": 3068,
  "वायरस": 3069,
  "क़": 3070,
  "चिकित्": 3071,
  "तरराष्ट्रीय": 3072,
  "अंतरराष्ट्रीय": 3073,
  "माह": 3074,
  "लगभग": 3075,
  "नती": 3076,
  "कृषि": 3077,
  "स्टार": 3078,
  "बचा": 3079,
  "तय": 3080,
  "यही": 3081,
  "ंसे": 3082,
  "हता": 3083,
  "सोशल": 3084,
  "कार्ड": 3085,
  "पान": 3086,
  "ल्ले": 3087,
  "ऑस्ट्रेलिया": 3088,
  "सुविधा": 3089,
  "संगठ": 3090,
  "मुलाका": 3091,
  "अहम": 3092,
  "साफ": 3093,
  "श्यकता": 3094,
  "आवश्यकता": 3095,
  "सात": 3096,
  "हुल": 3097,
  "लैंड": 3098,
  "दस्ता": 3099,
  "सीटों": 3100,
  "छोड़": 3101,
  "हली": 3102,
  "उनको": 3103,
  "लिखा": 3104,
  "मिलेगी": 3105,
  "हवाई": 3106,
  "मानना": 3107,
  "एशिया": 3108,
  "निर्धार": 3109,
  "वार्ता": 3110,
  "प्रतिशत": 3111,
  "देखा": 3112,
  "रिकी": 3113,
  "जिसकी": 3114,
  "र्च": 3115,
  "बज": 3116,
  "बों": 3117,
  "बंधन": 3118,
  "ज्ञापन": 3119,
  "दल": 3120,
  "नाग": 3121,
  "तेज": 3122,
  "कोहली": 3123,
  "निकों": 3124,
  "इनके": 3125,
  "विता": 3126,
  "कली": 3127,
  "इस्तेमाल": 3128,
  "भागी": 3129,
  "ंतजार": 3130,
  "इंतजार": 3131,
  "वाददाता": 3132,
  "संवाददाता": 3133,
  "तने": 3134,
  "कप्ता": 3135,
  "धिकारी": 3136,
  "उपलब्ध": 3137,
  "छी": 3138,
  "एंगे": 3139,
  "गों": 3140,
  "गंगा": 3141,
  "सीमा": 3142,
  "16": 3143,
  "टेस्ट": 3144,
  "शू": 3145,
  "यम": 3146,
  "श्या": 3147,
  "कमी": 3148,
  "शिक्षकों": 3149,
  "वाहनों": 3150,
  "षा": 3151,
  "फरार": 3152,
  "देगा": 3153,
  "शुरु": 3154,
  "पहुंचने": 3155,
  "इन्हें": 3156,
  "प्रवक्ता": 3157,
  "किनार": 3158,
  "शाम": 3159,
  "चलाने": 3160,
  "शकों": 3161,
  "प्यार": 3162,
  "स्थापित": 3163,
  "खिले": 3164,
  "सड़कों": 3165,
  "आपने": 3166,
  "षद": 3167,
  "जने": 3168,
  "नियमों": 3169,
  "प्रचार": 3170,
  "मिलते": 3171,
  "फोटो": 3172,
  "खाते": 3173,
  "अभिने": 3174,
  "ड़ाई": 3175,
  "ख्": 3176,
  "यात्रा": 3177,
  "नौती": 3178,
  "चुनौती": 3179,
  "पसं": 3180,
  "निगम": 3181,
  "खेती": 3182,
  "यकों": 3183,
  "उम्मीदवारों": 3184,
  "000": 3185,
  "दने": 3186,
  "रखना": 3187,
  "वहार": 3188,
  "कर्ना": 3189,
  "शों": 3190,
  "ोबार": 3191,
  "कारोबार": 3192,
  "मुना": 3193,
  "लगाते": 3194,
  "जवानों": 3195,
  "हराया": 3196,
  "निर्धारित": 3197,
  "षित": 3198,
  "लते": 3199,
  "डॉक्टरों": 3200,
  "रिली": 3201,
  "लगने": 3202,
  "खेले": 3203,
  "विरोध": 3204,
  "निधि": 3205,
  "बला": 3206,
  "र्जी": 3207,
  "भु": 3208,
  "आकर": 3209,
  "समझ": 3210,
  "मती": 3211,
  "महंगा": 3212,
  "स्कर": 3213,
  "लखन": 3214,
  "पने": 3215,
  "टिव": 3216,
  "ख़": 3217,
  "एक्स": 3218,
  "सड़क": 3219,
  "बोधित": 3220,
  "बचाने": 3221,
  "मिलती": 3222,
  "स्तार": 3223,
  "ूलों": 3224,
  "अभिनेता": 3225,
  "यूपी": 3226,
  "जायेगा": 3227,
  "िका": 3228,
  "चेता": 3229,
  "ंती": 3230,
  "सहार": 3231,
  "विकसित": 3232,
  "अस्पतालों": 3233,
  "दूरों": 3234,
  "स्ना": 3235,
  "बिने": 3236,
  "मेरिकी": 3237,
  "अमेरिकी": 3238,
  "आं": 3239,
  "हॉ": 3240,
  "दोबार": 3241,
  "स्तों": 3242,
  "सचिव": 3243,
  "रोहित": 3244,
  "मैचों": 3245,
  "हंगा": 3246,
  "टक्कर": 3247,
  "टक": 3248,
  "व्यवहार": 3249,
  "हटाने": 3250,
  "मकी": 3251,
  "चलने": 3252,
  "वली": 3253,
  "तुलना": 3254,
  "न्होंने": 3255,
  "ां": 3256,
  "स्वीरें": 3257,
  "तस्वीरें": 3258,
  "बान": 3259,
  "प्रत्या": 3260,
  "पढ़ाई": 3261,
  "मला": 3262,
  "घरों": 3263,
  "योगिता": 3264,
  "कैबिने": 3265,
  "हाथों": 3266,
  "बाजी": 3267,
  "वुड": 3268,
  "चालित": 3269,
  "थित": 3270,
  "रखते": 3271,
  "कू": 3272,
  "चाहता": 3273,
  "लड़ाई": 3274,
  "पुराने": 3275,
  "लाभ": 3276,
  "23": 3277,
  "जिन्हें": 3278,
  "बलों": 3279,
  "थियार": 3280,
  "हथियार": 3281,
  "समाज": 3282,
  "इलाकों": 3283,
  "स्को": 3284,
  "बल्कि": 3285,
  "शाला": 3286,
  "टाचार": 3287,
  "संघ": 3288,
  "नें": 3289,
  "मानित": 3290,
  "रहेंगे": 3291,
  "दर्शकों": 3292,
  "स्ला": 3293,
  "लगाकर": 3294,
  "आरोपित": 3295,
  "खरीदने": 3296,
  "पालिका": 3297,
  "बें": 3298,
  "सूचित": 3299,
  "प्रसार": 3300,
  "लेंगे": 3301,
  "वती": 3302,
  "काले": 3303,
  "छली": 3304,
  "चुनावों": 3305,
  "लता": 3306,
  "शित": 3307,
  "प्रतियोगिता": 3308,
  "जदूरों": 3309,
  "मजदूरों": 3310,
  "कथित": 3311,
  "प्रती": 3312,
  "भले": 3313,
  "पूर": 3314,
  "प्राप्त": 3315,
  "रखें": 3316,
  "राहुल": 3317,
  "वेदन": 3318,
  "कत": 3319,
  "कल्या": 3320,
  "कितना": 3321,
  "्ला": 3322,
  "किलो": 3323,
  "खी": 3324,
  "आधारित": 3325,
  "थीं": 3326,
  "ष्टाचार": 3327,
  "संबोधित": 3328,
  "निकले": 3329,
  "हिस्से": 3330,
  "स्कूलों": 3331,
  "इस्ला": 3332,
  "रवाना": 3333,
  "जिसने": 3334,
  "जवान": 3335,
  "बातें": 3336,
  "काई": 3337,
  "उठाया": 3338,
  "दुकानों": 3339,
  "मकान": 3340,
  "ममता": 3341,
  "शाना": 3342,
  "शार": 3343,
  "वितीय": 3344,
  "द्वितीय": 3345,
  "सत": 3346,
  "खास": 3347,
  "रहना": 3348,
  "घंटे": 3349,
  "संचालित": 3350,
  "17": 3351,
  "किता": 3352,
  "रचना": 3353,
  "बाई": 3354,
  "अने": 3355,
  "नव": 3356,
  "फान": 3357,
  "ऐसी": 3358,
  "जताई": 3359,
  "समेत": 3360,
  "मांगी": 3361,
  "मुद्": 3362,
  "संगी": 3363,
  "जला": 3364,
  "बाइक": 3365,
  "बताई": 3366,
  "फिया": 3367,
  "डाला": 3368,
  "सिले": 3369,
  "अखिले": 3370,
  "प्रावधान": 3371,
  "ड़ता": 3372,
  "सकेंगे": 3373,
  "संके": 3374,
  "जयंती": 3375,
  "बढ़कर": 3376,
  "रहें": 3377,
  "सुनिश्चित": 3378,
  "मजब": 3379,
  "मजबू": 3380,
  "मुकाबला": 3381,
  "आदेश": 3382,
  "आंखों": 3383,
  "गतान": 3384,
  "भुगतान": 3385,
  "सकों": 3386,
  "शराब": 3387,
  "नेताओं": 3388,
  "रिक": 3389,
  "ड़ेगा": 3390,
  "सिने": 3391,
  "कश्मीर": 3392,
  "इले": 3393,
  "प्रयास": 3394,
  "घायल": 3395,
  "निकलने": 3396,
  "खाली": 3397,
  "उपयोग": 3398,
  "माया": 3399,
  "कानूनों": 3400,
  "देखें": 3401,
  "णना": 3402,
  "गणना": 3403,
  "धमकी": 3404,
  "विस्तार": 3405,
  "लॉक": 3406,
  "गर्": 3407,
  "र्घटना": 3408,
  "दुर्घटना": 3409,
  "ड़िता": 3410,
  "पीड़िता": 3411,
  "पला": 3412,
  "हजारों": 3413,
  "र्य": 3414,
  "बढ़ते": 3415,
  "चारों": 3416,
  "उतार": 3417,
  "जिन्होंने": 3418,
  "पहुंचाने": 3419,
  "ूडें": 3420,
  "स्टूडें": 3421,
  "फ्ते": 3422,
  "साहित": 3423,
  "बताते": 3424,
  "कानून": 3425,
  "ओपन": 3426,
  "लड़ने": 3427,
  "फार": 3428,
  "निशाना": 3429,
  "साथी": 3430,
  "षों": 3431,
  "कोरिया": 3432,
  "मलेरिया": 3433,
  "शुक्ला": 3434,
  "सकें": 3435,
  "चें": 3436,
  "कोशि": 3437,
  "ंज": 3438,
  "गुला": 3439,
  "जगहों": 3440,
  "बनाना": 3441,
  "कीमतों": 3442,
  "दोस्तों": 3443,
  "आपका": 3444,
  "मिन": 3445,
  "सही": 3446,
  "निर्माता": 3447,
  "कहां": 3448,
  "बीजेपी": 3449,
  "उसको": 3450,
  "हें": 3451,
  "श्वर": 3452,
  "2021": 3453,
  "अक्": 3454,
  "वीर": 3455,
  "गाने": 3456,
  "्रष्टाचार": 3457,
  "भ्रष्टाचार": 3458,
  "ब्रा": 3459,
  "विज्ञान": 3460,
  "राके": 3461,
  "अदा": 3462,
  "आएगी": 3463,
  "उल्ले": 3464,
  "सीटें": 3465,
  "सली": 3466,
  "सीएम": 3467,
  "सीय": 3468,
  "लक्ष": 3469,
  "ोगी": 3470,
  "दिने": 3471,
  "चलाया": 3472,
  "राने": 3473,
  "टली": 3474,
  "र्थव्यवस्था": 3475,
  "अर्थव्यवस्था": 3476,
  "देवी": 3477,
  "यंका": 3478,
  "प्रियंका": 3479,
  "‍ली": 3480,
  "मुके": 3481,
  "ंकों": 3482,
  "कार्यालय": 3483,
  "प्लान": 3484,
  "आएगा": 3485,
  "क्वार": 3486,
  "प्रार": 3487,
  "ौती": 3488,
  "लखनऊ": 3489,
  "वों": 3490,
  "मेडि": 3491,
  "सम्मानित": 3492,
  "प्रकाशित": 3493,
  "अके": 3494,
  "टियां": 3495,
  "शहरों": 3496,
  "नीकी": 3497,
  "तकनीकी": 3498,
  "साई": 3499,
  "पिका": 3500,
  "योगदान": 3501,
  "जिंदगी": 3502,
  "हफ्ते": 3503,
  "कथा": 3504,
  "रीय": 3505,
  "इतने": 3506,
  "क्का": 3507,
  "पहुंचाया": 3508,
  "निकालने": 3509,
  "कप्तान": 3510,
  "मनाया": 3511,
  "सलों": 3512,
  "त्त": 3513,
  "चिकित्सकों": 3514,
  "शनल": 3515,
  "आयोग": 3516,
  "टकों": 3517,
  "लापर": 3518,
  "र्ष": 3519,
  "क्रिके": 3520,
  "द्धा": 3521,
  "बोला": 3522,
  "आठ": 3523,
  "क्ट": 3524,
  "गंज": 3525,
  "खला": 3526,
  "लु": 3527,
  "नियां": 3528,
  "देती": 3529,
  "टॉ": 3530,
  "दना": 3531,
  "करों": 3532,
  "महंगाई": 3533,
  "जन्": 3534,
  "थों": 3535,
  "हीनों": 3536,
  "गुना": 3537,
  "मिलना": 3538,
  "मारने": 3539,
  "एसपी": 3540,
  "लीला": 3541,
  "उम": 3542,
  "शंका": 3543,
  "लंबित": 3544,
  "आना": 3545,
  "आये": 3546,
  "भोक्ता": 3547,
  "उपभोक्ता": 3548,
  "पंचायतों": 3549,
  "मानों": 3550,
  "टिया": 3551,
  "क्के": 3552,
  "बीमार": 3553,
  "बचने": 3554,
  "बाला": 3555,
  "जाया": 3556,
  "रुषों": 3557,
  "पुरुषों": 3558,
  "बोले": 3559,
  "टवार": 3560,
  "ड़कर": 3561,
  "र्या": 3562,
  "ऑफ": 3563,
  "ल्‍ली": 3564,
  "दिल्‍ली": 3565,
  "त्तीय": 3566,
  "वित्तीय": 3567,
  "समी": 3568,
  "पाएंगे": 3569,
  "पीछे": 3570,
  "पड़ेगा": 3571,
  "सेके": 3572,
  "पल": 3573,
  "तारी": 3574,
  "छोड़कर": 3575,
  "on": 3576,
  "कटौती": 3577,
  "ऑन": 3578,
  "कविता": 3579,
  "महीनों": 3580,
  "इसको": 3581,
  "दिव": 3582,
  "माशों": 3583,
  "बदमाशों": 3584,
  "चक्कर": 3585,
  "करार": 3586,
  "धों": 3587,
  "अभ्या": 3588,
  "बढ़ाकर": 3589,
  "निर्या": 3590,
  "इनकी": 3591,
  "हिया": 3592,
  "नकली": 3593,
  "उपा": 3594,
  "मैसे": 3595,
  "स्टें": 3596,
  "दीपिका": 3597,
  "मनो": 3598,
  "स्थानों": 3599,
  "करवाया": 3600,
  "आयोजन": 3601,
  "नयी": 3602,
  "लाए": 3603,
  "कामका": 3604,
  "योध्या": 3605,
  "अयोध्या": 3606,
  "बढ़ने": 3607,
  "ड़का": 3608,
  "गठित": 3609,
  "लियां": 3610,
  "पहुंचकर": 3611,
  "सोने": 3612,
  "खेलने": 3613,
  "कोशिश": 3614,
  "ताकि": 3615,
  "चीन": 3616,
  "जरूरी": 3617,
  "त्रि": 3618,
  "एयर": 3619,
  "किस्ता": 3620,
  "पाकिस्ता": 3621,
  "जिनके": 3622,
  "ईरान": 3623,
  "ग्री": 3624,
  "सवालों": 3625,
  "ताया": 3626,
  "फु": 3627,
  "कं": 3628,
  "बैंकों": 3629,
  "मांगा": 3630,
  "ंकड़ों": 3631,
  "नने": 3632,
  "60": 3633,
  "दित": 3634,
  "अपर": 3635,
  "रीबों": 3636,
  "गरीबों": 3637,
  "सैनिकों": 3638,
  "अनिवार": 3639,
  "पंजा": 3640,
  "चाई": 3641,
  "रोड": 3642,
  "गिर": 3643,
  "मांगों": 3644,
  "जापान": 3645,
  "हस्ता": 3646,
  "रिकों": 3647,
  "नागरिकों": 3648,
  "आशंका": 3649,
  "बिला": 3650,
  "खिया": 3651,
  "मतदाता": 3652,
  "टीमों": 3653,
  "कराए": 3654,
  "दिवसीय": 3655,
  "द्रीय": 3656,
  "न्द्रीय": 3657,
  "केन्द्रीय": 3658,
  "प्लाई": 3659,
  "सप्लाई": 3660,
  "संस्थान": 3661,
  "कितने": 3662,
  "शाली": 3663,
  "प्रस्तावित": 3664,
  "जीता": 3665,
  "खेला": 3666,
  "ड़के": 3667,
  "वरों": 3668,
  "रहेगी": 3669,
  "निशान": 3670,
  "मिता": 3671,
  "टका": 3672,
  "सका": 3673,
  "पड़ा": 3674,
  "जगी": 3675,
  "इस्ती": 3676,
  "जितना": 3677,
  "जमा": 3678,
  "धानी": 3679,
  "करवाई": 3680,
  "तरना": 3681,
  "फॉ": 3682,
  "ट्रेनों": 3683,
  "चां": 3684,
  "बारिश": 3685,
  "ट्रोल": 3686,
  "जुड़े": 3687,
  "अवसर": 3688,
  "र्की": 3689,
  "चाहती": 3690,
  "कामया": 3691,
  "न्‍": 3692,
  "अफसरों": 3693,
  "ंग्ला": 3694,
  "बांग्ला": 3695,
  "वैक्सीन": 3696,
  "विधायकों": 3697,
  "सने": 3698,
  "टाइ": 3699,
  "युवती": 3700,
  "जीतने": 3701,
  "जमी": 3702,
  "उठाए": 3703,
  "ार्थी": 3704,
  "होंगी": 3705,
  "ेता": 3706,
  "मानते": 3707,
  "खनीय": 3708,
  "बदले": 3709,
  "पाली": 3710,
  "संगठनों": 3711,
  "सना": 3712,
  "ल्तान": 3713,
  "दिलाने": 3714,
  "रोजाना": 3715,
  "रास्ता": 3716,
  "सोना": 3717,
  "मिलाकर": 3718,
  "चलता": 3719,
  "लिबान": 3720,
  "तालिबान": 3721,
  "अपरा": 3722,
  "प्रतिक्रिया": 3723,
  "वाए": 3724,
  "जानने": 3725,
  "लंका": 3726,
  "राना": 3727,
  "परिवारों": 3728,
  "याताया": 3729,
  "ूली": 3730,
  "सहयोगी": 3731,
  "नीती": 3732,
  "ज़ार": 3733,
  "अंकित": 3734,
  "बाजों": 3735,
  "पिटाई": 3736,
  "फिके": 3737,
  "ाजगी": 3738,
  "नाराजगी": 3739,
  "चै": 3740,
  "बजट": 3741,
  "द्धि": 3742,
  "चन": 3743,
  "करवाने": 3744,
  "छह": 3745,
  "करोड़ों": 3746,
  "होंने": 3747,
  "न्‍होंने": 3748,
  "स्पे": 3749,
  "सकेगा": 3750,
  "विपक्ष": 3751,
  "सिलें": 3752,
  "घु": 3753,
  "कौ": 3754,
  "मार्ट": 3755,
  "क्शन": 3756,
  "इड": 3757,
  "टेली": 3758,
  "शेयर": 3759,
  "स्तु": 3760,
  "तकों": 3761,
  "कें": 3762,
  "तें": 3763,
  "जानें": 3764,
  "सिला": 3765,
  "सिलसिला": 3766,
  "धाई": 3767,
  "बधाई": 3768,
  "खुले": 3769,
  "खने": 3770,
  "मूला": 3771,
  "इलाज": 3772,
  "खित": 3773,
  "लिखित": 3774,
  "वैक्सीने": 3775,
  "मेला": 3776,
  "सांसद": 3777,
  "तिया": 3778,
  "भारती": 3779,
  "क्ली": 3780,
  "नीला": 3781,
  "स्तरीय": 3782,
  "सकीय": 3783,
  "पां": 3784,
  "ंगना": 3785,
  "हड़ता": 3786,
  "मुद्दों": 3787,
  "मान्यता": 3788,
  "मरान": 3789,
  "तैयारियां": 3790,
  "पकों": 3791,
  "क्रिकेट": 3792,
  "मरने": 3793,
  "मोबाइ": 3794,
  "मोबाइल": 3795,
  "ालय": 3796,
  "जिनकी": 3797,
  "खतरना": 3798,
  "आन": 3799,
  "किल": 3800,
  "संक्रमण": 3801,
  "ल्प": 3802,
  "ऐलान": 3803,
  "मैने": 3804,
  "यटकों": 3805,
  "पर्यटकों": 3806,
  "बाज": 3807,
  "असल": 3808,
  "पसंद": 3809,
  "आंकड़ों": 3810,
  "एनका": 3811,
  "हासिल": 3812,
  "बातों": 3813,
  "तेजी": 3814,
  "म्हार": 3815,
  "हना": 3816,
  "दिव्या": 3817,
  "चौकी": 3818,
  "द्योग": 3819,
  "णाली": 3820,
  "द्यार्थी": 3821,
  "विद्यार्थी": 3822,
  "चीजों": 3823,
  "रिये": 3824,
  "मेडिकल": 3825,
  "निकाली": 3826,
  "अना": 3827,
  "मई": 3828,
  "आर्थ": 3829,
  "र्पित": 3830,
  "समर्पित": 3831,
  "er": 3832,
  "उल्लेखनीय": 3833,
  "ंचित": 3834,
  "सेले": 3835,
  "पटने": 3836,
  "निपटने": 3837,
  "कीय": 3838,
  "पक्षों": 3839,
  "भिन्न": 3840,
  "महत्या": 3841,
  "त्महत्या": 3842,
  "आत्महत्या": 3843,
  "पावली": 3844,
  "रहकर": 3845,
  "बढ़ती": 3846,
  "र्गा": 3847,
  "इनका": 3848,
  "सुनकर": 3849,
  "मुखिया": 3850,
  "एकता": 3851,
  "वीं": 3852,
  "कामना": 3853,
  "दिये": 3854,
  "लगेगा": 3855,
  "रूपये": 3856,
  "खां": 3857,
  "रेली": 3858,
  "न्‍हें": 3859,
  "स्थायी": 3860,
  "कन्या": 3861,
  "बुला": 3862,
  "रोहता": 3863,
  "पिछली": 3864,
  "हैया": 3865,
  "चोरों": 3866,
  "उचित": 3867,
  "दामों": 3868,
  "रता": 3869,
  "टरों": 3870,
  "सुल्तान": 3871,
  "प्रिया": 3872,
  "अधिवक्ता": 3873,
  "मंत्रालय": 3874,
  "सीता": 3875,
  "कप": 3876,
  "40": 3877,
  "रखकर": 3878,
  "देखना": 3879,
  "दीकी": 3880,
  "आरती": 3881,
  "कमलना": 3882,
  "भरने": 3883,
  "मौजूदगी": 3884,
  "प्रणाली": 3885,
  "रिक्त": 3886,
  "क्रेता": 3887,
  "डकर": 3888,
  "बेडकर": 3889,
  "निर्देशित": 3890,
  "न्‍या": 3891,
  "पड़ने": 3892,
  "निकाला": 3893,
  "वीरें": 3894,
  "जिया": 3895,
  "दीपावली": 3896,
  "खबरों": 3897,
  "बंधित": 3898,
  "ंटों": 3899,
  "घंटों": 3900,
  "खोलने": 3901,
  "मिया": 3902,
  "ब्ला": 3903,
  "मानें": 3904,
  "यना": 3905,
  "जताया": 3906,
  "ताला": 3907,
  "डालकर": 3908,
  "पीने": 3909,
  "भेजने": 3910,
  "इकाई": 3911,
  "बढ़ता": 3912,
  "बरेली": 3913,
  "अधिकां": 3914,
  "दिली": 3915,
  "सपने": 3916,
  "शासकीय": 3917,
  "लगती": 3918,
  "लेता": 3919,
  "संचार": 3920,
  "ज्ञों": 3921,
  "विशेषज्ञों": 3922,
  "ज़्या": 3923,
  "क्रां": 3924,
  "दाई": 3925,
  "कंगना": 3926,
  "म्या": 3927,
  "सालाना": 3928,
  "सुनाई": 3929,
  "स्नान": 3930,
  "इमरान": 3931,
  "त्रता": 3932,
  "ेंगी": 3933,
  "अध्यापकों": 3934,
  "उठाने": 3935,
  "बुलाया": 3936,
  "त्ते": 3937,
  "खना": 3938,
  "फैला": 3939,
  "बॉलीवुड": 3940,
  "क्षि": 3941,
  "ह्": 3942,
  "मार्ग": 3943,
  "हॉकी": 3944,
  "मने": 3945,
  "ड़ियां": 3946,
  "राजें": 3947,
  "मारकर": 3948,
  "भें": 3949,
  "उन्‍होंने": 3950,
  "संविधान": 3951,
  "दिला": 3952,
  "विजय": 3953,
  "चर": 3954,
  "मेल": 3955,
  "भास्कर": 3956,
  "ऑनलाइन": 3957,
  "कराना": 3958,
  "समाधान": 3959,
  "जरिये": 3960,
  "बैठकर": 3961,
  "विक्रेता": 3962,
  "यंसे": 3963,
  "मतगणना": 3964,
  "छाया": 3965,
  "तिम": 3966,
  "वंचित": 3967,
  "वाहन": 3968,
  "मेगा": 3969,
  "यमुना": 3970,
  "दुर्गा": 3971,
  "बोर्ड": 3972,
  "ंडित": 3973,
  "पंडित": 3974,
  "बच्चे": 3975,
  "न्होने": 3976,
  "लती": 3977,
  "चलती": 3978,
  "ब्या": 3979,
  "पासवान": 3980,
  "बनार": 3981,
  "घटकर": 3982,
  "गंभीरता": 3983,
  "आएंगे": 3984,
  "उन्‍हें": 3985,
  "नये": 3986,
  "जाएंगी": 3987,
  "ड़िया": 3988,
  "चरण": 3989,
  "तियां": 3990,
  "मनाली": 3991,
  "समर्थकों": 3992,
  "्रीका": 3993,
  "संक्रमितों": 3994,
  "अवका": 3995,
  "वर्ती": 3996,
  "सूली": 3997,
  "टाए": 3998,
  "ककर": 3999
}