क े
ा र
े ं
न े
् र
ह ै
य ा
म ें
क ी
ो ं
क ा
क र
स े
क ो
क ि
न ा
स ्
त ा
र ्
ल ा
क ्
प र
व ा
ह ी
ल े
र ा
ज ा
ह ा
ल ि
प ्र
स ा
् य
म ा
औ र
व ि
क ार
इ स
भ ी
न ि
ड ़
ह ो
ब ा
द ि
है ं
द े
ग ा
त े
त ि
न ी
ल ी
प ा
स ी
त ी
त ्र
म ि
ह ु
न ्
क् ष
थ ा
लि ए
ं ग
र ी
ज ि
ही ं
स ं
स ि
ल ्
द ी
र ह
त ्
प ु
ए क
य ों
म ु
ट ी
द ा
व ार
ो ग
न हीं
कि या
भ ा
र ि
अ प
ह ि
श ा
च ा
र ो
स र
ज ी
ग या
ध ि
म ी
प ी
क ु
स म
दे श
क हा
प ू
स ु
ं ड
द ्
ब ी
म ार
बा द
ट ्र
कर ने
त ो
ं द
न ों
व े
ि त
ख ा
र े
र ू
सा थ
म े
श ि
् या
य ह
रा ज
य े
ल ोग
ग ी
न् ह
क ्र
ध ा
म ं
व ी
उ न
दि या
स् ट
ं च
रह े
र ु
त क
भ ार
ढ ़
उ न्ह
प ह
द ो
ब ि
ग े
फ ि
श ्
मा न
ब ार
श न
ष ्
ज न
सर कार
ज ो
थ ी
ग ई
उ स
र हा
ार ्
ब ता
आ प
ड ि
2 0
त र
हु ए
अ न
च ु
ओ ं
प ्
ि यों
ट र
र ही
स क
ार ी
य ो
अप ने
म ै
लोग ों
मि ल
इ न
ह र
मं त्र
जा ए
पु लि
ों ने
कि न
पुलि स
व र्
ल गा
थ े
श ु
ब े
ट े
ट ि
अ धि
ग र
म ो
ट ा
ज े
उन्ह ोंने
स् थ
ब र
ह म
ब ना
द ू
ले किन
ल ों
वा ले
म ौ
इस के
हो ने
्र ा
ज ब
य र
हा ं
ए स
स् था
स ू
य ु
कार ी
अ ब
जि स
मंत्र ी
ड ी
पर ि
च ्
ग ए
पह ले
म ्
ब ै
ल ो
जा न
सि ं
प ि
व ह
ड़ ी
ग ु
बता या
क्ष ा
ख ि
कर ्
ड़ ा
स ो
प े
च ार
ए म
क ों
द ौ
पु र
आ ई
द ु
च ि
कु छ
लि या
स ब
कार ्य
कर ते
सिं ह
नि र्
ध ्य
प ो
मा म
रा न
धा न
ले कर
ड ा
द र्
ब ं
फ ी
ल ग
ि या
मु ख
प्र ति
र् ट
बा त
पू र्
उ प
भार त
ड़ े
व ्य
्र ी
स् त
प हु
्र े
गा ं
अन ु
उ त्
ज ु
य ोग
दौ रान
छ ा
ज ़
य ू
क् त
को ई
रु प
ज ार
स् ता
ं त
द् वार
ब ्
ह ार
ब ढ़
्य ू
ल् ली
का म
फ ा
क ई
ं क
त ार
ख े
वा ली
द ्र
अप नी
ध ार
ं प
क्ष े
कि सी
द ार
चु ना
फ ्
च ल
प्र देश
हु ई
दि ल्ली
उन के
सा ल
जा ने
क ै
कर ा
0 0
श ी
स भी
क्षे त्र
कर ें
क म
सम य
ब ु
स ार
ट ्
च े
प ार्
दि न
श े
ज ू
ग ि
राज ्य
त रह
ल य
प ता
व ं
दे ख
मै ं
हो गा
भा ग
खि ला
जा ता
उन्ह ें
फि ल्
स द
व न
हि ला
ए ं
रो ना
व र
च ी
ध ी
रू प
को रोना
हु आ
रा म
ड े
द्वार ा
इ ं
ती य
ो ड़
म हिला
कु मार
आ र
व ै
क ल
पा स
ग ो
सक ता
पहु ंच
ज ्
घ र
प ै
क ॉ
ख ु
कर ना
1 9
अ भ
ज ना
ब ो
माम ले
ना म
फिल् म
आ रो
ी य
क्र म
ण ा
का न
ने ता
जाए गा
ष् ट्र
दो नों
शु रू
टी म
य हां
न ो
वा ई
सक ते
बी च
आ ज
दा न
म ू
क् यों
ौ र
मुख ्य
म त
ध्य क्ष
अ ं
चुना व
रुप ये
त् व
ंग ्रे
ज र
र ख
प्र ा
फ ै
वर् ष
ऐ से
ध न
ज ै
ला ख
न गर
ट ना
प ं
क ह
अप ना
ंद ्र
सब से
ब न
ज ्या
ि क
यो जना
गां व
जान कारी
व ो
हि त
त् या
त ै
जि ला
भार तीय
इस से
का ंग्रे
क् ति
उस के
अधि कार
स् क
च ौ
सा म
स न
हा ला
च ना
ग ्रा
य ार
रि या
नि या
व हीं
उन की
कर ी
फ ो
रा ष्ट्र
कांग्रे स
ज य
ज ारी
उ से
य न
पूर् व
प्र धान
ठ ा
आप को
क् स
म ह
य त
इस में
जि ले
स भा
ंग े
ह त
ह जार
सा न
ब हु
अधि क
ए वं
म हा
दे ने
स र्
ह ों
मार ्
हो गी
1 0
बै ठ
ट्र े
पा ल
जिस में
कार ण
ह ू
ह न
ज ग
ं गा
् ड
ती न
र ें
अ ध्यक्ष
वा ला
क ंप
फि र
आ ने
पार् टी
कर ोड़
साम ने
हि ए
ब च्
द ें
पो र्ट
चा हिए
प द
प र्
स ला
य क
नि क
जा ंच
स्ता न
त ु
शा मिल
श ो
घ टना
र् थ
च ला
घ ा
ख ्या
इ ला
ं कि
ध ्या
हो ता
वि का
भ ू
ज्या दा
ं स
त था
ह े
मि त
स् पता
अ स्पता
स्थ ित
ल ू
ब द
न् या
क् या
फ े
वि श्
ए न
श ्री
बहु त
क ृ
अ ला
ल ें
ज पा
कि ए
प ार
ड ॉ
य ी
इ से
20 1
मो दी
स्था न
न ई
इस ी
भा जपा
क् टर
अन ्य
अधिकार ियों
हो ती
स्थ ि
अनु सार
ट ो
वा द
नि का
स् व
म द
ग ्र
ओ र
तै यार
भ र
र ों
आरो प
वा ल
स् वा
जी त
ह मार
आ ए
वि भाग
सु र
हा ल
कर ण
स के
त ना
अ व
ज् ञ
म न
मा ंग
च ों
छ ले
पि छले
का फी
डि या
छा त्र
वा न
ग ं
प् ता
बार े
वि धा
ज रू
व ज
अ गर
सं ख्या
व ्या
खिला फ
राष्ट्र ीय
न ्यू
फ् तार
ज हां
मि ले
द् ध
सा नों
जाए गी
वि धान
र फ्तार
ज ों
दि नों
ल ं
त ्य
स्थि ति
बना ने
कि सानों
खा न
प त्र
जै से
सू चना
सर े
प ति
भ े
आ त
इस की
शा न
फ ़
न् न
र् स
स ै
मौ त
स मा
ल ै
धि कार
स् ते
के ट
मि ला
सक ती
द ्य
कह ना
जि त
पा ंच
ल ने
था ना
जा ती
आ गे
जन ता
ला ई
ग त
इ ंड
र् ड
मि ली
कर ता
अ भी
रह ने
ब ह
अभ ि
पू री
परि वार
न ौ
धि यों
ले ने
कर् ता
आ धार
ब ॉ
पर ा
ल ॉ
र त
च ित
दि ए
मी डिया
व स्था
मु ता
सं बं
ल गे
या ं
मुख्य मंत्री
दर् ज
राज्य ों
ं ट
प्र ो
मा ण
स ल
द् या
य ल
उत् तर
पर ी
प्र े
व्य वस्था
नी य
नि य
नि यों
इस का
नी ति
वि त
व हां
प्र कार
घ ो
फ र
प ड़
गि रफ्तार
उन का
र ण
ह में
बढ़ ा
ू ल
क ट
ह त्या
ज ें
मौ के
सा मान
रा त
धि त
हाला ंकि
अ ग
र् म
जिस से
जा ना
द र
या द
पह ली
व ल
विका स
करें गे
प्र का
ब ल्
प क्ष
सा ं
ज ल
जू द
ज वा
ग ढ़
भा व
प ढ़
प् त
नि वा
बैठ क
क्ष ण
हो ते
दु निया
मह त्व
वि द्या
स ंग
नि वार
को र्ट
हू ं
हा ई
्र वाई
कार ्रवाई
अ च्
झ ा
ए ल
कि स्तान
स् कार
ब ंद
प न
ख ंड
कर े
रि पोर्ट
बा जार
जिस के
बा इ
स ह
विश् व
उस की
मि यों
बि हार
3 0
ब ड़ी
म ंड
अ लग
त ों
वज ह
सद स्
वा लों
ृ त्व
त ृत्व
बच् चों
प्रधान मंत्री
स् या
स हित
पा किस्तान
ज्ञ ा
अला वा
शि का
दि यों
ने तृत्व
प्र या
आ यो
चार ियों
के ंद्र
ें गे
करी ब
ड़ ियों
1 2
सम ्
हि ं
कर् म
कु ल
दे ते
श हर
भ ग
कर्म चारियों
प क
ु क
चा न
स ें
सि यों
शे ष
यु क्त
1 5
दू सरे
न ार
न जर
मिल ने
सल मान
ऐ सा
ही ने
म हीने
थ ियों
सि त
घो ष
आप के
आ दि
क ता
सम् मान
पा नी
कंप नियों
न में
आरोप ियों
चु की
फै सला
स्ट े
से ना
म वार
सो मवार
माम ला
डि यो
निर् देश
हों गे
आ या
उस ने
लगा या
क् सी
श ्र
लगा तार
त मान
ति यों
ध वार
बु धवार
अधि कारी
अस्पता ल
वर् तमान
चल ते
सम स्या
म री
जब कि
इन में
ए फ
रुप ए
उ म्
शा सन
पर े
मी द
जा ते
ं बर
ग ें
क्यों कि
क्र िया
कर ती
सदस् यों
च ो
िया न
या न
ो ल
इंड िया
कर् मियों
करा ने
अभ ियान
ट् स
म ना
्री य
चु का
ट ू
चु के
र् चा
करा या
कर के
पूर् ण
सुर क्षा
प ना
छ े
व ें
द न
त्र ा
शान दार
त्र ियों
न रें
उस का
कंप नी
उस में
चा ह
प् ला
कि सान
र दार
व्य क्ति
पत्र कार
र् फ
उम् मीद
व री
ग ्
सा इ
यु व
ंग ल
प त्
त ला
ज ली
इस लिए
ल यों
श निवार
ब जे
मा ल
वि मान
मा ना
म ता
पि ता
ला ने
धिकार ियों
ार् थियों
जि नमें
ग ल
खिला ड़ियों
र वि
बि क
स् ‍
2 5
कार ्या
फ ल
प ें
बि ना
स मान
हो ना
म ों
ला ल
ट ने
क्र ि
ट ों
क्र वार
वि शेष
त हत
ध्या न
टि ंग
ट न
ड़ ने
या त्रियों
ध े
मार ी
इ यों
वा यर
ंगल वार
म ंगलवार
झ े
स् वी
जी वन
स ौ
लि यों
न ए
बना या
शु क्रवार
र् ती
ला इन
इ स्ते
पुर स्कार
प मान
ता पमान
ंकि यों
आत ंकियों
श र्
रे ल
a r
लगा ने
ठ ी
ट में
भा ई
भ र्ती
परी क्षा
क ने
कार्य क्रम
शि कार
मै च
वि धियों
रवि वार
पा ए
ड र
वा स
स्था नीय
मु का
बल् ले
देख ते
क्ष ित
रि का
मा ं
आयो जित
ट ियों
गु रु
ज मान
शि यों
आ धिकार
ब ल
ति विधियों
ग तिविधियों
दर् शन
दू स
ख री
का ं
्य ों
द्य ार्थियों
वि द्यार्थियों
क् ता
बि जली
त न
जि से
कि यों
वा सियों
ह रा
त् म
ज ल्
त वाली
को तवाली
के दार
उन में
सु बह
अ फ
निवा सी
ज नों
वा दियों
श ल
कान ू
कि रदार
स ों
ला कार
अनु मान
को वि
लो क
जान कार
उ ठा
स दी
ंग ी
हिं दी
पं चा
ं चा
दा धिकारियों
प दाधिकारियों
क लाकार
कार्य कर्ता
पार ियों
सं स्कार
ग ै
रा ब
भा वित
दि खा
चाह ते
भ ो
भ ि
क्ष क
स्वी कार
सर दार
कार्य ों
ार् टमें
ना में
हम ने
बना ए
से वा
1 4
2 1
ंद ्रीय
द ों
रख ने
अप ार्टमें
र् नामें
टू र्नामें
छ ो
मुता बिक
ड़ कियों
के ंद्रीय
मैं ने
ल ना
इन कार
म ृ
मे दार
ल दार
व्या पारियों
माम लों
मंत्र ियों
त्र ों
ल ड़कियों
मं दि
िया ं
मे रिका
अ मेरिका
उम्मीद वार
पू रा
परा धियों
अ पराधियों
म् मेदार
ए जें
ल र
आ म
ब ित
त् कार
गुरु वार
प ित
व्यक्ति यों
भाव ना
स् ट्र
कै से
स् ती
रो ध
राज स्थान
न्या या
ल गी
बा हर
स्वा स्थ
क में
स ड़
सी लदार
ह सीलदार
त हसीलदार
त् ता
बद ला
स्था पना
ब ने
च र्चा
देश ों
जाए ंगे
देख ने
जग ह
ंक वादियों
आत ंकवादियों
वे श
मा ता
ग यी
आ कार
प्र दान
जि म्मेदार
विद्या लयों
ह वाले
ब ड़े
ब यान
ष् ठ
दा ता
जु लाई
ब ले
याद व
सि ल
प् ले
रा य
प्र स्ता
ु मान
स्थिति यों
कॉ ले
ता न
स प्ता
पुलिस कर्मियों
ह वाला
कान दार
दु कानदार
मार ियों
ह कार
सला हकार
बॉ ली
मरी जों
वि चार
रि कार
मद द
पंचा यत
वा धिकार
मान वाधिकार
त त्व
त्या शियों
प्र त्याशियों
ते दार
योग ी
स कार
भा इयों
ह रिया
बे ह
ला इ
5 0
वी डियो
ट ै
प्र क्रिया
खु द
मु झे
स्वास्थ ्य
नि ग
तैयार ियों
रा व
ि ता
ष ियों
श् तेदार
रि श्तेदार
ई मान
हन ुमान
वे दार
दा वेदार
टे नमें
प्र भार
छात्र ों
र कार
खि रकार
ह री
फा ई
सदस् य
श ्य
ख ो
भू मि
आ समान
फिल् में
नि धियों
प्रति निधियों
जो रदार
दि वाली
र् में
नीति यों
ष यों
वि षयों
बी मारियों
त ब
परि स्थितियों
हा थ
आ खिरकार
बै ंक
मु ं
प्र भावित
थ ि
ज्ञा न
न्ह ें
विधान सभा
पू रे
ब स
ला त्कार
ब लात्कार
दू र
क मान
एजें सियों
े केदार
ठ ेकेदार
निका यों
क्स लियों
न क्सलियों
कर ियों
ं का
इं कार
ख बर
अग ले
ष् कार
ग्रा म
अ ति
i n
ल् पना
क ल्पना
ण ों
रि यों
़ यों
ज में
ने जमें
मै नेजमें
ध र्में
र्थ ियों
्य र्थियों
अभ ्यर्थियों
ग ू
अ का
वा प
गा ड़ियों
मंदि र
् स
स्क ूल
ष ि
हि ष्कार
ब हिष्कार
फो न
बे टियों
हम ला
ख ियों
र् खियों
सु र्खियों
टी में
दो षियों
कह ते
ट कार
‍ यों
साथ ियों
ं टेनमें
क ंटेनमें
डि ़यों
स ले
पहुंच े
त ौर
लि त
स फाई
जि न
र न
वर्ष ीय
व ृ
कोवि ड
ड़ ों
ह मान
रा मान
रह ता
अप मान
हि यों
पत् तियों
क भी
योग ियों
सह योगियों
जि यों
् जियों
सब ्जियों
कार ियों
की दार
चौ कीदार
न कार
पार् टियों
ति त्व
स् तित्व
अ स्तित्व
नौ करियों
बो कार
प्रका श
ए क्
ष ण
अ ली
पु रा
आदि वासियों
का ल
1 1
च ले
ट ल
पह चान
सर् दियों
मु सलमान
क्ष ्यों
बं दियों
सं पत्तियों
शि या
मे हमान
या लयों
् थियों
भार ्थियों
ला भार्थियों
बार ियों
ो बारियों
कार ोबारियों
पा यों
उ पायों
का इयों
इ काइयों
म दार
खिला डि़यों
पे में
ि त्व
य ित्व
दा यित्व
रह मान
स में
राज नीति
इ तना
त री
पा या
ं त्र
परि जनों
मी र
हम ले
न् ना
म हार
ब् धियों
ल ब्धियों
उप लब्धियों
ल क्ष्यों
भग वान
फ टकार
स पना
टी का
या यालयों
‍ यायालयों
न् ‍यायालयों
दर्शन कारियों
र् मियों
जानकार ियों
कार्य कार
ोग ियों
र ोगियों
त कार
निवा सियों
विश्व विद्यालयों
बे कार
द मदार
धि त्व
नि धित्व
प्रति निधित्व
कार्या लयों
वि यों
ण ियों
राज मान
वि राजमान
दा यों
मु दायों
स मुदायों
मौ जूद
हो कर
ब ू
व क्ता
शा ं
थ ्यों
त थ्यों
खु ला
ग ियों
छ ता
भूमि का
लो कार
ल कर
पति यों
प में
च ियों
क् ‍यों
ण यों
निर् णयों
फर मान
न दियों
्य कार
हित ्यकार
सा हित्यकार
प्र दर्शनकारियों
ग र्मियों
शा नियों
परे शानियों
ड वाला
डिया डवाला
ना डियाडवाला
व्यक्ति त्व
नौ तियों
चु नौतियों
रुप यों
ट्र ियों
क् ट्रियों
फै क्ट्रियों
गी दार
भा गीदार
नि कार
हा निकार
प्र वासियों
जन मान
न त्व
घ नत्व
चना कार
र चनाकार
स्वास्थ्य कर्मियों
रण ार्थियों
श रणार्थियों
प्ले समें
सा कार
र् तियों
ष् मान
यु ष्मान
आ युष्मान
ब ई
दिखा ई
ुक सान
न ुकसान
शि क्षा
मै दान
न्यू ज़
ल ्यों
मू ल्यों
आ ते
सु धार
पह ला
a n
देश ्यों
द् देश्यों
उ द्देश्यों
पक्ष ियों
स्ट में
वे स्टमें
न् वेस्टमें
इ न्वेस्टमें
जि लों
जन प्रतिनिधियों
क मियों
धार दार
टी दार
पा टीदार
ज् वाला
ं कार
गल तियों
सी में
पं थियों
ली यों
द लीयों
निर् दलीयों
जा तियों
वार ियों
क्ति मान
श क्तिमान
भाजपा इयों
स दियों
ओ वादियों
मा ओवादियों
म त्कार
च मत्कार
व में
मू वमें
प्रा धिकार
मू र्तियों
मि तियों
स मितियों
ों में
प ियों
क्रम ण
परे शान
म ध्य
झा ड़ियों
स चि
गां धी
मुका बले
खा ने
प कार
क्षेत्र ों
ला कमान
आ लाकमान
करने वाले
पा बंदियों
गु लदार
गा यों
खरी दार
भाग ियों
प्रति भागियों
ो हियों
बा गियों
त् तियों
परि कल्पना
जे दार
अ सरदार
पक्ष कार
बच् चियों
पा लियों
ह ंकार
अ हंकार
ग्र ियों
ट् टियों
ु ट्टियों
छ ुट्टियों
चा धिकारियों
च् चाधिकारियों
उ च्चाधिकारियों
झ दार
सम झदार
मार दार
ती मारदार
चो टियों
ी तकार
संग ीतकार
म पंथियों
लो नियों
ि म्मेदार
ज़ िम्मेदार
प्रे मियों
ग लियों
स वारियों
ो सियों
पड़ ोसियों
क्ति यों
टर टेनमें
क्ष ार्थियों
परी क्षार्थियों
ष धियों
औ षधियों
चार ्यों
ना चार्यों
धा नाचार्यों
प्र धानाचार्यों
हाई कमान
वे शियों
म वेशियों
वान ुमान
पूर् वानुमान
म स्कार
न मस्कार
कहा नियों
ती यों
भार तीयों
पु कार
वल पमें
डे वलपमें
उ दार
यर में
टा यरमें
रि टायरमें
सेना नियों
म कार
ईमान दार
मा केदार
ध माकेदार
ना लियों
ु टकार
छ ुटकार
् ‍यों
राज ्‍यों
अ मान
ज़ मान
पार् टमें
डि पार्टमें
वर्ष ोंमें
रा शियों
छ लियों
म छलियों
जिला धिकारियों
व घनत्व
द्र वघनत्व
सार णियों
रह ते
पी एम
सि र्फ
ष् ट
लि ये
मि त्व
स्वा मित्व
ल् या
उप स्थित
दे व
अफ गा
भू तियों
ंड मान
अ ंडमान
स वाल
व्य ों
ति थियों
द्र ोहियों
नि वर्तमान
ऊ पर
गा लियों
त गालियों
र् तगालियों
पु र्तगालियों
लि में
ण मान
ग णमान
ड ें
भाई यों
ऋ षियों
ब त्तियों
त् ती
सू चियों
त्र कार
चि त्रकार
श् चित
नि श्चित
म जेदार
बि मारियों
मत वाले
फिल्म कार
ड़ी दार
जो ड़ीदार
वायर में
साम ग्रियों
ब डि़यों
ड़ बडि़यों
ग ड़बडि़यों
ा लयों
मंत्र ालयों
मी रियों
श् मीरियों
क श्मीरियों
धी मान
आ रियों
जु आरियों
ठा इयों
मि ठाइयों
गो लियों
क्षा त्कार
सा क्षात्कार
कॉ लोनियों
च में
पार् चमें
रहने वाली
चौ लियों
ई वाला
ो ईवाला
ड ोईवाला
ंग ियों
बिक वाली
धि मान
न् कार
इ न्कार
घर वाले
बा ड़ियों
क बाड़ियों
त् त्व
मह त्त्व
जे वाला
सुर जेवाला
यु क्तियों
रो धियों
वि रोधियों
य ियों
सा यियों
व सायियों
व्य वसायियों
स् मान
उ स्मान
राय वाला
ं तियों
श् तकार
का श्तकार
कांग्रे सियों
वल दार
ह वलदार
ढ़ ियों
पी ढ़ियों
बि यों
स सम्मान
पर मान
जि में
रे जिमें
व कार
रो टियों
देश वासियों
ा धिकार
विशेष ाधिकार
ला धिकारियों
आ लाधिकारियों
वी कार
स्‍ वीकार
ा धिकारियों
ंड ाधिकारियों
द ंडाधिकारियों
द् दार
पो द्दार
ल् में
ि ल्में
फ़ िल्में
जन प्रतिनिधित्व
ॉ र्में
फ ॉर्में
पर फॉर्में
ने त्रियों
अभि नेत्रियों
युव तियों
मता धिकार
स त्कार
संबं धियों
अ सम्मान
ट यों
ग्रा हियों
हित ग्राहियों
स् त्रियों
प्र जातियों
द में
क दमें
मु कदमें
ंस में
उ ंसमें
ना उंसमें
शिकार ियों
ब करियों
इं टरटेनमें
यू में
क् यूमें
क ड़ियों
मे टियों
क मेटियों
शहर वासियों
लना कार
बे लनाकार
्या लयों
मुख ्यालयों
दा कार
अ दाकार
छा इयों
प्रभार ियों
गुरु त्व
ति षियों
ो तिषियों
्य ोतिषियों
ज ्योतिषियों
ज ्यों
त्य ों
छ वियों
यार ियों
क् यारियों
द मियों
अका दमियों
र मपंथियों
च रमपंथियों
अ स्वीकार
चा लयों
ौ चालयों
श ौचालयों
ब वाली
ड बवाली
ं वाली
ला ंवाली
का लांवाली
सुरक्षा कर्मियों
यां वाली
ल् यांवाली
को ल्यांवाली
य मान
हा दियों
जि हादियों
खु शियों
या शियों
‍ याशियों
त् ‍याशियों
प्र त्‍याशियों
रात त्व
पु रातत्व
सा यों
व सायों
व्य वसायों
त रा
घोष ित
आ ता
क् ला
फि टमें
पढ़ ें
युव क
ल् पियों
शि ल्पियों
स्त शिल्पियों
ह स्तशिल्पियों
ल ब
ं कर
आप की
कि त
महिला ओं
मिले गा
्र हमान
र ्रहमान
जु र्रहमान
फी जुर्रहमान
ह फीजुर्रहमान
करे गा
ज ता
चि का
सा ड़ियों
ग दार
दा गदार
वि भूतियों
लि पकार
फ् लिपकार
धा नियों
राज धानियों
खे लियों
ठ खेलियों
अ ठखेलियों
ओ मान
पो स्ट
जाने वाले
द व्यों
दु त्व
न् दुत्व
हि न्दुत्व
ब् दियों
ता ब्दियों
श ताब्दियों
पड़ ता
देश द्रोहियों
ए लिमें
राष्ट्र पतियों
बा दियों
ंक बादियों
आत ंकबादियों
वि पमें
क् विपमें
इ क्विपमें
ज दार
कर् जदार
ला या
प्रे मान
ल् दार
हा ल्दार
अगर बत्तियों
क्त व्यों
व क्तव्यों
क् वाली
ल् पकार
शि ल्पकार
च ने
भ वाली
आई कार
उप कार
क् सियों
टै क्सियों
य जमान
हा न
स् मतवाले
कि स्मतवाले
कल कर्मियों
म कलकर्मियों
द मकलकर्मियों
था पना
स्‍ थापना
र् स्‍थापना
न र्स्‍थापना
पु नर्स्‍थापना
‍ तियों
पत् ‍तियों
सं पत्‍तियों
वा हियों
कार्य वाहियों
ंगी कार
अ ंगीकार
द से
बो रियों
छ कार
च् छकार
स्व च्छकार
कुल पतियों
साल वाला
ू वाला
रख ूवाला
गो रखूवाला
निय मान
त दार
जमान तदार
ु कार
स्त ुकार
वा स्तुकार
स्ट्र ियों
इंड स्ट्रियों
मीडिया कर्मियों
रि वाले
भू रिवाले
ंच में
ल ंचमें
क् वायरमें
रि क्वायरमें
ल वाले
ॉ लवाले
ह ॉलवाले
सा धिकारियों
त् साधिकारियों
कि त्साधिकारियों
चि कित्साधिकारियों
स्टे टमें
म रियों
बी मरियों
व्या धियों
र में
ॉ रमें
फ ॉरमें
पर फॉरमें
नगर वासियों
रूप में
ंचा इयों
ऊ ंचाइयों
बर वाला
र् गियों
मु र्गियों
ण ्यों
पु ण्यों
वि द्रोहियों
वी में
खंड वाला
लो खंडवाला
द यालयों
वि दयालयों
विश्व विदयालयों
य त्व
दा यत्व
ध ार्थियों
वि धार्थियों
कर् त्व
ंद ार
मी ंदार
ज मींदार
से में
ल सेमें
प् लसेमें
रि प्लसेमें
प ्यों
स् में
र स्में
कंप ार्टमें
सें टीमें
वा मपंथियों
ग् गियों
ु ग्गियों
झ ुग्गियों
व वादियों
लगा ववादियों
अ लगाववादियों
ु त्व
ंद ुत्व
हि ंदुत्व
़ ियों
ख ़ियों
र् ख़ियों
सु र्ख़ियों
स् तिथियों
परि स्तिथियों
वि चौलियों
केट प्रेमियों
क्रि केटप्रेमियों
स् तियों
ब स्तियों
रि में
पे रिमें
क्स पेरिमें
ए क्सपेरिमें
र् पियों
कॉ र्पियों
स् कॉर्पियों
पे शियों
ंस पेशियों
मा ंसपेशियों
वायर नमें
एन वायरनमें
जर ंगियों
ब जरंगियों
व शक्तिमान
सर् वशक्तिमान
वि धिमान
्र तियों
व ्रतियों
सम् पत्तियों
ह संस्कार
दा हसंस्कार
प दर्शनकारियों
यान कारियों
टा यानकारियों
ह टायानकारियों
ने वाले
चला नेवाले
नि युक्तियों
क तत्व
राज कतत्व
अ राजकतत्व
ग में
से गमें
ी में
क्र ीमें
इं क्रीमें
भारत वासियों
स लियों
‍ सलियों
क् ‍सलियों
न क्‍सलियों
पा हियों
सि पाहियों
बा कियों
द ंतियों
व दंतियों
ं वदंतियों
कि ंवदंतियों
एं टरटेनमें
धि करियों
प्रा धिकरियों
न्याया लयों
फे रियों
व्य मान
द्र व्यमान
खबर दार
जी वियों
पर जीवियों
ारी दार
ध ारीदार
दी कियों
ज दीकियों
न जदीकियों
न बियों
ु तियों
स्त ुतियों
प्र स्तुतियों
ड़ी यों
छ ड़ीयों
त यों
नी तयों
कल में
लाइ में
क् लाइमें
जिम्मेदार ियों
मा लाकार
म णियों
ना इयों
ि नाइयों
ठ िनाइयों
क ठिनाइयों
ध वासियों
सिं धवासियों
संग कार
प्रति भूतियों
ये दार
का येदार
ब कायेदार
का लोनियों
पुलिस र्मियों
फल दार
आप में
लाई यों
क लाईयों
मा ग्रियों
सा माग्रियों
दा कर्मियों
वि दाकर्मियों
सं विदाकर्मियों
मे वाला
श क्तियों
‍ कार
अधि ‍कार
ब दियों
ं बदियों
पा ंबदियों
वि पक्षियों
स रियों
था लियों
दर् शियों
क्ष दर्शियों
त्य क्षदर्शियों
प्र त्यक्षदर्शियों
देने वाली
मीर वाला
स् पना
रि स्पना
पर में
र ंगियों
बे रंगियों
पड़ ियों
ो पड़ियों
झ ोपड़ियों
आने वाले
हा थियों
्या चारियों
थ ्याचारियों
मि थ्याचारियों
गल वाली
ब गलवाली
कॉ पियों
ू में
झ ूमें
ई वाले
ंचा ईवाले
उ ंचाईवाले
था में
मत वाला
म् मतवाला
हि म्मतवाला
खि ड़कियों
न् धियों
ब न्धियों
सम् बन्धियों
ि कियों
ोग िकियों
द्य ोगिकियों
ौ द्योगिकियों
प्र ौद्योगिकियों
ह नियों
को हनियों
ने रियों
ज नेरियों
प् लिमें
म् प्लिमें
कॉ म्प्लिमें
अफगा नियों
फा दार
व फादार
गी तकार
ध मान
वर् धमान
र् यों
खि र्यों
सु खिर्यों
से दार
स् सेदार
हि स्सेदार
अ खिरकार
ो पकार
पर ोपकार
ोग पतियों
द्य ोगपतियों
उ द्योगपतियों
ल निवासियों
मू लनिवासियों
ु वाला
थ ुवाला
त् थुवाला
न त्थुवाला
अ कार
उ कार
े दार
ज़ ेदार
म ज़ेदार
ि ़यों
ढ ि़यों
सी ढि़यों
तक वादियों
ं तकवादियों
आ ंतकवादियों
री वाला
ने रीवाला
ग नेरीवाला
मा तियों
ज मातियों
ल वादियों
क्स लवादियों
न क्सलवादियों
बि चौलियों
रखने वाले
बे समें
सं कल्पना
्या शियों
य ्याशियों
अ य्याशियों
पै में
ला वासियों
ल् लावासियों
ह ल्लावासियों
मो हल्लावासियों
न् टेनमें
क न्टेनमें
रा में
न् हैं
ए न्हैं
म् मान
अ म्मान
झा मान
मा झामान
ए नाउंसमें
या दार
का यादार
ब कायादार
डा क्यूमें
री कार
खि रीकार
आ खिरीकार
द दार
खरी ददार
रह वाली
ल कड़ियों
ं इयों
झा ंइयों
मा तृत्व
्रे णियों
श ्रेणियों
घ ड़ियों
ओ मकार
टा चारियों
ष् टाचारियों
्र ष्टाचारियों
भ ्रष्टाचारियों
ध में
्ड वासियों
वार ्डवासियों
वृ त्तियों
प्र वृत्तियों
त् तमान
वर् त्तमान
्र कार
म ्रकार
ता म्रकार
व विद्यालयों
‍ वविद्यालयों
विश् ‍वविद्यालयों
दी वाली
का मियों
ना कामियों
टर पंथियों
ट् टरपंथियों
क ट्टरपंथियों
टीका कर्मियों
कार्रवाई यों
रो कार
पै रोकार
यु में
क् युमें
डॉ क्युमें
अच् छाइयों
धे सियों
म धेसियों
शन कार
रा शनकार
हु ंकार
षि कार
शो रियों
कि शोरियों
वि कार
क् कार
म क्कार
मा दियों
न् मादियों
उ न्मादियों
हा सकार
ति हासकार
इ तिहासकार
क दार
ह कदार
टी वाला
रो टीवाला
ब रोटीवाला
दू वाला
आ दूवाला
सा इनमें
अ साइनमें
कने वाला
म कनेवाला
च मकनेवाला
ध कार
अं धकार
ती त्व
स तीत्व
पार्टी यों
सदस् ‍यों
बे ईमान
ल मारियों
अ लमारियों
न दार
ब् बियों
डि ब्बियों
वि ष्कार
अ विष्कार
एन वायरमें
ग्राम वासियों
मा हियों
ति माहियों
ंगा मेदार
ह ंगामेदार
क कार
मै ककार
ब ड़ियों
ड़ बड़ियों
ग ड़बड़ियों
वं शियों
ंद्र वंशियों
च ंद्रवंशियों
जन वाली
यो जनवाली
प्र योजनवाली
बी वियों
क वियों
दर कार
मा नियों
भि मानियों
मा भिमानियों
र् माभिमानियों
ध र्माभिमानियों
वि में
क्षेत्र वासियों
ले पमें
व लेपमें
डे वलेपमें
द्र ियों
न् द्रियों
इं न्द्रियों
रि कियों
मे रिकियों
अ मेरिकियों
‍ तेदार
श् ‍तेदार
रि श्‍तेदार
भि मान
स्वा भिमान
ना कार
‍ छाइयों
अच् ‍छाइयों
व नियों
छा वनियों
गि रदार
ृ तियों
स्क ृतियों
सं स्कृतियों
त्ता कार
ह त्ताकार
वृ हत्ताकार
होने वाले
बू दार
बद बूदार
र मान
म यों
कि मयों
र् किमयों
पत् नियों
काल में
राष्ट्र ोंमें
भारत में
फ नामें
ल फनामें
ह लफनामें
ति मान
ग तिमान
रह वासियों
रिया दियों
फ रियादियों
शे ड़ियों
न शेड़ियों
शा स्त्रियों
र्थ शास्त्रियों
अ र्थशास्त्रियों
सफाई कर्मियों
सा क्ष्यों
सां त्व
ई यों
का ईयों
इ काईयों
करने वाला
रा इयों
बु राइयों
मि टमें
क मिटमें
श् वारियों
दु श्वारियों
भ कार
ं भकार
कु ंभकार
रि प्लेसमें
जू मकार
ंगा इयों
द ंगाइयों
व मान
सर् वमान
पा पना
अ नाउंसमें
्री में
ग ्रीमें
ए ग्रीमें
बे दार
सू बेदार
कॉ में
री दार
़ रीदार
ख ़रीदार
ठ ियों
ला ठियों
ं वाला
रा ंवाला
ज रांवाला
गु जरांवाला
स्त कार
का स्तकार
ति कार
र् तिकार
मू र्तिकार
ओं कार
का यमान
न् में
टे न्में
ं टेन्में
क ंटेन्में
र् सियों
कु र्सियों
पु त्रियों
जा यमान
ं जायमान
गु ंजायमान
ने दार
था नेदार
रो जेदार
ब तियों
ब् बतियों
ति ब्बतियों
सह कार
लं कार
अ लंकार
भ र्तियों
‍ मान
ष् ‍मान
यु ष्‍मान
आ युष्‍मान
बर दार
ा बरदार
ंड ाबरदार
झ ंडाबरदार
ै लियों
र ैलियों
‍ ियों
ड़ ‍ियों
खिला ड़‍ियों
ग्र वादियों
उ ग्रवादियों
क समें
ली में
प् लीमें
इं प्लीमें
द् धिमान
बु द्धिमान
ी टमें
ट्र ीटमें
सेवा दार
रे यों
लि वाली
जार ियों
गु जारियों
कार गुजारियों
रहने वाले
बू टियों
प णियों
प् पणियों
टि प्पणियों
जू मदार
म जूमदार
ं धियों
आ ंधियों
जे सियों
एं जेसियों
अ सामान
डॉ क्यूमें
क्ष कार
ल क्षकार
कार्य विधियों
अति थियों
क्रमण कारियों
अति क्रमणकारियों
ले मान
सु लेमान
विश् वासियों
शिक्षा धिकारियों
शी यों
या शीयों
त याशीयों
प्र तयाशीयों
र स्कार
ति रस्कार
द् वियों
वं द्वियों
द् वंद्वियों
प्रति द्वंद्वियों
ी कियों
बार ीकियों
लि कार
ल् लिकार
म ल्लिकार
ढ़ तियों
आ ढ़तियों
जय कार
ई दार
टा ईदार
ब टाईदार
तार ोहियों
व तारोहियों
पर् वतारोहियों
्रा ंतियों
भ ्रांतियों
टे दार
कां टेदार
म कड़ियों
अभि मान
मह कमें
म र
प्र ि
मु ला
ल ौ
त्र ी
वा ने
संबं ध
फी सदी
निर् माण
सु न
रहे गा
ल् ड
ग्रा मी
हा दसे
20 0
उप ल
पर् या
क्ष मता
सरकार ी
सू त्रों
या चिका
क्र मित
1 8
ख न
करा ई
मा ने
प ॉ
दे कर
ग्रामी णों
जा कर
इला के
टर ने
वि क
ं ता
देख कर
सं क्रमित
क् कर
ट ें
तै ना
ना थ
झ ार
बं गा
दे ता
ब ड़ा
बना कर
वा ह
दें गे
सम े
उन से
ा ई
आरो पी
पहु ंचा
आ ती
नि स्तान
संबं धित
्य ार
ख ू
ल् ला
दे ना
न् द्र
ल का
गो ली
वि ष
अ ंत
शर् मा
फल ता
ध ु
य ता
लि का
था ने
ै ली
सुन वाई
सं स्था
सं भावना
ग ठ
छ त्ती
रा शि
न या
स् तर
ख ार
रि त
इं टरने
च ंद्र
हि स्
न र
2 4
लग ता
ग ये
चा ल
जिस का
श व
सु ना
उपल ब्
खे ल
प्र शासन
बा व
लगा ए
ण ी
ड़ की
सु पर
आ इ
फै सले
श त
मंड ल
पै से
का नों
की मत
जा ये
र खा
सुर क्षित
1 3
वा ना
लाख ों
बना ई
पे श
ं की
का ली
्र ें
शि व
अ मित
पू छता
विश्व विद्या
भी र
टा ने
यु वा
नि त
बढ़ा ने
ंद गी
आ ग
जरू रत
ंद र
सा बित
घोष णा
ति वार
अ चान
a t
क ला
आ गा
मौ का
मि क
उत् पा
ती नों
करे गी
म कर
ं टे
ख ों
बी ते
साम ना
प्र दर्शन
व्या पार
शिका यत
प टना
ट्रे लिया
ए च
तर फ
‍ या
स फलता
क द
अफगा निस्तान
वा या
शा ह
गु प्ता
ड़ ित
क ले
तरी के
मुं बई
आ व
च ली
स् ट्रेलिया
नि कल
अध्यक्ष ता
मू ल
उस से
मत दान
रा स्ते
फ ्रें
पा ने
लगा ई
ग ार
सम ार
बन ने
कि ये
अ र्
पद ों
व धान
् ता
प्र मुख
पा ई
दु कान
स मि
के वल
दूस री
रह ती
परि योजना
लि क
र ैली
पी ड़ित
ले ते
ज मकर
ब ्र
नरें द्र
गं भीर
न ंबर
को लका
कोलका ता
जवा ब
शा दी
निय मित
त म
वै से
हा यता
स हायता
अ ध्या
वा ं
स त्ता
मिल कर
व ु
ि श
क्ष कों
2 2
प्र ता
वै क्सी
समि ति
जल् द
ले ना
त्य े
बा की
फिल्म ों
वार ्ड
कै ं
गांव ों
बा ं
द ारी
स वार
स की
म ले
रो कने
ला ना
ध र
वाप स
व की
ला न
विधा यक
ट कर
श ंकर
फ ें
जे पी
मिल ता
जग ार
रो जगार
जे ता
वि जेता
टा ई
रेल वे
खा ना
क्टर ों
गें द
चि कि
क श्
सर ों
ते ल
ल ड़की
्य ता
वर्ष ों
प्र त्ये
सि या
आत ंकी
डा उन
आ सान
उप चार
जान ते
चि ंता
द लों
चौ हान
मुख ्या
सम र्थ
प्र ी
जे ल
हमार े
सा लों
वायर स
क ़
चिकि त्
तर राष्ट्रीय
अं तरराष्ट्रीय
मा ह
लग भग
न ती
कृ षि
स्ट ार
ब चा
त य
य ही
ं से
ह ता
सो शल
कार ्ड
पा न
ल् ले
ऑ स्ट्रेलिया
सु विधा
संग ठ
मुला का
अ हम
सा फ
श्य कता
आव श्यकता
सा त
हु ल
लै ंड
द स्ता
सी टों
छ ोड़
ह ली
उन को
लि खा
मिले गी
ह वाई
मान ना
ए शिया
निर् धार
वार ्ता
प्रति शत
दे खा
रि की
जिस की
र् च
ब ज
ब ों
बं धन
ज्ञा पन
द ल
ना ग
ते ज
को हली
नि कों
इन के
वि ता
क ली
इस्ते माल
भा गी
ंत जार
इ ंतजार
वाद दाता
सं वाददाता
त ने
क प्ता
धि कारी
उपलब् ध
छ ी
ए ंगे
ग ों
ग ंगा
सी मा
1 6
टे स्ट
श ू
य म
श ्या
क मी
शि क्षकों
वाह नों
ष ा
फर ार
दे गा
शु रु
पहुंच ने
इ न्हें
प्र वक्ता
किन ार
शा म
चला ने
श कों
प ्यार
स्था पित
खि ले
सड़ कों
आप ने
ष द
ज ने
निय मों
प्र चार
मिल ते
फो टो
खा ते
अभि ने
ड़ा ई
ख ्
या त्रा
नौ ती
चु नौती
प सं
निग म
खे ती
य कों
उम्मीदवार ों
00 0
द ने
रख ना
वह ार
कर् ना
श ों
ो बार
कार ोबार
मु ना
लगा ते
जवा नों
हरा या
निर्धार ित
ष ित
ल ते
डॉ क्टरों
रि ली
लग ने
खे ले
वि रोध
नि धि
ब ला
र् जी
भ ु
आ कर
सम झ
म ती
मह ंगा
स् कर
ल खन
प ने
टि व
ख ़
ए क्स
सड़ क
बो धित
बचा ने
मिल ती
स्त ार
ू लों
अभि नेता
यू पी
जाये गा
ि का
चे ता
ं ती
स हार
विक सित
अस्पता लों
दू रों
स् ना
बि ने
मे रिकी
अ मेरिकी
आ ं
ह ॉ
दो बार
स्त ों
सचि व
रो हित
मै चों
ह ंगा
ट क्कर
ट क
व्य वहार
ह टाने
म की
चल ने
व ली
तु लना
न्ह ोंने
ा ं
स्वी रें
त स्वीरें
बा न
प्र त्या
पढ़ ाई
म ला
घर ों
योग िता
कै बिने
हाथ ों
बा जी
वु ड
चा लित
थ ित
रख ते
क ू
चाह ता
ल ड़ाई
पुरा ने
ला भ
2 3
जि न्हें
ब लों
थि यार
ह थियार
समा ज
इला कों
स् को
बल् कि
शा ला
टा चार
सं घ
न ें
मा नित
रह ेंगे
दर् शकों
स् ला
लगा कर
आरोप ित
खरी दने
पा लिका
ब ें
सू चित
प्र सार
लें गे
व ती
का ले
छ ली
चुनाव ों
ल ता
श ित
प्रति योगिता
ज दूरों
म जदूरों
क थित
प्र ती
भ ले
पू र
प्रा प्त
रख ें
रा हुल
वे दन
क त
क ल्या
कि तना
् ला
कि लो
ख ी
आधार ित
थी ं
ष् टाचार
सं बोधित
निक ले
हिस् से
स्क ूलों
इ स्ला
र वाना
जिस ने
ज वान
बात ें
का ई
उठा या
दु कानों
म कान
म मता
शा ना
श ार
वि तीय
द् वितीय
स त
खा स
रह ना
घ ंटे
सं चालित
1 7
कि ता
र चना
बा ई
अ ने
न व
फा न
ऐ सी
जता ई
समे त
मांग ी
मु द्
संग ी
ज ला
बाइ क
बता ई
फि या
डा ला
सि ले
अ खिले
प्रा वधान
ड़ ता
सके ंगे
सं के
जय ंती
बढ़ कर
रह ें
सु निश्चित
म जब
मजब ू
मुका बला
आ देश
आं खों
ग तान
भु गतान
सक ों
श राब
नेता ओं
रि क
ड़े गा
सि ने
कश् मीर
इ ले
प्रया स
घा यल
निकल ने
खा ली
उप योग
मा या
कानू नों
देख ें
ण ना
ग णना
ध मकी
वि स्तार
लॉ क
ग र्
र् घटना
दु र्घटना
ड़ िता
पी ड़िता
प ला
हजार ों
र् य
बढ़ ते
चार ों
उ तार
जि न्होंने
पहुंचा ने
ू डें
स्ट ूडें
फ् ते
सा हित
बता ते
कानू न
ओ पन
ल ड़ने
फ ार
नि शाना
साथ ी
ष ों
को रिया
मले रिया
शु क्ला
सके ं
च ें
को शि
ं ज
गु ला
जग हों
बना ना
कीमत ों
दो स्तों
आप का
मि न
स ही
निर् माता
कहा ं
बी जेपी
उस को
ह ें
श् वर
20 21
अ क्
वी र
गा ने
्र ष्टाचार
भ ्रष्टाचार
ब ्रा
वि ज्ञान
रा के
अ दा
आए गी
उ ल्ले
सी टें
स ली
सी एम
सी य
ल क्ष
ोग ी
दि ने
चला या
रा ने
ट ली
र्थ व्यवस्था
अ र्थव्यवस्था
दे वी
य ंका
प्रि यंका
‍ ली
मु के
ं कों
कार्या लय
प्ला न
आए गा
क् वार
प्र ार
ौ ती
लखन ऊ
व ों
मे डि
सम् मानित
प्रकाश ित
अ के
टि यां
शहर ों
नी की
तक नीकी
सा ई
पि का
योग दान
जि ंदगी
ह फ्ते
क था
री य
इ तने
क् का
पहुंचा या
निका लने
कप्ता न
मना या
स लों
त् त
चिकित् सकों
शन ल
आ योग
ट कों
ला पर
र् ष
क्रि के
द् धा
बो ला
आ ठ
क् ट
गं ज
ख ला
ल ु
निया ं
दे ती
ट ॉ
द ना
कर ों
महंगा ई
ज न्
थ ों
ही नों
गु ना
मिल ना
मार ने
एस पी
ली ला
उ म
श ंका
लं बित
आ ना
आ ये
भो क्ता
उप भोक्ता
पंचायत ों
मा नों
टि या
क् के
बी मार
ब चने
बा ला
जा या
रु षों
पु रुषों
बो ले
ट वार
ड़ कर
र् या
ऑ फ
ल् ‍ली
दि ल्‍ली
त् तीय
वि त्तीय
स मी
पाए ंगे
पी छे
प ड़ेगा
से के
प ल
त ारी
छोड़ कर
o n
कट ौती
ऑ न
क विता
म हीनों
इस को
दि व
मा शों
बद माशों
च क्कर
कर ार
ध ों
अभ ्या
बढ़ा कर
निर् या
इन की
हि या
न कली
उ पा
मै से
स्ट ें
दी पिका
म नो
स्था नों
कर वाया
आयो जन
न यी
ला ए
काम का
यो ध्या
अ योध्या
बढ़ ने
ड़ का
गठ ित
लिया ं
पहुंच कर
सो ने
खे लने
कोशि श
ता कि
ची न
जरू री
त्र ि
ए यर
कि स्ता
पा किस्ता
जिन के
ई रान
ग ्री
स वालों
ता या
फ ु
क ं
बै ंकों
मा ंगा
ंक ड़ों
न ने
6 0
दि त
अ पर
री बों
ग रीबों
सै निकों
अ निवार
पं जा
चा ई
रो ड
गि र
मांग ों
जा पान
ह स्ता
रि कों
नाग रिकों
आ शंका
बि ला
खि या
मत दाता
टीम ों
करा ए
दिव सीय
द ्रीय
न् द्रीय
के न्द्रीय
प् लाई
स प्लाई
सं स्थान
कित ने
शा ली
प्रस्ता वित
जी ता
खे ला
ड़ के
वर ों
रहे गी
नि शान
मि ता
ट का
स का
प ड़ा
ज गी
इ स्ती
जि तना
ज मा
धा नी
कर वाई
तर ना
फ ॉ
ट्रे नों
चा ं
बार िश
ट्र ोल
जु ड़े
अव सर
र् की
चाह ती
काम या
न् ‍
अफ सरों
ंग ्ला
बा ंग्ला
वैक्सी न
विधा यकों
स ने
टा इ
युव ती
जीत ने
ज मी
उठा ए
ार् थी
हों गी
े ता
मान ते
ख नीय
बद ले
पा ली
संगठ नों
स ना
ल् तान
दि लाने
रो जाना
रा स्ता
सो ना
मिला कर
चल ता
लि बान
ता लिबान
अ परा
प्रति क्रिया
वा ए
जान ने
लं का
रा ना
परिवार ों
या ताया
ू ली
सह योगी
नी ती
ज़ ार
अं कित
बा जों
पि टाई
फि के
ा जगी
नार ाजगी
च ै
बज ट
द् धि
च न
कर वाने
छ ह
करोड़ ों
ह ोंने
न्‍ होंने
स् पे
सके गा
वि पक्ष
सि लें
घ ु
क ौ
मार् ट
क् शन
इ ड
टे ली
शे यर
स्त ु
तक ों
के ं
त ें
जान ें
सि ला
सिल सिला
धा ई
ब धाई
खु ले
ख ने
मू ला
इला ज
ख ित
लि खित
वैक्सी ने
मे ला
सां सद
ति या
भार ती
क् ली
नी ला
स्त रीय
सकी य
पा ं
ंग ना
ह ड़ता
मुद् दों
मान ्यता
म रान
तैयार ियां
प कों
क्रि केट
मर ने
मो बाइ
मोबाइ ल
ा लय
जिन की
ख तरना
आ न
कि ल
सं क्रमण
ल् प
ऐ लान
मै ने
य टकों
पर् यटकों
बा ज
अ सल
पसं द
आ ंकड़ों
एन का
हा सिल
बात ों
ते जी
म् हार
ह ना
दि व्या
चौ की
द्य ोग
णा ली
द्य ार्थी
वि द्यार्थी
ची जों
रि ये
मेडि कल
निका ली
अ ना
म ई
आ र्थ
र् पित
सम र्पित
e r
उल्ले खनीय
ंच ित
से ले
प टने
नि पटने
की य
पक्ष ों
भि न्न
मह त्या
त् महत्या
आ त्महत्या
पा वली
रह कर
बढ़ ती
र् गा
इन का
सुन कर
मु खिया
एक ता
वी ं
काम ना
दि ये
लगे गा
रूप ये
खा ं
रे ली
न्‍ हें
स्था यी
क न्या
बु ला
रो हता
पि छली
है या
चो रों
उ चित
दा मों
र ता
टर ों
सु ल्तान
प्र िया
अधि वक्ता
मंत्र ालय
सी ता
क प
4 0
रख कर
देख ना
दी की
आर ती
कम लना
भर ने
मौजूद गी
प्र णाली
रि क्त
क्र ेता
ड कर
बे डकर
निर्देश ित
न् ‍या
पड़ ने
निका ला
वी रें
जि या
दी पावली
खबर ों
बं धित
ंट ों
घ ंटों
खो लने
मि या
ब् ला
मान ें
य ना
जता या
ता ला
डा लकर
पी ने
भे जने
इ काई
बढ़ ता
ब रेली
अधि कां
दि ली
स पने
शा सकीय
लग ती
ले ता
सं चार
ज्ञ ों
विशेष ज्ञों
ज़ ्या
क्र ां
दा ई
क ंगना
म ्या
सा लाना
सुना ई
स्ना न
इ मरान
त्र ता
ें गी
अध्या पकों
उठा ने
बु लाया
त् ते
ख ना
फै ला
बॉली वुड
क्ष ि
ह ्
मार् ग
हॉ की
म ने
ड़ ियां
राज ें
मार कर
भ ें
उ न्‍होंने
सं विधान
दि ला
वि जय
च र
मे ल
भा स्कर
ऑन लाइन
करा ना
समा धान
ज रिये
बैठ कर
वि क्रेता
य ंसे
मत गणना
छा या
ति म
व ंचित
वा हन
मे गा
य मुना
दु र्गा
बो र्ड
ंड ित
प ंडित
बच् चे
न् होने
ल ती
चल ती
ब ्या
पास वान
बन ार
घ टकर
गंभीर ता
आए ंगे
उ न्‍हें
न ये
जाए ंगी
ड़ िया
च रण
ति यां
मना ली
समर्थ कों
्री का
संक्रमित ों
अव का
वर् ती
सू ली
टा ए
क कर
