<unk>	0
<s>	0
</s>	0
ال	-0
▁ال	-1
▁م	-2
▁و	-3
▁أ	-4
ية	-5
▁ف	-6
▁ب	-7
ان	-8
ات	-9
▁ت	-10
▁في	-11
▁ع	-12
▁ل	-13
ين	-14
▁الم	-15
ار	-16
▁من	-17
ون	-18
يا	-19
▁ك	-20
▁ي	-21
را	-22
ام	-23
ها	-24
▁إ	-25
ول	-26
ري	-27
▁ه	-28
▁الأ	-29
▁س	-30
ير	-31
▁ح	-32
لى	-33
▁ن	-34
ور	-35
▁1	-36
▁(	-37
▁ج	-38
▁الت	-39
ما	-40
▁وال	-41
▁ق	-42
ست	-43
▁الع	-44
اد	-45
لي	-46
اب	-47
يد	-48
ائ	-49
رب	-50
لا	-51
وم	-52
▁د	-53
يم	-54
▁ش	-55
نا	-56
وا	-57
▁على	-58
▁الح	-59
يل	-60
▁الق	-61
بر	-62
سم	-63
عة	-64
▁ا	-65
▁الس	-66
▁لل	-67
▁أو	-68
▁أن	-69
سي	-70
رو	-71
حد	-72
لك	-73
▁الب	-74
▁الج	-75
عد	-76
يت	-77
▁الك	-78
▁الن	-79
اف	-80
▁مع	-81
▁الش	-82
▁خ	-83
لم	-84
ود	-85
قة	-86
▁ر	-87
▁الإ	-88
رة	-89
وب	-90
دين	-91
يات	-92
▁إلى	-93
▁وت	-94
▁الف	-95
▁بال	-96
00	-97
▁2	-98
ند	-99
يو	-100
سا	-101
▁ص	-102
▁غ	-103
يس	-104
رك	-105
مة	-106
▁19	-107
▁ط	-108
دينة	-109
جع	-110
▁الد	-111
▁بن	-112
▁-	-113
اء	-114
▁مح	-115
اني	-116
سب	-117
هم	-118
▁أي	-119
▁الل	-120
لة	-121
صر	-122
راجع	-123
▁الر	-124
قع	-125
جم	-126
انية	-127
انت	-128
اص	-129
▁وه	-130
▁هي	-131
▁الص	-132
رن	-133
وج	-134
بي	-135
قد	-136
كن	-137
من	-138
▁هذ	-139
هر	-140
▁هو	-141
اع	-142
▁ث	-143
▁مو	-144
تو	-145
بل	-146
تم	-147
في	-148
▁التي	-149
نة	-150
تي	-151
▁ذ	-152
▁ما	-153
▁عن	-154
مل	-155
كون	-156
قا	-157
يث	-158
▁الخ	-159
صل	-160
▁عام	-161
▁مدينة	-162
تر	-163
زي	-164
▁الذ	-165
▁مراجع	-166
▁«	-167
اري	-168
الي	-169
▁الث	-170
ني	-171
لف	-172
▁الو	-173
سط	-174
كل	-175
رق	-176
▁الط	-177
رف	-178
▁آ	-179
بد	-180
▁وأ	-181
يرة	-182
وي	-183
وف	-184
خر	-185
▁الا	-186
مد	-187
▁بين	-188
▁وي	-189
تب	-190
عل	-191
وك	-192
▁أيض	-193
ياب	-194
▁ان	-195
وت	-196
ًا	-197
كان	-198
رية	-199
دم	-200
طة	-201
كي	-202
ستخ	-203
دة	-204
مر	-205
مال	-206
قي	-207
وري	-208
▁تو	-209
ثل	-210
با	-211
▁كل	-212
▁بعد	-213
غة	-214
وس	-215
▁با	-216
▁لا	-217
حت	-218
الم	-219
▁كان	-220
▁ز	-221
افظ	-222
سل	-223
▁مد	-224
▁الغ	-225
ارة	-226
▁تع	-227
▁تم	-228
طقة	-229
▁تأ	-230
عض	-231
).	-232
كا	-233
▁وم	-234
▁مت	-235
شي	-236
سية	-237
ورة	-238
▁المت	-239
▁هذه	-240
▁أك	-241
يون	-242
وية	-243
خت	-244
▁اله	-245
حة	-246
قل	-247
دي	-248
وع	-249
قت	-250
▁أس	-251
سة	-252
ولة	-253
يز	-254
▁أم	-255
▁أيضا	-256
ربية	-257
يميا	-258
▁حيث	-259
طل	-260
▁بل	-261
▁وا	-262
▁بد	-263
كس	-264
ريق	-265
▁الذي	-266
ذا	-267
▁يع	-268
ظر	-269
▁الياب	-270
شر	-271
انيا	-272
▁3	-273
▁18	-274
رض	-275
اريخ	-276
نوب	-277
بة	-278
سيس	-279
حدة	-280
▁أب	-281
جة	-282
كر	-283
وعة	-284
افظة	-285
▁وف	-286
صف	-287
نت	-288
▁ول	-289
▁عد	-290
▁علي	-291
راء	-292
▁.	-293
▁عند	-294
▁لم	-295
▁الأم	-296
▁ض	-297
▁سنة	-298
جل	-299
▁المع	-300
▁هذا	-301
▁تش	-302
جد	-303
غات	-304
▁مص	-305
ناصر	-306
ادة	-307
▁وب	-308
▁القرن	-309
ثر	-310
▁نظ	-311
▁(1	-312
نية	-313
بات	-314
فة	-315
ارج	-316
▁وهي	-317
فا	-318
▁ولا	-319
▁تأسيس	-320
▁الز	-321
ولا	-322
اليا	-323
افة	-324
▁عبد	-325
ته	-326
كم	-327
ماء	-328
كت	-329
رات	-330
كو	-331
ئية	-332
لال	-333
جموعة	-334
▁كما	-335
▁تح	-336
▁وع	-337
صب	-338
قية	-339
▁كانت	-340
▁له	-341
ضي	-342
▁است	-343
▁|	-344
رم	-345
شت	-346
راب	-347
▁وهو	-348
قاط	-349
لية	-350
ائية	-351
قط	-352
▁محمد	-353
ستخدم	-354
ديد	-355
هد	-356
▁20	-357
▁يم	-358
▁رو	-359
▁أحد	-360
▁منطقة	-361
▁مثل	-362
ليم	-363
▁يت	-364
▁الله	-365
إن	-366
اح	-367
▁إن	-368
▁المو	-369
▁الأول	-370
يب	-371
الية	-372
اليد	-373
فس	-374
ورية	-375
▁أما	-376
▁قد	-377
عية	-378
▁والم	-379
▁بح	-380
▁لأ	-381
▁انظر	-382
▁اليابان	-383
▁أش	-384
▁200	-385
اط	-386
يك	-387
▁المح	-388
▁تت	-389
▁تق	-390
▁ومن	-391
▁بعض	-392
رد	-393
يان	-394
▁المن	-395
امعة	-396
برا	-397
ذلك	-398
عات	-399
▁عدد	-400
وات	-401
▁جز	-402
بية	-403
فاع	-404
خرى	-405
▁وقد	-406
وز	-407
الة	-408
لات	-409
ئي	-410
ادي	-411
اس	-412
▁ثم	-413
▁أول	-414
▁محافظة	-415
▁لت	-416
قر	-417
▁خارج	-418
▁أنه	-419
اث	-420
▁مواليد	-421
خص	-422
▁للم	-423
▁ين	-424
▁4	-425
ئيس	-426
له	-427
▁المدينة	-428
▁وك	-429
▁وفي	-430
اج	-431
▁قبل	-432
▁غير	-433
در	-434
ربي	-435
▁)	-436
تها	-437
▁الآ	-438
▁تاريخ	-439
اً	-440
ركة	-441
از	-442
ياس	-443
يف	-444
▁العالم	-445
تاب	-446
اه	-447
بال	-448
يوم	-449
▁مدن	-450
وق	-451
▁خارجية	-452
)،	-453
راف	-454
روف	-455
ناء	-456
ينية	-457
بير	-458
▁تقع	-459
سك	-460
▁بم	-461
▁أح	-462
▁ألم	-463
..	-464
▁اسم	-465
يمة	-466
خل	-467
▁حاليا	-468
▁:	-469
فر	-470
لب	-471
يط	-472
تبر	-473
▁سب	-474
كية	-475
ترون	-476
▁البر	-477
▁يمكن	-478
▁كم	-479
▁المص	-480
تى	-481
▁،	-482
دام	-483
عي	-484
ارية	-485
▁والتي	-486
▁وفيات	-487
غير	-488
▁مس	-489
دا	-490
▁وتقع	-491
▁وصل	-492
أمة	-493
حات	-494
▁به	-495
▁وج	-496
▁فيها	-497
▁جم	-498
▁توأمة	-499
لاث	-500
وجد	-501
يام	-502
▁الجز	-503
er	-504
▁مق	-505
سلام	-506
▁تن	-507
▁لغات	-508
▁جامعة	-509
▁ذلك	-510
▁الكيميا	-511
رت	-512
ائي	-513
▁بت	-514
▁المد	-515
000	-516
▁العربية	-517
▁أغ	-518
▁انت	-519
رج	-520
ادر	-521
▁والأ	-522
غا	-523
▁حتى	-524
▁ذات	-525
دول	-526
▁البل	-527
▁199	-528
▁القد	-529
حر	-530
ارس	-531
ختلف	-532
ياء	-533
▁المراجع	-534
ضع	-535
▁ات	-536
▁بها	-537
▁اللغة	-538
▁دي	-539
يه	-540
▁بأ	-541
▁فر	-542
▁يكون	-543
ارات	-544
▁جنوب	-545
an	-546
شو	-547
▁فل	-548
▁وس	-549
علام	-550
▁مست	-551
▁والت	-552
لكترون	-553
خاص	-554
يلة	-555
اصمة	-556
▁المست	-557
▁لها	-558
▁يتم	-559
▁مقاط	-560
اند	-561
سمى	-562
شيد	-563
▁وق	-564
ستخدام	-565
▁وصلات	-566
اك	-567
جر	-568
شكل	-569
▁دول	-570
ترة	-571
عب	-572
ائر	-573
▁الولا	-574
اي	-575
وار	-576
▁مؤ	-577
in	-578
بلغ	-579
سمية	-580
▁فإن	-581
▁الوط	-582
▁10	-583
en	-584
▁5	-585
راق	-586
ركز	-587
▁مجموعة	-588
▁المتحدة	-589
ارت	-590
▁عم	-591
ضم	-592
طي	-593
عم	-594
▁6	-595
▁سل	-596
▁لي	-597
▁201	-598
▁مر	-599
▁تكون	-600
لمة	-601
▁المنا	-602
▁كيميا	-603
يني	-604
▁حو	-605
▁أهم	-606
▁علم	-607
▁الدول	-608
سبة	-609
▁يح	-610
ظم	-611
وى	-612
فل	-613
وان	-614
▁ولاية	-615
▁بو	-616
ياض	-617
كة	-618
▁اب	-619
▁المس	-620
▁نظام	-621
▁أماكن	-622
▁الشرق	-623
وة	-624
ناك	-625
جه	-626
نى	-627
▁ون	-628
▁التق	-629
جين	-630
▁17	-631
طق	-632
▁||	-633
▁أع	-634
َّ	-635
▁ظ	-636
▁عمل	-637
سمة	-638
لاف	-639
▁سكان	-640
▁شمال	-641
نس	-642
نه	-643
رام	-644
-1	-645
▁ألمانيا	-646
▁لو	-647
▁ولك	-648
▁وز	-649
ربون	-650
▁(19	-651
▁11	-652
▁الض	-653
▁C	-654
تين	-655
▁أف	-656
امة	-657
ترا	-658
▁الأح	-659
▁أعلام	-660
▁الجنوب	-661
ذه	-662
ريد	-663
▁أخرى	-664
▁أيضاً	-665
جي	-666
غو	-667
▁أيضًا	-668
▁العناصر	-669
▁سيا	-670
▁أمري	-671
▁الأمري	-672
به	-673
ثم	-674
اقة	-675
دية	-676
عمل	-677
▁198	-678
▁قائ	-679
▁نفس	-680
▁(2	-681
▁إد	-682
جلي	-683
وروب	-684
لاح	-685
ينا	-686
▁حد	-687
▁يون	-688
حو	-689
ضافة	-690
▁حسب	-691
▁نهر	-692
زة	-693
ايت	-694
ظام	-695
ومات	-696
يدرو	-697
▁الحد	-698
▁كتاب	-699
▁منها	-700
سن	-701
▁عل	-702
▁عشر	-703
le	-704
غي	-705
امل	-706
▁مش	-707
ليون	-708
▁مج	-709
▁أكثر	-710
▁مقاطعة	-711
ar	-712
بع	-713
ذي	-714
▁عناصر	-715
ومة	-716
st	-717
▁يق	-718
ئة	-719
▁S	-720
▁14	-721
▁تص	-722
▁رم	-723
واع	-724
▁"	-725
سيا	-726
رابطة	-727
▁أكبر	-728
كتب	-729
▁ري	-730
▁موا	-731
▁ولكن	-732
▁أشخاص	-733
▁الشمال	-734
on	-735
طلق	-736
عدة	-737
قتص	-738
▁15	-739
▁الإسلام	-740
ارا	-741
سمي	-742
صبح	-743
لكة	-744
▁12	-745
▁فرن	-746
▁نسمة	-747
ريل	-748
هرب	-749
▁سي	-750
▁تحت	-751
▁أبو	-752
▁الشم	-753
يع	-754
▁7	-755
ودة	-756
▁إس	-757
ائرة	-758
هورية	-759
▁الاست	-760
▁8	-761
تان	-762
انون	-763
▁إحد	-764
▁السل	-765
▁حوالي	-766
وط	-767
رائ	-768
هولة	-769
▁الأس	-770
جو	-771
ثير	-772
زية	-773
▁ها	-774
▁لغة	-775
فاق	-776
▁المش	-777
».	-778
صول	-779
قات	-780
▁مم	-781
▁يُ	-782
▁196	-783
▁قام	-784
▁الإم	-785
▁رئيس	-786
ليل	-787
▁أق	-788
▁بر	-789
▁در	-790
▁وح	-791
▁مسا	-792
▁وكان	-793
▁الثاني	-794
▁بي	-795
▁سا	-796
▁صف	-797
▁قط	-798
▁السيا	-799
حي	-800
سو	-801
▁16	-802
▁أد	-803
▁أل	-804
▁مصر	-805
▁الجم	-806
بن	-807
الث	-808
ساوي	-809
ائل	-810
حدات	-811
هما	-812
▁أث	-813
▁وإ	-814
الات	-815
▁التع	-816
ريف	-817
ظمة	-818
▁منذ	-819
▁يوم	-820
▁M	-821
توي	-822
سيم	-823
▁تر	-824
▁يو	-825
▁أسماء	-826
▁الدين	-827
▁جزيرة	-828
تد	-829
▁للأ	-830
▁الملك	-831
▁عندما	-832
▁A	-833
▁إلا	-834
▁الشع	-835
▁المج	-836
▁خلال	-837
▁هناك	-838
al	-839
خط	-840
صة	-841
ارك	-842
▁ثلاث	-843
لت	-844
عود	-845
▁يد	-846
ريقيا	-847
هي	-848
ابة	-849
ضاء	-850
▁13	-851
▁بط	-852
▁مأ	-853
▁خاص	-854
at	-855
مو	-856
▁الشي	-857
▁طريق	-858
ارد	-859
سبب	-860
يدة	-861
▁الوا	-862
▁المنطقة	-863
حدث	-864
قتصاد	-865
▁إحدى	-866
or	-867
▁خط	-868
ينات	-869
قم	-870
ّة	-871
حية	-872
▁دا	-873
▁إذا	-874
▁القر	-875
▁البحر	-876
▁قائمة	-877
ريت	-878
▁التاريخ	-879
قال	-880
كتش	-881
ويت	-882
▁نها	-883
راد	-884
ستر	-885
ظهر	-886
▁كب	-887
غراف	-888
▁أنواع	-889
▁الجدول	-890
ابط	-891
اية	-892
ساء	-893
ركات	-894
▁المجموعة	-895
ارل	-896
ندا	-897
▁تط	-898
,000	-899
▁بدأ	-900
▁المم	-901
▁الأولى	-902
جز	-903
خذ	-904
ريط	-905
▁195	-906
▁أسست	-907
▁النا	-908
▁الحرب	-909
ساب	-910
▁مل	-911
▁أحمد	-912
▁يوجد	-913
زا	-914
ورغ	-915
▁للت	-916
▁الات	-917
▁والع	-918
▁اتفاق	-919
▁الاسم	-920
سلة	-921
قطة	-922
▁سم	-923
▁المغ	-924
▁الولايات	-925
فت	-926
الت	-927
جموع	-928
عداد	-929
وليو	-930
▁197	-931
▁=	-932
فور	-933
واص	-934
▁مب	-935
▁شرق	-936
▁عدة	-937
▁الساب	-938
▁مأهولة	-939
اير	-940
وال	-941
▁تج	-942
▁فيه	-943
انيون	-944
▁نبات	-945
حاد	-946
▁تا	-947
▁شكل	-948
▁الأخ	-949
أس	-950
ثال	-951
وير	-952
▁التج	-953
▁عليه	-954
▁تأسيسات	-955
وص	-956
▁9	-957
ورج	-958
انات	-959
فاعل	-960
▁194	-961
▁لكن	-962
▁العل	-963
▁فترة	-964
▁الألم	-965
▁اتفاقيات	-966
ربع	-967
▁شع	-968
توبر	-969
▁شخص	-970
es	-971
طب	-972
ينة	-973
▁هن	-974
ريقة	-975
▁وتع	-976
▁السنة	-977
سطس	-978
قرأ	-979
▁أص	-980
قليم	-981
▁ويت	-982
▁الفرن	-983
يش	-984
▁–	-985
برت	-986
براط	-987
▁ألف	-988
ختلفة	-989
نب	-990
ياً	-991
▁سن	-992
▁مغ	-993
▁درجة	-994
▁الأرض	-995
▁يوليو	-996
▁الدولة	-997
▁استخدام	-998
فع	-999
قى	-1000
▁ملك	-1001
▁الحك	-1002
▁مايو	-1003
▁يبلغ	-1004
▁اليوم	-1005
▁عاصمة	-1006
▁الثانية	-1007
10	-1008
▁عب	-1009
▁بور	-1010
▁موقع	-1011
▁الأخرى	-1012
زو	-1013
▁إلي	-1014
▁للع	-1015
▁أكتوبر	-1016
صد	-1017
غم	-1018
ورا	-1019
▁لإ	-1020
▁أسا	-1021
▁الفر	-1022
▁والذي	-1023
▁الرئيس	-1024
بت	-1025
حص	-1026
▁وش	-1027
تمبر	-1028
▁نوع	-1029
▁الكيميائية	-1030
زم	-1031
▁إف	-1032
▁شي	-1033
▁جون	-1034
▁غرب	-1035
جلترا	-1036
▁الخط	-1037
▁الرا	-1038
▁بالم	-1039
▁أوروب	-1040
ويل	-1041
▁بير	-1042
▁أغسطس	-1043
▁العام	-1044
▁العديد	-1045
it	-1046
طا	-1047
▁بول	-1048
▁الفل	-1049
▁باسم	-1050
▁عليها	-1051
ic	-1052
نع	-1053
ولوج	-1054
▁أبي	-1055
▁حكم	-1056
▁عمر	-1057
▁كيل	-1058
▁الثالث	-1059
▁النظام	-1060
شا	-1061
اطق	-1062
سان	-1063
▁ساب	-1064
▁نوف	-1065
▁السود	-1066
▁الموج	-1067
un	-1068
▁تد	-1069
▁كا	-1070
يرات	-1071
▁حول	-1072
▁يستخدم	-1073
زب	-1074
روب	-1075
سات	-1076
سون	-1077
▁إي	-1078
اعدة	-1079
▁حرف	-1080
▁ضمن	-1081
▁لأن	-1082
▁المر	-1083
▁بشكل	-1084
▁هنري	-1085
▁النشيد	-1086
حل	-1087
اما	-1088
▁لن	-1089
▁برم	-1090
▁أبريل	-1091
▁نهاية	-1092
▁سبتمبر	-1093
▁سكانها	-1094
ro	-1095
»،	-1096
مبر	-1097
هيم	-1098
▁بار	-1099
▁أحداث	-1100
▁الطبي	-1101
▁اليون	-1102
▁مصادر	-1103
▁اللغات	-1104
▁الإلكترون	-1105
th	-1106
الب	-1107
▁تي	-1108
▁فقط	-1109
▁ياب	-1110
▁اقرأ	-1111
▁الأك	-1112
▁العمل	-1113
▁إنجلترا	-1114
▁الأمريكية	-1115
is	-1116
تج	-1117
عت	-1118
وغ	-1119
▁B	-1120
ابت	-1121
ضيح	-1122
▁تس	-1123
▁لق	-1124
▁اخت	-1125
▁والح	-1126
▁مناطق	-1127
غر	-1128
ثلا	-1129
يين	-1130
▁بإ	-1131
▁بك	-1132
▁مي	-1133
يران	-1134
▁أصل	-1135
▁ترك	-1136
▁المؤ	-1137
▁مصطل	-1138
▁الصين	-1139
▁يناير	-1140
▁الهيدرو	-1141
ضل	-1142
هة	-1143
وكو	-1144
ياة	-1145
ينغ	-1146
▁آخر	-1147
▁طول	-1148
▁أنها	-1149
▁مركز	-1150
▁واحد	-1151
▁بداية	-1152
▁الوطني	-1153
ائم	-1154
نصر	-1155
▁فن	-1156
ركبات	-1157
نائية	-1158
▁وذلك	-1159
▁أنهار	-1160
▁الأسا	-1161
▁الدوري	-1162
CH	-1163
آن	-1164
عا	-1165
فق	-1166
يوت	-1167
▁نا	-1168
▁قال	-1169
▁الروم	-1170
▁الهند	-1171
▁الكهرب	-1172
فن	-1173
▁P	-1174
اته	-1175
هور	-1176
▁قر	-1177
▁وله	-1178
▁مارس	-1179
▁الانت	-1180
▁واحدة	-1181
حم	-1182
زل	-1183
ضر	-1184
تيب	-1185
▁مف	-1186
▁إسب	-1187
▁يست	-1188
▁نوفمبر	-1189
سر	-1190
صور	-1191
طار	-1192
ولي	-1193
▁رؤ	-1194
▁بلد	-1195
▁كون	-1196
▁المق	-1197
▁الوطنية	-1198
ac	-1199
▁سو	-1200
▁ابن	-1201
حافظة	-1202
▁التش	-1203
▁بالإ	-1204
▁كلمة	-1205
▁يونيو	-1206
▁H	-1207
جمع	-1208
▁جو	-1209
▁لد	-1210
▁برو	-1211
▁الإن	-1212
▁المدن	-1213
▁أوروبا	-1214
▁المواد	-1215
▁القديمة	-1216
اصم	-1217
تبع	-1218
سطة	-1219
كام	-1220
▁إم	-1221
▁بع	-1222
رارة	-1223
▁صنا	-1224
▁ولد	-1225
▁الأش	-1226
▁جورج	-1227
▁عالم	-1228
▁العرب	-1229
▁العلم	-1230
2.	-1231
فظ	-1232
هل	-1233
تون	-1234
جان	-1235
شار	-1236
سمبر	-1237
لمات	-1238
▁ساح	-1239
▁معد	-1240
▁الرو	-1241
▁توجد	-1242
غرافيا	-1243
▁المعل	-1244
جار	-1245
وريا	-1246
ابايت	-1247
▁الإد	-1248
▁التح	-1249
جليزية	-1250
▁الجزي	-1251
▁الرابطة	-1252
اخ	-1253
غل	-1254
اعر	-1255
سين	-1256
▁قب	-1257
▁الأع	-1258
▁عادة	-1259
▁ديسمبر	-1260
▁فت	-1261
ليات	-1262
▁نصف	-1263
▁موسي	-1264
▁وكانت	-1265
▁يساوي	-1266
▁المناخ	-1267
▁الاتحاد	-1268
el	-1269
ur	-1270
الح	-1271
جلس	-1272
طان	-1273
▁كث	-1274
▁برا	-1275
▁متر	-1276
▁وين	-1277
▁بسبب	-1278
▁الفيز	-1279
▁أمريكي	-1280
0.	-1281
ابل	-1282
سام	-1283
غال	-1284
واء	-1285
وبة	-1286
▁بق	-1287
▁ور	-1288
0000	-1289
▁لين	-1290
▁موس	-1291
▁وسط	-1292
▁الأن	-1293
▁السكان	-1294
▁العربي	-1295
▁,	-1296
ئات	-1297
شير	-1298
غية	-1299
▁حل	-1300
▁را	-1301
▁وط	-1302
▁بيت	-1303
▁جبل	-1304
يانات	-1305
▁اكتش	-1306
▁الأب	-1307
▁حروف	-1308
▁سورة	-1309
▁فرنسا	-1310
▁الرسمي	-1311
▁الكتاب	-1312
▁تستخدم	-1313
▁الولاية	-1314
="	-1315
▁E	-1316
▁L	-1317
شرة	-1318
صار	-1319
ويم	-1320
افظات	-1321
▁القط	-1322
▁فران	-1323
▁مواقع	-1324
زات	-1325
ماس	-1326
مان	-1327
▁حم	-1328
عضاء	-1329
▁الان	-1330
ياضيات	-1331
▁يعتبر	-1332
▁نباتات	-1333
حا	-1334
شة	-1335
▁D	-1336
▁d	-1337
قدم	-1338
▁أر	-1339
▁العم	-1340
▁تقري	-1341
▁خاصة	-1342
▁أثناء	-1343
▁الميل	-1344
شع	-1345
طف	-1346
▁T	-1347
زين	-1348
عدد	-1349
ومي	-1350
يسة	-1351
▁شب	-1352
▁لع	-1353
▁حرب	-1354
▁مرة	-1355
براير	-1356
▁الأص	-1357
▁المب	-1358
▁كبير	-1359
اصمتها	-1360
فاعلات	-1361
▁الموقع	-1362
بدأ	-1363
غيل	-1364
▁كو	-1365
▁فقد	-1366
▁فيز	-1367
▁الكم	-1368
▁المه	-1369
▁جديد	-1370
▁وجود	-1371
جموعات	-1372
▁كبيرة	-1373
▁الدولي	-1374
أو	-1375
هو	-1376
ارب	-1377
كات	-1378
▁الحل	-1379
▁قياس	-1380
▁معرض	-1381
▁وزراء	-1382
▁البلاد	-1383
▁إلكترون	-1384
▁الإمبراط	-1385
▁الكيمياء	-1386
1.	-1387
20	-1388
جا	-1389
جت	-1390
نتاج	-1391
▁تلك	-1392
▁خري	-1393
ائرات	-1394
▁تعتبر	-1395
▁نظرية	-1396
اسم	-1397
روع	-1398
زيل	-1399
▁ست	-1400
▁ألك	-1401
▁صور	-1402
▁عائ	-1403
▁مما	-1404
▁ويم	-1405
▁الأو	-1406
▁بدأت	-1407
▁دولة	-1408
▁العثم	-1409
▁صفحات	-1410
ch	-1411
ادن	-1412
رفة	-1413
لهة	-1414
▁ام	-1415
▁نو	-1416
لفات	-1417
▁ويل	-1418
ريقية	-1419
▁الموا	-1420
تش	-1421
جب	-1422
غط	-1423
▁قص	-1424
قافة	-1425
▁دون	-1426
▁طبي	-1427
▁عبر	-1428
▁الأف	-1429
▁الغربية	-1430
3.	-1431
ضة	-1432
▁b	-1433
امي	-1434
شاط	-1435
▁مخ	-1436
ونيا	-1437
▁الأد	-1438
▁السن	-1439
▁تعني	-1440
▁جميع	-1441
▁نسبة	-1442
▁والص	-1443
▁وحدة	-1444
▁أعضاء	-1445
▁الشيخ	-1446
▁فبراير	-1447
ol	-1448
ثلة	-1449
راً	-1450
ونية	-1451
▁193	-1452
▁جان	-1453
▁كال	-1454
▁للإ	-1455
▁نحو	-1456
▁وتم	-1457
▁البح	-1458
▁العد	-1459
▁والن	-1460
▁توضيح	-1461
▁العراق	-1462
▁الموسي	-1463
▁العاصمة	-1464
▁المصادر	-1465
om	-1466
▁I	-1467
زيز	-1468
▁مه	-1469
ابات	-1470
▁مار	-1471
▁موج	-1472
▁مين	-1473
▁معظم	-1474
▁روابط	-1475
َر	-1476
رير	-1477
ليف	-1478
يدي	-1479
يرو	-1480
▁لح	-1481
حديد	-1482
▁دار	-1483
▁وضع	-1484
▁الصف	-1485
▁تسمى	-1486
▁محافظات	-1487
ده	-1488
▁s	-1489
انغ	-1490
ريك	-1491
ياه	-1492
▁آل	-1493
▁ني	-1494
ستان	-1495
غيرة	-1496
▁بأن	-1497
▁خريجو	-1498
▁رؤساء	-1499
ريم	-1500
زار	-1501
▁يه	-1502
جيات	-1503
▁روم	-1504
▁لبن	-1505
▁الأل	-1506
▁بالأ	-1507
▁والإ	-1508
▁الماء	-1509
▁عملية	-1510
▁مليون	-1511
▁الحياة	-1512
▁مختلفة	-1513
▁السودان	-1514
50	-1515
بو	-1516
▁R	-1517
▁p	-1518
كرة	-1519
يغة	-1520
▁بش	-1521
▁تل	-1522
▁بوا	-1523
▁كات	-1524
▁بالن	-1525
▁جبال	-1526
▁وهذا	-1527
▁الأما	-1528
▁الحرف	-1529
شق	-1530
▁N	-1531
ذكر	-1532
راض	-1533
طية	-1534
ورو	-1535
اوية	-1536
راسة	-1537
ياما	-1538
▁برن	-1539
▁تعد	-1540
▁سان	-1541
▁نقطة	-1542
ولوجيا	-1543
▁عربية	-1544
,000,000	-1545
▁إسبانيا	-1546
▁القانون	-1547
24	-1548
</	-1549
فو	-1550
زيع	-1551
صوص	-1552
طير	-1553
ولد	-1554
▁أخ	-1555
▁تُ	-1556
▁كن	-1557
جدية	-1558
ينيا	-1559
▁الأر	-1560
▁الكب	-1561
▁النبي	-1562
▁الحديث	-1563
▁المناطق	-1564
▁كيميائية	-1565
ion	-1566
تمد	-1567
وكا	-1568
قيقة	-1569
▁التو	-1570
▁الحكم	-1571
▁الغرب	-1572
▁وحدات	-1573
▁الطاقة	-1574
▁القرآن	-1575
▁جمهورية	-1576
▁المعلومات	-1577
▁اليابانية	-1578
لاء	-1579
▁شم	-1580
اسوب	-1581
صبحت	-1582
ورات	-1583
▁كلي	-1584
▁الخام	-1585
▁الدورة	-1586
▁العنصر	-1587
▁الكربون	-1588
am	-1589
أن	-1590
ئا	-1591
الك	-1592
امب	-1593
انو	-1594
راث	-1595
شاء	-1596
ينو	-1597
شيما	-1598
ومية	-1599
▁كول	-1600
▁كيو	-1601
يكاني	-1602
▁أيام	-1603
▁بايت	-1604
▁شركة	-1605
▁وغير	-1606
ارتفاع	-1607
▁الإنس	-1608
▁المستوى	-1609
▁عاصمتها	-1610
ef	-1611
ِي	-1612
▁c	-1613
ركب	-1614
قول	-1615
▁دو	-1616
توسط	-1617
▁بحر	-1618
▁ومع	-1619
▁البي	-1620
▁وعلى	-1621
▁يسمى	-1622
راك	-1623
لاق	-1624
نام	-1625
▁24	-1626
▁جي	-1627
ندية	-1628
▁رمز	-1629
▁عقد	-1630
▁ميل	-1631
رائيل	-1632
يائية	-1633
▁والب	-1634
▁إقليم	-1635
▁الاقتصاد	-1636
جن	-1637
حف	-1638
ِّ	-1639
▁G	-1640
and	-1641
ذية	-1642
كال	-1643
ولت	-1644
▁حا	-1645
▁ير	-1646
رقام	-1647
وكيو	-1648
▁تتم	-1649
▁فال	-1650
سيمات	-1651
▁التص	-1652
▁بالت	-1653
▁سلسلة	-1654
▁سياسي	-1655
▁البريط	-1656
▁الحدود	-1657
▁ساحلية	-1658
▁الأمريكي	-1659
4.	-1660
قب	-1661
▁f	-1662
ائق	-1663
▁وص	-1664
▁وو	-1665
لاقة	-1666
▁فون	-1667
▁مؤس	-1668
▁المك	-1669
▁سليم	-1670
▁والف	-1671
▁إضافة	-1672
▁البلد	-1673
▁الزمن	-1674
▁الشرقي	-1675
▁كيمياء	-1676
):	-1677
us	-1678
نف	-1679
راه	-1680
ربة	-1681
زال	-1682
ندي	-1683
نون	-1684
يته	-1685
▁جن	-1686
▁ود	-1687
ادية	-1688
ويات	-1689
▁فوق	-1690
▁منه	-1691
▁يقع	-1692
▁والث	-1693
براهيم	-1694
▁الجديد	-1695
▁إفريقيا	-1696
▁الحكومة	-1697
▁العالمية	-1698
-2	-1699
80	-1700
9.	-1701
id	-1702
ذب	-1703
زد	-1704
تبة	-1705
ونس	-1706
▁21	-1707
▁تب	-1708
واجد	-1709
▁جزي	-1710
▁حين	-1711
كربون	-1712
▁اليم	-1713
▁كارل	-1714
▁الثام	-1715
▁الذين	-1716
▁عبارة	-1717
▁الكويت	-1718
▁الجزائر	-1719
▁المملكة	-1720
um	-1721
زن	-1722
▁K	-1723
خرج	-1724
كاف	-1725
ليج	-1726
ليس	-1727
ماع	-1728
▁دم	-1729
▁طب	-1730
▁أقل	-1731
▁اشت	-1732
▁بلغ	-1733
▁جزء	-1734
▁رأس	-1735
▁رقم	-1736
▁عسك	-1737
▁للن	-1738
▁منت	-1739
▁آسيا	-1740
▁فلسط	-1741
▁النهر	-1742
▁التالي	-1743
▁الفترة	-1744
▁مصطلحات	-1745
et	-1746
شب	-1747
زون	-1748
لاحظ	-1749
▁تست	-1750
▁ليب	-1751
▁المف	-1752
▁الها	-1753
▁عنصر	-1754
▁الوسط	-1755
▁بينما	-1756
▁وكذلك	-1757
▁أفريقيا	-1758
▁الفرنسية	-1759
▁الألمانية	-1760
30	-1761
رح	-1762
نم	-1763
...	-1764
ائص	-1765
ظيم	-1766
نيا	-1767
نيف	-1768
▁25	-1769
▁30	-1770
▁جد	-1771
▁زوج	-1772
▁للح	-1773
▁التر	-1774
▁بالق	-1775
▁بحيث	-1776
▁والس	-1777
▁الصنا	-1778
▁بلدية	-1779
▁مساحة	-1780
▁اكتشاف	-1781
▁المسلم	-1782
▁إبراهيم	-1783
▁الإنسان	-1784
▁برمجيات	-1785
▁بالإضافة	-1786
ed	-1787
طح	-1788
هت	-1789
▁/	-1790
▁n	-1791
▁o	-1792
und	-1793
جرة	-1794
لون	-1795
هار	-1796
يلي	-1797
▁إل	-1798
▁إيط	-1799
▁ليس	-1800
▁هون	-1801
▁ويع	-1802
▁حالة	-1803
▁داخل	-1804
▁مصري	-1805
▁يطلق	-1806
▁الجزء	-1807
▁الوقت	-1808
▁تحتوي	-1809
▁قاعدة	-1810
▁الجنوبية	-1811
شف	-1812
كب	-1813
َة	-1814
ابه	-1815
الد	-1816
جري	-1817
حتم	-1818
طبي	-1819
وتو	-1820
وني	-1821
▁اخ	-1822
▁يس	-1823
برية	-1824
رابط	-1825
ربعة	-1826
لالة	-1827
ومتر	-1828
▁احت	-1829
▁بمع	-1830
▁دين	-1831
▁غال	-1832
▁أصبح	-1833
▁الحم	-1834
▁الرح	-1835
▁بناء	-1836
▁وبعد	-1837
▁يظهر	-1838
▁الحيو	-1839
▁شركات	-1840
▁الثلاث	-1841
▁الموجودة	-1842
5.	-1843
99	-1844
▁[	-1845
الع	-1846
ريش	-1847
لاس	-1848
▁وخ	-1849
ئيسي	-1850
▁ذكر	-1851
▁شبه	-1852
▁مون	-1853
▁نوب	-1854
▁رموز	-1855
▁لويس	-1856
▁يعرف	-1857
▁يهود	-1858
▁الأرد	-1859
▁القديم	-1860
▁بواسطة	-1861
▁الجزيرة	-1862
عى	-1863
ابع	-1864
تبط	-1865
جات	-1866
رمز	-1867
عام	-1868
نات	-1869
هان	-1870
ولى	-1871
يتا	-1872
▁بب	-1873
▁قل	-1874
▁مك	-1875
▁جيم	-1876
▁كتب	-1877
▁الإغ	-1878
▁ثابت	-1879
▁مجلس	-1880
▁الألك	-1881
▁اللات	-1882
▁تسمية	-1883
▁المادة	-1884
▁الهيدروجين	-1885
تل	-1886
ائد	-1887
اتج	-1888
ضمن	-1889
عاب	-1890
كيل	-1891
وجي	-1892
يوس	-1893
▁يش	-1894
سيوم	-1895
واعد	-1896
▁الظ	-1897
▁دور	-1898
▁كوب	-1899
▁السو	-1900
▁الطب	-1901
▁المل	-1902
▁النظ	-1903
▁والج	-1904
▁أصبحت	-1905
▁الخاص	-1906
▁الزرا	-1907
▁الشمس	-1908
▁علماء	-1909
▁ولايات	-1910
▁العالمي	-1911
▁الإسلامية	-1912
tr	-1913
ذك	-1914
ضا	-1915
ّا	-1916
افي	-1917
اين	-1918
حدد	-1919
زيد	-1920
ليب	-1921
يدو	-1922
▁|-	-1923
▁اع	-1924
▁عض	-1925
▁فم	-1926
اديم	-1927
تيجة	-1928
جزاء	-1929
ساكا	-1930
▁عرف	-1931
▁الشب	-1932
▁بالع	-1933
▁ذرات	-1934
▁الغربي	-1935
27	-1936
60	-1937
طن	-1938
هب	-1939
ادل	-1940
ثار	-1941
دمة	-1942
رعة	-1943
ريس	-1944
▁29	-1945
▁تف	-1946
▁نز	-1947
حلال	-1948
▁بني	-1949
▁تسم	-1950
▁ظهر	-1951
▁كرة	-1952
▁السف	-1953
▁بالح	-1954
▁جدول	-1955
▁دوري	-1956
▁طاقة	-1957
▁المسا	-1958
▁المسي	-1959
▁ويمكن	-1960
▁المركز	-1961
▁التسمية	-1962
▁التقويم	-1963
6.	-1964
▁W	-1965
ing	-1966
انا	-1967
قسم	-1968
▁إع	-1969
▁سف	-1970
▁ضد	-1971
عمال	-1972
يادة	-1973
▁187	-1974
▁189	-1975
▁روا	-1976
▁للد	-1977
امعات	-1978
ياضية	-1979
▁الاع	-1980
▁السي	-1981
▁الصح	-1982
▁النو	-1983
▁حساب	-1984
▁الأمر	-1985
▁الأحمر	-1986
▁الفرنسي	-1987
14	-1988
18	-1989
39	-1990
لغة	-1991
▁بص	-1992
▁قو	-1993
تبار	-1994
شرين	-1995
▁تضم	-1996
▁لاح	-1997
▁وير	-1998
عودية	-1999
▁اللي	-2000
▁تمثل	-2001
▁مكان	-2002
▁إسلام	-2003
▁البول	-2004
▁الشهر	-2005
▁تتكون	-2006
▁ثانية	-2007
▁ثلاثة	-2008
▁قانون	-2009
▁الحرارة	-2010
شأ	-2011
ابي	-2012
انة	-2013
قرا	-2014
▁تخ	-2015
▁تك	-2016
▁شر	-2017
▁لب	-2018
▁لك	-2019
▁يأ	-2020
▁يؤ	-2021
حداث	-2022
يتها	-2023
▁شهر	-2024
▁مشت	-2025
▁ولم	-2026
▁الآن	-2027
▁كذلك	-2028
▁الساد	-2029
▁العدد	-2030
▁الناس	-2031
▁دائرة	-2032
▁سنوات	-2033
يابانية	-2034
▁التعليم	-2035
ثي	-2036
طر	-2037
قص	-2038
مز	-2039
وء	-2040
سول	-2041
قاب	-2042
قيق	-2043
▁فع	-2044
نائي	-2045
يديا	-2046
▁إير	-2047
▁عهد	-2048
▁مقد	-2049
فلاند	-2050
▁بلاد	-2051
▁سعود	-2052
▁مدار	-2053
▁الراب	-2054
▁الشكل	-2055
▁المغرب	-2056
▁الأمازي	-2057
▁الشرقية	-2058
▁الوحدات	-2059
▁الرئيسية	-2060
▁الشمالية	-2061
▁كليفلاند	-2062
12	-2063
ab	-2064
نغ	-2065
ُم	-2066
اتي	-2067
تمع	-2068
ريب	-2069
لاع	-2070
يدا	-2071
▁حض	-2072
▁عش	-2073
▁غر	-2074
ادلة	-2075
تيار	-2076
غاوا	-2077
قلال	-2078
▁جزر	-2079
▁عثم	-2080
▁قدم	-2081
▁هير	-2082
ليدية	-2083
▁أشهر	-2084
▁تبلغ	-2085
▁مثلا	-2086
▁مكتب	-2087
▁والد	-2088
▁يقوم	-2089
▁أعمال	-2090
▁انتهت	-2091
▁اقتصاد	-2092
▁العزيز	-2093
▁الكثير	-2094
▁الوسطى	-2095
▁تقريبا	-2096
▁أمريكيون	-2097
▁الفيزياء	-2098
66	-2099
re	-2100
وث	-2101
وه	-2102
برة	-2103
برى	-2104
فية	-2105
لين	-2106
نان	-2107
وفر	-2108
ونغ	-2109
▁st	-2110
▁حق	-2111
▁رب	-2112
نتين	-2113
واصم	-2114
يلين	-2115
▁بري	-2116
▁هول	-2117
▁وتت	-2118
قالية	-2119
ولاية	-2120
▁التم	-2121
▁الكن	-2122
▁اللا	-2123
▁النف	-2124
▁قيمة	-2125
▁كهرب	-2126
▁وهذه	-2127
▁الأصل	-2128
▁الكون	-2129
▁النوع	-2130
▁طائرات	-2131
11	-2132
ad	-2133
اش	-2134
سخ	-2135
سع	-2136
َم	-2137
باح	-2138
باس	-2139
حلة	-2140
كين	-2141
ندل	-2142
نيع	-2143
▁22	-2144
▁صح	-2145
رامج	-2146
روفة	-2147
صائص	-2148
يمان	-2149
▁إله	-2150
▁حجم	-2151
▁سين	-2152
▁للا	-2153
▁البعض	-2154
▁رابطة	-2155
▁طريقة	-2156
▁كلمات	-2157
▁الكبير	-2158
▁التالية	-2159
▁مجموعات	-2160
22	-2161
▁m	-2162
زام	-2163
هاز	-2164
ورت	-2165
▁بغ	-2166
▁لغ	-2167
▁يص	-2168
حصاء	-2169
▁تقد	-2170
▁قبر	-2171
▁لكل	-2172
▁مقر	-2173
▁نيو	-2174
▁هند	-2175
▁وأك	-2176
▁وقت	-2177
▁القص	-2178
▁تتبع	-2179
▁حركة	-2180
▁شبكة	-2181
▁مادة	-2182
▁مربع	-2183
▁والش	-2184
▁أنظمة	-2185
▁البرا	-2186
▁تعريف	-2187
▁صناعة	-2188
جمهورية	-2189
▁الأمير	-2190
▁الأرقام	-2191
▁الحاسوب	-2192
▁الميلاد	-2193
▁كيميائي	-2194
▁الياباني	-2195
▁العثمانية	-2196
ثة	-2197
▁x	-2198
ent	-2199
زاب	-2200
▁كي	-2201
▁هم	-2202
▁يا	-2203
ريات	-2204
صرية	-2205
وارد	-2206
وفيت	-2207
▁اعت	-2208
▁حاص	-2209
▁زمن	-2210
▁قطر	-2211
▁ويو	-2212
اليون	-2213
قاليم	-2214
▁أعلى	-2215
▁تونس	-2216
▁فريد	-2217
▁فيما	-2218
▁واست	-2219
كسونيا	-2220
▁إليها	-2221
▁إيران	-2222
▁الآخر	-2223
▁الغاز	-2224
▁المعد	-2225
▁صغيرة	-2226
▁الحالة	-2227
▁الحروف	-2228
▁إسرائيل	-2229
▁السعودية	-2230
2)	-2231
اذ	-2232
لق	-2233
وح	-2234
الف	-2235
زيف	-2236
ضاف	-2237
ماد	-2238
ناث	-2239
نين	-2240
واة	-2241
▁لص	-2242
امية	-2243
▁بما	-2244
▁جدا	-2245
▁فان	-2246
▁مدر	-2247
ائرية	-2248
▁الثق	-2249
▁باشا	-2250
▁مجال	-2251
▁والر	-2252
▁كتابة	-2253
▁هيدرو	-2254
▁السلطة	-2255
▁الصيغة	-2256
▁جغرافيا	-2257
▁المركبات	-2258
▁الكهربائي	-2259
17	-2260
19	-2261
ul	-2262
أي	-2263
▁J	-2264
ارع	-2265
اعي	-2266
ضيع	-2267
قطع	-2268
ياد	-2269
يتو	-2270
راضي	-2271
▁تشت	-2272
▁للك	-2273
▁البن	-2274
▁الحا	-2275
▁نشيد	-2276
▁الاحت	-2277
▁الشخص	-2278
▁توماس	-2279
▁يحتوي	-2280
▁الثامن	-2281
▁المحيط	-2282
▁النبات	-2283
▁فلسطين	-2284
▁الأوروب	-2285
as	-2286
تا	-2287
▁F	-2288
روس	-2289
كار	-2290
وست	-2291
▁of	-2292
▁لج	-2293
▁مُ	-2294
ئاسة	-2295
اهرة	-2296
راقي	-2297
ساهم	-2298
فسير	-2299
ودية	-2300
▁100	-2301
▁أند	-2302
▁لور	-2303
▁هار	-2304
▁أيزو	-2305
▁بريط	-2306
▁ثاني	-2307
▁جيمس	-2308
▁والغ	-2309
▁والق	-2310
▁الترك	-2311
▁الرقم	-2312
▁المنت	-2313
▁بلدات	-2314
▁طائرة	-2315
▁فرنسي	-2316
▁هونشو	-2317
▁يتكون	-2318
▁السابق	-2319
▁وغيرها	-2320
▁التفاعل	-2321
▁الصينية	-2322
▁الطبيعة	-2323
▁الألماني	-2324
▁الإلكترونات	-2325
40	-2326
7.	-2327
او	-2328
تح	-2329
حن	-2330
مس	-2331
▁+	-2332
▁l	-2333
اهر	-2334
حاث	-2335
ذهب	-2336
رنت	-2337
قاً	-2338
كور	-2339
وتا	-2340
ينت	-2341
▁th	-2342
▁إذ	-2343
▁لف	-2344
▁مط	-2345
اتها	-2346
ستور	-2347
عددة	-2348
ونات	-2349
▁سطح	-2350
▁فهو	-2351
▁مات	-2352
▁محم	-2353
▁هان	-2354
▁يعد	-2355
▁(200	-2356
▁2004	-2357
▁تطبي	-2358
▁لهذه	-2359
▁الأسب	-2360
▁عواصم	-2361
▁الخارج	-2362
▁أمريكية	-2363
▁الرسمية	-2364
▁القاعدة	-2365
▁تفاعلات	-2366
▁الأساسية	-2367
▁المختلفة	-2368
▁باستخدام	-2369
▁الكيميائي	-2370
8.	-2371
92	-2372
to	-2373
ذر	-2374
ضح	-2375
ابر	-2376
الا	-2377
بار	-2378
بيض	-2379
سكي	-2380
سوم	-2381
سيط	-2382
عيد	-2383
وام	-2384
ونة	-2385
▁بج	-2386
ائزة	-2387
ابعة	-2388
جتما	-2389
ريون	-2390
يرية	-2391
▁أسط	-2392
▁بان	-2393
▁باي	-2394
▁قوة	-2395
▁كار	-2396
▁نور	-2397
▁وما	-2398
قاومة	-2399
▁الأغ	-2400
▁التن	-2401
▁فإنه	-2402
▁فارس	-2403
▁كلية	-2404
▁ليون	-2405
▁نفسه	-2406
▁ويتم	-2407
▁يعود	-2408
▁تفاعل	-2409
▁سابقة	-2410
▁قوائم	-2411
▁لبنان	-2412
▁مملكة	-2413
▁موريت	-2414
▁الرحمن	-2415
▁المستق	-2416
إنجليزية	-2417
▁إيطاليا	-2418
▁الكتابة	-2419
دف	-2420
ـ«	-2421
َل	-2422
▁O	-2423
▁ـ	-2424
ائب	-2425
جعل	-2426
ريح	-2427
▁1,	-2428
▁إغ	-2429
▁يف	-2430
علقة	-2431
لاسي	-2432
ولات	-2433
▁زيت	-2434
▁غاز	-2435
وانين	-2436
▁تقوم	-2437
▁سانت	-2438
▁وعند	-2439
محافظة	-2440
▁إنتاج	-2441
▁سوريا	-2442
▁السفلى	-2443
▁القياس	-2444
▁الكبرى	-2445
▁كيلومتر	-2446
▁الرياضيات	-2447
13	-2448
ff	-2449
خي	-2450
لد	-2451
ُّ	-2452
▁a	-2453
تلة	-2454
جال	-2455
جية	-2456
فيل	-2457
ندن	-2458
هام	-2459
ودي	-2460
وفي	-2461
وكي	-2462
وما	-2463
▁23	-2464
▁26	-2465
▁فأ	-2466
جهزة	-2467
سلحة	-2468
ولية	-2469
▁تنت	-2470
▁يجب	-2471
نترنت	-2472
▁آلهة	-2473
▁اسمه	-2474
▁سوري	-2475
▁ملوك	-2476
▁بورصة	-2477
▁حرارة	-2478
▁فمثلا	-2479
ستراليا	-2480
▁التراث	-2481
▁الخامس	-2482
▁بالنسبة	-2483
▁للعناصر	-2484
▁موسيقية	-2485
▁وأقاليم	-2486
▁يابانية	-2487
▁البيانات	-2488
▁الكهربائية	-2489
78	-2490
تة	-2491
قف	-2492
▁V	-2493
▁w	-2494
ثيل	-2495
جاج	-2496
ضوع	-2497
طلح	-2498
لاً	-2499
وجه	-2500
يار	-2501
يور	-2502
▁آر	-2503
▁آن	-2504
▁مض	-2505
جرية	-2506
ريقي	-2507
طلاق	-2508
هايو	-2509
▁جاء	-2510
▁قيد	-2511
▁كري	-2512
قاطعة	-2513
▁القب	-2514
▁الوز	-2515
▁بالس	-2516
▁تشكل	-2517
▁تعرف	-2518
▁دالة	-2519
▁دمشق	-2520
▁عنها	-2521
▁قامت	-2522
▁لذلك	-2523
▁مثال	-2524
▁مستق	-2525
▁منهم	-2526
▁الضغط	-2527
▁القيا	-2528
▁المثل	-2529
▁بعدها	-2530
▁روبرت	-2531
▁غالبا	-2532
▁ليبيا	-2533
▁مختلف	-2534
▁ومنها	-2535
▁السلام	-2536
▁العصور	-2537
▁بيانات	-2538
▁يستعمل	-2539
▁المسلمين	-2540
▁الرومانية	-2541
▁الإمبراطورية	-2542
ío	-2543
فص	-2544
مع	-2545
يغ	-2546
الأ	-2547
بين	-2548
تقد	-2549
▁-)	-2550
▁بف	-2551
▁حك	-2552
▁وث	-2553
بعاد	-2554
كوين	-2555
يانا	-2556
▁(18	-2557
▁رسم	-2558
▁عين	-2559
▁فار	-2560
▁للق	-2561
▁نقل	-2562
▁وأن	-2563
▁وجد	-2564
▁وصف	-2565
▁خواص	-2566
▁كثير	-2567
▁لأول	-2568
▁نادي	-2569
▁نوبل	-2570
▁وادي	-2571
▁والا	-2572
▁والك	-2573
▁وسام	-2574
غييرات	-2575
▁ألمان	-2576
▁البور	-2577
▁الداخ	-2578
▁القدم	-2579
▁اللون	-2580
▁المقد	-2581
▁جوزيف	-2582
▁دولار	-2583
▁طوكيو	-2584
▁عائلة	-2585
▁عثمان	-2586
▁معركة	-2587
▁الأبيض	-2588
▁الذرات	-2589
▁الرئيسي	-2590
▁السياسي	-2591
),	-2592
15	-2593
28	-2594
38	-2595
70	-2596
em	-2597
ix	-2598
أة	-2599
مم	-2600
Río	-2601
برز	-2602
حيد	-2603
شية	-2604
ضية	-2605
لاة	-2606
ناس	-2607
ندر	-2608
وسي	-2609
▁ذو	-2610
▁فا	-2611
▁نج	-2612
ائمة	-2613
اريس	-2614
اكرة	-2615
طفال	-2616
قلية	-2617
وتشي	-2618
يانغ	-2619
▁190	-2620
▁أهل	-2621
▁أور	-2622
▁إست	-2623
▁بنت	-2624
▁جعل	-2625
▁سير	-2626
▁شعب	-2627
▁نيك	-2628
يمقرا	-2629
يمياء	-2630
▁1000	-2631
▁الحر	-2632
▁بدون	-2633
▁لندن	-2634
▁ماري	-2635
▁مالي	-2636
▁معهد	-2637
▁مكون	-2638
▁موسى	-2639
▁الأرج	-2640
▁الفرا	-2641
▁ميناء	-2642
▁وهناك	-2643
▁أساطير	-2644
▁أوساكا	-2645
▁ارتفاع	-2646
▁الحديد	-2647
▁الحركة	-2648
▁الفضاء	-2649
▁بالقرب	-2650
▁حاصلون	-2651
▁مركبات	-2652
▁ميكاني	-2653
▁مقاطعات	-2654
▁الإدارية	-2655
▁المحافظة	-2656
▁البريطاني	-2657
▁الجغرافيا	-2658
▁الجمهورية	-2659
▁الإنجليزية	-2660
48	-2661
قه	-2662
ابن	-2663
اسع	-2664
امع	-2665
بيا	-2666
جاه	-2667
ذور	-2668
راج	-2669
روي	-2670
ريع	-2671
صاص	-2672
فون	-2673
ميم	-2674
َّة	-2675
▁أز	-2676
▁دب	-2677
احية	-2678
اريا	-2679
شارة	-2680
لندا	-2681
ماية	-2682
▁عنه	-2683
▁فرا	-2684
▁كام	-2685
▁لات	-2686
▁لدى	-2687
▁ملا	-2688
▁وبل	-2689
خابات	-2690
▁الحق	-2691
▁الدم	-2692
▁الما	-2693
▁الور	-2694
▁اليه	-2695
▁حدود	-2696
▁مسلم	-2697
▁نظرا	-2698
التالي	-2699
▁إنشاء	-2700
▁البرم	-2701
▁العسك	-2702
▁تحديد	-2703
▁ترتيب	-2704
▁جديدة	-2705
▁علوية	-2706
▁كيوشو	-2707
▁مدرسة	-2708
▁مصطلح	-2709
▁أوهايو	-2710
▁الأخير	-2711
▁الأردن	-2712
▁الأكبر	-2713
▁الفرعي	-2714
▁سليمان	-2715
▁متعلقة	-2716
▁الأعداد	-2717
▁الإقليم	-2718
▁الترتيب	-2719
▁الجامعة	-2720
▁الجنوبي	-2721
▁الحديثة	-2722
▁اللاتينية	-2723
36	-2724
69	-2725
eb	-2726
ig	-2727
il	-2728
iv	-2729
رع	-2730
نر	-2731
▁0	-2732
▁U	-2733
انع	-2734
خلة	-2735
ولو	-2736
يتش	-2737
▁31	-2738
▁أط	-2739
▁بث	-2740
▁بس	-2741
▁لس	-2742
▁نص	-2743
▁وغ	-2744
ائلة	-2745
ماعة	-2746
نيوم	-2747
▁(10	-2748
▁188	-2749
▁أجل	-2750
▁بوت	-2751
▁تشي	-2752
▁تيم	-2753
▁دير	-2754
▁عرض	-2755
▁محل	-2756
كانية	-2757
▁آلات	-2758
▁الإس	-2759
▁الجد	-2760
▁الحب	-2761
▁العض	-2762
▁توفي	-2763
▁قرية	-2764
▁كويت	-2765
▁مواد	-2766
▁أدوات	-2767
▁التون	-2768
▁الذري	-2769
▁بمعنى	-2770
▁ملاحظ	-2771
▁أمريكا	-2772
▁التيار	-2773
▁الملفات	-2774
▁اليونان	-2775
▁المناخية	-2776
▁فيزيائية	-2777
▁التغييرات	-2778
▁موريتانيا	-2779
kg	-2780
دو	-2781
صى	-2782
لو	-2783
▁{	-2784
احب	-2785
تمي	-2786
جها	-2787
قعة	-2788
ليد	-2789
▁28	-2790
▁اص	-2791
▁جر	-2792
▁حي	-2793
▁لش	-2794
ليفة	-2795
وليك	-2796
▁أرض	-2797
▁حزب	-2798
▁طرف	-2799
▁قلي	-2800
▁كين	-2801
▁لاع	-2802
▁للب	-2803
▁للج	-2804
▁مال	-2805
▁مبر	-2806
جليزي	-2807
▁البو	-2808
▁السب	-2809
▁المط	-2810
▁حيات	-2811
▁قبرص	-2812
▁وتضم	-2813
▁أعداد	-2814
▁الأدب	-2815
▁الأسط	-2816
▁الحزب	-2817
▁كثيرة	-2818
▁كربون	-2819
▁الحالي	-2820
▁النشاط	-2821
▁باللغة	-2822
▁شخصيات	-2823
▁متعددة	-2824
▁مواضيع	-2825
▁إسلامية	-2826
▁التشغيل	-2827
▁الكلمات	-2828
▁تاريخية	-2829
▁البرازيل	-2830
▁التجارية	-2831
35	-2832
57	-2833
ag	-2834
رخ	-2835
وض	-2836
ادم	-2837
امج	-2838
داد	-2839
ريغ	-2840
طاء	-2841
طات	-2842
هوم	-2843
يتر	-2844
يرا	-2845
....	-2846
efef	-2847
اعات	-2848
حتها	-2849
ربيع	-2850
ساعد	-2851
كافؤ	-2852
يريا	-2853
▁184	-2854
▁تمت	-2855
▁فيل	-2856
▁منا	-2857
▁يصل	-2858
سلسلة	-2859
شتاين	-2860
▁2003	-2861
▁السم	-2862
▁الكه	-2863
▁النب	-2864
▁بذلك	-2865
▁صالح	-2866
▁لهذا	-2867
▁يعمل	-2868
سبانية	-2869
▁الحقي	-2870
▁الساح	-2871
▁الشعب	-2872
▁الفلك	-2873
▁جائزة	-2874
▁قبائل	-2875
▁أبجدية	-2876
▁إدوارد	-2877
▁الراين	-2878
▁السادس	-2879
▁العامة	-2880
▁الفلسط	-2881
▁برنامج	-2882
▁بلديات	-2883
▁فيزياء	-2884
▁الثالثة	-2885
▁الشعبية	-2886
▁العشرين	-2887
▁العملية	-2888
▁الإسلامي	-2889
▁الهيدروكربون	-2890
16	-2891
na	-2892
ثو	-2893
سس	-2894
مت	-2895
bac	-2896
ell	-2897
yle	-2898
ائع	-2899
بعد	-2900
جيل	-2901
حنة	-2902
خصص	-2903
راع	-2904
زوج	-2905
عال	-2906
ناط	-2907
وسف	-2908
▁CH	-2909
▁وَ	-2910
افية	-2911
امات	-2912
سيطة	-2913
ناظر	-2914
ياضي	-2915
يدات	-2916
يدان	-2917
▁the	-2918
▁بون	-2919
▁ذرة	-2920
▁سام	-2921
▁فرق	-2922
▁فهي	-2923
▁قسم	-2924
▁وهم	-2925
round	-2926
ذائية	-2927
لاقات	-2928
▁1999	-2929
▁2000	-2930
▁2011	-2931
▁الأز	-2932
▁البا	-2933
▁العب	-2934
▁القل	-2935
▁تايل	-2936
▁فيصل	-2937
▁معين	-2938
▁ممثل	-2939
▁منجل	-2940
اثوليك	-2941
حصائية	-2942
▁style	-2943
▁تصنيع	-2944
▁السورة	-2945
▁الكلمة	-2946
▁المجال	-2947
▁المصري	-2948
▁المياه	-2949
▁الأخيرة	-2950
▁الأوراق	-2951
▁الفلزات	-2952
▁السياسية	-2953
-6	-2954
25	-2955
90	-2956
;"	-2957
جوم	-2958
ربط	-2959
صرف	-2960
هرة	-2961
واج	-2962
▁27	-2963
▁ار	-2964
▁عز	-2965
جراء	-2966
خاصة	-2967
▁أسب	-2968
▁بلا	-2969
▁حصل	-2970
▁طرق	-2971
▁عدم	-2972
▁عصر	-2973
▁فرع	-2974
▁فعل	-2975
▁كور	-2976
▁كوك	-2977
▁لقا	-2978
▁محا	-2979
▁مخت	-2980
▁معل	-2981
backg	-2982
راسات	-2983
منطقة	-2984
نديون	-2985
▁التأ	-2986
▁الحض	-2987
▁اليس	-2988
▁بهذا	-2989
▁تحمل	-2990
▁مطار	-2991
▁منصب	-2992
▁نقاط	-2993
▁ويكي	-2994
▁يحدث	-2995
طبيقية	-2996
▁أبناء	-2997
▁الإيط	-2998
▁الروا	-2999
▁الصوت	-3000
▁باريس	-3001
▁تفسير	-3002
▁روسيا	-3003
▁شخصية	-3004
▁فلزات	-3005
▁قبيلة	-3006
▁مستوى	-3007
▁مصرية	-3008
▁البروت	-3009
▁السابع	-3010
▁الشاعر	-3011
▁القوات	-3012
▁ثنائية	-3013
▁وتعتبر	-3014
▁الرومان	-3015
▁أستراليا	-3016
▁الأوروبي	-3017
▁الطبيعية	-3018
background	-3019
▁الأرجنتين	-3020
▁الإمبراطور	-3021
II	-3022
رس	-3023
فض	-3024
▁<	-3025
ترع	-3026
ساس	-3027
غان	-3028
لبة	-3029
واح	-3030
يسى	-3031
able	-3032
ادرة	-3033
ارلز	-3034
تبطة	-3035
حدها	-3036
صدار	-3037
مبية	-3038
ناعة	-3039
▁تور	-3040
▁جهة	-3041
▁رائ	-3042
▁سيت	-3043
▁صوت	-3044
▁فلز	-3045
▁قول	-3046
▁للش	-3047
▁لما	-3048
▁مكة	-3049
▁مهم	-3050
▁وإن	-3051
▁وتح	-3052
▁وكل	-3053
▁يسم	-3054
▁أصول	-3055
▁أغلب	-3056
▁إليه	-3057
▁التب	-3058
▁المخ	-3059
▁تغير	-3060
▁سميت	-3061
▁شاعر	-3062
▁عامة	-3063
▁والز	-3064
▁أشكال	-3065
▁أهمية	-3066
▁إعادة	-3067
▁اسمها	-3068
▁الاعت	-3069
▁بحيرة	-3070
▁برمجة	-3071
▁بعضها	-3072
▁تشغيل	-3073
▁سلطان	-3074
▁عملات	-3075
▁كانوا	-3076
▁كولوم	-3077
▁معالم	-3078
▁نتيجة	-3079
▁استخدم	-3080
▁الأصلي	-3081
▁الاحتم	-3082
▁التاسع	-3083
▁الخاصة	-3084
▁الذرية	-3085
▁المثلث	-3086
▁رياضية	-3087
▁ويليام	-3088
▁الكبيرة	-3089
▁المصرية	-3090
▁الجزيئات	-3091
▁المستخدم	-3092
3)	-3093
:#	-3094
ia	-3095
كه	-3096
َو	-3097
َي	-3098
الى	-3099
انس	-3100
خار	-3101
دات	-3102
رها	-3103
سكر	-3104
قاد	-3105
قار	-3106
قتل	-3107
ليت	-3108
ومو	-3109
▁تض	-3110
▁حص	-3111
رقية	-3112
يتون	-3113
▁بوم	-3114
▁تام	-3115
▁حائ	-3116
▁شين	-3117
▁صحي	-3118
▁عاد	-3119
▁فور	-3120
▁كلم	-3121
▁محد	-3122
▁معا	-3123
▁نسب	-3124
ation	-3125
راقية	-3126
▁(198	-3127
▁النم	-3128
▁الني	-3129
▁تشير	-3130
▁حديث	-3131
▁كندا	-3132
▁ليست	-3133
▁مثلث	-3134
▁مركب	-3135
▁نيوت	-3136
▁هاين	-3137
▁ويست	-3138
▁يحمل	-3139
▁يعني	-3140
اديمية	-3141
▁أشجار	-3142
▁الأطل	-3143
▁الطرق	-3144
▁تطوير	-3145
▁دينية	-3146
▁زاوية	-3147
▁	-3148
ا	-3149
ل	-3150
ي	-3151
م	-3152
و	-3153
ن	-3154
ر	-3155
ت	-3156
ب	-3157
ة	-3158
ع	-3159
د	-3160
س	-3161
ف	-3162
ك	-3163
ه	-3164
أ	-3165
ق	-3166
ح	-3167
ج	-3168
.	-3169
ط	-3170
ص	-3171
ش	-3172
،	-3173
خ	-3174
ز	-3175
إ	-3176
غ	-3177
ى	-3178
ث	-3179
1	-3180
ض	-3181
ذ	-3182
ئ	-3183
0	-3184
(	-3185
)	-3186
ء	-3187
2	-3188
ظ	-3189
9	-3190
:	-3191
-	-3192
e	-3193
8	-3194
3	-3195
ً	-3196
4	-3197
6	-3198
a	-3199
5	-3200
7	-3201
آ	-3202
i	-3203
n	-3204
r	-3205
t	-3206
ّ	-3207
َ	-3208
o	-3209
s	-3210
,	-3211
ُ	-3212
«	-3213
»	-3214
l	-3215
ؤ	-3216
d	-3217
u	-3218
c	-3219
|	-3220
ِ	-3221
"	-3222
ـ	-3223
h	-3224
C	-3225
m	-3226
g	-3227
/	-3228
p	-3229
f	-3230
b	-3231
H	-3232
A	-3233
ْ	-3234
y	-3235
=	-3236
S	-3237
B	-3238
I	-3239
k	-3240
M	-3241
P	-3242
w	-3243
x	-3244
N	-3245
–	-3246
O	-3247
R	-3248
L	-3249
v	-3250
>	-3251
T	-3252
E	-3253
<	-3254
%	-3255
D	-3256
؛	-3257
z	-3258
V	-3259
G	-3260
ی	-3261
+	-3262
U	-3263
F	-3264
K	-3265
ٍ	-3266
ٌ	-3267
W	-3268
'	-3269
]	-3270
;	-3271
J	-3272
[	-3273
í	-3274
é	-3275
X	-3276
j	-3277
Z	-3278
ə	-3279
}	-3280
Y	-3281
{	-3282
#	-3283
q	-3284
ä	-3285
؟	-3286
گ	-3287
Q	-3288
*	-3289
_	-3290
!	-3291
°	-3292
ک	-3293
پ	-3294
市	-3295
×	-3296
→	-3297
区	-3298
\	-3299
ʾ	-3300
ō	-3301
ü	-3302
ھ	-3303
−	-3304
י	-3305
大	-3306
?	-3307
á	-3308
٪	-3309
←	-3310
ó	-3311
ę	-3312
ł	-3313
α	-3314
ο	-3315
ڤ	-3316
∞	-3317
è	-3318
а	-3319
ו	-3320
١	-3321
ٰ	-3322
‌	-3323
—	-3324
≤	-3325
東	-3326
ą	-3327
ū	-3328
国	-3329
田	-3330
$	-3331
μ	-3332
ש	-3333
中	-3334
平	-3335
à	-3336
ε	-3337
ν	-3338
ς	-3339
к	-3340
א	-3341
ת	-3342
⁄	-3343
信	-3344
區	-3345
神	-3346
&	-3347
ñ	-3348
ö	-3349
η	-3350
σ	-3351
у	-3352
צ	-3353
٨	-3354
་	-3355
寺	-3356
長	-3357
館	-3358
·	-3359
É	-3360
ß	-3361
ç	-3362
ā	-3363
ě	-3364
ī	-3365
Σ	-3366
λ	-3367
π	-3368
с	-3369
ד	-3370
٩	-3371
چ	-3372
ڨ	-3373
ܡ	-3374
ா	-3375
’	-3376
•	-3377
⟨	-3378
⟩	-3379
ー	-3380
南	-3381
和	-3382
天	-3383
武	-3384
江	-3385
~	-3386
ż	-3387
ί	-3388
β	-3389
δ	-3390
τ	-3391
С	-3392
о	-3393
р	-3394
ь	-3395
ה	-3396
ט	-3397
ק	-3398
க	-3399
ர	-3400
்	-3401
“	-3402
”	-3403
≥	-3404
イ	-3405
代	-3406
原	-3407
安	-3408
川	-3409
康	-3410
新	-3411
書	-3412
氏	-3413
物	-3414
藤	-3415
西	-3416
道	-3417
﴾	-3418
﴿	-3419
ú	-3420
č	-3421
Δ	-3422
Ω	-3423
γ	-3424
θ	-3425
ι	-3426
κ	-3427
Ж	-3428
в	-3429
и	-3430
м	-3431
н	-3432
ї	-3433
ִ	-3434
ּ	-3435
כ	-3436
נ	-3437
פ	-3438
ܒ	-3439
ܟ	-3440
ܢ	-3441
ད	-3442
‍	-3443
‡	-3444
√	-3445
ん	-3446
ア	-3447
タ	-3448
光	-3449
北	-3450
县	-3451
子	-3452
将	-3453
山	-3454
島	-3455
摂	-3456
政	-3457
方	-3458
時	-3459
杉	-3460
河	-3461
法	-3462
源	-3463
照	-3464
町	-3465
皇	-3466
縣	-3467
語	-3468
阪	-3469
@	-3470
^	-3471
Ü	-3472
ò	-3473
ô	-3474
÷	-3475
ǎ	-3476
́	-3477
Α	-3478
Θ	-3479
Κ	-3480
Π	-3481
Τ	-3482
ά	-3483
έ	-3484
ρ	-3485
Б	-3486
К	-3487
М	-3488
Р	-3489
У	-3490
Я	-3491
й	-3492
ַ	-3493
ב	-3494
מ	-3495
ס	-3496
ٔ	-3497
٢	-3498
٦	-3499
ژ	-3500
ۈ	-3501
۝	-3502
ܐ	-3503
ܓ	-3504
ܕ	-3505
ܗ	-3506
ܘ	-3507
ܙ	-3508
ܚ	-3509
ܝ	-3510
ܣ	-3511
ܤ	-3512
ܩ	-3513
ܪ	-3514
த	-3515
ந	-3516
ப	-3517
ய	-3518
ி	-3519
ு	-3520
མ	-3521
འ	-3522
ལ	-3523
ས	-3524
ི	-3525
ེ	-3526
ྲ	-3527
ሷ	-3528
አ	-3529
ὰ	-3530
₭	-3531
≠	-3532
ⵡ	-3533
カ	-3534
ク	-3535
ニ	-3536
ヌ	-3537
ブ	-3538
ャ	-3539
・	-3540
上	-3541
东	-3542
久	-3543
人	-3544
仮	-3545
合	-3546
吉	-3547
名	-3548
四	-3549
地	-3550
姑	-3551
宮	-3552
家	-3553
屋	-3554
州	-3555
库	-3556
式	-3557
弥	-3558
戸	-3559
文	-3560
日	-3561
景	-3562
民	-3563
沈	-3564
洪	-3565
淮	-3566
玄	-3567
生	-3568
白	-3569
紫	-3570
織	-3571
肥	-3572
茶	-3573
謙	-3574
豊	-3575
軍	-3576
部	-3577
野	-3578
関	-3579
阳	-3580
陵	-3581
¥	-3582
Å	-3583
Î	-3584
Ö	-3585
Ø	-3586
ð	-3587
ù	-3588
Ā	-3589
ć	-3590
ē	-3591
ğ	-3592
ħ	-3593
ı	-3594
ń	-3595
ŋ	-3596
š	-3597
ź	-3598
ɣ	-3599
ʦ	-3600
ˁ	-3601
ˑ	-3602
̃	-3603
Β	-3604
Γ	-3605
Ε	-3606
Ζ	-3607
Η	-3608
Ι	-3609
Λ	-3610
Μ	-3611
Ν	-3612
Ξ	-3613
Ο	-3614
Ρ	-3615
Υ	-3616
Φ	-3617
Χ	-3618
Ψ	-3619
υ	-3620
ύ	-3621
Є	-3622
І	-3623
Ї	-3624
Љ	-3625
Њ	-3626
Ћ	-3627
Џ	-3628
А	-3629
В	-3630
Г	-3631
Д	-3632
Е	-3633
З	-3634
И	-3635
Й	-3636
Л	-3637
Н	-3638
О	-3639
П	-3640
Т	-3641
Ф	-3642
Х	-3643
Ц	-3644
Ч	-3645
Ш	-3646
Щ	-3647
Ъ	-3648
Ы	-3649
Ь	-3650
Ю	-3651
д	-3652
л	-3653
т	-3654
х	-3655
ы	-3656
і	-3657
Ґ	-3658
қ	-3659
ң	-3660
ү	-3661
ө	-3662
ְ	-3663
ָ	-3664
־	-3665
ז	-3666
ח	-3667
ך	-3668
ל	-3669
ם	-3670
ן	-3671
ע	-3672
ץ	-3673
ר	-3674
ײ	-3675
״	-3676
٠	-3677
٣	-3678
٤	-3679
٥	-3680
٧	-3681
٫	-3682
٬	-3683
ٱ	-3684
ٹ	-3685
ڈ	-3686
ڢ	-3687
۔	-3688
ە	-3689
۱	-3690
ܛ	-3691
ܠ	-3692
ܥ	-3693
ܦ	-3694
ܨ	-3695
ܫ	-3696
ܬ	-3697
ங	-3698
ச	-3699
ட	-3700
ண	-3701
ம	-3702
ூ	-3703
ප	-3704
ය	-3705
ර	-3706
ල	-3707
්	-3708
ි	-3709
ු	-3710
ກ	-3711
ບ	-3712
ີ	-3713
།	-3714
ཀ	-3715
ག	-3716
ང	-3717
ཇ	-3718
ན	-3719
ཕ	-3720
ཟ	-3721
ར	-3722
ུ	-3723
ོ	-3724
ᄀ	-3725
ᄁ	-3726
ᄂ	-3727
ᄃ	-3728
ᄄ	-3729
ᄅ	-3730
ᄆ	-3731
ᄇ	-3732
ᄈ	-3733
ᄉ	-3734
ᄊ	-3735
ᄋ	-3736
ᄌ	-3737
ᄍ	-3738
ᄎ	-3739
ᄏ	-3740
ᄐ	-3741
ᄑ	-3742
ᄒ	-3743
ᅡ	-3744
ᅢ	-3745
ᅣ	-3746
ᅤ	-3747
ᅥ	-3748
ᅦ	-3749
ᅧ	-3750
ᅨ	-3751
ᅩ	-3752
ᅪ	-3753
ᅫ	-3754
ᅬ	-3755
ᅭ	-3756
ᅮ	-3757
ᅯ	-3758
ᅰ	-3759
ᅱ	-3760
ᅲ	-3761
ᅳ	-3762
ᅴ	-3763
ᅵ	-3764
ል	-3765
ማ	-3766
ር	-3767
ቡ	-3768
ኛ	-3769
ደ	-3770
ዳ	-3771
ጊ	-3772
ፊ	-3773
Ṣ	-3774
ἑ	-3775
ἤ	-3776
ἰ	-3777
ῆ	-3778
₮	-3779
↔	-3780
≈	-3781
≡	-3782
⟶	-3783
ⴳ	-3784
ⴽ	-3785
か	-3786
が	-3787
し	-3788
せ	-3789
の	-3790
ば	-3791
び	-3792
ぶ	-3793
べ	-3794
ぼ	-3795
ド	-3796
ナ	-3797
バ	-3798
ビ	-3799
プ	-3800
ベ	-3801
ボ	-3802
ム	-3803
ラ	-3804
ㄅ	-3805
ㄆ	-3806
ㄇ	-3807
ㄈ	-3808
ㄉ	-3809
ㄊ	-3810
ㄋ	-3811
ㄌ	-3812
ㄍ	-3813
ㄎ	-3814
ㄏ	-3815
ㄐ	-3816
ㄑ	-3817
ㄒ	-3818
ㄓ	-3819
ㄔ	-3820
ㄕ	-3821
ㄖ	-3822
ㄗ	-3823
ㄘ	-3824
ㄙ	-3825
ㄚ	-3826
ㄛ	-3827
ㄜ	-3828
ㄝ	-3829
ㄞ	-3830
ㄟ	-3831
ㄠ	-3832
ㄡ	-3833
ㄢ	-3834
ㄣ	-3835
ㄤ	-3836
ㄥ	-3837
ㄦ	-3838
ㄧ	-3839
ㄨ	-3840
ㄩ	-3841
下	-3842
与	-3843
乌	-3844
九	-3845
二	-3846
于	-3847
井	-3848
京	-3849
亳	-3850
仁	-3851
俳	-3852
倉	-3853
六	-3854
共	-3855
別	-3856
利	-3857
勝	-3858
华	-3859
厚	-3860
厳	-3861
口	-3862
句	-3863
君	-3864
圣	-3865
场	-3866
基	-3867
場	-3868
墨	-3869
士	-3870
太	-3871
央	-3872
夷	-3873
奈	-3874
宝	-3875
室	-3876
富	-3877
小	-3878
尾	-3879
居	-3880
岡	-3881
崎	-3882
幌	-3883
幕	-3884
幹	-3885
广	-3886
府	-3887
廣	-3888
征	-3889
徳	-3890
德	-3891
徽	-3892
応	-3893
怀	-3894
慶	-3895
成	-3896
我	-3897
戦	-3898
手	-3899
扬	-3900
抹	-3901
振	-3902
料	-3903
於	-3904
施	-3905
曳	-3906
月	-3907
木	-3908
本	-3909
札	-3910
村	-3911
条	-3912
林	-3913
枚	-3914
森	-3915
楊	-3916
楷	-3917
楽	-3918
榮	-3919
橋	-3920
毛	-3921
洋	-3922
淡	-3923
清	-3924
湖	-3925
澤	-3926
濃	-3927
瀋	-3928
災	-3929
為	-3930
爆	-3931
片	-3932
王	-3933
省	-3934
石	-3935
社	-3936
福	-3937
秀	-3938
秋	-3939
稲	-3940
等	-3941
箏	-3942
線	-3943
義	-3944
羽	-3945
而	-3946
聖	-3947
臣	-3948
舟	-3949
良	-3950
芜	-3951
苏	-3952
草	-3953
蕪	-3954
蘇	-3955
虎	-3956
行	-3957
表	-3958
謝	-3959
財	-3960
資	-3961
足	-3962
路	-3963
輝	-3964
辽	-3965
近	-3966
连	-3967
遠	-3968
遼	-3969
金	-3970
銀	-3971
鎌	-3972
鐘	-3973
鐵	-3974
铁	-3975
門	-3976
閣	-3977
閥	-3978
门	-3979
阜	-3980
隆	-3981
雪	-3982
震	-3983
青	-3984
頼	-3985
風	-3986
馬	-3987
鲁	-3988
鳥	-3989
麻	-3990
黑	-3991
齐	-3992
龍	-3993
𐡇	-3994
𐢊	-3995
𐤇	-3996
