<unk>	0
<s>	0
</s>	0
▁क	-0
▁स	-1
▁ह	-2
▁म	-3
▁प	-4
ें	-5
ार	-6
▁के	-7
ने	-8
▁ब	-9
्र	-10
▁ज	-11
▁है	-12
या	-13
▁द	-14
▁में	-15
▁र	-16
▁ल	-17
▁व	-18
▁अ	-19
ों	-20
▁की	-21
▁को	-22
▁न	-23
▁ग	-24
र्	-25
ान	-26
▁से	-27
▁आ	-28
▁कि	-29
▁इ	-30
ता	-31
▁कर	-32
▁का	-33
▁भ	-34
▁त	-35
▁उ	-36
▁ने	-37
ना	-38
िक	-39
्य	-40
▁पर	-41
ला	-42
▁च	-43
▁श	-44
▁औ	-45
स्	-46
▁प्र	-47
▁और	-48
ाल	-49
क्	-50
▁ए	-51
▁इस	-52
ही	-53
हा	-54
ड़	-55
िल	-56
▁हो	-57
▁जा	-58
ित	-59
▁हैं	-60
▁थ	-61
वा	-62
िया	-63
▁य	-64
िए	-65
▁ख	-66
ाम	-67
▁फ	-68
▁भी	-69
िय	-70
ंग	-71
के	-72
ते	-73
▁बा	-74
त्र	-75
ेश	-76
री	-77
▁स्	-78
▁वि	-79
ले	-80
हीं	-81
न्	-82
कर	-83
▁रा	-84
▁लिए	-85
ती	-86
रा	-87
िस	-88
▁सा	-89
ारी	-90
▁ट	-91
से	-92
िन	-93
गा	-94
सी	-95
▁एक	-96
ुर	-97
▁सं	-98
्या	-99
ोग	-100
ति	-101
नी	-102
▁नहीं	-103
▁ले	-104
▁अप	-105
▁हु	-106
ली	-107
▁किया	-108
क्ष	-109
का	-110
▁ड	-111
▁सम	-112
▁1	-113
ंद	-114
▁मु	-115
▁रह	-116
वार	-117
▁दे	-118
▁गया	-119
ुल	-120
▁ही	-121
ाय	-122
▁नि	-123
▁पह	-124
त्	-125
ंच	-126
▁2	-127
ियों	-128
▁कार	-129
्ट	-130
की	-131
▁घ	-132
▁था	-133
▁कहा	-134
िला	-135
ंड	-136
मा	-137
▁पा	-138
कार	-139
▁तो	-140
्म	-141
▁करने	-142
न्ह	-143
▁साथ	-144
▁सि	-145
रो	-146
▁लोग	-147
▁अध	-148
▁बाद	-149
भा	-150
दी	-151
▁राज	-152
▁रहे	-153
▁यह	-154
▁पू	-155
गी	-156
▁उन्ह	-157
ढ़	-158
रे	-159
▁दिया	-160
कि	-161
▁कु	-162
ाह	-163
वि	-164
▁छ	-165
जी	-166
देश	-167
▁उन	-168
▁दो	-169
ां	-170
▁सु	-171
ेल	-172
भी	-173
▁गई	-174
▁अन	-175
पी	-176
▁तक	-177
▁ला	-178
ंत्र	-179
टी	-180
दा	-181
सा	-182
्री	-183
▁वाल	-184
▁सर	-185
▁रहा	-186
▁या	-187
ल्	-188
स्ट	-189
ओं	-190
वी	-191
▁मिल	-192
▁हुए	-193
▁पुल	-194
ौर	-195
िर	-196
▁जो	-197
▁रही	-198
गे	-199
पा	-200
▁सी	-201
▁उस	-202
▁बता	-203
▁बी	-204
गर	-205
▁चु	-206
▁सक	-207
्ष	-208
▁हा	-209
▁ध	-210
▁आप	-211
▁दी	-212
▁पुलिस	-213
▁(	-214
में	-215
▁थी	-216
ानी	-217
टर	-218
बा	-219
ोज	-220
ाना	-221
्रे	-222
जा	-223
▁मा	-224
स्त	-225
▁लोगों	-226
▁मह	-227
▁भार	-228
श्	-229
▁बार	-230
▁जिस	-231
▁अपने	-232
ोंने	-233
किन	-234
ार्	-235
तर	-236
द्	-237
मी	-238
ैं	-239
शन	-240
िव	-241
▁हम	-242
▁जाए	-243
▁थे	-244
▁लगा	-245
▁स्थ	-246
▁लेकिन	-247
ुप	-248
▁मौ	-249
▁सरकार	-250
▁20	-251
नों	-252
्त	-253
ंत्री	-254
▁उन्होंने	-255
स्थ	-256
बर	-257
▁अधिक	-258
▁अब	-259
ेट	-260
च्	-261
िका	-262
▁गए	-263
हां	-264
▁भा	-265
ेंद	-266
▁इसके	-267
ूर	-268
ड़ी	-269
क्र	-270
▁टी	-271
हर	-272
▁मो	-273
ंह	-274
▁होने	-275
▁बना	-276
खा	-277
ष्ट	-278
▁पी	-279
▁पहले	-280
ड़ा	-281
▁ऐ	-282
▁जब	-283
▁जान	-284
▁उप	-285
▁कार्य	-286
र्ट	-287
▁जी	-288
ये	-289
▁बताया	-290
वे	-291
▁वर्	-292
▁तर	-293
पुर	-294
▁बि	-295
..	-296
▁दिन	-297
▁सिंह	-298
िंग	-299
▁निर्	-300
ोट	-301
्स	-302
▁बात	-303
▁कुछ	-304
ड़े	-305
▁मे	-306
▁3	-307
▁वाले	-308
्यू	-309
धान	-310
▁इन	-311
▁हि	-312
कों	-313
▁वह	-314
▁माम	-315
ीन	-316
▁कम	-317
िल्	-318
▁लेकर	-319
▁पहु	-320
ंध	-321
एम	-322
▁सब	-323
▁सो	-324
▁ओ	-325
▁रुप	-326
र्म	-327
▁दौर	-328
टा	-329
▁करते	-330
▁पहुंच	-331
▁साल	-332
को	-333
▁उत्	-334
▁क्ष	-335
क्षा	-336
▁भारत	-337
ंप	-338
कारी	-339
▁कोई	-340
▁बढ़	-341
िश	-342
मार	-343
▁अपनी	-344
▁कई	-345
00	-346
र्व	-347
▁बे	-348
▁चाह	-349
▁परि	-350
▁साम	-351
जे	-352
बी	-353
क्त	-354
ूस	-355
▁फिल	-356
▁बै	-357
▁शुर	-358
▁दौरान	-359
चा	-360
ूप	-361
▁वा	-362
▁देश	-363
▁हुई	-364
▁काम	-365
मंत्री	-366
जार	-367
▁पार	-368
वं	-369
▁ये	-370
जन	-371
▁मै	-372
वर	-373
▁वे	-374
▁दु	-375
ेत्र	-376
िप	-377
▁सभी	-378
ेंद्र	-379
▁अनु	-380
▁ऑ	-381
▁प्रदेश	-382
ोड़	-383
▁देख	-384
डी	-385
ोल	-386
मान	-387
▁चल	-388
▁क्षेत्र	-389
ंट	-390
ोक	-391
▁अं	-392
▁राज्य	-393
▁तरह	-394
▁द्	-395
▁लिया	-396
▁जु	-397
▁मुख	-398
▁किसी	-399
▁बह	-400
्रेस	-401
▁दिल्	-402
▁जन	-403
▁समय	-404
▁हुआ	-405
▁आय	-406
एस	-407
्टी	-408
▁ना	-409
▁गां	-410
▁शिक	-411
िट	-412
वाल	-413
▁करा	-414
▁प्रति	-415
▁व्य	-416
ूल	-417
्रा	-418
▁आरो	-419
▁फिल्म	-420
▁सू	-421
ारा	-422
द्ध	-423
ेंगे	-424
▁उनके	-425
्ल	-426
▁चुना	-427
▁दिल्ली	-428
ास	-429
वारा	-430
▁नाम	-431
▁अभ	-432
▁स्ट	-433
सर	-434
▁कह	-435
▁घर	-436
▁हर	-437
ष्	-438
सान	-439
ज़	-440
म्म	-441
▁शाम	-442
▁5	-443
▁दर्	-444
रोना	-445
▁जाने	-446
▁खिला	-447
▁शुरू	-448
बंध	-449
▁द्वारा	-450
▁उन्हें	-451
▁कोरोना	-452
▁रख	-453
▁टीम	-454
▁बीच	-455
▁इं	-456
▁महिला	-457
▁सह	-458
▁रूप	-459
▁यु	-460
▁4	-461
▁लग	-462
यर	-463
▁'	-464
चार	-465
क्रम	-466
फी	-467
▁बु	-468
▁पि	-469
जर	-470
▁अम	-471
▁होगा	-472
▁मुख्य	-473
दार	-474
▁चुनाव	-475
र्स	-476
▁ग्र	-477
▁लाख	-478
▁पु	-479
स्प	-480
▁पै	-481
▁तै	-482
▁दूस	-483
्यक्ष	-484
ंस	-485
च्च	-486
▁आई	-487
▁बन	-488
▁कांग	-489
▁आज	-490
▁खु	-491
▁छा	-492
▁सकता	-493
िले	-494
▁कै	-495
ून	-496
धार	-497
▁वर्ष	-498
▁मामले	-499
लय	-500
िति	-501
▁जानकारी	-502
▁चौ	-503
▁वहीं	-504
एं	-505
▁ता	-506
▁जाता	-507
ंक	-508
हत	-509
ेज	-510
▁जर	-511
▁फै	-512
▁यहां	-513
ीड	-514
लों	-515
▁करना	-516
▁कांग्रेस	-517
वन	-518
▁एवं	-519
▁दोनों	-520
भाग	-521
वाई	-522
▁201	-523
▁निक	-524
▁मान	-525
▁रुपये	-526
ब्	-527
▁ठ	-528
क्स	-529
▁एस	-530
वाद	-531
इन	-532
तीय	-533
हार	-534
्रीय	-535
▁पास	-536
क्ट	-537
▁गु	-538
▁गो	-539
▁लि	-540
दे	-541
नि	-542
ुत	-543
्यों	-544
▁तीन	-545
▁पूर्व	-546
जू	-547
▁झ	-548
▁जै	-549
▁जारी	-550
▁करोड़	-551
ेर	-552
▁जाएगा	-553
▁खा	-554
▁ट्र	-555
▁बैठ	-556
▁पार्टी	-557
शी	-558
ूम	-559
दान	-560
ारे	-561
क्ति	-562
▁सुर	-563
▁दि	-564
▁रो	-565
▁वाली	-566
धिक	-567
▁मैं	-568
▁कारण	-569
▁प्रा	-570
▁मांग	-571
▁कुमार	-572
आई	-573
टना	-574
▁अव	-575
्यादा	-576
ताओं	-577
ोजना	-578
▁शामिल	-579
लो	-580
▁6	-581
▁बद	-582
▁राम	-583
▁जांच	-584
पर	-585
ेशन	-586
▁कॉ	-587
▁गांव	-588
प्	-589
र्थ	-590
ोर्ट	-591
▁चाहिए	-592
▁वै	-593
▁मोदी	-594
▁आरोप	-595
▁जिला	-596
ंदी	-597
▁अग	-598
▁हाला	-599
ियां	-600
▁विभाग	-601
▁सबसे	-602
धी	-603
ीस	-604
सार	-605
▁ऐसे	-606
▁तैय	-607
▁फिर	-608
▁कंप	-609
▁इससे	-610
▁ज्यादा	-611
▁दा	-612
▁किए	-613
था	-614
िम	-615
च्छ	-616
▁10	-617
▁जिले	-618
णा	-619
ूं	-620
▁सकते	-621
▁अध्यक्ष	-622
ायत	-623
क्टर	-624
दि	-625
▁उसे	-626
▁राष्ट	-627
▁प्रधान	-628
ज्	-629
ोर	-630
सभा	-631
▁हजार	-632
ाई	-633
▁-	-634
त्रा	-635
▁अन्य	-636
▁‘	-637
ंबर	-638
प्र	-639
▁डॉ	-640
▁इसी	-641
फ्त	-642
▁आए	-643
▁ली	-644
्यालय	-645
▁खिलाफ	-646
▁भारतीय	-647
▁ओर	-648
▁उनकी	-649
▁प्रत	-650
▁क्र	-651
ुक	-652
ूट	-653
ायर	-654
▁महा	-655
▁बच्च	-656
▁विश्	-657
चना	-658
▁गा	-659
▁उसके	-660
▁करें	-661
▁काफी	-662
ोष	-663
न्न	-664
▁गिर	-665
वान	-666
▁देने	-667
▁शिक्ष	-668
वास	-669
ियो	-670
▁शु	-671
▁स्वा	-672
ारियों	-673
कर्	-674
जपा	-675
ुरु	-676
▁पद	-677
▁बारे	-678
▁मंत्री	-679
▁आर	-680
▁सद	-681
▁किसान	-682
ंब	-683
र्ड	-684
▁होगी	-685
गत	-686
योग	-687
पाल	-688
▁सामने	-689
▁पांच	-690
्ड	-691
भाव	-692
▁डी	-693
▁बहुत	-694
▁भाजपा	-695
ैन	-696
ताल	-697
▁19	-698
▁:	-699
▁आने	-700
▁मौत	-701
मु	-702
ंत	-703
रण	-704
▁स्क	-705
▁अस्प	-706
▁क्यों	-707
धा	-708
र्ण	-709
▁बो	-710
▁यू	-711
स्था	-712
▁अभी	-713
ृत	-714
▁अगर	-715
▁दिए	-716
▁न्यू	-717
▁प्रश	-718
▁योजना	-719
द्य	-720
ेंट	-721
▁दर्ज	-722
▁उत्तर	-723
▁ग्राम	-724
▁नई	-725
▁श्री	-726
आर	-727
▁नी	-728
▁इला	-729
ंकि	-730
दर्	-731
रीज	-732
ाली	-733
▁डि	-734
▁नगर	-735
▁स्व	-736
▁पूरी	-737
▁हालांकि	-738
लग	-739
▁ई	-740
स्तान	-741
▁7	-742
▁चे	-743
▁अला	-744
शे	-745
ध्य	-746
▁जि	-747
▁शा	-748
▁विध	-749
▁समा	-750
▁आपको	-751
▁विका	-752
...	-753
▁करी	-754
▁चार	-755
ासन	-756
▁निय	-757
▁विकास	-758
म्	-759
▁उठ	-760
▁पिछ	-761
▁कप	-762
ख्या	-763
▁8	-764
▁रि	-765
▁सफ	-766
▁चला	-767
▁होता	-768
▁संबंध	-769
ेड	-770
▁इंड	-771
▁बंद	-772
▁याद	-773
▁रिप	-774
▁मुख्यमंत्री	-775
▁प्रधानमंत्री	-776
जय	-777
जह	-778
ोन	-779
▁बल्	-780
▁मैच	-781
▁अपना	-782
▁इसमें	-783
ीक्षा	-784
▁अलावा	-785
पू	-786
ंगे	-787
बाद	-788
वासी	-789
▁पढ़	-790
▁घटना	-791
▁मार्	-792
▁अनुसार	-793
ीर	-794
्ला	-795
▁वो	-796
▁बढ़ा	-797
करण	-798
जूद	-799
द्र	-800
▁तथा	-801
▁विक	-802
▁करीब	-803
र्फ	-804
▁जीत	-805
▁वजह	-806
▁आयोज	-807
निया	-808
्याप	-809
▁इसे	-810
ेत	-811
ुक्त	-812
▁व्यव	-813
वल	-814
लिए	-815
▁बॉ	-816
▁शहर	-817
▁हाल	-818
▁जबकि	-819
▁मिले	-820
▁निर्देश	-821
▁केंद्र	-822
शा	-823
ंगल	-824
▁टे	-825
▁अच्छ	-826
▁बड़ी	-827
▁बैठक	-828
▁तैयार	-829
▁अस्पताल	-830
▁रिपोर्ट	-831
▁।	-832
तार	-833
▁आम	-834
▁मज	-835
र्चा	-836
▁नेता	-837
▁पानी	-838
▁रुपए	-839
▁होती	-840
▁विश्व	-841
ड़क	-842
▁मद	-843
▁मन	-844
▁कान	-845
▁बजे	-846
फ्तार	-847
▁छात्र	-848
▁अधिकारी	-849
स्क	-850
िता	-851
▁डा	-852
▁पंच	-853
▁युव	-854
▁संग	-855
▁स्थिति	-856
▁जग	-857
▁कहना	-858
▁12	-859
▁आग	-860
▁फैस	-861
▁बैं	-862
▁मार	-863
ची	-864
बह	-865
क्सी	-866
▁इसकी	-867
गढ़	-868
▁ऐसा	-869
▁खेल	-870
▁क्या	-871
▁कंपनी	-872
ंज	-873
इट	-874
▁घोष	-875
▁कर्म	-876
▁पत्र	-877
▁दिनों	-878
▁पिछले	-879
ताब	-880
त्म	-881
म्मी	-882
स्ता	-883
ज्ञ	-884
▁दर	-885
त्या	-886
▁इसलिए	-887
इक	-888
हन	-889
ष्ठ	-890
▁सदस	-891
▁उम्मी	-892
▁जिसमें	-893
20	-894
ोध	-895
त्व	-896
▁तहत	-897
▁नजर	-898
▁पड़	-899
▁दूसरे	-900
▁विधान	-901
▁उम्मीद	-902
▁संख्या	-903
▁कार्यक्रम	-904
▁जहां	-905
▁सकती	-906
▁जाएगी	-907
▁हिंदी	-908
▁सुरक्षा	-909
मत	-910
माण	-911
▁खान	-912
▁रहने	-913
▁कोर्ट	-914
सल	-915
ेम	-916
▁भर	-917
▁मत	-918
▁इस्	-919
▁जिन	-920
दन	-921
▁आगे	-922
▁मंद	-923
▁हूं	-924
▁दें	-925
▁फीस	-926
▁रेल	-927
▁परिवार	-928
प्त	-929
्रम	-930
▁पं	-931
▁बेह	-932
▁लोक	-933
▁हों	-934
▁आधार	-935
▁जनता	-936
▁मिला	-937
▁लेने	-938
▁सुबह	-939
खंड	-940
र्च	-941
ियर	-942
▁अफ	-943
▁बस	-944
▁करे	-945
▁थाना	-946
▁क्योंकि	-947
कान	-948
राज	-949
ियन	-950
ूरत	-951
▁मिली	-952
डा	-953
ायक	-954
▁15	-955
मेंट	-956
▁बनाने	-957
सम	-958
▁ऑफ	-959
क्षण	-960
▁निवासी	-961
▁प्रदर्	-962
यन	-963
शेष	-964
▁आत	-965
▁डे	-966
▁मि	-967
▁सच	-968
▁मंदिर	-969
▁मुताब	-970
▁संक्रम	-971
बू	-972
वरी	-973
▁मीड	-974
▁लगे	-975
▁पाकि	-976
▁मरीज	-977
▁वहां	-978
▁नए	-979
▁मही	-980
▁सीट	-981
▁मुताबिक	-982
धि	-983
▁9	-984
▁सौ	-985
▁कुल	-986
▁करता	-987
▁किसानों	-988
एन	-989
ेंस	-990
▁बर	-991
ार्थ	-992
▁न्या	-993
▁विशेष	-994
▁स्कूल	-995
▁करेंगे	-996
▁मीडिया	-997
ीय	-998
▁ऊ	-999
▁जगह	-1000
▁योग	-1001
▁गुरु	-1002
▁मौके	-1003
▁चर्चा	-1004
▁गिरफ्तार	-1005
▁विधानसभा	-1006
इल	-1007
्‍	-1008
वीर	-1009
▁11	-1010
▁नर	-1011
▁खरी	-1012
्रवाई	-1013
▁पहली	-1014
▁परीक्षा	-1015
▁स्वास्थ	-1016
▁कार्रवाई	-1017
ालय	-1018
▁आदि	-1019
▁रात	-1020
▁स्प	-1021
▁हाथ	-1022
▁जाती	-1023
▁पूरे	-1024
▁स्थित	-1025
ेस	-1026
चित	-1027
ेंड	-1028
मारी	-1029
▁पता	-1030
▁पूरा	-1031
▁बैंक	-1032
-1	-1033
यी	-1034
तिक	-1035
▁एम	-1036
▁नौ	-1037
▁जल्	-1038
▁पर्	-1039
▁कोवि	-1040
▁जैसे	-1041
▁बाहर	-1042
▁स्वास्थ्य	-1043
झे	-1044
तन	-1045
शि	-1046
▁शे	-1047
▁शर्	-1048
▁पहुंचे	-1049
नाथ	-1050
राब	-1051
▁भाग	-1052
▁वीड	-1053
▁उनका	-1054
▁दिखा	-1055
▁जिससे	-1056
▁बिहार	-1057
▁हत्या	-1058
फा	-1059
रि	-1060
हम	-1061
▁14	-1062
▁पो	-1063
ियान	-1064
▁उठा	-1065
▁खुद	-1066
▁नोट	-1067
▁पंचायत	-1068
▁राष्ट्र	-1069
ॉल	-1070
मुख	-1071
श्म	-1072
िने	-1073
▁आस	-1074
▁कृ	-1075
▁बुध	-1076
▁मदद	-1077
▁प्रो	-1078
▁युवक	-1079
वेश	-1080
ायल	-1081
▁खबर	-1082
▁सोम	-1083
▁उसकी	-1084
▁वायर	-1085
▁मंत्र	-1086
▁सूचना	-1087
▁वीडियो	-1088
▁व्यक्ति	-1089
एल	-1090
पस	-1091
ूरी	-1092
▁इत	-1093
▁रे	-1094
▁शिक्षा	-1095
▁प्रशासन	-1096
ल्ड	-1097
▁एन	-1098
▁पे	-1099
▁अलग	-1100
▁वाह	-1101
▁मध्य	-1102
▁यादव	-1103
▁आरोपी	-1104
▁गांधी	-1105
▁बच्चों	-1106
ीण	-1107
माल	-1108
▁गं	-1109
▁सहित	-1110
▁सेवा	-1111
▁होते	-1112
▁मामला	-1113
▁मिलने	-1114
▁व्याप	-1115
▁न्यूज़	-1116
▁सोमवार	-1117
यास	-1118
लाई	-1119
▁गै	-1120
▁हाई	-1121
▁परेश	-1122
▁जिसके	-1123
▁स्थान	-1124
▁अधिकारियों	-1125
टे	-1126
ैंड	-1127
▁चा	-1128
▁तब	-1129
▁बड़े	-1130
▁विरो	-1131
द्यालय	-1132
▁राजनी	-1133
▁लगाया	-1134
▁सिर्फ	-1135
▁ग्रामीण	-1136
काल	-1137
तरा	-1138
लेज	-1139
िये	-1140
▁लॉ	-1141
▁मंड	-1142
▁इसका	-1143
▁ट्रे	-1144
▁सम्म	-1145
▁फैसला	-1146
पति	-1147
हरा	-1148
▁ची	-1149
▁फा	-1150
स्या	-1151
▁आया	-1152
▁कभी	-1153
▁हिस्	-1154
▁बुधवार	-1155
▁महिलाओं	-1156
▁प्रदर्शन	-1157
▁राष्ट्रीय	-1158
इड	-1159
शल	-1160
ंगा	-1161
र्क	-1162
▁जल	-1163
▁बज	-1164
▁शि	-1165
▁पाल	-1166
▁शिव	-1167
▁देते	-1168
▁महीने	-1169
▁मौजूद	-1170
श्य	-1171
▁वन	-1172
त्री	-1173
्यान	-1174
▁वित	-1175
▁जीवन	-1176
▁सवाल	-1177
▁कोविड	-1178
▁सदस्य	-1179
▁अभियान	-1180
▁पाकिस्तान	-1181
▁ढ	-1182
▁खे	-1183
▁गि	-1184
▁शनि	-1185
▁समझ	-1186
स्थान	-1187
▁उसने	-1188
▁चलते	-1189
▁फीसदी	-1190
ग्	-1191
जल	-1192
ंदर	-1193
चान	-1194
वाब	-1195
▁30	-1196
▁जे	-1197
र्ती	-1198
▁भूम	-1199
▁राय	-1200
▁सुन	-1201
▁पीएम	-1202
▁इंडिया	-1203
▁व्यवस्था	-1204
गम	-1205
बे	-1206
मे	-1207
ुट	-1208
ंटे	-1209
काश	-1210
▁शी	-1211
▁पेश	-1212
▁सर्	-1213
▁मंगल	-1214
▁वाला	-1215
▁शादी	-1216
▁समाज	-1217
▁बाजार	-1218
▁शुक्र	-1219
यों	-1220
ार्ड	-1221
▁तरफ	-1222
▁रोक	-1223
▁लड़	-1224
▁सके	-1225
▁अमेर	-1226
▁चुकी	-1227
▁युवा	-1228
▁शिकायत	-1229
▁निर्माण	-1230
पन	-1231
यू	-1232
ैल	-1233
ग्र	-1234
हरी	-1235
िकल	-1236
▁अर	-1237
▁क्	-1238
▁रन	-1239
▁रवि	-1240
▁शाह	-1241
▁चुके	-1242
▁जाना	-1243
▁कराया	-1244
▁लगातार	-1245
वत	-1246
भीर	-1247
▁जय	-1248
▁ते	-1249
क्शन	-1250
▁उपल	-1251
▁दिव	-1252
▁रखा	-1253
▁राह	-1254
▁लाभ	-1255
▁गेंद	-1256
▁नंबर	-1257
▁कराने	-1258
▁क्रिक	-1259
▁प्रमुख	-1260
▁शनिवार	-1261
ुआ	-1262
रिक	-1263
रों	-1264
▁धन	-1265
▁भे	-1266
▁शर्मा	-1267
▁समिति	-1268
षि	-1269
▁25	-1270
▁चि	-1271
▁बच	-1272
▁पुर	-1273
▁आतंक	-1274
▁आपके	-1275
▁जल्द	-1276
▁मुझे	-1277
▁जरूरत	-1278
▁रेलवे	-1279
▁प्रभाव	-1280
उन	-1281
कत	-1282
शत	-1283
षण	-1284
ंबई	-1285
ोरी	-1286
दारी	-1287
▁चिक	-1288
▁इंटर	-1289
▁करती	-1290
▁कीमत	-1291
▁छोड़	-1292
▁बिना	-1293
▁दुनिया	-1294
▁समस्या	-1295
▁नरेंद्र	-1296
▁मंगलवार	-1297
21	-1298
ठन	-1299
▁कर्	-1300
▁दूर	-1301
▁माल	-1302
▁उपलब्	-1303
▁दूसरी	-1304
▁होंगे	-1305
भग	-1306
▁,	-1307
िटी	-1308
िनि	-1309
▁फर	-1310
▁लाल	-1311
▁चुका	-1312
धिकारी	-1313
▁गंभीर	-1314
▁वालों	-1315
▁प्रयास	-1316
एफ	-1317
टन	-1318
पु	-1319
षा	-1320
ंदा	-1321
वाह	-1322
▁कल	-1323
▁पक	-1324
▁तेज	-1325
▁दिल	-1326
▁पूछ	-1327
▁संप	-1328
▁साफ	-1329
▁ध्यान	-1330
▁पोस्ट	-1331
▁पहुंचा	-1332
▁विधायक	-1333
▁"	-1334
यान	-1335
▁लख	-1336
▁जेल	-1337
▁रिक	-1338
न्द्र	-1339
▁एक्स	-1340
▁नियम	-1341
▁बड़ा	-1342
▁सड़क	-1343
▁घोषणा	-1344
▁शुक्रवार	-1345
णी	-1346
ूह	-1347
काब	-1348
स्‍	-1349
▁उम	-1350
ंद्र	-1351
▁बचा	-1352
▁माह	-1353
तेमाल	-1354
▁उसका	-1355
▁जाते	-1356
▁लगभग	-1357
▁लिखा	-1358
▁होना	-1359
▁भर्ती	-1360
▁यात्रा	-1361
▁सरकारी	-1362
बल	-1363
ुड	-1364
▁आद	-1365
▁तस्	-1366
▁पत्	-1367
▁ब्र	-1368
▁सप्	-1369
▁करके	-1370
▁पक्ष	-1371
▁वापस	-1372
▁चिकित	-1373
▁मुंबई	-1374
000	-1375
ूर्	-1376
▁एज	-1377
▁तय	-1378
▁दौ	-1379
▁लौ	-1380
विधा	-1381
▁200	-1382
▁चाल	-1383
▁मेड	-1384
▁यही	-1385
▁अंतर	-1386
▁आदेश	-1387
▁जवाब	-1388
▁बाइक	-1389
▁राशि	-1390
▁दुकान	-1391
▁बनाया	-1392
▁राहुल	-1393
▁लगाने	-1394
ar	-1395
िज	-1396
ंका	-1397
ियम	-1398
▁13	-1399
▁ज़	-1400
▁टा	-1401
▁दल	-1402
▁शव	-1403
क्षक	-1404
रिया	-1405
र्जी	-1406
िस्ट	-1407
▁खास	-1408
▁पाए	-1409
▁पीछ	-1410
▁पेट	-1411
▁विप	-1412
पूर्ण	-1413
▁करवा	-1414
▁केवल	-1415
▁घायल	-1416
▁टेस्ट	-1417
▁विरोध	-1418
▁वैक्सी	-1419
▁इस्तेमाल	-1420
गू	-1421
टक	-1422
तम	-1423
मो	-1424
लब	-1425
ूब	-1426
ोस	-1427
ांस	-1428
▁फ़	-1429
बंधन	-1430
▁अहम	-1431
▁कमी	-1432
▁डाल	-1433
▁भेज	-1434
▁संय	-1435
▁सात	-1436
▁किलो	-1437
▁प्रभ	-1438
▁यूपी	-1439
▁समेत	-1440
▁निकाल	-1441
▁उपलब्ध	-1442
थम	-1443
भर	-1444
▁मी	-1445
जेपी	-1446
ानीय	-1447
▁तौर	-1448
श्मीर	-1449
▁निगम	-1450
▁कार्ड	-1451
▁स्थानीय	-1452
बार	-1453
हाय	-1454
▁ट्	-1455
▁वृ	-1456
बाजी	-1457
▁थीं	-1458
▁बिज	-1459
▁बेट	-1460
▁मूल	-1461
▁सचिव	-1462
▁बल्ले	-1463
▁समर्थ	-1464
▁आयोजित	-1465
▁सुविधा	-1466
▁प्रतिशत	-1467
गल	-1468
ैक	-1469
▁कट	-1470
▁पट	-1471
▁अति	-1472
▁जमा	-1473
▁हास	-1474
स्थित	-1475
▁चाहते	-1476
▁देखते	-1477
▁बारिश	-1478
▁मुकाब	-1479
an	-1480
in	-1481
कु	-1482
▁0	-1483
वुड	-1484
▁18	-1485
▁आठ	-1486
जनों	-1487
▁एयर	-1488
▁पति	-1489
▁बाल	-1490
▁खरीद	-1491
▁देखा	-1492
▁निकल	-1493
▁सोशल	-1494
▁उत्पा	-1495
▁बल्कि	-1496
▁रविवार	-1497
▁कार्यालय	-1498
भि	-1499
बाज	-1500
र्ष	-1501
ल्प	-1502
ोटो	-1503
▁गल	-1504
▁कोश	-1505
▁बदला	-1506
▁बनाए	-1507
▁लक्ष	-1508
▁सहाय	-1509
▁सीमा	-1510
▁स्तर	-1511
▁न्याया	-1512
कट	-1513
डे	-1514
तृ	-1515
नर	-1516
ांत	-1517
▁ज्	-1518
▁तेल	-1519
▁सही	-1520
क्षित	-1521
▁शेयर	-1522
▁आयोजन	-1523
▁वायरस	-1524
▁विवाद	-1525
▁हमारे	-1526
▁तस्वीर	-1527
▁बीजेपी	-1528
▁राज्यों	-1529
▁कार्यकर्	-1530
ोह	-1531
चाल	-1532
ताह	-1533
ानि	-1534
▁50	-1535
▁हटा	-1536
▁हाद	-1537
▁आयोग	-1538
▁पीड़	-1539
▁जुलाई	-1540
▁नेताओं	-1541
▁प्राप्त	-1542
▁संक्रमण	-1543
धे	-1544
ेक	-1545
ॉप	-1546
खिल	-1547
▁16	-1548
▁24	-1549
▁आव	-1550
▁ति	-1551
▁पस	-1552
ड़ों	-1553
वादी	-1554
▁तीस	-1555
▁सला	-1556
▁हार	-1557
लीवुड	-1558
स्ताव	-1559
▁घंटे	-1560
▁बयान	-1561
▁माना	-1562
ेंद्रीय	-1563
▁सम्मान	-1564
▁गुरुवार	-1565
इस	-1566
ंडी	-1567
जिट	-1568
न्द	-1569
▁मई	-1570
लाइन	-1571
▁अंत	-1572
▁जन्	-1573
▁मना	-1574
▁मिन	-1575
▁मिश	-1576
▁सफल	-1577
▁सैन	-1578
▁कृषि	-1579
▁मरीजों	-1580
▁उम्मीदवार	-1581
झा	-1582
▁23	-1583
द्धि	-1584
वेदन	-1585
▁अर्	-1586
▁तला	-1587
▁मां	-1588
▁लिख	-1589
▁संघ	-1590
▁सिल	-1591
द्योग	-1592
▁अवसर	-1593
▁ताकि	-1594
▁पंजा	-1595
▁पीछे	-1596
▁सांस	-1597
▁कॉलेज	-1598
▁सहयोग	-1599
▁सूत्र	-1600
▁क्रिकेट	-1601
▁केंद्रीय	-1602
ंख	-1603
धन	-1604
ीक	-1605
दों	-1606
पास	-1607
िशा	-1608
▁17	-1609
▁घा	-1610
▁रु	-1611
्रोल	-1612
▁गयी	-1613
▁बजट	-1614
▁अप्र	-1615
▁जागर	-1616
▁तेजी	-1617
▁पिता	-1618
▁मुद्	-1619
▁उपयोग	-1620
▁कोशिश	-1621
▁जुड़े	-1622
▁देखने	-1623
▁बोर्ड	-1624
▁प्रस्ताव	-1625
फ़	-1626
त्त	-1627
दाय	-1628
हित	-1629
ूबर	-1630
ैंप	-1631
▁छह	-1632
चारी	-1633
धानी	-1634
श्यक	-1635
▁जमी	-1636
▁टिक	-1637
▁बंग	-1638
▁बने	-1639
▁भाई	-1640
▁लखन	-1641
▁श्र	-1642
▁सित	-1643
▁2021	-1644
▁पसंद	-1645
▁सीएम	-1646
▁हमें	-1647
▁अभिने	-1648
▁कानून	-1649
▁हासिल	-1650
▁छात्रों	-1651
लू	-1652
▁भग	-1653
िलों	-1654
▁मृत	-1655
न्हें	-1656
▁रखने	-1657
▁हमला	-1658
▁बिजली	-1659
▁आवश्यक	-1660
▁जाएंगे	-1661
▁मेडिकल	-1662
दम	-1663
भव	-1664
गार	-1665
तिम	-1666
मति	-1667
▁रै	-1668
कर्म	-1669
बाइल	-1670
ांति	-1671
▁ब्ल	-1672
▁रोड	-1673
▁सभा	-1674
ज्ञान	-1675
मार्ट	-1676
▁जिसे	-1677
▁परिव	-1678
▁फोटो	-1679
▁वाहन	-1680
▁विभि	-1681
▁हमने	-1682
▁संगठन	-1683
▁अमेरिका	-1684
▁राजस्थान	-1685
ठी	-1686
▁P	-1687
काउ	-1688
मता	-1689
श्च	-1690
हाल	-1691
िकों	-1692
ितों	-1693
▁ऐसी	-1694
▁खूब	-1695
▁गति	-1696
▁चीन	-1697
▁नुक	-1698
▁रोज	-1699
▁लगी	-1700
▁वोट	-1701
स्ट्र	-1702
▁दुर्	-1703
▁वक्त	-1704
▁शुरुआ	-1705
▁मोबाइल	-1706
▁सप्ताह	-1707
▁हिस्सा	-1708
▁बॉलीवुड	-1709
▁मंत्रालय	-1710
फ्	-1711
लर	-1712
ील	-1713
▁C	-1714
करी	-1715
गंज	-1716
लाल	-1717
शनल	-1718
▁टै	-1719
▁रज	-1720
▁शो	-1721
▁गौर	-1722
▁चरण	-1723
▁फोन	-1724
▁बदल	-1725
▁अगले	-1726
▁एक्ट	-1727
▁कैसे	-1728
▁नागर	-1729
▁हमले	-1730
▁हालत	-1731
▁जरूरी	-1732
▁बदलाव	-1733
▁बेहतर	-1734
▁संवाद	-1735
▁सामान	-1736
▁परेशान	-1737
▁प्रतिनि	-1738
तक	-1739
फर	-1740
सिक	-1741
ुओं	-1742
्यो	-1743
▁अल	-1744
▁ती	-1745
▁सें	-1746
▁इलाज	-1747
▁पड़ा	-1748
▁परिष	-1749
▁लखनऊ	-1750
▁सेना	-1751
▁पंजाब	-1752
▁बच्चे	-1753
▁मैदान	-1754
▁प्रकार	-1755
▁प्रदान	-1756
▁भूमिका	-1757
▁परिजनों	-1758
▁कर्मचारी	-1759
▁राष्ट्रपति	-1760
ंव	-1761
मन	-1762
ूक	-1763
▁R	-1764
-19	-1765
ंगी	-1766
केट	-1767
वीं	-1768
▁आख	-1769
▁भो	-1770
▁100	-1771
▁आंक	-1772
▁क्ल	-1773
▁जून	-1774
▁दाम	-1775
▁मजद	-1776
▁विष	-1777
▁मौसम	-1778
▁सर्व	-1779
ड़ियों	-1780
▁अगस्त	-1781
▁निर्ण	-1782
▁मार्ग	-1783
चारियों	-1784
▁अधिकार	-1785
▁छात्रा	-1786
▁वर्षीय	-1787
▁वैक्सीन	-1788
एच	-1789
जु	-1790
देव	-1791
धरी	-1792
रीब	-1793
▁एड	-1794
▁मश	-1795
▁हॉ	-1796
▁असर	-1797
▁ठीक	-1798
▁बनी	-1799
▁समु	-1800
▁खर्च	-1801
▁जमीन	-1802
▁टीका	-1803
▁दक्ष	-1804
▁अंतिम	-1805
▁अच्छी	-1806
▁नुकसान	-1807
▁प्रवेश	-1808
▁लोकसभा	-1809
▁प्रभारी	-1810
▁विभिन्न	-1811
▁प्रभावित	-1812
ूड	-1813
▁A	-1814
▁B	-1815
चीत	-1816
तों	-1817
राव	-1818
र्य	-1819
व्य	-1820
हान	-1821
्ले	-1822
▁अद	-1823
▁अस	-1824
▁ख़	-1825
▁तम	-1826
क्ता	-1827
ड़ने	-1828
प्री	-1829
िक्ष	-1830
्राइ	-1831
▁केस	-1832
▁चुन	-1833
▁छोट	-1834
▁ज्ञ	-1835
▁देव	-1836
▁यदि	-1837
▁वरि	-1838
▁वार	-1839
धियों	-1840
स्कार	-1841
▁कंपन	-1842
▁खुला	-1843
▁नेतृ	-1844
▁प्ला	-1845
▁भारी	-1846
▁लागू	-1847
▁अच्छा	-1848
▁परिषद	-1849
▁बातचीत	-1850
▁मामलों	-1851
चर	-1852
फे	-1853
▁–	-1854
टने	-1855
न्‍	-1856
ष्ण	-1857
▁नव	-1858
▁रण	-1859
किंग	-1860
त्ता	-1861
त्ति	-1862
न्ना	-1863
वजूद	-1864
▁इंत	-1865
▁उल्	-1866
▁गर्	-1867
▁दिख	-1868
▁मोह	-1869
▁अपरा	-1870
▁इतना	-1871
▁दावा	-1872
▁दिला	-1873
▁धर्म	-1874
▁पूजा	-1875
▁बेहद	-1876
▁भेजा	-1877
▁मजबू	-1878
▁आवेदन	-1879
▁पत्नी	-1880
▁पहचान	-1881
▁भगवान	-1882
▁संचाल	-1883
▁मिलेगा	-1884
▁वरिष्ठ	-1885
विद्यालय	-1886
▁राजनीतिक	-1887
कल	-1888
सि	-1889
ृह	-1890
तरी	-1891
पित	-1892
िकी	-1893
ूषण	-1894
ृति	-1895
ोजन	-1896
▁एल	-1897
▁खो	-1898
▁गठ	-1899
चिका	-1900
▁कदम	-1901
▁चयन	-1902
▁दिस	-1903
▁रंग	-1904
▁पार्	-1905
▁मिनट	-1906
▁शराब	-1907
▁समूह	-1908
▁स्वी	-1909
क्रिया	-1910
▁देशों	-1911
▁महारा	-1912
▁मैंने	-1913
▁डॉक्टर	-1914
▁तैयारी	-1915
▁बावजूद	-1916
▁विपक्ष	-1917
▁नेतृत्व	-1918
▁पेट्रोल	-1919
▁क्षेत्रों	-1920
▁कर्मचारियों	-1921
on	-1922
ंघ	-1923
चे	-1924
तु	-1925
रु	-1926
ेय	-1927
ौन	-1928
्प	-1929
जाम	-1930
ेशा	-1931
▁आइ	-1932
▁दू	-1933
ार्म	-1934
ित्र	-1935
▁दोप	-1936
▁अदाल	-1937
▁देकर	-1938
▁हिंद	-1939
▁इलाके	-1940
▁चौधरी	-1941
▁नोटिस	-1942
▁पुत्र	-1943
▁विचार	-1944
▁हादसे	-1945
▁पहुंची	-1946
▁समर्थन	-1947
▁संयुक्त	-1948
▁ग्रामीणों	-1949
▁प्रक्रिया	-1950
22	-1951
मर	-1952
▁“	-1953
स्व	-1954
िली	-1955
▁आन	-1956
▁पौ	-1957
▁वी	-1958
क्कर	-1959
दाता	-1960
ध्यम	-1961
म्मू	-1962
स्ती	-1963
स्ते	-1964
▁आते	-1965
▁कित	-1966
▁पदा	-1967
▁यून	-1968
▁कपूर	-1969
▁खत्म	-1970
▁टिकट	-1971
▁पहला	-1972
▁ब्रा	-1973
▁होकर	-1974
▁एक्सप	-1975
▁जिलों	-1976
▁ट्रेन	-1977
▁महत्व	-1978
▁मार्च	-1979
▁कश्मीर	-1980
▁माध्यम	-1981
▁याचिका	-1982
▁सितंबर	-1983
▁आरोपियों	-1984
.5	-1985
घा	-1986
सन	-1987
▁M	-1988
केश	-1989
त्स	-1990
वर्	-1991
▁ठा	-1992
▁तु	-1993
▁भु	-1994
▁सत	-1995
▁सल	-1996
ग्री	-1997
म्मे	-1998
▁आता	-1999
▁तभी	-2000
▁तरी	-2001
▁प्ल	-2002
▁उनसे	-2003
▁तैना	-2004
▁थाने	-2005
▁पाया	-2006
▁मुला	-2007
▁सफाई	-2008
▁सलाह	-2009
▁जनवरी	-2010
▁दक्षि	-2011
▁दोपहर	-2012
▁दोस्त	-2013
▁रहेगा	-2014
▁विद्य	-2015
▁हमेशा	-2016
▁शुरुआत	-2017
▁न्यायालय	-2018
नो	-2019
यं	-2020
िब	-2021
▁S	-2022
उंड	-2023
णाम	-2024
ामा	-2025
िक्	-2026
▁ऑन	-2027
▁जम	-2028
▁फॉ	-2029
▁मं	-2030
▁आवा	-2031
▁इंद	-2032
▁कब्	-2033
▁कमा	-2034
धिकार	-2035
राष्ट	-2036
रिक्त	-2037
ियाणा	-2038
▁आर्थ	-2039
▁कराई	-2040
▁जन्म	-2041
▁जवान	-2042
▁निजी	-2043
▁मुश्	-2044
▁विजय	-2045
ध्यक्ष	-2046
▁घोषित	-2047
▁पढ़ें	-2048
▁पूर्ण	-2049
▁भोपाल	-2050
▁विकेट	-2051
▁संभाव	-2052
▁अप्रैल	-2053
▁उत्तरा	-2054
▁निर्णय	-2055
▁प्रकाश	-2056
▁शिक्षक	-2057
▁उपस्थित	-2058
क़	-2059
गु	-2060
चल	-2061
दु	-2062
सू	-2063
्व	-2064
।'	-2065
कडा	-2066
नगर	-2067
वनी	-2068
▁40	-2069
▁60	-2070
▁पॉ	-2071
▁सै	-2072
वंबर	-2073
▁ऊपर	-2074
▁कोल	-2075
▁चले	-2076
▁देर	-2077
▁निश	-2078
▁भाव	-2079
कडाउन	-2080
▁2020	-2081
▁अंदर	-2082
▁उम्र	-2083
▁कहते	-2084
▁कहीं	-2085
▁गोली	-2086
▁देता	-2087
▁पड़े	-2088
▁बेटी	-2089
▁भीड़	-2090
▁संजय	-2091
▁अदालत	-2092
▁जम्मू	-2093
▁पर्या	-2094
▁मजदूर	-2095
▁सांसद	-2096
▁सुधार	-2097
▁दिसंबर	-2098
▁मुकाबले	-2099
▁सूत्रों	-2100
▁अतिरिक्त	-2101
30	-2102
ंभ	-2103
चन	-2104
टल	-2105
थि	-2106
धर	-2107
▁›	-2108
ंसा	-2109
असल	-2110
जीत	-2111
रात	-2112
ष्य	-2113
ेटी	-2114
ेश्	-2115
्ता	-2116
्यु	-2117
्रो	-2118
्‍य	-2119
▁26	-2120
▁फी	-2121
▁मध	-2122
▁हे	-2123
त्ती	-2124
राने	-2125
ॉर्ड	-2126
▁गृह	-2127
▁जता	-2128
▁डाय	-2129
▁बर्	-2130
▁शुभ	-2131
▁सजा	-2132
▁सब्	-2133
▁अपील	-2134
▁आपकी	-2135
▁उपाय	-2136
▁ट्वी	-2137
▁पर्य	-2138
▁पश्च	-2139
▁रहता	-2140
▁लाइन	-2141
क्टूबर	-2142
▁कमेटी	-2143
▁नवंबर	-2144
▁विदेश	-2145
▁आर्थिक	-2146
▁परिणाम	-2147
▁सुनवाई	-2148
▁स्टेशन	-2149
▁खिलाड़ी	-2150
▁राजधानी	-2151
▁हरियाणा	-2152
▁विद्यालय	-2153
सद	-2154
अलग	-2155
जिक	-2156
जों	-2157
ड्ड	-2158
दीप	-2159
साय	-2160
ौती	-2161
▁अश	-2162
▁लो	-2163
ंदोल	-2164
वाली	-2165
▁कला	-2166
▁दीप	-2167
▁बिग	-2168
▁साह	-2169
ूर्ति	-2170
▁खड़े	-2171
▁जैसी	-2172
▁देवी	-2173
▁पैसे	-2174
▁मंडल	-2175
▁मेरी	-2176
▁मौका	-2177
▁रिश्	-2178
▁लिये	-2179
▁स्था	-2180
▁करेगा	-2181
▁दरअसल	-2182
▁न्याय	-2183
▁बनाकर	-2184
▁सलमान	-2185
▁जिम्मे	-2186
▁राजनीति	-2187
▁बल्लेबाज	-2188
),	-2189
इज	-2190
रल	-2191
सत	-2192
ंकी	-2193
ंडल	-2194
क्‍	-2195
फ्ट	-2196
वें	-2197
ुल्	-2198
▁22	-2199
▁छो	-2200
▁बल	-2201
▁लं	-2202
ष्टि	-2203
ेंडर	-2204
▁अली	-2205
▁कही	-2206
▁गलत	-2207
▁जोर	-2208
▁त्र	-2209
▁फ्र	-2210
▁सपा	-2211
▁साब	-2212
▁सिर	-2213
श्चित	-2214
▁2019	-2215
▁जाकर	-2216
▁प्रव	-2217
▁मेरे	-2218
▁रहते	-2219
▁विषय	-2220
▁सीबी	-2221
▁आंदोल	-2222
▁आसपास	-2223
▁इनमें	-2224
▁चंद्र	-2225
▁दिखाई	-2226
▁देखकर	-2227
▁बंगाल	-2228
▁अक्टूबर	-2229
▁लॉकडाउन	-2230
▁विश्वविद्यालय	-2231
at	-2232
पो	-2233
ीत	-2234
▁H	-2235
▁I	-2236
ंकर	-2237
ंता	-2238
किल	-2239
कुल	-2240
बोध	-2241
िसा	-2242
▁आश	-2243
▁गौ	-2244
▁घु	-2245
▁दस	-2246
▁मल	-2247
ंदगी	-2248
वाही	-2249
िएशन	-2250
▁अंक	-2251
▁एंड	-2252
▁किस	-2253
▁गुप	-2254
▁गैस	-2255
▁चोट	-2256
▁फाय	-2257
▁फुट	-2258
▁बोल	-2259
▁रोग	-2260
▁लूट	-2261
▁शान	-2262
पोर्ट	-2263
▁अग्र	-2264
▁चोरी	-2265
▁ट्रक	-2266
▁देना	-2267
▁प्ले	-2268
▁सुपर	-2269
▁देंगे	-2270
▁शांति	-2271
▁स्वयं	-2272
▁वृद्धि	-2273
▁महामारी	-2274
▁कंपनियों	-2275
▁उत्तराखंड	-2276
नल	-2277
वै	-2278
ौल	-2279
▁ऋ	-2280
ब्ल	-2281
र्ग	-2282
साद	-2283
हाँ	-2284
िसर	-2285
ेंज	-2286
▁थो	-2287
,000	-2288
वाना	-2289
ेंसी	-2290
▁आयु	-2291
▁कमल	-2292
▁घरे	-2293
▁पें	-2294
काउंट	-2295
ारखंड	-2296
▁आत्म	-2297
▁एसोस	-2298
▁खराब	-2299
▁दर्श	-2300
▁बीते	-2301
▁बेटे	-2302
▁राहत	-2303
▁लगता	-2304
▁लगाए	-2305
▁सुना	-2306
▁स्थल	-2307
▁निवेश	-2308
▁वार्ड	-2309
▁अनुमति	-2310
▁ऑनलाइन	-2311
▁फिलहाल	-2312
▁चिकित्स	-2313
▁संभावना	-2314
राष्ट्रीय	-2315
▁सुरक्षित	-2316
ea	-2317
or	-2318
कृत	-2319
ताछ	-2320
राम	-2321
▁नो	-2322
तमान	-2323
वाला	-2324
सगढ़	-2325
▁अंग	-2326
▁ओवर	-2327
▁काउ	-2328
▁कोह	-2329
▁गाय	-2330
▁लें	-2331
▁खाने	-2332
▁चालक	-2333
▁जाये	-2334
▁निरी	-2335
▁परिय	-2336
▁पालन	-2337
▁माता	-2338
▁लाने	-2339
▁वर्ग	-2340
▁जिसका	-2341
▁ट्वीट	-2342
▁मजबूत	-2343
▁मतदान	-2344
▁मास्क	-2345
▁सीरीज	-2346
▁आंदोलन	-2347
▁पूछताछ	-2348
▁बढ़ाने	-2349
▁रास्ते	-2350
▁शानदार	-2351
▁श्रद्ध	-2352
ानिस्तान	-2353
▁व्यापार	-2354
▁समीक्षा	-2355
▁परियोजना	-2356
▁अध्यक्षता	-2357
)।	-2358
.4	-2359
पे	-2360
िद	-2361
▁N	-2362
ंतर	-2363
मैन	-2364
विक	-2365
सों	-2366
ियल	-2367
▁35	-2368
तिहा	-2369
ानों	-2370
ुरुष	-2371
▁अफग	-2372
▁किश	-2373
▁नया	-2374
▁नही	-2375
ेलिया	-2376
▁2017	-2377
▁अमित	-2378
▁एसडी	-2379
▁गरीब	-2380
▁टीवी	-2381
▁बनने	-2382
▁बाबा	-2383
▁बिल्	-2384
▁यानी	-2385
▁संकट	-2386
▁करेगी	-2387
▁घरेलू	-2388
▁छत्ती	-2389
▁पुरुष	-2390
▁विमान	-2391
त्रियों	-2392
ार्थियों	-2393
▁टीकाकरण	-2394
▁मुश्किल	-2395
▁रिकॉर्ड	-2396
▁संबंधित	-2397
▁छत्तीसगढ़	-2398
▁महत्वपूर्ण	-2399
अप	-2400
।"	-2401
।’	-2402
ंटी	-2403
फिक	-2404
ामद	-2405
ामी	-2406
▁31	-2407
▁तह	-2408
▁धो	-2409
▁नक	-2410
चानक	-2411
देशक	-2412
मीटर	-2413
िक्र	-2414
▁उद्	-2415
▁उसी	-2416
▁कले	-2417
▁काल	-2418
▁कैं	-2419
▁गये	-2420
▁चली	-2421
▁तिव	-2422
▁दबा	-2423
▁भवन	-2424
▁वेब	-2425
▁शरी	-2426
▁संत	-2427
▁सोन	-2428
तंत्र	-2429
ेश्वर	-2430
▁अर्थ	-2431
▁आवास	-2432
▁उत्स	-2433
▁उससे	-2434
▁तलाश	-2435
▁दिशा	-2436
▁निभा	-2437
▁शासन	-2438
▁श्रम	-2439
▁अचानक	-2440
▁तरीके	-2441
▁तीनों	-2442
▁तैनात	-2443
▁रक्षा	-2444
▁सामना	-2445
▁झारखंड	-2446
▁तिवारी	-2447
▁पीड़ित	-2448
▁प्रत्य	-2449
▁सुप्री	-2450
▁पत्रकार	-2451
▁परेशानी	-2452
▁प्रत्या	-2453
▁फिल्मों	-2454
▁वर्तमान	-2455
धिकारियों	-2456
▁एसोसिएशन	-2457
ra	-2458
खी	-2459
ठा	-2460
िग	-2461
ेन	-2462
ोश	-2463
ंटा	-2464
तलब	-2465
द्द	-2466
माश	-2467
यात	-2468
राह	-2469
ल्स	-2470
विर	-2471
्सा	-2472
▁21	-2473
▁घट	-2474
▁पृ	-2475
▁मर	-2476
▁मॉ	-2477
म्मद	-2478
ार्ज	-2479
्राम	-2480
▁अभि	-2481
▁छूट	-2482
▁जित	-2483
▁फेस	-2484
▁बहन	-2485
▁बाग	-2486
▁बिक	-2487
▁लंब	-2488
▁लौट	-2489
▁वही	-2490
तियों	-2491
ष्ट्र	-2492
▁2018	-2493
▁अखिल	-2494
▁एसपी	-2495
▁छोटे	-2496
▁जमकर	-2497
▁निरा	-2498
▁बनाई	-2499
▁लेना	-2500
▁सूची	-2501
▁दूसरा	-2502
▁पेंशन	-2503
▁फरवरी	-2504
▁संदेश	-2505
▁अकाउंट	-2506
▁दक्षिण	-2507
▁नागरिक	-2508
▁बीमारी	-2509
▁सदस्यों	-2510
▁चिकित्सा	-2511
▁संक्रमित	-2512
स्ट्रेलिया	-2513
सु	-2514
-20	-2515
कात	-2516
कील	-2517
कुर	-2518
देन	-2519
नीय	-2520
न्स	-2521
हरे	-2522
्टर	-2523
्मी	-2524
▁1.	-2525
▁27	-2526
▁हथ	-2527
एसपी	-2528
जूदा	-2529
वानी	-2530
ियार	-2531
ियोग	-2532
▁आजा	-2533
▁किन	-2534
▁चढ़	-2535
▁जला	-2536
▁तत्	-2537
▁प्य	-2538
▁मगर	-2539
▁लाइ	-2540
▁वीर	-2541
▁साव	-2542
कर्मी	-2543
▁अफसर	-2544
▁अवधि	-2545
▁तारी	-2546
▁दुष्	-2547
▁दौरे	-2548
▁धारा	-2549
▁पटना	-2550
▁पैदा	-2551
▁प्रद	-2552
▁बाकी	-2553
▁योगी	-2554
▁लगाई	-2555
▁गतिवि	-2556
▁गाड़ी	-2557
▁बरामद	-2558
▁मिलकर	-2559
▁मूल्य	-2560
▁लाखों	-2561
▁वितरण	-2562
▁हमारी	-2563
▁गौरतलब	-2564
▁मिश्रा	-2565
▁मौजूदा	-2566
▁युवाओं	-2567
▁व्यक्त	-2568
▁सहायता	-2569
▁उत्पादन	-2570
▁किलोमीटर	-2571
▁प्रशिक्ष	-2572
▁अंतरराष्ट्रीय	-2573
er	-2574
दय	-2575
पद	-2576
ीप	-2577
ॉय	-2578
ट्र	-2579
बुक	-2580
राट	-2581
वरण	-2582
साथ	-2583
▁28	-2584
▁गण	-2585
▁शौ	-2586
इयों	-2587
न्या	-2588
बंदी	-2589
बादी	-2590
र्जा	-2591
▁आंख	-2592
▁तुल	-2593
▁नदी	-2594
▁फ्ल	-2595
▁भवि	-2596
▁भ्र	-2597
▁होम	-2598
दारों	-2599
▁उच्च	-2600
▁कड़ी	-2601
▁क्रम	-2602
▁जरूर	-2603
▁डॉलर	-2604
▁दलों	-2605
▁दिवस	-2606
▁पकड़	-2607
▁फाइन	-2608
▁रैली	-2609
▁सत्र	-2610
▁चौहान	-2611
▁पड़ता	-2612
▁प्रिय	-2613
▁प्रेम	-2614
▁फैसले	-2615
▁रोकने	-2616
▁साबित	-2617
▁कानपुर	-2618
▁खुलासा	-2619
▁भविष्य	-2620
▁आतंकवाद	-2621
▁सामान्य	-2622
▁प्रत्येक	-2623
▁एक्सप्रेस	-2624
▁कार्यकर्ता	-2625
▁खिलाड़ियों	-2626
▁महाराष्ट्र	-2627
डर	-2628
ॉक	-2629
ॉन	-2630
तौर	-2631
दिन	-2632
भार	-2633
वेज	-2634
सील	-2635
सूस	-2636
▁डर	-2637
पीएल	-2638
विंद	-2639
ारोह	-2640
्रमण	-2641
्रेट	-2642
▁अजय	-2643
▁कोत	-2644
▁जाय	-2645
▁ताल	-2646
▁मनी	-2647
▁रखे	-2648
▁सां	-2649
▁साइ	-2650
कोर्ट	-2651
जिटिव	-2652
▁अशोक	-2653
▁कारो	-2654
▁किये	-2655
▁जरिए	-2656
▁जाएं	-2657
▁तकनी	-2658
▁मकान	-2659
▁रहती	-2660
▁राजा	-2661
▁सामा	-2662
▁सार्	-2663
प्रदेश	-2664
▁अच्छे	-2665
▁ठाकुर	-2666
▁नौकरी	-2667
▁बदमाश	-2668
▁अध्याप	-2669
▁आरक्षण	-2670
▁प्राथम	-2671
▁वर्षों	-2672
▁संस्था	-2673
▁समारोह	-2674
▁समुदाय	-2675
▁स्पष्ट	-2676
▁अग्रवाल	-2677
▁प्रदूषण	-2678
▁स्मार्ट	-2679
▁प्रतिनिधि	-2680
▁यात्रियों	-2681
▁अफगानिस्तान	-2682
▁कार्यकर्ताओं	-2683
कन	-2684
कम	-2685
डल	-2686
फल	-2687
सं	-2688
सो	-2689
ैध	-2690
कीय	-2691
फोन	-2692
मिट	-2693
मित	-2694
लेट	-2695
सित	-2696
हिर	-2697
▁29	-2698
▁एच	-2699
▁एश	-2700
▁नम	-2701
▁लै	-2702
टीएम	-2703
न्‍ह	-2704
सेना	-2705
स्तु	-2706
ित्य	-2707
▁इन्	-2708
▁कैब	-2709
▁टाइ	-2710
▁दवा	-2711
▁बच्	-2712
▁बिल	-2713
▁मुक	-2714
▁मुह	-2715
▁रिज	-2716
▁शूट	-2717
▁सोच	-2718
▁स्‍	-2719
▁हेल	-2720
▁अनुप	-2721
▁अवैध	-2722
▁पटेल	-2723
▁पदों	-2724
▁भोजन	-2725
▁मानव	-2726
▁लड़ा	-2727
▁सारे	-2728
▁हवाई	-2729
क्सीजन	-2730
▁आतंकी	-2731
▁कक्षा	-2732
▁कोहली	-2733
▁खाद्य	-2734
▁चिंता	-2735
▁जानते	-2736
▁तहसील	-2737
▁प्रथम	-2738
▁बीमार	-2739
▁मानना	-2740
▁वायरल	-2741
▁शक्ति	-2742
▁संबोध	-2743
▁सहायक	-2744
▁सालों	-2745
▁सीटों	-2746
▁हालात	-2747
वासियों	-2748
▁इंटरने	-2749
▁इन्हें	-2750
▁एजेंसी	-2751
▁गुप्ता	-2752
▁जिनमें	-2753
▁मात्रा	-2754
▁मुलाकात	-2755
▁प्रवक्ता	-2756
उट	-2757
उस	-2758
ंडर	-2759
ंडा	-2760
ंडे	-2761
जरी	-2762
ण्ड	-2763
नाम	-2764
नाव	-2765
निक	-2766
र्द	-2767
लाम	-2768
शील	-2769
ियत	-2770
िरी	-2771
▁आल	-2772
ंग्ल	-2773
काता	-2774
न्हा	-2775
पुरा	-2776
स्टर	-2777
▁199	-2778
▁गईं	-2779
▁चेक	-2780
▁डेट	-2781
▁पहल	-2782
▁रखी	-2783
ग्राम	-2784
▁आदमी	-2785
▁कानू	-2786
▁खेती	-2787
▁ज्ञा	-2788
▁डीएम	-2789
▁दबाव	-2790
▁रावत	-2791
▁लंबे	-2792
▁उसमें	-2793
▁चलाने	-2794
▁जिसकी	-2795
▁परिसर	-2796
▁प्रभा	-2797
▁महसूस	-2798
▁मिलता	-2799
▁लड़की	-2800
▁वर्मा	-2801
▁विराट	-2802
▁सफलता	-2803
▁सार्व	-2804
▁सिद्ध	-2805
▁सेंटर	-2806
▁इंतजार	-2807
▁उद्योग	-2808
▁क्षमता	-2809
▁पश्चिम	-2810
▁प्रसाद	-2811
▁मिलेगी	-2812
▁रायपुर	-2813
▁संपर्क	-2814
▁सामाजिक	-2815
▁शिक्षकों	-2816
50	-2817
खे	-2818
ूत	-2819
टाई	-2820
त्य	-2821
रान	-2822
स्ल	-2823
ैंस	-2824
▁एप	-2825
▁गे	-2826
▁दम	-2827
▁पल	-2828
▁मू	-2829
एमसी	-2830
क्सर	-2831
जूरी	-2832
त्मक	-2833
त्मा	-2834
लैंड	-2835
वाले	-2836
विता	-2837
िक्स	-2838
▁आती	-2839
▁आर्	-2840
▁खेत	-2841
▁चौक	-2842
▁जोन	-2843
▁निर	-2844
▁पाठ	-2845
▁मंच	-2846
▁लेख	-2847
▁सड़	-2848
तिहास	-2849
िमंडल	-2850
▁आसान	-2851
▁उनको	-2852
▁कप्त	-2853
▁तमाम	-2854
▁दर्द	-2855
▁दावे	-2856
▁नारा	-2857
▁पाने	-2858
▁पौधे	-2859
▁बचाव	-2860
▁मंडी	-2861
▁मारे	-2862
▁लगने	-2863
▁लेते	-2864
▁वकील	-2865
▁वार्	-2866
▁शरीर	-2867
▁श्रे	-2868
▁आगामी	-2869
▁तीसरे	-2870
▁प्रता	-2871
▁फर्जी	-2872
▁मिलती	-2873
▁विस्त	-2874
▁शीर्ष	-2875
▁स्टूड	-2876
▁इतिहास	-2877
▁गठबंधन	-2878
▁गांवों	-2879
▁जागरूक	-2880
▁पुरानी	-2881
▁फेसबुक	-2882
▁लक्ष्य	-2883
▁कोलकाता	-2884
▁पॉजिटिव	-2885
▁मोहम्मद	-2886
▁सार्वजन	-2887
▁प्रतियोग	-2888
▁हाईकोर्ट	-2889
▁अभिनेत्री	-2890
.0	-2891
छा	-2892
ट्	-2893
शु	-2894
ह्	-2895
ॉट	-2896
ंटर	-2897
ंदन	-2898
ग्ग	-2899
नेश	-2900
पीट	-2901
र्न	-2902
लेख	-2903
विल	-2904
श्न	-2905
ाले	-2906
▁री	-2907
द्दी	-2908
बारा	-2909
र्तन	-2910
वाने	-2911
श्वर	-2912
ष्टा	-2913
साइट	-2914
ुल्क	-2915
्यता	-2916
्‍या	-2917
▁अमर	-2918
▁आकर	-2919
▁उपा	-2920
▁खंड	-2921
▁खुल	-2922
▁फिट	-2923
▁बेच	-2924
▁सुल	-2925
कर्ता	-2926
यरमैन	-2927
▁अक्ष	-2928
▁आनंद	-2929
▁इनके	-2930
▁क्ला	-2931
▁खतरा	-2932
▁खाते	-2933
▁गर्म	-2934
▁जनपद	-2935
▁पारी	-2936
▁फरार	-2937
▁बुला	-2938
▁मेरा	-2939
▁रद्द	-2940
▁वैसे	-2941
▁सवार	-2942
▁स्टा	-2943
ोग्राम	-2944
▁आबादी	-2945
▁इंग्ल	-2946
▁उपचार	-2947
▁ड्राइ	-2948
▁फायदा	-2949
▁शिविर	-2950
▁हटाने	-2951
न्होंने	-2952
▁निर्वा	-2953
▁प्रचार	-2954
▁मंजूरी	-2955
▁मुद्दे	-2956
▁राजस्व	-2957
▁ऑक्सीजन	-2958
▁संवाददाता	-2959
▁सार्वजनिक	-2960
▁उम्मीदवारों	-2961
▁ऑस्ट्रेलिया	-2962
.1	-2963
.2	-2964
li	-2965
आइ	-2966
गो	-2967
यम	-2968
▁G	-2969
ंजी	-2970
ज़ा	-2971
डेट	-2972
ढ़ी	-2973
तरे	-2974
नाक	-2975
पान	-2976
मेल	-2977
मैं	-2978
म्प	-2979
वीन	-2980
शिप	-2981
्रह	-2982
▁एफ	-2983
▁ओम	-2984
▁भू	-2985
▁लु	-2986
▁हल	-2987
कल्प	-2988
टिंग	-2989
भाषा	-2990
रावट	-2991
र्गत	-2992
लोनी	-2993
स्पे	-2994
िनेट	-2995
▁अधी	-2996
▁ड्र	-2997
▁निप	-2998
▁सुख	-2999
तालों	-3000
दाबाद	-3001
▁अभिन	-3002
▁आपने	-3003
▁आवाज	-3004
▁चीनी	-3005
▁नीति	-3006
▁भुगत	-3007
▁मनोज	-3008
▁मोहन	-3009
▁संसद	-3010
▁ऊर्जा	-3011
▁कर्ना	-3012
▁टक्कर	-3013
▁पढ़ाई	-3014
▁पार्क	-3015
▁प्रोड	-3016
▁मुक्त	-3017
▁मैचों	-3018
▁लगाते	-3019
▁वित्त	-3020
▁सर्वे	-3021
▁गिरावट	-3022
▁चुनावी	-3023
▁ट्रांस	-3024
▁प्रयोग	-3025
▁सड़कों	-3026
▁समाप्त	-3027
▁सीबीआई	-3028
▁स्वागत	-3029
कर्मियों	-3030
▁अभिनेता	-3031
▁कलेक्टर	-3032
▁चेयरमैन	-3033
▁मजदूरों	-3034
▁विश्वास	-3035
▁वेबसाइट	-3036
▁सुप्रीम	-3037
▁राज्यपाल	-3038
▁अस्पतालों	-3039
om	-3040
गण	-3041
पत	-3042
मि	-3043
रत	-3044
ैर	-3045
ट्ट	-3046
तीश	-3047
थित	-3048
पने	-3049
बाल	-3050
बीन	-3051
राग	-3052
लोड	-3053
ायी	-3054
▁(1	-3055
▁45	-3056
▁70	-3057
▁धर	-3058
राया	-3059
वारी	-3060
व्यव	-3061
▁कां	-3062
▁खार	-3063
▁गुज	-3064
▁गोल	-3065
▁जबर	-3066
▁तुर	-3067
▁नाग	-3068
▁पैर	-3069
▁बहु	-3070
▁भरो	-3071
▁मेह	-3072
▁रेड	-3073
▁हंग	-3074
चार्य	-3075
धारित	-3076
श्वास	-3077
▁अनिल	-3078
▁अनुर	-3079
▁इतनी	-3080
▁ऑफिस	-3081
▁कर्ज	-3082
▁खाना	-3083
▁नारे	-3084
▁पेड़	-3085
▁बैठे	-3086
▁भूमि	-3087
▁यहाँ	-3088
▁रखें	-3089
▁रिली	-3090
▁लंबी	-3091
▁समझा	-3092
▁साझा	-3093
▁सिया	-3094
▁हिमा	-3095
स्ट्री	-3096
▁उठाया	-3097
▁उन्‍ह	-3098
▁कहानी	-3099
▁जागरण	-3100
▁दाखिल	-3101
▁नामां	-3102
▁बचाने	-3103
▁ब्रिट	-3104
▁मिलते	-3105
▁मिश्र	-3106
▁सत्ता	-3107
▁चुनौती	-3108
▁ज्ञापन	-3109
▁दोबारा	-3110
▁नियमित	-3111
▁परिवहन	-3112
▁रजिस्ट	-3113
▁रहेंगे	-3114
▁वार्ता	-3115
▁सिन्हा	-3116
▁हिस्से	-3117
▁अधीक्षक	-3118
▁कैबिनेट	-3119
▁पहुंचने	-3120
▁तस्वीरें	-3121
▁निर्वाचन	-3122
▁पुरस्कार	-3123
▁प्राथमिक	-3124
▁प्रशिक्षण	-3125
▁गतिविधियों	-3126
▁प्रतियोगिता	-3127
di	-3128
नन	-3129
बत	-3130
िड	-3131
ैट	-3132
ंची	-3133
केत	-3134
घ्र	-3135
जित	-3136
णसी	-3137
नेस	-3138
फ्र	-3139
वली	-3140
वां	-3141
सेज	-3142
हाद	-3143
▁अय	-3144
▁कठ	-3145
▁झा	-3146
▁दब	-3147
▁धम	-3148
▁सख	-3149
....	-3150
एंगे	-3151
ज्ञा	-3152
नियर	-3153
पुरी	-3154
स्तव	-3155
्रीन	-3156
▁असम	-3157
▁किर	-3158
▁कोच	-3159
▁चीज	-3160
▁चोर	-3161
▁पाई	-3162
▁वाय	-3163
▁शब्	-3164
▁शही	-3165
कारों	-3166
स्लिम	-3167
ेंट्स	-3168
▁कॉन्	-3169
▁खेले	-3170
▁बीएस	-3171
▁मुकद	-3172
▁रखना	-3173
▁लड़क	-3174
▁लाइट	-3175
▁लॉन्	-3176
▁शुक्	-3177
▁संभव	-3178
▁सिलस	-3179
▁सुनी	-3180
▁होनी	-3181
ार्मिक	-3182
▁एटीएम	-3183
▁ग्रुप	-3184
▁जयपुर	-3185
▁तुरंत	-3186
▁दर्शन	-3187
▁नाराज	-3188
▁प्लान	-3189
▁फाइनल	-3190
▁बढ़कर	-3191
▁युद्ध	-3192
▁शीघ्र	-3193
▁हाथों	-3194
▁हिंदू	-3195
▁अनुमान	-3196
▁आधारित	-3197
▁इंडियन	-3198
▁इंस्पे	-3199
▁जायेगा	-3200
▁नियमों	-3201
▁निर्मा	-3202
▁पुष्टि	-3203
▁वर्ल्ड	-3204
▁कर्नाटक	-3205
▁केन्द्र	-3206
▁कोतवाली	-3207
▁दर्शकों	-3208
▁दुकानों	-3209
▁धार्मिक	-3210
▁व्यवसाय	-3211
▁संस्थान	-3212
▁स्थापित	-3213
▁इंग्लैंड	-3214
▁गेंदबाजी	-3215
▁समस्याओं	-3216
दल	-3217
हण	-3218
▁V	-3219
ंती	-3220
ट्स	-3221
पना	-3222
रेन	-3223
रोज	-3224
षित	-3225
ायण	-3226
िरा	-3227
ैया	-3228
्हा	-3229
▁32	-3230
▁33	-3231
▁अथ	-3232
▁छि	-3233
▁ठे	-3234
▁धु	-3235
▁बट	-3236
कारा	-3237
गांव	-3238
जेता	-3239
फ्ते	-3240
स्टम	-3241
हतरी	-3242
िवार	-3243
्याण	-3244
▁इजा	-3245
▁कने	-3246
▁कौन	-3247
▁गुर	-3248
▁गोर	-3249
▁टॉप	-3250
▁ताप	-3251
▁दोष	-3252
▁पदक	-3253
▁फैल	-3254
▁बेल	-3255
▁मिट	-3256
▁रूस	-3257
▁लोन	-3258
▁विल	-3259
▁सफर	-3260
िक्कत	-3261
ुक्ति	-3262
▁अतिक	-3263
▁आखिर	-3264
▁चौकी	-3265
▁डाउन	-3266
▁तहरी	-3267
▁तोड़	-3268
▁देगा	-3269
▁नक्स	-3270
▁पंजी	-3271
▁प्रि	-3272
▁भाषा	-3273
▁मतलब	-3274
▁मोटर	-3275
▁रखते	-3276
▁राजी	-3277
▁लागत	-3278
▁वारा	-3279
▁सारा	-3280
▁सीधे	-3281
▁स्कू	-3282
मार्टम	-3283
▁अपडेट	-3284
▁अपराध	-3285
▁जानिए	-3286
▁ट्रंप	-3287
▁निकले	-3288
▁प्रेर	-3289
▁मालिक	-3290
▁रवाना	-3291
▁रोहित	-3292
▁विधेय	-3293
▁शिकार	-3294
▁सैन्य	-3295
▁स्टार	-3296
धिकारिक	-3297
▁आदित्य	-3298
▁इलाकों	-3299
▁उत्पाद	-3300
▁कोरिया	-3301
▁खरीदने	-3302
▁तत्काल	-3303
▁दिक्कत	-3304
▁प्लांट	-3305
▁बेहतरी	-3306
▁रफ्तार	-3307
▁वाहनों	-3308
▁विकसित	-3309
▁संबंधी	-3310
▁अमेरिकी	-3311
▁जिन्हें	-3312
▁महिलाएं	-3313
▁मुस्लिम	-3314
▁वाराणसी	-3315
▁संचालित	-3316
▁आधिकारिक	-3317
▁डॉक्टरों	-3318
▁दुष्कर्म	-3319
▁मुख्यालय	-3320
▁विशेषज्ञ	-3321
▁निर्धारित	-3322
▁जिम्मेदारी	-3323
▁पदाधिकारियों	-3324
खर	-3325
दर	-3326
नु	-3327
मल	-3328
रम	-3329
ुण	-3330
▁>	-3331
ead	-3332
करा	-3333
ज्ज	-3334
पसी	-3335
भाल	-3336
म्ब	-3337
िमा	-3338
▁जू	-3339
▁बू	-3340
▁मच	-3341
▁‘‘	-3342
घटना	-3343
बारी	-3344
लपुर	-3345
ल्ला	-3346
वधान	-3347
शाला	-3348
ारंभ	-3349
िलास	-3350
िसाब	-3351
्याम	-3352
्रिय	-3353
▁198	-3354
▁खुश	-3355
▁खोज	-3356
▁गुण	-3357
▁घुस	-3358
▁घूम	-3359
▁धार	-3360
▁परी	-3361
▁फें	-3362
▁मेट	-3363
▁रोल	-3364
▁शाय	-3365
▁शेर	-3366
▁शोध	-3367
▁संर	-3368
▁सेक	-3369
▁हवा	-3370
स्टिस	-3371
ेडियम	-3372
▁अभिय	-3373
▁आक्र	-3374
▁इच्छ	-3375
▁उर्फ	-3376
▁करनी	-3377
▁खाली	-3378
▁गाइड	-3379
▁चेता	-3380
▁जब्त	-3381
▁जोड़	-3382
▁जोशी	-3383
▁निका	-3384
▁नीचे	-3385
▁फायर	-3386
▁बताई	-3387
▁ममता	-3388
▁मैने	-3389
▁रहें	-3390
▁सिटी	-3391
▁हाउस	-3392
▁होटल	-3393
ंडीगढ़	-3394
कश्मीर	-3395
स्तानी	-3396
▁आंखों	-3397
▁आसानी	-3398
▁इंदौर	-3399
▁काउंस	-3400
▁खारिज	-3401
▁चेहरे	-3402
▁जाहिर	-3403
▁जुड़ी	-3404
▁तारीख	-3405
▁पार्ट	-3406
▁पृष्ठ	-3407
▁बताते	-3408
▁बातें	-3409
▁राकेश	-3410
▁रिलीज	-3411
▁स्टेट	-3412
▁हिंसा	-3413
▁हिसाब	-3414
▁कॉलोनी	-3415
▁गिरफ्त	-3416
▁जवानों	-3417
▁तापमान	-3418
▁प्रसार	-3419
▁भुगतान	-3420
▁रिश्ते	-3421
▁सकेंगे	-3422
▁सक्रिय	-3423
▁सिस्टम	-3424
▁सेक्टर	-3425
▁हथियार	-3426
▁हिमाचल	-3427
व्यवस्था	-3428
▁अंतर्गत	-3429
▁नियुक्त	-3430
▁पीड़िता	-3431
▁मुकाबला	-3432
▁संबोधित	-3433
▁अतिक्रमण	-3434
▁आतंकियों	-3435
▁आवश्यकता	-3436
▁दुर्घटना	-3437
▁स्टेडियम	-3438
▁पदाधिकारी	-3439
▁प्रत्याशी	-3440
▁जिलाधिकारी	-3441
▁पोस्टमार्टम	-3442
▁विद्यार्थियों	-3443
-2	-3444
.8	-3445
ha	-3446
st	-3447
डि	-3448
पल	-3449
यु	-3450
ूद	-3451
ंघन	-3452
ंदे	-3453
काम	-3454
ढ़े	-3455
त्‍	-3456
दरा	-3457
पेट	-3458
राय	-3459
▁गह	-3460
▁धी	-3461
▁नै	-3462
▁पथ	-3463
▁फल	-3464
▁फो	-3465
इकिल	-3466
करों	-3467
क्का	-3468
टीवी	-3469
भागी	-3470
र्डर	-3471
विटर	-3472
ेक्ट	-3473
▁अश्	-3474
▁आउट	-3475
▁इका	-3476
▁इरा	-3477
▁कैम	-3478
▁खोल	-3479
▁गीत	-3480
▁टूट	-3481
▁भले	-3482
▁Read	-3483
▁अंदा	-3484
▁अध्य	-3485
▁खूबस	-3486
▁ग्रे	-3487
▁घरों	-3488
▁चलने	-3489
▁जताई	-3490
▁जैसा	-3491
▁डीजल	-3492
▁दूरी	-3493
▁धमकी	-3494
▁फैला	-3495
▁सीसी	-3496
▁सेवन	-3497
▁आखिरी	-3498
▁उनमें	-3499
▁एशिया	-3500
▁क्वार	-3501
▁ग्राह	-3502
▁जयंती	-3503
▁जुड़ा	-3504
▁जोड़ी	-3505
▁तहरीर	-3506
▁तुलना	-3507
▁देखें	-3508
▁नेशनल	-3509
▁प्यार	-3510
▁प्रती	-3511
▁मात्र	-3512
▁विवाह	-3513
▁संकेत	-3514
▁सिविल	-3515
▁सूर्य	-3516
▁हफ्ते	-3517
ष्टाचार	-3518
▁अखिलेश	-3519
▁अरविंद	-3520
▁कल्याण	-3521
▁जस्टिस	-3522
▁ट्विटर	-3523
▁निदेशक	-3524
▁बिक्री	-3525
▁मारपीट	-3526
▁रिजर्व	-3527
▁शुक्ला	-3528
▁स्वर्ण	-3529
▁चंडीगढ़	-3530
▁चेतावनी	-3531
▁नामांकन	-3532
▁प्रदर्श	-3533
▁लक्ष्मी	-3534
▁व्यवहार	-3535
▁सामग्री	-3536
▁स्कूलों	-3537
▁परिवर्तन	-3538
▁पर्यावरण	-3539
▁जिन्होंने	-3540
▁इंस्पेक्टर	-3541
▁मध्यप्रदेश	-3542
it	-3543
चु	-3544
थी	-3545
पं	-3546
▁T	-3547
▁|	-3548
जनक	-3549
जीव	-3550
पात	-3551
भूम	-3552
रीय	-3553
रुख	-3554
र्श	-3555
शान	-3556
हूं	-3557
िनी	-3558
▁उद	-3559
▁क़	-3560
▁ग्	-3561
▁दश	-3562
▁फे	-3563
▁मस	-3564
▁रम	-3565
▁वॉ	-3566
▁शख	-3567
ंगाई	-3568
जिटल	-3569
डिंग	-3570
पत्र	-3571
मानत	-3572
लंघन	-3573
लिंग	-3574
सीसी	-3575
स्कर	-3576
▁500	-3577
▁गठन	-3578
▁छाप	-3579
▁जुट	-3580
▁जैन	-3581
▁पीठ	-3582
▁पुन	-3583
▁पोल	-3584
▁मद्	-3585
▁महो	-3586
▁शास	-3587
▁संश	-3588
▁सम्	-3589
▁साज	-3590
▁साध	-3591
▁हड़	-3592
▁हल्	-3593
देनजर	-3594
विधान	-3595
स्कृत	-3596
स्तुत	-3597
स्त्र	-3598
ायकों	-3599
▁2014	-3600
▁आएगी	-3601
▁कथित	-3602
▁गंगा	-3603
▁तनाव	-3604
▁पढ़े	-3605
▁पैसा	-3606
▁प्रे	-3607
▁बढ़ो	-3608
▁बुरी	-3609
▁भीतर	-3610
▁रहना	-3611
▁रहीं	-3612
▁रेफर	-3613
▁लापर	-3614
▁वनडे	-3615
▁शहीद	-3616
▁साथी	-3617
▁सीजन	-3618
▁सुनि	-3619
क्ताओं	-3620
▁इंस्ट	-3621
▁कालेज	-3622
▁कितना	-3623
▁कृष्ण	-3624
▁कोर्स	-3625
▁जगहों	-3626
▁डेस्क	-3627
▁फॉर्म	-3628
▁भरोसा	-3629
▁मांगी	-3630
▁मारने	-3631
▁मुफ्त	-3632
▁राजीव	-3633
▁लड़ाई	-3634
▁लॉन्च	-3635
▁हमारा	-3636
द्योगिक	-3637
▁आंकड़े	-3638
▁गुजरात	-3639
▁डिग्री	-3640
▁डिजिटल	-3641
▁निकलने	-3642
▁पदार्थ	-3643
▁पालिका	-3644
▁पुराने	-3645
▁प्रखंड	-3646
▁यात्री	-3647
▁रोजगार	-3648
▁विकल्प	-3649
▁शाहरुख	-3650
▁शूटिंग	-3651
▁स्वामी	-3652
▁हंगामा	-3653
▁कार्यों	-3654
▁चुनावों	-3655
▁बिल्कुल	-3656
▁बेहतरीन	-3657
▁विस्तार	-3658
▁संस्कार	-3659
▁एक्ट्रेस	-3660
▁नियुक्ति	-3661
▁पंचायतों	-3662
▁प्रियंका	-3663
▁मद्देनजर	-3664
▁बल्लेबाजी	-3665
▁व्यापारियों	-3666
.3	-3667
40	-3668
ch	-3669
en	-3670
ँच	-3671
टो	-3672
दो	-3673
ेप	-3674
▁J	-3675
▁L	-3676
एडा	-3677
धीश	-3678
पूत	-3679
फान	-3680
बीर	-3681
बूर	-3682
लाब	-3683
ेटर	-3684
ेलन	-3685
ैंक	-3686
▁(2	-3687
▁टन	-3688
▁दृ	-3689
▁भि	-3690
▁रू	-3691
ंपरा	-3692
कृति	-3693
डिया	-3694
डियो	-3695
फिया	-3696
भूमि	-3697
मांड	-3698
वाया	-3699
स्टी	-3700
ेंगी	-3701
्यास	-3702
▁अब्	-3703
▁आशी	-3704
▁उतर	-3705
▁काट	-3706
▁खून	-3707
▁घाट	-3708
▁जाम	-3709
▁डिप	-3710
▁डेब	-3711
▁दूध	-3712
▁नयी	-3713
▁पहन	-3714
▁पुण	-3715
▁बैग	-3716
▁मचा	-3717
▁मधु	-3718
▁मेर	-3719
▁वेल	-3720
▁सेल	-3721
स्टिक	-3722
▁इतने	-3723
▁उड़ा	-3724
▁केरल	-3725
▁खतरे	-3726
▁गैंग	-3727
▁चावल	-3728
▁छोटी	-3729
▁जंगल	-3730
▁जुटा	-3731
▁ट्रै	-3732
▁बांग	-3733
▁महास	-3734
▁मीटर	-3735
▁विवे	-3736
▁शख्स	-3737
▁समान	-3738
▁सिने	-3739
▁सैंप	-3740
▁सोने	-3741
▁सौंप	-3742
जरीवाल	-3743
प्रकाश	-3744
▁अक्षय	-3745
▁आग्रह	-3746
▁गार्ड	-3747
▁गेहूं	-3748
▁गोपाल	-3749
▁गोल्ड	-3750
▁चारों	-3751
▁चित्र	-3752
▁ज्ञान	-3753
▁थोड़ा	-3754
▁दिनेश	-3755
▁मनाया	-3756
▁मैसेज	-3757
▁लगाकर	-3758
▁लिस्ट	-3759
▁लेंगे	-3760
▁वापसी	-3761
▁वेस्ट	-3762
▁शुल्क	-3763
▁सब्जी	-3764
▁आईपीएल	-3765
▁आयुक्त	-3766
▁उल्लेख	-3767
▁किनारे	-3768
▁कीमतों	-3769
▁जिंदगी	-3770
▁निशाना	-3771
▁परंपरा	-3772
▁बनर्जी	-3773
▁महंगाई	-3774
▁मानसिक	-3775
▁मिट्टी	-3776
▁विरोधी	-3777
▁नियंत्र	-3778
▁परीक्षण	-3779
▁एयरपोर्ट	-3780
▁केजरीवाल	-3781
▁क्रिकेटर	-3782
▁पर्याप्त	-3783
▁पहुंचाया	-3784
▁प्रस्तुत	-3785
▁सम्मानित	-3786
▁उपाध्यक्ष	-3787
▁सुनिश्चित	-3788
▁अर्थव्यवस्था	-3789
-3	-3790
.6	-3791
.9	-3792
49	-3793
कू	-3794
▁	-3795
ा	-3796
क	-3797
र	-3798
े	-3799
ी	-3800
न	-3801
्	-3802
स	-3803
ि	-3804
ं	-3805
ह	-3806
म	-3807
ल	-3808
त	-3809
ो	-3810
प	-3811
य	-3812
व	-3813
द	-3814
ज	-3815
ब	-3816
ग	-3817
ु	-3818
ै	-3819
ट	-3820
।	-3821
ए	-3822
श	-3823
च	-3824
ड	-3825
अ	-3826
भ	-3827
ू	-3828
इ	-3829
आ	-3830
थ	-3831
,	-3832
ख	-3833
ध	-3834
उ	-3835
फ	-3836
़	-3837
ई	-3838
ष	-3839
.	-3840
औ	-3841
ण	-3842
ौ	-3843
0	-3844
1	-3845
2	-3846
छ	-3847
-	-3848
ॉ	-3849
घ	-3850
ओ	-3851
ठ	-3852
ढ	-3853
5	-3854
3	-3855
4	-3856
ृ	-3857
9	-3858
(	-3859
)	-3860
झ	-3861
8	-3862
6	-3863
:	-3864
‍	-3865
7	-3866
'	-3867
a	-3868
ऐ	-3869
ऑ	-3870
i	-3871
e	-3872
r	-3873
n	-3874
o	-3875
‘	-3876
ऊ	-3877
’	-3878
ँ	-3879
t	-3880
ञ	-3881
s	-3882
h	-3883
"	-3884
A	-3885
d	-3886
l	-3887
?	-3888
P	-3889
S	-3890
C	-3891
I	-3892
m	-3893
M	-3894
u	-3895
R	-3896
c	-3897
B	-3898
N	-3899
/	-3900
p	-3901
E	-3902
H	-3903
g	-3904
D	-3905
k	-3906
T	-3907
ः	-3908
|	-3909
”	-3910
G	-3911
–	-3912
b	-3913
w	-3914
!	-3915
“	-3916
y	-3917
O	-3918
F	-3919
›	-3920
L	-3921
U	-3922
v	-3923
ऋ	-3924
W	-3925
J	-3926
V	-3927
ॅ	-3928
K	-3929
>	-3930
‌	-3931
j	-3932
%	-3933
f	-3934
x	-3935
०	-3936
​	-3937
—	-3938
»	-3939
̈	-3940
Y	-3941
१	-3942
;	-3943
॰	-3944
@	-3945
[	-3946
]	-3947
z	-3948
í	-3949
ऩ	-3950
३	-3951
२	-3952
७	-3953
+	-3954
🔊	-3955
&	-3956
*	-3957
Q	-3958
X	-3959
५	-3960
६	-3961
#	-3962
Z	-3963
	-3964
ऱ	-3965
ï	-3966
८	-3967
_	-3968
×	-3969
४	-3970
९	-3971
�	-3972
=	-3973
^	-3974
q	-3975
£	-3976
Ó	-3977
Ü	-3978
в	-3979
и	-3980
л	-3981
о	-3982
т	-3983
я	-3984
ا	-3985
ت	-3986
ل	-3987
و	-3988
ی	-3989
ऌ	-3990
ङ	-3991
‎	-3992
←	-3993
➽	-3994
﻿	-3995
🔵	-3996
