<unk>	0
<s>	0
</s>	0
ar	-0
er	-1
an	-2
in	-3
ir	-4
▁b	-5
il	-6
en	-7
▁k	-8
al	-9
▁s	-10
ak	-11
el	-12
ın	-13
▁v	-14
▁d	-15
ek	-16
▁y	-17
lar	-18
as	-19
et	-20
▁t	-21
ik	-22
▁ve	-23
▁o	-24
▁g	-25
▁i	-26
es	-27
la	-28
on	-29
ma	-30
ler	-31
un	-32
iz	-33
ır	-34
em	-35
▁m	-36
▁B	-37
da	-38
or	-39
▁h	-40
at	-41
▁bir	-42
▁S	-43
▁A	-44
de	-45
ay	-46
▁K	-47
lan	-48
im	-49
is	-50
lı	-51
▁iç	-52
it	-53
ul	-54
▁T	-55
ur	-56
▁ç	-57
iy	-58
▁p	-59
ür	-60
▁M	-61
▁için	-62
ün	-63
iş	-64
ed	-65
am	-66
▁P	-67
ap	-68
▁D	-69
li	-70
ab	-71
le	-72
ış	-73
ız	-74
ah	-75
ol	-76
ağ	-77
▁H	-78
az	-79
ad	-80
▁E	-81
▁ö	-82
ım	-83
ük	-84
▁f	-85
ya	-86
ık	-87
▁G	-88
um	-89
ıl	-90
ey	-91
▁il	-92
▁ol	-93
st	-94
mak	-95
esi	-96
▁Y	-97
ilir	-98
ör	-99
ları	-100
▁C	-101
ası	-102
ok	-103
eri	-104
alar	-105
aş	-106
▁al	-107
▁O	-108
üz	-109
ut	-110
leri	-111
uz	-112
▁1	-113
ot	-114
▁ş	-115
eğ	-116
af	-117
ev	-118
▁(	-119
üm	-120
dan	-121
ında	-122
▁2	-123
ro	-124
ini	-125
eb	-126
▁Ç	-127
▁ar	-128
▁İ	-129
▁L	-130
tir	-131
ullan	-132
▁F	-133
▁n	-134
▁ile	-135
dir	-136
cı	-137
uy	-138
ine	-139
lik	-140
yon	-141
ip	-142
dır	-143
▁R	-144
▁kullan	-145
ic	-146
▁r	-147
av	-148
ını	-149
iniz	-150
den	-151
▁z	-152
lem	-153
aç	-154
uk	-155
inde	-156
ec	-157
ekt	-158
me	-159
▁-	-160
oğ	-161
iler	-162
▁yap	-163
▁ür	-164
lık	-165
iğ	-166
man	-167
▁an	-168
▁et	-169
om	-170
os	-171
ist	-172
ac	-173
ön	-174
▁bu	-175
ce	-176
tır	-177
ilm	-178
▁en	-179
ama	-180
ta	-181
üş	-182
uş	-183
ların	-184
eş	-185
▁V	-186
larak	-187
eç	-188
▁Bu	-189
00	-190
lay	-191
ib	-192
len	-193
▁I	-194
▁olarak	-195
op	-196
us	-197
ez	-198
zel	-199
▁ed	-200
▁kon	-201
▁iş	-202
▁,	-203
▁ön	-204
ter	-205
▁N	-206
isi	-207
▁veya	-208
..	-209
▁c	-210
▁ger	-211
if	-212
▁3	-213
du	-214
ıs	-215
▁bil	-216
dı	-217
üy	-218
aha	-219
lama	-220
▁in	-221
▁kar	-222
tel	-223
▁gör	-224
asyon	-225
tik	-226
üks	-227
id	-228
▁ay	-229
eler	-230
inin	-231
▁kal	-232
ıcı	-233
▁gel	-234
▁sağ	-235
mek	-236
tr	-237
ül	-238
cak	-239
▁da	-240
abilir	-241
▁var	-242
est	-243
tad	-244
▁değ	-245
anı	-246
▁uy	-247
▁tar	-248
▁U	-249
lu	-250
tadır	-251
▁ver	-252
ark	-253
▁son	-254
▁daha	-255
laş	-256
▁sür	-257
alı	-258
▁her	-259
ından	-260
aları	-261
üksek	-262
di	-263
ına	-264
ması	-265
mış	-266
▁ek	-267
▁özel	-268
▁bul	-269
oy	-270
tı	-271
üç	-272
▁Ü	-273
leş	-274
alış	-275
▁yıl	-276
üc	-277
ans	-278
ağı	-279
▁W	-280
tan	-281
ep	-282
ibi	-283
met	-284
iştir	-285
od	-286
lab	-287
aman	-288
ınız	-289
aki	-290
maktadır	-291
ru	-292
▁or	-293
▁pro	-294
art	-295
eli	-296
gi	-297
iv	-298
tur	-299
akin	-300
▁An	-301
ede	-302
▁baş	-303
▁yer	-304
oz	-305
▁kur	-306
elik	-307
ebilir	-308
re	-309
yi	-310
▁gö	-311
ca	-312
eni	-313
imi	-314
ilen	-315
▁olan	-316
lam	-317
gu	-318
▁çalış	-319
▁par	-320
▁sah	-321
▁sun	-322
▁yar	-323
▁ürün	-324
▁bulun	-325
▁20	-326
▁zaman	-327
▁gibi	-328
▁de	-329
▁üret	-330
▁4	-331
▁Ö	-332
▁çok	-333
izmet	-334
lü	-335
▁Ş	-336
te	-337
▁5	-338
duğ	-339
▁Ar	-340
▁el	-341
ers	-342
▁tek	-343
ğı	-344
iye	-345
rik	-346
daki	-347
iyor	-348
▁uz	-349
▁kay	-350
▁üz	-351
ih	-352
ra	-353
▁ak	-354
ileri	-355
oj	-356
▁kap	-357
leme	-358
ının	-359
▁üzer	-360
azı	-361
liğ	-362
men	-363
▁aç	-364
otel	-365
ızlı	-366
eki	-367
▁iyi	-368
▁gerek	-369
ili	-370
▁Ay	-371
▁ad	-372
istem	-373
eh	-374
ob	-375
ret	-376
▁hizmet	-377
üt	-378
üv	-379
unu	-380
▁gen	-381
eleri	-382
▁Bir	-383
▁büy	-384
▁etk	-385
▁ser	-386
▁otel	-387
erk	-388
▁ma	-389
eden	-390
▁doğ	-391
ef	-392
ran	-393
tar	-394
▁şek	-395
siniz	-396
▁olduğ	-397
labilir	-398
let	-399
ley	-400
lerin	-401
▁sahip	-402
ing	-403
▁Ek	-404
asar	-405
▁ist	-406
▁l	-407
▁gün	-408
ada	-409
ımı	-410
▁bö	-411
▁on	-412
▁tüm	-413
▁yön	-414
uv	-415
san	-416
▁bağ	-417
ize	-418
▁yüksek	-419
ayı	-420
çek	-421
▁sa	-422
▁taraf	-423
akinesi	-424
og	-425
▁u	-426
ant	-427
edir	-428
▁201	-429
öz	-430
▁En	-431
ilik	-432
▁bel	-433
▁top	-434
siy	-435
▁faz	-436
▁kad	-437
▁Hotel	-438
ısı	-439
unda	-440
leştir	-441
ici	-442
ren	-443
▁geç	-444
▁oy	-445
iğer	-446
ster	-447
▁seç	-448
...	-449
ıy	-450
han	-451
las	-452
lat	-453
▁vardır	-454
oloj	-455
▁kat	-456
asında	-457
raf	-458
▁Çin	-459
▁uygu	-460
oc	-461
üst	-462
▁düz	-463
eye	-464
▁oluş	-465
akk	-466
iyet	-467
üven	-468
▁sistem	-469
aj	-470
▁J	-471
ide	-472
mas	-473
rı	-474
ast	-475
iği	-476
may	-477
▁od	-478
imiz	-479
▁dur	-480
▁kor	-481
▁çık	-482
▁büyük	-483
▁şekil	-484
sa	-485
ti	-486
sel	-487
▁ko	-488
arik	-489
▁ken	-490
for	-491
ite	-492
▁kiş	-493
▁mal	-494
▁met	-495
arı	-496
osy	-497
▁tem	-498
▁fazla	-499
▁tarafından	-500
▁_	-501
ava	-502
eme	-503
siz	-504
▁den	-505
▁alan	-506
ht	-507
dım	-508
alık	-509
liği	-510
unun	-511
▁ort	-512
▁tasar	-513
▁"	-514
ram	-515
▁su	-516
ımız	-517
▁ama	-518
▁bak	-519
▁sat	-520
▁tel	-521
▁yüz	-522
▁Otel	-523
cu	-524
örü	-525
ecek	-526
▁Kar	-527
▁boy	-528
▁kab	-529
siyon	-530
esinde	-531
ektedir	-532
ost	-533
▁10	-534
▁ya	-535
ılan	-536
ılır	-537
üs	-538
aya	-539
to	-540
dur	-541
▁eğ	-542
deki	-543
trol	-544
▁mes	-545
▁say	-546
▁yet	-547
esini	-548
ılmış	-549
▁bilg	-550
any	-551
▁aş	-552
▁ik	-553
lara	-554
unuz	-555
▁Kon	-556
▁sır	-557
▁yak	-558
inden	-559
▁tekn	-560
çi	-561
ort	-562
▁yan	-563
▁Yüksek	-564
ig	-565
ki	-566
▁w	-567
▁Bil	-568
matik	-569
larını	-570
▁belir	-571
▁kadar	-572
dığ	-573
▁Al	-574
▁yol	-575
▁yeni	-576
lerini	-577
▁sonra	-578
ci	-579
▁Z	-580
eti	-581
▁as	-582
▁at	-583
maya	-584
▁Kap	-585
larda	-586
▁güven	-587
▁göster	-588
▁özellik	-589
şı	-590
der	-591
▁Eğ	-592
▁alt	-593
▁sit	-594
erkez	-595
ag	-596
üp	-597
eda	-598
işim	-599
▁Tek	-600
▁parç	-601
edarik	-602
lg	-603
ken	-604
maz	-605
res	-606
▁Ak	-607
▁az	-608
▁es	-609
akik	-610
lere	-611
▁dön	-612
▁hakk	-613
▁önem	-614
▁diğer	-615
▁görün	-616
▁6	-617
enk	-618
omp	-619
▁İn	-620
arak	-621
▁Pro	-622
▁ben	-623
aklık	-624
▁içer	-625
dece	-626
▁tes	-627
▁değil	-628
ER	-629
tü	-630
miş	-631
▁ağ	-632
edav	-633
isel	-634
▁Ser	-635
▁fark	-636
▁yıld	-637
▁dakik	-638
▁içinde	-639
▁şekilde	-640
iyat	-641
▁kan	-642
▁durum	-643
▁yardım	-644
ch	-645
mm	-646
▁0	-647
▁iz	-648
▁öğ	-649
▁yat	-650
iteli	-651
▁işlem	-652
▁yıldızlı	-653
eg	-654
ov	-655
eniz	-656
▁düş	-657
▁ilg	-658
▁sor	-659
▁tut	-660
hangi	-661
▁açık	-662
▁kontrol	-663
▁geliştir	-664
20	-665
up	-666
lak	-667
▁El	-668
aret	-669
▁Her	-670
▁der	-671
▁tür	-672
ilmiş	-673
▁bulunmaktadır	-674
ED	-675
ub	-676
ök	-677
evc	-678
ıcak	-679
inizi	-680
▁sadece	-681
uç	-682
eği	-683
gun	-684
lım	-685
nak	-686
net	-687
eşit	-688
iyle	-689
▁har	-690
▁tak	-691
▁ter	-692
ektrik	-693
▁karşı	-694
▁oluştur	-695
se	-696
▁8	-697
orm	-698
yum	-699
asıl	-700
lığı	-701
rıca	-702
▁Kal	-703
▁yaş	-704
▁önce	-705
ıt	-706
▁:	-707
evr	-708
rol	-709
▁Or	-710
tand	-711
▁gir	-712
lamak	-713
▁doğru	-714
▁neden	-715
▁ilgili	-716
ent	-717
acak	-718
ideo	-719
otor	-720
▁güç	-721
▁hal	-722
▁taş	-723
▁malz	-724
▁olmak	-725
▁makinesi	-726
▁X	-727
irk	-728
una	-729
ayan	-730
uvar	-731
üçük	-732
ıyor	-733
▁mod	-734
estek	-735
lemek	-736
▁Özel	-737
▁kolay	-738
▁herhangi	-739
ow	-740
▁a	-741
uma	-742
anyo	-743
anın	-744
▁Tür	-745
▁man	-746
▁çek	-747
▁şeh	-748
ipman	-749
▁tedav	-750
mektedir	-751
nı	-752
si	-753
erj	-754
eyi	-755
▁er	-756
mesi	-757
ocuk	-758
lacak	-759
▁mesaf	-760
▁gerçek	-761
▁önemli	-762
▁uzaklık	-763
asa	-764
ızı	-765
htiy	-766
▁Par	-767
▁bas	-768
▁biz	-769
lendir	-770
▁geniş	-771
▁farklı	-772
▁sağlar	-773
iç	-774
bir	-775
cel	-776
luk	-777
üşt	-778
evcut	-779
ka	-780
ne	-781
tal	-782
yla	-783
▁As	-784
▁İş	-785
gram	-786
▁don	-787
▁mak	-788
arası	-789
▁nasıl	-790
larının	-791
▁Ayrıca	-792
ılabilir	-793
▁yılında	-794
▁yardımcı	-795
mel	-796
rün	-797
ucu	-798
▁St	-799
azır	-800
▁oyun	-801
▁ulaş	-802
▁banyo	-803
▁merkez	-804
▁Makinesi	-805
AR	-806
ge	-807
of	-808
mat	-809
▁im	-810
▁km	-811
▁LED	-812
▁Met	-813
▁dev	-814
▁san	-815
▁şey	-816
▁tama	-817
iciler	-818
ındaki	-819
▁genel	-820
▁ihtiy	-821
▁teknoloj	-822
AN	-823
ia	-824
oru	-825
van	-826
ıda	-827
▁(1	-828
▁In	-829
▁Sp	-830
▁kr	-831
erli	-832
malı	-833
▁Gen	-834
▁hay	-835
▁kes	-836
▁tab	-837
▁zor	-838
malar	-839
▁Eğer	-840
▁araç	-841
▁Çelik	-842
▁çeşit	-843
tomatik	-844
▁oteller	-845
abilirsiniz	-846
-1	-847
he	-848
ıp	-849
▁7	-850
rup	-851
ulu	-852
▁em	-853
▁ok	-854
▁üc	-855
eket	-856
itim	-857
▁Ben	-858
▁Kay	-859
▁San	-860
▁dün	-861
▁res	-862
▁çöz	-863
abrik	-864
dırma	-865
▁biri	-866
▁göre	-867
ilmesi	-868
lastik	-869
▁ücret	-870
lerinin	-871
▁mevcut	-872
▁program	-873
▁olabilir	-874
lo	-875
ça	-876
aba	-877
ass	-878
lük	-879
tem	-880
vis	-881
ücü	-882
enek	-883
enin	-884
obil	-885
ışık	-886
▁Kur	-887
▁dok	-888
▁göz	-889
▁hem	-890
▁tan	-891
▁Ürün	-892
azılım	-893
lanmış	-894
▁bağlı	-895
▁fiyat	-896
▁uygun	-897
▁değiştir	-898
▁hakkında	-899
AS	-900
ye	-901
üğ	-902
atı	-903
▁15	-904
▁Co	-905
▁öl	-906
▁hat	-907
▁mon	-908
▁per	-909
▁yok	-910
üşter	-911
▁Üret	-912
▁hızlı	-913
gı	-914
ve	-915
ara	-916
dal	-917
ift	-918
mez	-919
▁19	-920
▁ev	-921
iyel	-922
uyor	-923
örün	-924
▁tah	-925
irket	-926
oğraf	-927
▁ayar	-928
▁dosy	-929
▁prof	-930
larına	-931
▁insan	-932
larında	-933
▁üretim	-934
AL	-935
sı	-936
öp	-937
öy	-938
▁9	-939
000	-940
ang	-941
com	-942
ern	-943
gan	-944
tif	-945
zer	-946
▁Aç	-947
▁Ch	-948
▁Su	-949
▁iki	-950
▁ilk	-951
▁kaz	-952
▁mik	-953
▁yay	-954
itesi	-955
▁aynı	-956
▁hast	-957
▁olma	-958
▁olur	-959
iğiniz	-960
▁hazır	-961
▁destek	-962
▁olduğu	-963
izi	-964
kin	-965
lığ	-966
nek	-967
ışı	-968
▁30	-969
▁Tr	-970
▁sp	-971
düst	-972
efon	-973
ükem	-974
▁Son	-975
▁get	-976
düstr	-977
esine	-978
idrol	-979
ivers	-980
▁Türk	-981
▁Yeni	-982
▁bölg	-983
asyonu	-984
lerine	-985
▁çelik	-986
ükemmel	-987
▁Tedarik	-988
▁sistemi	-989
▁üzerinde	-990
ET	-991
IN	-992
▁e	-993
dro	-994
edi	-995
eks	-996
gel	-997
ron	-998
ten	-999
▁1.	-1000
▁Am	-1001
▁On	-1002
▁ör	-1003
erek	-1004
▁Res	-1005
▁hav	-1006
▁oda	-1007
▁web	-1008
likle	-1009
likte	-1010
▁Hava	-1011
▁renk	-1012
▁saat	-1013
▁test	-1014
indeki	-1015
ternet	-1016
▁düzen	-1017
tandart	-1018
▁malzem	-1019
▁ürünler	-1020
▁kullanıcı	-1021
çe	-1022
cuz	-1023
taj	-1024
çok	-1025
▁Av	-1026
▁eş	-1027
afir	-1028
imli	-1029
utma	-1030
▁Yap	-1031
▁duy	-1032
▁yük	-1033
▁hava	-1034
▁çevr	-1035
ilerin	-1036
masını	-1037
▁almak	-1038
▁kendi	-1039
▁küçük	-1040
▁çıkar	-1041
idrolik	-1042
▁yöntem	-1043
▁bulunan	-1044
▁kişisel	-1045
ebilirsiniz	-1046
▁kullanılır	-1047
ha	-1048
ij	-1049
oş	-1050
ğu	-1051
amb	-1052
anb	-1053
erm	-1054
kaç	-1055
lin	-1056
▁Ne	-1057
dığı	-1058
eyen	-1059
▁...	-1060
▁Gün	-1061
▁fot	-1062
▁sev	-1063
▁sık	-1064
ılması	-1065
▁alanı	-1066
▁deney	-1067
▁getir	-1068
▁video	-1069
▁elektrik	-1070
▁olduğunu	-1071
utf	-1072
ver	-1073
▁Er	-1074
▁ot	-1075
▁Tur	-1076
▁Web	-1077
▁dik	-1078
▁dil	-1079
▁fır	-1080
▁haf	-1081
▁kim	-1082
▁yem	-1083
aslan	-1084
esyon	-1085
lerde	-1086
manız	-1087
▁proj	-1088
nivers	-1089
▁edilm	-1090
▁etmek	-1091
▁sıcak	-1092
▁temiz	-1093
▁yönet	-1094
▁üzere	-1095
esyonel	-1096
▁arasında	-1097
▁birlikte	-1098
dür	-1099
ive	-1100
lim	-1101
▁24	-1102
▁Sh	-1103
arlı	-1104
eceğ	-1105
line	-1106
▁Bar	-1107
layan	-1108
layın	-1109
ıştır	-1110
▁Alan	-1111
▁Açık	-1112
▁geri	-1113
▁uzun	-1114
isafir	-1115
laştır	-1116
▁değiş	-1117
▁etkin	-1118
▁gelen	-1119
▁kurul	-1120
▁öğren	-1121
▁çalışma	-1122
▁kaliteli	-1123
EL	-1124
EN	-1125
ece	-1126
yle	-1127
▁(2	-1128
▁Pr	-1129
▁vb	-1130
▁öd	-1131
ahat	-1132
alan	-1133
eyaz	-1134
▁Bas	-1135
▁Kat	-1136
▁Mod	-1137
▁Yön	-1138
▁art	-1139
▁cih	-1140
▁nok	-1141
▁soğ	-1142
▁vüc	-1143
▁yür	-1144
anbul	-1145
lilik	-1146
mayan	-1147
osyal	-1148
▁mark	-1149
▁şehr	-1150
▁Motor	-1151
▁devam	-1152
▁değer	-1153
▁Kullan	-1154
▁birçok	-1155
▁kaynak	-1156
▁müşter	-1157
▁şirket	-1158
aslanmaz	-1159
▁uygulam	-1160
▁sahiptir	-1161
▁ücretsiz	-1162
acı	-1163
ali	-1164
ana	-1165
ild	-1166
str	-1167
sız	-1168
ülk	-1169
▁At	-1170
▁Ul	-1171
▁le	-1172
▁üç	-1173
orum	-1174
üler	-1175
ınıf	-1176
▁Sat	-1177
▁bit	-1178
▁müm	-1179
▁İst	-1180
alama	-1181
aştır	-1182
forman	-1183
landır	-1184
▁kazan	-1185
▁yakın	-1186
▁birkaç	-1187
50	-1188
ly	-1189
na	-1190
td	-1191
amp	-1192
eng	-1193
ire	-1194
kün	-1195
lüm	-1196
muş	-1197
one	-1198
oğu	-1199
▁dö	-1200
▁ul	-1201
ağıt	-1202
ebek	-1203
ekli	-1204
içek	-1205
meye	-1206
▁Biz	-1207
▁Tar	-1208
▁saç	-1209
lantı	-1210
sanız	-1211
▁bazı	-1212
▁size	-1213
▁ancak	-1214
▁geçir	-1215
larımız	-1216
▁mümkün	-1217
▁olacak	-1218
▁hareket	-1219
▁kullanılan	-1220
mi	-1221
şa	-1222
ard	-1223
err	-1224
kan	-1225
olu	-1226
ore	-1227
▁12	-1228
▁Ap	-1229
▁do	-1230
▁la	-1231
▁pr	-1232
emiz	-1233
ilin	-1234
ment	-1235
üzel	-1236
▁Top	-1237
▁ede	-1238
▁mas	-1239
▁tip	-1240
▁yağ	-1241
assas	-1242
asını	-1243
lanan	-1244
undan	-1245
▁2019	-1246
▁azal	-1247
▁para	-1248
▁boyut	-1249
▁donat	-1250
▁dünya	-1251
▁konak	-1252
▁sağla	-1253
▁sunar	-1254
▁çocuk	-1255
▁edilen	-1256
▁odalar	-1257
ilebilir	-1258
▁Türkiye	-1259
▁Ünivers	-1260
▁fotoğraf	-1261
▁mükemmel	-1262
VC	-1263
ud	-1264
▁j	-1265
ari	-1266
bon	-1267
usu	-1268
şık	-1269
▁Uz	-1270
iber	-1271
unca	-1272
ılar	-1273
▁200	-1274
▁Hav	-1275
▁dah	-1276
▁hes	-1277
▁oyn	-1278
▁çap	-1279
ahtar	-1280
imiçi	-1281
izyon	-1282
uslar	-1283
çiler	-1284
▁elde	-1285
▁yanı	-1286
▁Metal	-1287
▁bilgi	-1288
▁böyle	-1289
▁dayan	-1290
malıdır	-1291
▁dakika	-1292
▁araştır	-1293
▁tasarım	-1294
▁telefon	-1295
▁zamanda	-1296
▁çeşitli	-1297
▁mesafede	-1298
▁profesyonel	-1299
NC	-1300
co	-1301
ga	-1302
dık	-1303
erv	-1304
gın	-1305
ina	-1306
suz	-1307
▁Uy	-1308
▁İç	-1309
eğin	-1310
inal	-1311
oğun	-1312
umlu	-1313
▁Bel	-1314
▁Kir	-1315
▁dış	-1316
▁kıs	-1317
▁yaz	-1318
▁üst	-1319
▁ısı	-1320
talya	-1321
utfak	-1322
▁kend	-1323
▁plan	-1324
leyici	-1325
üşteri	-1326
▁Ekran	-1327
▁aşağı	-1328
▁üretic	-1329
▁ekipman	-1330
▁gerekir	-1331
▁kullanım	-1332
▁donatılmış	-1333
kı	-1334
lac	-1335
uru	-1336
▁Aş	-1337
▁mm	-1338
▁Ön	-1339
abil	-1340
erji	-1341
▁Baş	-1342
▁Per	-1343
▁ana	-1344
▁cam	-1345
▁gön	-1346
▁kas	-1347
▁kom	-1348
▁sol	-1349
▁tam	-1350
▁ülk	-1351
droid	-1352
imler	-1353
inyum	-1354
larla	-1355
latma	-1356
▁ışık	-1357
aların	-1358
imleri	-1359
▁ekran	-1360
▁yüzey	-1361
▁Sistem	-1362
▁belirt	-1363
▁servis	-1364
▁görüntü	-1365
▁tedarik	-1366
▁yazılım	-1367
lanabilir	-1368
▁performan	-1369
.1	-1370
30	-1371
qu	-1372
th	-1373
ach	-1374
ion	-1375
rub	-1376
sin	-1377
ütü	-1378
▁is	-1379
▁ne	-1380
amak	-1381
asal	-1382
avan	-1383
ekan	-1384
erat	-1385
iltr	-1386
▁Tak	-1387
▁Ver	-1388
▁dök	-1389
▁kah	-1390
▁kut	-1391
▁tık	-1392
▁ölç	-1393
isyon	-1394
lanır	-1395
uklar	-1396
▁dahil	-1397
▁konum	-1398
▁makin	-1399
▁metal	-1400
▁metre	-1401
▁satış	-1402
▁sonuç	-1403
▁eğitim	-1404
▁fabrik	-1405
▁gönder	-1406
▁yapmak	-1407
▁merkezi	-1408
▁misafir	-1409
uslararası	-1410
-2	-1411
MA	-1412
ack	-1413
duk	-1414
dın	-1415
enc	-1416
end	-1417
ess	-1418
fer	-1419
▁Ve	-1420
▁op	-1421
avaş	-1422
izin	-1423
olon	-1424
üyor	-1425
▁Giz	-1426
▁Ltd	-1427
▁Mar	-1428
▁PVC	-1429
▁bar	-1430
▁bes	-1431
▁dal	-1432
▁diş	-1433
▁kam	-1434
▁mad	-1435
▁sal	-1436
▁söz	-1437
ektör	-1438
▁yapı	-1439
esinin	-1440
isinde	-1441
▁cihaz	-1442
▁indir	-1443
▁kabul	-1444
▁tarih	-1445
▁yoğun	-1446
evizyon	-1447
lerimiz	-1448
üminyum	-1449
▁miktar	-1450
▁endüstr	-1451
▁olmayan	-1452
▁yapılan	-1453
▁bilgiler	-1454
▁internet	-1455
▁otomatik	-1456
▁konaklama	-1457
▁sırasında	-1458
PS	-1459
uh	-1460
çı	-1461
ate	-1462
ity	-1463
sal	-1464
▁25	-1465
▁Ev	-1466
azar	-1467
esel	-1468
üket	-1469
▁Güç	-1470
▁duş	-1471
▁kır	-1472
▁pol	-1473
▁önc	-1474
astik	-1475
ciler	-1476
ersiz	-1477
ezerv	-1478
istal	-1479
oloji	-1480
▁Tekn	-1481
▁gerç	-1482
▁ilet	-1483
▁inşa	-1484
▁manz	-1485
▁sıra	-1486
etleri	-1487
siyonu	-1488
usunda	-1489
▁artır	-1490
▁düşük	-1491
▁geliş	-1492
▁rahat	-1493
▁çözüm	-1494
▁ortaya	-1495
▁sağlık	-1496
▁Android	-1497
▁Ekipman	-1498
▁ürünleri	-1499
▁televizyon	-1500
).	-1501
.,	-1502
.0	-1503
60	-1504
kü	-1505
▁'	-1506
▁.	-1507
akt	-1508
ens	-1509
los	-1510
ong	-1511
ork	-1512
sik	-1513
yal	-1514
yor	-1515
▁Br	-1516
▁mü	-1517
▁tr	-1518
▁öz	-1519
▁İl	-1520
anda	-1521
ehir	-1522
ital	-1523
iyah	-1524
post	-1525
ütün	-1526
ıklı	-1527
ıllı	-1528
▁Doğ	-1529
▁Kiş	-1530
▁Mas	-1531
▁ark	-1532
▁bal	-1533
▁bek	-1534
▁cil	-1535
▁etm	-1536
▁fir	-1537
▁fon	-1538
▁giy	-1539
▁has	-1540
▁kil	-1541
▁tic	-1542
lerle	-1543
▁Daha	-1544
▁Proj	-1545
▁bile	-1546
▁edin	-1547
▁kaps	-1548
▁kayn	-1549
▁nokt	-1550
lardan	-1551
▁anlam	-1552
▁kalın	-1553
▁organ	-1554
▁satın	-1555
▁tamam	-1556
▁tüket	-1557
dığınız	-1558
lerinde	-1559
▁güncel	-1560
▁modern	-1561
▁olması	-1562
ınabilir	-1563
▁boyunca	-1564
▁ihtiyaç	-1565
▁tamamen	-1566
▁performans	-1567
.5	-1568
ES	-1569
ığ	-1570
emb	-1571
gün	-1572
jen	-1573
ona	-1574
ung	-1575
ünü	-1576
ılı	-1577
▁18	-1578
▁Do	-1579
▁Kr	-1580
▁Od	-1581
▁Of	-1582
▁Ok	-1583
▁of	-1584
amik	-1585
mayı	-1586
onom	-1587
▁Har	-1588
▁Tab	-1589
▁Toz	-1590
▁Tüm	-1591
▁bun	-1592
▁bur	-1593
▁dir	-1594
▁med	-1595
▁sar	-1596
▁ses	-1597
▁toz	-1598
ilmek	-1599
manın	-1600
▁Renk	-1601
▁eder	-1602
▁iliş	-1603
▁mini	-1604
▁otur	-1605
▁rest	-1606
▁sayı	-1607
artman	-1608
ektörü	-1609
▁Ancak	-1610
▁Avrup	-1611
▁Satış	-1612
▁Tasar	-1613
▁güçlü	-1614
▁hafif	-1615
▁sürec	-1616
▁temel	-1617
▁varsa	-1618
▁yürüy	-1619
▁Hizmet	-1620
▁ediyor	-1621
▁kalite	-1622
▁sitesi	-1623
▁tedavi	-1624
▁Plastik	-1625
▁altında	-1626
▁çalışan	-1627
▁Hidrolik	-1628
▁kullanıl	-1629
▁sağlamak	-1630
▁standart	-1631
▁bilgileri	-1632
▁çevrimiçi	-1633
▁Üreticiler	-1634
▁kullanılabilir	-1635
hr	-1636
pt	-1637
ıç	-1638
eyn	-1639
gil	-1640
ime	-1641
inc	-1642
ind	-1643
isk	-1644
oid	-1645
oli	-1646
orn	-1647
rar	-1648
▁(4	-1649
▁Ağ	-1650
▁iy	-1651
▁st	-1652
aber	-1653
anlı	-1654
ekte	-1655
erik	-1656
ileş	-1657
isay	-1658
üyük	-1659
▁Bit	-1660
▁Gel	-1661
▁Kız	-1662
▁bah	-1663
▁dan	-1664
▁ise	-1665
▁kir	-1666
▁zar	-1667
▁ziy	-1668
alanı	-1669
asına	-1670
bilir	-1671
etler	-1672
meden	-1673
▁Işık	-1674
▁arab	-1675
▁dikk	-1676
▁fonk	-1677
▁konu	-1678
▁list	-1679
▁olup	-1680
▁sayf	-1681
▁çift	-1682
mesini	-1683
zersiz	-1684
▁bakım	-1685
▁başka	-1686
▁bölüm	-1687
▁doğal	-1688
▁güzel	-1689
▁ortak	-1690
▁ortam	-1691
▁sunan	-1692
▁sunul	-1693
▁sınıf	-1694
ilindir	-1695
▁Merkez	-1696
▁toplam	-1697
▁gerekli	-1698
▁nedenle	-1699
▁üzerine	-1700
▁uygulama	-1701
▁özellikle	-1702
leştirilmiş	-1703
▁Ekipmanları	-1704
▁uzaklıktadır	-1705
ON	-1706
bo	-1707
gn	-1708
vi	-1709
abı	-1710
are	-1711
arj	-1712
ayi	-1713
bar	-1714
cek	-1715
elt	-1716
ill	-1717
lil	-1718
ros	-1719
uyu	-1720
ülü	-1721
▁(3	-1722
▁Et	-1723
▁Is	-1724
▁Ko	-1725
▁Ot	-1726
▁Oy	-1727
▁ap	-1728
▁bl	-1729
▁İz	-1730
angi	-1731
desi	-1732
ekor	-1733
eriğ	-1734
etik	-1735
işir	-1736
umuş	-1737
usal	-1738
uyla	-1739
öpek	-1740
▁Bur	-1741
▁CNC	-1742
▁Dok	-1743
▁Kab	-1744
▁Mal	-1745
▁Taş	-1746
▁adı	-1747
▁bin	-1748
▁düğ	-1749
▁gid	-1750
▁hiç	-1751
▁koy	-1752
▁koş	-1753
▁kız	-1754
▁pay	-1755
▁söy	-1756
▁teş	-1757
▁Çok	-1758
ekten	-1759
lenme	-1760
üştür	-1761
ınıza	-1762
▁Uygu	-1763
▁alın	-1764
▁ağır	-1765
▁grub	-1766
▁ilaç	-1767
▁izin	-1768
▁kart	-1769
▁kasa	-1770
▁pomp	-1771
▁ısıt	-1772
enerat	-1773
ileceğ	-1774
inizin	-1775
likler	-1776
masına	-1777
ınızın	-1778
▁Bunun	-1779
▁Büyük	-1780
▁Mobil	-1781
▁Yönet	-1782
▁düşün	-1783
▁işlet	-1784
▁motor	-1785
▁yarat	-1786
▁yemek	-1787
izasyon	-1788
▁Avrupa	-1789
▁edilir	-1790
▁içeriğ	-1791
▁yaklaş	-1792
▁hizmeti	-1793
▁ihtiyac	-1794
▁Otomatik	-1795
▁değildir	-1796
▁Paslanmaz	-1797
▁geliştirme	-1798
▁genellikle	-1799
10	-1800
EM	-1801
LI	-1802
cü	-1803
öm	-1804
üb	-1805
ıv	-1806
and	-1807
ino	-1808
mam	-1809
nın	-1810
onu	-1811
orb	-1812
tor	-1813
val	-1814
ört	-1815
ınç	-1816
▁Ad	-1817
▁No	-1818
▁Ro	-1819
▁ki	-1820
▁li	-1821
▁ün	-1822
adaş	-1823
alaj	-1824
alim	-1825
anel	-1826
atif	-1827
ayla	-1828
erin	-1829
imdi	-1830
itik	-1831
lant	-1832
ubuk	-1833
ulan	-1834
ünkü	-1835
ırım	-1836
▁Boy	-1837
▁Düş	-1838
▁Pol	-1839
▁Tip	-1840
▁Yar	-1841
▁ait	-1842
▁kaf	-1843
▁kol	-1844
▁mey	-1845
▁mim	-1846
▁num	-1847
▁pat	-1848
▁rek	-1849
▁sak	-1850
▁sin	-1851
engin	-1852
istik	-1853
yasal	-1854
▁Gıda	-1855
▁Live	-1856
▁adım	-1857
▁gıda	-1858
▁ucuz	-1859
▁veri	-1860
alarda	-1861
elerin	-1862
ijital	-1863
isayar	-1864
isinin	-1865
▁Beyaz	-1866
▁Sıcak	-1867
▁kadın	-1868
▁kanal	-1869
▁olduk	-1870
▁uzman	-1871
▁yapar	-1872
▁yatak	-1873
▁Çalış	-1874
▁Çocuk	-1875
▁şehir	-1876
lenmesi	-1877
▁etkili	-1878
larından	-1879
▁Sistemi	-1880
▁anahtar	-1881
▁kristal	-1882
▁odaları	-1883
▁plastik	-1884
▁Konuklar	-1885
▁mevcuttur	-1886
▁uzaklıkta	-1887
▁kullanarak	-1888
▁gerçekleştir	-1889
),	-1890
12	-1891
65	-1892
7)	-1893
EK	-1894
ST	-1895
bi	-1896
ni	-1897
ri	-1898
ts	-1899
ğü	-1900
aal	-1901
ady	-1902
ank	-1903
bet	-1904
emi	-1905
erç	-1906
ice	-1907
itn	-1908
rak	-1909
tür	-1910
umu	-1911
yan	-1912
üsü	-1913
▁11	-1914
▁13	-1915
▁17	-1916
▁AB	-1917
▁Bö	-1918
▁Es	-1919
▁TV	-1920
▁am	-1921
▁re	-1922
edef	-1923
edek	-1924
efer	-1925
elen	-1926
hone	-1927
osya	-1928
ünde	-1929
ıntı	-1930
▁100	-1931
▁Cam	-1932
▁Diş	-1933
▁GPS	-1934
▁Mad	-1935
▁Sağ	-1936
▁Sür	-1937
▁The	-1938
▁dep	-1939
▁fay	-1940
▁giz	-1941
▁küv	-1942
▁pak	-1943
▁tav	-1944
▁tur	-1945
▁ütü	-1946
erede	-1947
erken	-1948
istan	-1949
ormal	-1950
▁Parç	-1951
▁boru	-1952
▁park	-1953
▁sert	-1954
▁sonr	-1955
▁tanı	-1956
▁çoğu	-1957
dığını	-1958
laması	-1959
layıcı	-1960
opüler	-1961
▁Genel	-1962
▁Güven	-1963
▁dolay	-1964
▁engel	-1965
▁esnek	-1966
▁giriş	-1967
▁güneş	-1968
▁mekan	-1969
aaliyet	-1970
lanması	-1971
▁derece	-1972
▁koruma	-1973
▁sosyal	-1974
▁yaygın	-1975
▁böylece	-1976
▁kullanı	-1977
▁veriler	-1978
▁ziyaret	-1979
abilirler	-1980
▁bağlantı	-1981
▁güvenlik	-1982
▁İstanbul	-1983
▁üreticisi	-1984
▁edilmiştir	-1985
▁hizmetleri	-1986
İM	-1987
bin	-1988
hal	-1989
ian	-1990
int	-1991
iyi	-1992
ogr	-1993
sun	-1994
tiv	-1995
ırı	-1996
▁14	-1997
▁16	-1998
▁50	-1999
▁Bo	-2000
▁CO	-2001
▁Em	-2002
▁Ex	-2003
▁HD	-2004
▁Pe	-2005
adan	-2006
ason	-2007
atör	-2008
diği	-2009
edik	-2010
emin	-2011
erry	-2012
form	-2013
şeme	-2014
▁Bak	-2015
▁Car	-2016
▁Gir	-2017
▁Kol	-2018
▁Mak	-2019
▁Sit	-2020
▁Tel	-2021
▁inç	-2022
▁lez	-2023
▁tal	-2024
▁çev	-2025
▁İyi	-2026
erçev	-2027
lanma	-2028
rafik	-2029
sınız	-2030
yanın	-2031
▁Bilg	-2032
▁Ucuz	-2033
▁adet	-2034
▁asit	-2035
▁dair	-2036
▁edil	-2037
▁eriş	-2038
▁genç	-2039
▁prot	-2040
▁yetk	-2041
▁Çift	-2042
miştir	-2043
mıştır	-2044
▁Görün	-2045
▁Model	-2046
▁Video	-2047
▁araba	-2048
▁aracı	-2049
▁başla	-2050
▁benim	-2051
▁bileş	-2052
▁duvar	-2053
▁düzey	-2054
▁görev	-2055
▁koşul	-2056
▁seviy	-2057
▁sorun	-2058
▁süreç	-2059
▁sürüm	-2060
▁vücut	-2061
▁Amerik	-2062
▁benzer	-2063
▁erişim	-2064
▁içerik	-2065
▁içerir	-2066
▁manzar	-2067
▁teknik	-2068
alarının	-2069
ediğiniz	-2070
▁Antalya	-2071
▁Jenerat	-2072
▁Kişisel	-2073
▁Merkezi	-2074
▁Tasarım	-2075
▁yeniden	-2076
▁Elektrik	-2077
▁Gizlilik	-2078
▁apartman	-2079
▁tedavisi	-2080
▁Havaalanı	-2081
▁araştırma	-2082
▁dakikalık	-2083
▁gerçekten	-2084
▁sayesinde	-2085
▁elektrikli	-2086
▁müşteriler	-2087
▁oluşturmak	-2088
▁Tedarikçiler	-2089
-0	-2090
AP	-2091
uc	-2092
ıb	-2093
ıf	-2094
ech	-2095
fen	-2096
irt	-2097
iss	-2098
itr	-2099
kür	-2100
oks	-2101
sim	-2102
tak	-2103
şap	-2104
▁40	-2105
▁Be	-2106
▁IP	-2107
▁LC	-2108
▁Ma	-2109
▁kö	-2110
▁kı	-2111
▁mu	-2112
▁Ör	-2113
egor	-2114
hrac	-2115
luğu	-2116
lüğü	-2117
uluk	-2118
umuz	-2119
yalı	-2120
üküm	-2121
ımlı	-2122
▁Ger	-2123
▁New	-2124
▁Tam	-2125
▁ayr	-2126
▁boş	-2127
▁det	-2128
▁enf	-2129
▁gar	-2130
▁kit	-2131
▁lam	-2132
▁sın	-2133
▁tat	-2134
▁yal	-2135
▁yel	-2136
ayıcı	-2137
isans	-2138
leyin	-2139
ronik	-2140
unuzu	-2141
ıkama	-2142
▁Arab	-2143
▁Boru	-2144
▁Turk	-2145
▁Uzun	-2146
▁alır	-2147
▁anda	-2148
▁ayrı	-2149
▁emin	-2150
▁form	-2151
▁fren	-2152
▁olun	-2153
▁terc	-2154
▁İçin	-2155
etleme	-2156
ilikon	-2157
lerden	-2158
onomik	-2159
▁Düşük	-2160
▁Küçük	-2161
▁Makin	-2162
▁aktar	-2163
▁bizim	-2164
▁eğlen	-2165
▁kalit	-2166
▁karar	-2167
▁medya	-2168
▁model	-2169
▁seçen	-2170
▁tesis	-2171
▁yaşam	-2172
▁çiçek	-2173
eksiyon	-2174
▁Eğitim	-2175
▁Kaynak	-2176
▁Kızlar	-2177
▁dikkat	-2178
▁döşeme	-2179
▁işaret	-2180
▁teslim	-2181
▁yerine	-2182
dınlatma	-2183
ıştırıcı	-2184
▁Yazılım	-2185
▁biridir	-2186
▁fabrika	-2187
▁istiyor	-2188
▁kaplama	-2189
▁kurutma	-2190
▁malzeme	-2191
▁seçenek	-2192
▁sürekli	-2193
▁çalışır	-2194
lanmıştır	-2195
▁dönüştür	-2196
▁faaliyet	-2197
ezervasyon	-2198
ilmektedir	-2199
▁Parçaları	-2200
▁fonksiyon	-2201
▁konusunda	-2202
▁kullanmak	-2203
▁sunmaktadır	-2204
▁özellikleri	-2205
2)	-2206
99	-2207
OL	-2208
OR	-2209
do	-2210
ou	-2211
▁Q	-2212
▁x	-2213
ARI	-2214
LER	-2215
ein	-2216
ele	-2217
ene	-2218
ink	-2219
ish	-2220
lav	-2221
nız	-2222
ola	-2223
ord	-2224
ows	-2225
ree	-2226
uar	-2227
urg	-2228
▁DV	-2229
▁Da	-2230
▁Ol	-2231
▁iP	-2232
▁un	-2233
▁ıs	-2234
alet	-2235
anta	-2236
etli	-2237
eşil	-2238
izik	-2239
kanı	-2240
mızı	-2241
orat	-2242
tığı	-2243
ıldı	-2244
▁Bağ	-2245
▁CAS	-2246
▁Ded	-2247
▁Dön	-2248
▁Düz	-2249
▁Gal	-2250
▁Kam	-2251
▁Kim	-2252
▁Mer	-2253
▁Str	-2254
▁Val	-2255
▁Yan	-2256
▁boz	-2257
▁des	-2258
▁ett	-2259
▁kel	-2260
▁kök	-2261
▁pil	-2262
▁İlk	-2263
akter	-2264
alara	-2265
ansör	-2266
arken	-2267
iklet	-2268
iğini	-2269
madan	-2270
mamız	-2271
meler	-2272
ortum	-2273
ukarı	-2274
uyucu	-2275
ınızı	-2276
▁Etik	-2277
▁Park	-2278
▁Term	-2279
▁anti	-2280
▁dört	-2281
▁etik	-2282
▁eğit	-2283
▁komp	-2284
akkabı	-2285
hracat	-2286
itness	-2287
iğimiz	-2288
muştur	-2289
ıyoruz	-2290
▁adres	-2291
▁basit	-2292
▁bütün	-2293
▁büyüm	-2294
▁derec	-2295
▁dönüş	-2296
▁hangi	-2297
▁harik	-2298
▁hesab	-2299
▁kayıt	-2300
▁korum	-2301
▁mimar	-2302
▁pazar	-2303
▁resmi	-2304
▁Çiçek	-2305
alarını	-2306
ektörün	-2307
larınız	-2308
▁Kalite	-2309
▁Karbon	-2310
▁akıllı	-2311
▁başarı	-2312
▁enerji	-2313
▁hassas	-2314
▁hayvan	-2315
▁iyileş	-2316
▁küveti	-2317
▁montaj	-2318
▁paylaş	-2319
▁arkadaş	-2320
▁maliyet	-2321
▁minibar	-2322
▁sunuyor	-2323
▁yürüyüş	-2324
▁Standart	-2325
▁dakikada	-2326
▁hastalık	-2327
▁hidrolik	-2328
▁nedeniyle	-2329
▁yerleştir	-2330
▁üzerinden	-2331
▁apartmanları	-2332
▁uluslararası	-2333
-4	-2334
8)	-2335
AT	-2336
ME	-2337
dü	-2338
fa	-2339
yl	-2340
erl	-2341
ile	-2342
inç	-2343
ise	-2344
lif	-2345
lor	-2346
mem	-2347
ner	-2348
rum	-2349
teg	-2350
tığ	-2351
uge	-2352
üne	-2353
▁Ac	-2354
▁Mü	-2355
▁PC	-2356
▁Sa	-2357
▁eg	-2358
▁it	-2359
▁şu	-2360
ayın	-2361
best	-2362
deal	-2363
eyin	-2364
oran	-2365
ümüz	-2366
üncü	-2367
ünüz	-2368
ışın	-2369
▁199	-2370
▁Alt	-2371
▁Amb	-2372
▁Değ	-2373
▁Dün	-2374
▁Ist	-2375
▁Isı	-2376
▁Pir	-2377
▁Say	-2378
▁Tal	-2379
▁Tes	-2380
▁Tüp	-2381
▁Yat	-2382
▁Yıl	-2383
▁baz	-2384
▁biç	-2385
▁dam	-2386
▁din	-2387
▁döv	-2388
▁gaz	-2389
▁hız	-2390
▁sab	-2391
▁sap	-2392
▁tad	-2393
giliz	-2394
imize	-2395
lenir	-2396
lıyor	-2397
neğin	-2398
otans	-2399
ugeot	-2400
▁Bazı	-2401
▁Geri	-2402
▁Kapı	-2403
▁Otom	-2404
▁Prof	-2405
▁Ultr	-2406
▁ayak	-2407
▁cilt	-2408
▁kapı	-2409
▁katı	-2410
▁masa	-2411
▁odak	-2412
▁onay	-2413
▁tipi	-2414
▁önde	-2415
▁öner	-2416
ilecek	-2417
iyoruz	-2418
ıcılar	-2419
▁Beach	-2420
▁alerj	-2421
▁biraz	-2422
▁dokun	-2423
▁gelir	-2424
▁hayat	-2425
▁hedef	-2426
▁hemen	-2427
▁kahve	-2428
▁odası	-2429
▁parça	-2430
▁pişir	-2431
▁sizin	-2432
▁takım	-2433
▁türlü	-2434
▁yapan	-2435
▁yedek	-2436
▁yerde	-2437
▁yorum	-2438
▁çünkü	-2439
alimanı	-2440
dığında	-2441
larıyla	-2442
latform	-2443
leriyle	-2444
ozisyon	-2445
ısından	-2446
▁Basınç	-2447
▁Hassas	-2448
▁Mutfak	-2449
▁Sosyal	-2450
▁bildir	-2451
▁dolayı	-2452
▁hortum	-2453
▁kapsam	-2454
▁makine	-2455
▁mutfak	-2456
▁nerede	-2457
▁sayıda	-2458
▁sayısı	-2459
▁süresi	-2460
▁tercih	-2461
▁yerleş	-2462
▁zengin	-2463
ektronik	-2464
▁Endüstr	-2465
▁Müşteri	-2466
▁Peugeot	-2467
▁ihracat	-2468
▁müşteri	-2469
▁soğutma	-2470
▁Açıklama	-2471
▁gereksin	-2472
▁gerektir	-2473
▁sektörün	-2474
▁sıcaklık	-2475
▁Alüminyum	-2476
▁güvenilir	-2477
▁parçaları	-2478
▁değerlendir	-2479
.4	-2480
1)	-2481
5)	-2482
70	-2483
AC	-2484
AD	-2485
Fi	-2486
OS	-2487
sh	-2488
ux	-2489
uğ	-2490
yı	-2491
İN	-2492
▁)	-2493
alt	-2494
arb	-2495
bol	-2496
bot	-2497
dik	-2498
etr	-2499
ezi	-2500
gıç	-2501
har	-2502
izm	-2503
laj	-2504
lış	-2505
nin	-2506
oji	-2507
osk	-2508
osu	-2509
paz	-2510
tım	-2511
ıvı	-2512
▁22	-2513
▁Fr	-2514
▁Go	-2515
▁Wh	-2516
▁Wi	-2517
▁av	-2518
....	-2519
emir	-2520
erez	-2521
hend	-2522
ilme	-2523
ivil	-2524
manı	-2525
resi	-2526
ress	-2527
taki	-2528
tern	-2529
tion	-2530
ümüş	-2531
▁Adı	-2532
▁Ana	-2533
▁Bah	-2534
▁Bay	-2535
▁Cen	-2536
▁Dev	-2537
▁Dur	-2538
▁Dış	-2539
▁Eur	-2540
▁Hat	-2541
▁Kır	-2542
▁LCD	-2543
▁Mah	-2544
▁Off	-2545
▁Soğ	-2546
▁Tic	-2547
▁buz	-2548
▁dav	-2549
▁hüc	-2550
▁kaç	-2551
▁kok	-2552
▁rağ	-2553
▁şif	-2554
aklar	-2555
deniz	-2556
ediye	-2557
encer	-2558
isine	-2559
mayın	-2560
menin	-2561
nızca	-2562
posta	-2563
seniz	-2564
tifik	-2565
uştur	-2566
▁Lamb	-2567
▁Oyun	-2568
▁Pomp	-2569
▁Rady	-2570
▁amaç	-2571
▁aras	-2572
▁film	-2573
▁kork	-2574
▁onun	-2575
▁otom	-2576
▁spor	-2577
▁yüks	-2578
▁ölçü	-2579
▁şart	-2580
ebilen	-2581
indows	-2582
iyorum	-2583
▁Araba	-2584
▁Diğer	-2585
▁Fiber	-2586
▁Filtr	-2587
▁Fiyat	-2588
▁Stand	-2589
▁anlaş	-2590
▁balat	-2591
▁bebek	-2592
▁beyaz	-2593
▁döküm	-2594
▁eksik	-2595
▁filtr	-2596
▁fırın	-2597
▁hesap	-2598
▁hüküm	-2599
▁kablo	-2600
▁lazer	-2601
▁maden	-2602
▁mesaj	-2603
▁olsun	-2604
▁pompa	-2605
▁tanım	-2606
▁testi	-2607
▁trans	-2608
▁yayın	-2609
▁yumuş	-2610
▁öğret	-2611
ecektir	-2612
▁Alanya	-2613
▁Servis	-2614
▁rağmen	-2615
▁sözleş	-2616
▁tekrar	-2617
▁Silikon	-2618
▁asansör	-2619
▁belirli	-2620
▁düzenli	-2621
▁gereken	-2622
▁yanında	-2623
▁yeterli	-2624
ekorasyon	-2625
otansiyel	-2626
▁Ayakkabı	-2627
▁Uygulama	-2628
▁geçirmez	-2629
▁şehrinde	-2630
▁Tedarikçi	-2631
▁dayanıklı	-2632
▁kullanımı	-2633
▁paslanmaz	-2634
▁teknoloji	-2635
▁almaktadır	-2636
▁balataları	-2637
▁etmektedir	-2638
-5	-2639
3)	-2640
80	-2641
DF	-2642
IS	-2643
PE	-2644
ww	-2645
öv	-2646
üf	-2647
İT	-2648
201	-2649
abl	-2650
arp	-2651
ary	-2652
auç	-2653
can	-2654
det	-2655
düğ	-2656
eff	-2657
ept	-2658
gen	-2659
ger	-2660
kal	-2661
kek	-2662
ker	-2663
kes	-2664
lum	-2665
lus	-2666
min	-2667
oft	-2668
raz	-2669
sat	-2670
sit	-2671
ulo	-2672
ult	-2673
use	-2674
ıma	-2675
▁21	-2676
▁AC	-2677
▁Ab	-2678
▁Dr	-2679
▁Op	-2680
▁US	-2681
▁to	-2682
▁Öğ	-2683
▁öm	-2684
abol	-2685
arit	-2686
ariş	-2687
atik	-2688
ayıf	-2689
emik	-2690
erit	-2691
ilim	-2692
opar	-2693
siye	-2694
umaş	-2695
vuru	-2696
ünün	-2697
ırak	-2698
▁Den	-2699
▁Der	-2700
▁Kan	-2701
▁Kem	-2702
▁Kes	-2703
▁Kit	-2704
▁Lev	-2705
▁Mac	-2706
▁Man	-2707
▁Mat	-2708
▁Mon	-2709
▁Oda	-2710
▁Pak	-2711
▁Sal	-2712
▁Yak	-2713
▁Yüz	-2714
▁ada	-2715
▁doz	-2716
▁for	-2717
▁hak	-2718
▁min	-2719
▁nit	-2720
▁pek	-2721
▁pür	-2722
▁seb	-2723
▁sek	-2724
▁sey	-2725
▁yen	-2726
▁çay	-2727
▁Şiş	-2728
ation	-2729
auçuk	-2730
elere	-2731
ement	-2732
erler	-2733
hotel	-2734
lenen	-2735
leyen	-2736
tarma	-2737
veriş	-2738
▁2016	-2739
▁Alaş	-2740
▁Ayak	-2741
▁Host	-2742
▁Kayı	-2743
▁Malz	-2744
▁Veri	-2745
▁ayır	-2746
▁beri	-2747
▁bilm	-2748
▁eski	-2749
▁etki	-2750
▁imal	-2751
▁kişi	-2752
▁seks	-2753
▁ster	-2754
▁tarz	-2755
▁tren	-2756
▁uyum	-2757
▁ödem	-2758
ipariş	-2759
iğinde	-2760
liğini	-2761
ulması	-2762
▁Apart	-2763
▁Aşağı	-2764
▁Bebek	-2765
▁Erkek	-2766
▁aktiv	-2767
▁amacı	-2768
▁etkil	-2769
▁gider	-2770
▁grubu	-2771
▁kesin	-2772
▁konuş	-2773
▁mobil	-2774
▁olası	-2775
▁sahne	-2776
▁talep	-2777
▁yarar	-2778
▁yarış	-2779
▁yavaş	-2780
▁ödeme	-2781
avantaj	-2782
isiklet	-2783
uvarlak	-2784
▁Destek	-2785
▁Teknik	-2786
▁Turkey	-2787
▁garant	-2788
▁hiçbir	-2789
▁kaldır	-2790
▁lisans	-2791
▁ticari	-2792
▁toptan	-2793
▁yelpaz	-2794
▁üçüncü	-2795
elerinde	-2796
ılmıştır	-2797
▁Ambalaj	-2798
▁Görüntü	-2799
▁değişik	-2800
▁kuruluş	-2801
▁oldukça	-2802
▁olmadan	-2803
▁sorumlu	-2804
▁yapılır	-2805
▁yönetim	-2806
▁İngiliz	-2807
layabilir	-2808
▁alanında	-2809
▁anlamına	-2810
▁arabayla	-2811
▁başarılı	-2812
▁ekonomik	-2813
▁iletişim	-2814
▁numarası	-2815
▁platform	-2816
▁yalnızca	-2817
▁aşağıdaki	-2818
▁iyileştir	-2819
▁olmalıdır	-2820
▁Havalimanı	-2821
▁Jeneratörü	-2822
▁bilgisayar	-2823
▁mesafesinde	-2824
▁Üniversiteli	-2825
▁sunulmaktadır	-2826
.2	-2827
11	-2828
16	-2829
32	-2830
4)	-2831
AY	-2832
IA	-2833
OT	-2834
PC	-2835
RO	-2836
ew	-2837
fi	-2838
gü	-2839
io	-2840
ji	-2841
ars	-2842
gin	-2843
ial	-2844
laç	-2845
lev	-2846
lot	-2847
lüt	-2848
mos	-2849
olf	-2850
out	-2851
ova	-2852
par	-2853
rom	-2854
ser	-2855
uel	-2856
uğu	-2857
yaf	-2858
▁Ah	-2859
▁Bl	-2860
▁Ge	-2861
▁ce	-2862
▁ef	-2863
▁ey	-2864
▁id	-2865
▁ip	-2866
▁uç	-2867
▁üy	-2868
▁İs	-2869
adın	-2870
amız	-2871
apon	-2872
apor	-2873
ator	-2874
cort	-2875
illa	-2876
inci	-2877
kara	-2878
lenm	-2879
ojen	-2880
otos	-2881
ozit	-2882
sten	-2883
stil	-2884
ömür	-2885
ülat	-2886
üstü	-2887
ıtma	-2888
▁Bul	-2889
▁Cas	-2890
▁Cih	-2891
▁Con	-2892
▁Gaz	-2893
▁Geç	-2894
▁Haf	-2895
▁Hay	-2896
▁Nok	-2897
▁Pet	-2898
▁Sep	-2899
▁Sev	-2900
▁Tat	-2901
▁Ter	-2902
▁erk	-2903
▁içi	-2904
▁kez	-2905
▁kli	-2906
▁lüt	-2907
▁mağ	-2908
▁onu	-2909
▁raf	-2910
▁sig	-2911
▁str	-2912
▁tuv	-2913
▁Üst	-2914
▁çağ	-2915
dolab	-2916
edeni	-2917
effaf	-2918
lanık	-2919
losuz	-2920
lıkla	-2921
oparl	-2922
simum	-2923
sunuz	-2924
ultan	-2925
ışman	-2926
▁Araç	-2927
▁Ağır	-2928
▁Genç	-2929
▁Seks	-2930
▁Spor	-2931
▁alma	-2932
▁alış	-2933
▁anal	-2934
▁arka	-2935
▁bize	-2936
▁bunu	-2937
▁doku	-2938
▁doğr	-2939
▁geld	-2940
▁grup	-2941
▁gücü	-2942
▁kuru	-2943
▁serv	-2944
▁uyar	-2945
▁verm	-2946
▁yolu	-2947
▁şabl	-2948
▁şarj	-2949
aciğer	-2950
asının	-2951
ayılan	-2952
elerde	-2953
hendis	-2954
maları	-2955
olojik	-2956
örleri	-2957
▁Boyut	-2958
▁Geniş	-2959
▁Kadın	-2960
▁Kayıt	-2961
▁Siyah	-2962
▁Trans	-2963
▁birey	-2964
▁dağıt	-2965
▁geçiş	-2966
▁görüş	-2967
▁hasta	-2968
▁ideal	-2969
▁içine	-2970
▁işbir	-2971
▁kamer	-2972
▁kağıt	-2973
▁kurum	-2974
▁seçim	-2975
▁sivil	-2976
▁siyah	-2977
▁tarım	-2978
▁taşıy	-2979
▁örnek	-2980
▁İnsan	-2981
▁şimdi	-2982
acaktır	-2983
asından	-2984
diğiniz	-2985
elerini	-2986
layarak	-2987
ungsten	-2988
▁Birleş	-2989
▁Fabrik	-2990
▁Online	-2991
▁Renkli	-2992
▁Sandal	-2993
▁arttır	-2994
▁düzelt	-2995
▁escort	-2996
▁gerekt	-2997
▁haline	-2998
▁inşaat	-2999
▁işlemi	-3000
▁lütfen	-3001
▁online	-3002
▁oturma	-3003
▁reklam	-3004
▁sürücü	-3005
▁tutmak	-3006
▁yukarı	-3007
▁ölçüde	-3008
▁ısıtma	-3009
larınızı	-3010
▁Kontrol	-3011
▁Oteller	-3012
▁Windows	-3013
▁deneyim	-3014
▁durumda	-3015
▁eğitimi	-3016
▁geçerli	-3017
▁kişilik	-3018
▁otelden	-3019
▁popüler	-3020
▁ticaret	-3021
▁yetenek	-3022
▁Güvenlik	-3023
▁Istanbul	-3024
▁Kaliteli	-3025
▁Makinası	-3026
▁Silindir	-3027
▁buzdolab	-3028
▁edebilir	-3029
▁gösterir	-3030
▁kaldırma	-3031
▁kontrolü	-3032
▁kullanır	-3033
▁parçalar	-3034
▁sağlayan	-3035
▁sağlıklı	-3036
▁tıklayın	-3037
▁yaklaşık	-3038
▁yılından	-3039
▁alüminyum	-3040
▁açısından	-3041
▁durumunda	-3042
▁arasındaki	-3043
▁çalışmalar	-3044
▁Endüstriyel	-3045
▁Taşınabilir	-3046
▁Uluslararası	-3047
▁Üniversitesi	-3048
,5	-3049
04	-3050
35	-3051
54	-3052
AK	-3053
EC	-3054
IM	-3055
KU	-3056
SS	-3057
UN	-3058
ex	-3059
ml	-3060
oh	-3061
ym	-3062
İK	-3063
İR	-3064
ame	-3065
biy	-3066
div	-3067
enz	-3068
enç	-3069
ima	-3070
jik	-3071
lağ	-3072
lec	-3073
lex	-3074
mal	-3075
mar	-3076
mer	-3077
müş	-3078
nun	-3079
off	-3080
oin	-3081
pit	-3082
ref	-3083
rey	-3084
rip	-3085
sen	-3086
ses	-3087
ton	-3088
ube	-3089
udi	-3090
ure	-3091
urt	-3092
▁AN	-3093
▁Ed	-3094
▁Gö	-3095
▁Mu	-3096
▁ab	-3097
▁ac	-3098
.000	-3099
aten	-3100
burg	-3101
emek	-3102
ence	-3103
eton	-3104
glas	-3105
iğin	-3106
keri	-3107
okak	-3108
olar	-3109
olum	-3110
onel	-3111
ptop	-3112
rama	-3113
ustr	-3114
ıfır	-3115
▁App	-3116
▁Art	-3117
▁But	-3118
▁Cor	-3119
▁Dan	-3120
▁Döv	-3121
▁Fot	-3122
▁Hal	-3123
▁Kah	-3124
▁Led	-3125
▁May	-3126
▁Mic	-3127
▁PDF	-3128
▁Pay	-3129
▁Raf	-3130
▁Sab	-3131
▁Yaz	-3132
▁Yağ	-3133
▁Yer	-3134
▁amb	-3135
▁diz	-3136
▁gez	-3137
▁key	-3138
▁köp	-3139
▁kıl	-3140
▁lev	-3141
▁mac	-3142
▁mar	-3143
▁muk	-3144
▁mut	-3145
▁sen	-3146
▁soy	-3147
▁tep	-3148
▁ton	-3149
▁tüp	-3150
▁vak	-3151
▁www	-3152
▁Çek	-3153
▁çiz	-3154
▁Şek	-3155
▁şiş	-3156
▁şüp	-3157
Harit	-3158
acker	-3159
ağıdı	-3160
eketi	-3161
esign	-3162
ganik	-3163
isini	-3164
kiler	-3165
linik	-3166
lıklı	-3167
meniz	-3168
metik	-3169
odrum	-3170
sijen	-3171
yacak	-3172
▁2017	-3173
▁Anti	-3174
▁Bölg	-3175
▁City	-3176
▁Euro	-3177
▁Grup	-3178
▁Orta	-3179
▁Tipi	-3180
▁alaş	-3181
▁blog	-3182
▁dost	-3183
▁eden	-3184
▁hale	-3185
▁hiss	-3186
▁kamu	-3187
▁klas	-3188
▁kısa	-3189
▁kısm	-3190
▁lezz	-3191
▁lüks	-3192
▁madd	-3193
▁mavi	-3194
▁olab	-3195
▁olac	-3196
▁oldu	-3197
▁oper	-3198
▁pant	-3199
▁plak	-3200
▁prob	-3201
▁pros	-3202
▁risk	-3203
▁yazı	-3204
▁Çevr	-3205
▁İkin	-3206
amalar	-3207
enleri	-3208
eribot	-3209
ijinal	-3210
imizin	-3211
isidir	-3212
liliği	-3213
meleri	-3214
ınızda	-3215
▁Doğal	-3216
▁Duvar	-3217
▁Giriş	-3218
▁Güneş	-3219
▁Hızlı	-3220
▁Panel	-3221
▁artış	-3222
▁bilet	-3223
▁bilin	-3224
▁bunun	-3225
▁bırak	-3226
▁delik	-3227
▁derin	-3228
▁dosya	-3229
▁dönem	-3230
▁erkek	-3231
▁havuz	-3232
▁hayal	-3233
▁iklim	-3234
▁incel	-3235
▁kalıp	-3236
▁karma	-3237
▁köpek	-3238
▁monit	-3239
▁sanat	-3240
▁sınır	-3241
▁taban	-3242
▁veren	-3243
▁verim	-3244
▁verir	-3245
▁vücud	-3246
▁zarar	-3247
▁Çubuk	-3248
▁çerez	-3249
▁İşlem	-3250
▁şerit	-3251
iziksel	-3252
likleri	-3253
oparlör	-3254
ozmetik	-3255
▁Bildir	-3256
▁Kauçuk	-3257
▁Lastik	-3258
▁Serisi	-3259
▁Sultan	-3260
▁alacak	-3261
▁eğlenc	-3262
▁günlük	-3263
▁harika	-3264
▁herkes	-3265
▁işleme	-3266
▁kimlik	-3267
▁konfor	-3268
▁laptop	-3269
▁normal	-3270
▁sahibi	-3271
▁sektör	-3272
▁tespit	-3273
▁toprak	-3274
▁yanlış	-3275
▁yoktur	-3276
Haritayı	-3277
abilecek	-3278
ebileceğ	-3279
esindeki	-3280
lamaları	-3281
lerinizi	-3282
▁Amerika	-3283
▁Anahtar	-3284
▁Dijital	-3285
▁Fitness	-3286
▁Kategor	-3287
▁Mobilya	-3288
▁bunları	-3289
▁görünüm	-3290
▁güvenli	-3291
▁kaynağı	-3292
▁kolayca	-3293
▁kurulum	-3294
▁serbest	-3295
▁yatırım	-3296
▁zorunda	-3297
▁Üretici	-3298
▁çapında	-3299
▁Kimyasal	-3300
▁banyolar	-3301
▁etkileri	-3302
▁karakter	-3303
▁programı	-3304
▁seçeneği	-3305
▁tarayıcı	-3306
▁tasarımı	-3307
▁tedarikç	-3308
▁verileri	-3309
▁çalışmak	-3310
▁üretilen	-3311
▁benzersiz	-3312
▁birleştir	-3313
▁gerekiyor	-3314
▁oluşturur	-3315
▁ürünlerin	-3316
▁hassasiyet	-3317
▁odalarında	-3318
▁potansiyel	-3319
▁özellikler	-3320
▁taşınabilir	-3321
▁üreticileri	-3322
▁sağlamaktadır	-3323
1,	-3324
25	-3325
6)	-3326
AM	-3327
BA	-3328
LE	-3329
TD	-3330
US	-3331
dl	-3332
ks	-3333
ry	-3334
ENİ	-3335
ade	-3336
ane	-3337
app	-3338
ata	-3339
avi	-3340
ber	-3341
dll	-3342
dra	-3343
ebo	-3344
eci	-3345
ect	-3346
ena	-3347
ert	-3348
eğe	-3349
fat	-3350
ick	-3351
ith	-3352
kil	-3353
kın	-3354
lap	-3355
lob	-3356
ock	-3357
oda	-3358
ool	-3359
rop	-3360
ruf	-3361
son	-3362
tin	-3363
tör	-3364
uşu	-3365
yap	-3366
yse	-3367
üny	-3368
ığı	-3369
▁(5	-3370
▁3.	-3371
▁45	-3372
▁Di	-3373
▁GT	-3374
▁PE	-3375
▁PP	-3376
▁Pi	-3377
▁SA	-3378
▁ah	-3379
▁Üc	-3380
-100	-3381
acağ	-3382
agaj	-3383
alya	-3384
alığ	-3385
anım	-3386
coin	-3387
dana	-3388
duğu	-3389
ediy	-3390
emel	-3391
emez	-3392
epçe	-3393
etre	-3394
ibar	-3395
irli	-3396
iyon	-3397
kürt	-3398
oliz	-3399
olog	-3400
rist	-3401
tada	-3402
tain	-3403
tası	-3404
tere	-3405
uluğ	-3406
ıbbi	-3407
ırma	-3408
ıyla	-3409
▁Ark	-3410
▁Col	-3411
▁DVD	-3412
▁Diz	-3413
▁Don	-3414
▁Düğ	-3415
▁Gar	-3416
▁Göz	-3417
▁Ham	-3418
▁Kas	-3419
▁Kaz	-3420
▁Kil	-3421
▁Kul	-3422
▁Lab	-3423
▁Lim	-3424
▁Mes	-3425
▁Mil	-3426
▁Net	-3427
▁OEM	-3428
▁Pal	-3429
▁Ray	-3430
▁Rek	-3431
▁Sel	-3432
▁Ses	-3433
▁Söz	-3434
▁Tah	-3435
▁bıç	-3436
▁cev	-3437
▁cin	-3438
▁cüz	-3439
▁evc	-3440
▁fik	-3441
▁kav	-3442
▁kaş	-3443
▁kul	-3444
▁kür	-3445
▁lab	-3446
▁lok	-3447
▁mor	-3448
▁piy	-3449
▁ruh	-3450
▁siz	-3451
▁süp	-3452
▁süs	-3453
▁sız	-3454
▁the	-3455
▁yas	-3456
▁Çap	-3457
▁örn	-3458
▁İlg	-3459
acebo	-3460
cilik	-3461
cılık	-3462
ediği	-3463
ehlik	-3464
enizi	-3465
estiv	-3466
eğine	-3467
iliği	-3468
landı	-3469
luluk	-3470
ograd	-3471
tegre	-3472
ulman	-3473
umsuz	-3474
utucu	-3475
valtı	-3476
ünden	-3477
üzyon	-3478
▁2013	-3479
▁Asit	-3480
▁Goji	-3481
▁Kart	-3482
▁List	-3483
▁Tech	-3484
▁Test	-3485
▁Yapı	-3486
▁aile	-3487
▁amac	-3488
▁ağrı	-3489
▁benz	-3490
▁günü	-3491
▁iddi	-3492
▁olağ	-3493
▁onar	-3494
▁suyu	-3495
▁süre	-3496
▁sıvı	-3497
▁tozu	-3498
▁türü	-3499
▁unut	-3500
▁uzak	-3501
▁İlaç	-3502
asonik	-3503
dıktan	-3504
dından	-3505
emizde	-3506
erince	-3507
igment	-3508
ildiği	-3509
lenmiş	-3510
lığını	-3511
mesine	-3512
üskürt	-3513
▁Berry	-3514
▁Dayan	-3515
▁Dünya	-3516
▁Güzel	-3517
▁Hafif	-3518
▁Hattı	-3519
▁Havuz	-3520
▁Japon	-3521
▁Kemer	-3522
▁Kirov	-3523
▁Köpek	-3524
▁Sınıf	-3525
▁aktif	-3526
▁altın	-3527
▁azalt	-3528
▁aşırı	-3529
▁bakır	-3530
▁balık	-3531
▁basın	-3532
▁bağım	-3533
▁biçim	-3534
▁deniz	-3535
▁detay	-3536
▁efekt	-3537
▁evcil	-3538
▁gümüş	-3539
▁işlev	-3540
▁kalan	-3541
▁kapas	-3542
▁karış	-3543
▁kenar	-3544
▁korun	-3545
▁madde	-3546
▁maruz	-3547
▁masaj	-3548
▁mağaz	-3549
▁meyve	-3550
▁mikro	-3551
▁onlar	-3552
▁optik	-3553
▁soğuk	-3554
▁yapıl	-3555
▁zaten	-3556
▁zayıf	-3557
▁Ücret	-3558
▁çanta	-3559
▁ürünü	-3560
acebook	-3561
aksiyon	-3562
duğunuz	-3563
ebilmek	-3564
elerine	-3565
ersonel	-3566
ilendir	-3567
letleri	-3568
uşturma	-3569
▁Ankara	-3570
▁Burada	-3571
▁Gerçek	-3572
▁Günlük	-3573
▁Kapalı	-3574
▁Müşter	-3575
▁Otelin	-3576
▁bakter	-3577
▁başına	-3578
▁birbir	-3579
▁birden	-3580
▁dalgıç	-3581
▁durumu	-3582
▁edildi	-3583
▁etiket	-3584
▁fırsat	-3585
▁grafik	-3586
▁görmek	-3587
▁iPhone	-3588
▁içeren	-3589
▁kapalı	-3590
▁katman	-3591
▁kombin	-3592
▁nedeni	-3593
▁onları	-3594
▁oyuncu	-3595
▁profil	-3596
▁renkli	-3597
▁sigara	-3598
▁yapısı	-3599
▁Çerçev	-3600
▁şeffaf	-3601
alarımız	-3602
oratuvar	-3603
▁Kırmızı	-3604
▁Politik	-3605
▁Telefon	-3606
▁Tracker	-3607
▁Yönetim	-3608
▁avantaj	-3609
▁ilişkin	-3610
▁isteyen	-3611
▁katılım	-3612
▁korumak	-3613
▁listesi	-3614
▁olumsuz	-3615
▁problem	-3616
▁verilen	-3617
▁verimli	-3618
▁yenilik	-3619
▁üretimi	-3620
lenebilir	-3621
leyebilir	-3622
▁Basınçlı	-3623
▁Kullanım	-3624
▁Mükemmel	-3625
▁Sertifik	-3626
▁Standoff	-3627
▁Terminal	-3628
▁dünyanın	-3629
▁esneklik	-3630
▁gelişmiş	-3631
▁genişlet	-3632
▁insanlar	-3633
▁koruyucu	-3634
▁kullanın	-3635
▁kurtarma	-3636
▁miktarda	-3637
▁pantolon	-3638
▁yoğunluk	-3639
▁özelliği	-3640
▁şehrinin	-3641
▁Dedektörü	-3642
▁Fiberglas	-3643
▁alışveriş	-3644
▁karaciğer	-3645
▁yapabilir	-3646
▁önemlidir	-3647
▁İngilizce	-3648
▁Aydınlatma	-3649
▁Kirovograd	-3650
▁durumlarda	-3651
▁malzemeler	-3652
▁olduğundan	-3653
▁endüstriyel	-3654
▁istediğiniz	-3655
▁uygulamalar	-3656
▁istiyorsanız	-3657
▁uygulamaları	-3658
):	-3659
.:	-3660
84	-3661
AZ	-3662
Ap	-3663
IF	-3664
IL	-3665
IT	-3666
PA	-3667
PN	-3668
TH	-3669
TI	-3670
UL	-3671
fı	-3672
go	-3673
ix	-3674
ku	-3675
ky	-3676
pa	-3677
sm	-3678
ug	-3679
ər	-3680
ESİ	-3681
add	-3682
dar	-3683
ekn	-3684
epe	-3685
ere	-3686
eto	-3687
ezg	-3688
kon	-3689
laz	-3690
lib	-3691
our	-3692
own	-3693
yac	-3694
ült	-3695
şun	-3696
▁2.	-3697
▁26	-3698
▁27	-3699
▁60	-3700
▁DC	-3701
▁Ho	-3702
▁Hy	-3703
▁PL	-3704
▁Ph	-3705
▁RF	-3706
▁SS	-3707
▁Sw	-3708
▁Un	-3709
▁fr	-3710
▁Şu	-3711
abet	-3712
acık	-3713
aken	-3714
akit	-3715
amaş	-3716
arbe	-3717
ates	-3718
avem	-3719
ekiç	-3720
elat	-3721
enci	-3722
erse	-3723
ezik	-3724
iyer	-3725
kesi	-3726
ladı	-3727
lası	-3728
lent	-3729
liye	-3730
meli	-3731
ogle	-3732
otiv	-3733
roup	-3734
taur	-3735
ünür	-3736
ılma	-3737
ınma	-3738
▁120	-3739
▁500	-3740
▁ABD	-3741
▁Böy	-3742
▁Dök	-3743
▁Eyl	-3744
▁Far	-3745
▁Has	-3746
▁Hol	-3747
▁Hız	-3748
▁Kor	-3749
▁Len	-3750
▁Lin	-3751
▁Med	-3752
▁Pan	-3753
▁Por	-3754
▁Sar	-3755
▁Saç	-3756
▁Sch	-3757
▁Sil	-3758
▁Süp	-3759
▁Sık	-3760
▁Van	-3761
▁Vüc	-3762
▁WPC	-3763
▁Yük	-3764
▁and	-3765
▁arz	-3766
▁beb	-3767
▁bon	-3768
▁bor	-3769
▁but	-3770
▁can	-3771
▁cep	-3772
▁del	-3773
▁dol	-3774
▁gem	-3775
▁	-3776
a	-3777
e	-3778
i	-3779
r	-3780
l	-3781
n	-3782
k	-3783
ı	-3784
t	-3785
m	-3786
s	-3787
d	-3788
o	-3789
u	-3790
y	-3791
b	-3792
ü	-3793
z	-3794
v	-3795
ş	-3796
,	-3797
g	-3798
ç	-3799
.	-3800
c	-3801
p	-3802
h	-3803
ğ	-3804
f	-3805
ö	-3806
A	-3807
S	-3808
B	-3809
K	-3810
T	-3811
0	-3812
M	-3813
E	-3814
D	-3815
P	-3816
1	-3817
H	-3818
2	-3819
C	-3820
-	-3821
G	-3822
O	-3823
L	-3824
R	-3825
Y	-3826
j	-3827
İ	-3828
:	-3829
N	-3830
F	-3831
I	-3832
3	-3833
5	-3834
)	-3835
(	-3836
Ç	-3837
4	-3838
V	-3839
'	-3840
U	-3841
6	-3842
w	-3843
9	-3844
8	-3845
7	-3846
W	-3847
Ü	-3848
Ş	-3849
"	-3850
Ö	-3851
x	-3852
Z	-3853
J	-3854
;	-3855
?	-3856
X	-3857
_	-3858
!	-3859
q	-3860
Q	-3861
ə	-3862
о	-3863
â	-3864
ý	-3865
и	-3866
а	-3867
р	-3868
Ğ	-3869
Ý	-3870
к	-3871
е	-3872
Т	-3873
в	-3874
л	-3875
с	-3876
т	-3877
н	-3878
я	-3879
ä	-3880
é	-3881
í	-3882
м	-3883
α	-3884
ν	-3885
Р	-3886
б	-3887
д	-3888
п	-3889
у	-3890
ь	-3891
ر	-3892
Â	-3893
Ð	-3894
æ	-3895
ê	-3896
ð	-3897
þ	-3898
Ə	-3899
ι	-3900
λ	-3901
В	-3902
й	-3903
א	-3904
י	-3905
ר	-3906
ت	-3907
ی	-3908
ộ	-3909
À	-3910
Á	-3911
Ø	-3912
à	-3913
è	-3914
ë	-3915
î	-3916
ñ	-3917
ô	-3918
û	-3919
Č	-3920
ł	-3921
ń	-3922
š	-3923
ɪ	-3924
Ε	-3925
Φ	-3926
ά	-3927
έ	-3928
η	-3929
κ	-3930
τ	-3931
І	-3932
А	-3933
Б	-3934
Г	-3935
Е	-3936
Ж	-3937
З	-3938
М	-3939
П	-3940
С	-3941
г	-3942
з	-3943
х	-3944
ц	-3945
ч	-3946
ш	-3947
щ	-3948
ъ	-3949
ы	-3950
ҫ	-3951
ב	-3952
ה	-3953
ו	-3954
נ	-3955
ע	-3956
ק	-3957
ת	-3958
ا	-3959
ب	-3960
س	-3961
ش	-3962
ع	-3963
و	-3964
ي	-3965
ک	-3966
ア	-3967
タ	-3968
ヤ	-3969
ル	-3970
ン	-3971
中	-3972
乐	-3973
体	-3974
国	-3975
城	-3976
娱	-3977
导	-3978
文	-3979
日	-3980
本	-3981
简	-3982
者	-3983
語	-3984
际	-3985
领	-3986
국	-3987
니	-3988
아	-3989
어	-3990
오	-3991
일	-3992
전	-3993
텔	-3994
한	-3995
호	-3996
